"	14115648
,	11838114
.	7801230
:	5160186
/	4775360
und	4695307
der	4540257
die	3991451
in	2785071
)	2438984
(	2402948
von	1899597
den	1733593
-	1686650
zu	1645323
er	1433917
ist	1374399
mit	1365686
s	1333339
für	1324589
t	1278317
20@@	1250340
das	1134732
auf	1133012
Sie	1109603
des	1107963
es	1016099
eine	971269
te	957051
e	944489
ein	908843
s@@	908839
im	897700
W@@	888735
Die	876171
d	856028
dem	830456
an	807288
S@@	806645
un@@	802449
-@@	779922
.@@	762838
sich	758733
a	745446
w@@	739621
nicht	727674
m	720845
k@@	714534
werden	708376
e@@	705337
1	695247
en	682725
er@@	665672
d@@	665062
ch	654452
g@@	647059
P@@	641537
ten	639693
um	635187
y	630991
t@@	622820
H@@	620589
sind	609010
M@@	600765
http	600421
n@@	592382
B@@	591143
16	589757
o	587031
p@@	585074
aus	579839
c@@	579160
ver@@	578238
f@@	570561
auch	560802
m@@	554144
de	553007
oder	550208
K@@	548717
wird	542579
als	538338
en@@	535823
an@@	514660
on	506455
h@@	505428
a@@	499837
b@@	498680
10	496905
G@@	496639
k	492657
dass	492426
?	489058
st@@	487734
o@@	482756
sie	481201
T@@	480831
F@@	479333
_	478728
i@@	467687
be@@	461734
wir	457539
einer	456345
i	455839
y@@	447086
in@@	446649
N@@	444637
2	441976
I@@	435415
l	433806
über	431550
L@@	431488
l@@	428211
An@@	427925
einen	427344
sch@@	425060
li@@	420095
+	417240
15	415696
ar@@	412892
ot@@	408690
!	407646
am	404509
D@@	403991
ge@@	399320
Das	396962
00	395968
hat	392261
r@@	389535
n	388582
g	387316
bei	387007
wie	380867
einem	379721
12	377596
€	375743
haben	373268
www.@@	369036
11	368602
Ver@@	365700
nach	359705
Der	358020
z@@	355426
St@@	354855
v@@	349734
zur	349590
ich	345504
J@@	341397
the	335962
u@@	332791
ur@@	331639
=	331572
and	329820
R@@	329446
%	329221
zum	327565
können	327181
7	326558
te@@	324611
di@@	324292
am@@	320469
A@@	319835
;	314458
was	311777
Sch@@	310674
Be@@	310500
3	310309
p	306311
'	305746
ein@@	303337
si@@	302397
O@@	300899
C@@	300851
E@@	299875
de@@	296515
ch@@	295027
ent@@	293608
so	293057
durch	292004
]	291467
ge	289135
14	288890
...	287114
re@@	286515
gen	286267
al@@	286043
j@@	285691
z	283977
bis	281931
mm@@	281803
es@@	280859
au@@	280830
or@@	280676
13	279463
Un@@	278090
.com	276919
ti@@	276588
ser@@	275475
17	275427
la@@	274293
on@@	274134
nur	272678
ab@@	271794
ma@@	271515
kann	271378
ü@@	267105
il@@	265354
[	264615
&	264492
“	263308
ter	260479
4	260407
ad@@	260324
at@@	260160
Aus@@	257329
aus@@	256254
>	255626
w	255405
20	255238
*	252894
19@@	252586
da@@	250471
st	249525
wurde	248647
ie@@	244691
C	244639
ä@@	242224
„	241264
vor	238672
V@@	237965
of	237900
#	236008
0	234431
mi@@	234138
Ab@@	232867
–	232403
Es	229696
den@@	229294
auf@@	229115
ste@@	228397
»	227448
h	226569
ei@@	225729
In	224368
ungen	223507
ung	222534
ir	222243
war	220736
nen	220706
aber	220617
b	219689
B	218201
man	216815
is	216505
ra@@	215966
ern	215527
5	214701
Re@@	214049
äch@@	213498
mehr	212759
lo@@	212406
Sp@@	211393
diese	210874
al	209000
sein	208708
M	207690
tel	207498
to	207357
zi@@	207336
Er@@	207164
ol@@	205246
Ein@@	204295
noch	202539
Ma@@	201624
alle	200377
3@@	199778
el@@	198217
et@@	197233
ger	196913
us@@	196508
sp@@	193935
wenn	193534
f	192488
at	191678
dieser	190977
le	190708
it@@	190143
ere	189484
18	188610
vom	188390
schen	188016
01	187156
r	186549
u	185880
schaft	185266
The	185255
Ho@@	184854
30	183933
07	183577
is@@	182746
el	181904
ed	180731
qu@@	180376
as	179958
19	179667
ho@@	179353
ck@@	179147
08	178825
ut@@	178092
In@@	177746
eb@@	177676
Z@@	177409
um@@	175481
tes	175375
6	175058
ly	174342
ir@@	174127
ar	173179
unter	172264
2@@	170800
c	170527
rei@@	169692
me	169130
ischen	169080
ht@@	168372
om@@	168054
ungs@@	167354
Po@@	166629
5@@	166232
ne	166011
sehr	165998
che	165859
eines	165464
wer@@	163818
ö@@	163456
09	163413
uns@@	163207
x	162906
21	161918
03	161608
ri@@	160970
gen@@	160383
ts@@	160381
lich	159796
zu@@	159447
02	158270
6@@	157781
04	156950
ter@@	156759
us	156532
hier	155679
22	155466
or	155384
os	154954
ation	154856
0@@	154579
05	153616
ber@@	153594
7@@	153511
ste	153502
8	153416
ul@@	152735
ob@@	152721
vor@@	151145
daß	150355
ck	149408
and@@	148618
über@@	148358
ts	148127
4@@	147867
sowie	147444
ro@@	147178
vi@@	146923
Zi@@	146742
ce	146148
06	145916
der@@	145618
unter@@	145522
9@@	145251
ko@@	144072
Al@@	143238
Vor@@	142320
as@@	142203
23	142092
gibt	141787
U@@	141574
Kon@@	141489
da	140487
ihre	139309
8@@	139228
op@@	139221
ab	138858
sche	138538
bi@@	138000
25	137350
le@@	137288
ten@@	135879
diesem	135384
all@@	134353
se	133502
Ihre	133437
März	133077
Ihnen	132904
ger@@	131613
stag	131368
«	131206
Li@@	131058
sch	129129
ex@@	128942
sa	128859
els	128516
elle	128319
lichen	128313
ac@@	128150
th@@	127041
cht	127008
Im	126906
ni@@	126658
tr@@	126362
Auf@@	126203
ur	125915
2009	125253
ag@@	124889
ph@@	124632
do@@	124234
Zeit	123238
De@@	122172
ta@@	122006
ver	121862
ing	121502
os@@	120790
tra@@	120306
zwischen	120254
sen	120140
Zu@@	120037
kommen	119964
ische	119826
sten	119520
eren	119475
Wenn	119455
ster	119300
Ge@@	118274
gt	117545
em@@	117431
e-@@	117110
nung	116954
dann	116932
A	116750
ihr	116465
anderen	116389
dieses	116113
Se@@	116104
elt	115137
eh@@	114994
Woh@@	114759
Ar@@	114689
24	114483
To@@	113776
2008	113746
se@@	113462
I	113442
9	113097
Mar@@	112876
not	112741
ne@@	112589
°	112424
ieren	112354
seine	111962
em	111738
liche	111590
Su@@	111315
Uhr	111127
immer	111000
ak@@	110981
ach@@	110084
chen	110027
Diese	109785
ut	109732
ges@@	109591
eu@@	109485
for@@	109206
wurden	109084
Kommission	109052
enden	108850
müssen	108668
lin@@	108523
tag	108343
keine	108247
af@@	107926
pro@@	107728
ale	107630
her@@	107488
Her@@	107340
finden	107108
x@@	106193
Y@@	105860
et	104624
fer@@	104238
Mit	103828
ange@@	103783
Au@@	102470
gel@@	102265
gi@@	102194
hab@@	102013
Jahr	101868
50	101643
ür@@	101370
1@@	101277
ent	101193
Seite	101007
tion	100806
ie	100801
net	100798
oli@@	100725
ine	100725
Ein	100645
kon@@	100416
art@@	100277
ser	100096
Fre@@	99260
age	99183
2007	99103
Da@@	99062
ali@@	98968
27	98908
all	98739
ster@@	98646
men	98448
zwei	98370
this	98300
Ã	98222
je@@	97760
26	97615
28	97495
Frei@@	97387
ken	96745
geb@@	96278
ert	95843
Unter@@	95779
gs	95602
neue	95558
Ta@@	95450
bietet	95148
ün@@	94771
Me@@	94767
no@@	94383
du	93790
Informationen	93501
ell@@	93342
Kom@@	93125
UT@@	92775
10@@	92720
ap@@	92609
ner	92239
Pro@@	92233
Jahre	92123
Menschen	92092
tung	92068
Bu@@	91726
fi@@	91393
ati@@	90986
we@@	90910
ke	90872
Bo@@	90811
gegen	90786
andere	90708
ve	90651
Nach@@	90609
Über@@	90486
ohne	90471
Aut@@	90141
end	90092
URL	89644
ort	89321
ah@@	89201
sta@@	89146
mo@@	88970
gesch@@	88759
damit	88596
ges	88548
ner@@	88420
pg	88409
kt	88207
fen	88179
wi@@	88101
con@@	88016
29	87919
ru@@	87856
zen	87679
Prä@@	87427
wieder	87225
Mon@@	87209
v	86924
seit	86891
Do@@	86769
men@@	86616
2006	86568
fo@@	86230
ende	86166
las@@	86029
stellen	85575
iert	84880
Win@@	84780
Qu@@	84609
Str@@	84597
hr@@	84542
heit	84525
40	84506
Jahren	84346
Rep@@	84345
Unternehmen	84186
Di@@	83775
31	83632
S	83632
Spiel@@	83596
lu@@	83478
lassen	83455
are	83447
-2@@	83148
Er	83126
by	82758
a.@@	82647
seiner	82645
F	82569
ess@@	82524
neuen	82512
Für	82459
fre@@	82238
geben	82198
49	82119
D	82084
na@@	82025
Eine	81889
AM	81838
cken	81728
ds	81463
sehen	81315
wor@@	81311
August	81296
be	81190
unden	81131
ön@@	81087
hi@@	81035
sten@@	81027
res@@	81015
ihrer	80989
X@@	80960
cur@@	80711
ber	80614
ft	80476
s-@@	80467
allen	80423
Gesch@@	80318
muss	80248
tet	80194
tigen	80146
bet@@	80060
ou	79925
kan@@	79787
ol	79696
Fer@@	79658
12@@	79594
og@@	79407
to@@	79212
ellen	79184
gr@@	79078
fe	78933
per@@	78791
co@@	78729
mit@@	78314
schaf@@	78300
Ro@@	78269
L	78121
ic@@	78120
ori@@	78025
wo	78017
sondern	77968
oh@@	77957
September	77764
ad	77506
<	77315
waren	77203
Par@@	77052
bar	76951
html	76907
18@@	76690
mir	76588
ier@@	76464
T	76454
Ba@@	76315
diesen	76259
nach@@	76200
Flu@@	76158
woh@@	76006
liegt	75532
Lin@@	75213
Sam@@	75212
machen	75208
Europäischen	75206
November	75070
ub@@	75013
bu@@	74998
Inter@@	74773
mes	74652
land	74374
00@@	74262
lei@@	74226
viele	74192
for	74128
war@@	73915
up@@	73902
str@@	73817
ass@@	73761
imm@@	73757
gh@@	73714
plat@@	73604
ens	73520
Mi@@	73504
one	73462
man@@	73388
ben	73332
sk@@	73028
100	72900
Ex@@	72850
Wor@@	72784
dies	72534
Ju@@	72533
gung	72501
kom@@	72420
2005	72419
sti@@	72229
O	72179
45	72047
ran@@	71872
stehen	71719
und@@	71383
ßen	71311
wil@@	71292
²	71254
P	71126
Rei@@	71063
ierung	70964
ß	70935
heute	70835
V	70826
fe@@	70810
Ger@@	70793
Ihr	70753
32	70740
Mit@@	70699
Gr@@	70648
Sa@@	70583
it	70559
pro	70506
Tra@@	70472
gut	70469
Entwicklung	70436
fast	70367
bereits	70300
nehmen	69981
är@@	69948
hatte	69755
ersten	69690
schon	69658
isch	69569
En@@	69514
tt@@	69367
ationen	69359
ment	69241
ep@@	69166
denen	68866
Tag	68847
Herr	68844
eiten	68592
eg@@	68290
selbst	68166
oll@@	68135
ung@@	68087
16@@	67814
jetzt	67736
gs@@	67734
á@@	67609
....	67548
bo@@	67380
ks	67378
ihren	67263
lage	67145
nis	66982
ka	66908
ganz	66565
gu@@	66514
gehen	66453
Ch@@	66231
Deutschland	65809
E	65806
hin@@	65641
War@@	65579
ov@@	65452
ehr@@	65426
ci@@	65286
Thi@@	65258
April	64981
33	64939
Europa	64938
stra@@	64806
th	64799
zer@@	64736
par@@	64594
einfach	64590
Personen	64483
mm	64422
Th@@	64382
Auf	64354
det	64229
Ber@@	64204
während	64125
35	64112
1.@@	63552
fahr@@	63473
Hei@@	63449
ob	63446
usi@@	63330
Artikel	63329
geht	63322
mer@@	63169
edi@@	63045
Fl@@	63036
viel	62990
lan@@	62988
ers	62940
Alle	62905
Um@@	62889
seinen	62861
erung	62856
2004	62755
jedoch	62748
esse	62746
Wie	62711
14@@	62709
So	62503
ihm	62497
Anzahl	62442
inter@@	62438
Von	62208
Geb@@	62148
Eur@@	62122
denn	62064
39	62046
wei@@	62021
Union	61727
ler	61562
ÿ@@	61511
alt	61474
ast	61436
of@@	61248
sa@@	61195
43	61192
ary	61114
Land@@	61069
34	61064
zen@@	61002
48	60954
verb@@	60925
41	60840
Gar@@	60755
a-@@	60698
bieten	60688
15@@	60687
13@@	60551
17@@	60536
su@@	60467
Bei	60411
bel@@	60394
wo@@	60370
Ur@@	60080
soll	60026
Nach	59908
beim	59835
Oktober	59822
Bereich	59702
Con@@	59613
dern	59606
Teil	59515
Mo@@	59408
drei	59396
o-@@	59371
EU	59278
ihn	59255
Daten	59217
ure	59159
Produkte	58920
Sta@@	58850
erhalten	58848
200@@	58848
tu@@	58780
Mai	58688
hei@@	58684
Was	58653
nt	58573
ok@@	58471
Ent@@	58327
Ap@@	58279
Nor@@	58268
EUR	58203
ett@@	58159
Bl@@	58063
fin@@	58043
”	58004
etwas	57974
Kar@@	57895
Hi@@	57883
Ges@@	57829
ausge@@	57680
end@@	57617
bar@@	57569
Art	57562
len	57483
min@@	57479
gang	57286
Ç@@	57215
Don@@	57183
cm	57147
üh@@	57091
sion	57046
ente	57003
kr@@	56976
mp@@	56940
sollte	56893
Rest@@	56837
nun	56808
1.	56729
Ser@@	56700
om	56492
Reg@@	56477
ill@@	56470
Eng@@	56467
po@@	56377
La@@	56376
Son@@	56302
Hand@@	56196
pri@@	56105
gar@@	56097
alles	55867
Ti@@	55851
tin@@	55828
tern	55724
ast@@	55715
haf@@	55711
ihnen	55679
Chr@@	55670
bin	55650
fu@@	55623
äu@@	55608
36	55532
weil	55487
dazu	55372
44	55357
Pla@@	55317
stellung	55304
Dies	55183
tige	55168
einige	55164
lung	55150
Ter@@	55083
pp@@	54855
ted	54850
Co@@	54819
alen	54803
weiter	54773
tri@@	54691
steht	54672
2.@@	54642
reise	54619
isch@@	54591
For@@	54590
hal@@	54557
G	54486
Br@@	54469
mu@@	54133
möglich	54065
Leben	54050
W	54025
ps	53946
cher	53879
Grund@@	53834
So@@	53812
Dat@@	53629
alt@@	53557
Juni	53370
nungen	53243
zeit	53192
fl@@	53103
Bi@@	53077
fro@@	53071
ma	53020
ör@@	53018
zeigen	52997
lagen	52952
est@@	52810
Si@@	52756
line	52755
cal@@	52716
kt@@	52699
sen@@	52607
ze	52590
Fri@@	52535
ec@@	52498
Auch	52495
Ort	52468
ff@@	52411
hand@@	52388
rech@@	52381
ell	52369
har@@	52316
Vi@@	52281
…	52254
deut@@	52197
ef@@	52122
Lage	52087
bringen	52074
fa@@	52035
ven@@	51972
Kinder	51969
Arbeit	51954
42	51921
kommt	51886
iel	51842
tischen	51803
ate	51725
Ko@@	51701
Jahr@@	51685
möchte	51581
Le@@	51532
Gel@@	51341
befindet	51332
Haupt@@	51324
ech@@	51285
Juli	51272
Pri@@	51263
arbeiten	51190
entfernt	51185
also	51160
ari@@	51129
mar@@	51053
fri@@	51031
du@@	51018
Als	50999
Land	50980
enk@@	50962
stand	50839
38	50833
Vol@@	50786
Kli@@	50765
R	50712
Or@@	50658
eben	50647
Ende	50639
mon@@	50606
$	50583
Poli@@	50571
weitere	50564
Rech@@	50547
Ihren	50522
ins	50483
Men@@	50470
ott	50408
Fin@@	50338
Te@@	50237
37	50063
Kü@@	50062
erk@@	49946
me@@	49819
Arbeits@@	49768
so@@	49752
allem	49690
dr@@	49684
under@@	49469
anti@@	49455
g-@@	49413
Kun@@	49320
än@@	49265
ja	49255
fer	49240
25@@	49209
11.@@	49204
her	49081
onen	49077
großen	49061
Ri@@	49054
welche	49027
Wer@@	49002
55	48959
’	48887
en-@@	48882
scher	48805
führ@@	48766
art	48672
46	48665
Bür@@	48641
cke	48600
Mitgliedstaaten	48587
dabei	48530
ort@@	48493
bewer@@	48449
Rahmen	48417
eng@@	48362
mel@@	48260
Ru@@	48182
d-@@	48040
licher	47962
br@@	47956
No@@	47954
ichte	47933
Neu@@	47862
52	47832
Bild	47787
sagen	47629
Fahr@@	47613
Vide@@	47605
ich@@	47566
Beispiel	47565
per	47544
zeu@@	47488
On@@	47485
große	47438
deren	47253
würde	47215
Verfügung	47198
wa@@	47188
masch@@	47159
Internet	47129
los	47126
ID	47125
hof	47094
alten	47084
siert	47080
60	47045
Dan@@	46944
Jo@@	46877
ba@@	46770
via	46695
ien@@	46665
dan@@	46655
doch	46628
rau@@	46607
ct	46511
Man@@	46446
Wei@@	46300
eri@@	46281
mal	46268
spr@@	46186
pe	46160
Um	46150
59	46138
Kri@@	46040
12.	46028
Weg	46021
erste	45950
ack@@	45851
54	45842
ess	45839
ron@@	45818
Website	45813
Europäische	45805
Lei@@	45793
dar@@	45746
ome	45699
wirtschaf@@	45616
56	45595
Telef@@	45561
ück@@	45490
sil@@	45481
Frau	45355
Ad@@	45344
51	45269
Wa@@	45269
direkt	45248
tig	45184
Geschäfts@@	45176
47	45121
gl@@	45105
Da	45039
oc@@	45025
go@@	44999
del	44995
ce@@	44870
pl@@	44790
Ihrer	44756
letzten	44654
com@@	44647
Tel	44616
kl@@	44598
ca.	44577
pf@@	44543
halten	44532
ker	44477
darauf	44418
wollen	44409
ei	44144
ment@@	44107
aller	43929
oren	43907
ation@@	43889
sollten	43880
gew@@	43877
verschiedenen	43867
ebe	43742
El@@	43666
53	43666
\	43625
kte	43557
lau@@	43552
57	43523
27@@	43506
gro@@	43493
Bericht	43412
au	43403
9.	43381
bl@@	43297
Nähe	43274
ater	43265
Rat	43245
Is@@	43241
USA	43195
Mark@@	42971
durch@@	42952
he@@	42936
eigenen	42902
Ob@@	42881
tz@@	42872
sh@@	42816
erg@@	42811
essen	42795
mer	42658
Ziel	42647
do	42635
ations@@	42600
ban@@	42585
seinem	42569
ue	42558
ren@@	42525
schaften	42344
GmbH	42305
Gen@@	42286
gener@@	42278
30@@	42244
ca	42217
enz	42192
Januar	42157
Frage	42152
stellt	42133
Gesell@@	42117
län@@	42074
oftware	42068
Sti@@	42065
N	42034
3.@@	42013
58	41997
é@@	41924
pres@@	41886
with	41882
trag	41866
leben	41799
dy@@	41787
Person	41776
kein	41748
worden	41675
ens@@	41657
gelbe	41652
tun	41636
Version	41633
stell@@	41629
gef@@	41621
2003	41589
ern@@	41570
ard	41556
Com@@	41517
tion@@	41458
innerhalb	41453
moder@@	41414
oni@@	41384
dafür	41368
Kat@@	41327
K	41284
Fall	41259
H	41212
ated	41163
gel	41100
pen@@	41051
Am	41026
macht	41018
ß@@	41000
dert	40987
gan@@	40941
tei@@	40918
Por@@	40915
Du@@	40904
Per@@	40851
europäischen	40828
tete	40732
..	40709
ek@@	40696
80	40682
.org	40499
tlichen	40468
han@@	40436
Bli@@	40432
Ac@@	40417
We@@	40365
sel@@	40321
System	40286
äl@@	40284
dort	40270
dung	40267
äf@@	40252
ule	40240
ons@@	40187
ums	40184
spiel@@	40151
tische	40147
Kir@@	40144
hin	40142
4.@@	40137
.0@@	40113
¼	40113
11.	40077
new	40071
Dezember	40068
Namen	40038
gin@@	40011
la	39982
Bal@@	39951
Berlin	39867
Lie@@	39845
08@@	39762
gest@@	39739
lichkeit	39704
off@@	39682
aten	39677
Pal@@	39663
Dieses	39646
besteht	39606
tik@@	39481
dar	39426
kunft	39426
olitik	39383
Gew@@	39383
sich@@	39337
des@@	39334
Break@@	39276
Lan@@	39275
bereich	39216
Ö@@	39187
vielen	39138
fil@@	39129
10.	39090
eln	39080
dessen	39052
pla@@	39029
tik	39028
12.@@	39016
suchen	38954
uren	38928
ot	38896
Daten@@	38875
uss@@	38769
mor@@	38721
sei	38719
tungen	38710
zusammen	38679
t-@@	38677
Ergebnisse	38656
Hol@@	38653
führen	38557
kri@@	38531
ist@@	38469
Hoch@@	38439
Fragen	38413
Möglichkeit	38385
beiden	38344
zeich@@	38243
Bes@@	38205
EU-@@	38201
ers@@	38115
Fir@@	38087
Am@@	38083
sierung	38027
Zusammenarbeit	38016
ien	38010
od@@	37996
0.@@	37984
etwa	37909
Maßnahmen	37903
Programm	37901
Produ@@	37888
tieren	37884
ha@@	37862
kten	37833
gestellt	37828
Gi@@	37803
90	37802
ing@@	37799
pi@@	37798
sin@@	37766
öh@@	37743
davon	37734
Kur@@	37713
cht@@	37671
Star@@	37626
Kap@@	37620
tionen	37600
Fr@@	37554
hoch@@	37524
jeder	37523
•	37519
s.@@	37484
stri@@	37439
Mus@@	37430
eter	37416
az@@	37389
Inv@@	37363
Bei@@	37362
Pa@@	37348
com	37244
U	37235
einmal	37229
erte	37155
Weise	37140
Unterstützung	37129
ord@@	37108
er-@@	37069
he	37047
Go@@	37040
Bar@@	37022
voll@@	37015
besonders	37003
äd@@	36948
Sei@@	36872
yp@@	36862
aufen	36815
Region	36804
aut	36774
ents	36763
Sicherheit	36734
insbesondere	36720
stu@@	36651
Rück@@	36624
Dien@@	36604
unde	36519
ft@@	36512
ct@@	36494
gleich	36492
günsti@@	36486
App@@	36405
Service	36374
system	36338
kli@@	36257
Steu@@	36241
Qualität	36143
Schlaf@@	36137
y-@@	36121
oft	36111
enen	36096
3-@@	35954
rn	35953
fr@@	35941
Seiten	35922
Wasser	35913
Veran@@	35870
9-@@	35870
Res@@	35866
co	35866
erreichen	35823
Zeit@@	35791
wissen	35732
Tex@@	35713
nisse	35635
Ban@@	35613
tlich	35588
2.	35583
sig@@	35517
Lu@@	35480
Köni@@	35478
5.@@	35473
je	35467
ev@@	35453
vier	35415
Problem	35390
Parlament	35359
Tage	35322
bitte	35219
gebo@@	35179
Regi@@	35126
tin	35112
bzw.	35090
net@@	35074
av@@	35002
rant	34945
He@@	34941
10.@@	34909
uni@@	34899
Arch@@	34893
Februar	34837
Dieser	34815
Ländern	34806
di	34743
Zei@@	34740
Ihrem	34683
isten	34681
Immobili@@	34612
gemacht	34597
raum	34536
meisten	34507
tl@@	34506
Besu@@	34499
ken@@	34473
Fe@@	34460
sowohl	34450
halt	34439
bau@@	34425
chten	34422
chen@@	34367
Bro@@	34359
Thema	34343
tigung	34342
sag@@	34308
New	34261
din@@	34251
Mehr	34235
Pi@@	34226
ze@@	34219
Woche	34162
agen	34152
Minuten	34080
möchten	34064
ischer	34057
ton	34056
07@@	34004
bt	34002
weniger	33992
Bil@@	33963
At@@	33962
äre	33959
erst	33953
Zentrum	33883
zurück	33819
here	33813
bau	33803
besten	33720
D-@@	33719
Welt@@	33704
zei@@	33697
Platz	33695
internationalen	33691
Gu@@	33588
kun@@	33587
Fü@@	33521
sion@@	33506
Wasser@@	33493
Dem@@	33492
esen	33480
verwendet	33453
6-@@	33376
form@@	33368
reich@@	33340
econ@@	33338
tragen	33310
Name	33243
zeit@@	33220
Q@@	33207
aub@@	33173
öff@@	33147
Pr@@	33124
fan@@	33122
Kr@@	33120
tex@@	33099
Kl@@	33068
10-@@	33036
mini@@	33033
q@@	32994
sollen	32993
ätz@@	32965
etz@@	32965
gten	32949
Form	32875
eite	32867
Geh@@	32863
Fran@@	32858
Lo@@	32850
wäre	32848
tal	32837
form	32826
weit	32791
kti@@	32787
lit@@	32767
Schul@@	32722
griffe	32717
ihrem	32711
50@@	32704
Car@@	32692
ät@@	32686
gabe	32677
Stra@@	32652
Tre@@	32619
{	32615
ide@@	32580
statt	32576
Hilfe	32567
All@@	32539
prä@@	32525
mb@@	32507
enten	32501
tel@@	32499
sel	32479
12-@@	32464
Sol@@	32451
70	32422
tic@@	32409
Wirt@@	32406
Gei@@	32388
est	32356
-C@@	32347
wirklich	32331
sieren	32321
esti@@	32296
-H@@	32289
fahren	32244
lange	32243
gute	32239
ote	32130
gend	32128
Kan@@	32097
sam@@	32090
erh@@	32067
t.@@	32056
gte	32045
burg	31974
wer	31969
bare	31953
ef	31918
Fehl@@	31917
4-@@	31897
ss@@	31831
lungen	31822
24@@	31818
Fax	31814
aler	31743
Som@@	31723
ender	31706
wür@@	31695
gegeben	31681
bil@@	31675
liegen	31659
bel	31614
200	31563
5-@@	31560
Durch	31541
utz@@	31537
tliche	31511
ckt	31452
schen@@	31445
Ni@@	31406
zurück@@	31383
6.	31370
Mittel@@	31364
wegen	31332
Koll@@	31326
zusammen@@	31320
spielen	31318
our@@	31293
sicher	31288
berg	31248
gern	31231
zer	31228
let@@	31204
konnte	31202
nichts	31105
omi@@	31100
Chin@@	31098
Gemein@@	31097
rund	31095
üt@@	31091
king	31078
amb@@	31070
tan@@	31061
Luft@@	31026
treten	30953
jeden	30944
ki@@	30931
Stand@@	30917
uter	30909
Dar@@	30906
autom@@	30905
Rechts@@	30879
könnte	30866
setzen	30860
ene	30854
Kre@@	30835
amp@@	30830
Doppel@@	30811
Sh@@	30810
.c@@	30805
z.B.	30784
@	30781
wirt@@	30772
Gruppe	30767
Ä@@	30765
ül@@	30747
del@@	30724
45@@	30709
gegenüber	30676
tur	30664
lang	30657
schnell	30643
Char@@	30627
Bet@@	30600
Eigen@@	30596
kre@@	30545
chte	30541
anzu@@	30531
führt	30516
befinden	30477
Bitte	30459
gkeit	30446
hatten	30436
fra@@	30419
Millionen	30407
star@@	30402
Hau@@	30387
Comp@@	30380
San	30306
zwei@@	30289
einge@@	30253
La	30241
Bedeutung	30225
wit@@	30224
tigkeit	30195
S.	30171
}	30167
Ide@@	30109
Ben@@	30101
Unterneh@@	30076
neu@@	30072
2000	30055
findet	30050
ähr@@	30042
Mini@@	30036
New@@	29998
able	29947
stan@@	29946
regi@@	29945
voll	29890
Bilder	29877
sozi@@	29875
The@@	29863
Zukunft	29842
altung	29838
Medi@@	29835
Dis@@	29828
Fi@@	29811
inn@@	29686
Na@@	29667
chung	29664
1-@@	29638
teil	29585
verk@@	29578
Mor@@	29572
daher	29541
ismus	29510
kleinen	29500
lik@@	29497
AG	29483
zeigt	29481
tiert	29419
Besch@@	29387
teten	29359
dien	29332
A-@@	29325
9.@@	29309
viel@@	29305
hinaus	29299
Gra@@	29253
dex@@	29247
Energie@@	29213
Einzel@@	29197
bac@@	29171
sionen	29161
36@@	29142
gab	29139
urg	29129
info	29106
23@@	29106
28@@	29082
ty	29078
mann	29050
Europ@@	29040
ed@@	29036
rasse	29029
sogar	29019
stern	29007
Rolle	28989
stellungen	28985
Leu@@	28978
Frauen	28957
ierte	28957
Ste@@	28945
Stunden	28944
Park@@	28937
enn@@	28919
num@@	28918
rin@@	28887
land@@	28878
Ka@@	28864
kam	28853
Schl@@	28843
ven	28815
min	28815
Gl@@	28798
Projekt	28796
CH@@	28789
ben@@	28772
stelle	28730
eller	28719
Weitere	28707
lungs@@	28673
Farb@@	28646
dir	28645
lose	28643
span@@	28635
pr@@	28626
verschiedene	28572
na	28568
recht	28523
wählen	28519
spro@@	28517
Germany	28488
8.@@	28416
Zu	28412
gilt	28393
entwickelt	28389
ments	28388
genau	28376
Ne@@	28361
druck@@	28355
Fu@@	28349
wichtig	28256
indem	28254
besser	28250
kleine	28240
Länder	28230
Sozi@@	28217
oben	28217
folgenden	28197
ra	28193
mis@@	28189
Familie	28172
Stu@@	28153
Sal@@	28145
13.	28086
arbeitet	28069
Staaten	28057
sei@@	28009
Pre@@	27996
gefunden	27994
Fach@@	27983
ative	27976
000	27974
Fel@@	27947
Wi@@	27936
bekannt	27923
richten	27821
Probleme	27815
liches	27797
IN@@	27793
darüber	27748
ging	27732
©	27724
san@@	27718
fes@@	27679
Zwei@@	27664
p-@@	27634
ans	27610
og	27605
Lebens@@	27603
ise	27601
bli@@	27563
re	27524
Sy@@	27523
Bri@@	27503
Richtung	27476
träge	27472
35@@	27429
ganze	27393
37@@	27359
ca@@	27331
punkt	27318
®	27273
leb@@	27249
Tri@@	27245
schl@@	27223
tigt	27220
miss@@	27183
che@@	27161
ant	27138
tiv@@	27122
top@@	27109
win@@	27091
uch	27088
geh@@	27074
76	27017
Nr.	26974
AN	26954
zentrum	26932
Frankreich	26917
í@@	26834
gerade	26826
natürlich	26821
kin@@	26795
Finanz@@	26783
zin@@	26777
-W@@	26776
un	26755
Markt	26738
2002	26733
-P@@	26689
helfen	26686
ahl@@	26642
500	26629
Dr.	26617
Nacht	26615
Bad	26575
ebenfalls	26530
dien@@	26520
bei@@	26503
bleiben	26482
Ph@@	26475
ll@@	26459
gehört	26406
gungen	26405
comp@@	26404
reis@@	26382
innen	26368
75	26361
zwar	26355
techni@@	26341
eti@@	26338
od	26338
Gro@@	26327
öl@@	26326
3.	26316
verfügt	26315
spor@@	26303
Einsatz	26265
ys	26263
öffentlichen	26212
sor@@	26205
baren	26176
schi@@	26176
gleich@@	26157
Italien	26157
gleichen	26155
lat@@	26155
ette	26153
ktions@@	26147
zep@@	26133
Pan@@	26130
Dienstleistungen	26129
Aus	26102
handelt	26068
hervor@@	26034
11-@@	26027
enz@@	26017
hen	26005
ganzen	25990
Anwendung	25971
rach	25969
nutzen	25969
steu@@	25961
zeige	25956
ernen	25937
unterstützt	25913
San@@	25909
ktionen	25905
Man	25887
Hand	25874
sicht	25867
frei	25863
lie@@	25832
Lux@@	25830
kosten	25809
weltweit	25799
aren	25796
99	25782
Sc@@	25768
nächsten	25749
ta	25748
ks@@	25736
ander@@	25728
gele@@	25727
Umwelt@@	25708
Verbindung	25707
Bel@@	25696
alog	25662
ität	25636
Höhe	25631
ind@@	25600
Mod@@	25545
sit@@	25494
grün@@	25493
angeb@@	25486
ia	25470
ang	25466
te-@@	25431
Lösung	25430
Ha@@	25377
Ra@@	25364
X	25363
Sin@@	25359
Ak@@	25346
Wirtschafts@@	25343
ermöglicht	25339
fragen	25327
stall@@	25326
Pos@@	25325
Grund	25278
08.@@	25264
fort@@	25230
weise	25220
dri@@	25203
-M@@	25193
,@@	25181
nimmt	25153
ase	25150
ters	25147
jede	25146
ST@@	25138
dlich	25133
UN@@	25116
Produkt	25112
va	25072
dor@@	25046
ff	25019
ös@@	25011
tungs@@	24989
Mitarbeiter	24979
Webseite	24967
Har@@	24963
Karte	24957
EP@@	24955
ww@@	24948
Entscheidung	24939
ear@@	24936
mens	24928
olu@@	24927
ath@@	24924
gem@@	24921
ets	24858
herr@@	24831
inen	24808
ligen	24799
ziehen	24798
enn	24786
bre@@	24773
ils	24747
Zum	24737
ktor	24678
Umgebung	24662
zw@@	24647
Natur@@	24635
einzi@@	24631
Schweiz	24616
weiter@@	24608
bedeutet	24591
griff	24537
alter	24530
sub@@	24528
ting	24523
ance	24522
7.@@	24473
erten	24388
65	24377
itali@@	24366
best@@	24324
ktion	24273
unterstützen	24243
2-@@	24239
fel@@	24203
frei@@	24199
Auswahl	24180
¤	24180
gende	24140
bes@@	24136
kur@@	24120
HER@@	24114
jedem	24112
Kosten	24079
6.@@	24079
nes	24074
85	24063
sicher@@	24057
Natur	24026
lich@@	24024
Studi@@	24024
insgesamt	24010
Loc@@	24010
keinen	24009
2001	24000
go	23998
Seit	23989
Mal@@	23989
ana	23988
Inhalt	23929
Kunst@@	23924
Zugang	23901
Wil@@	23874
tem	23864
ungsp@@	23857
Amer@@	23840
Innen@@	23822
Pu@@	23821
enzen	23807
line-@@	23797
versch@@	23787
E-@@	23771
stand@@	23755
Dor@@	23720
eg	23717
tage	23695
auszu@@	23687
werk	23684
Nut@@	23684
bedingungen	23680
za	23677
fort	23664
nten	23655
PD@@	23650
leicht	23645
lässt	23635
welt@@	23633
äude	23630
mat	23630
sprechen	23620
no	23612
wenig	23606
Proje@@	23605
Früh@@	23597
Mal	23591
Auß@@	23586
führung	23580
ank@@	23560
mod@@	23551
Zusammenhang	23516
Design	23511
ins@@	23502
89	23500
nte	23499
Bild@@	23499
por@@	23484
licht	23446
IS@@	23433
testen	23406
AT@@	23402
ust	23398
de-@@	23383
Fil@@	23366
tem@@	23363
schul@@	23360
Imp@@	23340
jahr	23336
Reihe	23335
legen	23311
ßt	23269
va@@	23256
Datum	23245
Schw@@	23241
zier@@	23231
29@@	23230
Verfahren	23228
Verb@@	23222
auer	23208
cyc@@	23208
Raum	23201
anz	23199
enh@@	23192
dition@@	23186
tä@@	23178
op	23174
hol@@	23168
ons	23148
Techn@@	23134
ore	23132
id	23128
neu	23117
Sprache	23117
ding	23107
daran	23071
Zur	23052
daten	23043
eli@@	23040
Min@@	23020
tre@@	23017
feld	23016
Liste	22991
reisen	22982
vers@@	22955
neben	22951
Kontakt	22929
bung	22927
Sonnen@@	22914
integr@@	22905
Schutz	22897
lesen	22896
wis@@	22873
nam@@	22857
einigen	22848
Prin@@	22839
7-@@	22828
mehrere	22816
ologie	22787
Universität	22766
gehören	22728
Wissenschaf@@	22726
kar@@	22699
weiteren	22658
Jun@@	22656
ve@@	22651
Dann	22635
enti@@	22628
Camp@@	22624
würden	22616
Spanien	22586
hl@@	22586
Produkt@@	22585
post@@	22579
muß	22567
An	22550
up	22550
weg	22535
oti@@	22504
nie	22495
Kinder@@	22486
91	22460
nen@@	22455
schwer@@	22453
teilen	22437
Erfahrung	22429
é	22415
Tur@@	22404
Yor@@	22388
org	22382
mus@@	22380
stet	22369
can	22364
ück	22357
fest	22351
tät	22307
mei@@	22303
verwenden	22285
EN	22255
-A@@	22252
get	22216
aufgrund	22213
cien@@	22213
Möglichkeiten	22211
20.	22195
4.	22195
schutz	22171
eten	22138
ain	22118
fun@@	22114
Größe	22105
04@@	22105
ses	22060
Wun@@	22055
jedes	22024
genommen	22020
folgen	21995
hä@@	21985
setzt	21984
Ster@@	21980
erreicht	21967
mischen	21959
Beschreibung	21950
zug	21947
ierten	21935
64	21934
Tu@@	21926
Pe@@	21925
Deta@@	21916
S-@@	21912
zahlen	21892
mal@@	21886
vier@@	21878
ret@@	21869
teil@@	21866
fü@@	21864
Mio.	21861
pa@@	21838
Groß@@	21813
satz	21791
schw@@	21766
on-@@	21756
Kor@@	21736
ales	21729
sagt	21715
zeichnet	21683
ces	21672
300	21668
stre@@	21667
später	21664
Nutzung	21646
bereit	21637
rä@@	21614
Markt@@	21610
Gebiet	21584
Inno@@	21572
Fest@@	21562
Viel@@	21556
gesagt	21546
egen	21524
Druck@@	21524
ße	21520
Während	21518
eigene	21506
Sicherheits@@	21504
Sach@@	21492
Can@@	21480
wir@@	21464
bri@@	21463
abge@@	21461
E-Mail	21459
Ebene	21457
schutz@@	21447
Team	21444
ant@@	21443
88	21442
Bedingungen	21441
sucht	21437
begr@@	21436
DL@@	21435
Mann	21432
Produktion	21427
asti@@	21415
betr@@	21400
mt	21392
95	21383
wert	21383
ini@@	21364
glob@@	21342
d.@@	21340
gungs@@	21307
Zahl	21299
Ergebnis	21285
atisch	21284
erlaubt	21241
Ev@@	21238
mat@@	21215
alli@@	21197
dis@@	21196
decken	21184
....@@	21184
isches	21182
folgende	21182
nungs@@	21123
que	21119
Anfang	21112
siehe	21095
trei@@	21093
wle@@	21090
sieht	21078
asi@@	21040
26@@	21040
einzelnen	21037
400	20986
Bra@@	20981
Din@@	20956
Gast@@	20947
·	20947
arten	20929
hohe	20919
Bü@@	20913
Ven@@	20907
kultur@@	20888
ame	20886
Wert	20876
stin@@	20871
zü@@	20860
Instrum@@	20853
ausgestattet	20853
vo@@	20850
ties	20849
bekommen	20847
fran@@	20841
pen	20840
weiß	20835
Chan@@	20823
US	20808
phot@@	20808
Mehr@@	20791
Bundes@@	20773
ä	20773
deutlich	20769
nete	20759
mil@@	20755
fünf	20749
solche	20746
volle	20691
bleibt	20677
Cas@@	20677
Adr@@	20676
genden	20659
Verwendung	20652
bew@@	20650
zö@@	20640
Pl@@	20638
Gri@@	20631
dur@@	20606
epti@@	20605
kor@@	20599
ace	20559
stru@@	20553
ory	20549
etw@@	20542
lieb@@	20512
SP@@	20496
Forschung	20478
Gemeinschaft	20476
sta	20474
bah@@	20471
ruhi@@	20459
gebracht	20456
assen	20447
fest@@	20441
eher	20438
wand@@	20418
Kin@@	20413
pre@@	20388
j	20367
ese	20354
ats@@	20349
deshalb	20346
gn@@	20343
wohl	20324
iss@@	20317
Herzen	20271
car@@	20241
abe@@	20218
Montag	20209
use	20208
Bereichen	20192
Partner	20189
los@@	20176
medi@@	20155
Gal@@	20143
Y	20133
esi@@	20120
hil@@	20105
geführt	20082
Span@@	20081
gl	20077
Antwort	20055
Richtlinie	20037
15.	20032
darin	20016
ücke	19995
ach	19993
enthält	19987
internationale	19976
äs@@	19961
ig@@	19951
8-@@	19940
il	19936
Voll@@	19928
zentr@@	19925
gien	19917
1,@@	19905
tig@@	19888
Entwicklungs@@	19878
Den	19866
gesamten	19862
oft@@	19854
weisen	19851
Lösungen	19851
reg@@	19849
blick	19848
ativen	19838
Situation	19832
Tr@@	19827
Verkehr@@	19785
Energie	19782
oten	19782
Met@@	19743
ktion@@	19739
RE@@	19715
kün@@	19690
0,@@	19689
Prozent	19685
atischen	19656
79	19652
Benutz@@	19652
schnit@@	19650
hör@@	19649
15-@@	19638
Anfrage	19626
Über	19624
brauchen	19595
sozialen	19589
gsten	19588
gän@@	19585
weiterhin	19583
atin@@	19577
Zentr@@	19565
Grundlage	19563
ns@@	19557
22@@	19557
atische	19538
Tages@@	19529
ard@@	19490
É	19481
wichtige	19450
richt	19449
ER@@	19447
ober	19443
enthalten	19440
100@@	19430
Gesamt@@	19428
ade	19425
ziert	19419
gemeinsam	19391
hohen	19389
sches	19378
Zer@@	19378
klar	19362
vielleicht	19353
Bezug	19341
Hel@@	19341
Trans@@	19335
setzung	19332
hr	19332
imp@@	19309
Schritt	19301
aria	19301
organi@@	19299
Anforderungen	19289
01.@@	19280
Han@@	19273
Aktivitäten	19270
Fen@@	19268
amm@@	19261
the@@	19259
stat@@	19242
schafts@@	19229
Dabei	19223
verfügbar	19205
Net@@	19203
Betr@@	19184
Nur	19181
Frühstück	19131
Damit	19120
enter	19113
erst@@	19105
Wahr@@	19099
hau@@	19096
folgt	19085
61	19085
Außerdem	19082
fach@@	19076
affe@@	19072
Vorschlag	19070
Industri@@	19064
Mittel	19050
Mass@@	19039
Sar@@	19035
zweiten	19020
neten	19013
Zusammen@@	19000
B-@@	18987
onal	18981
treffen	18960
Umsetzung	18956
Mag@@	18955
Selbst@@	18950
kat@@	18931
nationalen	18914
Ku@@	18907
uten	18889
90@@	18883
sofort	18878
DE	18868
Mitglieder	18840
gebiet	18840
Letz@@	18830
Pres@@	18815
hält	18813
ände	18805
o.@@	18802
Ober@@	18799
wichtigsten	18792
International	18782
Kult@@	18775
Plan@@	18769
Beru@@	18749
olle	18744
Paris	18740
ebenso	18733
sprache	18724
Verf@@	18722
Pra@@	18717
Projekte	18709
Augen	18692
sy@@	18681
son@@	18681
tan	18674
Kal@@	18663
Interesse	18656
Hal@@	18646
paar	18645
Inf@@	18642
Wahl	18639
aufgenommen	18637
legt	18637
unten	18636
rich@@	18621
hop	18614
Nieder@@	18595
dete	18586
AR@@	18583
ald	18580
frage	18574
BE@@	18570
zeiten	18569
ändern	18565
US@@	18559
86	18553
Ton@@	18533
16.	18533
Komp@@	18528
ht	18513
72	18513
gesehen	18511
ige	18508
enan@@	18499
EN@@	18493
Col@@	18490
seln	18485
Haus@@	18479
Ziel@@	18456
Je@@	18456
ieb	18434
qui@@	18411
Integr@@	18409
sph@@	18398
Beitrag	18390
vel	18385
ile	18383
Vor	18371
Uni@@	18361
wahr@@	18359
AN@@	18356
22.	18342
tiges	18330
heiten	18312
spielt	18297
hö@@	18296
komp@@	18290
kam@@	18288
offen	18285
hän@@	18274
arbei@@	18271
chs@@	18269
ke@@	18256
met@@	18223
tro@@	18220
gleichzeitig	18215
5.	18214
Vorteile	18212
Ó@@	18201
Film	18188
Heu@@	18183
orti@@	18170
hätte	18169
tsp@@	18155
amerikan@@	18151
europäische	18129
tritt	18123
groß@@	18115
ember	18115
Erfolg	18109
mark@@	18093
vollen	18088
25.	18082
Erd@@	18081
39@@	18077
ling	18076
scht	18075
ss	18074
C-@@	18060
eit	18055
—	18055
verw@@	18054
einzu@@	18049
71	18036
cre@@	18031
17.	18030
69	18030
fall	18016
affen	18011
wel@@	17991
Hin@@	17987
Form@@	17983
05@@	17981
konnten	17970
erin	17964
veran@@	17958
anderer	17956
Ca@@	17953
glich	17945
81	17936
ker@@	17936
84	17923
Text	17909
Gegen@@	17892
Ú@@	17892
Monat	17887
g.@@	17884
rechts	17880
24.	17878
ow@@	17865
int	17859
ren	17851
bur@@	17843
in-@@	17826
Wis@@	17823
Dec@@	17820
Indi@@	17817
Â@@	17816
uss	17815
tions@@	17811
Des@@	17810
ml@@	17809
trans@@	17806
Z	17805
fläche	17782
gra@@	17774
73	17774
m2	17765
Kategorie	17763
spiel	17757
Tagen	17756
Opti@@	17750
fen@@	17744
bringt	17741
Mei@@	17739
belieb@@	17730
Funktion	17729
zahl@@	17726
al-@@	17724
Betriebs@@	17723
erl@@	17721
Republik	17714
zon@@	17694
schluss	17675
glau@@	17662
Länge	17655
ose	17653
seines	17650
nor@@	17645
wär@@	17631
Mitglied	17630
Meter	17625
leu@@	17623
möglichkeiten	17613
Wien	17597
darf	17593
Bon@@	17592
dürfen	17573
ständi@@	17567
66	17561
täten	17552
rit@@	17543
guten	17518
As@@	17518
auen	17505
Kons@@	17501
künfte	17494
gkeiten	17490
77	17487
fol@@	17485
produ@@	17454
meinen	17449
ors	17418
ption	17415
Themen	17409
ns	17383
Val@@	17376
flu@@	17375
aufge@@	17365
erv@@	17363
heraus@@	17353
68	17352
Geschäf@@	17337
62	17335
Tel@@	17323
hist@@	17315
allerdings	17312
beispielsweise	17311
öffnen	17311
grund@@	17306
Titel	17304
Ziele	17301
Farbe	17295
systeme	17278
mittel	17277
60@@	17273
formen	17265
Che@@	17262
2,@@	17244
nei@@	17225
Arbeit@@	17223
stark	17221
kap@@	17212
pt@@	17207
spricht	17197
Ren@@	17186
Pers@@	17179
erforderlich	17177
21.	17170
arbeit	17170
Kam@@	17165
Neben	17163
oi@@	17163
eigen@@	17162
Pf@@	17159
München	17158
falls	17157
besch@@	17154
Kraft	17151
langen	17134
dam	17131
somit	17130
lag	17117
Log@@	17116
18.	17111
teile	17104
zept	17100
ms	17093
67	17092
Pau@@	17090
Jahres	17075
.000	17028
smus	17022
heißt	17014
empfohlen	17011
ware	17006
app@@	16991
ak	16985
bauen	16980
r.@@	16979
Febru@@	16978
CO@@	16956
B.	16954
aut@@	16953
Bot@@	16941
02@@	16932
gre@@	16920
erkennen	16881
erweiter@@	16881
stei@@	16877
kg	16875
mittel@@	16873
ga	16868
82	16822
Stand	16820
ko	16807
heu@@	16805
verfügen	16776
hel@@	16766
GM@@	16763
gar	16759
empfehlen	16759
notwendig	16756
tens	16750
Stim@@	16746
ute	16745
Sil@@	16730
14.	16728
Rom@@	16727
-S@@	16723
7.	16717
74	16716
5,@@	16713
can@@	16708
Förderung	16706
denken	16701
Informations@@	16698
entwickeln	16686
London	16674
76@@	16671
anten	16661
nahm	16658
könnten	16652
150	16640
sierte	16636
Bor@@	16631
verbunden	16630
ami@@	16628
Kö@@	16626
78	16625
wider@@	16593
stes	16593
eich@@	16588
Feu@@	16587
ffen	16578
Rot@@	16570
Verbesserung	16566
Beginn	16555
Verk@@	16552
Gewicht	16551
Österreich	16550
nämlich	16545
erfolgt	16543
Management	16521
ona@@	16517
Park	16508
eit@@	16489
cial	16488
Deshalb	16481
gemäß	16473
elli@@	16473
ats	16465
PC	16450
Kil@@	16449
Auto	16444
Bewer@@	16441
44@@	16441
Projekt@@	16439
wobei	16438
wes@@	16438
les	16437
Regel@@	16426
teilung	16416
Durch@@	16403
vil@@	16403
ik@@	16403
8.	16396
üb@@	16386
Industrie	16382
48@@	16381
jeweiligen	16376
freien	16364
hinter	16357
bevor	16357
Straße	16345
cen@@	16342
Basis	16338
vin@@	16320
ular	16320
schla@@	16319
Meinung	16314
Frankfurt	16314
tax@@	16309
nahmen	16307
Gesundheit	16303
Information	16299
atz	16294
neh@@	16289
Nat@@	16286
03@@	16284
Umwelt	16283
einschließlich	16262
pers@@	16259
Janu@@	16257
Stelle	16251
France	16240
geeignet	16239
ig	16238
AL@@	16237
nis@@	16225
sitz@@	16215
eingesetzt	16212
87	16199
AS@@	16198
hören	16192
ano	16191
wert@@	16188
Arbeiten	16183
Regel	16182
32@@	16178
gesamte	16175
sage	16169
richtig	16167
erfahren	16166
ordnung	16149
lige	16148
Fläche	16142
Dol@@	16136
ume	16120
Punkt	16113
Ü@@	16111
ER	16101
Aufgabe	16097
Gem@@	16085
derung	16083
stoffe	16082
durchgeführt	16059
Technologie	16057
ty@@	16056
83	16033
innov@@	16021
Strategie	16017
welches	16001
wieder@@	15999
beh@@	15999
größten	15985
DE@@	15970
Wel@@	15970
gewesen	15965
Gele@@	15962
fs@@	15954
Dom@@	15950
Bur@@	15947
Exper@@	15940
Wochen	15938
zung	15937
Ori@@	15936
ai	15931
zehn	15928
tive	15928
mg	15926
05.@@	15925
neues	15919
Gleich@@	15914
ug	15897
zierung	15890
teri@@	15890
Ab	15886
aktuellen	15884
igen	15865
ungs-	15864
Leben@@	15862
Seh@@	15861
Pen@@	15860
aben	15857
Fa@@	15852
elles	15841
1999	15838
93	15834
etc.	15821
Licht	15819
Körper	15815
way	15813
Bus@@	15812
ina	15810
karte	15807
Mikro@@	15806
Mess@@	15801
git@@	15800
schreiben	15796
großer	15793
OR@@	15791
genheit	15789
Hom@@	15781
alte	15774
sicherung	15771
Verkauf	15763
abel	15746
zweite	15742
Famili@@	15741
Änderungen	15740
una	15728
dient	15722
Monate	15707
67@@	15699
bisher	15687
trä@@	15686
erwarten	15684
Nicht	15662
mindestens	15661
63	15650
CD	15632
Rich@@	15627
kenn@@	15626
ator	15625
geboren	15620
Einige	15609
ire	15607
Nex@@	15601
ologien	15598
ären	15579
mische	15577
gesetzt	15575
spe@@	15563
bestimmten	15560
äumen	15555
Rev@@	15553
28.	15539
Behandlung	15538
Tro@@	15534
Well@@	15507
Pap@@	15501
verbessern	15491
Erfahrungen	15491
ampf	15483
Arbeitsp@@	15473
Position	15472
erseits	15470
mö@@	15470
ey	15469
Organis@@	15463
Mitte	15451
schung	15440
alität	15418
bert	15416
Unter	15414
einander	15409
altet	15408
genen	15399
stal@@	15393
geworden	15392
ständ@@	15391
Tor@@	15391
anderem	15383
Auswirkungen	15381
98	15380
Edi@@	15365
wik@@	15362
verfahren	15361
schließen	15355
Organisation	15301
aust@@	15301
größte	15297
peri@@	15294
Universi@@	15285
Forschungs@@	15281
lar	15276
kal@@	15275
ani@@	15259
allein	15258
ihres	15255
beschäf@@	15249
hoch	15248
TE	15244
gentlich	15243
99@@	15234
sto@@	15226
sätze	15219
Kosten@@	15207
Rat@@	15191
Lauf@@	15188
Familien@@	15171
sie@@	15166
gesp@@	15165
49@@	15164
richtung	15162
ener	15162
09@@	15157
ermöglichen	15144
mern	15142
zahlreiche	15115
arbeitung	15103
Mos@@	15098
¶	15086
Verbrauch@@	15084
plan@@	15079
tisch	15070
Ei@@	15068
Proz@@	15059
Darüber	15045
Sonder@@	15040
technischen	15036
Cor@@	15033
Termin@@	15021
aufzu@@	15018
Bas@@	15017
Fo@@	15016
Zur@@	14989
führte	14986
barkeit	14985
k-@@	14982
entsprechend	14981
P-@@	14979
date	14976
Chi@@	14972
Parlaments	14962
nahe	14959
steller	14945
cia	14940
Fuß@@	14938
13.@@	14935
Linie	14931
pu@@	14918
opti@@	14915
Ist	14914
ea	14911
Menge	14905
gesetz@@	14900
ST	14896
Sub@@	14888
Funktionen	14887
schrei@@	14877
wen@@	14873
speich@@	14868
à	14862
Wider@@	14861
erwartet	14859
gene	14858
lichkeiten	14850
04.@@	14849
son	14847
lt	14847
dienen	14846
beste	14834
Regionen	14823
Standard	14822
fand	14817
jeweils	14811
Pflan@@	14811
II	14810
65@@	14802
Mer@@	14799
für@@	14796
Zeichen	14796
tar@@	14786
zig	14783
struktur	14777
Weiter@@	14764
tions	14762
Wachstum	14758
wirk@@	14752
eben@@	14734
ode	14730
gri@@	14724
dadurch	14722
CD@@	14716
Vereinigten	14715
gram@@	14695
Milli@@	14694
cs	14691
log@@	14680
ierungs@@	14679
era	14678
w.@@	14672
92	14668
satz@@	14666
schrift	14655
anz@@	14654
seite	14654
Gest@@	14651
kla@@	14641
cks	14636
Ir@@	14633
Angaben	14632
ations	14625
Kindern	14621
atten	14620
33@@	14608
Program@@	14601
Kontrolle	14598
30.	14594
flü@@	14593
è@@	14593
neuer	14589
fte	14586
Zah@@	14583
stein	14582
las	14563
fache	14550
Arten	14540
Gesam@@	14533
F-@@	14526
Daher	14517
trieben	14517
indu@@	14517
ktur	14517
Verantwortung	14509
Bevölkerung	14507
3,@@	14500
versuchen	14498
gemeinsamen	14491
einzige	14486
Klein@@	14473
test	14470
sierten	14460
15.@@	14456
Schri@@	14454
ierungen	14451
Technik	14447
abzu@@	14445
sischen	14437
stän@@	14433
End@@	14433
Film@@	14429
Monaten	14420
11@@	14405
derzeit	14400
kno@@	14378
gei@@	14376
letz@@	14368
usw.	14362
EI@@	14360
finanzi@@	14343
erklärt	14341
Rates	14336
omb@@	14330
Teile	14329
dungs@@	14326
Material	14305
Betrieb	14300
Anwendungen	14295
Schrei@@	14288
richtungen	14288
Sprach@@	14288
üch@@	14282
Forum	14276
My@@	14272
Gruppen	14267
Viele	14261
bestimmte	14260
Bre@@	14260
‘	14259
nien	14255
achten	14250
tiger	14248
sal@@	14240
funktion@@	14237
ungsan@@	14234
gelegt	14234
9,@@	14230
80@@	14217
600	14195
außerdem	14194
gemein@@	14194
US-@@	14186
40@@	14185
ole	14158
City	14151
struktur@@	14144
Teil@@	14141
MP@@	14140
ded	14132
Ant@@	14125
stoff@@	14112
Et@@	14111
Dienst@@	14110
Speich@@	14110
Fun@@	14103
fähigkeit	14095
leistungs@@	14087
dro@@	14081
38@@	14079
Programme	14078
zählt	14072
Folgende	14057
4,@@	14057
veröffentlicht	14055
Gre@@	14044
Bran@@	14044
ktur@@	14033
ahl	14028
ø	14026
SS@@	14012
Fla@@	14006
sechs	14003
Sit@@	13999
75@@	13985
Mu@@	13977
Mis@@	13974
Stück	13971
ore@@	13966
Beziehungen	13950
sions@@	13940
Glau@@	13940
wichtigen	13939
96	13935
endes	13932
ständig	13920
eur@@	13908
hren	13905
schließ@@	13876
Systems	13876
IC@@	13876
gruppe	13874
xi@@	13871
fir@@	13870
äus@@	13852
Johan@@	13847
Mes@@	13829
kts	13826
zieh@@	13823
fällt	13810
beide	13804
ünd@@	13800
Sonne	13800
Del@@	13797
Aben@@	13797
ften	13796
TI@@	13795
innen@@	13793
wenige	13791
persönlichen	13788
nah@@	13784
im@@	13780
13-@@	13778
Produkten	13767
Männer	13758
Schnit@@	13755
Stre@@	13753
Hersteller	13752
adi@@	13748
geln	13745
ino	13745
Mutter	13738
nahme	13736
üs@@	13735
ams	13730
120	13724
MA@@	13720
öch@@	13720
Wieder@@	13706
Servi@@	13702
istischen	13699
eden@@	13694
ograf@@	13694
stellte	13693
Gran@@	13692
oph@@	13691
tü@@	13690
merk@@	13675
Mär@@	13668
el-@@	13668
vorhanden	13668
dem@@	13648
inv@@	13644
Bewertung	13643
Jetzt	13618
sur@@	13616
scheint	13588
ence	13588
55@@	13576
fal@@	13564
rat	13563
Akt@@	13556
ssen	13544
cor@@	13538
erb@@	13538
14.@@	13535
elektr@@	13533
bestimmt	13531
heraus	13529
Punkte	13525
Bildung	13524
ki	13520
f-@@	13517
genannt	13515
file	13512
Zeitpunkt	13510
Kern@@	13506
Seine	13504
Nichtrau@@	13497
bin@@	13492
trieb@@	13488
ry	13484
liert	13480
laufen	13480
ehen	13472
ppen	13471
Vo@@	13463
gaben	13452
richtige	13451
zel@@	13451
effizi@@	13446
IT@@	13443
Klicken	13442
ele@@	13435
sicherheit	13434
Radi@@	13432
ena	13432
09.@@	13423
ic	13421
Ki@@	13419
wand	13414
Schla@@	13414
23.	13411
1998	13409
steh@@	13407
ux	13399
opp@@	13381
Bereiche	13376
erstellt	13373
Fern@@	13369
Gerä@@	13360
flexi@@	13358
klassi@@	13357
bilden	13355
entsprechenden	13350
geschrieben	13346
Ten@@	13344
06.@@	13337
Dies@@	13318
ement	13318
gek@@	13308
Bis	13301
beg@@	13295
Tie@@	13286
zäh@@	13285
gekommen	13279
Systeme	13268
mag@@	13263
fallen	13257
rachen	13256
zah@@	13244
Gesundheits@@	13242
erfolgreich	13242
tec@@	13232
Ihres	13227
Hu@@	13223
angen	13212
ichten	13207
fördern	13205
weis@@	13201
Ord@@	13199
letzte	13197
Prozess	13189
soll@@	13179
pass@@	13176
prakti@@	13168
besondere	13163
ät	13162
schwer	13162
Jahres@@	13156
n-@@	13152
Entwick@@	13146
gebie@@	13140
trag@@	13138
völlig	13126
ity	13120
but@@	13119
47@@	13118
richtet	13107
AG@@	13092
Mensch	13092
Leistung	13083
AU@@	13078
Herstellung	13074
gens	13070
Kn@@	13067
Modell	13058
bro@@	13050
weder	13050
Barcelona	13048
oper@@	13046
AP@@	13046
gemeinsame	13036
Handel	13034
97	13033
spar@@	13033
werte	13032
zieren	13025
uri@@	13025
Schwei@@	13022
Arbei@@	13020
vir@@	13015
sorgen	12996
nehmer	12996
haltung	12986
Behörden	12980
onen@@	12977
ett	12973
osi@@	12969
stitu@@	12967
Patienten	12966
M.	12957
historischen	12954
Abend	12948
tatsächlich	12947
sol@@	12947
üssel@@	12935
empf@@	12933
arb@@	12933
forderung	12927
Institut	12927
beru@@	12923
reich	12921
ON	12907
ring	12891
Sant@@	12890
artige	12886
Inhal@@	12882
Zeiten	12874
zählen	12873
lang@@	12865
14-@@	12862
Alter	12854
z.	12853
aktuelle	12851
freie	12845
uli@@	12824
Änder@@	12823
id@@	12823
Fällen	12821
warum	12813
34@@	12811
Einführung	12804
zunächst	12802
dent@@	12795
Infra@@	12792
T-@@	12789
schlag	12780
mali@@	12775
Folge	12774
ON@@	12751
regel@@	12746
vollständig	12744
Geschwindigkeit	12740
Ros@@	12740
genutzt	12736
Tren@@	12736
hu@@	12736
gelten	12732
Mat@@	12728
vergangenen	12724
OS	12722
kurz	12719
Post@@	12719
Ausdruck	12716
griffen	12706
Fort@@	12705
genannten	12698
Hil@@	12698
one@@	12696
gänge	12689
Tatsache	12683
registr@@	12683
bild	12683
eden	12670
beginnt	12669
Neue	12667
46@@	12663
erster	12660
Vertrau@@	12650
04-@@	12648
Falls	12647
beschrei@@	12644
bank	12632
LI@@	12630
United	12621
.09.@@	12618
tierte	12617
ü	12616
selbst@@	12613
yl@@	12606
dienst	12603
Teilnehmer	12603
gum@@	12602
lan	12601
recht@@	12592
anders	12592
Wes@@	12588
Ele@@	12588
habt	12587
Bos@@	12586
01-@@	12572
Dazu	12564
Publi@@	12562
cal	12562
Fraktion	12557
bald	12552
sat@@	12544
hing	12541
zudem	12538
ervier@@	12535
Eigenschaften	12517
technische	12513
q	12503
ls	12499
Bio@@	12496
vergessen	12494
an-@@	12489
tnisse	12473
rep@@	12472
m-@@	12469
lig	12467
groß	12461
ollen	12459
sche@@	12453
schließlich	12442
69@@	12433
antwor@@	12432
ogen	12431
Ausbildung	12426
beginnen	12425
94	12420
Ach@@	12420
ücken	12419
bestehen	12419
agen@@	12394
dex	12387
ust@@	12386
Sinne	12385
nachdem	12385
wä@@	12382
Gerät	12368
barer	12367
bef@@	12362
zeichen	12361
en-	12360
abl@@	12360
Super@@	12355
dig	12340
Center	12340
fordert	12330
lösen	12327
künf@@	12325
Werkzeu@@	12316
sammlung	12315
Ansicht	12314
benötigen	12311
Ga@@	12310
Warum	12307
betrifft	12303
02.@@	12301
berech@@	12287
unterschiedlichen	12263
max	12259
mi	12256
Imm@@	12254
Elektr@@	12251
Sor@@	12247
w-@@	12247
Phot@@	12245
persön@@	12242
Vil@@	12242
Bewegung	12239
Halb@@	12237
Mari@@	12234
ass	12234
Konferenz	12233
Verpflich@@	12229
drei@@	12206
Kenn@@	12202
indi@@	12200
richtigen	12198
kali@@	12193
mehreren	12191
zahlreichen	12188
Praxis	12184
ros	12180
umfasst	12180
ungefähr	12179
AD@@	12171
Kind	12163
danken	12151
len@@	12149
entlich	12149
lle	12145
bildung	12141
erhältlich	12137
Änderung	12134
will@@	12133
enver@@	12132
genug	12122
etzt	12121
ck-@@	12120
angezeigt	12101
är	12097
pfer	12096
anc@@	12095
Business	12088
Leistungen	12084
zip@@	12083
Straß@@	12078
Ker@@	12073
mut@@	12071
präsen@@	12066
06@@	12065
Rah@@	12064
Heraus@@	12057
age@@	12055
stein@@	12051
schlagen	12049
kamen	12045
Will@@	12037
nächste	12033
Vergleich	12028
bahn	12028
Analyse	12025
achte	12021
liefer@@	12020
ect	12018
250	12015
ack	12013
Hinblick	12002
Bru@@	11986
eig@@	11981
Herz@@	11977
ativ@@	11972
behalten	11963
part@@	11960
BI@@	11952
asst	11944
verkehr@@	11934
Anti@@	11925
s-	11923
V-@@	11922
ME@@	11915
legung	11914
21.@@	11911
rest@@	11907
Cre@@	11905
entspricht	11903
88@@	11900
ille	11899
Pol@@	11893
geord@@	11891
vation	11889
Fon@@	11888
0-@@	11885
voller	11884
rück@@	11883
solchen	11881
wachsen	11880
täglich	11880
char@@	11875
entschei@@	11870
dium	11866
verein@@	11861
Netz@@	11860
Verhältnis	11852
welcher	11848
lass	11842
West@@	11832
besu@@	11831
version	11830
Tod	11825
rechten	11815
deckt	11807
et-@@	11806
öpf@@	11804
glauben	11798
mitglie@@	11794
elen	11792
AC@@	11786
Erklärung	11780
16.@@	11779
ction	11761
ates	11758
häufig	11753
Tau@@	11748
Hintergrund	11745
obwohl	11735
kul@@	11714
ro	11712
Micro@@	11700
verantwortlich	11699
weist	11697
my@@	11692
rel@@	11684
stimmen	11683
Lesen	11682
dd@@	11682
´	11681
ante	11676
wasser@@	11675
reli@@	11669
druck	11666
Einrichtungen	11664
Kommunikation	11663
Cap@@	11663
jahr@@	11662
bild@@	11661
reichen	11655
benutzt	11650
ppe	11649
tra	11646
MB	11646
EL@@	11640
Rom	11625
Verkehr	11622
eting	11620
weite	11609
derte	11607
Stunde	11602
ativ	11597
Essen	11597
Hän@@	11593
machte	11593
weiten	11590
Dig@@	11587
ausschließlich	11581
Institutionen	11578
st-@@	11578
Ü	11577
es-@@	11574
zusätzliche	11570
TR@@	11565
heb@@	11562
tern@@	11558
Vertreter	11556
angeboten	11556
deck@@	11549
industrie	11549
ó@@	11543
Sand@@	11534
ara	11532
Mö@@	11523
tit@@	11521
iner	11511
Wirkung	11504
Hy@@	11504
Wür@@	11481
ols	11481
nische	11479
Saf@@	11475
Vorschriften	11470
sili@@	11470
System@@	11466
Min	11462
außerhalb	11458
esten	11455
geöffnet	11448
Rel@@	11446
Aufgaben	11443
Anspruch	11437
staat@@	11434
Krise	11433
Polen	11432
85@@	11424
Ins@@	11420
Wege	11420
ampf@@	11419
sour@@	11415
Sehr	11409
Zustand	11408
02-@@	11404
kaum	11402
programm	11399
Rin@@	11392
log	11392
wissenschaf@@	11391
nern	11386
thr@@	11373
asse	11371
Cal@@	11371
ha	11367
Schu@@	11366
EU@@	11365
Druck	11363
Haup@@	11358
Initiative	11356
nat@@	11351
darunter	11351
cin@@	11346
esses	11345
Itali@@	11335
zeugen	11327
gleiche	11321
AA@@	11317
Fra@@	11314
atik	11312
inklusive	11311
Materialien	11311
verkehr	11309
ünsti@@	11307
raten	11305
ous	11303
räume	11296
gerä@@	11293
ES	11291
Spei@@	11273
erneu@@	11268
ches	11266
acht	11265
Rec@@	11263
Dr@@	11260
liste	11254
enthal@@	11254
entwicklung	11229
eingerichtet	11226
gegen@@	11225
Sich@@	11222
ate@@	11216
Leistungs@@	11212
gela@@	11212
irgend@@	11212
linie	11210
Haushalts@@	11208
präsentiert	11208
chs	11206
pack@@	11200
Werte	11193
Tätigkeit	11190
trägt	11190
feu@@	11188
Audi@@	11186
Erweiterung	11177
Co.	11175
Statisti@@	11174
melden	11173
management	11156
auch@@	11151
tier@@	11146
16-@@	11142
Kühlschrank	11139
Vielzahl	11138
Hun@@	11135
entscheiden	11129
MI@@	11128
ds@@	11126
program@@	11118
Test@@	11117
Cl@@	11117
kräf@@	11114
gruppen	11114
lien	11105
lauf@@	11093
konzentr@@	11092
Boden	11092
entlang	11090
braucht	11087
hinsichtlich	11086
Vergangenheit	11077
Eu@@	11073
Versch@@	11069
Dauer	11068
überhaupt	11065
fung	11065
aum@@	11064
Augen@@	11063
deten	11062
gezeigt	11059
Wochen@@	11059
benutzen	11055
J	11053
Verordnung	11050
Qualitäts@@	11048
begann	11046
p.@@	11044
außer@@	11037
ining	11032
ju@@	11029
AM@@	11027
fekt	11025
ark@@	11016
Ci@@	11011
erfüllen	11009
Griechenland	11000
Oli@@	10995
Glas@@	10992
ffer	10988
greifen	10986
öse	10974
Herz	10972
hinzu@@	10965
1997	10962
Alb@@	10931
Tal@@	10930
Kol@@	10928
viert	10923
Flei@@	10916
Blu@@	10914
Mil@@	10911
plan	10910
Geor@@	10908
hergestellt	10908
diejenigen	10906
Netzwer@@	10905
lokalen	10904
Maschinen	10904
Kombination	10902
nieder@@	10901
orienti@@	10899
erfüllt	10895
ober@@	10879
öt@@	10873
öffentliche	10870
Folgen	10870
gewährleisten	10869
Le	10869
Cli@@	10869
stück	10856
rip@@	10856
bit@@	10854
künst@@	10854
kön@@	10852
klein@@	10850
aller@@	10846
vari@@	10846
seh@@	10844
Bestimmungen	10841
anderes	10831
Es@@	10831
Prüfung	10830
entweder	10830
IN	10828
ora	10823
sien	10823
Michael	10814
geändert	10813
Dialog	10805
allgemeinen	10802
Verwaltung	10796
entation	10796
weg@@	10788
sprech@@	10780
alem	10775
Vorschläge	10769
Prof@@	10763
d.	10761
gehalten	10759
überzeu@@	10758
ock	10753
stets	10752
о@@	10749
Bedürf@@	10746
punkte	10745
schläge	10739
Reisen	10739
erklär@@	10730
heim	10730
h-@@	10711
pap@@	10710
Vis@@	10708
besonderen	10706
24.@@	10698
Dir@@	10690
tätig	10689
ly@@	10689
markt@@	10688
hätten	10683
Maße	10683
ka@@	10680
Japan	10680
Grün@@	10659
folge	10657
800	10651
Wählen	10647
speziell	10645
stati@@	10639
fas@@	10639
Einrichtung	10633
Öffentlichkeit	10628
erneut	10628
ütz@@	10624
läs@@	10618
benötigt	10612
Gep@@	10612
arz@@	10611
77@@	10602
stieg	10594
komplett	10594
istische	10588
24-@@	10588
aktiv	10586
orische	10584
Durchführung	10582
ili@@	10581
jährigen	10579
gangs@@	10577
grenz@@	10570
Peter	10562
De	10558
öffent@@	10558
jemand	10554
ln	10550
Psych@@	10550
89@@	10543
�	10543
pan@@	10542
ull	10537
lin	10534
Tiere	10534
Supp@@	10534
ündung	10530
pol@@	10523
u.	10522
ml	10519
EL	10510
bez@@	10505
ange	10496
eini@@	10493
brin@@	10490
Multi@@	10485
Prüf@@	10485
VI@@	10485
AB@@	10477
leistung	10473
ology	10472
Schutz@@	10466
danach	10462
sieben	10461
EC@@	10459
ies	10452
wenden	10449
Quali@@	10449
kop@@	10440
ox@@	10434
I-@@	10429
O-@@	10427
keiten	10418
geschlossen	10414
Salz@@	10409
Aufmerksamkeit	10406
ungspro@@	10404
rufen	10399
wichtiger	10397
Q	10396
ris@@	10395
zur@@	10394
straße	10391
Stat@@	10386
gerich@@	10384
versucht	10383
herz@@	10381
leisten	10380
kraft	10380
ES@@	10376
Fahrzeu@@	10376
hilfe	10372
emp@@	10370
Gemeinschafts@@	10361
mess@@	10352
Ressourcen	10343
verhindern	10335
fügen	10334
fur@@	10330
Gru@@	10327
nit@@	10325
ache	10324
funktioniert	10319
Morgen	10310
Handels@@	10298
Verfügbarkeit	10294
systems	10293
unver@@	10288
nummer	10286
17.@@	10283
ameri@@	10281
ensi@@	10266
gerech@@	10261
pal@@	10257
internation@@	10253
Plat@@	10253
zt	10250
breite	10245
wenigen	10241
59@@	10241
länder	10235
netz@@	10235
transpar@@	10234
kons@@	10231
angenommen	10222
n.@@	10220
ult@@	10216
techn@@	10214
warten	10211
22.@@	10195
maßnahmen	10176
sse	10174
lediglich	10161
L-@@	10161
beachten	10160
erinn@@	10151
antra@@	10150
Services	10148
ür	10147
Formen	10141
1st	10139
Strukturen	10134
acht@@	10133
c-@@	10133
hilft	10125
European	10123
sau@@	10123
6,@@	10123
angeneh@@	10112
07.@@	10103
aci@@	10098
entspan@@	10096
ont	10090
weiterer	10089
Beiträge	10089
Schritte	10088
reicht	10086
TE@@	10084
GE@@	10084
Obwohl	10078
mati@@	10071
|	10070
zeh@@	10064
fachen	10064
selb@@	10053
Herausforderungen	10052
welt	10051
1996	10044
dende	10043
Andere	10031
Ther@@	10024
Reise@@	10020
zukünf@@	10013
LL@@	10008
tere	10005
Entfernung	10001
vertrau@@	9993
Direkt@@	9984
Zudem	9982
mot@@	9979
Tit@@	9978
Wind@@	9977
vielfäl@@	9974
Beim	9972
le-@@	9955
Gründen	9949
Fein@@	9947
70@@	9938
don@@	9935
.05.@@	9935
rand	9929
Haut	9928
trotz	9924
Click	9923
8,@@	9923
Masch@@	9922
Erst@@	9919
Phi@@	9912
Sicht	9910
last@@	9909
außer	9906
SS	9905
Dep@@	9899
quali@@	9897
tief@@	9890
leistungen	9881
Gener@@	9880
Buch@@	9878
Raum@@	9876
Schaffung	9876
Rund@@	9875
Roll@@	9874
Netzwerk	9869
berei@@	9865
stimmt	9859
jungen	9859
Nutzen	9858
denden	9858
onali@@	9854
RI@@	9848
behandelt	9844
MS	9843
Dreh@@	9839
Beratung	9839
jene	9838
zuvor	9837
iel@@	9836
jederzeit	9835
Up@@	9834
Zeitraum	9833
Gefahr	9831
liefert	9831
ada	9829
entstehen	9826
Soli@@	9823
gerecht	9822
altungs@@	9820
Ol@@	9814
dir@@	9812
sth@@	9802
haltige	9795
Code	9793
gst	9791
Studie	9788
station	9781
stens	9779
EG@@	9777
aden	9777
europ@@	9774
setz@@	9773
dy	9773
sig	9770
Eis@@	9770
ehe	9768
sonst	9768
ock@@	9765
Out@@	9763
--	9759
grei@@	9756
gewi@@	9752
Station	9748
lings@@	9742
jün@@	9739
Ausstattung	9737
erhöhen	9736
pp	9732
ating	9727
stehenden	9726
tlicher	9726
keit	9725
Sekunden	9723
Breite	9720
Koh@@	9717
droh@@	9716
Stellen	9713
les@@	9709
tran@@	9706
Coun@@	9706
verlei@@	9703
ließ	9693
loss	9692
SD	9691
Jeder	9690
1000	9686
Empf@@	9676
rauch	9673
Klasse	9673
entr@@	9669
anspru@@	9664
bereit@@	9664
mäch@@	9661
media	9661
kleiner	9655
äten	9651
qualität	9646
junge	9645
Notwendigkeit	9636
mittels	9634
IT	9634
tenden	9619
dauer	9610
erscheint	9608
ku@@	9604
Bibli@@	9602
Wo	9600
versorgung	9600
beitragen	9599
Spr@@	9597
kö@@	9597
Hig@@	9594
Temperatur	9591
verpflichtet	9583
führenden	9573
dal@@	9572
zuletzt	9571
etr@@	9566
digit@@	9563
schützen	9556
ble	9555
Sm@@	9553
hl	9551
karten	9547
orie	9540
Struktur	9539
För@@	9526
x-@@	9525
Die@@	9520
iv@@	9518
Zweck	9512
Fortschritte	9508
hinter@@	9506
brechen	9504
Abstimmung	9499
Eli@@	9489
fähi@@	9489
Nachdem	9484
ide	9481
u.a.	9481
Cop@@	9477
Methode	9473
Hinweis	9473
zwe@@	9469
Nah@@	9466
Frank@@	9464
Eltern	9460
Mün@@	9457
ösen	9454
triebs@@	9451
1995	9448
glichen	9447
schwier@@	9437
Kraft@@	9436
OL@@	9435
aum	9430
sters	9427
asp@@	9418
assung	9416
eins	9415
beträgt	9414
ems	9413
at-@@	9411
ola	9400
nommen	9399
fach	9399
gerufen	9399
üssel	9390
gewähr@@	9389
offenen	9387
kämpf@@	9387
schrif@@	9384
Lieferung	9383
mate	9381
fall@@	9373
emul@@	9369
onalen	9366
erzi@@	9366
jun@@	9366
Schwe@@	9347
drin@@	9342
Sur@@	9339
Entscheidungen	9337
wahrscheinlich	9331
Ret@@	9326
stoffen	9316
Thom@@	9313
ti	9311
alog@@	9310
ni	9310
heits@@	9304
spezielle	9302
assi@@	9301
sam	9297
eres	9293
RO@@	9292
KG	9289
Aufbau	9288
agement	9286
atz@@	9286
Art.	9280
Tru@@	9274
Transport	9270
Off@@	9265
dge@@	9262
produkte	9262
19.@@	9260
gelangen	9256
miteinander	9255
bessere	9254
fühlen	9247
tigten	9246
unterschiedliche	9245
01@@	9245
Luft	9243
entsprechende	9239
Gas@@	9237
rüstung	9234
ester	9228
geschichte	9228
Kopf	9224
Lebensmittel@@	9224
Wo@@	9223
Email	9218
Falle	9206
liefern	9204
amin@@	9203
hrung	9203
Siehe	9202
mes@@	9199
trop@@	9190
rank	9182
87@@	9181
Einfluss	9176
allgemeine	9175
bekannten	9174
Forsch@@	9173
kel	9168
Brü@@	9165
sum	9165
03.@@	9158
25.@@	9156
eigenes	9153
ms@@	9152
cken@@	9145
Identi@@	9144
ths	9138
or-@@	9137
übt	9135
zusätzlich	9124
§	9121
sch-@@	9119
ray	9111
atch	9101
Hor@@	9099
teilweise	9096
­	9095
0,0	9095
Far@@	9094
onale	9093
gebung	9093
bestätigt	9092
vermeiden	9086
international	9085
erhält	9079
tom@@	9078
schei@@	9077
Mehrheit	9071
üsse	9067
Drei@@	9067
langt	9065
Großbritannien	9057
Komponenten	9053
Tier@@	9050
ofen	9049
fälle	9043
IS	9043
dra@@	9035
Schließ@@	9034
haup@@	9033
Wur@@	9032
Kreuz@@	9021
einger@@	9015
drück@@	9009
mitteln	9007
Verein@@	9007
Hälfte	9007
Verw@@	9002
zell@@	9001
66@@	8998
Personal	8997
Haar@@	8995
Group	8995
18.@@	8990
bis@@	8975
Spezi@@	8971
gres@@	8970
kräfte	8967
cen	8966
Mitteilung	8964
UR@@	8964
IP@@	8962
Tran@@	8959
verbessert	8950
erhöht	8950
Wirk@@	8946
das@@	8944
zuge@@	8939
versu@@	8937
Kapitel	8936
Band@@	8934
gerät	8932
starke	8931
foli@@	8931
schu@@	8929
hy@@	8928
ñ@@	8928
ause	8923
ella	8923
ð@@	8915
ark	8913
emi@@	8912
knü@@	8908
Cam@@	8907
hier@@	8903
akter	8903
publi@@	8903
jährige	8893
beein@@	8887
itäten	8876
erin@@	8872
dyna@@	8871
Belgien	8870
bezüglich	8867
dische	8863
us-@@	8862
Dienste	8861
ho	8860
Abschluss	8853
Kab@@	8852
une	8850
größere	8849
legte	8847
bewusst	8845
Licht@@	8844
Entschei@@	8836
kern	8834
azi@@	8828
-1@@	8825
SU@@	8821
Standard@@	8814
Trau@@	8813
äußerst	8809
Mau@@	8809
Veränderungen	8808
ex	8803
äh@@	8802
ura	8786
spunkt	8782
mier@@	8781
informieren	8781
Flexi@@	8778
echte	8778
maximale	8775
Prof.	8775
stoff	8773
großes	8772
endung	8770
versi@@	8762
ost@@	8758
sprachen	8754
nissen	8742
trägen	8742
glich@@	8741
Main	8740
erw@@	8739
material	8737
erlauben	8736
Kenntnis	8733
Typ	8730
eni@@	8730
eignet	8729
Analy@@	8723
cri@@	8719
Ke@@	8716
bedarf	8713
Generation	8713
Denk@@	8710
Op@@	8710
val@@	8707
Aspekte	8702
van	8702
zentrale	8697
Tei@@	8695
Ander@@	8689
Diskussion	8683
ath	8682
Wä@@	8678
Mädchen	8670
Va@@	8661
Stru@@	8653
kommenden	8652
vorher@@	8651
beziehen	8651
els@@	8647
Welche	8647
Ul@@	8647
Prakti@@	8643
Aktualisierung	8641
Ess@@	8637
sts	8636
Anteil	8630
ppen@@	8628
Gefühl	8627
tigungs@@	8623
stände	8620
geschützt	8619
fordern	8611
Vir@@	8611
Allgemein	8610
AT	8608
tischer	8605
gst@@	8604
Il@@	8600
Gedanken	8597
manchmal	8597
omm@@	8595
e-	8592
A.	8585
Nummer	8582
urs	8581
oms	8581
zieht	8580
Fol@@	8578
erungen	8574
astro@@	8572
gh	8572
OP@@	8571
Allerdings	8570
Eisen@@	8569
bewegen	8566
Bedarf	8566
reiche	8561
gener	8559
110	8558
äß@@	8555
Bekämpfung	8554
ane	8554
sichts@@	8544
tal@@	8544
welchen	8540
odi@@	8537
läuft	8535
guter	8533
ologische	8530
Angelegenheiten	8529
üssen	8527
Refer@@	8525
operation	8521
Drit@@	8519
Beh@@	8510
besitzt	8503
Zwe@@	8503
dritten	8498
lands	8497
regelmäßig	8493
verl@@	8492
Angst	8492
leitung	8490
ann	8489
1994	8486
iz@@	8485
verstanden	8484
gewicht	8483
tritts@@	8482
Tat@@	8478
Konzep@@	8476
Geschmack	8473
etzung	8471
Methoden	8468
bes	8458
31.@@	8458
Portugal	8457
vis@@	8454
grad	8451
bericht	8450
Annahme	8449
pon@@	8448
schri@@	8445
Maschine	8440
Glob@@	8437
omen	8435
Ran@@	8433
Zwischen@@	8429
tau@@	8428
ô@@	8428
starken	8426
Europe	8426
erscheinen	8420
WE@@	8419
zogen	8418
Dra@@	8417
bezeichnet	8411
geräu@@	8410
LE@@	8409
entschieden	8404
wechsel@@	8395
formationen	8392
Dokumente	8390
icht@@	8389
ezi@@	8388
Jedes	8381
Fähigkeit	8378
wirken	8377
vo	8377
strum@@	8373
mus	8369
Auftrag	8360
übertragen	8359
schlossen	8359
Hinter@@	8355
iger	8353
bestehenden	8348
speziali@@	8348
verloren	8344
7,@@	8342
jen@@	8341
bern	8337
z.@@	8336
ahren	8329
unabhängig	8324
natürlichen	8322
zösischen	8322
cy	8322
Zube@@	8320
400@@	8316
lip@@	8315
Jugend@@	8312
meist	8311
omie	8309
AL	8309
gie@@	8306
gramm	8304
Bereit@@	8304
möglicherweise	8302
steigen	8301
orte	8300
130	8300
Interv@@	8290
att@@	8287
AV@@	8285
nationale	8283
Start@@	8280
ktiv@@	8278
set	8274
ebene	8268
General@@	8267
Madrid	8261
Lang@@	8259
berücksichtigt	8257
band@@	8254
Zwei	8253
ologischen	8250
Fertig@@	8250
Gef@@	8243
dies@@	8231
AS	8225
Cro@@	8223
Speziali@@	8223
fla@@	8222
C.	8212
~	8210
transp@@	8209
58@@	8209
Minister@@	8200
Leiter	8198
Fahrzeug	8195
kturen	8194
mittl@@	8187
ritten	8184
ole@@	8183
betreu@@	8179
last	8176
gewinn@@	8174
Sitz@@	8168
länger	8167
Update	8167
NE@@	8163
leben@@	8152
elb@@	8152
Maß@@	8149
Planung	8148
Keine	8148
gewählt	8145
Gegensatz	8144
Oberfläche	8144
rate	8139
Programms	8137
Vorteil	8135
lo	8134
Zahl@@	8133
Kontakt@@	8132
brei@@	8131
Kno@@	8130
Zusatz@@	8130
beinhaltet	8128
Mand@@	8127
Gall@@	8126
schie@@	8114
klusi@@	8112
Ob	8110
tral	8109
far@@	8109
gend@@	8108
IL@@	8108
sign@@	8104
möglichst	8101
bildet	8101
John	8101
Aufnahme	8091
defin@@	8090
nali@@	8089
Clo@@	8087
tot@@	8085
56@@	8082
gers	8081
zuerst	8079
tnis	8077
Konfi@@	8074
yc@@	8073
160	8070
famili@@	8067
tigte	8061
to-@@	8059
tierten	8056
Erinn@@	8054
nd	8052
spannung	8052
chin@@	8051
früher	8046
Bef@@	8041
olog@@	8031
26.@@	8031
zeichnung	8030
onal@@	8029
trau@@	8029
20.@@	8029
linken	8028
gegangen	8025
opf@@	8024
Übersicht	8024
Shar@@	8020
bas@@	8020
Kali@@	8020
Ansatz	8016
Rest	8014
wie@@	8010
wesentlich	8008
heben	8005
grund	8002
å@@	8001
Via	8000
Schei@@	7999
bach	7997
breiten	7995
Umfang	7990
bra@@	7988
üll@@	7986
erzeugen	7983
hen@@	7981
Arm@@	7980
Standards	7980
Oper@@	7979
Bay@@	7974
Internationale	7972
i.@@	7970
Einheit	7961
prüfen	7956
Abb	7953
Schwer@@	7950
bedeut@@	7948
nötig	7947
sorgt	7945
Ham@@	7944
klasse	7942
Auffassung	7939
Schwar@@	7937
Transport@@	7934
haften	7932
bilität	7927
zir@@	7920
abgeschlossen	7918
Besonder@@	7918
hauptsächlich	7917
Teilen	7912
Niveau	7907
verläs@@	7906
84@@	7903
Stimm@@	7902
offen@@	7900
hängt	7900
d.h.	7900
lichem	7899
Punkten	7893
Bab@@	7892
Partner@@	7890
Laufe	7888
BO@@	7887
1992	7884
Anschluss	7884
Dokument	7883
sä@@	7882
fekte	7881
Konferenz@@	7881
á	7878
fän@@	7876
MAR@@	7875
gut@@	7874
küh@@	7873
ng	7872
ktoren	7870
statt@@	7869
gion	7867
ausch	7865
provi@@	7864
unbedingt	7863
musste	7860
Cat@@	7860
fizierung	7859
glie@@	7857
gin	7850
Pil@@	7848
ier	7844
exis@@	7835
Rau@@	7833
Bestätigung	7832
struktion	7832
handeln	7832
kontaktieren	7830
hoher	7820
erer	7818
möglichen	7813
Reserv@@	7811
Alex@@	7810
fehl@@	7809
ay	7807
eil@@	7806
menschlichen	7802
Schweden	7802
gezogen	7801
haft	7800
üdi@@	7799
Em@@	7796
ktes	7796
rö@@	7794
Zahlen	7793
einheit@@	7788
bus@@	7786
M-@@	7784
bitten	7777
analy@@	7773
Fas@@	7771
theit	7770
Mein@@	7769
à@@	7768
Phase	7761
liegenden	7761
wick@@	7754
sier@@	7752
stärker	7751
entsprechen	7749
tende	7744
Ag@@	7741
68@@	7739
weiteres	7736
Grenze	7734
igkeit	7727
ç@@	7725
einzigen	7724
Brüssel	7723
Energ@@	7723
stam@@	7720
ves	7718
zustellen	7714
Plan	7713
gie	7712
House	7709
Verwaltungs@@	7706
llen	7703
err@@	7700
Antworten	7697
Literatur@@	7697
mehr@@	7695
Bir@@	7692
Kurz@@	7688
ik	7688
mals	7678
Basi@@	7672
Veröffentlichung	7662
teilt	7661
Cons@@	7661
ten-@@	7657
dio@@	7654
But@@	7643
Öff@@	7643
getroffen	7641
mäßig	7638
IT-@@	7638
a.	7637
h.	7636
aktiv@@	7636
wesentlichen	7635
Bett	7634
produziert	7633
Schlüssel@@	7630
dennoch	7629
konstru@@	7628
onien	7626
Agen@@	7622
Dro@@	7610
Untersuchung	7609
ologi@@	7609
speziellen	7607
Teilnahme	7603
wann	7602
pra@@	7602
jährlich	7597
š@@	7597
Rechnung	7595
profitieren	7594
wirkt	7592
Kanada	7592
mas	7588
geschehen	7585
Königreich	7584
miert	7584
schließt	7582
fertig	7578
Moti@@	7578
Enter@@	7577
ie-@@	7576
ani	7567
.06.@@	7560
Ungarn	7558
festgelegt	7556
dens	7556
standen	7555
Vari@@	7551
Ausschuss	7551
180	7550
zumindest	7546
gste	7546
ders	7546
nö@@	7544
soweit	7544
bekann@@	7542
nal	7536
Schwierigkeiten	7535
lar@@	7534
ergi@@	7532
gewährleistet	7531
einzelne	7527
schneller	7527
Europä@@	7525
mar	7522
schnelle	7520
wären	7516
trock@@	7515
™	7513
bus	7509
Firmen@@	7508
natürliche	7506
überprüfen	7505
irchen	7500
domin@@	7497
schnei@@	7497
140	7496
Aufgrund	7492
anzi@@	7488
ML	7488
gelei@@	7486
bereiche	7485
Vorbereitung	7482
gem	7482
läu@@	7480
erfolgen	7478
Je	7476
Vereinbarung	7474
mögliche	7474
uk@@	7470
Sel@@	7467
höchste	7464
verändert	7461
West	7461
Nich@@	7458
1993	7457
Aussch@@	7457
1990	7456
amin	7456
soli@@	7453
î@@	7450
teilungen	7448
J.	7447
Dadurch	7446
CE@@	7445
zufrieden	7440
FA@@	7433
700	7428
Bemühungen	7428
fass@@	7425
Sing@@	7423
don	7423
ktivität	7421
esp@@	7411
schlä@@	7410
DER	7404
dat@@	7403
richt@@	7400
Previ@@	7400
ED@@	7392
Reinigung	7390
höher	7389
dia	7388
erzielt	7382
sing	7382
Frü@@	7379
spru@@	7374
rieben	7370
erklären	7369
notwendigen	7364
Techni@@	7361
resul@@	7352
Thr@@	7349
för@@	7348
heit@@	7348
Pin@@	7344
erreich@@	7343
Status	7341
Auftra@@	7340
Lau@@	7336
Nov@@	7331
ille@@	7330
nehm@@	7330
unmittel@@	7327
Mich@@	7327
vel@@	7316
Not@@	7314
erungs@@	7311
Überein@@	7308
Websi@@	7305
Kriterien	7301
Rö@@	7293
beschlossen	7289
stechnik	7283
urop@@	7281
betrachtet	7279
erinnern	7278
ändi@@	7277
ogen@@	7274
Internationalen	7270
entstanden	7269
fähig	7267
chtigkeit	7264
â@@	7264
Datenbank	7261
näch@@	7257
Rh@@	7255
kurze	7254
sicht@@	7254
relativ	7248
temperatur	7248
Ort@@	7242
ang@@	7237
emb@@	7236
ter-@@	7235
Anstren@@	7233
und-@@	7232
int@@	7230
supp@@	7229
stärken	7228
gal	7224
größeren	7224
Tabelle	7221
Schaf@@	7220
zende	7215
kation	7213
wur@@	7208
vorher	7202
wechsel	7197
vorgesehen	7197
erhielt	7197
Stock@@	7196
spezifischen	7190
intensi@@	7188
zahl	7188
ahr@@	7186
Lon@@	7185
SO@@	7185
ehrt	7182
dienste	7179
daraus	7178
graf@@	7174
Unterschied	7172
Schwerpunkt	7170
Mac@@	7168
nden	7159
ergibt	7159
trifft	7156
bruch	7152
meti@@	7148
reib@@	7147
ktive	7144
näher@@	7140
zo	7137
lock@@	7136
Kann	7135
abhängig	7133
--@@	7133
bot@@	7129
am-@@	7128
Körper@@	7122
eur	7120
spezifische	7117
Merk@@	7117
ungen@@	7114
Dek@@	7112
.04.@@	7108
orien	7104
org@@	7100
muni@@	7098
Pro	7096
werfen	7092
gestellten	7091
ET@@	7088
Hist@@	7088
Lassen	7087
bemüh@@	7084
Wich@@	7081
täts@@	7081
information	7080
-R@@	7079
PR@@	7076
data	7075
.01.@@	7073
Syn@@	7070
Tages	7070
Kop@@	7067
wasser	7054
IG@@	7053
и@@	7050
proz@@	7049
likationen	7046
chil@@	7045
rein	7043
Vorder@@	7040
res	7035
Blut	7035
limm@@	7030
spre@@	7028
beteiligt	7028
arin	7027
entsteht	7024
Studien	7024
sz@@	7021
Hoh@@	7019
Beispiele	7017
Gebrauch	7016
Tschech@@	7015
sammeln	7015
42@@	7015
kehr	7011
Anerkennung	7011
Verbindungen	7010
tum@@	7009
Rechtsvorschriften	7007
ID@@	7006
eme@@	7002
â	6998
prin@@	6989
ga@@	6989
wähl@@	6988
cu@@	6986
l-@@	6984
cam@@	6981
azität	6980
gefallen	6979
deta@@	6979
mü@@	6974
zes	6973
entan@@	6972
SA	6971
olo@@	6970
um-@@	6967
system@@	6967
IB@@	6966
Nu@@	6963
box	6960
350	6959
Jede	6957
Erwar@@	6953
dun@@	6952
gon@@	6951
typ@@	6946
Beziehung	6941
ky@@	6940
lia	6940
mäßi@@	6938
leiter	6938
holen	6936
erinnen	6936
höchsten	6931
ax@@	6931
Hör@@	6931
radi@@	6927
erzeugt	6926
positive	6924
gig	6918
eme	6913
film	6913
Prior@@	6912
Risiko	6909
National	6908
come	6907
stattet	6906
Ereignisse	6905
act	6904
positi@@	6897
ires	6896
57@@	6893
gingen	6890
Lat@@	6887
Austausch	6887
führende	6887
einiger	6886
zugänglich	6881
Zahn@@	6877
gliche	6874
lingen	6870
line@@	6869
Spielen	6868
tor	6868
Wah@@	6866
europäischer	6863
Irland	6860
haltigen	6852
stim@@	6850
54@@	6847
nahme@@	6845
Ohne	6844
ausdrücklich	6839
tren@@	6837
onalität	6831
.03.@@	6831
üren	6830
300@@	6829
bie@@	6828
fassen	6827
Ausgang@@	6826
Gebie@@	6826
füllen	6826
Ec@@	6822
assen@@	6822
wissenschaftlichen	6821
bindung	6818
führten	6816
Effizienz	6815
umgesetzt	6814
BR@@	6813
Hände	6812
sicherzustellen	6810
ots@@	6807
verschiedener	6803
ahr	6802
ergebnisse	6801
Jos@@	6800
Jan@@	6800
Leitung	6799
gerin@@	6797
ón	6795
vol@@	6794
stro@@	6793
QU@@	6793
78@@	6792
pfen	6786
wiederum	6786
werten	6782
Elektro@@	6781
euch@@	6781
Danach	6779
ova	6777
PL@@	6775
Richtlinien	6774
Fähigkeiten	6770
Gebieten	6768
cap@@	6765
lauf	6764
kehren	6764
zentralen	6763
absolut	6762
Mas@@	6760
akzep@@	6758
ktiv	6757
CH	6757
EG	6752
ergeben	6743
dagegen	6742
Voraussetzungen	6741
Holl@@	6734
solcher	6731
erfahr@@	6729
bestand	6727
ai@@	6724
erstmals	6723
н@@	6722
definiert	6718
angel@@	6718
IF@@	6718
Beteili@@	6717
Überblick	6717
Verschiedene	6716
teren	6714
Part@@	6713
ege	6711
schlüsse	6711
Lam@@	6711
sach@@	6709
begonnen	6709
visi@@	6705
erwähnt	6704
zy@@	6702
obje@@	6701
lei	6700
entfernen	6699
cts	6697
basiert	6696
kurzen	6695
only	6695
öl	6693
qualit@@	6692
SCH@@	6692
atr@@	6691
95@@	6690
kehr@@	6689
eingeführt	6685
haber	6685
PS	6683
beantwor@@	6677
usten	6677
fehlt	6673
machten	6671
mpf@@	6671
Stabilität	6670
Grenz@@	6670
lösung	6667
Mobili@@	6662
human@@	6662
ona	6660
zeigte	6656
darstellt	6655
IR@@	6654
bor@@	6651
Bestandteil	6650
opf	6648
stellten	6646
199@@	6645
etzen	6645
ffer@@	6645
kol@@	6644
Partnerschaft	6642
besitzen	6641
Zustimmung	6632
schwierig	6629
unterstütz@@	6629
orts	6629
Entwickl@@	6627
Transparenz	6624
Syste@@	6623
Mel@@	6621
product	6621
aktiviert	6619
sobald	6618
Original@@	6618
lebens@@	6613
indet	6611
gefähr@@	6610
Zusätzlich	6609
angesichts	6608
Hä@@	6606
Las@@	6605
Rab@@	6605
Antrag	6604
systemen	6604
Wird	6599
Regelung	6589
persönlich	6587
Empfehlungen	6587
Abschnitt	6585
ones	6582
eter@@	6580
kette	6573
leichte	6573
hat@@	6571
×	6570
multi@@	6568
.02.@@	6563
sichtbar	6558
drücken	6558
getragen	6556
Dub@@	6556
Top@@	6556
Â	6555
Ket@@	6554
wahl@@	6552
Vertret@@	6548
Mutter@@	6543
Einstellung	6543
höhere	6539
sigkeit	6539
mie	6539
Ani@@	6536
gas@@	6535
beauftra@@	6534
Überwachung	6534
Best@@	6533
equ@@	6531
üf@@	6530
Problemen	6528
losigkeit	6525
bestätigen	6525
gische	6524
Gleichzeitig	6522
Gründe	6520
Kein	6517
Vier@@	6514
GP@@	6513
OM@@	6509
Av@@	6508
erzeu@@	6508
Lager@@	6507
dan	6505
mieren	6500
disp@@	6498
offene	6493
fiziert	6491
Deleg@@	6491
bein@@	6491
PH@@	6491
geboten	6489
Niederlande	6488
.07.@@	6486
gere@@	6480
Berich@@	6476
aden@@	6475
stor@@	6467
diert	6463
tert	6460
urit@@	6460
Verantwor@@	6458
usses	6449
schien	6446
leiten	6444
Offen@@	6443
gewonnen	6440
Beteiligung	6439
kos@@	6433
schritt	6432
hängen	6430
MO@@	6430
verbinden	6428
umfassende	6427
Zul@@	6427
rank@@	6424
Wär@@	6423
chern	6415
Af@@	6414
komplex@@	6413
TA@@	6412
entgegen@@	6411
lam@@	6410
elte	6409
alu@@	6409
dge	6401
manu@@	6397
Ali@@	6396
fs	6395
Trotz	6395
extrem	6395
eits	6395
aktive	6393
läne	6391
änder@@	6389
beschrieben	6386
geplant	6386
zusätzlichen	6385
mögen	6383
dritte	6380
Mir@@	6380
Verhalten	6378
Test	6378
passt	6376
fanden	6373
entwickelte	6373
wichtigste	6372
Anwendungs@@	6369
Berichte	6367
gesprochen	6367
wege	6366
Kategorien	6365
größer	6364
eng	6363
ebung	6363
Ram@@	6363
Darstellung	6362
passen	6361
uner@@	6360
vollständige	6360
selten	6354
ome@@	6354
effe@@	6352
kleines	6348
keiner	6346
Risiken	6346
terin	6345
größe	6344
gangs	6343
sent@@	6342
setzte	6339
Mann@@	6339
Anpassung	6336
Star	6335
müs@@	6333
Schn@@	6332
asen	6331
dungen	6329
vidu@@	6328
Nehmen	6327
zusetzen	6324
Ve@@	6321
ebenen	6320
tö@@	6320
übrigen	6318
Zun@@	6318
Erwachsene	6316
optimale	6315
wahl	6314
Prozesse	6313
kel@@	6310
CI@@	6309
Initiativen	6307
m.	6305
stattfinden	6303
geschi@@	6300
dauert	6299
-D@@	6298
Krankheit	6293
erzielen	6292
problem@@	6292
sek@@	6292
som@@	6291
KM@@	6290
geschieht	6288
Allgemeine	6286
einigung	6285
olin@@	6285
anschließend	6284
Einklang	6283
m.@@	6281
ischem	6280
angegeben	6277
ablen	6274
griff@@	6272
IM@@	6272
Hinsicht	6271
Besonders	6271
phase	6270
Insgesamt	6270
jet@@	6269
Behin@@	6267
tikel@@	6267
Sum@@	6266
ließ@@	6265
wohl@@	6265
betrachten	6264
onder@@	6262
Ausschusses	6260
dargestellt	6259
behin@@	6258
zunehmen	6257
schein@@	6256
dliche	6252
erfordert	6252
EUR@@	6251
ete@@	6251
gigen	6249
Fak@@	6245
ähnlich	6243
ls@@	6241
ffi@@	6241
möglich@@	6240
eth@@	6240
Medizin@@	6240
leiden	6238
position	6235
aktualisiert	6235
е@@	6233
Selbst	6231
Dem	6229
asten	6228
98@@	6228
enter@@	6225
klärung	6220
bekannte	6220
Street	6217
chron@@	6217
scher@@	6216
ersetzt	6215
yn@@	6215
ect@@	6215
verlieren	6214
Grad	6212
grü@@	6212
Stunden-@@	6212
alb@@	6210
Typ@@	6207
stehende	6205
dos	6205
design	6203
Spitze	6202
ebs@@	6202
dringend	6201
MT@@	6198
G-@@	6193
GR@@	6191
ebsi@@	6190
reduziert	6186
zurückzu@@	6184
Kontroll@@	6182
slich	6182
uti@@	6181
Üb@@	6181
verschieden@@	6180
alan@@	6180
atoren	6180
akt	6175
mung	6168
informiert	6165
Ange@@	6164
pul@@	6164
és	6163
schätzen	6161
PO@@	6159
freies	6157
Prote@@	6155
höheren	6153
sichere	6151
ssen@@	6148
sis	6148
Parlam@@	6147
Kommunikations@@	6146
ekt	6145
psych@@	6145
teilnehmen	6144
trat	6143
gender	6142
Lich@@	6141
X-@@	6139
fälli@@	6137
Dokumentation	6133
30-@@	6130
unde@@	6129
Neben@@	6128
ji@@	6127
off	6126
pun@@	6123
96@@	6122
Seiten@@	6121
verantwor@@	6117
elten	6115
EF@@	6113
Computer@@	6111
1,5	6111
Mitarbeitern	6110
Saison	6107
Miss@@	6107
stattung	6105
welchem	6105
Schäden	6104
genauso	6103
Büro@@	6098
ata	6094
mail	6091
utsch@@	6090
orten	6090
bereiten	6089
115	6089
koll@@	6088
stren@@	6087
mmen	6084
beglei@@	6083
zine	6081
sive	6078
`@@	6078
start	6071
erforderlichen	6068
vertret@@	6066
spä@@	6066
dene	6065
Allgemeinen	6064
verur@@	6061
wendungen	6061
größ@@	6056
dau@@	6051
Entwurf	6051
ket@@	6050
darstellen	6048
frem@@	6048
quellen	6046
v.@@	6046
Ausgaben	6043
AD	6043
ander	6041
anger@@	6039
näher	6039
ET	6039
Poly@@	6036
Vic@@	6035
positiv	6032
KO@@	6030
produktion	6030
mpel	6030
sämtliche	6027
nde	6027
Auge	6026
III	6026
plo@@	6026
900	6025
Kos@@	6020
ausreichend	6014
LAN@@	6010
unmittelbar	6008
thi@@	6008
lokale	6007
individuelle	6007
sofern	6007
pos@@	6007
³	6004
set@@	6000
änden	5998
schnell@@	5998
gert	5998
ala	5998
South	5995
dieren	5994
DO@@	5991
cat@@	5986
Glas	5985
jener	5984
etin@@	5983
wich@@	5982
UM@@	5980
sprochen	5977
ums@@	5977
AC	5973
enge	5971
vorgesch@@	5968
Einhaltung	5967
gran@@	5967
maximal	5963
unterschiedlich	5962
Hen@@	5961
cer@@	5960
praktisch	5958
verbrei@@	5957
lichsten	5955
chter@@	5954
individuell	5951
max@@	5951
Vielleicht	5946
Ersatz@@	5945
ständige	5943
fiel	5943
Photo	5942
Ty@@	5940
herum	5939
SI@@	5939
ERN	5938
terie	5937
mierung	5935
Erstellung	5932
hafte	5931
enten@@	5928
Umgang	5925
UNG	5920
itäts@@	5918
niemals	5911
physi@@	5911
flächen	5910
Papier	5909
Größ@@	5906
cep@@	5906
Amts@@	5902
sist@@	5901
sodass	5901
schluss@@	5900
individuellen	5899
ellen@@	5898
Erweiter@@	5897
laut	5896
angs@@	5894
cl@@	5893
untersucht	5891
Ot@@	5887
MA	5882
Mindest@@	5879
Jung@@	5879
gebildet	5876
arbeitete	5876
nahezu	5869
din	5867
einsch@@	5866
are@@	5866
gehei@@	5863
blieb	5858
Nicht@@	5855
Studien@@	5852
ungs	5850
Nie@@	5850
disku@@	5848
erhal@@	5848
ection	5846
cell@@	5845
schwarz	5842
Faktoren	5838
trotzdem	5837
Professor	5836
E-mail	5835
täglichen	5835
wa	5835
gangen	5834
Stellungnahme	5833
wodurch	5831
sed	5828
misch	5822
langsam	5821
Einen	5817
verh@@	5817
strategie	5815
Parameter	5813
Personal@@	5812
wäsche	5812
sation	5811
ulation	5811
Ly@@	5809
verändern	5807
Stärkung	5805
ge-@@	5804
modu@@	5801
Dun@@	5798
Hier@@	5794
Den@@	5794
arbeitungs@@	5794
Cy@@	5793
NA@@	5792
Eindruck	5790
elektronische	5789
Intel@@	5788
omp@@	5787
berücksichtigen	5785
Kopf@@	5785
500@@	5785
ktiven	5783
tags@@	5780
schuss	5779
nie@@	5778
BM@@	5775
eindeutig	5773
Beide	5773
dierte	5768
Krank@@	5767
fertigt	5764
Weiß@@	5758
zes@@	5753
125	5751
001	5750
aktiven	5748
oo	5747
HI@@	5746
Gesicht	5745
Abteilung	5744
passiert	5741
verstärkt	5740
Gebur@@	5737
inzwischen	5735
27.@@	5734
ersetzen	5733
sin	5733
bewähr@@	5731
and-@@	5729
sät@@	5728
Fö@@	5728
nahm@@	5722
erat@@	5722
äuse	5722
strie	5718
Tar@@	5718
Gegenstand	5717
ierenden	5714
Mitgliedern	5713
weißen	5710
identi@@	5709
var@@	5708
indungen	5707
gebunden	5706
450	5705
sia	5703
klare	5701
bildungs@@	5700
pop@@	5700
japan@@	5699
‚	5698
sterben	5697
ekt@@	5690
amm	5690
Reaktion	5689
Km	5688
ord	5687
ame@@	5685
plus	5682
klein	5680
Nam@@	5680
tos	5679
Scre@@	5679
frühen	5677
staatlichen	5672
Abbildung	5664
elem@@	5663
gewünschte	5661
anhand	5656
gat@@	5656
datum	5656
bestimmen	5655
ew@@	5654
CO	5652
deckung	5651
ull@@	5651
Papier@@	5650
Tätigkeiten	5649
gige	5649
ergän@@	5649
Wechsel@@	5649
angepasst	5643
ci	5642
Berichterstatter	5641
klassischen	5641
verursacht	5639
blu@@	5635
Kart@@	5631
Leit@@	5631
hielt	5630
Agentur	5628
spektive	5627
›	5626
ühr@@	5624
raft	5624
differ@@	5624
endi@@	5621
No	5620
Alternative	5615
Luxemburg	5613
Ath@@	5611
00-@@	5610
urt	5609
klin@@	5608
forderungen	5606
General	5603
ump@@	5602
rec@@	5600
boden	5599
ausgewählt	5599
uß@@	5598
30.@@	5598
Versuch	5597
SD@@	5596
Sitzung	5593
zugs@@	5591
massi@@	5590
gelö@@	5589
Fälle	5588
verwand@@	5586
erheblich	5585
Wir@@	5584
SA@@	5582
stoßen	5579
aktu@@	5579
einheit	5578
akzeptiert	5576
koordin@@	5575
äum@@	5575
RA@@	5575
Island	5574
Kammer	5574
schätz@@	5572
ursprünglichen	5572
bemer@@	5571
Mitgliedstaat	5570
mission	5570
74@@	5568
sigen	5567
besseren	5566
müh@@	5564
May@@	5563
drän@@	5562
benen	5562
ac	5562
TH@@	5562
ginnen	5559
bezieht	5558
rot	5558
Viertel	5555
Krankheiten	5554
city	5553
trol	5549
gen-@@	5547
normalen	5546
Lor@@	5543
DI@@	5543
EX@@	5543
meer	5542
Lebensmittel	5540
94@@	5540
ican	5539
menschliche	5537
komplette	5535
Erhöhung	5534
zerti@@	5534
uz	5531
Rumänien	5530
Institu@@	5529
ubli@@	5527
Finnland	5525
länge	5525
Wegen	5525
Wör@@	5522
aufbewahr@@	5521
ake	5519
geisti@@	5518
Ech@@	5518
Kra@@	5518
fördert	5517
ih@@	5517
orb@@	5516
abe	5513
üß@@	5512
adr@@	5511
einfacher	5510
fünf@@	5510
eck@@	5510
uz@@	5507
reifen	5505
bili@@	5503
Mitarbei@@	5502
wider	5501
direkten	5501
orp@@	5501
Metall@@	5498
vergess@@	5495
Berücksichtigung	5492
gerichtet	5492
low	5490
Tab@@	5489
kammer	5488
Unterschiede	5484
wissenschaftliche	5482
deh@@	5482
Der@@	5480
früheren	5473
Mitteln	5473
105	5471
fikation	5470
stech@@	5469
eta	5468
lymp@@	5468
gelöst	5467
vention	5466
Ergebnissen	5464
63@@	5464
ong@@	5461
Aktiv@@	5461
Bin@@	5460
oten@@	5459
arium	5459
Fahren	5459
Klin@@	5459
ierende	5458
Wass@@	5458
verse	5456
festgestellt	5456
tages@@	5456
dag@@	5455
Fabri@@	5448
modi@@	5448
ungsprozess	5447
53@@	5445
höch@@	5444
pur@@	5443
fizieren	5439
Wild@@	5439
fasst	5439
ferner	5438
schriften	5438
delst@@	5436
begleitet	5434
geprüft	5433
Überprüfung	5431
Absatz	5430
Mail	5428
Centre	5428
hervor	5426
stimm@@	5425
ton@@	5425
¬	5424
Richt@@	5422
eingesch@@	5421
gebli@@	5421
Lun@@	5419
hit@@	5418
rän@@	5415
u.@@	5415
förder@@	5409
allgemein	5407
mass@@	5406
Box	5405
Dyna@@	5403
schweren	5402
ple@@	5396
Ih@@	5394
versor@@	5391
aly@@	5390
Ausnahme	5389
Ern@@	5389
einsetzen	5386
zenden	5383
HD	5382
keinerlei	5380
prägt	5377
Dennoch	5376
mechan@@	5376
Frem@@	5374
er-	5373
maß@@	5371
kn@@	5369
Extra@@	5369
ßte	5365
vorgelegt	5363
gere	5363
gelung	5358
Arzt	5357
114@@	5356
Sobald	5353
normalerweise	5351
greiche	5345
gehol@@	5344
halb@@	5342
verfügbaren	5341
Protokoll	5340
fällen	5339
oren@@	5338
bestehend	5333
umfassenden	5324
optimi@@	5323
ursprünglich	5321
verhalten	5315
blatt	5314
mittlung	5313
Medizin	5313
ò@@	5312
Bereitstellung	5305
SC@@	5303
Bearbeitung	5300
selben	5299
Programmen	5298
Voraussetzung	5298
terung	5297
Adv@@	5297
pfle@@	5296
ologie@@	5296
Kommissions@@	5295
stü@@	5295
nicht@@	5294
vorzu@@	5293
kontrolle	5293
WA@@	5293
angen@@	5290
Cer@@	5289
gelesen	5286
Kandi@@	5285
angesehen	5284
Kompon@@	5283
ähnliche	5279
medizinische	5278
währ@@	5277
erfolgreiche	5277
Berichterstat@@	5274
Wann	5274
Vit@@	5274
onie	5273
Lit@@	5273
koh@@	5269
ativer	5269
ungsverfahren	5269
H.	5267
Strei@@	5263
betreffenden	5261
zunehmend	5258
ley	5258
vorliegenden	5257
tikel	5257
hinzugefügt	5256
spruch	5254
obili@@	5249
sicheren	5247
Os@@	5246
Hir@@	5246
č@@	5246
stärk@@	5243
s.	5243
Weil	5242
reduzieren	5239
Inform@@	5237
а@@	5237
Veränderung	5236
Spezial@@	5230
herzustellen	5229
omet@@	5229
Coll@@	5229
positiven	5227
R-@@	5226
Partnern	5225
entwickelten	5224
entliche	5222
360	5218
Corp@@	5218
och@@	5212
tili@@	5212
uth	5209
Profil	5203
fizier@@	5200
seit@@	5199
aufgebaut	5198
falsch	5196
Spitzen@@	5196
beobachten	5195
Anwender	5195
Technische	5194
hom@@	5192
ständigen	5191
ünsch@@	5188
UK	5188
bewegt	5185
entwick@@	5184
daten@@	5184
ulieren	5182
tief	5181
stungen	5177
chinesischen	5174
rü@@	5173
Stellung	5172
Verbreitung	5168
verwaltung	5167
oberen	5166
Ansprechpartner	5165
hef@@	5163
legten	5162
entfer@@	5162
sais@@	5162
TER@@	5159
Hinweise	5156
zufolge	5156
post	5155
Kontakte	5153
satzes	5152
Schaden	5150
Budapest	5150
vorbereitet	5148
neun	5148
ras@@	5148
Inc	5148
inhal@@	5141
Erholung	5141
Symp@@	5140
Fax@@	5140
erenden	5136
sinn@@	5135
umfan@@	5135
licht@@	5134
berechnet	5134
gas	5134
zuständig	5131
Bul@@	5128
013	5126
ase@@	5124
ffizienz	5124
Physi@@	5124
voraus@@	5123
Body	5123
Klassi@@	5122
sichtlich	5121
ola@@	5121
FL@@	5117
geleitet	5116
aufnehmen	5115
verhäl@@	5114
stem	5113
ry@@	5110
ologisch	5109
falsche	5109
gram	5109
jähr@@	5108
findung	5107
20-@@	5107
schienen	5106
Dänemark	5105
organisation	5104
By@@	5102
nich@@	5098
poin@@	5098
.-@@	5098
Urspr@@	5096
bezieh@@	5094
Geben	5092
üse	5092
osa	5092
mas@@	5092
initi@@	5091
Mischung	5091
í	5088
leichter	5086
eingestellt	5082
den-@@	5082
CP@@	5082
21@@	5081
Rechnungs@@	5079
erfolgreichen	5079
höhe	5078
gedacht	5077
optimal	5077
Bulgarien	5076
Fur@@	5075
N-@@	5074
Durchmesser	5072
101	5069
rd	5069
ester@@	5068
Definition	5064
nationaler	5061
Set	5061
Vereinigte	5057
Maß	5057
MG	5057
erkannt	5055
Ebenso	5050
offensichtlich	5049
olen	5048
Lar@@	5045
Ze@@	5045
isch-@@	5044
Gehen	5044
bereichen	5043
reicher	5040
Stärke	5036
akt@@	5035
Hein@@	5034
Verlust	5031
Nic@@	5031
Kulturen	5031
berichtet	5030
ergänzt	5029
IA	5028
Dur@@	5024
chmal	5022
gerung	5021
derselben	5020
dos@@	5020
zuzu@@	5018
con	5017
laufenden	5014
absol@@	5014
malige	5013
außen	5013
ierter	5010
organisationen	5009
lief	5005
b-@@	5005
23.@@	5003
erleichtern	5002
direkte	5001
Absicht	4999
cro@@	4999
mussten	4993
bevorzu@@	4989
ée	4989
inform@@	4988
n-	4988
vertra@@	4982
kbar	4982
Fru@@	4982
schlecht	4981
freiwil@@	4981
Zus@@	4979
ziele	4978
Händen	4978
ne-@@	4978
13,@@	4973
Mitglied@@	4969
avi@@	4968
AR	4967
bewe@@	4966
chti@@	4966
linien	4965
Kunststoff@@	4965
verzeich@@	4964
flei@@	4962
Verbraucher@@	4961
Erste	4960
besei@@	4960
stör@@	4957
IV@@	4957
gelassen	4954
zo@@	4952
hle	4951
Erkenn@@	4950
Heil@@	4948
Gute	4947
Dal@@	4946
festen	4945
produzieren	4945
Fremd@@	4945
Bedien@@	4942
Auflösung	4941
schar@@	4940
durchführen	4939
stiegen	4938
azin	4937
kürzlich	4936
stil@@	4934
Umständen	4930
lösungen	4927
ahlen	4926
diskutiert	4925
betroffenen	4925
Stei@@	4925
A.@@	4925
kurzem	4923
Busin@@	4922
ausgeschlossen	4921
weisung	4916
offiziellen	4915
aft	4915
bestehende	4913
unge@@	4912
Empfän@@	4910
Global	4909
gegenwärtigen	4908
Gegenwart	4907
bedroh@@	4907
unterscheiden	4904
tic	4902
d-	4901
Erschein@@	4898
tigungen	4894
Kath@@	4891
clo@@	4891
abhängigen	4889
glei@@	4889
Institute	4889
begrenzt	4888
Alp@@	4888
т@@	4888
vorgenommen	4887
XX@@	4887
beraten	4882
abhängigkeit	4881
obe	4880
Sig@@	4879
aps	4878
mik	4877
Lov@@	4877
ease	4876
Sim@@	4869
überschrei@@	4869
unmöglich	4868
iron@@	4868
ú@@	4865
Rein@@	4863
strahlung	4863
Research	4862
Beglei@@	4860
worfen	4860
fäl@@	4859
kations@@	4857
säch@@	4857
DC	4857
Schluss	4857
Männern	4854
bares	4853
stammen	4849
behörden	4846
ford	4846
schwe@@	4845
assungs@@	4842
digitalen	4841
P.	4841
organ@@	4840
liegende	4839
Untersuchungen	4838
elektronischen	4837
Kau@@	4836
ausch@@	4834
ffizi@@	4825
Genehmigung	4824
Dev@@	4820
ham	4820
Schlu@@	4817
äm@@	4813
let	4812
beten	4812
zerstör@@	4811
Ass@@	4811
geliefert	4810
ë@@	4810
Esp@@	4810
VER@@	4809
ania	4806
wirksam	4804
elo@@	4803
hlen	4802
behörde	4801
funktion	4801
hinein	4801
schem	4799
verpflich@@	4798
Len@@	4798
betroffen	4794
12,@@	4793
.....	4792
anerkannt	4789
sitzen	4787
rasch	4785
demi@@	4785
entes	4784
ba	4781
ough	4777
schnellen	4775
angegebenen	4775
Aktuali@@	4774
kateg@@	4769
ics	4768
pti@@	4767
stöß@@	4766
solange	4763
Aspekt	4762
beschränkt	4761
verbundenen	4760
verhindert	4759
ê@@	4758
Vin@@	4756
Herstell@@	4755
28.@@	4752
Filter	4752
anstatt	4748
Angelegenheit	4744
unkt	4743
012	4743
sein@@	4742
aufmerksam	4741
Einigung	4741
Literatur	4741
Eintritt	4741
wach@@	4739
region	4738
123	4737
.f@@	4737
Management@@	4736
ächst	4733
Pul@@	4731
halb	4730
Berat@@	4730
ergreifen	4728
Plus	4726
.V.	4726
hierzu	4725
blei@@	4725
sogenannten	4724
aktuell	4722
ausgew@@	4721
entscheid@@	4718
reagieren	4717
fassung	4716
blem@@	4715
mand	4715
Zwischen	4715
reitet	4714
PRO@@	4714
verringern	4713
р@@	4713
Italy	4712
gehör@@	4707
wech@@	4706
Erfüllung	4704
ulier@@	4702
fuhr	4702
ov	4702
gewünschten	4701
Bestimmung	4701
kro@@	4701
b.@@	4697
eas@@	4692
zuständigen	4689
82@@	4684
rei	4683
S.@@	4683
Sorge	4682
verteilt	4682
chtet	4682
amo@@	4682
dom@@	4681
Drei	4679
iler	4679
Tas@@	4676
za@@	4675
ul	4672
oli	4672
messen	4670
rigen	4670
Pack@@	4669
lossenen	4668
00.@@	4668
Cir@@	4668
analysiert	4667
vorschriften	4666
Bun@@	4664
bru@@	4664
bestä@@	4663
von@@	4662
dün@@	4661
Sep@@	4661
Py@@	4661
Zit@@	4661
geschwindigkeit	4661
Ep@@	4661
Sollten	4660
vit@@	4660
Maus	4660
kombiniert	4657
rote	4657
ktors	4656
Meg@@	4655
eld	4655
lös@@	4654
arbeits@@	4653
sierungs@@	4652
vorhandenen	4647
abgesch@@	4647
ix	4647
Gau@@	4646
Dass	4646
K-@@	4644
atives	4642
bezogenen	4641
-5	4641
Somit	4638
aufnahme	4638
bewegung	4638
durchzuführen	4636
menge	4636
tatsäch@@	4634
Beweis	4630
behandeln	4630
liger	4630
othek@@	4624
dauern	4623
AK@@	4623
standards	4622
10,@@	4622
ehmen	4620
erwäh@@	4618
Zw@@	4618
ausgerichtet	4615
wesentliche	4612
able@@	4612
bekämpf@@	4608
Fassung	4607
ys@@	4605
Dritte	4604
zwin@@	4601
Pun@@	4598
II.	4598
Prioritäten	4595
Sek@@	4595
Operation	4594
Einer	4592
ationsp@@	4589
steigern	4587
steri@@	4585
druckt	4584
gefügt	4584
Werkzeuge	4583
icht	4581
vertraut	4579
schein	4579
teur	4578
steigt	4577
Sollte	4576
Zen@@	4571
vollständigen	4571
ündi@@	4570
tisches	4568
chungen	4566
ema	4565
Immun@@	4564
refer@@	4563
vermittel@@	4562
separ@@	4561
gewisse	4560
Sehen	4555
Angesichts	4551
Des	4551
Tests	4551
arm	4550
sk	4549
Insbesondere	4545
ekti@@	4542
Mio	4541
schlägen	4538
feststellen	4537
Dokument@@	4535
ungsproz@@	4532
sorgfältig	4532
beendet	4530
Science	4529
ausgeb@@	4528
klar@@	4527
Aufla@@	4527
Innerhalb	4525
2,5	4524
Empfehlung	4523
Oc@@	4523
nachzu@@	4522
ministerium	4519
unkte	4516
wurf	4515
zugrunde	4514
Amt	4512
Manu@@	4511
tend	4510
rise	4510
sech@@	4509
tierung	4509
gültig	4505
gewöhnlich	4502
stag@@	4502
Ferner	4501
nehmen@@	4501
typischen	4500
erhoben	4497
Wach@@	4497
tikeln	4497
Konta@@	4493
tenen	4492
Pir@@	4491
Stoffe	4490
erheb@@	4487
Kit@@	4486
verursachen	4483
zierten	4482
gegenwärtig	4480
ø@@	4478
Regelungen	4477
bisherigen	4477
sweise	4477
jenen	4476
etischen	4475
bezeich@@	4474
1600	4473
atischer	4470
Merkmale	4470
TS@@	4470
rasch@@	4468
dürfte	4466
Denken	4466
meldungen	4465
aufgeführt	4465
halt@@	4463
Reich@@	4463
nier	4462
umfass@@	4461
Getränke	4461
kür@@	4459
Dop@@	4458
beige@@	4457
Benutzen	4456
CA	4454
Stabili@@	4451
wu@@	4451
Frist	4450
Wand	4449
Royal	4448
SE	4447
offizielle	4446
Les	4446
überprüft	4445
genaue	4443
Offi@@	4443
zierte	4442
BA	4442
abili@@	4441
essen@@	4440
Schlussfolgerungen	4438
bess@@	4437
denz	4436
gkeits@@	4435
tret@@	4434
Van@@	4434
acken	4434
Performance	4433
Bezeichnung	4432
gab@@	4430
auftreten	4430
not@@	4430
cio	4430
170	4429
solches	4428
Amp@@	4426
stär@@	4424
Benutzung	4424
DA	4423
jk	4423
vierten	4422
ergeb@@	4421
parti@@	4421
240	4420
I.	4419
Stell@@	4418
Ernährung	4414
zerstört	4411
D.	4410
behandlung	4408
leitet	4408
Rating	4408
Dire@@	4405
Verlauf	4404
Saint	4404
CE	4403
empfän@@	4402
AF@@	4401
günstig	4400
Slowakei	4399
Office	4397
Leitlinien	4396
loss@@	4396
itä@@	4395
tzeit	4395
Alg@@	4395
Fle@@	4394
etische	4391
modell	4386
ax	4386
Periode	4385
rat@@	4384
sige	4383
230	4383
derzeitigen	4382
Ari@@	4381
beizu@@	4380
tis@@	4380
befri@@	4379
stands	4378
Öster@@	4376
tiefen	4376
namen	4376
Bevor	4369
ebr@@	4368
verfol@@	4367
binden	4367
Hund	4366
Vall@@	4364
1987	4364
verwendeten	4364
erkennt	4362
Bol@@	4362
füll@@	4362
einheiten	4361
genügend	4359
grundsätzlich	4359
Od@@	4358
sonstige	4355
genü@@	4353
ehr	4351
änge	4349
wäss@@	4347
tnissen	4345
CR@@	4345
med	4341
cer	4341
sensi@@	4339
Cour@@	4339
Virus	4338
wechseln	4337
me-@@	4334
Minute	4333
niveau	4331
Zy@@	4330
uliert	4329
420	4329
220	4325
po	4320
betreffen	4318
Höchst@@	4317
MB@@	4314
tiv	4312
wend@@	4312
Verbesserungen	4311
ledi@@	4307
Geburt	4305
Übertragung	4303
OC@@	4302
orm@@	4301
Haare	4300
erstes	4295
getrennt	4293
Level	4291
mark	4290
afen@@	4286
Fet@@	4284
Feld@@	4284
Ablauf	4283
traum@@	4282
obi@@	4282
Haushalt	4281
Emp@@	4279
Vern@@	4278
begrenzte	4278
enswert	4274
Freien	4274
enen@@	4272
DR@@	4272
dreh@@	4272
Wen@@	4271
-Sch@@	4269
Organ@@	4266
tis	4264
ot-@@	4264
erwar@@	4262
ließen	4261
EM@@	4256
kus	4256
East	4255
brau@@	4253
ku	4253
Effekt	4252
ent-@@	4250
Interessen@@	4249
lic@@	4249
Muster	4246
-21	4244
trinken	4243
scheinen	4242
Stau@@	4238
nation@@	4232
g-	4232
forder@@	4231
gekennzeichnet	4230
aux	4229
unterschied@@	4226
teils	4225
verf@@	4223
gler	4220
detaillierte	4218
hingegen	4216
Tier	4216
uk	4216
Oran@@	4214
errech@@	4214
licherweise	4213
früh	4213
kürz@@	4211
körper@@	4209
ã@@	4209
kontrolliert	4208
missions@@	4206
hell@@	4206
wun@@	4204
ausgesetzt	4202
planen	4201
Tom@@	4200
Ast@@	4196
Lis@@	4195
Rem@@	4194
inneren	4188
verträ@@	4187
Rit@@	4181
NO@@	4179
ektion	4175
vereinbar@@	4174
Dipl@@	4174
technologie	4174
nütz@@	4174
BL@@	4174
kleinere	4173
bislang	4173
Situationen	4171
Temperatur@@	4170
Rap@@	4169
internen	4169
block@@	4168
staat	4167
Dri@@	4165
Vö@@	4162
teiligen	4162
all-@@	4162
Sab@@	4161
nicht-@@	4160
glichkeit	4158
effizient	4158
schüt@@	4157
Versorgung	4157
grap@@	4157
Diskussionen	4156
Bewegungen	4156
bewerten	4156
vierte	4155
Koordin@@	4155
tauchen	4153
Schlei@@	4153
Norwegen	4149
Aluminium	4149
29.@@	4149
se-@@	4147
Spuren	4145
versteht	4139
termin@@	4139
kurr@@	4138
Portu@@	4135
externen	4134
Vel@@	4132
ez@@	4131
TM@@	4128
Vereini@@	4126
bereitgestellt	4126
Niederlanden	4125
Gemeinsamen	4125
Anstieg	4125
eim	4125
Grunde	4120
co-@@	4119
Impul@@	4118
Workshops	4118
ol-@@	4117
SP	4116
gründen	4115
wertung	4113
berichten	4112
fix@@	4111
Ereignis	4110
vergleich@@	4110
bod@@	4108
tägliche	4107
Seb@@	4106
BER@@	4106
Mangel	4104
status	4102
190	4101
zwölf	4100
Direktor	4100
Weiterentwicklung	4099
geltenden	4098
ger-@@	4098
ps@@	4096
Abstand	4095
Phän@@	4095
Ind@@	4094
ständen	4092
→	4092
atten@@	4091
Development	4091
feste	4089
iatr@@	4088
situ@@	4087
osen	4086
Wiederauf@@	4085
aufgefordert	4084
Jugendliche	4083
Berech@@	4082
meter	4082
tech@@	4080
tier	4080
beeinflussen	4079
15,@@	4078
elemente	4076
blem	4076
gestellte	4075
echan@@	4075
zuführen	4074
Gut@@	4074
ulat@@	4073
Bewusstsein	4072
Oste@@	4071
unabhängige	4070
rechtliche	4069
Hö@@	4068
stab@@	4067
sterium	4067
samm@@	4066
Anweisungen	4064
Rand	4062
Volumen	4062
esung	4060
üben	4060
Verringerung	4057
bewäl@@	4057
Symptome	4057
pel@@	4056
lack@@	4055
As	4055
geren	4054
1.000	4054
klaren	4053
gesetzlichen	4052
Kleidung	4052
verbindung	4051
besor@@	4050
UL@@	4050
phen	4047
Sprech@@	4046
lis	4046
Todes@@	4044
hinaus@@	4044
cti@@	4044
ferung	4044
ret	4042
Faktor	4040
ug@@	4040
.......	4040
Jedoch	4039
Stich@@	4034
pflich@@	4034
wachstum	4033
bedürf@@	4032
umfang	4031
Gan@@	4031
Hum@@	4030
tabel	4029
Positionen	4023
UND	4023
berichte	4021
Milch@@	4019
ild@@	4012
blau	4012
personen	4010
äuß@@	4009
Aufnahmen	4008
völker@@	4007
ummer	4005
Zell@@	4004
gehende	4003
Betreuung	4003
Brei@@	4003
artigen	4001
schn@@	3998
E.	3997
Block@@	3992
orin	3992
Prop@@	3991
mperat@@	3990
field	3989
besonderer	3987
verringert	3985
ätigkeit	3983
grenzen	3983
faßt	3981
112	3980
syl@@	3979
xe	3979
Län@@	3979
bedeuten	3978
hohem	3974
niedrigen	3974
seitens	3974
umfassen	3974
ith@@	3972
drückt	3969
ausgewählten	3967
Sche@@	3964
hierbei	3960
sep@@	3959
akte	3958
Anlass	3957
iges	3956
102	3956
Kühl@@	3955
Gy@@	3953
cum@@	3953
erende	3952
Lap@@	3951
syn@@	3948
nia	3948
Ursache	3947
tiefe	3946
ausgesch@@	3945
Masse	3944
Standard-@@	3943
ox	3942
Zellen	3941
notwendige	3939
Aer@@	3939
Relevanz	3938
manche	3938
plötzlich	3938
n.	3938
begrenzten	3937
Unterlagen	3936
gru@@	3936
strasse	3936
stunden	3935
Pflege	3933
fehlen	3933
sachen	3933
tiere	3931
rates	3931
в@@	3931
orisch	3930
ā@@	3928
Ausgang	3927
Konsult@@	3926
Einzelheiten	3926
Ple@@	3925
unteren	3923
beruht	3923
medizinischen	3921
104	3921
nochmals	3920
tliches	3920
speci@@	3919
fizierte	3918
atin	3916
bewertet	3914
tene	3914
EW@@	3913
ender@@	3912
DIE	3911
Einheiten	3909
strom	3908
auto@@	3908
langfristige	3907
freiem	3907
ar-@@	3907
Fall@@	3906
weitgehend	3905
oth@@	3905
Sicht@@	3905
Jugendlichen	3905
ori	3904
formation	3904
zeigten	3899
hierfür	3896
Spar@@	3895
AI@@	3895
aktuali@@	3894
Verteilung	3892
gewissen	3892
mittleren	3889
teili@@	3888
lau	3887
Übereinstimmung	3886
sum@@	3885
nisch	3884
tigkeits@@	3884
mol@@	3882
Temperaturen	3881
fähigen	3881
ograph@@	3880
iegen	3877
TS	3875
partner	3874
Strasse	3874
auer@@	3870
ziel@@	3868
Econ@@	3868
gla@@	3867
klusive	3862
IV	3859
Á@@	3859
abb@@	3857
erter	3857
Verpackung	3856
eingereicht	3855
spezi@@	3855
eht	3852
aufzunehmen	3850
Roma	3850
seitig	3847
Transpor@@	3846
PA	3845
lexe	3843
freier	3843
prüf@@	3843
fikationen	3843
Optimierung	3843
anerkan@@	3839
funktionen	3839
Funktion@@	3833
stete	3833
wol@@	3833
kultur	3832
tec	3832
Koordinierung	3831
115@@	3830
vereinbart	3829
Steigerung	3828
ere@@	3828
tica	3827
drehen	3826
produkten	3826
amma@@	3826
ques	3825
Stufe	3824
refle@@	3824
CO2-@@	3823
kurzfris@@	3822
nier@@	3821
erfolg@@	3820
Gab@@	3819
ändert	3818
Ink@@	3818
schech@@	3816
Rue	3816
situation	3814
langfristig	3812
weiß@@	3811
relevanten	3810
versehen	3806
genannte	3803
stung	3803
ehl@@	3802
-1	3802
stärke	3801
osition	3801
saf@@	3800
wachsenden	3800
olli@@	3800
ktieren	3800
ME	3798
geeignete	3797
ó	3797
film@@	3797
103	3796
is-@@	3796
bildungen	3796
EV@@	3795
illi@@	3795
Unternehmer	3794
mien	3794
Potenzial	3794
roten	3793
genehmigt	3792
etab@@	3792
quenz	3790
Reinig@@	3789
methoden	3789
18-@@	3789
setzungs@@	3788
SW@@	3788
kil@@	3787
geschw@@	3787
beeinflusst	3786
-23	3786
wendet	3783
zugunsten	3783
^	3782
Haut@@	3781
Mak@@	3780
Slowenien	3779
malen	3778
g.	3778
stecken	3778
jo	3778
Verhäl@@	3777
Anleitung	3776
mid@@	3775
annehmen	3772
wachs@@	3772
111	3771
ska	3771
deln	3764
cel	3764
ähnliches	3762
älteren	3761
Road	3759
Ã@@	3758
erlangen	3757
Zusammen	3757
Maßnahme	3754
ular@@	3754
FR	3752
zess	3752
Feder@@	3751
Beschränk@@	3745
etan@@	3745
Flo@@	3745
spiegelt	3744
Lab@@	3744
ety	3739
schwere	3738
H-@@	3738
usk@@	3737
Unterstütz@@	3736
Modul	3736
spektiven	3735
sem@@	3735
messer	3735
gefüllt	3732
-Gruppe	3731
uc@@	3730
128	3730
Flä@@	3728
ells	3727
fa	3727
zentral	3726
Bedenken	3726
kum@@	3724
gerei@@	3723
135	3717
fes	3716
Phar@@	3715
Tax@@	3714
getr@@	3713
agli@@	3712
aussch@@	3711
shop@@	3711
hingewiesen	3710
5.000	3709
Bac@@	3708
Tieren	3706
wirkung	3704
Gang	3704
glas@@	3704
pin@@	3704
gehend	3699
igkeiten	3698
Leiden	3698
Hef@@	3697
engen	3697
days	3697
schlag@@	3696
angewendet	3694
Voraus@@	3694
umgeb@@	3693
Mengen	3693
ula@@	3693
Sign@@	3690
alk@@	3690
eingeschränkt	3687
nützlich	3687
OR	3687
quir@@	3687
Erklärungen	3684
ulti@@	3684
onia	3684
Durchschnitt	3683
untersuchen	3682
106	3681
blin@@	3679
weis	3678
u-@@	3678
sicherstellen	3677
Vul@@	3675
jegliche	3674
320	3673
uali@@	3672
kleidung	3671
ère	3670
passende	3668
erre@@	3666
erwor@@	3666
Hunde	3666
maßgeb@@	3662
rechnen	3661
ban	3661
enta@@	3660
sinkt	3659
Cel@@	3659
Var@@	3659
OS@@	3655
Nacht@@	3655
schwarze	3653
defini@@	3651
emm@@	3650
betreffend	3649
chl@@	3649
cit@@	3648
Mund	3647
Zin@@	3642
langer	3641
Spektrum	3640
aufgeteilt	3640
-29	3640
üblichen	3639
angemessen	3638
sinnvoll	3638
hinweg	3637
achtung	3635
Ausgangs@@	3635
Basis@@	3632
Therapie	3632
Werden	3631
Hohe	3631
PRE@@	3630
äden	3629
gendes	3629
hinweisen	3628
erfor@@	3627
grün	3626
Klar@@	3625
bestimmter	3624
bedienen	3623
angebracht	3622
Index	3621
Inn@@	3620
Stamm@@	3615
210	3615
mers	3614
Geschlech@@	3614
beteiligten	3613
steten	3612
108	3611
Das@@	3608
eci@@	3605
SL@@	3602
tics	3602
amer	3601
gter	3599
ende@@	3595
fende	3594
Blei@@	3594
alleine	3593
DA@@	3593
gefü@@	3591
konzipiert	3589
Tech@@	3589
Rü@@	3589
Herkunft	3588
Trend	3588
ese@@	3587
Pur@@	3586
ris	3585
gebil@@	3584
verzi@@	3583
ced	3583
tötet	3582
Bis@@	3580
anen	3578
treff@@	3578
effektiv	3578
geworfen	3577
hang	3576
Bedienung	3576
sogenannte	3575
ZI@@	3575
rang	3574
Verwenden	3574
Techniken	3573
lear@@	3573
bezogene	3572
besonderes	3571
mul@@	3571
krank@@	3570
Ressour@@	3569
fertigen	3569
Schnell@@	3568
t-	3567
Zypern	3566
с@@	3566
orischen	3564
keinem	3563
fluss	3563
Laser@@	3563
ologischer	3562
Verletzung	3562
Medikamente	3562
LU@@	3562
erhebliche	3560
lex	3558
cul@@	3557
arti@@	3554
′	3554
enger	3553
geringen	3552
Austria	3550
kontrollieren	3548
119	3547
intern@@	3546
materialien	3546
chungs@@	3545
kontinuierlich	3544
weshalb	3543
fehler	3543
Vorsitzender	3540
fenster	3539
ALL@@	3539
Hart@@	3538
ktiver	3536
Gemeinschaften	3535
zent	3534
bearbeitet	3533
still	3533
HD@@	3533
è	3533
wiederholt	3532
vas@@	3531
CA@@	3529
Aktivität	3528
ypen	3528
gewöhnliche	3527
ziel	3526
109	3525
Termin	3524
gegebenenfalls	3522
val	3522
standard	3520
Cin@@	3520
iertes	3518
Company	3517
Pflege@@	3517
Let@@	3517
kurzer	3514
raucht	3513
häl@@	3513
RS@@	3512
Variante	3511
inf@@	3511
V.	3510
unterliegen	3510
ž@@	3510
vermögen	3509
Ñ@@	3508
FS@@	3506
xx@@	3506
erfasst	3505
Versor@@	3504
itzen	3504
ungsprogramm	3500
Präzi@@	3500
ös	3495
Ris@@	3495
gebühren	3494
stoß	3491
fut@@	3490
entan	3489
brauch	3488
gemessen	3488
107	3488
Übergang	3487
tigem	3487
Reduzierung	3486
kurz@@	3486
agn@@	3486
part	3485
oppen	3484
ollt	3484
Nahrung	3483
Extr@@	3483
Bedürfnissen	3482
Zeh@@	3479
æ@@	3479
Zuge	3478
Filter@@	3478
Lev@@	3477
Berechnung	3476
ortieren	3476
leidet	3476
chemische	3475
vermittelt	3474
inner@@	3472
Armen	3471
Wechsel	3471
Med@@	3470
r-@@	3469
Dingen	3468
Eben@@	3466
Mittl@@	3466
zehn@@	3466
korrekt	3465
Vorlage	3465
unterschiedlicher	3464
offiziell	3464
ruhe	3464
1200	3464
Im@@	3463
senken	3463
äufe	3463
farbe	3463
erteilt	3462
vertik@@	3461
blauen	3461
lab@@	3461
Haushal@@	3460
uter@@	3459
Ursachen	3458
lem@@	3458
1-2@@	3458
verleihen	3457
vision	3457
gewis@@	3455
Grap@@	3455
015	3453
gewiesen	3452
kapazität	3450
geringe	3449
Suchen	3449
veröffent@@	3445
beenden	3442
gesammelt	3439
schlug	3438
getestet	3438
bo	3436
Erfolgs@@	3435
rot@@	3435
vis	3433
unterscheidet	3432
empfiehlt	3432
Wäh@@	3431
bedeutende	3430
Leucht@@	3429
Stellen@@	3428
Kie@@	3428
gerechnet	3427
vorgeschlagenen	3425
intensiv	3425
NR@@	3423
cop@@	3423
Milch	3422
letzt	3421
Angabe	3421
Š@@	3421
Vorsitz	3419
berührt	3418
übersch@@	3418
Drittel	3417
chtung	3415
0,000	3415
erfolgte	3414
zulässig	3413
Kranken@@	3413
bezug	3412
verstärken	3412
entsp@@	3412
122	3412
Black@@	3410
Aussage	3409
Drogen@@	3408
serv@@	3408
Trock@@	3405
erfordern	3403
stattfindet	3403
DF	3403
elektron@@	3402
angehö@@	3402
Logo	3402
LE	3401
bestimmungen	3400
Abhängigkeit	3400
mau@@	3400
Salz	3400
к@@	3399
Altern@@	3398
LO@@	3398
rh@@	3397
schloss	3397
misch@@	3396
299	3396
orth@@	3395
Wirksamkeit	3394
innere	3393
dichte	3389
glas	3389
Elek@@	3388
wiesen	3387
blen	3386
tee	3385
ämpfe	3385
EC	3384
beinhalten	3383
Tin@@	3383
ähe	3382
Erhaltung	3379
grade	3379
verabschiedet	3378
73@@	3378
lossene	3377
angemessene	3376
geplanten	3375
ausschusses	3375
analyse	3374
ulären	3374
Ero@@	3373
geringer	3372
basis	3370
sonstigen	3370
ograp@@	3367
Ärzte	3366
Vereinbarungen	3365
skri@@	3363
rechtzeitig	3363
existieren	3363
wandeln	3363
131	3362
Hilfs@@	3360
ungst@@	3360
abgestimmt	3359
280	3358
grüne	3358
CL@@	3358
fluss@@	3357
Spezialisten	3356
Harmon@@	3354
klassische	3352
Ig@@	3350
High	3349
namens	3348
Misch@@	3346
3000	3345
bestimm@@	3343
mäßige	3342
ão	3342
assungen	3341
dren	3341
Gefü@@	3340
schlu@@	3339
Wärme@@	3339
PP	3339
technisch	3338
ì@@	3338
zugelassen	3337
cam	3337
CT	3335
Metr@@	3334
Abfall@@	3333
standes	3331
entlicher	3329
Zucker	3329
EB@@	3329
Vorher@@	3328
v.	3328
stration	3327
TER	3327
-System	3326
verhältnis	3325
ausführ@@	3325
dal	3324
farb@@	3324
stechni@@	3322
Ring	3321
übung	3320
Großteil	3320
meistens	3320
vorran@@	3318
berufen	3317
tnis@@	3316
wässer	3315
tierenden	3315
weichen	3315
tz	3312
Sowohl	3312
rige	3311
Box@@	3311
Festlegung	3310
offener	3309
arien	3306
Vinc@@	3305
yn	3305
ÿ	3303
gefühl	3302
products	3302
Chil@@	3300
streb@@	3298
eman@@	3298
Gebühren	3298
Gegenstände	3298
Klu@@	3297
pas@@	3296
arbeiteten	3295
Verg@@	3295
mischer	3294
Erb@@	3294
Kommuni@@	3293
Messung	3291
Great	3291
erleichtert	3289
zuständige	3288
ask@@	3288
dom	3288
beherr@@	3287
läufi@@	3286
Dokumenten	3286
PA@@	3283
rt@@	3281
fris@@	3279
gefolgt	3279
114	3279
1500	3279
SC	3279
geeigneten	3278
teilte	3276
vergröß@@	3276
Gil@@	3275
Signal	3274
teln	3274
Std.	3273
t.	3273
Konzentration	3272
umfang@@	3271
dev@@	3271
Alph@@	3269
erhol@@	3269
17-@@	3267
150@@	3267
management@@	3266
alia	3265
Öffnung	3263
Pfer@@	3263
Cri@@	3263
ead	3261
Rücken	3260
Wachstum@@	3260
oration	3260
zität	3257
Körpers	3257
Mun@@	3256
frisch@@	3255
messung	3254
mitt@@	3253
Vent@@	3253
Deutsch@@	3253
sorge	3252
Trotzdem	3251
späteren	3250
Kunststoff	3250
oge	3250
lebenden	3249
usst@@	3249
gebeten	3245
enes	3245
Zurück@@	3244
0,5	3244
Net	3242
weit@@	3240
utz	3239
eignen	3238
kleineren	3236
jug@@	3236
gelangt	3235
750	3235
Blut@@	3234
Verhaltens@@	3231
enheit	3230
ardi@@	3229
appar@@	3228
ausgelegt	3227
Regime	3225
lastung	3223
lichkeits@@	3219
bio@@	3219
fle@@	3217
Tschechische	3216
Spiegel	3216
jährlichen	3213
umfangreichen	3212
Schie@@	3211
wuchs	3211
kompli@@	3208
charakter@@	3207
unverzüglich	3207
DS@@	3207
leitungen	3206
Beurteilung	3205
brauch@@	3205
Tä@@	3205
Varianten	3205
hielten	3204
vac@@	3204
hebung	3203
leit@@	3203
Vertretern	3203
Liter	3203
ermaßen	3202
gmen@@	3201
3,5	3198
mili@@	3197
externe	3197
Dunkel@@	3197
endem	3196
wies	3195
omer	3195
gemäß@@	3191
Prot@@	3191
setzungen	3188
anpassen	3185
höchst@@	3184
bedeutenden	3182
öser	3182
iegel@@	3181
Rückgang	3180
ologen	3180
ähnlichen	3179
früh@@	3179
Dy@@	3179
Blue	3179
mende	3178
Posi@@	3177
disk@@	3177
ores	3177
vgl.	3176
Labor@@	3176
145	3176
fru@@	3173
haltiges	3173
175	3173
Resultate	3172
lieren	3169
typische	3167
kompletten	3166
Disk@@	3163
Alkohol	3163
Wat@@	3163
graph@@	3162
einzur@@	3161
allgem@@	3158
Entstehung	3158
erreichte	3156
bewahren	3156
ordin@@	3156
al-	3155
aussehen	3154
oberfläche	3154
lans	3153
Roche	3153
Reb@@	3152
tät@@	3150
bezogen	3150
338	3150
genau@@	3149
Ce@@	3149
ergab	3149
Voraus	3149
geschlagen	3148
cy@@	3147
State	3147
eventuell	3146
die@@	3146
Süß@@	3145
wendung	3143
streichen	3143
113	3143
116	3143
schwarzen	3142
Konferenzen	3142
elop@@	3141
Mineral@@	3140
id-@@	3140
Erfassung	3139
Referenz@@	3139
ability	3139
Formel	3139
olet@@	3139
überein@@	3137
bren@@	3137
Stri@@	3136
AB	3135
ii	3135
Baby	3133
angesprochen	3132
enthaltenen	3131
25-@@	3131
Dru@@	3131
Bewegungs@@	3130
dere	3128
beanspru@@	3127
pfer@@	3125
Note	3125
ï@@	3124
Trocken@@	3123
Ergänzung	3122
erläutert	3121
later@@	3120
sible	3119
passieren	3118
gehoben	3118
010	3117
HR@@	3116
Aro@@	3113
CM@@	3112
kologischen	3111
fter	3111
gering	3109
MP	3109
Fami@@	3107
zurückzuführen	3106
interne	3106
weiße	3105
Warn@@	3105
chens	3104
stufe	3101
zuverlässig	3101
Wiederherstellung	3100
Sper@@	3100
iegel	3099
wak@@	3099
Health	3099
nehmern	3096
ergriffen	3096
individu@@	3096
Geträn@@	3096
Modu@@	3096
IE	3096
sor	3095
Uhrzeit	3094
zon	3093
benannt	3092
spüren	3092
enkt	3091
117	3091
alls	3090
gewand@@	3089
onische	3088
bewahr@@	3087
racht	3087
schicht	3086
Effekte	3086
det@@	3086
wiederholen	3084
CS@@	3084
veröffentlichte	3082
ausgewähl@@	3080
ungsmittel@@	3078
egs	3077
ves@@	3077
schlechten	3076
Kurz	3075
gehalt	3075
Effe@@	3072
Pfei@@	3072
gemeinsam@@	3070
heil@@	3069
teter	3069
Kopie	3069
Ausschuß	3068
zungen	3068
extra@@	3066
Zerstörung	3065
Spain	3065
Norm@@	3063
offenbar	3059
apan@@	3059
hohes	3058
halten@@	3058
FO@@	3057
Association	3053
forderte	3050
ur-	3049
sätz@@	3049
lierung	3048
fahren@@	3047
Malta	3047
rauchen	3047
spiegel	3047
Past@@	3046
32-@@	3044
benutz@@	3043
grundlage	3041
emen	3041
Est@@	3041
Genau@@	3040
soci@@	3039
£	3039
cult@@	3038
kis@@	3038
Jungen	3037
Verlu@@	3036
121	3035
active	3035
mittlere	3034
schrit@@	3031
rig	3030
kombin@@	3030
aal	3030
mani@@	3029
GH@@	3029
Einbeziehung	3027
yl	3027
Los@@	3027
Cali@@	3026
undi@@	3025
gesunde	3024
derartige	3023
Human@@	3023
Mais@@	3023
fang	3021
Ami@@	3020
betrug	3019
sprün@@	3019
gesetzten	3017
TEN	3015
Nap@@	3014
bereitung	3014
beginn	3014
etta	3012
Instand@@	3012
neter	3010
spätestens	3009
Erfahrungs@@	3008
KL@@	3006
etu@@	3006
Initi@@	3005
ermittelt	3005
260	3003
onaler	3002
SF	3002
keit@@	3001
Sus@@	3001
Noti@@	2998
vali@@	2998
Fün@@	2997
yk@@	2997
NY@@	2994
LA	2993
gnis@@	2990
Vorgehen	2990
einzusetzen	2989
stit@@	2987
zun@@	2985
Are@@	2983
Organe	2982
Solche	2981
basierte	2981
aris	2981
Risiko@@	2980
bekämpfen	2980
Än@@	2979
Litauen	2978
infolge	2977
Inneren	2977
É@@	2976
pil@@	2976
sicherer	2975
Lettland	2975
Äl@@	2974
herunter	2974
Zusammensetzung	2969
formi@@	2969
ursprüngliche	2967
Epo@@	2967
schriftliche	2967
lagern	2966
Kohlen@@	2965
Gefahren	2964
keits@@	2964
jemals	2963
mulation	2963
Monats	2962
kannte	2962
bilater@@	2960
itte	2960
artig	2960
voneinander	2959
anwenden	2959
wirksame	2958
fließen	2957
Sech@@	2957
Bedin@@	2957
fung@@	2956
sat	2956
Ltd.	2951
gerungen	2950
Anwesenheit	2950
Verfahrens	2948
Erkenntnisse	2948
Al	2947
sierter	2946
längere	2946
kter	2945
vorgesehenen	2944
Wachstums@@	2944
parallel	2943
Beratungs@@	2943
eingegangen	2942
personal	2942
Still@@	2941
Erforder@@	2940
separate	2940
Absol@@	2939
geraten	2938
sichergestellt	2937
befürwor@@	2936
Derzeit	2935
einstellen	2934
Wahrnehmung	2933
ed-@@	2932
genheiten	2928
omer@@	2927
Gewährleistung	2925
tat@@	2925
tetes	2925
600@@	2925
manchen	2924
dieselbe	2924
armen	2924
Weiteren	2924
terien	2923
lock	2923
Ergeb@@	2922
Funktions@@	2921
Hell@@	2921
venti@@	2920
Ä	2917
Kontrollen	2915
vermutlich	2915
ometr@@	2915
650	2914
konta@@	2912
optimalen	2911
Geburts@@	2908
kompatibel	2908
packungen	2907
reibungs@@	2906
beach@@	2905
hyth@@	2905
farben	2904
Teilnehmern	2904
kum	2904
lation	2904
Aussehen	2902
sex	2902
resi@@	2901
Beseitigung	2900
Ernährungs@@	2900
mend	2899
Analysen	2898
11,@@	2897
UV@@	2896
punkten	2895
lude	2895
Register	2894
Verbindungs@@	2894
itor	2894
gue	2890
aktivitäten	2888
016	2888
Ohren	2887
ofern	2886
Behörde	2886
markiert	2886
Maxi@@	2885
leichten	2884
FR@@	2884
prop@@	2883
GI@@	2883
übermittelt	2882
Belastung	2882
niert	2880
EH@@	2880
otal@@	2879
isation	2878
ì	2878
132	2876
agt	2875
onas	2875
verbundene	2873
pit@@	2873
otischen	2872
550	2870
jeweilige	2869
BA@@	2868
Abschließend	2866
schluß	2866
Übersetzungen	2865
Charles	2864
Leistungsfähigkeit	2863
DEN@@	2863
л@@	2863
einander@@	2862
Beobach@@	2862
Í@@	2862
Mitglieds@@	2860
negative	2857
Erhalt	2857
bewertung	2855
absolute	2853
belegt	2851
folglich	2851
jeglicher	2850
ý	2849
drit@@	2848
Beispiel@@	2848
Fres@@	2848
gehenden	2847
aken	2847
mengen	2846
zweimal	2845
chemischen	2845
Zusammenfassung	2845
normale	2844
155	2843
normal	2843
Jose@@	2843
Konsequenzen	2841
langfristigen	2840
Cr@@	2840
bevor@@	2836
Max@@	2835
ational	2834
Geschlecht	2834
IC	2832
MEN@@	2831
Nahr@@	2830
versuche	2830
Miner@@	2830
UM	2830
Anhang	2828
nem@@	2828
liance	2828
less	2828
stützen	2827
asy@@	2827
165	2826
strichen	2825
rig@@	2825
anzupassen	2825
dasselbe	2823
erwär@@	2823
gesti@@	2822
tie	2821
ertes	2820
arm@@	2819
Visu@@	2819
rauen	2819
Lou@@	2819
festgelegten	2818
abgeb@@	2818
Klassen	2818
farbi@@	2818
vornehmen	2816
DN@@	2816
wachsende	2815
umä@@	2815
Anschließend	2815
‑	2814
volumen	2813
ernannt	2812
profi@@	2812
rup@@	2810
Az@@	2809
grenze	2809
red	2809
DD@@	2807
ästh@@	2807
prüfung	2806
118	2805
negativen	2804
Agent@@	2804
zeitraum	2803
Tam@@	2802
setzten	2801
della	2801
FE@@	2800
Gemeinsame	2797
Fut@@	2796
OV@@	2796
verletz@@	2795
126	2795
älen	2795
GA	2793
aufgaben	2790
Beschaf@@	2789
schützt	2789
Medium	2789
verbrauch@@	2788
Instit@@	2787
EU-Mitgliedstaaten	2786
Wesentlichen	2785
oly@@	2785
hibi@@	2784
örtlichen	2781
heiß@@	2780
Umstruktur@@	2779
einig@@	2779
PK@@	2779
Nachfolgend	2779
Verges@@	2777
verbesserte	2776
È@@	2773
stin	2772
zustand	2770
schlafen	2770
ordnet	2769
vorherige	2769
OT@@	2769
Corporation	2769
Zulassung	2768
Mani@@	2768
einbezogen	2767
GU@@	2766
stufen	2765
ohlen	2765
angewandt	2764
Garden	2763
beu@@	2762
keln	2759
runde	2759
Begr@@	2758
dire@@	2756
270	2755
Erkrankungen	2755
Feuchtigkeit	2755
niedriger	2754
GS@@	2753
sinn	2752
konsultieren	2751
nol@@	2750
Typen	2748
Kindes	2747
Eingabe	2747
essor	2746
High-@@	2745
1.5	2745
terungen	2742
yli@@	2741
isa	2740
serie	2739
beobachtet	2735
achen	2735
jak@@	2735
Hierzu	2734
Manche	2734
PT@@	2734
spiegeln	2733
Fix@@	2730
durchschnittlich	2726
behoben	2725
gewiss@@	2724
yr@@	2724
134	2724
äußer@@	2723
vorlegen	2722
hilfreich	2722
Verfahrens@@	2722
EM	2722
a.eu	2722
äte@@	2721
fic@@	2720
olischen	2719
gesun@@	2718
127	2716
geschätzt	2714
Louis	2714
ukle@@	2713
sitzt	2713
ements	2712
schlech@@	2711
Ausmaß	2710
erhöhte	2710
eingeleitet	2709
üre	2709
artik@@	2709
mensch@@	2708
schwar@@	2707
utin@@	2706
dokum@@	2705
Gla@@	2705
MAN@@	2705
selbe	2704
steine	2703
Buchstaben	2703
folgendes	2702
Barc@@	2702
AF	2701
basieren	2701
beschränk@@	2700
Zunahme	2700
seitige	2700
fün@@	2699
ographie	2698
europä@@	2697
wies@@	2696
stehend	2696
ters@@	2696
hn@@	2695
verfahrens	2695
frucht@@	2695
ux@@	2694
Krankenhaus	2694
Versuche	2693
gewählten	2692
rodu@@	2692
Verl@@	2691
erlaub@@	2688
effektive	2687
muster	2686
Generaldire@@	2685
überwiegend	2685
nachfolgenden	2684
Block	2684
Inhaber	2684
м@@	2684
geteilt	2683
wendi@@	2682
Umstände	2682
Weiß	2681
L.	2679
den.@@	2679
Sul@@	2678
äuch@@	2676
siger	2675
istisch	2675
ierre	2675
Pferd	2674
Vaku@@	2671
Pel@@	2671
AND	2671
reagiert	2670
ł@@	2670
129	2669
Million	2668
trocken	2667
cla@@	2667
PP@@	2667
zuverlässige	2666
Stoff	2666
Komplex@@	2664
Leder@@	2664
Schmerzen	2664
19-@@	2663
stof@@	2662
OG@@	2661
Anti-@@	2661
Beschwerden	2660
133	2660
ANG@@	2660
intensive	2659
Avenue	2659
register	2658
Flasche	2657
а	2657
gentliche	2655
still@@	2655
limi@@	2655
Begriffe	2654
maß	2653
ämpf@@	2651
aufeinander	2651
141	2650
Füße	2650
Kürze	2649
ationale	2649
woche	2648
verwendete	2648
pflanz@@	2648
ean	2648
stabil	2646
232	2646
GEN@@	2645
einig	2644
uläre	2644
Stuhl	2644
Werten	2643
fluß	2642
bler	2641
Grupp@@	2641
ie-	2641
Grun@@	2641
142	2641
Sev@@	2639
umfassend	2637
Solu@@	2637
haushal@@	2636
berich@@	2636
person@@	2635
GL@@	2635
ermitteln	2634
ommen	2634
lasten	2634
Oberflächen@@	2633
Tagungs@@	2633
Wiederhol@@	2633
zept@@	2632
Schwä@@	2630
abgegeben	2630
entscheidet	2630
Isol@@	2630
verlust	2630
ines	2630
gültige	2628
unterhalb	2628
Komponente	2627
CC	2626
cos@@	2624
ungsmittel	2622
uropä@@	2621
versorgt	2621
Ner@@	2620
SN@@	2620
ENT@@	2619
glat@@	2619
leistet	2618
Reaktionen	2617
ovol@@	2616
Informieren	2616
reb@@	2613
800@@	2613
Resul@@	2612
Chemie	2610
jahres	2608
Slo@@	2608
CT@@	2608
Platten@@	2608
aer@@	2608
Stufen	2607
stel@@	2607
Î@@	2607
fenen	2606
rati@@	2604
uth@@	2604
gesunden	2603
schwä@@	2602
GA@@	2602
Uhr@@	2602
äußert	2600
Operationen	2600
wass@@	2600
komplex	2599
zellen	2599
bevölkerung	2598
xis	2598
derg@@	2594
bedingt	2593
beliebigen	2593
Tube	2593
ältere	2591
EIN@@	2591
leich@@	2589
ausgedeh@@	2589
Fortsetzung	2588
konserv@@	2588
zk@@	2586
kation@@	2586
automatischen	2586
Pferde	2586
eingehalten	2585
dringen	2584
körper	2583
alien	2583
gesichert	2582
Nä@@	2582
morgens	2581
vereinbarten	2580
überwachen	2578
dreht	2578
д@@	2578
Rati@@	2577
angemessenen	2577
beispiel@@	2577
gelb	2577
breites	2576
merken	2575
Mechanismen	2575
antien	2574
triebs	2574
mg@@	2574
Republi@@	2573
IX	2573
ér@@	2572
eta@@	2571
festzustellen	2570
e.	2570
alternative	2568
Verlängerung	2564
Lagerung	2564
tech	2564
entnehmen	2562
addi@@	2562
betragen	2559
Alters@@	2558
Labor	2557
uman@@	2557
earch	2555
begründet	2554
oral	2551
graphie	2550
zug@@	2549
FC	2549
üblich	2547
kalische	2547
Lebensmitteln	2545
850	2545
HR	2545
cations	2545
EK@@	2543
ereig@@	2542
anzuwenden	2541
gestell@@	2541
185	2540
greift	2539
verlie@@	2538
extr@@	2536
traum	2536
136	2536
ACH@@	2536
überwacht	2535
Auswertung	2534
operativen	2533
lokaler	2532
RA	2532
6.1	2530
erhalb	2528
lob@@	2527
Diagnose	2527
mehrfach	2526
fortsetzen	2526
verord@@	2526
risi@@	2526
k-	2523
Defizi@@	2523
Mahlzeiten	2523
Centr@@	2523
irgendwelche	2522
10.000	2521
äuft	2520
AZ@@	2519
kontin@@	2517
Dün@@	2517
jährliche	2516
jähriger	2515
Hierbei	2515
330	2515
operative	2514
Genuss	2514
152	2513
änderungen	2512
geplante	2512
test@@	2511
beteili@@	2511
144	2510
Oberflächen	2509
sprüfung	2508
Ang@@	2508
Nicht-@@	2508
Heilung	2508
abschnit@@	2508
п@@	2506
bemerkt	2505
gründ@@	2505
TION	2504
Futter@@	2503
Leb@@	2503
isen	2503
gezielt	2502
gehörigen	2500
380	2500
übrig	2497
vorange@@	2497
INE	2495
klen	2494
orien@@	2494
Finger@@	2494
fläch@@	2494
Transfer@@	2493
Kreis@@	2493
inden	2493
asen@@	2493
vorkommen	2491
trin@@	2490
Korre@@	2489
ell-@@	2489
Behandlungen	2489
posi@@	2489
Sprit@@	2488
da-@@	2487
ovi@@	2487
PI@@	2487
späten	2486
gefährlich	2485
kehrt	2485
Sons@@	2485
Schritten	2484
Träger	2484
fortgesetzt	2484
erhaf@@	2484
Bew@@	2483
Universitäts@@	2481
o-	2480
ble@@	2480
Stress	2479
asie	2478
Küh@@	2477
annt	2477
1,6	2476
höh@@	2475
ria	2474
blieben	2473
gesetzte	2472
Dublin	2472
achtet	2471
Archiv@@	2470
Füll@@	2469
4,5	2468
124	2468
AND@@	2468
Verh@@	2467
non	2467
klären	2466
uv@@	2466
arin@@	2466
ès	2466
erfahrenen	2466
tas	2464
basierten	2464
Italia	2464
137	2463
OP	2463
Indem	2462
vermieden	2462
beobach@@	2462
ministration	2462
zender	2460
nisses	2460
lin-@@	2460
tensi@@	2460
S.A.	2459
blät@@	2459
196	2459
21-@@	2459
Betracht	2458
konkurr@@	2458
Regulierung	2456
ungssystem	2456
abends	2456
40-@@	2456
hilf@@	2455
kologische	2455
Drittländern	2455
traten	2455
Estland	2455
Distribution	2455
Protokoll@@	2454
Verfüg@@	2454
senk@@	2453
alin@@	2453
stabilität	2452
Komplex	2452
verglichen	2452
Ps@@	2452
arität	2451
lokal	2451
Diagnosti@@	2451
FOR@@	2451
2.000	2451
tierende	2450
programms	2450
sper@@	2450
ubi@@	2450
fet@@	2449
act@@	2449
spo@@	2448
50-@@	2447
Zäh@@	2446
mehrerer	2445
generell	2445
vorsichtig	2445
ellem	2444
Begründung	2444
ßer@@	2442
erforderliche	2442
ärer	2442
92@@	2442
Weiterhin	2441
hand	2441
±	2441
Ausarbeitung	2440
aufweisen	2440
ito	2439
anfan@@	2438
Implementierung	2438
schlechte	2437
zul@@	2437
glicher	2437
bricht	2437
oden	2437
zurzeit	2436
dings	2436
ungs-@@	2435
otische	2435
MD@@	2434
Polyester	2434
Gemäß	2432
NL	2431
basierend	2431
2.5	2431
eisen@@	2430
Lebensqualität	2429
Gefrier@@	2429
mitgeteilt	2427
Umk@@	2426
Vermarkt@@	2425
Vitamin	2425
M.@@	2425
Stockholm	2424
Beachten	2424
CP	2424
anzunehmen	2423
terte	2423
ison	2423
greg@@	2422
seitigen	2421
147	2420
Versuchen	2419
decke	2417
oir	2417
Director	2415
mithilfe	2414
rennen	2413
MO	2413
anteil	2412
umgehend	2411
r.	2411
Beine	2410
beschleunigen	2409
KI	2408
äußern	2407
sexuelle	2407
starker	2406
öhn@@	2406
beider	2405
zufügen	2405
P.@@	2405
halben	2404
olische	2404
Füßen	2403
frü@@	2403
folgender	2403
MON@@	2403
EP	2401
MER	2399
emoti@@	2398
entlichen	2398
CO2	2398
dru@@	2395
begünsti@@	2395
VI	2395
stage	2395
pfel@@	2394
Arzneimittel	2394
Schweiß@@	2393
mitteilen	2392
vorhandene	2392
verbli@@	2392
Männ@@	2392
Maus@@	2392
Vier	2389
ugh	2389
Stütz@@	2388
fact@@	2387
verwiesen	2385
einzelner	2385
Fahrzeugen	2384
tigste	2383
Ic@@	2383
Ø	2383
produkt	2382
Ax@@	2382
4.5	2382
appli@@	2382
durchschnittliche	2381
Erwachsenen	2381
Winkel	2381
1.1	2380
vorzulegen	2379
Beachtung	2379
verm@@	2379
Hintergrund@@	2379
trat@@	2379
häufigsten	2376
blaue	2376
HA@@	2376
NS@@	2376
III@@	2373
151	2372
sac@@	2372
Dauer@@	2371
146	2371
Kammer@@	2371
Rückseite	2369
umgekehrt	2368
Verschl@@	2368
Jean@@	2368
Absch@@	2366
TEL	2366
andr@@	2365
С@@	2365
erheblichen	2364
vorherigen	2364
erzielte	2363
gegenseitig	2363
ernähr@@	2363
College	2363
Selb@@	2362
jenigen	2361
STR@@	2359
pot@@	2357
PAR@@	2357
übertra@@	2356
228	2356
Minimum	2355
Trink@@	2355
metho@@	2355
eva	2355
gewöhn@@	2354
149	2354
Stamm	2353
SR@@	2353
waschen	2352
fo	2352
festlegen	2351
trit@@	2350
vorge@@	2349
begrün@@	2348
Helsinki	2348
derzeitige	2347
DES	2347
ř@@	2346
PE	2344
Quad@@	2343
biologischen	2343
sichtbaren	2343
kanal@@	2343
station@@	2341
ò	2340
Zwangs@@	2339
tests	2339
anbe@@	2338
wenigstens	2338
lagerung	2338
Neur@@	2338
cover@@	2338
plas@@	2335
Prüfungen	2334
erhielten	2334
differen@@	2334
Vorsit@@	2333
kinder@@	2332
Muskel@@	2332
erarbeitet	2331
Beratungen	2329
gezi@@	2328
steigenden	2328
†	2328
Cla@@	2327
Produk@@	2326
Bakterien	2325
-2	2325
dieselben	2324
Kontr@@	2324
315	2323
Schicht	2322
Einschränkungen	2321
typ	2321
erwiesen	2320
kommission	2319
138	2319
auftritt	2319
zufrieden@@	2318
beschränken	2317
gebr@@	2317
verbess@@	2315
schwache	2315
unterbrochen	2315
komponenten	2315
veröffentlichten	2314
-Code	2314
TEC	2314
wirkungs@@	2313
kriterien	2313
esischen	2313
pet@@	2312
Arbeitsgruppe	2310
tiefer	2309
orischer	2308
esien	2308
у@@	2307
denjenigen	2306
Antik@@	2305
Zwisch@@	2305
sionsp@@	2304
Vietnam	2304
ran	2304
ausdrück@@	2303
UR	2303
anal@@	2303
tels	2302
Erwä@@	2301
voraussichtlich	2301
übertragung	2301
dauerhaft	2299
31-@@	2299
Norm	2298
grau@@	2298
Klinik	2298
anstelle	2297
alth@@	2297
gewählte	2296
beleuch@@	2296
mäßigen	2295
titu@@	2295
Öffnen	2294
29-@@	2294
011	2294
Darm@@	2293
umin@@	2292
Harmonisierung	2291
gegenwärtige	2290
jus@@	2290
körperliche	2290
Ersatz	2289
BC	2288
340	2288
az	2287
Störungen	2286
ega	2286
Sofern	2285
Nachweis	2285
sop@@	2284
starkes	2284
tsy@@	2284
Abbau	2283
Verletzungen	2282
Mechanismus	2282
Medical	2282
Nei@@	2281
Aspekten	2281
Gedäch@@	2280
streng	2280
gleicher	2278
ı@@	2278
vorliegen	2277
schätzung	2277
regelmäßige	2275
nehmenden	2275
größen	2275
cover	2275
erläu@@	2274
definierten	2274
172	2273
Amb@@	2273
wertes	2272
Stämme	2272
verläuft	2271
Geschw@@	2271
entstand@@	2269
tini@@	2269
1,2	2268
Eisen	2268
Schichten	2268
einzeln	2268
Qui@@	2268
Erhol@@	2268
dis	2267
relevant	2267
deter	2266
fielen	2266
Erreichung	2265
gegebenen	2265
kontroll@@	2264
nter	2264
siertes	2264
auseinander	2263
unterschied	2263
chenen	2261
SY@@	2260
PER@@	2259
west	2259
otic	2259
BP@@	2259
Wassers	2258
199	2258
mehrmals	2257
Sir@@	2257
äss@@	2257
schwan@@	2256
altern@@	2256
benötigten	2255
Asp@@	2254
225	2254
MH@@	2253
genehmi@@	2252
Flüs@@	2252
state	2252
Pharma@@	2252
natür@@	2251
änderung	2250
keines@@	2249
herkömmlichen	2248
Mona@@	2248
endgültig	2246
014	2246
terer	2244
sus	2244
Bestand@@	2244
micro@@	2244
stattgefunden	2243
scheibe	2243
Schach@@	2243
ungsmaßnahmen	2242
Phan@@	2242
Carb@@	2242
stärkere	2241
einmalige	2241
5000	2241
zyklus	2241
-2-@@	2239
Revision	2239
genommenen	2238
oberhalb	2238
begannen	2238
Report	2237
provided	2237
herbei@@	2235
dokumentiert	2234
Ny@@	2234
blick@@	2234
Green@@	2234
endgültige	2233
jahre	2232
verabschie@@	2231
Lenk@@	2229
tex	2227
schlus@@	2226
dener	2224
231	2224
bewirkt	2223
überwachung	2223
trän@@	2223
OB@@	2222
abilität	2222
352	2222
terials	2221
spektrum	2221
kos	2220
oma	2220
abgesehen	2218
Hitze	2218
ggf.	2218
vec	2217
ordnen	2216
Diskus@@	2215
28-@@	2215
.fr	2215
älter	2214
arme	2214
Lac@@	2214
Interpretation	2213
gelegte	2213
esk@@	2212
verlängert	2212
ersatz@@	2212
UB@@	2212
Metho@@	2211
Arm	2210
Lös@@	2210
inte@@	2209
spitze	2208
raschen	2207
senschaf@@	2207
grun@@	2205
xen	2204
AUS@@	2204
Berichten	2203
Feststellung	2203
punkt@@	2203
Ersch@@	2203
Bio-@@	2203
AE	2203
gebenen	2202
Senkung	2202
Sorgfalt	2201
operationen	2201
Wahrscheinlichkeit	2201
Stick@@	2201
Cit@@	2200
cus	2200
male	2199
Rauch@@	2194
deutliche	2194
195	2194
MI	2194
zeitlich	2193
Aller@@	2193
laufende	2193
ogenen	2193
gewohnt	2193
Vorsitzenden	2192
entier@@	2192
Handhabung	2191
Einleitung	2191
gültigen	2191
27-@@	2191
identifiziert	2190
3.5	2190
Steuer	2189
Area	2189
prote@@	2188
medizin	2187
Schätz@@	2187
Schüt@@	2187
maßen	2186
lenken	2186
TP@@	2186
kei@@	2185
beabsichtigt	2184
erkennbar	2183
Lyon	2183
enar@@	2182
einnehmen	2182
Besondere	2182
deutet	2182
Gramm	2182
egt	2181
dion	2181
yp	2181
beurteilen	2180
faktor	2180
tender	2180
ränken	2180
ollow@@	2180
fok@@	2179
festzulegen	2177
methode	2177
bedeckt	2177
qualifizierten	2176
Krebs	2175
Modi@@	2175
Kupfer@@	2175
opro@@	2174
neuem	2174
standard@@	2174
VA@@	2174
stungs@@	2173
steil@@	2173
scheinend	2172
däch@@	2172
Phasen	2172
Substanzen	2171
restlichen	2171
Ate@@	2171
inde@@	2171
7-2@@	2171
Infektionen	2169
füllung	2169
regelmäßigen	2169
Int@@	2167
isierung	2166
Zucker@@	2166
klingt	2166
arit@@	2166
Iv@@	2166
metr@@	2165
ABl	2165
menten	2164
aushal@@	2162
UN	2162
denselben	2161
quenz@@	2161
elf	2161
endgültigen	2160
Fett@@	2160
stützt	2159
Anträge	2158
vorgeschlagene	2157
deutlichen	2156
unterteilt	2155
Exposition	2155
Ds	2155
strengen	2154
Mitgliedsstaaten	2153
Aufgaben@@	2153
presse	2153
Finger	2152
Penis	2152
vu@@	2151
Tab	2151
überein	2149
stabili@@	2148
alth	2147
Aluminium@@	2147
gemeinschaftlichen	2146
B.@@	2146
Neg@@	2145
Sac@@	2144
leer	2143
hem@@	2142
Human	2142
aufgehoben	2140
wirksamen	2139
dec@@	2139
ira	2139
beachtet	2138
370	2138
sichtbare	2138
forderten	2137
vorteil@@	2136
umpen	2136
flüs@@	2135
luft	2135
Hyper@@	2135
mir@@	2130
acke	2130
Co	2130
Bisher	2129
pass	2129
Eier	2128
LD@@	2128
Potential	2127
Gewebe	2127
vorzunehmen	2126
Transaktionen	2126
-4@@	2125
phen@@	2124
ausgelöst	2123
Drive	2123
demselben	2121
б@@	2121
schwerer	2120
sauber@@	2120
sla@@	2120
ihr@@	2119
ernsthaft	2118
Aufhebung	2118
vorliegende	2117
ISS@@	2117
entei@@	2116
Bewuß@@	2116
doppelt	2116
mon	2116
½	2115
vorliegt	2114
hep@@	2114
unverändert	2114
Stoff@@	2114
221	2112
GE	2112
eindeu@@	2111
einschlägigen	2111
nomin@@	2111
lich-@@	2111
berechnen	2111
Ähn@@	2110
schuß	2108
Gie@@	2108
sog.	2108
EWG	2107
niedrige	2106
gebrochen	2105
PT	2105
β@@	2105
tial	2104
23-@@	2103
Att@@	2102
Ox@@	2101
290	2100
verschieden	2099
WI@@	2099
auswirken	2098
bereichs	2098
sul@@	2098
dine	2096
Vereinfachung	2093
häufiger	2092
Iso@@	2092
148	2091
Zähne	2091
Quadrat@@	2091
tätigkeit	2090
NI@@	2090
ausüben	2089
acet@@	2089
Gegeb@@	2088
Etwa	2088
nä@@	2087
entschied	2086
dali@@	2085
uma	2085
harmoni@@	2084
frühere	2083
chen-@@	2083
BER	2083
NE	2082
Hill	2082
å	2082
Hypot@@	2080
Erfol@@	2080
5.1	2080
Gad@@	2077
José	2077
157	2076
C.@@	2076
Einnahmen	2075
162	2075
Stap@@	2075
sprüf@@	2074
Peri@@	2074
sammlungen	2072
dap@@	2072
gif@@	2071
359	2071
chene	2070
Kennzeichnung	2070
159	2070
mor	2070
Vorgang	2070
Meldung	2069
143	2068
gesamt	2068
förmi@@	2067
sicherheits@@	2067
alis	2067
amma	2066
verschieben	2065
Tabellen	2065
zunehmende	2064
erwähnten	2063
erkenn@@	2063
öhnung	2063
verschwinden	2063
alph@@	2062
mpro@@	2061
Lokali@@	2061
bedin@@	2060
PLUS	2059
Pilot@@	2059
yle@@	2059
255	2058
en.	2058
German@@	2058
Parall@@	2057
basi@@	2057
variieren	2057
angewiesen	2056
mischung	2056
nov@@	2056
Albert	2056
andel@@	2056
71@@	2056
Rasse	2055
bestimmung	2055
kin	2055
183	2054
999	2054
maximalen	2052
gefährdet	2051
leitete	2051
stimmung	2051
Nase	2051
Gebrauch@@	2051
verletzungen	2050
Fett	2050
von-@@	2050
DEN	2050
Schieds@@	2049
Tode	2049
äußeren	2049
interv@@	2049
direkter	2048
Beam@@	2046
reichlich	2046
ärz@@	2046
HEI@@	2046
andra	2045
inta@@	2042
bewegungen	2041
Vorbereitungen	2041
Herzens	2040
¡	2040
dl	2040
auton@@	2039
enin@@	2039
2-3	2039
Bestandteile	2036
Ral@@	2036
-Con@@	2035
befür@@	2034
ffin@@	2034
alz@@	2033
ART@@	2031
ogene	2030
aku@@	2030
redu@@	2029
biologische	2029
otherap@@	2029
außergewöhnlichen	2027
Gummi@@	2027
Ras@@	2027
belegen	2026
halbe	2025
häu@@	2025
eingereichten	2023
Isch@@	2023
verstärkte	2022
WO@@	2022
Häufig	2021
gtes	2020
Gesund@@	2019
310	2019
sid	2019
sicherh@@	2017
VA	2017
tinnen	2016
negativ	2015
Hals	2015
development	2015
thor@@	2014
Einschätzung	2012
IL	2010
glin@@	2009
lat	2008
Ereignissen	2007
139	2007
enia	2006
Proben	2006
akter@@	2006
Z-@@	2006
ard-@@	2005
einzuführen	2004
indir@@	2004
ehlen	2004
Behandlungs@@	2004
otherapie	2004
Katzen	2003
einstell@@	2003
Untersuchungs@@	2002
Tendenz	2002
onin@@	2002
ý@@	2001
-3@@	2001
beruhen	2000
c.	1998
entscheidung	1997
klassen	1997
Refle@@	1996
löst	1995
Vermeidung	1994
MR@@	1994
Dau@@	1994
ulin@@	1994
transportiert	1993
ausgenommen	1993
2x@@	1993
-Re@@	1992
Verstärkung	1992
и	1991
ersatz	1989
Prävention	1989
Schrau@@	1989
eva@@	1989
Quality	1989
oxi@@	1988
Sämtliche	1986
einstellung	1986
161	1986
Malaysia	1985
bewirken	1984
aggressi@@	1984
n.com	1984
dierung	1983
oris	1983
166	1982
furt	1981
ausreichende	1980
153	1980
beantragt	1979
istischer	1977
Hilfsmittel	1976
vergleichbar	1976
168	1976
0,1	1976
480	1976
ares	1975
sexuellen	1975
Träume	1974
ansonsten	1973
größeres	1973
ugen	1973
eintreten	1972
sistent	1972
HL	1972
Schulung	1971
Gehirn	1971
ASS@@	1971
e-mail	1971
Mix	1969
Mix@@	1969
SK@@	1969
Ê@@	1969
verlauf	1968
Netherlands	1968
Sitzungen	1966
Knoten	1966
kontakt	1965
doppel@@	1964
saubere	1964
Verbess@@	1964
CI	1964
Ash@@	1963
Katze	1963
streifen	1962
mikro@@	1962
niedrig	1961
2.2	1961
ckung	1960
ausführlich	1959
Proto@@	1959
mangel@@	1957
STE@@	1957
umgewandelt	1957
solu@@	1957
wissenschaftlicher	1956
mind	1956
beeinträchtigt	1955
wirr@@	1955
nifi@@	1954
ION	1953
terium	1952
esy@@	1952
p.	1951
gemeinsamer	1950
ć	1950
mechanismus	1949
Veröffentlichungen	1949
SAT@@	1949
zunehmenden	1948
eo@@	1948
zweier	1948
esc@@	1948
dunkl@@	1947
vorwiegend	1947
abw@@	1947
allmählich	1946
deu@@	1946
ühren	1946
Kle@@	1945
TN@@	1945
Arme	1944
beibehalten	1944
Öffent@@	1943
Abb@@	1943
Epi@@	1942
doppelte	1941
kanal	1941
dist@@	1941
generation	1941
Å@@	1940
extern@@	1939
ädi@@	1939
Beendigung	1939
dheit	1939
3.000	1939
kontinuierliche	1938
schäden	1938
CAR@@	1938
Probe	1938
stabile	1937
210@@	1937
Signal@@	1936
beschädigt	1936
Atten@@	1936
gerte	1935
SB@@	1935
Gen	1934
mechanischen	1933
Stärken	1932
Koordination	1931
opo@@	1931
stimmte	1931
BP	1931
4.1	1931
zuläs@@	1930
probe	1930
sierenden	1930
zweites	1930
napp@@	1930
aan	1928
Beamten	1927
Beschleuni@@	1927
schwach	1926
Rate	1926
Streifen	1926
mac@@	1926
163	1925
lant@@	1925
beträcht@@	1924
kräftig	1924
sage@@	1924
gesam@@	1924
192	1924
UNG@@	1924
440	1923
symp@@	1922
linen	1922
Kingdom	1922
EE	1922
verschoben	1921
herausge@@	1920
Schmerz	1920
rac@@	1920
Bene@@	1920
tin-@@	1920
schrittweise	1919
ässe	1919
MM@@	1919
kru@@	1918
1.2	1918
UV-@@	1917
verteilung	1916
Hydro@@	1916
Estate	1916
Wirkungs@@	1915
typen	1914
ст@@	1914
Vorgehensweise	1913
ida	1913
passungen	1912
vorzubereiten	1912
UC@@	1910
belle	1910
kot@@	1909
211	1909
Seien	1907
Wirkungen	1906
etabliert	1906
Broschüre	1906
Beta	1906
421	1905
katoren	1904
eth	1904
befestigt	1903
auß@@	1902
vorgang	1902
gerechtfertigt	1901
vorzeitig	1901
luß	1900
mer-@@	1900
plän@@	1899
Messungen	1898
Hex@@	1898
321	1898
aktiver	1896
korrekte	1896
Viren	1896
schlechter	1895
►	1895
care	1894
PL	1894
Entfer@@	1893
Tagungen	1893
zelle	1892
ECU	1892
167	1891
ae	1890
0,2	1889
stellvertret@@	1887
anter	1886
UNGEN	1886
Jog@@	1886
sache	1886
Bewältigung	1885
60-@@	1885
längeren	1884
durchgeführten	1883
gangenen	1882
reinigen	1881
Tragen	1880
Begrenz@@	1880
Position@@	1880
HC@@	1880
boden@@	1878
Kör@@	1877
IM	1877
Water@@	1876
erweise	1876
herausgegeben	1876
DU@@	1876
Str	1876
ktin@@	1875
acti@@	1875
zil	1875
0,0@@	1874
Anbetracht	1873
275	1873
akzeptabel	1871
Folgenden	1871
IST@@	1871
Erkrankung	1870
eph@@	1870
zuverläs@@	1868
4000	1868
onate	1868
ein-	1867
rimi@@	1864
NICHT	1863
blas@@	1863
national	1863
herstellung	1862
202	1862
Autof@@	1861
Sicherheitsp@@	1858
sierende	1857
maler	1857
ähn@@	1857
größerer	1856
Joh@@	1856
völk@@	1855
Ý@@	1855
Dopp@@	1854
rix	1854
Ï@@	1854
erteilen	1853
aussieht	1853
schreibung	1853
sieh@@	1853
Applikation	1853
Kraftfahr@@	1852
dauerte	1852
TP	1852
gegenseitigen	1850
handelte	1850
aufrecht	1850
FE	1850
Gesich@@	1850
kreis@@	1849
Melan@@	1849
unterliegt	1848
,5	1848
zusammengefasst	1848
geachtet	1845
paper	1845
raums	1844
Erreichen	1844
Bulg@@	1844
uten@@	1844
Swe@@	1844
beginn@@	1843
weisungen	1842
ö	1842
dürften	1839
erreichten	1839
Non@@	1839
teilten	1838
beziehungsweise	1838
efen	1838
Andr@@	1836
asmus	1835
erörtert	1833
y-	1833
BE	1833
begeben	1832
Belast@@	1832
Schwellen@@	1832
49-@@	1832
Foli@@	1830
171	1830
Bein@@	1830
Beobachtung	1829
Fäl@@	1828
Einreichung	1828
Stadium	1828
201	1827
wände	1826
Fab@@	1825
Erk@@	1823
1-2	1823
Division	1822
cos	1822
lität	1819
Ganz@@	1819
beschriebenen	1818
befes@@	1818
geistige	1817
asu@@	1817
diesbezü@@	1816
215	1816
lie	1816
Dolmet@@	1815
205	1815
BESCH@@	1815
ector	1814
2.1	1814
stabilen	1813
Ermittlung	1813
PE@@	1813
einzustellen	1813
Soll@@	1813
head	1813
GAR@@	1812
Krisen	1811
Days	1811
Schä@@	1810
chemie	1808
erem	1807
169	1806
Ohr@@	1806
Etiket@@	1806
kom	1806
3.1	1806
SEL@@	1806
jahren	1805
I.@@	1805
notwendi@@	1804
akti@@	1804
1,4	1803
transfer@@	1803
ody@@	1801
Null	1800
ekten	1800
faktoren	1800
nologie	1800
gewünscht	1799
richtlinien	1799
386	1799
verzeichnen	1798
ützt	1798
klingen	1797
Eth@@	1797
core	1797
beeinträchtigen	1796
Nahrungsmittel	1795
3.2	1795
Stun@@	1794
GER@@	1794
4.2	1793
erzielten	1791
Fünf@@	1791
Umwandlung	1791
37.@@	1791
berichtete	1790
Arz@@	1790
geru@@	1789
nas@@	1789
orat@@	1789
Einmal	1788
erhäl@@	1788
Kupfer	1788
neg@@	1787
kompon@@	1787
EF	1786
abgeben	1785
1,3	1785
kontr@@	1784
passi@@	1784
Außer	1784
Erteilung	1783
schuhe	1783
pool@@	1783
Plo@@	1782
l-	1782
rop@@	1782
conc@@	1782
rus	1782
aue	1780
kontrollen	1780
ektiv@@	1780
mächtig	1780
vorläufi@@	1779
Schwein@@	1779
kristall@@	1778
Indu@@	1777
fortzusetzen	1776
cum	1776
,000	1776
Anzeichen	1775
korrig@@	1775
Glie@@	1774
Behälter	1773
sko@@	1773
Daraus	1773
dep@@	1773
schaden	1773
dienten	1773
Produktes	1772
ological	1772
opi@@	1771
separaten	1771
mechanismen	1770
bedar@@	1770
jenige	1770
Os	1770
Stellvertret@@	1770
HE@@	1769
Na	1768
KS	1767
roma	1767
völ@@	1766
235	1765
nica	1765
erhöhten	1764
Freiwil@@	1761
Stellung@@	1760
kologie	1760
Nebenwirkungen	1760
256	1758
Aug@@	1758
probleme	1757
arat	1757
Zusätzliche	1757
Kei@@	1756
TRI@@	1756
228@@	1756
Meldungen	1755
CB@@	1755
ATE	1755
steigende	1754
ansprech@@	1754
konstruiert	1754
Produkts	1753
aufgesch@@	1752
Deli@@	1752
identisch	1752
stribu@@	1751
oster	1751
pfei@@	1750
wachs	1750
Tropfen	1749
sons@@	1749
nfalls	1748
haltiger	1748
Zelle	1748
Zyklus	1748
RT@@	1748
Cell@@	1748
haut	1747
Knochen	1747
oat	1747
chro@@	1746
cis	1745
beschleunigt	1745
zubereitet	1745
Om@@	1745
Unterdrückung	1744
Substanz	1744
sitzung	1743
Stoffen	1743
gramms	1743
gasse	1743
gewor@@	1742
Brust@@	1741
maxi@@	1740
irgendeiner	1740
irgendeine	1740
geliefer@@	1739
154	1738
beherrscht	1736
nd@@	1736
Č@@	1736
onor@@	1735
gesundheit	1735
eits@@	1734
brü@@	1734
geneti@@	1734
barem	1734
ckel	1734
Trop@@	1734
ART	1734
aufgeführten	1733
Nachkommen	1733
179	1733
mann-@@	1733
mperatur	1733
176	1732
sprit@@	1731
gedreht	1731
derjenigen	1730
beschädi@@	1729
giene	1728
dina	1727
gemeldet	1726
Aktivierung	1726
durchschnittlichen	1725
ONE	1725
kein@@	1724
Gefähr@@	1723
cine	1723
zeitige	1722
stamm@@	1722
Patienten@@	1722
feine	1722
dür@@	1721
ely@@	1721
189	1721
OL	1720
öses	1720
173	1720
dämpf@@	1720
taz@@	1720
prüft	1719
II@@	1719
ulierung	1718
ING@@	1718
olin	1718
ränk@@	1716
Innere	1715
Intensität	1715
alternativen	1715
äuren	1715
langsame	1714
benötigte	1714
empfeh@@	1711
ürze	1710
ütung	1710
Kit	1710
info.@@	1710
irn@@	1709
Sap@@	1709
ě@@	1709
standardi@@	1707
datenbank	1707
ical	1706
effekt	1705
Folgendes	1705
bevorzugt	1704
berühren	1704
Nas@@	1704
bezogener	1703
neur@@	1703
164	1703
gefährliche	1702
sätzlich	1702
aufhören	1702
lebende	1701
ritt	1701
70-@@	1701
rue	1701
Einschränkung	1700
KR@@	1699
Käl@@	1699
Care	1699
203	1699
ausführliche	1698
periode	1698
studie	1698
verschwunden	1698
Trinken	1698
Plas@@	1698
Nahrungs@@	1697
ox-@@	1697
Mass	1697
Fort	1696
a-	1696
profil	1696
diesbezüglich	1695
Rücken@@	1695
eriode	1694
verseh@@	1694
Korrektur	1694
daraufhin	1694
Alkohol@@	1693
ungsphase	1692
fication	1692
Campus	1692
Mé@@	1691
eingesetzten	1690
vention@@	1690
studien	1690
MIT@@	1690
dauerhafte	1689
hek@@	1689
HP@@	1689
184	1688
Hg	1688
gegenseitige	1687
Haushaltsp@@	1687
zirk@@	1687
alkoh@@	1686
Sinn@@	1686
gefährlichen	1684
U.	1684
303	1684
rosa	1684
gestör@@	1683
158	1682
512	1682
proto@@	1681
tiven	1681
Hem@@	1681
höherer	1680
verwen@@	1680
trali@@	1679
ührt	1679
schreiten	1679
Medikament	1678
156	1677
AST@@	1677
AGE	1677
quantit@@	1676
eingeschlossen	1676
agr@@	1676
Heli@@	1676
123@@	1676
Alan@@	1676
aufweist	1675
Sicherheit@@	1675
Fast@@	1675
hysi@@	1675
1,8	1674
188	1674
krank	1673
Überarbeitung	1672
PN@@	1672
schieben	1671
siges	1671
bisher@@	1671
dargelegt	1670
Aufsicht	1670
männlichen	1670
237	1670
2-4	1670
Ergän@@	1669
netes	1669
misches	1669
eting-@@	1669
Auswirkung	1668
höchstens	1668
se-	1668
DAS	1668
ine-@@	1668
ц@@	1668
fester	1667
Verlangen	1667
mur@@	1667
mmt	1665
zugeordnet	1665
BAS@@	1665
bestanden	1664
offizi@@	1664
kern@@	1664
masse	1664
lanz@@	1663
Folge@@	1663
kale	1662
Flaschen	1662
illy	1661
mc@@	1661
gos	1660
Ganzen	1660
zol@@	1660
Einbau	1660
301	1660
HAN@@	1660
angewand@@	1659
qualifizier@@	1658
Intervention	1658
schritten	1658
Fact@@	1658
stütz@@	1657
isie	1657
2x	1657
DT@@	1656
319	1656
FER@@	1656
enab@@	1655
Aufrechterhaltung	1654
ose@@	1654
verlu@@	1654
ande@@	1654
geklärt	1653
355	1653
sierungen	1651
absoluten	1651
abr@@	1651
Durchschnit@@	1650
Dil@@	1649
Brust	1649
Interaktion	1649
WEL@@	1649
Wachstums	1647
178	1647
oben@@	1646
hn	1646
In-	1645
source	1644
Veröffentlich@@	1644
beides	1643
312	1643
angegebene	1643
raz@@	1643
aufgeb@@	1642
Let	1642
stoß@@	1641
AL-@@	1641
Benz@@	1641
minder@@	1640
Getränken	1640
Schlaf	1640
Inhalts@@	1639
Zir@@	1639
Roc@@	1638
COM@@	1638
MET@@	1638
bezeichnung	1637
ktische	1637
belastung	1636
vesti@@	1636
,4	1636
schritte	1636
stes@@	1636
1800	1636
gewöhnlichen	1635
graf	1635
Muskeln	1633
Simul@@	1633
Å	1633
schenk@@	1632
Sauerstoff	1632
genommene	1629
Formulierung	1628
fizierten	1628
Adapter	1627
annehm@@	1626
dierten	1626
eili@@	1626
Lokale	1626
eingebracht	1625
gelegentlich	1625
Kopien	1625
ektive	1625
Patient	1625
proben	1624
fehlende	1624
hyd@@	1624
Performance-@@	1624
str	1623
ausgegangen	1622
Ohr	1622
Sensibili@@	1621
35-@@	1621
Reduktion	1621
äufi@@	1621
419	1621
CV@@	1621
Verord@@	1620
dys@@	1620
Fehlen	1618
medizin@@	1618
vet@@	1617
möglicher	1616
überlegen	1616
ordnungsgemäß@@	1615
unbekannt	1615
Limited	1615
ð	1615
zusätzlicher	1614
verbesserten	1614
statisti@@	1614
191	1614
г@@	1614
gesenkt	1613
Smit@@	1613
agi@@	1613
O.	1613
Versu@@	1612
heilen	1612
2,4	1612
chem	1611
ektr@@	1610
reste	1610
Hosp@@	1610
й	1610
Schein@@	1609
fizi@@	1609
relevante	1608
leeren	1608
itt	1608
row	1607
effekte	1605
vereinbaren	1604
Rauchen	1603
Al-@@	1603
GER	1603
Kiefer@@	1602
idi@@	1601
TW@@	1601
390	1601
Prü@@	1598
langte	1598
.E@@	1597
erfolgreicher	1596
002	1596
Aufstellung	1594
Langzeit@@	1594
Reser@@	1594
Plastik@@	1594
sinken	1593
Infektion	1593
ordnungsgemäß	1593
In-@@	1593
Part	1593
His@@	1593
Finland	1593
Atem@@	1592
versehentlich	1592
poly@@	1591
pation	1591
186	1590
177	1590
spiegel@@	1590
Brin@@	1590
Monats@@	1590
cet@@	1590
wahrnehmen	1589
Austausch@@	1589
obere	1589
klarer	1588
Setzen	1588
vorausgesetzt	1587
Gesundheitszustand	1587
Sachver@@	1586
vorgelegten	1585
nal@@	1585
schär@@	1584
sämtlichen	1583
krankheiten	1583
Umstellung	1583
tragung	1583
212	1583
ь@@	1583
Lock@@	1582
erzeugung	1581
dacht	1581
gemisch@@	1581
ZU@@	1581
kalen	1580
Auflagen	1579
versuch	1579
gelan@@	1579
cept	1579
IST	1579
eichen	1578
285	1577
gangene	1576
chemi@@	1576
Verabschiedung	1575
neutr@@	1575
0,3	1574
physische	1574
NO	1574
PU@@	1574
Berei@@	1573
VE	1573
Vereinigtes	1573
Õ@@	1573
systematisch	1572
verlängern	1572
befindlichen	1571
Normal@@	1571
aar	1571
Intensiv@@	1570
einzel@@	1570
Radio@@	1570
nachgewiesen	1569
Trän@@	1568
Sili@@	1568
Flüssigkeit	1568
Stühle	1567
Vorsicht	1566
Gesichts@@	1566
EX	1566
rigkeit	1565
wirkungen	1564
fünften	1564
erholen	1564
2000-@@	1563
gül@@	1562
ographische	1562
100.000	1562
HL@@	1562
Fristen	1561
182	1561
komplettes	1561
bedeutend	1560
410	1560
Mitglie@@	1560
rung	1559
gereinigt	1559
makro@@	1558
öß@@	1558
Trin@@	1558
ausgehend	1557
schädigung	1557
gil@@	1557
TV@@	1557
Angehörigen	1556
circa	1556
Trav@@	1556
eingenommen	1555
hämat@@	1555
Pent@@	1554
aph@@	1554
4.000	1554
Schub@@	1553
39-@@	1553
ersu@@	1552
bekannter	1552
Weniger	1552
extreme	1552
abhängi@@	1552
überschritten	1550
müde	1550
bereitstellen	1549
linien@@	1549
Gür@@	1549
zugestimmt	1547
angaben	1547
gesteigert	1547
Gutachten	1546
physikali@@	1546
20.000	1546
5.2	1546
Perform@@	1546
Begleit@@	1545
iell	1545
Quadratmeter	1545
Lach@@	1544
nau@@	1544
Stam@@	1544
6.5	1544
entsprechender	1543
Erarbeitung	1543
Maximum	1542
Alfre@@	1542
45-@@	1540
---	1540
braune	1539
züglich	1539
È	1539
gründlich	1538
wieweit	1538
iertem	1537
Äußer@@	1536
Eingriff	1536
Kommt	1536
2500	1536
Midd@@	1536
anzeige	1536
erfolg	1535
unvermei@@	1535
Normalerweise	1535
Überleben	1534
deutete	1534
Solange	1534
klang	1534
herab@@	1534
181	1533
ft-@@	1533
Kund@@	1532
Dichte	1532
Kombinationen	1531
konstan@@	1530
einzuhalten	1529
FRE@@	1529
zulegen	1528
seltenen	1528
rechtfertigen	1527
187	1527
rif@@	1527
Reserve	1526
durchge@@	1526
Träger@@	1526
empfehlenswert	1526
hig@@	1526
gina	1526
-Programm	1525
Prozent@@	1525
gedrückt	1524
tus@@	1524
freigegeben	1523
7.5	1523
klinischen	1522
Entsprechend	1521
Toleranz	1520
Etiketten	1520
345	1520
305	1520
isoli@@	1519
separat	1519
rasche	1518
gehörten	1518
raub@@	1517
vorberei@@	1516
Unver@@	1516
-10@@	1516
vermei@@	1515
bemerken	1515
anzur@@	1515
Zar@@	1515
351	1514
samml@@	1514
ilität	1514
zuverlässigen	1513
orange	1513
Trinkwasser	1512
Alc@@	1512
û@@	1511
teli@@	1511
landen	1511
Bestimm@@	1511
sonder@@	1511
Punkt@@	1511
Rhein	1511
279	1511
yar@@	1511
Mut@@	1511
Bedar@@	1510
tasche	1510
Abschluß	1509
KI@@	1509
1,0	1509
chem@@	1509
spezifisch	1508
174	1508
EINE	1508
CAN@@	1508
209	1507
Allen	1507
otin@@	1507
SE-@@	1505
Schrauben	1505
Chem@@	1505
unr@@	1504
dunkel@@	1504
beunruhi@@	1503
seltene	1503
betreffende	1503
Micha@@	1503
1400	1503
anzahl	1502
verfügbare	1501
schüren	1501
Kontra@@	1500
konventionellen	1500
Wänden	1500
4,8	1499
dokumente	1499
Alternativ	1499
ombin@@	1499
BD@@	1498
UD@@	1497
Amm@@	1496
teilungs@@	1495
Syna@@	1494
endo@@	1492
HM@@	1492
Verzö@@	1491
Halten	1491
Episode	1491
Einflüsse	1490
effektiven	1489
minütigen	1489
leidung	1489
1.500	1489
Organismus	1488
kyo	1488
4.3	1488
413	1488
potenziellen	1487
größtenteils	1485
keinesfalls	1484
Vergleich@@	1484
Ritu@@	1484
Sonstige	1484
Folglich	1483
gewich@@	1483
ase-@@	1483
OF@@	1482
jes@@	1481
Stüh@@	1481
7,5	1480
telt	1480
.1	1480
Gabe	1480
Lip@@	1479
Gehalt	1479
sämtlicher	1478
agement@@	1478
MER@@	1478
funktions@@	1477
Agi@@	1476
SER@@	1476
EUROPÄ@@	1476
Berichts@@	1475
Jähr@@	1475
toler@@	1475
1,1	1475
Ib@@	1475
untersagt	1474
abhängiger	1474
208	1474
¿	1474
ansprechen	1473
Jahresbericht	1473
¨	1473
Drücken	1473
schnelles	1472
CK@@	1472
tom	1472
е	1472
з@@	1472
Defini@@	1471
tali@@	1471
Cros@@	1471
zahn@@	1471
öffentlich@@	1470
zio	1469
No.	1469
SG@@	1469
Ganzes	1468
311	1467
Abweichungen	1466
Gewich@@	1466
TC	1466
TL@@	1466
Enal@@	1465
kontinuierlichen	1464
iden	1464
UE	1463
80-@@	1463
veränder@@	1462
197	1462
Weich@@	1462
Symptom	1461
LT	1461
Mitgliedsta@@	1460
GD	1460
männ@@	1460
gerer	1459
Abfall	1459
lierten	1459
Pulver	1459
beurteilt	1458
ECT	1458
371	1457
333	1457
giger	1456
Karton	1456
6000	1456
Klär@@	1455
größt@@	1455
TI	1455
1T@@	1455
ämpfen	1454
sanft	1454
tritts	1453
Erg@@	1453
Molek@@	1453
Verzögerung	1452
veränderte	1452
Beauf@@	1452
mid	1452
-I@@	1452
Xi@@	1452
esie	1452
Unterschie@@	1451
klares	1451
ekte	1451
245	1451
skop@@	1451
RT	1451
Vac@@	1450
464	1450
errei@@	1450
wofür	1449
ernsthafte	1449
üblicherweise	1448
580	1448
PVC	1447
Tony	1447
2,3	1447
eventuelle	1446
50.000	1446
fili@@	1443
transportieren	1443
520	1443
ammen	1442
0,00@@	1442
gerun@@	1442
Verstärk@@	1442
atio	1442
DEL@@	1441
spezielles	1440
Tem@@	1439
tell	1439
gf@@	1439
Protein	1439
tus	1439
Hat@@	1438
menschlicher	1438
ICH	1438
013@@	1438
Überwachungs@@	1437
Progno@@	1437
genes	1437
bedenken	1436
Ek@@	1436
Barr@@	1435
exu@@	1435
aufgeklärt	1435
Sprechen	1434
ance-@@	1434
Boulevard	1433
lex@@	1432
beiträgt	1431
tierter	1431
Base	1431
PV@@	1431
0,8	1430
gestützt	1430
264	1430
325	1430
020	1429
trockenen	1429
verschw@@	1429
desselben	1429
SCHAF@@	1429
Dé@@	1428
weiblichen	1428
od-@@	1428
Primär@@	1427
375	1427
Ejak@@	1427
TEIL@@	1427
reichte	1426
oan@@	1426
Eier@@	1426
Schwangerschaft	1425
Mund@@	1425
zwingend	1423
OM	1423
EIN	1423
verzichtet	1422
infiziert	1422
DER@@	1422
Organ	1421
Vollendung	1421
wöchentlich	1421
weib@@	1420
bedingten	1420
Erwägung	1419
ungsplan	1419
GO@@	1419
Schätzungen	1417
einmaligen	1417
bedingte	1416
cir@@	1416
Folie	1416
PO	1416
Verwaltungsr@@	1415
Anteile	1414
ommen@@	1414
180@@	1414
Benachrichtigen	1414
eintritt	1412
ALL	1412
Bruch@@	1411
drin	1411
tagon@@	1411
1.3	1410
Funktionsweise	1410
33-@@	1410
korre@@	1409
LA@@	1409
Differ@@	1408
jeglichen	1408
,3	1408
Bakteri@@	1408
einhalten	1407
sych@@	1407
Wichtige	1406
opy@@	1406
Entfernen	1406
34-@@	1406
Minde@@	1405
ge-	1405
abu@@	1405
therapie	1405
ualität	1405
istics	1405
Beli@@	1404
überschreiten	1403
brand	1403
entfalten	1402
ral	1402
Foc@@	1402
Typs	1402
223	1402
HIV	1401
dra	1401
viden@@	1400
44-@@	1400
,6	1399
sue	1399
258	1398
Beu@@	1396
ethnischen	1395
Orientier@@	1395
deutlicher	1394
virus	1394
Wortlaut	1394
stammen@@	1394
patr@@	1394
wunden	1393
wertet	1393
Blau@@	1393
BV@@	1393
pressi@@	1392
brennen	1391
endern	1391
,9	1391
Bod@@	1391
CHEN	1390
Erleichterung	1389
Warte@@	1389
265	1389
vorgeschrieben	1388
geringeren	1388
übliche	1387
2,2	1387
281	1387
Behinderung	1386
aufrechterhalten	1386
Secon@@	1386
ieder@@	1386
Schutzes	1385
urin@@	1385
RO	1385
Meri@@	1385
py@@	1384
gp@@	1383
Industrial	1383
Leber	1382
behälter	1381
chtes	1381
dreimal	1381
Futter	1380
Abschnitte	1380
äußere	1380
Scan	1380
beauf@@	1379
isiert	1379
Tol@@	1379
packt	1378
316	1378
ан@@	1378
Identifizierung	1377
Medikamenten	1377
komplet@@	1377
VIS@@	1377
Hören	1376
pot	1376
Sciences	1376
Auftreten	1375
artiger	1375
zeri@@	1375
Tätigkeits@@	1373
atri@@	1373
entwickel@@	1372
semin@@	1372
FÜR	1372
206	1371
korrigiert	1370
frühzeitig	1370
ektiven	1370
Partners	1370
änn@@	1370
lebens	1369
ulierten	1369
ombe	1369
Deckel	1369
383	1369
Gemeinsam@@	1367
Leitfaden	1367
Anwend@@	1367
risiko	1366
derartigen	1366
Strahlung	1366
Krebs@@	1364
erwarteten	1364
KT@@	1364
CK	1364
5.3	1363
Turn@@	1363
bedürfen	1362
194	1362
wissenschaftlich	1361
Lippen	1361
asste	1361
Abnahme	1361
Röntgen@@	1361
ichtet	1360
unterzogen	1360
TES	1360
alin	1360
2.3	1360
FT	1360
niedrigeren	1359
kompati@@	1359
3,2	1359
sonsten	1358
Stör@@	1358
Überprüfen	1358
Brit@@	1357
`	1357
körperlichen	1356
0,6	1356
sec	1356
‹	1356
marketing	1355
Krist@@	1355
tismus	1354
1,7	1354
198	1354
Thor@@	1354
gefr@@	1354
490	1354
007	1354
ALT@@	1353
kopf@@	1353
untere	1353
jüngeren	1352
IS-@@	1351
reife	1351
193	1351
Bedeut@@	1350
CHE	1350
Matrix	1350
Bratislava	1349
weiche	1349
pH@@	1349
Frucht@@	1348
-Wer@@	1348
USS	1348
stufen@@	1347
syntheti@@	1346
geringere	1346
steigert	1346
Behäl@@	1346
о	1346
Sicherheits-	1344
Meta@@	1343
zeitlichen	1342
litten	1342
243	1342
ENT	1342
0,4	1341
ы@@	1341
MIT	1341
operiert	1340
640	1340
merkmale	1339
illin@@	1339
Non-@@	1338
abin@@	1338
Anschrift	1338
wasch@@	1338
weiser	1337
stärkeren	1336
Einnahme	1336
bestätigte	1336
periment@@	1336
Welches	1335
BH@@	1335
Rij@@	1334
getrennte	1333
Erwär@@	1333
A-	1332
phan	1332
Hinzufügen	1331
Synth@@	1331
frequenz	1331
lieb	1329
Quin@@	1329
schmerz@@	1328
markierten	1328
Line-@@	1328
gesundheits@@	1327
parall@@	1327
Redu@@	1327
Agri@@	1327
lim@@	1327
verlaufen	1326
utzen	1326
enkung	1326
Ltd	1326
auffordern	1325
Titan@@	1325
Monitoring	1325
entu@@	1325
etra	1325
Luxembourg	1325
beschich@@	1324
030	1324
Г@@	1324
Mahlzeit	1323
binnen	1323
LT@@	1323
verstärkten	1322
222	1322
geänderten	1321
bende	1321
Ble@@	1321
Cambridge	1320
ã	1319
rie	1318
mittel-	1318
Anfan@@	1318
förmige	1318
L.@@	1318
pumpe	1317
kshops	1317
wendbar	1316
Abgabe	1316
Hunden	1316
Anne@@	1316
Milano	1316
Bereichs	1315
Anweisung	1315
stat	1315
mäh@@	1315
assoziierte	1315
melten	1314
tate	1314
konstant	1314
226	1314
geschul@@	1313
brüche	1313
À@@	1312
jav@@	1312
Co-@@	1311
wirkte	1310
FA	1310
Posten	1309
unterschieden	1309
ebs-	1309
470	1309
NA	1309
R.@@	1309
vorübergehend	1308
428	1308
Api@@	1308
Oslo	1307
ungeachtet	1307
weibliche	1307
216	1307
MS-@@	1307
zumeist	1306
ST-@@	1306
Kalender@@	1306
WAR@@	1306
Wahrschein@@	1305
gewebe	1305
blättern	1305
Unterscheidung	1304
aldi@@	1304
Schaum@@	1304
Spezielle	1304
vernachläs@@	1303
omat@@	1303
arer	1303
Biotechnologie	1303
verpackt	1303
2,0	1303
blockiert	1302
AIDS	1302
,2	1302
veränderten	1300
2,8	1300
aufbewahrt	1300
PE-@@	1299
multip@@	1299
monaten	1299
itan@@	1298
ч@@	1298
Stabilisierung	1297
been@@	1297
haut@@	1297
grupp@@	1297
PR	1297
enfalls	1296
augen@@	1296
Verwaltungsrat	1296
Zunge	1296
säu@@	1295
Lösungs@@	1295
RC@@	1295
fehlenden	1294
dauerhaften	1294
Schulter	1294
atien@@	1294
kanäle	1293
,8	1293
TION@@	1293
Kalibr@@	1293
sofortige	1290
empir@@	1290
Störung	1290
aufgetreten	1289
aktion	1289
verfü@@	1288
Gewichts@@	1288
Boul@@	1288
Kompatibilität	1288
Nerven@@	1288
krau@@	1288
ähnlicher	1287
andro@@	1287
Strahl@@	1287
amet@@	1287
GP	1287
Lokal@@	1285
Vas@@	1285
abschließend	1284
vollständi@@	1284
Durchschnitts@@	1284
č	1284
isoliert	1283
relax@@	1283
einzelstaatlichen	1282
bestehender	1282
nder	1282
erfol@@	1281
detaillierten	1278
Meilenstein	1278
gegebene	1278
euti@@	1278
369	1277
emia	1277
verantwortlichen	1276
anfangs	1275
besonder@@	1275
geborene	1275
288	1275
Raucher@@	1275
Chirurgie	1275
Flüssigkeiten	1275
Organen	1274
100-@@	1274
Sauerstoff@@	1274
komplizierte	1273
gesundheit@@	1273
öfter	1273
IX@@	1273
UNGS@@	1273
geborenen	1272
implementiert	1272
WEI@@	1272
5,5	1271
Buchst@@	1270
Leck@@	1270
Zucht@@	1270
Geflü@@	1270
non-@@	1270
erörtern	1269
gelagert	1269
282	1269
Differenz	1269
Bewertungs@@	1268
Binde@@	1268
BN@@	1268
Dai@@	1268
Alters	1267
Products	1267
austausch@@	1266
kompen@@	1266
TC@@	1266
PEG	1266
hrend	1265
epi@@	1265
gewar@@	1264
Schwäche	1263
N.@@	1263
linder	1263
aktionen	1262
ungewöhnlich	1262
gewechselt	1262
beschwerden	1262
estig@@	1262
störungen	1261
syst@@	1261
OT	1261
wiederhol@@	1260
asis	1260
Transp@@	1260
skir@@	1260
ISCHEN	1260
abzuschließen	1259
fertige	1259
Konsolidierung	1259
Riga	1259
begrenzen	1258
Lä@@	1258
onen-@@	1258
klinische	1257
Notfall@@	1257
zusätzliches	1256
287	1256
AE@@	1256
wart	1255
eingestuft	1255
mittlerer	1255
direktem	1255
mangel	1255
gemischt	1255
Mindestens	1255
passte	1255
Anfangs@@	1254
460	1254
224	1254
Mala@@	1254
abschließen	1253
kannt	1252
männliche	1252
Herde	1252
Kapseln	1252
popul@@	1251
Schließen	1251
VON	1251
prol@@	1251
Slowak@@	1250
County	1250
omot@@	1250
ا@@	1250
verbleibenden	1249
Information@@	1249
sn@@	1249
erfüll@@	1249
infil@@	1249
tägigen	1249
farbigen	1249
Organismen	1248
schwachen	1248
241	1248
Multip@@	1247
klär@@	1246
ausgetauscht	1246
stick@@	1245
Arb@@	1245
usen	1244
reig@@	1244
spezifischer	1243
Arc@@	1243
Ki	1243
Griechen@@	1242
konstitu@@	1242
Notwendi@@	1242
hinweise	1242
ateg@@	1242
ergri@@	1241
sheim	1240
Kurve	1239
BEN@@	1238
evan@@	1236
drucks	1236
terungs@@	1236
Haltbarkeit	1236
on-	1236
Dah@@	1235
Mahl@@	1235
gemeinschaf@@	1234
6,5	1234
lierte	1234
agon@@	1234
ening	1233
gebor@@	1233
elix	1233
0,7	1232
2,7	1232
rauch@@	1232
335	1232
bindet	1231
eingeschränkte	1231
vorherseh@@	1231
fortlauf@@	1231
reprodu@@	1231
379	1230
gelben	1230
opic	1230
Lamin@@	1230
Vorkehrungen	1229
Duo	1228
visuelle	1228
ODER	1228
verdoppelt	1227
Associ@@	1226
412	1226
oz	1225
SCHL@@	1224
kleb@@	1223
abgeleitet	1223
Pumpe	1222
deuten	1221
Photo@@	1221
Ela@@	1221
besteh@@	1220
plans	1220
EST@@	1220
nem	1220
ECO@@	1219
entnommen	1219
Vergleichs@@	1219
357	1219
äun@@	1219
Nordic	1219
TUNG	1219
Ñ	1219
Lyn@@	1218
Verschlechterung	1218
Therapie@@	1218
343	1218
184@@	1218
kung	1217
213	1217
variable	1217
erkennung	1216
anderwei@@	1216
magen@@	1216
beruh@@	1215
Verwirrung	1215
Abwesenheit	1215
gleichmäßig	1215
bury	1215
erhöhung	1214
schritt@@	1214
geschrit@@	1214
Poin@@	1214
gehö@@	1213
Makro@@	1213
Sekret@@	1213
234	1213
2C@@	1213
Hinsichtlich	1212
1x	1212
verletzung	1211
Anthr@@	1211
204	1211
geringem	1210
überwach@@	1210
alie	1210
potenzi@@	1210
207	1210
oder@@	1210
238	1210
erg	1210
kran@@	1210
Katzen@@	1209
folie	1209
423	1209
informi@@	1208
TT	1208
HA	1208
Reaktions@@	1207
erwartete	1207
Deckung	1207
unzureichend	1207
añ@@	1207
296	1207
Guan@@	1207
3.3	1207
Einge@@	1206
SAR@@	1206
angeraten	1205
pir@@	1205
gl.	1205
Bauch	1204
gehal@@	1203
aufrechtzuerhalten	1203
iden@@	1202
Weit@@	1201
beutel	1201
geeigneter	1200
-Mark@@	1200
Atem	1200
indel@@	1199
wich	1199
361	1199
Verschw@@	1198
materials	1198
Gent@@	1198
Flecken	1198
Horn@@	1198
Spri@@	1198
Konzentrations@@	1196
Entsorgung	1196
Eingriffe	1196
barkeits@@	1196
Oh@@	1196
GB@@	1195
363	1194
Berührung	1193
gebildeten	1192
372	1192
Betreu@@	1192
Popul@@	1192
schädliche	1191
reigabe	1191
1,9	1191
Extre@@	1191
niti@@	1191
Pfle@@	1191
Teilchen	1191
Zubereitung	1190
chts@@	1190
Fä@@	1188
Orac@@	1188
schä@@	1187
249	1187
gekehrt	1186
Evaluierung	1186
ämmen	1186
BC@@	1186
s.c@@	1186
Thy@@	1185
353	1185
statistischen	1185
üle	1185
vul@@	1185
ungsweise	1184
711	1184
003	1184
mad@@	1184
ab-@@	1184
etwaige	1183
gesamt@@	1183
Hirn@@	1183
0-2@@	1183
Einwände	1182
DNA	1182
PRO	1181
route	1181
DP@@	1181
assisti@@	1180
exualität	1180
Johnson	1180
abgew@@	1179
atmen	1179
parat@@	1179
495	1179
oster@@	1178
ellung	1177
Nel@@	1177
folgend	1177
SON@@	1177
ulierte	1176
oid	1176
251	1175
sauberen	1175
iere@@	1175
öhe	1175
LS	1175
auslösen	1174
irgendeinem	1174
erbracht	1174
229	1174
1.7@@	1174
Quanti@@	1173
Proben@@	1173
283	1173
desin@@	1173
Kanten	1173
reiz	1172
bekamen	1172
manischen	1171
MAN	1171
3x@@	1171
ungsta@@	1170
zent@@	1170
relative	1170
Zurzeit	1170
beleuchtung	1170
Wiederaufnahme	1169
stich@@	1169
2,6	1169
Welpen	1169
abweichen	1168
Ps	1168
Vitamine	1168
õ@@	1168
eicht	1167
Routi@@	1167
trot@@	1167
Acti@@	1167
ritan@@	1166
EME@@	1166
ASS	1166
Diät	1166
tischem	1165
Haushaltsplan	1165
einmalig	1165
dnis@@	1164
435	1164
Überwach@@	1163
entle@@	1163
frühe	1163
Streu@@	1163
Partn@@	1163
630	1163
Poland	1163
besprechen	1162
Zusatz	1162
schädlich	1162
Sicherstellung	1162
ämie	1162
Agency	1162
vermehrt	1161
gressi@@	1161
spenden	1161
Quick@@	1161
1300	1161
ISTA	1161
т	1161
mus-@@	1160
Pfeil	1160
1.4	1160
mangelnde	1159
UF@@	1159
AX	1159
gebrachten	1158
einnahmen	1158
signifikant	1157
dati@@	1157
ulär@@	1157
säure	1157
Ž@@	1157
kut@@	1156
fälligen	1156
Spin@@	1156
Basierend	1156
obu@@	1156
Gerin@@	1155
411	1155
540	1155
Strecken@@	1155
infizieren	1155
viv@@	1154
341	1154
248	1153
positives	1152
ologisches	1152
Mütter	1152
konzip@@	1152
Creme	1152
onat@@	1152
Prod@@	1151
eventu@@	1151
otenzial	1151
DK@@	1151
stechen	1150
RG@@	1150
Vorhandensein	1149
Trac@@	1149
Einzel-	1148
295	1148
überla@@	1147
TEL@@	1147
Verhinderung	1146
wirksamer	1146
beziehung	1146
Apfel@@	1146
272	1146
006	1146
217	1145
Nil@@	1145
485	1144
Versuchs@@	1144
flach	1144
alyse	1143
pumpen	1143
337	1143
Card@@	1143
vorangegangenen	1142
Verdacht	1142
verbraucht	1142
214	1142
3-1	1142
329	1142
l.	1141
ı	1141
willkür@@	1140
cog@@	1139
Chrom@@	1139
aufgezeigt	1138
örtlich	1137
leere	1137
denti@@	1137
fft	1137
ausgewertet	1137
betra@@	1137
331	1137
UG@@	1137
hosp@@	1137
ethi@@	1136
organisat@@	1136
bildeten	1136
monatlich	1136
dokumentieren	1136
Cyc@@	1136
MM	1136
tl	1136
Г	1136
ï	1135
geburt	1134
hoh@@	1134
Alpes	1134
415	1134
219	1133
atho@@	1133
Ulm	1133
286	1132
ungewöhnliche	1132
entsprech@@	1131
Gang@@	1131
425	1131
Unit	1131
Potenzi@@	1131
Glu@@	1131
OX@@	1130
äres	1130
ion	1130
Therap@@	1130
Prim@@	1130
Use	1130
Prozentsatz	1129
gefahr	1129
242	1129
376	1129
089@@	1129
Zon@@	1128
zogenen	1127
geordnet	1127
Internationaler	1127
005	1127
TY@@	1127
haftes	1126
Ultra@@	1126
271	1126
gelegten	1125
verabschiedete	1124
Nes@@	1124
431	1124
Schulter@@	1123
o.	1122
pes@@	1122
289	1122
bens	1122
Roy@@	1122
geform@@	1122
Schlußfolgerungen	1121
273	1121
rit	1121
254	1121
344	1121
abhängt	1120
zien	1120
termin	1120
Dosis	1120
Transpar@@	1119
major	1119
PF@@	1118
obgleich	1117
dopp@@	1117
senkt	1117
ophi@@	1117
Trä@@	1116
239	1116
308	1115
ägen	1115
LICH@@	1115
neigen	1114
individueller	1114
Ausschluss	1114
chtigung	1114
ntes	1113
sorb@@	1113
ergänz@@	1113
Skala	1113
405	1113
Unabhängig	1112
osteuropäischen	1112
aufhin	1112
sequ@@	1112
0.5	1112
elin	1111
nachweisen	1110
Arbeitspro@@	1110
218	1110
blau@@	1110
esi	1110
Stab@@	1110
FIL@@	1110
Ärzten	1109
ebens@@	1109
bio	1108
Beobachtungs@@	1108
doppelten	1108
aufgelistet	1108
Bochum	1108
Ausbreitung	1107
einzuleiten	1107
Neigung	1107
AT-@@	1107
ñ	1107
Klebe@@	1107
Dokuments	1106
rin	1106
Enzy@@	1106
Wy@@	1105
tigter	1105
Bindung	1105
umi@@	1105
Erkennung	1105
358	1105
Repres@@	1104
schädlichen	1104
347	1104
vorteil	1104
agon	1103
soliden	1102
Prognose	1102
Philadelp@@	1102
Kaninchen	1101
ş@@	1101
sup@@	1100
Herstellers	1100
folgendem	1100
dose	1100
BN	1100
PG@@	1099
tlichem	1099
252	1099
esta	1098
pump@@	1098
Bayer	1098
angemessener	1097
erstmalig	1097
Achten	1097
obenen	1096
opath@@	1096
Anwender@@	1096
HB@@	1096
FÜ@@	1096
terat@@	1096
Rhin@@	1095
visuellen	1095
zin	1094
oler@@	1094
Anal@@	1094
üsen	1094
bestmögliche	1093
graphischen	1092
thal@@	1092
uto	1091
Leiterin	1090
323	1090
Bauch@@	1090
exakte	1089
astr@@	1089
greich	1088
Erscheinungen	1088
potenzielle	1088
erken@@	1086
überleb@@	1086
277	1086
arzt	1086
276	1085
Reste	1084
onat	1084
enic@@	1084
minimieren	1083
dete@@	1083
Generell	1082
uier@@	1082
fassungen	1082
aktives	1082
regelmäßi@@	1081
abgebaut	1080
variiert	1080
etwa@@	1079
Points	1079
Gn@@	1079
spontan	1078
hinzuweisen	1077
ozi@@	1077
organische	1077
535	1077
ská	1077
1-	1077
Ð@@	1077
gekenn@@	1076
ych@@	1076
cili@@	1076
behandlungen	1075
ungsmitteln	1075
Poten@@	1075
oxid@@	1075
4.4	1075
ordnungs@@	1074
kalte	1074
unterschie@@	1074
träume	1074
futter	1074
verschwindet	1074
langsamer	1073
enem	1073
umf@@	1073
unangeneh@@	1072
404	1071
flich@@	1070
terstat@@	1070
WHO	1070
Geschmacks@@	1070
m-	1070
Krankheits@@	1070
empfindlich	1070
YS	1070
ertem	1069
parameter	1069
tek	1069
nachfolgend	1068
gesich@@	1068
Dosierung	1068
familiäre	1068
1.200	1068
Luxemb@@	1067
wiegen	1067
253	1067
achtete	1066
Anhand	1066
osigkeit	1066
246	1066
STA@@	1066
Depression	1065
fektion	1065
ICH@@	1065
297	1065
ella@@	1065
toc@@	1065
Ausschüsse	1064
Wunden	1064
Way	1064
neum@@	1064
ZEI@@	1064
zugelassenen	1063
Einfuhr	1063
326	1063
verletzen	1062
0,9	1062
osität	1061
Iris@@	1061
ass-@@	1061
Detaillierte	1061
vorgesehene	1060
Diabetes	1060
gsk@@	1060
hinteren	1060
387	1060
Dosier@@	1059
Ermessen	1059
diagnosti@@	1059
hälfte	1059
tron	1059
COR@@	1058
hergestellten	1058
eraus@@	1058
steiger@@	1057
Wirbel@@	1057
aschen	1057
natürliches	1056
Unterbrechung	1056
anfälli@@	1056
enni@@	1056
mide	1056
3,8	1056
VII	1055
zufri@@	1055
wirksam@@	1054
aufgelöst	1054
gewonnenen	1054
395	1053
274	1052
Aust@@	1052
trocknen	1052
HAR@@	1052
LIE@@	1052
anhaltenden	1051
Schwere	1051
stabil@@	1051
227	1051
266	1051
norm@@	1050
verstärk@@	1050
vorläufigen	1050
beginnend	1050
rey	1050
kleber	1050
SIE	1050
irgendein	1049
Abständen	1049
pad@@	1049
Mehrzahl	1048
vorgegebenen	1048
tären	1048
potenti@@	1048
verursachten	1048
André	1048
aga@@	1048
þ@@	1048
99,@@	1047
dip@@	1047
GS	1047
Apotheke	1047
trockene	1046
OH@@	1046
Reports	1046
OG	1046
Gli@@	1046
2,1	1045
sistenz	1045
ebri@@	1045
experiment@@	1044
verschluss	1044
zylinder	1044
Parc	1044
Gel	1044
Belgium	1044
selekti@@	1043
braun@@	1043
begrenz@@	1042
bestand@@	1042
Ursprungs	1042
gelb@@	1042
korrekten	1041
Inspe@@	1040
trah@@	1040
008	1040
schock@@	1040
unerwünschte	1040
sier	1040
seltener	1040
sprüh@@	1040
Evaluation	1039
spezialisierten	1039
3,3	1039
332	1039
377	1039
genan@@	1038
milch	1038
tägige	1037
abhängige	1037
frequenz@@	1037
Versa@@	1036
geometr@@	1036
AUF	1036
î	1036
verdrän@@	1035
Peripher@@	1035
Beinen	1035
anti-@@	1035
Risk	1035
Beschaffenheit	1034
Wurde	1034
uli	1034
407	1034
Kälte@@	1034
471	1034
Barrier@@	1033
Zulassungs@@	1033
367	1033
Analytik	1033
besprochen	1032
el-	1032
SG	1032
oton@@	1032
kleben	1032
omene	1031
asta	1031
−	1031
beabsich@@	1030
gestütz@@	1030
356	1030
pern	1030
bal	1030
366	1029
ISCH@@	1029
sign	1029
nächstgele@@	1029
lossen	1028
Sagen	1028
atm@@	1028
š	1028
agra	1028
sinter@@	1027
Pomp@@	1027
Fahrzeugs	1027
362	1027
ğ@@	1027
TIG@@	1027
detailli@@	1026
entsor@@	1026
KON@@	1026
IDE	1026
328	1026
abzugeben	1025
zierenden	1025
emals	1025
Reinheit	1025
Beobachtungen	1025
Beginn@@	1024
starben	1024
Sekretariat	1024
än	1024
427	1024
322	1024
SN	1024
athi@@	1023
koll	1023
Aminosäuren	1023
Anwendern	1023
grauen	1023
Nadel@@	1023
TIS	1023
1.8@@	1023
pran@@	1022
förmig	1022
Study	1022
368	1021
Ov@@	1020
Knochen@@	1020
Schlauch	1020
MED@@	1019
Klassifizierung	1019
267	1019
verschlossen	1019
ogl@@	1019
oden@@	1019
455	1019
Aufl@@	1018
3,6	1018
né@@	1018
anhaltende	1017
Weder	1017
Parallel@@	1017
Wut	1017
merksam@@	1017
Patr@@	1017
Proteine	1016
kürzer	1016
kums	1016
Straßenverkehr	1015
3-4	1015
gesundheitlichen	1014
flüssigen	1014
genutz@@	1014
349	1014
xion	1014
Fos@@	1014
INT@@	1014
Ves@@	1013
modifizier@@	1013
XT	1013
öste	1012
Compliance	1012
implementi@@	1012
verursachte	1011
Antibiotika	1011
schnellst@@	1011
364	1011
vergleichbaren	1011
314	1011
ausgeglichen	1010
II-@@	1010
leitungs@@	1010
weißer	1010
terne	1009
Ausgehend	1009
Rach@@	1008
lingu@@	1008
Weiße	1008
384	1008
625	1008
Novo@@	1008
eingetreten	1007
ungünsti@@	1007
Niedri@@	1007
6.3	1007
-5@@	1007
302	1006
human	1006
284	1006
233	1006
Inhalts	1005
304	1005
Markierung	1005
anes@@	1005
PI	1004
418	1003
Dick@@	1003
optisch	1003
ginal@@	1003
zal@@	1002
Agu@@	1001
aktualisierte	1001
Therapien	1001
ühren@@	1001
Warten	1001
patien@@	1000
flusses	998
lagerungen	998
trü@@	998
318	998
rhyth@@	998
anwendung	997
Eini@@	997
aktivität	996
zählten	996
durchgän@@	996
ndes	996
eat	996
WH@@	996
DH@@	996
vergleichbare	995
gradu@@	995
ery@@	995
folgendermaßen	994
gaben@@	994
te-	994
Möglicherweise	993
Gegenwärtig	992
geschla@@	992
Pilze	992
positiver	991
ratsam	991
Reyk@@	991
gebuch	991
straat	991
abend@@	990
ametern	990
geformt	990
HY@@	990
genutzten	989
unken	989
trate	989
ETZ@@	989
,1	989
festigen	988
Aufbewahrung	988
asth@@	988
327	988
spers@@	987
354	987
456	986
AX@@	986
organe	985
Schema	985
salz@@	985
406	984
verfügbarkeit	984
247	984
Zustände	983
378	983
ERS	983
÷	983
щ@@	983
Synthese	982
tendes	981
sales	981
gendem	980
astie	980
Qualitätskontrolle	979
AST	979
kau@@	978
gesammelten	978
Mic@@	978
Babys	978
eco@@	978
erschwert	977
langfris@@	977
produkt@@	977
NP@@	977
Sweden	977
anza	976
æ	976
336	976
244	976
maßnahme	975
gelass@@	975
313	975
Tabel@@	975
530	975
Committee	974
Labyrin@@	973
90-@@	973
Ë@@	973
CR	972
6.2	972
prim@@	972
benden	971
befolgen	970
Akro@@	970
geheilt	970
Sitzen	970
künstliche	969
gegeb@@	969
otyp	969
Oberfläch@@	968
flor@@	968
9,5	968
konventionelle	968
309	968
vorrichtung	968
formieren	967
lem	967
Neuro@@	967
Beschädigung	967
SEN@@	967
enze	967
sedi@@	967
stillen	966
musk@@	966
auszuschließen	965
Gelenk@@	965
269	965
Gene	964
Gaben	964
Bewusstsein@@	964
b-	964
ACE	964
Nahrungsmitteln	963
uber@@	963
duktion	962
be-	962
8000	962
nachfolgende	961
AI	961
blockieren	960
Kompli@@	959
otop@@	959
visu@@	959
1-3	959
Pulver@@	958
Embry@@	958
Ø@@	958
dation	958
-Wert	958
vorkommt	957
475	957
falls@@	957
457	957
WER@@	957
nr	957
vermutet	956
Reproduktion	956
Ì@@	956
398	956
Interpret@@	955
vermuten	955
fett@@	955
ieben	955
5,6	955
ń@@	955
Legen	954
berichts	953
bruch@@	953
Wissenschaftliche	953
eron	953
VIII	952
charakterisiert	952
sprobleme	952
Syst@@	952
übertrag@@	951
melz@@	951
Fortbildung	950
beschri@@	950
Org@@	950
,0	950
Pharma	950
gelangte	949
struktionen	949
599	949
ь	949
vorhergehenden	948
dauern@@	948
anfän@@	948
RIS@@	948
hängi@@	947
stopf@@	947
Kombin@@	947
AMP@@	947
Ireland	946
Fell	946
sets	946
bedacht	945
abgabe	945
hien	945
NEU@@	945
YS@@	945
beträchtlich	944
339	944
Feb@@	944
Angehörige	943
statistische	943
ZO@@	943
flache	943
Photos@@	943
abra@@	942
angeführten	941
herangezogen	941
geres	941
Rinder	941
278	941
Abbau@@	941
259	941
ausgewiesen	940
erli@@	940
Bein	940
,7	940
zentrali@@	939
kler@@	939
Mögliche	939
benutzte	939
w.	939
263	939
Page@@	939
.-	939
Arbeitsgruppen	938
getrennten	937
niedrigere	937
Maximale	937
2,9	936
gegensei@@	936
resultiert	936
angel	936
Wirkstoffe	936
LV@@	936
Zeitraums	935
Beginnen	935
48-@@	935
Kreb@@	935
VOR@@	935
AUF@@	935
täre	934
erwünsch@@	934
Magen@@	934
я@@	934
м	933
verbleiben	932
Schmelz@@	931
absoluter	931
307	930
ogenes	930
zugehörige	930
ptische	930
V.@@	930
Gummi	930
hervorgerufen	929
minimal	929
Liegen	929
Pump@@	929
niedrigsten	928
Plastik	928
schädi@@	927
abwei@@	927
sechs@@	927
unwahrscheinlich	927
schränk@@	926
Arzneimitteln	926
verschrieben	926
334	926
atine	926
reag@@	925
starkem	925
seli@@	925
Zugehörigkeit	924
sko	924
396	924
Avenida	924
Welchen	923
einschlä@@	922
vollständiger	922
mab@@	922
reduzierte	922
ε@@	922
anschließenden	921
INS@@	921
NOR@@	921
umer	921
dahingehend	920
komplizierten	920
unterdrückt	920
408	920
Belgi@@	919
häufigste	919
enthaltene	919
übungen	919
España	919
Prüfen	919
konzentrierte	918
einzunehmen	918
abbau	918
ose-@@	918
Twin@@	918
abin	918
Beg@@	917
einreichen	917
ergebnissen	917
fett	917
klebt	917
Allgemein@@	917
abläufe	917
463	917
oplas@@	917
begründen	916
einheitlich	916
Vergrößerung	915
extensi@@	915
assoziierten	915
cut@@	915
4-6	915
........@@	915
Membran@@	914
Tabletten	914
lement@@	913
Heart	913
City@@	913
ove@@	913
abschließ@@	912
angelegenheiten	912
angestrebt	912
ausfallen	912
4,4	912
Operations	912
Vec@@	912
Dagegen	911
KAN@@	911
Kreislauf	910
konstante	910
Abweichung	909
ALLE	909
Bezüglich	908
nendes	908
ähnelt	907
normaler	907
nerv@@	907
262	907
rl	907
erwä@@	906
¹	906
schwankungen	905
prognosti@@	905
690	905
tzt	905
Apo@@	905
verkürzt	904
Immunsystem	904
fernen	903
tres@@	903
gis	903
451	903
Mobilisierung	902
Ziehen	902
minütige	902
eso@@	902
TTP	902
TOR@@	902
Berichterstatters	900
verfüg@@	900
004	900
LIN	900
Drehen	900
Partikel	899
kieren	899
8,5	899
Monitor@@	899
293	899
4.6	899
therap@@	899
DAT@@	899
senkung	898
enthielt	898
schwanger	898
or-	898
Pferden	898
494	898
vec@@	898
pons@@	898
Genehmi@@	897
unklar	897
zucker	897
261	897
gewoh@@	896
Cis@@	896
Mikroorganismen	896
poten@@	895
ium	895
6.000	895
gate	895
SAM@@	895
966	895
τ@@	895
lten	894
spektr@@	894
körpern	894
schrauben	894
6,4	894
268	894
FB@@	893
schach@@	893
4,2	893
einigte	892
indirekte	892
Kilogramm	892
hät@@	892
b.	892
Industries	892
Lah@@	891
Leitungs@@	891
leichtes	891
dosen	891
3,7	891
ć@@	891
glu@@	891
ungewöhnlichen	890
Arbeitsprogramm	890
nheiten	890
zeitraums	889
Einzelfall	889
ausreichenden	889
igem	889
469	889
Punk@@	889
ennummer	889
nachl@@	888
emotionale	888
minimale	888
stoff-@@	888
tener	887
gestre@@	887
modellen	887
aner@@	887
auffälli@@	887
3,0	887
cov@@	887
schuhen	886
Intensi@@	886
Clear@@	886
RC	885
392	885
4,0	885
236	885
primär	884
erwies	884
ohr@@	884
GT	884
П@@	884
sie-@@	884
wachst@@	883
ALE	882
S-	881
vorheriger	881
ärztliche	881
Daumen	881
herkömmliche	880
449	880
Vali@@	880
3,4	880
gh-@@	880
erfolgten	879
Peg@@	879
Tierarzt	878
4,3	877
Vorbeugung	877
oxid	877
ität@@	877
anth@@	877
MAT@@	877
athie	876
steigender	876
610	876
PD	875
biologisch	875
physikalische	875
opie	875
lüf@@	875
GEN	875
5x@@	875
erkzeu@@	875
317	874
Schlussfolgerung	874
lindern	873
mr@@	873
zens	873
ernde	873
weißem	873
mum	873
Weibchen	873
xy@@	872
INN@@	872
Evi@@	871
Röhr@@	871
pret@@	870
erlitten	870
medizinischer	870
gebundenen	870
Bezeichnungen	870
nep@@	870
292	870
gegend	870
gehender	869
übersteigt	869
objektive	869
oberfläch@@	869
gestoppt	868
Mang@@	868
Packung	867
Verminderung	867
durchgeführte	866
75-@@	866
fortgeschrittenen	866
stagen	866
enverkehr	865
Adi@@	864
störung	864
Polymer@@	864
flam@@	863
mato@@	863
Max-Plan@@	863
ungsverfahrens	862
Technical	862
Perg@@	862
theoretisch	861
Rassen	861
unsten	861
Gesamtzahl	861
relativen	860
373	860
nam	860
gemeinschaftliche	859
ten.	859
р	859
beträchtlichen	858
gebene	858
ulf@@	858
abrei@@	858
nesi@@	858
Major	857
840	857
atini@@	857
Hals@@	856
İ@@	856
kontrollierten	855
sorgfältige	855
analysen	855
294	855
konvention@@	854
444	854
567	854
º	854
tsor@@	853
Soj@@	853
änderte	853
Gehirn@@	853
Spät@@	852
bid	852
RES@@	852
behandelten	851
Rinder@@	851
Cum@@	851
Qualitätsmanagement	851
ī@@	851
Ô@@	851
Schwerpunkt@@	850
übergehen	850
Inhaltsstoffe	850
Trit@@	850
schäd@@	849
Etikett	849
Konsistenz	849
verwandt	849
Mittels	849
tisin@@	849
vorbeu@@	848
B2	848
ë	848
erneute	847
alen@@	847
bleme	846
krankheit	846
hauptsäch@@	846
Lebensjahr	846
hes@@	846
SI-@@	846
vorgeschri@@	845
phal@@	845
gleichzeitiger	845
Nordi@@	845
beantragte	845
ceb@@	845
solution	844
Sonnenlicht	844
berichteten	844
Zink	844
Kok@@	843
herange@@	843
geschätzte	843
Safety	843
Qualitätsmanagement@@	843
Fakt@@	842
Erwachsenen@@	842
Fließ@@	842
wachstums	841
flasche	841
Vagina	841
Risikoman@@	840
potentiellen	840
bereiches	840
hydro@@	839
bruchs	839
annähernd	839
gelenk@@	839
periodi@@	839
414	839
psycho@@	839
aufgetragen	839
ра@@	839
Becher	839
Chlor@@	838
hali@@	838
257	838
401	838
abgenommen	837
ventions@@	837
tnisses	837
Genehmigungen	837
Rezept@@	837
XXX	837
TAR@@	837
Tablet@@	837
я	837
ethnische	836
Bislang	836
gefüll@@	836
dorfer	836
Erfordernis	835
4,6	835
Monat@@	835
Führen	835
Stempel	834
genetische	834
Komplikationen	834
Abw@@	834
441	834
erachtet	833
veränderungen	833
442	833
-Lösung	833
allin@@	833
Wertes	832
tika	832
4,7	832
ofen@@	832
¢	832
lande	832
Drittl@@	831
Werfen	831
Schwefel@@	831
obar@@	831
Sloven@@	831
ę@@	831
Hungary	831
Ähnliche	830
Erfahr@@	830
Spezies	830
324	830
USS@@	830
fin	830
Geschmack@@	829
342	829
422	829
verantwortliche	828
ent-	828
Hemm@@	827
ija	827
schlauch	827
radio@@	826
RI	826
Statut	825
sank	825
empfindliche	825
zeitig	825
ungsprogramms	825
pton	825
Ultraschall@@	825
2.5@@	825
Glut@@	825
Kühe	824
heter@@	824
illar@@	824
table@@	824
wassers	823
ärbung	823
HINWEIS	823
Aku@@	822
jüngere	822
Fragebogen	822
berfläche	822
3,1	821
OD	821
bestra@@	820
Freder@@	820
währlei@@	820
ega@@	820
eon	820
brochen	819
erworbenen	819
stest	819
Zylinder@@	819
MAC@@	819
Apothek@@	818
RN@@	818
ausreicht	816
erneuten	816
ù	816
zuviel	815
vorlagen	815
nachstehenden	815
ю@@	815
Verhütung	814
ül	814
geschätzten	814
4.8	814
Interessengruppen	813
unterziehen	813
prüfte	813
chirur@@	813
Sali@@	813
Toc@@	813
PDT	813
Verband@@	811
KEI@@	810
Ch	810
Flus@@	810
Veterinär@@	809
ektiv	809
Infektions@@	809
erteilten	809
cade	809
q.@@	809
Ausnahme@@	808
tragenden	808
432	808
vität	808
Gelenke	808
sations@@	807
zunehmender	807
Markteinführung	807
Activ@@	807
465	807
GRE@@	807
xo@@	807
verschlechtert	806
derartiger	806
hinreichend	806
roter	806
AC-@@	806
embran	806
EWR	805
entz@@	805
4,1	805
Kolon@@	805
ل@@	805
409	804
dier@@	804
dokumentation	804
durchschnit@@	803
bestmöglichen	803
facher	803
gewohnheiten	803
arko@@	803
wth	803
ő@@	803
VII@@	802
Abhängi@@	802
osis	802
Grenzwerte	801
Stär@@	801
467	801
Nerven	801
moni@@	801
ж@@	801
erhobenen	800
abgeschlossenen	800
ziell	800
Bind@@	800
niedri@@	800
Kindes@@	800
298	800
Jal@@	800
Nadel	800
quet	799
Magen	799
Fus@@	799
1.6@@	799
017	799
PRESS@@	799
beugen	798
verwandte	798
Beur@@	798
covery	798
indirekten	797
eindeutigen	797
CE-@@	797
erleiden	796
enseite	796
links@@	795
auszugehen	795
chtigen	795
in-	795
vertr@@	795
Magnesium	795
Beutel	795
fils	794
Kum@@	793
schwächen	793
entfaltet	793
Grade	793
organis@@	793
sil	793
416	793
291	793
xil	792
Entsteh@@	792
Spaltung	792
sofortigen	792
ulärer	792
oxy@@	792
Path@@	792
в	792
öst	791
zufriedenstell@@	791
stests	791
interag@@	791
555	791
Flex@@	791
ер@@	791
ptions@@	790
riger	790
rog@@	790
Plans	790
2-	790
etik@@	790
herstellt	789
essenti@@	789
ector@@	789
Sekundär@@	789
Cus@@	788
kombinierten	788
passung	788
genetischen	788
5,1	788
REN@@	788
Ergänz@@	787
CL	787
anat@@	787
ATE@@	787
minimalen	786
betroffene	786
5,4	786
Hülle	786
CHO	785
zurückgezogen	785
Schwankungen	785
ACT	785
schub@@	785
Herstellungs@@	785
alta	785
─	785
monat@@	784
formalen	784
usst	784
Größenordnung	783
manuellen	783
einzelstaat@@	782
ernst@@	782
belassen	782
Häufigkeit	782
otyp@@	782
feuchten	782
462	782
hib@@	782
beden@@	781
-Hal@@	781
fact	781
Mono@@	781
reguliert	780
Arzneimittel@@	780
Mehrfach@@	780
Standar@@	780
49-	780
ADE@@	779
vornehmlich	779
fortgeschrittene	779
3,9	778
tauscht	778
eingeschränkten	778
Schmerz@@	778
7000	778
ERT	778
ā	778
ш@@	778
ernsten	777
einnimmt	777
Auflistung	777
vorzugsweise	777
Ansprech@@	777
flaschen	777
089	777
TZ	777
Anleitungen	777
höheres	776
Beweg@@	776
081	776
therapeutischen	776
Antwor@@	776
off-@@	776
BO	776
CHN@@	776
erkrankungen	775
Brist@@	775
reduzierten	775
Solo@@	775
TAS@@	775
NS	774
vermindert	774
kennung	774
Zirk@@	774
Puls@@	774
Vilnius	774
literatur	774
Polyamid	774
verzögert	773
wiederholte	773
oval	773
Antrags	772
780	772
545	772
kombinationen	772
Abhängig	772
Antrags@@	771
382	771
SAS	771
Häl@@	770
flüssige	770
tetem	770
schwarzer	770
IN-@@	770
Verhaltens	769
Säu@@	769
unsicher	769
vermischt	769
arben	768
Ärz@@	768
503	768
inet@@	767
ebs	767
445	767
nachweislich	766
objektiven	766
zyklen	765
entre@@	765
diejenige	764
gebrauch	764
akzept@@	764
werts	764
Fieber	764
Aluminium-@@	764
öffel	764
Ere@@	764
ј@@	764
Hoheitsgebiet	763
infizierte	763
hervorrufen	762
beschrän@@	762
spalten	762
Stadien	762
beid@@	762
against	762
487	761
sorgfältiger	761
ś@@	761
molekul@@	761
esis	761
entschie@@	760
untersuchung	760
getrunken	760
cals	760
dara	760
irn	759
Intr@@	759
anzeigt	758
heimer	758
ZA@@	758
348	757
NV	757
ss-@@	757
Praha	757
forte	757
beabsichtigen	756
5-10	756
Verletz@@	756
Raumtemperatur	756
ар@@	756
abnehmen	755
aspekte	754
chronischen	754
ckens	754
Sprüh@@	754
Freiwilligen	753
ausgeh@@	753
geschlech@@	753
signifikante	753
vergehen	753
Sexual@@	753
stehender	752
dol	752
eingestellten	752
blemen	751
gelitten	751
Blaue	751
Nasen@@	751
Ö	750
empfohlenen	750
670	750
Oxi@@	750
ACK@@	750
Maximal@@	749
at-	749
Zeitspanne	749
monate	749
Lop@@	749
bridge	749
llung	749
geschädi@@	748
aufgebracht	748
zide	748
entor	748
DNS	748
Abwasser	747
fä@@	747
Zusätz@@	746
primäre	746
Betreuer	746
Trading	746
Gutach@@	746
Remi@@	746
gewichts	745
verständigen	745
chrom@@	745
soziation	745
Kohlenhyd@@	745
з	745
Lösen	744
.E.@@	744
Nieren	744
schwerwiegende	743
siven	743
Wirbelsäule	743
Dosen	743
monatlichen	742
Operations@@	742
Omni@@	742
aminen	742
Brustkrebs	742
ypt@@	742
501	742
Fasten	742
ZU	742
Schätzung	741
Kohlendioxid	741
Applikations@@	741
Oberseite	741
009	741
benö@@	740
älterer	740
Wilson	740
winkel@@	740
721	740
sitzungen	739
regulieren	739
438	739
absich@@	738
weises	738
ziertes	738
oc	738
799	738
4.7	738
ädchen	738
Elast@@	738
Schalen	737
Diagno@@	737
aggreg@@	737
siegel@@	736
abgebrochen	736
mischt	736
klarem	736
organisatorische	736
eral@@	736
kranken	735
enzahl	735
sphase	735
Effekten	735
säule	735
505	735
454	735
niedrigem	734
gewarnt	734
rz@@	734
Größen@@	734
modifiziert	734
1050	734
Informationstechnologie	733
ausgewies@@	733
ssa@@	733
Rif@@	733
Ò@@	733
Brussels	733
fremd	732
served	732
8.000	732
geküh@@	732
odyna@@	732
Schraub@@	732
ffic@@	732
problemen	731
389	731
kugel	731
Bekannte	731
ellose	730
verworfen	730
beur@@	730
itation	730
einschließen	729
7,2	729
424	729
vermarktet	729
dinnen	729
path@@	729
ulin	729
µ@@	729
Formulierungen	728
Laboratori@@	728
geöffneten	728
empfindlichen	728
getrocknet	728
Stoffwechsel@@	728
Stellvertretender	728
ogener	727
Immunität	727
nai@@	727
zuck@@	727
normales	726
5,7	726
kürzere	726
tegr@@	726
Müdigkeit	726
WIR@@	726
Д@@	726
Geschlechts@@	725
senal	725
SIN@@	725
Emul@@	725
397	725
В@@	725
ISCHE	725
anhalten	724
document	724
auswirkt	723
genaus@@	723
zeitwei@@	723
wiegen@@	723
psychischen	723
ustin	723
kulturen	722
Kopfschmerzen	722
ebseite	722
orale	721
zeitigen	721
Viet@@	721
adul@@	721
EUROP@@	720
ernsthaften	720
stabilisiert	720
tierischen	720
tral@@	720
Wenden	720
equenzen	720
flus@@	720
Sut@@	720
haltbar	719
längerfris@@	719
ammen@@	719
post-@@	719
ülle	719
Ljubljana	719
spap@@	718
Affen	718
präpar@@	718
INV@@	717
Versagen	717
INC@@	717
х@@	717
ppe@@	716
6.4	716
fusion	715
körperlich	715
nachläs@@	715
wahrschein@@	715
Manifest@@	715
fus@@	715
lv@@	715
46-@@	715
dula@@	715
9000	714
bös@@	714
Neder@@	713
.E.	713
iela	713
itor@@	713
wichti@@	712
Geschlechts	712
Unfähigkeit	712
gno@@	712
King@@	712
Quinta	712
Tub@@	712
α@@	712
rauchten	711
5,3	711
etischer	711
gard	711
4.9	711
Dez@@	710
Sät@@	710
befunden	710
Archivierung	710
inhalt	710
dyl@@	710
Tablets	710
¾	710
potenziell	709
gebrauchte	709
krebs	709
iso	709
Ì	709
emmt	708
mäßiger	708
kontrollierte	708
vermark@@	708
12.5	708
STELL@@	708
oralen	707
Beschädi@@	707
Þ@@	707
Waschen	706
nehmung	706
Allgemeines	706
Säure	706
schädigen	705
pharmazeutischen	705
gefundenen	705
Altersgruppen	705
Vermeiden	705
Weib@@	705
RH@@	705
genannter	704
zie	704
Mast@@	703
OPA	703
Lunge	703
Recovery	703
studies	703
multinationalen	702
armi@@	702
gänglich	702
Keiner	702
Plötz@@	701
oso@@	701
TIV@@	701
früherer	700
angemessen@@	700
gebro@@	700
evalu@@	700
eingeteilt	700
Volumen@@	700
5,0	700
funktionsfähig	699
anom@@	699
LIA	699
response	698
Н@@	698
wöchentlichen	697
ulär	697
4,9	697
einführung	696
manische	696
Protein@@	696
Mangels	696
zugeführt	695
Antragsteller	695
forts@@	695
502	695
komplizierter	694
402	694
mbH	694
CEL@@	694
gleichgewicht	693
Scien@@	693
bildes	693
proxi@@	693
VIII@@	693
478	693
Denmark	693
ungsmethoden	692
adapti@@	692
433	692
436	692
Belastbarkeit	692
Handschuhe	692
WP	692
wiederholten	691
Entstehen	690
zunehmendem	690
Defin@@	690
äusch	690
ALS	690
erscheinungen	689
356@@	689
û	689
ANZ@@	689
Einfl@@	688
Stoffwechsel	688
Obergrenze	687
Unruhe	687
zulassung	687
Stämmen	687
esto	687
Vorläu@@	686
menschliches	686
Schock	686
5,8	685
Xen@@	685
6.6	685
ANK@@	685
otential	684
fügung	684
stamm	684
theoreti@@	684
stempel	684
9,7	684
Krankenhaus@@	683
chemischer	682
Sexu@@	682
Tierarten	681
Episoden	681
Puls	680
PET@@	680
CIS	680
brachen	680
zutreffend	679
einher	679
vorzubeugen	679
gsweise	679
frieren	679
Reprodu@@	679
nell	679
übermäßigen	678
Tieres	678
Zugabe	678
zugeteilt	678
Verhalten@@	677
multination@@	677
unruhi@@	677
Meilen@@	677
Dünn@@	677
britannien	677
ungssystems	676
Gefährdung	676
Athens	676
versagt	675
ologischem	675
psychische	675
mata	675
Sko@@	675
Pig@@	675
MEN	675
sierbar	674
ärztlichen	674
040	674
treatment	674
raxis	673
Fär@@	673
leister@@	673
erfu@@	673
AID@@	673
CAN	673
----@@	673
übermäßige	672
Dossier	672
milch@@	672
verges@@	672
8,2	672
Heilmittel	672
empfehlungen	672
ringer	672
jünger	671
Tallinn	671
deckel	671
Verzehr	670
langsamen	670
sichtsbehörden	670
absorbiert	670
6,3	670
Phosph@@	670
Common	670
UNTER@@	670
potentielle	669
vorsich@@	669
Differenzierung	669
wirkenden	669
Syndrom	669
untersuchten	669
zufuhr	669
Emb@@	669
602	669
200-@@	669
bas	669
entsprach	668
untersuchungen	668
befindliche	668
Releas@@	668
Blutdruck	668
eca	667
486	667
Halt@@	666
Übel@@	666
wirbel@@	666
POL@@	666
ryl@@	666
unterbrechen	665
ansteigen	665
erhöh@@	665
empfohlene	665
glatten	665
5,000	665
MP-@@	665
-1-@@	664
mühungen	664
überschreitet	664
assoziiert	664
pression	664
letzt@@	663
maximaler	663
umfasste	663
Abschnitten	663
730	663
Anhaltsp@@	662
geschlechts@@	662
folge@@	662
Seife	662
gewies@@	661
sera	661
394	661
resultieren	661
hergestellte	661
mangelnder	661
verbrauchen	661
therapeutische	661
Ähnlichkeit	661
Beta-@@	661
pren@@	661
Betätigung	660
vem	660
ą@@	660
beteiligte	659
erhöhungen	659
NET@@	659
BY@@	659
beschleuni@@	658
männlich	658
Respon@@	658
Sauer@@	657
Bic@@	657
olisch	656
ativem	656
teilnahmen	656
12,5	656
940	656
mercial	656
fense	656
zufriedenstellend	655
Sachverständigen	655
auszugleichen	655
Verschwinden	655
Suc@@	655
AZ	655
ZEN@@	655
ASE	655
Gilead	655
Mangel@@	654
Erinnerungs@@	654
INI@@	654
strenger	653
pflanzlichen	653
manifes@@	653
Hydr@@	653
Haz@@	653
bösartigen	653
höhle	653
XX	653
bezeichneten	652
Falt@@	652
Wechseln	652
apri@@	652
і@@	652
untermau@@	651
gewohnten	651
erforder@@	651
pflanzliche	651
ingh@@	651
tration	651
estra@@	651
1250	651
bender	651
Sitzungs@@	650
497	650
Pflanz@@	650
ADI@@	650
konzentration	649
saktionen	649
lecht	649
6,8	649
Selektion	649
verpackung	649
pfla@@	648
94-@@	648
empfehlung	648
Solution	648
11,3	648
627	648
itze	647
verwandten	647
hlung	647
870	647
ê	647
orthop@@	647
Bedienungsanleitung	647
Beleg	646
zogene	646
hypot@@	646
459	646
Nagel@@	646
MF	646
Links@@	645
zierende	645
Situ@@	645
typischerweise	645
554	645
menden	644
Pell@@	644
dauerhaf@@	643
kombination	643
stadium	642
unterdrücken	642
angels	642
verwendbar	642
Stati@@	641
Bezieh@@	641
entag	641
versäumt	641
organ	641
615	641
beta@@	641
geänderte	640
ril	640
senkrecht	640
MEL@@	640
HB	640
tausch@@	639
ulat	639
vei@@	639
prot@@	639
5,2	639
WG	639
BV	639
proportional	638
glut@@	638
Beweglichkeit	638
chronische	638
Response	638
trin	637
Dokumenten@@	637
anschließende	637
markierte	637
östen	637
orange@@	637
Dos@@	637
ommenen	636
einhergehen	636
degener@@	636
ombination	636
ken-@@	636
assten	635
483	635
022	635
Schock@@	634
gebundene	634
458	634
rica	634
Vorrichtung	634
Stickstoff	634
teria	634
intr@@	633
sexueller	633
erholt	633
509	633
032	633
24h	633
nachteili@@	632
Konzentrationen	632
Empfindlichkeit	632
sider	632
AME@@	632
regler	632
Ausführliche	632
BEL@@	632
Veränder@@	631
Zal@@	631
aktualisierten	631
getrock@@	631
NHL	631
brüchen	630
Allgem@@	629
allgemeines	629
Plasma@@	629
DNA-@@	629
549	629
weißes	629
ADA	629
ú	629
wirksames	628
zeitiger	628
ischerweise	628
angehalten	628
3-5	628
Assessment	628
spülen	628
ausreichender	627
À	627
schwierigkeiten	626
plänen	626
vorkom@@	626
μ@@	626
Pali@@	626
Chemotherapie	626
FIR@@	626
zusammenhängen	625
beschriebene	625
52-@@	625
Musk@@	625
örper	624
pelli@@	624
optimales	624
ösung	624
ERA	624
afer@@	624
541	623
Wechselwirkung	623
ursache	623
Infolge	623
becher	623
Silikon@@	623
Raten	623
phän@@	623
544	623
lini@@	622
brille	622
Beschle@@	622
Gesamts@@	622
6,1	622
likations@@	622
nom@@	622
FLEX	622
Child	621
Durst	621
н	621
stabiler	620
reaktion	620
persi@@	620
dop@@	620
echen@@	620
alli	620
KIN@@	620
anschließ@@	619
zugrunde@@	619
zeitgleich	619
befolgt	619
Hampshire	618
wiederkehr@@	618
funktionellen	618
OME@@	618
tropfen	618
progressi@@	617
Ärztin	617
gleichzeitige	617
NN	617
ç	617
eingeschränkter	616
Literat@@	616
IB	616
PV-@@	616
Aufklär@@	615
onaten	615
maximum	615
carb@@	615
PAN@@	615
primären	614
506	614
beigefügt	614
Endo@@	614
8,0	614
Gum@@	614
bedenk@@	613
zusammenhängenden	613
alleinige	613
fortgeführt	613
esca	613
Eiweiß	613
beschichtet	613
8,3	613
optimierten	613
erleich@@	612
Abwehr@@	612
Wartezeit	612
6,7	612
passive	612
ähi@@	611
gentechnisch	611
unzureichende	611
linder@@	611
3b	611
Fortführung	610
zunimmt	610
geringfügig	610
Nägel	610
gtem	610
REL@@	610
LOC@@	610
SPR@@	610
µm	610
Federation	609
6,6	609
DEM	609
haltend	608
erteilte	608
experimentellen	608
Entzündung	608
benachrichtigen	608
uma@@	608
hex@@	608
exa	608
elon@@	608
Р@@	608
kontamin@@	607
Verschluss	607
ülen	607
spon@@	607
einmali@@	606
Einstufung	606
Gewebe@@	606
längerer	606
ӧ@@	606
3600	606
übermäßig	605
Stammzellen	605
kurve	604
Telem@@	604
ù@@	604
spezialitäten	604
6,0	604
ausgeprägt	603
erwachsene	603
umpe	603
nachstehend	603
ел@@	603
erstellung	603
neutrali@@	602
Flüssig@@	601
maging	601
auftretenden	600
abschließende	600
Strahlen@@	600
geschult	600
ötung	600
UA@@	600
behäl@@	600
6,2	599
abgelöst	599
offensichtliche	599
gestützten	599
Steri@@	599
sexu@@	599
437	599
ů@@	599
Gehirns	599
Orangen@@	599
Sedi@@	599
Haarlem	599
verschließen	598
5,9	598
Tum@@	598
wirkende	598
opportun@@	598
Alfa	598
ô	598
anwendet	597
geteilten	597
drang	597
VR	597
Rib@@	597
Trauben@@	597
514	597
drittes	596
mieden	596
assozi@@	596
Post-@@	596
Schweine	596
Aktualisierungen	596
safety	596
bene	595
Tritt	595
abweichende	595
ATS	595
bleibende	595
Zusammenfassungen	595
Mali@@	595
hane	595
018	595
Enthält	595
Ungefähr	595
stellvertretenden	594
Infolgedessen	594
Todesfälle	594
Starke	594
nennens@@	594
Referat	594
odg@@	594
kose	594
info@@	594
Ersuchen	593
Sicherh@@	593
impf@@	593
gesunder	593
hC@@	593
812@@	593
ń	592
BRE@@	591
überdacht	590
konsum	590
Versuch@@	590
trap@@	590
olar@@	590
überarbeitete	589
Beeinträchtigung	589
Alkoh@@	589
Antikörper	589
fluor@@	589
ν@@	589
alumini@@	589
AR-@@	588
-Studie	588
552	588
CAL@@	588
han-@@	588
farbenen	588
ο@@	588
ANTI@@	588
Hauptin@@	587
lokali@@	587
Depo@@	587
rib@@	587
alters@@	586
Kreislauf@@	586
retro@@	586
infe@@	586
sinformationen	586
tome	586
Porte	586
ELISA	586
gedanken	585
korp@@	585
anstieg	585
signifikanten	585
7,8	585
commercial	585
sichtig	584
wiegende	584
8,7	584
chirurgische	584
erwachsenen	584
umar@@	584
0,50	584
NOV@@	583
Lungen@@	583
Abbruch	583
7,6	583
finger	583
Klinische	583
abbau@@	582
Zuck@@	582
körperlicher	582
ÄR@@	582
erson	582
patients	582
schwerwiegenden	581
2001-@@	581
10,5	581
blut@@	581
mineral@@	581
cin	581
8,9	581
ρ@@	581
Ð	581
Dokum@@	580
apan	580
Blase	580
Aufsatz	580
Höhere	579
σ@@	579
dalen	579
ANCE	579
geschwächt	578
täglicher	578
3-	578
Romania	578
osig@@	577
vertrat	577
8,6	577
Ef@@	577
DAR@@	577
021	577
Validierung	576
häufige	576
Zyklen	576
bid@@	576
ergaben	575
gebrauch@@	575
Atri@@	575
BON@@	575
spezifisches	574
endeten	574
Fluor@@	574
ähigkeit	574
Zitronen@@	574
025	574
Verlauf@@	573
hierdurch	573
oste@@	573
PV	573
LLE	573
stria	573
weitergeführt	572
Schlußfol@@	572
zierter	572
lineare	572
kombinierte	572
otenzi@@	572
Consumer	572
pin	572
ANGE@@	572
PCI	572
überführt	571
Blockade	571
Hinweisen	570
Delegierten	570
multiple	570
Ernähr@@	569
unerwartete	569
graue	569
426	569
V-	568
substan@@	568
vermindern	568
alu	568
Brennen	568
wegs@@	567
fehlender	567
forme	567
kaus@@	567
Hundes	567
SIL@@	567
Innenseite	567
Empfoh@@	567
XE@@	567
akuten	566
bestätigten	566
Fresenius	566
98-@@	565
trocken@@	565
sposition	565
Vorh@@	565
treat	565
ň@@	565
OB	565
Stark@@	564
088	564
iegeln	564
züchtet	564
fieb@@	564
ū@@	564
vs.	564
fill	564
Entsor@@	563
lez	563
OX	563
wirkten	563
Arthritis	563
GR	562
AH	562
67-@@	562
manifestiert	561
Rücknahme	561
etri@@	561
Pseu@@	561
RD	561
BM	561
experimentelle	560
sensor@@	560
Tuberkulose	559
progressive	559
äß	559
oppt	559
Volum@@	559
SSEN@@	559
xa	558
Enzyme	558
PVC-@@	557
FAR@@	557
betraf	556
Bestimmte	556
Appetit	556
Implantate	556
KG@@	556
Matri@@	556
ocar@@	556
087	556
ACT@@	555
kok@@	555
ERE	555
ICS	555
Ihr@@	554
regt	554
vollständiges	554
Nacional	554
M1	554
Stark	554
indel	554
Viale	554
Brüste	554
liegender	553
dunkler	553
Zahnarzt	553
ew	553
genehmigten	552
085	552
folgen@@	552
Té@@	552
Gelb@@	552
Belege	552
Allergien	552
amine	552
gebur@@	552
Lippen@@	551
stündigen	551
Anteils	551
hul@@	551
LY@@	551
ALI@@	551
angestrebten	550
unerwünschten	550
restliche	550
Untersu@@	550
484	550
663	550
VERK@@	550
monatliche	549
komponente	549
446	549
LTD	549
672	549
HAL@@	549
RED@@	549
übersteigen	548
betreff@@	548
anhaltend	548
schütteln	548
Wunde	548
6,9	548
minde@@	547
lene	547
ël	547
95-@@	547
distribution	547
direk@@	546
Spender	546
SRL	546
RIN	546
ES-@@	545
stherapie	545
pharmazeutische	545
Aggression	545
Bewusstseins@@	545
untersuchte	545
violet@@	545
kanäl@@	545
abgesetzt	544
Erörterung	544
noch@@	544
wöchentliche	544
Ansammlung	544
-Mess@@	544
MY@@	544
9,0	544
rz	544
begon@@	543
artons	543
vet	543
charakteri@@	543
9,4	543
Flaschen@@	543
möglicht	543
581	543
Zom@@	543
T1	543
DK	543
erhöhter	542
einher@@	542
vorübergehende	542
Vergleiche	542
genehmigte	542
A6	542
082	541
verbun@@	541
flüssigkeit	541
Sup@@	541
cument	541
928@@	541
ná	541
ortun@@	540
ausreich@@	540
allmäh@@	540
mindern	540
Darm	540
kshop@@	540
onar@@	539
rechtfertigt	539
Festsetzung	539
stillstand	539
geringerer	539
Wirkstoff	539
1a	539
Wechselwirkungen	539
Tropf@@	539
enie	539
hyper@@	539
gefärb@@	539
Geschlechtsverkehr	539
Pneum@@	539
KH@@	539
Folien@@	539
monatigen	538
Drucks	538
ungewöhn@@	538
behandlungs@@	538
ungspflich@@	538
akteri@@	538
chirurg@@	538
714	538
Slovakia	538
Soja	537
Meth@@	537
veröffentlich@@	537
diagnostiziert	537
factur@@	537
konsulti@@	536
ungsmethode	536
gerollt	536
9,6	536
ż@@	536
erhab@@	535
Verunreinigungen	535
nachzuweisen	535
auflösen	535
Tumor	535
Gasse	535
zykli@@	534
tracht	534
Camb@@	534
agri@@	534
Alzhei@@	534
Säuge@@	533
anfänglichen	533
Depressionen	533
risk	533
adin	533
stoffs	532
Pilz@@	532
chirurgischen	532
DD	532
Ältere	532
Ereig@@	532
Schaum	532
Kapsel	532
verzögern	531
offensichtlichen	531
versagen	531
mütter@@	531
Fruchtbarkeit	531
betre@@	531
ит@@	530
Gebühren@@	529
onismus	529
ford@@	529
041	529
ILI@@	529
Verdau@@	529
Versäum@@	528
länger@@	528
vorhandener	528
auszusetzen	528
geringes	528
ARD@@	528
970	528
herkömm@@	528
coli	528
º@@	528
ratio	527
itel	527
opor@@	527
phin	527
Hündin	527
gerö@@	526
Disposition	526
Plasma	526
rotem	526
gesicherten	525
ausfall	525
Erwachsener	525
ara-@@	525
Liqu@@	525
geeignetes	524
regime	524
verhü@@	524
Knie@@	524
omy@@	524
Weltgesundheitsorganisation	523
schema	523
Säur@@	523
Neo@@	523
vast@@	523
Landstraße	523
relevanter	522
ACS	522
Äquival@@	522
angi@@	522
CHEN@@	522
Ç	522
Etikettierung	521
volumens	521
klassifiziert	521
ofi@@	521
Verlänger@@	521
Fam@@	521
Omega	521
stimuliert	520
gewonn@@	520
Erhöh@@	520
Gé@@	520
SICH@@	520
Schnapp@@	520
gebrauchten	519
ETT@@	519
Koordinierungs@@	518
entzün@@	518
mahl@@	518
flä@@	518
Schwindel	518
Concept	518
EQU@@	517
Unmittelbar	517
Atmung	517
engem	517
Stickstoff@@	517
sfer@@	517
5-6	517
tlosigkeit	516
vorhand@@	516
rascher	516
Be-	516
Präparate	516
CY@@	516
ZW@@	516
bestandteile	515
lix	515
bay	515
Übergewicht	515
Atm@@	515
Dul@@	514
Kateg@@	514
Nitr@@	514
633	514
reichten	514
malem	514
Wimp@@	514
astin@@	514
bezü@@	513
Chl@@	513
gefüllte	513
9,3	513
Durchblutung	513
TON	513
9,2	512
Tinte	512
C-	512
ungsmaterial	512
ALT	512
zugelassene	511
höhlen	511
häufigen	511
armer	511
höchstwahrscheinlich	511
ermittelten	511
visuell	511
temb@@	511
ulations@@	510
Sinnes@@	510
nichts@@	510
mono@@	510
defe@@	510
verbleibt	509
9,9	509
maliges	509
zendes	509
ы	509
0.4	509
х	509
ß-@@	508
050	508
Polyester@@	508
10000	508
GL-@@	507
aufbewahren	507
IZ@@	507
ι@@	506
DRE@@	506
078	506
ursprün@@	505
Blutes	505
fenheit	505
Schwein	505
Tél	505
detes	504
8,4	504
um-	504
entwickelnden	504
dokumenti@@	504
tikum	504
vermehren	503
erwägen	503
mögliches	503
Treten	503
Bewegen	503
2100	502
Pille	502
aufgezogen	502
linearen	502
ě	502
Gefäße	502
ernsthaf@@	501
eszen@@	501
sector	501
träglichkeit	500
andauernden	500
empfehl@@	500
elimin@@	500
reten	500
Eingesch@@	500
öhre	500
4-	500
angestreb@@	499
Nervensystem	499
ă@@	499
D3	499
AMD	499
Paraf@@	499
dauernden	498
geprüften	498
Aden@@	498
us-	498
ternen	498
sem	498
Vital@@	498
CX@@	498
untergeord@@	497
Stehen	497
tödlich	497
Zecken	497
Ereignisses	496
anfänglich	496
rem	496
einigungen	496
osin@@	496
HV@@	496
Becken@@	496
AGEN	496
Gedächtnis@@	495
zusammenhängende	495
begrenzter	495
Minimal@@	495
biotechn@@	495
Einmal@@	495
testi@@	494
Aktive	494
neigung	494
Akkumulation	494
9,1	494
auftragen	494
Stel@@	494
verlangsamt	493
gehörigkeit	493
stimulieren	493
Spalt@@	493
Ara@@	493
INO@@	493
Reinigen	493
URI@@	493
likation	493
Eingriffen	492
vorzeitigen	492
urie	492
onin	492
ZN@@	492
676	492
nachweis	491
zerbrechen	491
kron@@	491
kationen	491
Fruchts@@	491
Mischen	491
G1	491
zeb@@	491
opathie	491
Grundwasser	490
beurteilung	490
zeitpunkt	490
hire	490
geöffnete	490
valle	490
Avastin	490
viermal	489
Rind	489
636	489
indung	489
Außenseite	489
с	489
gewertet	488
gradi@@	488
mild	488
Prep@@	488
Hung@@	488
564	488
ф@@	488
bleibenden	487
sali@@	487
Differenti@@	487
üsen@@	487
males	486
Verteilungs@@	486
freigesetzt	486
Ausschüttung	486
Zink@@	486
INF@@	486
OLD	486
0,7@@	486
086	485
weicher	485
hat-@@	485
7,3	485
⇒	485
Niko@@	484
tödlichen	484
Amin@@	484
Fingern	484
π@@	484
terial	483
Erektion	483
HIN@@	483
Empfohlene	483
Topo@@	483
э@@	483
ttern	482
Sten@@	482
spanne	482
euchen	481
quanti@@	481
berücksich@@	481
Lum@@	481
gesetzter	481
trockener	481
071	481
õ	481
Risik@@	480
beeinflus@@	480
vorübergehenden	480
Beenden	480
←	480
gsphase	479
geschl@@	479
steroi@@	479
säul@@	479
progressiven	478
Ammoni@@	478
Hauptziele	478
übe	478
zeiger@@	478
sels	478
Überschuss	478
Brus@@	478
ospor@@	478
8-10	478
augenblick@@	477
laten@@	477
Anträgen	477
Wartezeiten	477
findungs@@	477
ACE@@	477
egar@@	477
Manufacturing	477
RICH@@	477
PET	477
707	477
ungspraxis	476
behandelte	476
blat@@	476
Johannis@@	476
8,8	476
innerer	476
H2@@	476
Woch@@	476
Muskulatur	476
Blasen	476
regelmäßiger	475
PHAR@@	475
-Cal@@	475
geeignet@@	475
immun@@	475
Leber@@	475
gummi@@	475
Hormone	474
beobachtete	474
zustände	474
ogens	474
0,5@@	474
ämme	473
blut	473
flora	473
ese-@@	473
esti	473
geometrischen	473
Rindern	472
itzen@@	472
682	472
zutrifft	471
CHAR@@	471
ärb@@	471
Endpunkt	471
xo	471
Hühner@@	471
Lösungsmittel	471
Arzt@@	471
7,7	471
STRE@@	471
gleichzeitigen	470
Hepatitis	470
Dr	470
Brom@@	470
gekühlt	470
weil@@	469
kehrungen	469
TE-@@	469
1,25	469
osom@@	469
Ausnahmefällen	468
prävention	468
mittelt	468
Kleinkinder	468
ismen	468
731	468
FV@@	468
Ultraschall	468
2D@@	468
Sicherheitspro@@	467
linear	467
onanz@@	467
-Werte	467
wohingegen	466
ahme	466
9,8	466
Assa@@	466
steigerte	466
ktionst@@	466
tension	466
SONSTIGE	466
zurückgeführt	465
yra@@	465
SP-@@	465
erweiterung	465
Population	465
warmem	465
ARA	465
nadel	465
gelösten	464
schmerzhaft	464
implan@@	464
Tumor@@	464
E5@@	464
erender	463
Nacken	463
Seven	463
klärt	463
morph@@	463
Hyp@@	463
S.L.	463
Hühner	462
vermögens	462
Implant@@	462
039	462
DV	462
cell	462
EU-	461
Bestandteilen	461
traums	461
sexuell	461
erwartenden	461
Marker	461
seitiger	461
Klassifikation	461
olie	461
Velo@@	461
träch@@	460
10,4	460
Clinical	460
agnose	460
Phasen@@	460
oreti@@	459
minderung	459
afl@@	459
Besserung	459
lok@@	459
CV	459
Lane	459
----	459
Ú	459
umgestellt	458
testing	458
HAM@@	458
einzuholen	457
erlau@@	457
verschlimmern	457
eitigung	457
tod	457
Entzündungen	457
ABL@@	457
024	457
ş	457
begleitende	456
E9@@	456
stoffes	456
KS-@@	456
atmet	456
VER	456
partikel	456
Hüfte	456
verringerte	455
autschu@@	455
WAS	455
Coch@@	455
population	455
Beschriftung	455
Pumpen@@	455
s.r.o.	455
Wachstumsrate	454
verwerfen	454
Opi@@	454
Auges	454
mischungen	454
533	454
Parasiten	454
Spon@@	454
ung.	454
Symptomen	453
gete@@	453
otischer	453
Gefühl@@	453
ZUR	453
Æ@@	453
molek@@	453
К@@	453
Pseudo@@	452
ausgebreitet	452
aufgenommenen	452
Swedish	452
Eiweiß@@	452
Ratten	452
8,1	452
COP@@	451
progno@@	451
ezu	451
Löffel	451
7,4	451
Guil@@	451
APS	450
medizinisches	450
cet	450
elements	449
Proteinen	449
PPE	448
Inspektionen	448
hangs	448
gewähl@@	448
auszufüllen	448
nahrung	448
aufzulösen	448
fehlern	448
intra@@	448
Haarausfall	448
LÄN@@	448
beschleunigte	447
fil	447
procedur@@	447
Floh@@	447
Tach@@	447
Lithi@@	447
Samen@@	447
lamin@@	447
DUR@@	447
Normali@@	446
okon@@	446
Freisetzung	446
enzi@@	446
eingestellte	446
7,0	446
genommen@@	445
eliminiert	445
hydr@@	445
aufeinander@@	445
Ó	445
mentation	445
MEDI@@	444
Rückstände	444
Kep@@	444
Risikos	444
verlängerung	444
substanz	444
Bündel@@	444
pH-Wert	444
Beein@@	444
Interaktionen	444
zutreff@@	443
mutlich	443
Überlegenheit	443
Geruchs@@	443
AIR	443
Infan@@	443
λ@@	443
031	443
NN@@	443
ő	443
IMM@@	442
genanntes	442
geplan@@	442
Produktinformationen	442
Oberb@@	442
erfüllten	441
plötzlichen	441
Bringen	441
tiver	441
CRI@@	441
Molekular@@	441
Kombinations@@	441
1A@@	441
legenheit	440
Helsin@@	440
Impfung	440
veränderung	440
IMP@@	440
OSS@@	440
perfor@@	440
Hormon@@	439
vergewissern	439
Funktionsfähigkeit	439
ONA	439
Verkürzung	438
Gefäß@@	438
18.12.@@	438
ölf	437
siertem	437
DNS-@@	437
medizinisch	437
713	437
olg@@	437
hout@@	437
7,1	437
ла@@	437
Minimierung	436
Überlebens@@	436
Empfindungen	436
opt	436
Dysfunktion	436
Kolben@@	436
Españ@@	436
ед@@	436
E-	435
erlit@@	435
Zwöl@@	435
7,9	435
3A	435
drehung	434
festgestellten	434
sierend	434
langsam@@	434
verlauf@@	434
Oberteil	434
B.V.	434
saisonalen	434
Perfor@@	434
Prägung	433
unerwarteten	433
wöchigen	433
thel@@	433
Diagnose@@	433
Marion	433
knoten	433
Flüssigkeits@@	433
Erschöpfung	432
Inspektions@@	432
0,20	432
stor	432
dikat@@	431
rochen	431
verlangsamen	431
mg-@@	431
beantra@@	430
aussetzen	430
schlagt	430
Möglich@@	430
Nahrungsergänzungsmittel	430
vac	430
mitgelieferten	430
Asthma	429
Urin	429
ÄN@@	429
026	429
Komplement@@	428
frühzeitige	428
aufgesetzt	428
Viagra	428
opa	428
öhr@@	428
beige	428
voor	428
й@@	428
◄	428
Bezeich@@	427
ungeeignet	427
RK@@	427
Polypropylen	427
hermie	427
infektion	426
vorkommenden	426
tödliche	426
Eintreten	426
akute	426
Cycl@@	426
905	426
zusammenhän@@	425
tielle	425
ausgeprägten	425
Austritt	425
Leichte	425
Informationsmaterial	425
Tumoren	425
Rever@@	424
aufsuchen	424
abziehen	424
Alkoholkonsum	424
Steven@@	424
PRI@@	424
Oxy@@	424
empfindlicher	423
mmun@@	423
statistisch	423
α	423
Osi@@	423
Jahres-@@	422
Linderung	422
dauernde	422
verbleibende	422
HIV-@@	422
zusam@@	422
anter@@	422
sparende	421
hochgradi@@	421
Schachtel	421
versiegelt	421
D-	421
Kleinkin@@	420
Einteilung	420
chemisch	420
saft	420
meiden	420
Lumi@@	420
Score	420
harmonisieren	419
Lapp@@	419
läh@@	419
Hert@@	419
Vermehrung	419
holm	419
SSEN	419
mell@@	419
Umverteilung	418
Dap@@	418
Befunde	418
depot	418
PEN@@	418
bedruckt	418
у	418
Arztes	417
kömm@@	417
biom@@	417
ozy@@	417
INDE@@	417
OHNE	417
zutreffen	416
Frageb@@	416
Circus	416
ringer@@	416
833	416
Zeit-@@	416
Urin@@	416
opul@@	416
verschie@@	415
auftretende	415
Ï	415
hyp@@	415
0,8@@	415
film-@@	415
nth@@	414
sorgfältigen	414
oide	414
Ad-hoc-@@	414
Anwendungsgebiete	414
Á	414
Hoheits@@	413
mpfung	413
-Syndrom	413
Belastungs@@	413
befasste	413
Nieren@@	413
Atemwege	412
Patientinnen	412
Diar@@	412
Verschluss@@	412
säur@@	412
œ@@	412
ISH	412
abbrechen	411
trach@@	411
itis	411
algie	411
Kontrast@@	411
bedeutsam@@	410
veränderter	410
Mittelwert	410
yl-@@	410
gemessenen	410
nächstgelegenen	410
Arbeitsabläufe	410
vitro	410
bestandteil	410
Arbeitsfläche	410
flüssig@@	410
geringerem	409
länglich	409
sparameter	409
schüre	409
ECO	409
muskulatur	409
ICHT	409
077	409
potentiell	408
Vorgeschichte	408
erworbene	408
olischer	408
amn@@	408
heißem	408
Limi@@	408
ERI@@	407
Schädigung	407
spritzen	407
wirksamkeit	407
kreb@@	407
herapie	407
isolierten	407
stündige	407
Telephone	407
Harn@@	407
843	407
Nacken@@	407
letzen	406
terstatter	406
ofi	406
chlor@@	406
CR-@@	406
055	406
1.400	406
Umgekehrt	405
resistent	405
alleinigen	404
Vorliegen	404
Brech@@	404
zusätz@@	404
höherem	404
Kolben	404
Lj@@	404
926	404
Uhrzeigersinn	404
Biop@@	404
Intoleranz	403
phy@@	403
hanol	403
Lup@@	403
erbr@@	403
3A@@	403
GRAN@@	403
Ê	403
niedrigste	402
Differen@@	402
kala	402
019	402
ł	402
Aufschrift	401
Alexandr@@	401
Rhe@@	401
″	401
д	401
Derivate	400
Präventions@@	400
vertragen	400
Entnahme	400
dünner	400
11,5	400
zerk@@	400
Alpha@@	400
geänder@@	399
14,5	399
Fachpersonal	399
13,5	399
852	399
783	399
FEN@@	399
Aufbewahrungs@@	399
Hüft@@	399
Partnerin	399
12,50	399
ene-@@	398
unveränder@@	398
hie	398
080	398
Akne	398
ANO@@	398
β	398
--------@@	398
AUSS@@	398
purposes	398
kontrolli@@	397
Ausschlag	397
auslöst	397
reduktion	397
Körpergewicht	397
Ÿ@@	397
harmonisiert	396
fendes	396
enverw@@	396
Verhältnisses	396
Forc@@	396
Reifung	396
kappen	396
aterin	396
Trauma	396
höher@@	396
beobachteten	396
ί@@	396
zerklein@@	396
ENZ@@	396
Müt@@	395
befähi@@	395
Konservierungsstoffe	395
Evalu@@	395
ckeln	394
ethnischer	394
dürf@@	394
glomer@@	394
Sklerose	394
Abwei@@	394
schieß@@	394
2b	394
spin@@	394
ötz@@	394
verwende@@	393
betrafen	393
übergeht	393
gegenwär@@	393
Harmoni@@	393
Kühlsch@@	393
Kost	393
1A	393
BEST@@	393
643	393
yla@@	393
alpha	393
bedeutsame	392
dargelegten	392
Fütterung	392
Erbrechen	392
mikrobi@@	392
035	392
EVA	392
hinweist	391
troph@@	391
erör@@	391
Kalzium	391
065@@	391
PUR@@	391
calc@@	391
lichkeit@@	390
andau@@	390
folgedessen	390
Betrachtet	390
Berühr@@	390
Durchfall	390
Leverkusen	390
SIND	390
076	390
befähigt	389
andauernde	389
nenn@@	389
ver-	389
fakt@@	389
karton	389
lokalisiert	389
kineti@@	389
ofo@@	389
LICH	389
Normalisierung	388
Generi@@	388
Drug	388
B6	388
essment	388
Rs	388
skala	387
kontrollier@@	387
Risikomanagement@@	387
entem	387
Rapid	387
rotes	387
tub@@	387
bedeutsamen	386
adäquate	386
entsorgt	386
Nutzen-@@	386
wendete	386
disease	386
Riverside	386
Hospitali@@	386
ADE	386
kontra@@	385
unterschei@@	385
plötzliche	385
-Test	385
insul@@	385
Allerg@@	385
onde@@	385
monat	384
Missbrauch@@	384
vermö@@	384
-Zeit	384
Transkri@@	384
protein	384
Impfungen	383
hemm@@	383
Attacken	383
mittelgroße	383
Zuständen	383
mum@@	383
Multiple	383
0,25	383
Rey@@	383
Öffentlichen	383
WISS@@	383
049	383
autschuk	383
Mio@@	383
Tibi@@	383
ˈ@@	383
verschlechtern	382
Beeinflussung	382
wahrscheinlicher	382
Verlangsamung	382
Nadeln	382
aktivierung	382
gemeldeten	381
bedingter	381
überwiesen	381
RAP@@	381
Implan@@	381
Mäuse	381
ausgelassen	380
hase	380
benz@@	380
Gly@@	380
Alen@@	380
027	380
peg@@	379
tendenziell	379
transporti@@	379
Prädi@@	379
Wirkstoffen	379
sland	379
blase	379
NACH@@	379
adapter	379
ABE@@	379
Produktin@@	378
empfind@@	378
Jährigen	378
spontane	378
expon@@	378
Arbeitsauf@@	378
erger	378
Ober-	378
к	378
ml-@@	378
FOL@@	378
SAV@@	377
beträ@@	377
Gewichts	377
ambul@@	377
Plasma-@@	377
harma@@	377
negativer	376
Inverkehrbringen	376
Dossiers	376
ukl@@	376
arung	376
Ausschei@@	376
gmentierung	376
0,05	376
Forte	376
obut@@	375
geräusche	375
auftrat	375
PRODUK@@	375
IVA	375
κ@@	375
enthielten	374
Aviation	374
Ratte	374
Í	374
evaluation	374
aufeinanderfolgenden	373
verträgliche	373
ellungen	373
krebs@@	373
etwaiger	373
mischem	373
PAS@@	373
Erreger	373
Tageszeit	373
erol@@	373
leichtem	373
Alpha-@@	373
ension	373
geringfügige	372
Intra@@	372
Krankenhauses	372
Erklär@@	372
RNA	372
Holdings	372
Dif@@	371
Stimulation	371
oval@@	371
Kardi@@	371
scheidung	370
079	370
Hemi@@	370
Hüf@@	370
Tablette	370
Calcium	370
F2	370
GMT@@	370
vorgeschriebene	369
Doppelte	369
venue	369
nstein@@	369
E2	369
¦	369
2a	369
vorgebrachten	368
pharma@@	368
Fortpflanzung	368
Atmen	368
Dänem@@	367
armut	367
erdings	367
kappe	367
Tägliche	367
allu@@	367
QT@@	367
abfall	366
Pati@@	366
ausgeschieden	366
synthese	366
Pfi@@	366
ylen	366
đ@@	366
akzeptablen	365
radioaktiven	365
Impf@@	365
Abschätzung	365
16,5	365
Induktions@@	365
martin@@	365
ausgeprägte	364
angele@@	364
stradi@@	364
marker	364
Temperat@@	364
izi@@	364
äure	364
knopf	364
Hb@@	364
Zulassungen	363
evaluiert	363
bereitungen	363
Cic@@	363
quili@@	363
Target	363
Healthcare	363
INH@@	363
rauben	362
enermaßen	362
verträglich	362
thaushal@@	362
Grippe	362
operativer	362
0,75	362
Kent	362
kular@@	362
Herzfrequenz	362
hervorruft	361
geschüt@@	361
Neop@@	361
Ganzkörper@@	361
Ł@@	361
ر@@	361
pill@@	361
erfolgter	361
verhütung	360
erforderte	360
Charakteristika	360
verkürz@@	360
verabreicht	360
Substrat	360
aufziehen	360
Facharzt	360
Т@@	360
Kontaktlinsen	360
1,000	360
Müttern	359
AIDS-@@	359
Grenzwert	359
ephone	359
suspen@@	359
eingeschätzt	359
Minut@@	359
300-@@	359
Kristalle	359
agl@@	359
alysen	359
Kappe	359
Nal@@	359
011-@@	359
mitgeliefert	359
schwacher	358
Chirurgen	358
Lisboa	358
Ohnmacht	357
unzureichenden	357
ansp@@	357
Altersgruppe	357
Pat	357
darm	357
Vitamin@@	357
Glyc@@	357
anspricht	356
beigelegt	356
mender	356
Yar@@	356
lyn	356
Zehen	356
NAME	356
tane	355
Nachweise	355
Babe@@	355
ē@@	355
D2	355
harma	355
olon	355
überschüs@@	354
ulose	354
zerb@@	354
pid@@	354
stopfen	354
First@@	354
Alumini@@	354
Hitze@@	353
Zustandes	353
Reiz@@	353
Enten	353
Expression	353
volum@@	353
Immunsystems	353
EMEN@@	353
TEK	353
Leitlinie	352
Gastro@@	352
drug	352
4a	352
Heilungs@@	352
cte@@	352
060	352
WICH@@	352
B-	351
sofortiger	351
ppm	351
suspension	351
umina	351
Übelkeit	351
Candi@@	351
Acet@@	351
Einnahme@@	350
Gelegentlich	350
-Hu@@	350
Wirkstoff@@	350
oqu@@	350
Rüden	350
Intervall	350
veau	350
Versehen	349
Virus@@	349
abnimmt	349
behandelnden	349
Konzentr@@	349
Mab@@	349
Viv@@	349
RET@@	349
pH	349
orph@@	349
Regulation	349
036	349
ī	349
ärzten	348
exzes@@	348
Nachweis@@	348
Potenzials	348
EMEA	348
opfen	348
freigabe	348
∞	348
Expositions@@	347
erbrachten	347
ösem	347
¸	347
Kalium	347
Barcelon@@	347
opharma@@	347
gummi	347
BZ@@	347
absetzen	346
F-	346
apen@@	346
SOR@@	346
Pen	345
timm@@	345
oleranz@@	345
Dex@@	345
KEN@@	345
tube	345
intermedi@@	345
Probanden	345
A1@@	344
Halogen@@	344
embry@@	344
Speiser@@	344
ÜCK@@	344
Lymph@@	344
beta	344
protein@@	344
Health@@	344
ogenität	343
erkrank@@	343
Te	343
Verdauungs@@	343
Krka	343
ºC	342
Erhaltungs@@	342
ž	342
023	342
ия	342
therapy	342
Klinik@@	342
reatin@@	342
stufenweise	341
stig@@	341
hera	341
LIS@@	341
YC@@	341
А@@	341
Effi@@	341
fensters	341
Absorption	340
empfahl	340
Informationstech@@	340
mord@@	340
schweres	340
schwach@@	340
[...]
