"	24736146
,	21270602
.	15224874
der	9245312
/	9135943
und	8350676
die	7943909
)	6423772
(	6244725
:	6217656
in	5364084
von	5063441
mit	4460544
zu	3001637
-	2830373
ist	2663128
Sie	2607144
den	2533909
für	2497344
oder	2270218
bei	2215744
des	2185576
eine	2137807
auf	2123047
werden	2111195
1	2071067
Die	2009510
das	1940433
nicht	1862401
einer	1740269
im	1720765
Patienten	1529150
mg	1482941
wird	1443214
ein	1404305
dem	1399183
an	1391215
%	1315154
als	1256249
es	1206504
sich	1197775
sind	1178553
zur	1132111
nach	1071190
2	969033
dass	967861
um	903868
?	880106
über	877739
wurde	877341
-@@	864703
kann	835896
bis	830701
auch	812316
einem	799421
10	790034
Behandlung	775108
+	761532
In@@	732720
aus	723447
einen	707333
3	698066
wie	679387
haben	677454
in@@	668532
ml	655344
sie	648602
Der	643703
;	638614
wenn	636453
durch	626813
http	621870
können	617790
EU	617201
0@@	597161
a	594110
wurden	594075
on	586683
am	584426
zum	583431
4	579629
_	576457
•	575294
vor	573402
Inje@@	567524
Es	560962
Das	555589
In	551673
5	548130
hat	545954
Anwendung	525840
o@@	522324
x@@	513665
unter	507402
er	495999
ten	489869
P@@	488939
Bei	486654
7	477783
=	474892
20	464468
wir	459232
keine	457123
12	455971
Dosis	450242
nur	449450
“	446850
l	444844
s	443585
e@@	440204
war	439688
6	439577
00	428056
al@@	418589
–	415146
A@@	414897
30	411665
!	410916
sollte	410906
siehe	409652
E@@	408031
„	405247
r	403655
C@@	401386
*	396504
de	396303
x	394095
y@@	393220
Wenn	392743
do@@	389486
Arzneimittel	388303
um@@	387613
15	386279
]	385538
Studien	382876
0	381101
sein	380210
C	379704
si@@	378762
Arzt	378645
e	378149
>	377388
€	376509
ab@@	376250
the	373824
anderen	372243
so	368807
ich	368329
100	367998
dieser	367853
50	366331
a@@	363405
mehr	361340
diese	359434
an@@	358280
[	357712
H@@	356776
Blut@@	354328
16	353779
An@@	353573
angewendet	351922
en	350865
was	349725
8	349117
11	346652
b	342063
ktions@@	342024
z@@	341702
ung	340475
m	336931
N@@	335643
ver@@	334023
or@@	333266
Nebenwirkungen	330491
at@@	329347
enthält	328834
K@@	327922
vi@@	327136
li@@	326806
eines	325812
en@@	323054
während	323022
17	322329
alle	322048
Abschnitt	321832
25	321101
18	320861
g	318687
'	317004
EN	314381
14	311802
ri@@	311183
on@@	309464
aber	304419
o	302724
Durch@@	301893
c@@	301664
sowie	299742
ko@@	299355
of	298820
p@@	297901
2016	296617
su@@	296599
<	296211
&	295793
O@@	295335
re@@	295184
d@@	294867
Z@@	293915
t	292890
d	292781
ti@@	292567
07	292492
t@@	291082
...	290788
op@@	290009
Ver@@	287253
is	284904
tab@@	284588
om@@	283330
ul@@	283206
noch	282839
vom	282688
er@@	281873
T@@	280486
ungen	278179
Eine	276412
gegen	276218
Tabletten	275893
F@@	275393
M@@	274223
01	272876
02	272142
di@@	271256
and	269726
R@@	269503
A	268907
da	268647
mi@@	265103
Ein@@	265076
k@@	263750
at	263022
06	262060
sollten	261475
B	258901
n	258319
Wie	257132
E	256531
Do@@	256509
V@@	255982
08	254801
Er@@	254229
s@@	253641
24	253438
13	252775
sehr	252638
tin	251834
müssen	250302
Ihnen	249676
man	246781
21	246626
9	246047
ro@@	245863
zwischen	244307
ie	244178
l@@	243921
Daten	242868
B@@	242398
stech@@	241367
muss	241303
Ihr	241010
Studie	240487
ungs@@	240094
Tel	238969
04	238251
03	238125
#	237850
Tag	237580
uns	236864
ra@@	235754
ale	234664
I@@	233787
22	232200
19	231109
kg	231050
täglich	230550
ar@@	230389
S@@	230008
G@@	229983
Ab@@	228185
andere	228092
m@@	227971
»	227906
ktion	227475
xi@@	226253
waren	226095
tis	222621
klinischen	222411
I	222319
D@@	221781
Ihre	221595
zwei	221561
i@@	221218
let@@	218377
be@@	218358
Jahren	217032
0,@@	216013
lösung	215585
Diese	215307
05	214674
zi@@	212277
te	211940
40	211691
Stunden	210937
Impf@@	210205
ohne	209743
Im	209677
Informationen	209341
el@@	208784
se	208560
un@@	208394
ab	208273
Film@@	208025
ta@@	207085
Wochen	206456
L@@	205329
u@@	204997
EM@@	203153
Leber@@	202637
Re@@	202605
CH@@	201919
ent@@	200538
28	198784
Wir	198035
über@@	197879
23	197839
Lösung	197826
Met@@	197810
Ihren	197583
verab@@	197519
ep@@	197023
to	196129
lin	195777
Nach	195261
The	194912
ster@@	193953
ette	193794
st@@	192786
2@@	191990
co@@	191584
W@@	191571
Ich	191444
pro	191317
us	190637
darf	189664
flasche	189303
ter	189114
09	188823
gibt	188608
h@@	188170
g@@	187587
alen	185636
°	185530
ot@@	185513
beobachtet	184952
sis	184939
to@@	184721
X@@	184416
Nächte	184391
hier	184318
et@@	183963
Nieren@@	183454
v@@	182652
Pla@@	182487
denen	182052
MP	181492
nehmen	181301
i	180707
Zeit	178989
avi@@	178771
diesem	178503
n@@	177967
Pro@@	177557
ma@@	176843
empfohlen	176636
ch@@	176422
dieses	176155
r@@	176136
jedoch	176046
Einnahme	174827
Therapie	174260
Menschen	173523
diesen	173465
Wirksamkeit	173185
erhalten	172200
fer@@	172100
lo@@	171875
ämie	171753
Jahre	171412
ersten	170853
f@@	170641
ge@@	170447
la@@	169932
Über@@	169023
Risiko	169000
dann	167537
daß	167266
6@@	166922
EA	166706
b@@	166405
IN@@	166312
sp@@	165726
Di@@	165678
ihre	165545
us@@	164599
pro@@	163560
Kombination	162011
untersucht	161914
Pharma@@	161693
T	160682
behandelt	160440
einmal	159832
in-@@	159111
vir@@	158573
de@@	158333
reicht	157928
U@@	157746
ac@@	157376
ol@@	157215
bringen	157153
zo@@	156641
www.@@	156288
z	156220
60	155783
Seite	155308
immer	154058
ein@@	154049
9@@	152828
Nat@@	152791
2015	152762
Ein	152612
am@@	151711
innerhalb	151547
Kommission	151445
zy@@	151118
beim	150883
3@@	150338
26	149910
Was	149840
min	149548
Hotel	149490
gen@@	149054
intra@@	148373
Für	148273
Jahr	148245
La@@	147011
einschließlich	146194
isch	145463
kin@@	145284
8@@	145279
Vor@@	144703
erforderlich	144671
gegenüber	144415
ceb@@	143703
Tage	143698
März	143314
c	143171
sa	142885
Be@@	142755
aus@@	142559
p	142388
Arzneimitteln	142317
PM	141770
wieder	141249
fu@@	141183
il@@	140300
Kindern	140029
zu@@	139501
Europäischen	139366
auftreten	139363
bi@@	138882
Ihrem	138638
finden	138582
yc@@	137681
AN@@	137442
h	137431
gen	137355
ven@@	137074
va@@	136442
4@@	136376
27	136327
em@@	136156
bo@@	136077
5@@	135808
Ser@@	135458
Wirkung	135307
.@@	135190
zusammen	135116
allen	134074
seine	133844
DER	133813
funktion	133580
mittels	133281
Mikro@@	132647
sta@@	132376
dies	132370
da@@	132155
45	131786
eingenommen	131758
80	131715
«	131664
Gabe	131469
7@@	131331
31	131107
km	130925
auf@@	130818
S	130652
damit	130226
or	130115
Y@@	129958
Anzahl	129940
zeit	129812
Und	129481
Al@@	129451
Symptome	129051
33	128984
Körper@@	128962
29	128792
ad@@	128695
Fertig@@	128600
Dosierung	128520
drei	128069
u	127764
UNG	127235
Ri@@	127133
2008	127131
49	126627
führen	126258
eg@@	126159
spritz@@	126112
Bli@@	125315
nei@@	125054
ur@@	124970
Wasser	124874
Verab@@	124518
ob	124164
2010	124089
it@@	123727
AB@@	123727
E.	123378
Pulver	123225
ihr	123179
Kinder	123133
neue	123108
störungen	123003
berichtet	122779
Pack@@	122323
35	122320
Mit	122175
not	121836
Frauen	121426
ende	121334
Unternehmen	120884
for	120560
bereits	120502
Neu@@	119974
bzw.	119421
ol	119417
arz@@	119339
2009	119255
me	119207
chen	118941
32	118557
verkehr@@	118253
mo@@	117887
ss@@	117521
Anti@@	117320
Zusammenhang	117291
Woche	117245
al	117030
Aus@@	116995
gi@@	116906
pack@@	116677
10@@	116517
2007	116403
R	116351
Entwicklung	116284
≥	116047
vor@@	115968
folgenden	115964
90	115589
Inter@@	115491
s-@@	115299
thr@@	115166
N	115128
ter@@	115054
Haut	114346
reichung	114150
48	113827
durchgeführt	113621
weniger	113607
mittel	113404
200	113387
Arznei@@	113373
sch@@	112990
Dosen	112789
Genehmigung	112766
va	112743
Behandlungs@@	112677
tes	112666
ap@@	112637
Gruppe	112487
liegen	112465
mindestens	112375
Li@@	112323
56	111936
ens	111575
ba@@	111558
weitere	111517
I.@@	111468
din	111423
soll	111344
etwa	111296
ph@@	111246
Herz@@	111136
em	111035
aboli@@	110794
AU@@	110759
Uhr	110697
Dies	110568
Herstellung	110558
2006	110304
art@@	110148
ck@@	110061
Vergleich	110044
Hyper@@	109942
Da	109846
einnehmen	109820
ST@@	109806
verwendet	109632
y	109481
Personen	109439
D	108903
Bereich	108752
ine	108693
es@@	108586
ex@@	108423
af@@	108329
CY@@	108236
neuen	108136
this	108020
44	107882
Schwangerschaft	107708
Vorsicht	107705
G	107628
stoff	107442
bekannt	107286
J@@	107012
Erkrankungen	107008
75	106852
2011	106675
L	106601
liegt	106386
sions@@	106067
schmerzen	105637
IS@@	105473
Deutschland	105068
brechen	104507
sk@@	104418
beträgt	104306
Sicherheit	104162
4.4	104123
gramm	104032
Plasma@@	103824
pension	103653
Posted	103432
34	103322
ge	103296
Ma@@	103285
mon@@	103275
sen@@	102930
36	102639
der@@	102515
unsere	102411
hatten	102401
TI@@	102365
ihrer	102328
seit	102171
lassen	102062
Ins@@	101987
erhielten	101897
1,@@	101887
se@@	101860
Alter	101687
möglich	101413
ANG@@	101319
EN@@	101278
Vi@@	101189
Hau@@	101124
te@@	101053
98	101026
WI@@	100972
2013	100922
”	100847
tra@@	100778
Einzel@@	100196
39	99982
sierung	99964
ä@@	99445
2014	99374
tro@@	99028
2012	98990
worden	98942
tischen	98573
bei@@	98523
Union	98485
He@@	98196
du	98131
gut	97995
enden	97989
Art	97960
Bestandteile	97823
Rit@@	97440
V	97435
seiner	97062
hydro@@	96962
spiegel	96946
möglicherweise	96749
aler	96736
häufig	96648
kein	96637
300	96615
deren	96364
ger@@	96268
bietet	95989
stoff@@	95879
hatte	95870
Infektionen	95835
besteht	95831
43	95825
Auf@@	95815
Monate	95807
0,5	95805
H	95800
En@@	95767
en-@@	95755
dürfen	95731
darauf	95568
behandelten	95530
ungsmittel	95324
den@@	95308
f	95219
Packung	94775
2-@@	94635
Er	94163
Tabl@@	93997
stelle	93876
fi@@	93790
insbesondere	93442
To@@	93260
setzen	93130
70	93081
Reaktionen	93066
Spritz@@	92852
yl@@	92833
ene	92707
Ä@@	92324
el	92284
con@@	92106
500	92057
bitte	91952
Blut	91813
je	91745
hi@@	91667
selbst	91666
ffizienz	91401
aufgrund	91211
Teil	91172
41	91134
Ergebnisse	91111
fusion	90594
na@@	90421
ance	90301
res@@	90281
URL	90210
ori@@	90168
Nov@@	90094
August	89989
September	89838
tische	89634
sin@@	89627
e-@@	89607
mm@@	89558
ov@@	89480
et	89410
1@@	89342
kommen	89326
tem	89198
se-@@	89190
zweimal	88929
IST	88810
Minuten	88783
eri@@	88582
ation	88522
sti@@	88451
42	88190
klin@@	88170
gewicht	87993
Ro@@	87984
2005	87955
µ@@	87944
bin	87828
funktions@@	87785
daher	87764
beiden	87753
gra@@	87743
ic@@	87574
for@@	87545
150	87422
Lös@@	87327
GmbH	87316
46	87289
UTC	86960
as	86921
ern	86898
kung	86833
lage	86670
000	86578
Rahmen	86482
fa@@	86314
anti@@	86123
gegeben	85630
ra	85612
Alle	85352
2000	85328
mir	85212
viele	85208
enthalten	85203
met@@	85196
X	85157
kap@@	85128
Hotels	85105
sondern	85043
zin@@	85035
AL@@	84982
November	84967
ktion@@	84817
400	84635
Auf	84595
sten	84583
Un@@	84444
mich	84437
Thr@@	84300
har@@	84294
Zimmer	84285
chl@@	84164
Ihrer	84156
ci@@	84011
Inhalt	83988
Welt	83956
²	83923
Tagen	83881
Ac@@	83857
habe	83842
machen	83802
P	83778
fall	83723
Artikel	83635
be	83570
gezeigt	83431
Ende	83320
Tier@@	83271
Jede	83256
sub@@	83251
Hydro@@	83222
AR@@	83208
stehen	82916
Su@@	82796
by	82776
It	82655
ert	82628
d-@@	82551
st	82549
…	82548
Hepati@@	82498
Ü@@	82349
mal	82161
all@@	82045
AUF	82023
einige	81960
ten@@	81771
enz@@	81576
Fall	81462
denn	81403
geht	81364
95	81010
.com	80981
AM	80839
Beginn	80753
Infektion	80747
ing	80487
entsprechend	80377
Fällen	80313
37	80145
sprechen	80007
ak@@	79985
55	79890
Le@@	79890
Schmerzen	79822
Falls	79750
97	79740
Wirkungen	79582
RA@@	79526
38	79490
47	79401
Mi@@	79391
eb@@	79216
zität	79167
schon	79112
Haupt@@	79106
ser@@	78981
ren@@	78899
erhöht	78831
k	78781
geben	78772
1-@@	78753
Par@@	78601
dazu	78491
2001	78278
le	78110
schlag	77608
52	77557
erreicht	77452
therapie	77155
keit	77103
Europäische	76931
san@@	76931
wo	76917
Erkrankung	76882
Monaten	76836
ali@@	76667
welche	76613
unserer	76603
VI@@	76563
Von	76479
ini@@	76411
M	76371
pi@@	76324
Ne@@	76311
April	76226
Sch@@	76174
weiter	76039
letzten	76007
kt@@	75707
ho@@	75662
ihren	75539
hr@@	75444
indi@@	75443
vu@@	75422
Zur	75243
viel	75221
2004	75199
A-@@	75194
Menge	74912
a-@@	74900
w@@	74892
innen	74870
fen	74828
Ex@@	74721
Hart@@	74660
’	74658
4-@@	74577
tik	74554
ja	74456
stellen	74301
Verfügung	74235
Unter@@	74147
ganz	74116
Glu@@	73944
vo@@	73850
mm	73849
Erwachsenen	73840
Ar@@	73787
ron@@	73585
ed	73517
AT@@	73468
Res@@	73410
ane	73394
ung@@	73362
Verbindung	73327
anwenden	73326
th@@	73286
sofort	73262
liche	73192
Weitere	73178
Stadt	73067
Um	73030
ins	72963
ka	72953
schweren	72924
onie	72921
13@@	72871
empfin@@	72866
found	72830
2002	72805
is@@	72792
Ö@@	72694
ni@@	72584
heute	72479
kut@@	72399
hal@@	72276
54	72250
ktionen	72147
eren	72106
server	72080
US@@	72030
Wirkstoff	71968
weil	71955
@	71861
Co@@	71787
ve@@	71663
vier	71654
Nutzen	71618
99	71574
currently	71553
par@@	71467
ker	71452
Atem@@	71421
51	71375
po@@	71348
gleichzeitig	71326
schwerer	71318
tion	71191
eln	71082
Rat@@	71071
jetzt	71017
keinen	70954
Ra@@	70863
Maßnahmen	70826
jeder	70792
sonstigen	70717
pen@@	70701
Herr	70636
tika	70589
min@@	70508
werte	70500
kon@@	70481
steht	70476
gruppe	70475
etwas	70449
Übel@@	70387
Oktober	70324
seinen	70288
Europa	70269
Am@@	70244
AM@@	70225
sehen	70221
lich	70136
aller@@	70130
max	69990
18@@	69978
Gel@@	69903
elle	69661
Si@@	69635
....	69596
15@@	69566
Clear@@	69546
erkran@@	69533
selten	69491
Hyp@@	69448
Dieses	69432
herapie	69410
ha@@	69349
ster	69341
IT@@	69332
bevor	69332
sa@@	69319
O	69266
requested	69243
Pi@@	69238
cm	69202
ru@@	69182
sowohl	69086
könnte	69050
störung	69041
Ur@@	68901
führt	68891
FÜR	68856
bit@@	68788
studien	68769
Typ	68649
16@@	68647
sen	68566
verschiedenen	68517
Sus@@	68351
eu@@	68350
ut@@	68334
EH@@	68186
vit@@	68175
per@@	67842
AS	67795
erhöhte	67649
as@@	67630
Mai	67625
Pat@@	67612
kar@@	67584
he@@	67551
Knochen@@	67496
hin	67484
Bitte	67378
einfach	67309
Häufigkeit	67294
Pa@@	67197
j@@	67180
Auch	67106
Mitgliedstaaten	67075
Zum	67035
erste	66863
il	66842
.htm	66824
Zu@@	66821
UND	66779
Ret@@	66776
pm	66750
Um@@	66734
Form	66661
allem	66647
Risiko@@	66527
einigen	66357
So	66312
84	66268
EW@@	66240
Ta@@	66195
14@@	66137
Als	66048
jedem	65931
meisten	65929
Tabelle	65916
Te@@	65898
Daher	65887
ellen	65877
kommt	65861
ox@@	65814
Produkte	65680
leicht	65631
Anstieg	65471
flaschen	65440
Preis	65348
Juni	65276
HIV-@@	65241
erg@@	65128
zer@@	65013
Maschinen	64957
besonders	64944
mus@@	64935
seln	64892
12@@	64889
ihn	64786
Win@@	64700
ihm	64645
Fragen	64632
Bi@@	64613
gl@@	64454
pla@@	64449
sollen	64438
verbunden	64426
dabei	64424
Reply	64405
wert	64383
Gesamt@@	64325
58	64273
96	64216
May	64048
inter@@	64039
20@@	64017
This	63987
Wirk@@	63891
tt@@	63874
Hypo@@	63836
Ereignisse	63806
11@@	63637
.de	63635
PVC	63615
ard@@	63555
53	63468
gesamten	63465
z.B.	63458
kt	63437
Juli	63374
top@@	63311
Tri@@	63274
lang	63265
ei@@	63219
1.	63203
g-@@	63170
ziert	63141
entfernt	63098
57	63088
om	62962
betrug	62904
le@@	62840
{	62793
große	62789
me@@	62574
nun	62569
ID	62562
mp@@	62552
orid	62458
Flu@@	62348
1.@@	62195
Aug	62186
ne	62028
klinische	62010
Poly@@	62008
ären	61968
rei@@	61937
aller	61893
Während	61846
konzent@@	61836
2003	61789
fo@@	61774
59	61765
lin@@	61722
fe@@	61708
Verwendung	61604
Verfahren	61561
ihnen	61551
it	61508
end	61416
m2	61393
davon	61385
w	61356
gleichzeitige	61329
LA@@	61217
bes@@	61208
are	61160
far@@	61061
Pf@@	61015
Lage	60974
Ci@@	60920
großen	60631
schen	60617
F	60615
erung	60572
17@@	60546
lor@@	60486
ina@@	60478
no@@	60463
so@@	60428
}	60398
konnte	60395
ischer	60381
My@@	60326
Peg@@	60280
befindet	60242
Human@@	60214
cro@@	60088
del	59964
ate	59952
hy@@	59943
65	59935
Haus	59878
oren	59868
5-@@	59861
sagen	59847
times	59832
Arbeit	59829
EUR	59767
eingesetzt	59748
verwenden	59708
fa	59589
1000	59588
ebenfalls	59570
cken	59492
direkt	59420
Zahl	59396
Namen	59355
Exposition	59248
lan@@	59206
ers	59200
Ph@@	59117
Q@@	59105
P-@@	59090
kul@@	59081
ts@@	59037
wer@@	59009
pharma@@	59001
Muskel@@	58947
LI@@	58930
Rat	58906
alles	58849
System	58843
behandlung	58784
mittel@@	58763
C-@@	58749
EP@@	58650
Beispiel	58650
o-@@	58545
op	58414
insgesamt	58403
y-@@	58339
Immun@@	58332
unseren	58320
Nicht	58320
ar	58287
verglichen	58168
go@@	58126
peri@@	57930
Ir@@	57888
sei	57878
ger	57862
ase	57847
Anzeichen	57844
Körper	57824
Tra@@	57815
ne@@	57711
pass@@	57698
ER@@	57597
Sehr	57578
ma	57574
EI@@	57566
3-@@	57562
mat@@	57515
oto@@	57458
ck	57441
Werte	57434
-S@@	57430
leiden	57388
v	57356
Fax	57328
genau	57057
gung	57018
250	57000
Wert	56939
gehen	56929
kam	56914
Com@@	56911
III	56758
ga@@	56744
CP@@	56602
jizi@@	56599
Person	56535
LE@@	56529
ische	56516
ent	56514
Hä@@	56479
Diabetes	56433
E-@@	56384
Leben	56253
Möglichkeit	56177
hinaus	56172
mmer	56155
ö@@	56142
bereich	56066
2,5	56012
ca.	55972
id	55869
ff@@	55856
erhältlich	55795
oben	55763
will	55701
zep@@	55612
enz	55595
Kar@@	55594
Unterstützung	55587
medi@@	55525
Veränderungen	55513
Mor@@	55421
aktionen	55417
schwere	55381
Ort	55374
all	55322
Rap@@	55309
ag@@	55276
pp@@	55250
qu@@	55230
Kon@@	55221
Dar@@	55217
AC@@	55170
zeigte	55149
Bio@@	55112
Auswirkungen	55071
Se@@	55021
kation	54959
Hu@@	54828
rationen	54778
empfohlene	54775
ben@@	54765
Website	54755
wichtig	54747
also	54691
Zeitraum	54651
bin@@	54606
Augen@@	54593
Ausschuss	54574
Dauer	54530
pin	54440
folgende	54254
Kopfschmerzen	54127
gie	54121
END@@	54087
informieren	53948
B.	53942
ly@@	53887
entweder	53840
yo@@	53813
Kunden	53773
Z	53735
Her@@	53617
syste@@	53603
tik@@	53548
schnell	53541
wirkt	53522
möchte	53495
doch	53473
ischen	53458
Mar@@	53402
Kre@@	53402
$	53393
dra@@	53304
dafür	53224
23@@	53182
rate	53172
Dieser	53171
mpf@@	53158
ard	53125
End@@	53108
dis@@	53068
ro	53045
Risiken	53037
dauer	53002
os	52997
Nehmen	52956
allein	52929
darüber	52920
Fieber	52908
Flasche	52902
omi@@	52860
bestimmt	52859
zurück	52825
II	52818
Erfahrungen	52787
gemäß	52766
ca@@	52722
Aber	52677
Land	52675
notwendig	52643
Dosier@@	52584
B-@@	52577
Frau	52475
zeigen	52451
sicher	52450
Weise	52419
thi@@	52409
dienen	52371
Januar	52368
EX@@	52321
falls	52316
pa@@	52266
T-@@	52207
würde	52198
gli@@	52110
ET@@	52040
Mon@@	52026
bar	51976
Mono@@	51913
Zu	51910
Blu@@	51898
ziehen	51895
Samstag	51890
che	51889
00@@	51807
ste	51785
gelbe	51738
Version	51693
traten	51687
ka@@	51683
Sp@@	51673
Den	51672
600	51662
ens@@	51650
kontrollierten	51644
seiten	51574
banden	51490
Kind	51453
Leu@@	51413
USA	51406
weiteren	51399
Patient@@	51379
lichen	51301
Frankreich	51285
Harn@@	51205
konstitu@@	51194
er-@@	51110
europäischen	50996
wobei	50989
halten	50958
jeden	50943
lange	50937
At@@	50919
Freitag	50835
hin@@	50677
Vor	50670
bieten	50658
you	50504
körper@@	50462
Donnerstag	50437
120	50357
V-@@	50337
Or@@	50252
De@@	50224
Auftreten	50215
Still@@	50187
FOR@@	50182
K	50130
Besondere	50084
Dezember	50039
del@@	50037
Bild	50032
Internet	49994
Kapseln	49963
scher	49956
ges	49943
len	49915
tri@@	49648
gel@@	49638
Weg	49632
zeigt	49614
Am	49589
gefühl	49559
ste@@	49501
Reaktion	49397
74	49358
Vorteile	49299
siert	49281
wegen	49277
bestimmte	49261
Überwachung	49241
zeigten	49217
licher	49043
ant	49038
Krankheit	49033
Neben@@	48968
eigenen	48966
hohen	48945
Hier	48932
empfindlich	48927
Dy@@	48873
Erfahrung	48871
athie	48817
Ziel	48794
taus@@	48780
men	48764
Patient	48745
unter@@	48735
indem	48724
eingeschrän@@	48724
ET	48717
Pra@@	48684
12.	48677
Qualität	48664
est@@	48632
Frage	48500
Haut@@	48486
Aktivität	48465
25@@	48410
ppe	48385
zweiten	48308
SS@@	48296
erreichen	48276
kardi@@	48238
10.	48209
Nadel	48187
wollen	48183
erfolgen	48119
Fach@@	48090
ben	48054
la	48045
Ni@@	47975
Verbesserung	47954
fa-@@	47953
4.2	47925
überwacht	47841
001	47789
11.	47777
Fälle	47773
os@@	47675
Patienten@@	47657
Ihres	47626
lose	47622
gische	47608
öse	47598
oh@@	47593
tragen	47570
.jpg	47551
din@@	47477
omen	47440
Produkt	47436
Millionen	47364
Bericht	47346
D-@@	47331
Ly@@	47327
DE	47321
erkrankungen	47291
kter	47246
vergessen	47223
EIN@@	47214
2.	47201
EL@@	47157
27@@	47151
Nier@@	47146
Ch@@	47131
enten	47119
tun	47109
Sa@@	47076
fin@@	47037
gab	47026
28@@	47022
06@@	47009
St@@	46967
Name	46945
gesch@@	46938
Pharma	46879
Durch	46805
Apothe@@	46763
maßnahmen	46719
nachgewiesen	46716
ch	46702
Nähe	46686
mus	46671
30@@	46645
Kontrolle	46565
Ko@@	46565
Ober@@	46556
1.000	46515
zugelassen	46468
anderer	46463
Jugendlichen	46429
page	46400
with	46388
Schwindel	46377
signifikant	46314
seinem	46290
Ent@@	46141
zwecke	46140
erst	46109
cit@@	46031
CO@@	46018
laster	46017
schwanger	45993
Schwell@@	45985
ari@@	45981
Gott	45972
jede	45964
ber@@	45963
Labor@@	45908
durch@@	45858
Rück@@	45851
Zi@@	45839
tation	45798
Hilfe	45775
Zusammenfassung	45765
geb@@	45748
Mittel	45734
sierten	45731
S-@@	45730
jeweils	45646
verursacht	45616
euch	45606
vermeiden	45595
äre	45585
Ã	45566
macht	45470
inn@@	45390
rix	45366
Na@@	45314
from	45288
Ste@@	45277
Blutdruck	45236
handelt	45233
Bauch@@	45231
ose	45213
pl@@	45149
AS@@	45073
erk@@	45051
pri@@	45033
dün@@	45026
äure	45003
RE@@	44913
Februar	44907
ms	44878
nen	44837
flu@@	44829
Kontakt	44783
TR@@	44782
Mix@@	44757
RO@@	44725
Per@@	44703
ß@@	44650
Wechselwirkungen	44645
08@@	44643
führte	44623
pf@@	44602
Erhöhung	44581
ations@@	44560
druck@@	44554
Ge@@	44541
Indi@@	44535
meine	44506
Zusammenarbeit	44454
konzentration	44450
Ba@@	44428
vielen	44417
Monat	44406
MI@@	44402
24@@	44395
stop@@	44394
her@@	44392
stark	44390
einzelnen	44384
gt	44250
ES	44182
U	44177
1,5	44156
Mutter@@	44110
gehört	44065
I-@@	44056
Ad@@	43929
Cy@@	43909
Gen@@	43899
sche	43815
cto@@	43795
entwickelt	43778
Merkmale	43769
erten	43703
LL@@	43681
\	43673
Nor@@	43642
TA	43599
Herzin@@	43511
Zellen	43448
ca	43376
Ausgangs@@	43341
UN@@	43325
rat	43323
sches	43231
Ju@@	43191
Agentur	43179
studie	43163
heit	43132
2,@@	43112
Einfluss	43111
fen@@	43081
len@@	43079
t-@@	43073
Medi@@	43071
ige	43067
Euro	43037
one	42987
ender	42986
dort	42956
lichkeit	42950
unten	42936
stoffen	42935
Augen	42918
Lan@@	42917
erte	42851
EL	42788
SCH@@	42785
Grund	42772
Probleme	42768
cht@@	42750
ungefähr	42733
weiterhin	42705
tung	42702
Bo@@	42607
mischen	42597
2.@@	42564
land	42490
ly	42473
erhöhten	42456
SER@@	42371
Kor@@	42370
Programm	42364
tiv@@	42334
Pre@@	42333
RI@@	42318
AL	42301
vollständig	42298
chtigkeit	42285
Berlin	42282
a.@@	42273
don	42258
gkeit	42253
Präsident	42249
angezeigt	42185
l-@@	42168
tel	42166
-B@@	42158
now	42145
800	42127
ell@@	42091
4.8	42068
AG	42067
sel@@	42032
ana@@	41955
Phase	41891
festgestellt	41866
gre@@	41863
AV@@	41850
sto@@	41839
gesunden	41819
gleichen	41817
opro@@	41813
erhöhen	41690
ation@@	41671
AD@@	41634
Glas	41620
Anhang	41608
SP@@	41605
Bedeutung	41556
Inhaber	41553
Grundlage	41550
dessen	41533
Konzentration	41513
sorgfältig	41499
säure	41492
ins@@	41470
au@@	41462
−	41447
Rezep@@	41432
EU-@@	41427
Arz@@	41403
new	41397
Leb@@	41362
.html	41346
fest	41335
nächsten	41322
kleinen	41286
Tre@@	41210
Außerdem	41206
pho@@	41203
Tages@@	41188
weiß	41181
hinsichtlich	41169
-F@@	41134
gene	41123
lag	41081
stin@@	41026
stellt	41025
ce	41006
glo@@	41004
SA@@	40984
fälle	40964
Aus	40952
W	40939
mehrere	40914
sierungs@@	40784
besten	40776
Schlaf@@	40739
höher	40736
lu@@	40710
Hinweise	40699
Hum@@	40662
tischer	40633
Zeitpunkt	40600
gefunden	40599
Du@@	40585
sionen	40551
Deshalb	40540
Lungen@@	40516
4.5	40504
ologische	40482
ina	40481
Untersuchungen	40455
dlichkeit	40415
Studien@@	40412
Bildung	40353
phy@@	40344
Mo@@	40338
trans@@	40309
oi@@	40278
¼	40269
ER	40255
inte@@	40252
Italien	40230
Leber	40220
Bet@@	40213
son@@	40202
4.3	40179
OR@@	40168
entspricht	40168
Tel@@	40155
time	40106
rand@@	40104
26@@	40101
Warum	40059
Abschnitte	40050
do	40045
UM@@	39967
Antikörper	39921
Therapie@@	39912
ken	39905
vollständige	39893
UNGEN	39851
VER@@	39847
könnten	39834
ner	39813
Gebrauch	39805
denz	39793
rund	39761
rium	39755
yn@@	39706
5.2	39675
tern	39670
Fer@@	39661
ität	39647
ausgesch@@	39630
Ti@@	39629
oni@@	39624
ran@@	39607
möchten	39599
©	39535
Vir@@	39525
tz@@	39482
Kombin@@	39476
los	39475
alt	39417
tsch@@	39408
0,0@@	39407
bedeutet	39338
erwarten	39302
zwar	39301
Bezug	39301
unser	39281
AP@@	39227
dung	39216
dop@@	39211
per	39207
berichteten	39146
häufigsten	39140
PAC@@	39133
kleine	39122
mid	39120
rin@@	39118
tre@@	39099
bet@@	39084
ologischen	39079
tive	39064
gestellt	39017
ihrem	39011
tic@@	38988
gezogen	38988
gemacht	38981
ption	38962
Bu@@	38958
versi@@	38934
Kühlschrank	38891
IE	38875
entwickeln	38874
losigkeit	38850
wissen	38837
Aufgrund	38832
S.	38819
Nach@@	38812
Erwachsene	38810
1998	38809
stro@@	38807
größere	38806
Prä@@	38748
älteren	38692
druck	38672
Ländern	38576
MwSt.	38556
Region	38549
internationalen	38489
Seiten	38478
Bed	38466
Problem	38461
Bar@@	38456
farb@@	38439
gebracht	38434
dia@@	38422
Mu@@	38420
fl@@	38418
10.000	38305
mmern	38299
VON	38292
US	38283
vermin@@	38225
je@@	38190
Bedingungen	38170
verfügbar	38154
arbeiten	38142
aufgenommen	38089
Schluss	38080
ales	38048
nationalen	38038
mit@@	38016
gleichzeitiger	37993
CV@@	37946
Analyse	37879
Konzentrationen	37839
wirkung	37833
Einsatz	37819
besser	37764
Fa@@	37762
uni@@	37677
Reihe	37674
72	37672
um-@@	37591
äm@@	37584
tu@@	37577
Arzneimittel@@	37500
ach@@	37472
UR@@	37462
64	37422
New	37421
Meer	37419
Val@@	37345
liches	37292
ON	37282
Verkehr@@	37217
Hunden	37216
solche	37207
fast	37201
lichkeits@@	37196
ausreichend	37193
gilt	37160
Y	37145
L-@@	37142
kop@@	37132
sop@@	37124
on-@@	37124
AR	37122
Geschichte	37105
tions@@	37082
prof@@	37056
Rolle	37029
Parlament	37000
ju@@	37000
bestimmten	36971
Sonntag	36952
du@@	36947
nach@@	36902
ladysilvia	36902
verschiedene	36899
wäre	36897
mische	36888
kontra@@	36867
Sicherheit@@	36847
zucker@@	36814
ato@@	36809
Th@@	36792
Mer@@	36768
5.1	36763
frei	36737
ieden	36726
men@@	36700
alog	36692
Syn@@	36679
Po@@	36677
splan@@	36657
MS	36618
stoffe	36582
Telefon	36580
-0@@	36578
UB@@	36545
verursachen	36541
gruppen	36523
Unsere	36509
hohe	36500
Spiel	36498
Einheiten	36471
Lu@@	36471
Über	36471
beginnen	36467
log	36461
end@@	36453
sier@@	36447
bleiben	36437
kor@@	36430
sechs	36414
mu@@	36405
Bayer	36394
Mal	36382
ler	36382
ie@@	36381
ES@@	36356
igen	36355
trä@@	36348
ON@@	36258
Calci@@	36254
Kontra@@	36253
eta@@	36252
ese	36245
9.	36236
fünf	36215
empfohlenen	36214
6-@@	36210
6,@@	36182
Zell@@	36141
post@@	36132
dy@@	36131
Breakfast	36063
Belgien	36060
aktiven	36015
Mehr	35974
Thema	35971
retro@@	35949
Wasser@@	35946
ng	35927
Gewichts@@	35868
zahl	35835
fall@@	35833
wirksam	35820
Langzeit@@	35785
beginn	35764
zon	35751
Em@@	35749
stra@@	35732
Eli@@	35719
Wo@@	35692
Entscheidung	35692
erfolgt	35677
sion	35669
blut@@	35665
zellen	35614
Stunde	35605
unserem	35604
Indu@@	35589
beschrieben	35587
F-@@	35582
Ca@@	35572
Ho@@	35551
Spiegel	35550
Kan@@	35532
mal@@	35512
Schutz	35458
Ka@@	35452
Car@@	35432
ir@@	35423
Datum	35388
id@@	35357
Service	35351
im@@	35317
entnehmen	35300
Software	35294
pra@@	35292
ing@@	35284
en-	35270
Zentrum	35265
sogar	35257
außerdem	35237
omm@@	35228
deshalb	35190
SI@@	35185
29@@	35170
09@@	35149
IN	35137
zell@@	35135
ktor	35095
Chemotherapie	35081
entzün@@	35075
Platz	35074
gan@@	35070
07@@	35070
ht@@	35050
Du	35044
inkl	34990
eli@@	34980
Spanien	34979
Sti@@	34955
weg	34950
unabhängig	34896
kte	34876
Prote@@	34869
Ben@@	34849
trat	34848
reichen	34834
Müdigkeit	34819
Liste	34783
Fil@@	34774
Man@@	34769
Ag@@	34764
ell	34740
±	34736
Sal@@	34691
Virus	34671
kombin@@	34651
statt	34619
La	34607
Ger@@	34587
Fähigkeit	34531
ig@@	34523
reich@@	34494
gly@@	34463
dar@@	34455
BE@@	34446
gel	34445
Aktivitäten	34445
zyten	34444
stü@@	34436
po	34436
kl@@	34435
Richtlinie	34404
är@@	34401
Seh@@	34390
gute	34382
di	34378
Allgemeinen	34352
ome	34320
enen	34313
neu	34253
3.	34245
and@@	34236
ähnlich	34230
Hand	34222
entlich	34218
®	34205
reduziert	34178
Regel	34158
hauptsächlich	34122
Gra@@	34105
via	34103
drom	34102
nichts	34077
ls@@	34038
frei@@	34032
empf@@	34032
ulation	34024
Brust@@	33992
ber	33991
Häufig	33956
No@@	33955
ys	33938
aten	33908
lungs@@	33894
Eigenschaften	33892
gr@@	33881
Fi@@	33872
Störungen	33846
beachten	33844
can	33834
Aluminium@@	33811
Mahlzeit	33791
Sel@@	33772
zurück@@	33769
ob@@	33768
sel	33757
Faktor	33736
ce@@	33734
Zeit@@	33722
Österreich	33674
Anwendungs@@	33649
verlust	33644
m-@@	33626
Schutz@@	33620
Änderungen	33619
MIN@@	33618
France	33614
Königreich	33614
Magen@@	33612
Des@@	33601
human@@	33591
LT@@	33587
milch	33581
61	33577
Gli@@	33573
zusätzlich	33556
Amp@@	33502
zen	33481
treten	33475
Unter	33467
q@@	33464
daran	33448
ere	33437
AH@@	33427
prä@@	33408
mittlere	33406
wirklich	33400
kovi@@	33365
aussieht	33361
Mittwoch	33302
gesamte	33266
bildung	33247
ima@@	33229
á@@	33219
Sicherheits@@	33216
lässt	33213
Bon@@	33146
angegebenen	33134
später	33130
teil	33106
befinden	33101
ct@@	33096
VO@@	33039
Rö@@	33007
ed@@	33003
DES@@	33000
ange@@	32997
zusätzliche	32983
bekommen	32965
tran@@	32940
q	32918
Arbeits@@	32913
datum	32889
z.	32881
ia	32880
S.@@	32875
Ten@@	32862
67	32861
d.	32852
19@@	32852
ging	32814
ret@@	32813
73	32723
Blick	32719
Schwer@@	32709
bu@@	32698
San	32662
ts	32629
Antik@@	32621
geeignet	32613
85	32606
MA@@	32585
wiegen	32577
Substanzen	32567
Gesellschaft	32518
suchen	32503
7,@@	32483
91	32473
Germany	32432
anzuwenden	32415
Arthritis	32409
nicht-@@	32399
gehören	32390
yp@@	32377
kre@@	32365
fragen	32363
findet	32352
8,@@	32335
International	32314
deutlich	32307
DEN	32306
chron@@	32278
ft@@	32246
ami@@	32242
Plasma	32237
Darüber	32228
daten	32180
Lo@@	32175
Halb@@	32169
Nutz@@	32164
α	32160
gerade	32136
helfen	32133
weg@@	32133
pr@@	32125
oft	32123
länger	32119
Sul@@	32118
IS	32101
ester@@	32097
hergestellt	32066
ösen	32051
bisher	32046
yk@@	32044
NA@@	32040
pop@@	32039
infe@@	32037
einge@@	32036
Herrn	32010
dan@@	32000
inen	31997
Sub@@	31990
Anfangs@@	31970
Kali@@	31968
Hersteller	31961
Sta@@	31957
konnten	31936
Flughafen	31934
seltenen	31923
your	31905
mel@@	31890
1997	31889
66	31888
isten@@	31876
bleibt	31837
sichts@@	31829
El@@	31827
ärer	31826
geboten	31820
Mitarbeiter	31782
-20	31767
benötigen	31746
Con@@	31744
Int@@	31742
anz@@	31728
Druck@@	31677
é@@	31669
SIE	31645
nor@@	31601
Tieren	31530
Behand@@	31498
ämat@@	31495
weder	31472
Tru@@	31450
zer	31422
supp@@	31420
stillen	31404
Anteil	31386
Zukunft	31378
enk@@	31376
tige	31359
regelmäßig	31358
ü@@	31346
que	31323
elo@@	31318
Men@@	31310
37@@	31269
spielen	31267
89	31262
pfer	31249
amp@@	31244
An	31243
line	31235
dar	31232
jedes	31191
klar	31183
view	31182
Licht	31172
ke	31166
ACHT@@	31152
arr@@	31136
fri@@	31122
Bestandteil	31120
A4	31102
genannten	31096
dro@@	31084
Gewicht	31078
za@@	31061
RD	31061
Dia@@	31056
kart@@	31055
br@@	31047
spor@@	31045
RA	31027
ahl	31010
senden	30995
weit	30993
4.@@	30984
gleich	30961
vollständigen	30951
Bilder	30948
zweite	30934
bare	30933
bezüglich	30924
Untersuchung	30867
Produkt@@	30841
oc@@	30831
Enzy@@	30811
ure@@	30803
lesen	30797
Kol@@	30788
ven	30778
Abnahme	30753
Pol@@	30746
ermöglicht	30714
here	30710
wi@@	30707
Dr.	30700
Entzündung	30690
wege	30690
Ak@@	30672
rone	30669
mögliche	30664
160	30645
λ@@	30618
dosen	30588
II@@	30581
Markt	30579
gelegentlich	30566
Pe@@	30548
symp@@	30541
re	30535
Beurteilung	30531
heu@@	30514
Restaurant	30512
Bewertung	30500
Preise	30498
Limited	30445
ask@@	30433
ähnliche	30419
nung	30418
onisten	30414
begonnen	30411
Grad	30407
77	30388
Familie	30367
fache	30360
mitteln	30352
wenig	30342
baren	30328
Europe	30327
unterstützt	30321
einzunehmen	30318
beispielsweise	30317
180	30313
yst@@	30312
lebens@@	30301
solchen	30256
Basis	30248
ers@@	30239
ol-@@	30226
Chol@@	30216
Veränderung	30215
Verringerung	30211
erwartet	30204
hoch@@	30203
yla@@	30202
Fal@@	30178
zuvor	30165
Unser	30160
68	30143
Gast@@	30135
glichkeit	30124
dir	30115
HAN@@	30109
WO@@	30093
las	30087
Da@@	30081
Ap@@	30079
ve	30065
gte	30064
AN	30062
indu@@	30044
3.@@	30041
Folge	30025
Andere	30013
system	30004
natürlich	29997
sor@@	29984
wenden	29980
fahren	29968
lichem	29947
ganzen	29933
Behörden	29920
hat@@	29908
dioxi@@	29905
legen	29902
generated	29897
mon	29884
us-@@	29883
amin	29878
62	29877
IM@@	29872
Projekt	29869
ani@@	29863
eh@@	29838
Nr.	29831
Größe	29823
eller	29814
Can@@	29801
verfügt	29801
chs@@	29795
3,@@	29792
cal@@	29775
vergleichbar	29753
gelangte	29736
Epo@@	29730
gleich@@	29725
danach	29723
ronen	29722
unterstützen	29716
13.	29702
ationen	29663
Op@@	29650
bro@@	29649
Sil@@	29601
Stelle	29598
Glas@@	29583
·	29567
xy@@	29557
War@@	29523
Anforderungen	29511
Länder	29503
Windows	29497
Reprodu@@	29479
my@@	29478
sagte	29466
Ergebnis	29456
nie	29444
Hunde	29439
69	29414
Gruppen	29414
A.	29403
Schmelz@@	29394
ο@@	29383
ganze	29382
Einige	29378
AG@@	29365
erwachsenen	29340
HB@@	29335
cur@@	29321
0,9	29305
verringert	29275
4.	29259
unverzüglich	29240
Hinblick	29236
93	29228
öffentlichen	29226
cor@@	29216
gener@@	29213
eng@@	29212
tigen	29173
Gla@@	29170
Fol@@	29162
ums	29160
Kal@@	29138
pe@@	29133
Cl@@	29113
multi@@	29103
unerwünschten	29092
Ter@@	29085
lösen	29082
Zugang	29080
Richtung	29076
seconds	29075
50@@	29037
amp	29037
EV@@	29036
ant@@	29016
mmung	29000
rischen	29000
9,@@	28986
ös	28975
Man	28965
MAT@@	28961
PV@@	28958
Cor@@	28956
car@@	28912
Standard@@	28909
Is@@	28906
Lösungen	28900
Angaben	28892
aufge@@	28891
schwer@@	28887
lität	28886
82	28883
Mit@@	28873
dl	28861
Höhe	28858
Spiele	28851
Home	28845
mar@@	28844
denk@@	28837
spro@@	28824
erhö@@	28806
71	28777
lagen	28766
alo@@	28762
Ansicht	28747
Produktion	28741
ierte	28741
Typ@@	28674
Wohnung	28644
maximale	28627
ze	28605
verfahren	28605
ank@@	28600
Wortlaut	28597
Bad	28573
fra@@	28566
Lymph@@	28562
stand	28522
Küche	28496
blin@@	28496
88	28488
Änderung	28476
niedriger	28465
Nacht	28459
Kirche	28454
Bau@@	28433
sonstige	28432
vier@@	28432
Nur	28428
Wirkstoffe	28425
J	28421
Staaten	28417
Rei@@	28417
Kosten	28412
ethy@@	28391
Informieren	28386
Dienstleistungen	28374
Human	28365
40@@	28358
leichter	28357
gerte	28350
verrin@@	28338
Umgebung	28337
Ha@@	28336
versch@@	28323
Test	28321
76	28307
gten	28270
av@@	28230
UNG@@	28226
modi@@	28225
flo@@	28202
Aluminium	28191
ebenso	28176
höhere	28167
Zugriffe	28161
entsprechenden	28148
days	28148
Startseite	28139
nutzen	28137
63	28127
Dabei	28121
sc@@	28119
edi@@	28094
Kin@@	28090
Recht	28084
fung	28082
Unterschiede	28031
fon@@	27977
0-@@	27968
DA@@	27944
erteilen	27925
wofür	27901
wahrscheinlich	27888
83	27885
uläre	27873
Natur	27848
sta	27832
DC	27827
Code	27820
Pan@@	27812
häufiger	27724
weisen	27721
1999	27695
weiße	27695
dadurch	27679
form	27670
X-@@	27669
dose	27653
alyse	27645
alten	27638
FI@@	27636
jeweiligen	27623
ort	27609
ur	27604
Aufnahme	27598
entsprechende	27595
art	27585
omet@@	27552
Betracht	27516
12,5	27514
Gebiet	27455
125	27432
7,5	27429
Effekt	27428
London	27413
mein	27393
Musik	27389
iger	27380
hoch	27379
prot@@	27357
Portugal	27339
Ce@@	27338
asi@@	27325
bereit	27314
CI@@	27276
Datei	27254
hil@@	27246
or-@@	27241
xel	27208
mark	27206
Schritt	27205
ds	27200
ION	27181
Beschwerden	27179
welches	27149
Ltd	27145
abge@@	27143
abhängig	27117
mak@@	27111
weltweit	27088
vorhanden	27078
punkt	27066
Universität	27062
Selbst@@	27061
36@@	27040
R-@@	27034
Park	27031
site	27025
cht	27022
Seit	26996
bre@@	26992
aufzu@@	26977
schw@@	26975
rit@@	26972
Kra@@	26969
oberen	26964
nachdem	26955
tier@@	26950
Falle	26939
oxid	26926
schwer	26913
Cell@@	26883
Beschreibung	26856
ien	26823
86	26818
äst@@	26800
SIN@@	26794
E-Mail	26771
ze@@	26738
wirksame	26738
schem	26737
Auswahl	26731
Ber@@	26714
ologie	26703
that	26695
ile	26641
neben	26632
lass@@	26626
normalerweise	26624
Imm@@	26604
TER@@	26602
bestehen	26577
Karte	26576
teilen	26568
Webseite	26568
ute	26545
online	26544
fällen	26535
bus	26533
möglichen	26529
rig@@	26528
oral	26508
á	26494
Carb@@	26475
derzeit	26472
Zulassung	26470
tag@@	26460
ast@@	26439
leben	26438
oly@@	26420
wichtige	26404
hor@@	26372
......	26365
G-@@	26364
Sympt@@	26362
K-@@	26356
Wachstum	26350
dungs@@	26349
erkennen	26342
Klasse	26337
öser	26332
man@@	26323
Ris@@	26321
unmittelbar	26319
rans@@	26310
Gem@@	26302
Flüssigkeit	26288
c-@@	26280
esie	26279
an-@@	26271
Konzent@@	26251
8-@@	26224
stin	26200
py@@	26194
kan@@	26182
38@@	26179
gesetzt	26177
TEL@@	26175
44-@@	26167
Arbeitsgruppe	26166
vorge@@	26155
ril	26127
Ru@@	26118
beide	26108
sorgen	26106
Katzen	26103
..	26073
höheren	26072
Gran@@	26054
IC@@	26037
Pop@@	26031
Mund@@	26029
Flüssi@@	26012
how	25999
ec@@	25997
172	25991
0,3	25979
stisch	25944
Häu@@	25935
Tod	25921
ct	25892
liti@@	25880
78	25876
außer	25867
Ep@@	25846
η@@	25846
signifikante	25828
So@@	25807
pfen	25794
immobili	25794
al-@@	25790
Oste@@	25785
wöch@@	25780
hot@@	25776
Zustand	25763
tho@@	25760
volumen	25751
mati@@	25731
TEL	25729
genannt	25727
—	25713
92	25712
Regierung	25712
Fra@@	25697
gkeits@@	25687
Schweiz	25686
bemerken	25685
Anfang	25666
dungen	25656
oten@@	25644
Hy@@	25643
signifikanten	25639
stu@@	25603
chi@@	25598
UK	25593
ft	25565
abzu@@	25562
verfügbarkeit	25553
erlaubt	25534
vens@@	25533
sierte	25526
eingeleitet	25497
PRO@@	25496
0,1	25495
darin	25492
geren	25484
Seiteaufrufe	25478
Frei@@	25476
raten	25456
UT@@	25449
tivi@@	25446
Zeichen	25442
TV	25437
ρ@@	25430
würden	25427
gemeinsam	25422
Wien	25413
aria	25392
beeinflussen	25386
pren@@	25382
muß	25378
erneut	25359
sprach	25345
mmt	25332
nahme	25332
Jahres	25316
‘	25316
81	25315
Joined	25310
wichtigsten	25294
dich	25283
Design	25278
For@@	25272
Let	25267
United	25266
Qu@@	25241
S.A.	25230
hyper@@	25211
nahm	25200
AB	25169
KG	25143
í@@	25137
Reduktion	25133
α@@	25125
allerdings	25103
brauchen	25098
pen	25084
Park@@	25074
1,0	25072
verhindern	25069
seltene	25055
Lat@@	25053
110	25052
wissenschaftlichen	25050
In-@@	25048
Grund@@	25044
Senkung	25009
Unterschied	24983
Paris	24981
Gäste	24977
genen	24962
beschwerden	24960
definiert	24939
Belgi@@	24935
Anerkennung	24933
ken@@	24931
beeinflusst	24928
h.	24922
≤	24909
1996	24900
sh@@	24866
ei	24864
therapeutischen	24838
aktiv	24836
ett@@	24833
OP@@	24832
Rot@@	24830
zunächst	24816
tion@@	24813
Auge	24791
Dann	24783
ED@@	24772
formation	24768
Far@@	24749
Umsetzung	24742
kurz	24737
urop@@	24735
lig@@	24734
Lil@@	24734
tiven	24733
ausgeschlossen	24731
Unbe@@	24725
cy@@	24720
eigene	24710
Obwohl	24691
Schlä@@	24686
Gottes	24684
Verlängerung	24680
https	24671
folgt	24669
Test@@	24661
schreiben	24657
scheint	24655
Referenz@@	24651
Operation	24647
smus	24642
wirksamen	24636
Pr@@	24631
gei@@	24627
elte	24619
somit	24600
arb@@	24595
Funktion	24593
Mon	24581
ans	24567
Welchen	24561
Tiere	24537
als@@	24522
Finanz@@	24508
recht	24492
sin	24491
meiner	24491
bat	24471
79	24469
els	24457
neu@@	24456
ef@@	24454
Pri@@	24444
Zy@@	24442
.org	24440
ga	24428
Partner	24427
Raum	24426
GEN@@	24426
gern	24425
PRE@@	24405
stische	24382
LO@@	24381
voll	24380
,@@	24375
bili@@	24371
ener	24363
lit@@	24358
bel	24336
stri@@	24324
eti@@	24319
Schlafzimmer	24318
sal@@	24311
Ty@@	24297
werde	24295
gemessen	24277
relevanten	24263
angepasst	24262
plus	24247
nimmt	24246
Sprache	24243
46@@	24236
erteilte	24228
pä@@	24227
Herzen	24219
20.	24203
Ziel@@	24202
politischen	24188
derte	24186
¤	24180
ς	24175
5.@@	24167
Deutsch	24163
Möglichkeiten	24152
Dank	24130
MP@@	24116
Auflistung	24090
any@@	24074
za	24074
gels	24067
zeichnung	24057
Notwendigkeit	24053
systems	24032
Information	24031
bung	24020
ebe@@	24014
MIT@@	24002
chen@@	23977
neuer	23975
xe	23962
Sim@@	23954
hoher	23948
her	23947
Mitglieder	23946
akuten	23944
besondere	23938
Hoch@@	23931
aufgeführt	23930
ele@@	23922
pre@@	23919
Rates	23916
Zubereitung	23880
Gesundheit	23871
Situation	23871
Depression	23866
Ana@@	23864
Welche	23857
verfügbaren	23857
Denn	23856
Opti@@	23830
Welches	23829
171	23820
stati@@	23818
5.	23807
↓	23806
Gemeinschaft	23799
Eisen	23783
Bereichen	23768
Organ@@	23758
030	23728
6.	23725
ons	23723
Tro@@	23683
langsam	23664
Systems	23659
ku@@	23643
Jugendliche	23632
cc@@	23614
athi@@	23613
tritt	23606
Ven@@	23601
ändern	23590
Mess@@	23563
weißen	23556
Technologie	23548
ing-@@	23542
App@@	23538
Aller@@	23519
vo	23517
fil@@	23502
ophi@@	23499
KO@@	23498
99@@	23497
empfehlen	23493
ati@@	23472
You	23467
DL@@	23458
nächste	23455
fizierten	23450
ction	23446
kontrolliert	23438
Au@@	23435
es-@@	23434
Antwort	23426
schwerwiegende	23424
BO@@	23417
Stellen	23415
entscheiden	23400
onen	23392
gerne	23382
gu@@	23379
Mab@@	23374
masch@@	23371
Vereinigtes	23369
M-@@	23360
ml@@	23335
mann	23328
Effekte	23328
Kunst	23324
39@@	23324
sten@@	23302
cker	23295
CD@@	23276
Dis@@	23262
scheidung	23250
TE	23248
anen	23246
fühlen	23245
Mio.	23236
Thy@@	23221
Tum@@	23213
Wahl	23208
V.	23198
35@@	23194
10,@@	23190
Nutzung	23183
schema	23152
Post	23140
hau@@	23134
Ebene	23132
many	23131
Hand@@	23131
Schwanger@@	23128
Bra@@	23115
19.	23099
heim	23098
immun@@	23093
na	23090
schä@@	23074
mehreren	23070
HIV	23063
Neur@@	23058
Pur@@	23050
Beitrag	23046
22@@	23043
ig	23030
15.	23023
ID@@	23023
info	23023
no	23022
wa@@	23014
Punkte	23012
Beratung	22997
Fo@@	22991
Wirtschaft	22985
schützen	22980
oti@@	22979
hei@@	22974
barkeit	22971
Phanta@@	22963
94	22958
Tél	22953
Terrasse	22951
Arten	22949
ierten	22944
56@@	22942
sagt	22940
Nieren	22933
Tumor@@	22927
é	22925
Siehe	22925
raum	22878
China	22874
dreimal	22868
Mann	22863
Verschlechterung	22857
meta@@	22852
zusammen@@	22849
kti@@	22848
Markteinführung	22838
PC	22836
tägliche	22830
gabe	22819
freien	22806
Gelenk@@	22802
Nahrung	22795
Strand	22793
0.@@	22791
el-@@	22782
Text	22767
SE@@	22766
DIE	22759
Umständen	22753
vorliegen	22753
Team	22733
eingestellt	22720
bestehenden	22720
PR@@	22712
Alkohol@@	22707
49@@	22705
ido@@	22702
anderes	22696
77@@	22694
setzung	22690
76@@	22676
87	22668
tikum	22658
Management	22642
-10	22634
Pu@@	22628
Ner@@	22611
aktive	22609
unterschiedlichen	22609
Mund	22587
Fläche	22583
uploads	22582
Industrie	22574
San@@	22549
Prozent	22545
bilden	22541
theit	22537
Phosp@@	22530
cap@@	22527
88@@	22527
Cer@@	22526
fär@@	22526
Asth@@	22521
co	22519
Empfehlungen	22518
gesagt	22515
är	22509
II-@@	22509
а@@	22502
aly@@	22502
x-@@	22489
Zunahme	22482
pit@@	22481
Damit	22474
geschichte	22474
wählen	22467
abgesetzt	22464
Hinweis	22449
nis	22448
www	22442
internationale	22431
SO@@	22426
genommen	22421
Ul@@	22413
Download	22407
Politik	22406
Warn@@	22395
Energie	22392
Unterkunft	22391
und@@	22369
hält	22367
aktiviert	22366
Lebens@@	22358
chte	22358
eto@@	22352
d.h.	22328
PER@@	22324
Forschung	22318
chter@@	22287
Prot@@	22283
Verhältnis	22280
est	22270
Bezeichnungen	22268
er-	22245
unbe@@	22245
FO@@	22243
Anzeige	22237
ary	22220
erter	22215
Clo@@	22204
58@@	22200
ore	22187
örper@@	22184
maximal	22183
chol@@	22170
EG@@	22155
tiger	22123
angegeben	22122
Salz@@	22100
bra@@	22085
elten	22084
Parameter	22073
in-	22069
number	22038
ver	22033
Daten@@	22013
wohl	22011
Insel	22004
Beim	21990
male	21979
opo@@	21966
kali@@	21965
END	21965
ss	21961
8.@@	21959
Pen@@	21947
gende	21944
mali@@	21938
ausgestattet	21927
wichtigen	21921
wer	21916
menschlichen	21911
Al	21901
go	21897
sucht	21890
teri@@	21889
izi@@	21888
gewi@@	21887
Interesse	21886
fe	21874
nahe	21869
Anweisung	21865
dern	21864
sicherzustellen	21863
Mittel@@	21851
sive	21843
setzt	21836
rhyth@@	21830
Mahlzeiten	21829
vorgesehen	21818
istenz	21794
Tu@@	21793
Trans@@	21784
τ@@	21777
Doch	21775
aca@@	21775
chten	21772
klare	21772
ß	21770
SEN@@	21763
geeignete	21748
TO@@	21747
Dienstag	21745
10-@@	21711
zeit@@	21697
Freund	21680
between	21677
verringern	21674
-Syndrom	21667
Anfrage	21664
tieren	21636
doppel@@	21632
oph@@	21622
az@@	21616
drü@@	21586
Frühstück	21579
cin@@	21577
Liebe	21576
tungs@@	21571
Mutter	21565
Suche	21554
Gegen@@	21548
enti@@	21546
anz	21541
cli@@	21538
Ist	21528
fortgesetzt	21528
vari@@	21527
lung	21526
iert	21524
Sun	21519
Angebot	21515
Republik	21497
Position	21494
ment	21492
Gl@@	21486
Mangel	21482
Fon@@	21473
Vorschlag	21473
lä@@	21466
Luft@@	21463
Männern	21449
6.@@	21448
Az@@	21445
Ltd.	21429
Schwierigkeiten	21429
erin	21419
pati@@	21410
günstige	21406
j	21397
Montag	21394
48@@	21386
last	21384
Har@@	21379
europäische	21363
paar	21362
Sep	21357
Bron@@	21353
Vertreter	21346
enter@@	21344
leichte	21333
b-@@	21329
Ansprech@@	21318
Quelle	21314
wenige	21310
richtig	21302
Schla@@	21263
treffen	21261
besonderen	21255
enheit	21244
seines	21243
PS@@	21224
darunter	21216
bezeichnet	21213
Klein@@	21210
O-@@	21208
olo@@	21205
Hor@@	21190
wp-content	21184
at-@@	21178
auszu@@	21176
Insgesamt	21171
fest@@	21165
verantwortlich	21160
folgen	21156
0.0@@	21142
anhand	21133
geboren	21104
information	21094
Erfolg	21087
freie	21084
Garten	21078
forum	21075
yp	21069
age	21069
York	21061
vall	21053
MB	21053
tim@@	21042
50-@@	21038
Sor@@	21020
BI@@	21015
Ari@@	21000
aufnahme	21000
Kontroll@@	20998
geführt	20997
wen@@	20997
wöchentlich	20994
Bedarf	20988
elles	20986
zusätzlichen	20983
vielleicht	20982
deln	20980
Verlauf	20979
ner@@	20975
EC@@	20963
47@@	20962
n-@@	20962
Erde	20960
MIT	20944
erfahren	20928
Prüfung	20925
Männer	20914
33@@	20908
Wer	20906
Einstellung	20906
7.	20902
ev@@	20901
schaffen	20887
fr	20884
oiden	20878
lei@@	20870
osi@@	20869
03@@	20857
ok@@	20855
9-@@	20854
Substanz	20844
Titan@@	20844
auftritt	20843
Entzün@@	20842
behand@@	20841
versuchen	20841
ausge@@	20837
Titel	20833
PE	20832
Kultur	20829
sprachen	20827
cu@@	20827
8.	20820
mikro@@	20813
aktuellen	20810
mien	20803
o.	20803
tox@@	20791
kten	20773
kä@@	20769
E-mail	20767
bel@@	20763
werten	20762
gens	20756
ro-@@	20752
größe	20750
ton	20742
Jeder	20739
Farbe	20729
sozialen	20726
Lin@@	20720
Beendigung	20710
0,6	20708
Mar	20705
Gummi@@	20701
FA@@	20697
ausschließlich	20697
sse	20695
10.@@	20691
alin	20687
Aufenthalt	20685
Folgende	20680
ah@@	20680
gleiche	20680
ern@@	20671
rische	20664
schließen	20659
fli@@	20656
GEB@@	20641
phar@@	20635
Anweisungen	20619
Projekte	20609
16.	20603
CI	20602
digung	20598
o.@@	20589
erenden	20583
gen-@@	20583
beob@@	20581
medizinische	20578
ata	20576
Spiel@@	20573
Praxis	20568
europa.eu	20562
PC@@	20554
übliche	20542
57@@	20542
überwachen	20530
Themen	20527
sieht	20524
ihres	20515
7-@@	20507
chronischen	20501
Mä@@	20500
Kapsel	20500
starke	20497
Ani@@	20480
Gri@@	20473
neur@@	20471
des@@	20467
mer	20460
kro@@	20447
vorsichtig	20440
verbessern	20438
5.3	20430
ODER	20426
ssen	20419
Tem@@	20417
Rhin@@	20414
mittleren	20385
üle	20382
368	20372
Restaurants	20370
Kopien	20370
4,@@	20361
ersch@@	20358
Mitte	20353
dex@@	20350
Cis@@	20344
Video	20342
dritten	20341
gesehen	20328
essen	20323
niedrigen	20317
ordnet	20316
90@@	20299
mark@@	20296
Eth@@	20286
alem	20285
78@@	20283
Location	20279
asis	20277
30-@@	20269
zun@@	20267
12.@@	20266
agli@@	20258
UR	20255
Benz@@	20250
schutz@@	20245
EU@@	20230
richtige	20214
Israel	20211
H-@@	20206
Kaninchen	20202
Vo@@	20198
Tor@@	20192
betrifft	20192
Pneu@@	20186
05@@	20182
fil	20178
Anpassung	20178
son	20171
las@@	20145
usen	20139
0,4	20136
oxi@@	20131
12,@@	20131
22.	20130
pur@@	20125
Alkohol	20123
ICH	20121
links	20111
größen	20111
Linie	20098
ella	20094
sion@@	20092
untersuchungen	20092
ana	20071
besitzt	20065
Leute	20064
Geld	20038
Doppel@@	20037
updated	20032
Durchführung	20031
Material	19997
Präpar@@	19996
eben	19995
einzu@@	19979
Machine	19976
17.	19962
Co.	19962
Road	19961
Ziele	19958
begrenzt	19953
selek@@	19949
Kom@@	19940
Auto	19927
Gal@@	19920
Länge	19916
maps	19912
cre@@	19898
heißt	19893
BER@@	19891
Ther@@	19888
bedroh@@	19887
Neben	19879
sch	19874
encyclopedia	19869
Urlaub	19865
109	19864
04@@	19861
Bereiche	19859
Links	19855
ZU@@	19845
personal	19845
gem	19840
Slo@@	19833
pol@@	19820
Film	19814
hätte	19810
Dateien	19806
zwei@@	19803
FLA@@	19800
p-@@	19799
wir@@	19790
Farb@@	19788
450	19780
vers@@	19770
24.	19767
Pil@@	19766
Niederlande	19765
have	19764
Sit@@	19762
Auto@@	19760
fachen	19759
bau@@	19752
deutschen	19749
Tar@@	19747
Schw@@	19747
lar@@	19727
Mitglied	19723
unerwünschte	19723
neues	19695
SEN	19693
Fotos	19690
actually	19685
kationen	19681
normalen	19681
ungsin@@	19678
hen@@	19670
Por@@	19665
Ga@@	19640
speziell	19639
à	19635
berücksichtigt	19631
gesp@@	19629
beginnt	19624
Ki@@	19623
Gebrauch@@	19621
Cal@@	19617
probleme	19614
guten	19606
Schwere	19601
↑	19589
Stand	19587
tionen	19581
English	19573
PA	19570
diert	19569
Museum	19566
ill@@	19560
spricht	19546
bestätigt	19531
Fe@@	19526
ME	19525
tet	19523
kontrolle	19513
kran@@	19487
Mil@@	19479
25.	19460
heraus	19458
Wei@@	19458
mäßig	19449
Jan	19444
wirksamer	19436
Berichte	19434
Verkehr	19427
vorgelegt	19423
BR@@	19423
ax@@	19418
van	19413
Wieder@@	19407
7.@@	19399
HER@@	19399
Ab	19399
Arbeiten	19392
Teile	19389
fro@@	19388
Verordnung	19381
anderem	19380
Post@@	19377
Straße	19368
Herz	19363
tax@@	19362
System@@	19357
roten	19354
REI@@	19354
lat	19353
Abbildung	19347
bekannten	19347
ulo@@	19333
gn@@	19333
berg	19329
Luft	19321
virus	19319
lagern	19318
pul@@	19315
59@@	19298
obwohl	19288
geringe	19288
radio@@	19286
Tach@@	19275
12-@@	19264
200@@	19260
deten	19258
18.	19257
calendar	19257
Antragsteller	19251
beeinträchtigt	19249
Gebäude	19243
Katalog	19237
ino@@	19232
bri@@	19227
erhöhter	19222
ä	19217
Plus	19212
66@@	19207
sat	19196
lat@@	19188
Substra@@	19184
rechts	19182
zeu@@	19180
Son@@	19179
.000	19174
vel	19173
cin	19168
bedienen	19168
Apr	19162
ι@@	19148
ad	19146
Bla@@	19143
unternehmen	19137
get	19136
Punkt	19132
kal@@	19122
CT	19114
Tran@@	19098
Kinder@@	19087
Lesen	19079
depres@@	19072
haus	19065
OS	19060
ses	19055
Link	19047
gefolgt	19046
Hi@@	19040
gar	19037
reaktion	19034
Einführung	19034
October	19033
ago	19030
ahme	19028
Wayback	19024
Jesus	19024
crawled	19015
Meter	19007
Antibiotika	19007
spezifische	19005
EX	19003
Tal@@	19001
,5	19000
fol@@	18995
zin	18995
Anträge	18993
genießen	18993
index.php	18988
Besucher	18987
Meinung	18982
gemeinsame	18978
ux	18970
ungs-	18964
cle@@	18958
Rechte	18957
Mix	18937
ehe@@	18937
Gefühl	18931
Ster@@	18930
nicht@@	18928
Verfügbarkeit	18923
●	18907
gewährleisten	18903
,00	18903
hab@@	18902
stellte	18898
gef@@	18894
aufbewahren	18892
π@@	18885
wiesen	18881
Nes@@	18851
Sohn	18837
11.@@	18835
ek@@	18831
entfernen	18827
DES	18805
nämlich	18793
Kategorie	18787
Kraft	18778
Nu@@	18776
Time	18775
un	18770
Hälfte	18763
Aufgaben	18762
München	18761
if	18755
views	18751
Mal@@	18750
haltungs@@	18750
Förderung	18747
Cro@@	18742
Bar	18739
meinen	18728
Wort	18726
Elektro@@	18724
verfügen	18720
amin@@	18716
großer	18714
Griechenland	18713
Frankfurt	18709
Aufgabe	18707
Gefahr	18703
PH@@	18700
klicken	18697
Badezimmer	18696
ression	18695
elt	18693
9.@@	18674
aktivität	18670
Luxus	18667
reduzieren	18660
gemischt	18651
sobald	18635
	18631
Verkauf	18630
Schwan@@	18629
them	18627
normale	18626
derung	18617
anders	18608
kurzem	18605
Warenkorb	18604
mäßiger	18604
Lor@@	18602
Heli@@	18585
Nahrungsmitteln	18568
mi	18563
21.	18554
Schild@@	18541
spezifischen	18536
esp	18530
drücken	18529
Stärke	18529
Abschluss	18516
Personal	18508
st-@@	18505
bringt	18501
0,00@@	18499
jungen	18496
gebiet	18477
ors	18476
ermöglichen	18475
Jahrhundert	18473
wirken	18471
Schütt@@	18468
tationen	18466
vermieden	18460
UL@@	18460
risiko	18445
Verlust	18445
bio@@	18438
haut	18437
Protein	18434
Bürger	18432
Ε@@	18426
spie@@	18421
0,0	18408
Ren@@	18406
bedingungen	18406
Dem@@	18400
hydra@@	18400
anschließend	18397
Verwenden	18390
Kur@@	18389
but@@	18386
Vel@@	18380
lokalen	18375
Villa	18364
termin@@	18362
dri@@	18359
weise	18359
van@@	18356
Leitlinien	18352
Top@@	18349
reduktion	18339
Voll@@	18331
cep@@	18323
Sekunden	18322
betrachtet	18320
Wichtige	18312
ki@@	18306
ess@@	18305
angenommen	18292
TA@@	18290
behandel@@	18287
ex	18284
DLL	18284
kts	18281
Gesam@@	18272
HC@@	18269
Zahn@@	18268
aner	18268
Barcelona	18264
kosten	18262
zehn	18255
Computer	18254
tisch	18241
aufweisen	18237
14.	18234
96@@	18234
Bro@@	18218
Gutachten	18215
wür@@	18214
pt@@	18200
geringer	18188
gs	18186
sofern	18183
Transplan@@	18182
Umwelt	18182
Lam@@	18179
trop@@	18174
Haar@@	18169
enes	18168
Wird	18162
allgemeinen	18149
ase-@@	18140
Ali@@	18139
aut@@	18134
therap@@	18131
Technik	18130
Kurz@@	18128
schwä@@	18110
still@@	18104
überprüfen	18103
stru@@	18102
Thi@@	18088
schwan@@	18086
Gi@@	18072
Sat	18060
Me@@	18050
St.	18047
Kommentare	18038
zuständigen	18036
kel@@	18034
wei@@	18032
Rücken@@	18020
Nasen@@	18016
Mehrfach@@	18015
tö@@	18014
Spieler	18010
Saved	18009
Methode	18006
geweb@@	17999
technischen	17997
fan@@	17994
verändert	17993
CR@@	17992
Verhalten	17983
endes	17981
ska	17978
Rate	17977
bakteri@@	17968
toren	17966
keits@@	17962
Organisation	17960
medizinischen	17960
Ausschusses	17957
speziellen	17946
bald	17941
erster	17939
Via	17936
Pha@@	17935
Dazu	17935
größten	17925
Bor@@	17921
wiederhol@@	17920
politische	17919
Firma	17916
schafts@@	17916
erzielt	17914
Dinge	17913
N-@@	17911
Flaschen	17909
Tests	17898
CD	17891
ART@@	17882
ole@@	17871
arbeitet	17866
ATE	17860
MEN	17855
images	17853
LU@@	17850
Magnesi@@	17849
Volk	17839
Zer@@	17836
Thu	17836
Gesichts@@	17834
bb@@	17832
AC	17827
WLAN	17817
einzige	17815
Sc@@	17809
zucker	17809
außerhalb	17805
Tau@@	17804
Hal@@	17800
5,@@	17799
manchmal	17792
matische	17768
war@@	17767
col@@	17765
i.@@	17762
Gu@@	17752
Fu@@	17749
Produkten	17749
fallen	17747
All@@	17726
Business	17714
HD@@	17712
M.	17710
wohl@@	17700
EG	17691
König	17688
Dan@@	17684
Protein@@	17680
geborenen	17679
zahlen	17674
11,@@	17674
Smi@@	17665
Eu@@	17657
fig@@	17657
Pal@@	17651
PDF	17642
Prüf@@	17631
tete	17630
Geschäfts@@	17627
fort	17625
Allerdings	17624
Krankheiten	17623
Gefä@@	17620
yl	17617
ktoren	17615
ae	17614
Vereinigten	17613
gemeinsamen	17604
rasch	17601
durchzuführen	17591
än@@	17587
Lä@@	17584
--	17570
verhindert	17564
Druck	17563
tret@@	17556
Zusätzlich	17551
fte	17548
BL@@	17546
Säug@@	17545
kel	17543
Standard	17538
maximalen	17530
Wirks@@	17520
B.@@	17519
nden	17518
ink@@	17508
Bewegung	17500
faktoren	17494
cet@@	17494
European	17491
dient	17490
Lop@@	17489
CE	17487
DI@@	17484
hervorrufen	17480
ters	17472
Tätigkeit	17472
begrenzte	17472
geändert	17470
glauben	17457
Anwendungen	17456
Welt@@	17453
beobachten	17443
ta	17443
On@@	17441
veröffentlicht	17436
usw.	17433
erfolgreich	17433
infolge	17424
0,2	17422
anzeigen	17421
pe	17419
Adresse	17416
Bru@@	17404
logi@@	17404
IV	17400
Einrichtungen	17390
Multi@@	17389
Vater	17388
ssi@@	17371
wieder@@	17361
Blutgefä@@	17360
etc.	17354
weiterer	17354
Raumtemperatur	17339
tiert	17336
stat@@	17334
fach	17332
Hamburg	17331
Ja	17322
use	17313
bruch	17308
geringen	17305
Bis	17302
Gesicht	17302
ler@@	17299
Oberfläche	17292
Balkon	17286
starken	17274
.net	17261
fand	17255
ry	17254
Getränken	17253
Himmel	17252
com@@	17250
sä@@	17242
Allgemeine	17235
Var@@	17234
rit	17222
benötigt	17216
ente	17214
gri@@	17213
л@@	17211
zeitigen	17206
hängt	17205
zei@@	17199
vorher	17195
une	17191
verbessert	17180
Leiden	17180
1995	17174
drucks	17167
älter	17157
DNA	17154
Len@@	17152
Va@@	17145
ord@@	17142
s.@@	17138
RT@@	17136
niedrig	17133
tor@@	17132
besch@@	17115
spa@@	17114
PI@@	17110
Ausmaß	17108
ax	17108
zz@@	17107
app@@	17105
ier@@	17105
Halten	17104
Etikett	17100
kostenlos	17094
Folgen	17085
up	17085
beste	17082
Ferienwohnung	17081
ines	17069
Funktionen	17069
Reb@@	17065
gewesen	17065
unseres	17060
Benutzer	17059
Klinische	17052
teten	17048
ε@@	17046
Essen	17030
betroffenen	17029
Licht@@	17028
kristall@@	17024
halb@@	17022
geworden	17022
TRA@@	17020
hinter	17020
leichten	17015
de-@@	17008
trägt	17002
plä@@	16995
Krebs	16994
ris	16989
ungsp@@	16987
Dusche	16986
28.	16979
meinem	16975
Bre@@	16971
Verantwortung	16958
Fri	16955
RIS@@	16954
Hause	16953
omat@@	16951
genden	16934
nt	16931
Fehler	16930
Buch	16923
beteiligt	16918
fähigkeit	16917
biert	16913
rad	16909
Vitamin	16906
ats	16905
anzu@@	16905
stischen	16905
Col@@	16902
erklärt	16897
ces	16897
ße	16891
öffnen	16888
tron	16888
Eisen@@	16873
land@@	16870
Stat@@	16866
Luxemburg	16863
kle@@	16859
letzte	16851
enza	16846
Eis@@	16845
zuletzt	16841
Art@@	16829
hinweise	16816
zahlreiche	16810
gelten	16799
gst@@	16787
Lei@@	16783
oberfläche	16780
ren	16777
Gall@@	16776
verstehen	16771
gs@@	16765
etit@@	16763
July	16761
gekommen	16759
Geist	16756
ergab	16754
entwicklung	16753
einiger	16750
Strategie	16749
Status	16748
ma-@@	16746
Betrieb	16743
ö	16738
Stück	16735
210	16734
größte	16730
Verwaltung	16730
entin	16727
stets	16724
Proph@@	16721
aufgeführten	16713
Bevölkerung	16704
gegenseitigen	16702
welcher	16698
Mel@@	16697
bedingte	16696
sz@@	16688
Handhabung	16681
All	16678
opf	16676
ris@@	16674
Abstand	16672
kto@@	16671
Gen	16667
Leit@@	16667
Europas	16660
ÇáÓÇÚÉ	16659
ÇáÂä	16659
einnahmen	16657
Vergangenheit	16648
CH	16640
130	16640
d.@@	16631
0,8	16619
benutzen	16618
schla@@	16615
MR@@	16614
bild	16612
cs	16611
Parlaments	16610
ln	16594
unbedingt	16592
29.	16567
lingen	16562
Ausstellung	16532
Ges@@	16521
qui@@	16520
Temperatur	16515
fet@@	16514
ktes	16513
132	16512
medikam@@	16511
Verfahrens	16505
cke	16502
dom@@	16501
45@@	16500
angeboten	16497
TT@@	16492
Krankheits@@	16490
2017	16489
trocken@@	16483
spezielle	16479
holen	16477
Milch	16474
mission	16474
mmen	16470
Health	16469
GMT	16462
WC	16457
0000	16455
February	16455
zeiten	16449
Vari@@	16448
itte	16445
belegt	16439
richtigen	16433
Haushalts@@	16430
Vorbereitung	16425
überprüft	16424
Wohnungen	16424
Tatsache	16411
problemen	16408
mb@@	16408
nis@@	16405
Char@@	16401
Entfernung	16392
VA	16385
schutz	16358
Regionen	16354
vorgenommen	16350
leu@@	16337
rö@@	16334
Hü@@	16325
Faktoren	16323
BAS@@	16323
hand@@	16316
p.	16315
Kri@@	16310
Wed	16308
täglichen	16306
Klicken	16303
oo@@	16300
kaufen	16298
Fl@@	16293
Hände	16291
IV@@	16288
Jedoch	16286
bedarf	16286
sieben	16286
Zusatz@@	16285
sorgt	16283
offenen	16275
kum	16275
Initi@@	16273
Maße	16259
republi@@	16253
Besuch	16252
gering	16250
Markt@@	16247
June	16244
behandeln	16241
TH@@	16237
drei@@	16233
hohem	16231
ili@@	16221
ENT@@	16218
ther@@	16212
Geschwindigkeit	16211
vent@@	16209
tori@@	16201
det	16199
LAN@@	16198
Wachstums@@	16197
nahmen	16194
City	16183
entwickelten	16182
ismus	16182
ment@@	16180
Heute	16170
siven	16170
abgebrochen	16167
nat@@	16166
zzgl	16165
Bakterien	16148
schneller	16147
my	16144
schließlich	16137
Mengen	16123
allgemeine	16112
win@@	16112
stell@@	16110
heits@@	16107
Viele	16107
Natur@@	16106
34@@	16099
trotz	16098
Ärzte	16087
arten	16086
les	16084
alte	16081
Eur@@	16077
fel@@	16076
products	16056
achten	16056
bar@@	16053
hören	16053
Bestimmungen	16047
Hafen	16043
Cap@@	16042
ungst@@	16037
Gründen	16035
Ei@@	16033
Sand@@	16031
fähigen	16026
erende	16025
IT	16020
Viren	16017
Forum	16012
Fehl@@	16008
SA	16006
inger	16005
geh@@	16003
eit@@	15995
MA	15994
weist	15991
enem	15988
früher	15986
only	15984
Plas@@	15984
gischen	15973
CT@@	15971
ertes	15971
menge	15969
Angst	15966
Jun	15958
we@@	15956
Internationale	15946
Schwäche	15940
positiven	15932
technische	15931
topic	15929
hü@@	15924
ermittelt	15923
Abend	15923
Vorbeugung	15919
Nov	15918
370	15912
Vil@@	15911
umfasst	15906
ps	15900
geliefert	15888
Erweiterung	15886
CA@@	15880
ellose	15878
mer@@	15877
tem@@	15875
30.	15870
Entfernen	15866
Ireland	15860
produziert	15855
genug	15853
Hemm@@	15842
Ku@@	15839
Sommer	15839
erstellt	15836
Beziehungen	15836
Jul	15831
plan	15830
Mus@@	15821
Kl@@	15821
Vertei@@	15819
comp@@	15816
verpflichtet	15812
Nex@@	15806
drüse	15803
West@@	15801
gewöhnlich	15794
ama@@	15789
pH-@@	15782
Methoden	15773
phie	15772
hilft	15766
füllen	15764
Holz@@	15764
Dadurch	15764
Mietwagen	15762
atri@@	15760
beendet	15755
140	15752
Ang@@	15746
geöffnet	15745
ckt	15742
rid	15742
chts	15740
fum@@	15738
völlig	15736
he	15731
μ	15731
Schlu@@	15729
zurückzuführen	15728
we	15720
deine	15718
Immunsystem	15717
linie	15711
January	15711
hotel	15708
Py@@	15702
witz@@	15695
tr@@	15676
Umwelt@@	15673
March	15671
fortgeschritt@@	15661
größer	15660
Infe@@	15660
Sonnen@@	15650
umgehend	15648
CHF	15640
Englisch	15633
wasser@@	15632
Gemeinde	15623
Nase	15617
gerten	15614
eher	15608
44@@	15597
höh@@	15582
lt	15572
News	15571
Sehen	15564
kator	15549
zudem	15544
unde	15542
Arm	15532
Jo@@	15525
Jan@@	15521
ppen	15519
Kriterien	15518
Institut	15501
C.	15497
betreffen	15496
lernen	15495
formen	15493
ni	15491
ante	15487
over	15485
benutzt	15485
Leistung	15482
abgeschlossen	15480
möglichkeiten	15478
cken@@	15473
Box	15472
entsprechen	15468
Schweden	15468
Programme	15468
λ	15456
See	15455
keiner	15447
gehalten	15446
quival@@	15445
historischen	15445
mor@@	15440
sep@@	15436
ansprechen	15436
Stre@@	15423
Ran@@	15415
lokale	15408
Prüfungen	15400
beenden	15399
anten	15391
durchführen	15384
tal	15378
Gewebe	15360
männlichen	15356
Bild@@	15355
trifft	15353
href	15350
basiert	15350
gelegt	15346
laufen	15345
DO@@	15344
üblicherweise	15341
Zwei	15320
Ob@@	15319
geschützt	15319
Wachstum@@	15312
Ereignis	15301
möglichst	15291
lediglich	15286
Modell	15285
ue	15282
sch-@@	15280
Tue	15280
tat	15274
Berg@@	15274
mpfe	15265
Sitzungen	15250
very	15248
zung	15245
Seine	15242
teilweise	15234
Bestimmung	15231
Volumen	15227
Inspe@@	15225
Russland	15223
Ig@@	15208
20-@@	15206
täten	15203
371	15198
beeinträchtigen	15196
schaft	15192
1,2	15192
Nadel@@	15190
Prozess	15184
Kap@@	15182
hast	15181
Buchung	15181
Τ@@	15178
kom@@	15178
gegebenenfalls	15178
Neue	15167
kat@@	15161
positiv	15159
December	15158
int	15155
kturen	15150
Energie@@	15147
Kunst@@	15145
aufgetreten	15140
ora	15140
Wenden	15121
agen	15120
Wirtschafts@@	15118
größeren	15114
Formen	15107
ative	15106
reichten	15105
position	15104
mar	15098
le-@@	15094
ML	15092
ieren	15092
Land@@	15091
enver@@	15089
¶	15086
therapeutische	15081
sicheren	15081
δ@@	15080
gender	15074
aufbewahrt	15073
son-@@	15071
Server	15068
Steuer@@	15067
Rechts@@	15060
Bri@@	15057
cks	15056
veränderungen	15055
versagen	15039
Sin@@	15037
Krebs@@	15030
Verteilung	15028
Anti-@@	15028
spar@@	15025
denz@@	15025
Modul	15018
leb@@	15012
Überprüfung	15012
Dys@@	15011
wirtschaftlichen	15006
23.	15000
ical	14997
sam@@	14995
fort@@	14993
acht	14987
Groß@@	14977
Shar@@	14975
Sonne	14975
Kollegen	14975
Teilen	14973
hel@@	14961
kraft	14960
SN@@	14959
zugehörige	14956
Übertragung	14955
Systeme	14953
ech@@	14952
ctor@@	14947
Der@@	14947
Qualitäts@@	14943
langen	14942
wodurch	14940
glu@@	14937
Wi@@	14933
version	14932
Cre@@	14928
kose	14920
verlän@@	14910
HP@@	14909
Plan	14904
dictionary	14901
ausgesetzt	14899
13,@@	14898
diagno@@	14879
tionsp@@	14867
glich	14862
ry@@	14860
Los@@	14852
ran	14848
Handel	14848
Nun	14845
Kultur@@	14843
vermehr@@	14842
Ant@@	14841
stellung	14836
Implan@@	14835
Landes	14835
Next	14830
80@@	14829
alleine	14827
human	14824
mie	14823
sekund@@	14808
spo@@	14808
ann@@	14806
tica@@	14805
opor@@	14802
Partikel	14801
Macht	14799
ßen	14796
Reise	14793
ν@@	14792
solange	14787
Irland	14784
programm	14779
14,@@	14778
steigen	14777
automatisch	14777
Diagnose	14767
esti	14766
Empfindlichkeit	14765
beitragen	14763
tig	14761
persönlichen	14760
spielt	14759
HO@@	14757
tio	14754
Tad@@	14753
bericht	14752
produkte	14736
Reg@@	14733
Mensch	14732
Wohnzimmer	14728
Ausbildung	14728
untersuchen	14723
meist	14708
ass@@	14698
rau@@	14696
Jetzt	14696
stimu@@	14693
Fahr@@	14688
unwahrscheinlich	14687
act	14686
Polen	14681
ets	14676
kennen	14670
more	14668
tierten	14665
era	14655
präpar@@	14654
chts@@	14652
Google	14651
Center	14648
gebiete	14642
Photo@@	14638
fällt	14638
material	14628
individuellen	14627
zählen	14624
ME@@	14621
besuchen	14597
mail	14596
verb@@	14592
etten	14591
Madrid	14589
denken	14580
au	14579
Wa@@	14578
ZI@@	14578
lien	14576
hosp@@	14574
groß	14561
Verminderung	14554
band@@	14553
rem	14548
201@@	14542
kur@@	14542
tin@@	14535
Störung	14531
Radio@@	14524
sters	14518
gon@@	14514
Feb	14503
Date	14501
Ox@@	14497
herab@@	14490
Leiter	14490
geprüft	14489
Bal@@	14486
Anschluss	14485
Konferenz	14485
Farben	14483
führung	14476
lich@@	14475
Ohr@@	14473
LE	14470
Auffassung	14468
.0@@	14466
chtes	14456
por@@	14454
NA	14454
Gesch@@	14451
Schritte	14444
regelmäßige	14443
420	14442
positive	14438
ehr@@	14438
uter	14437
wirkungen	14436
Umfang	14431
kla@@	14424
individuell	14415
Nord@@	14399
AA@@	14397
Nachdem	14394
ION@@	14393
Italia	14386
Auff@@	14384
Kommunikation	14377
Beg@@	14374
mo	14371
Prävention	14369
Min@@	14368
gnis@@	14368
erscheint	14367
Epi@@	14365
ähnlichen	14365
name	14354
Komponenten	14352
SCHA@@	14351
nötig	14350
verträ@@	14348
ett	14344
the@@	14341
feststellen	14340
bindung	14339
lez	14334
55@@	14334
Cyc@@	14332
1,3	14330
char@@	14330
fluss	14329
darum	14327
endem	14326
Beutel	14322
Ressourcen	14321
Alb@@	14319
Sur@@	14314
60@@	14311
reagieren	14311
syn@@	14309
Zeiten	14308
psycho@@	14303
Keine	14300
verteilt	14290
â@@	14283
nde	14282
Online	14281
Umstellung	14278
mehr@@	14277
unverändert	14271
SU@@	14266
Sonder@@	14262
Werten	14261
Einrichtung	14260
üblichen	14248
unterschiedliche	14246
DAS	14241
k-@@	14237
Veranstaltungen	14234
Komplikationen	14233
ά@@	14217
tos	14212
Drei@@	14209
PS	14208
nam@@	14208
eins	14207
Ke@@	14200
Gad@@	14196
han@@	14194
Stoffwechsel@@	14192
Kat@@	14192
Öffnen	14192
warum	14191
ents	14187
26.	14176
Berücksichtigung	14175
ogra@@	14172
3,5	14171
Materialien	14163
ano	14161
getestet	14159
Foto	14155
Kingdom	14155
rot@@	14154
Normal@@	14152
wirk@@	14148
ko	14129
zierten	14128
240	14124
Hei@@	14123
genutzt	14123
stern	14123
wenigen	14119
schwerwiegenden	14112
KI	14097
volle	14093
staat	14089
Aufmerksamkeit	14089
weiter@@	14087
zierte	14080
я	14078
platz	14076
Überlebens@@	14076
ump@@	14076
erhält	14075
fördern	14071
schlus@@	14066
Behäl@@	14065
gewebe	14065
vergangenen	14062
relativ	14057
dur@@	14055
ity@@	14052
Gerät	14049
ated	14042
verschrieben	14039
wechsel@@	14029
ø	14026
15,@@	14023
112	14023
tatsächlich	14022
cho@@	14014
Star@@	14012
schein@@	14010
s-	14007
station	14007
ks	14004
Details	13995
gekennzeichnet	13994
achteten	13993
wipe	13988
deuten	13987
diejenigen	13982
ehen	13981
Vorschriften	13979
morgens	13977
cher	13977
sierter	13976
Sinne	13976
Nummer	13967
bau	13955
rä@@	13955
u.	13953
Laufe	13947
Neo@@	13944
Medien	13941
On	13940
Nachweis	13937
EZ@@	13936
modernen	13933
IM	13931
κ@@	13926
Cir@@	13923
örp@@	13923
arin	13922
A.@@	13913
Kapitel	13910
aktuelle	13910
mil@@	13909
faktor	13905
halten@@	13903
plötz@@	13897
gere	13896
Morgen	13893
chter	13891
festgelegt	13889
nungs@@	13889
gend	13888
Hg	13886
Projekt@@	13884
about	13877
Verdau@@	13877
EF@@	13876
Klimaanlage	13876
matischen	13874
up@@	13871
niedrige	13869
Geschlecht	13861
Creme	13849
02@@	13848
bl@@	13846
Geburt	13834
700	13832
vol@@	13830
dargestellt	13830
ó@@	13829
photos	13826
Empfän@@	13826
Bank	13825
Kopf	13820
eingerichtet	13816
dex	13814
mechanismus	13813
te-@@	13801
füllten	13791
dierung	13785
Phar@@	13777
Schmerz@@	13773
σ@@	13773
durchschnittliche	13769
rechten	13767
mpft	13757
führten	13755
Ausdruck	13742
PO@@	13741
Dänemark	13738
schmerz@@	13730
zahlreichen	13723
6.6	13722
ker@@	13721
NO@@	13717
AL-@@	13714
zogene	13713
Versand	13711
Skel@@	13705
funktioniert	13699
Künstler	13697
Hallo	13697
pran@@	13694
Vielzahl	13693
Le	13692
Boden	13691
Geb@@	13691
geschrieben	13690
arm	13689
Parkplatz	13679
Wege	13674
Kampf	13673
digen	13669
ks@@	13664
angesprochen	13658
Antibio@@	13655
kamen	13655
27.	13654
Camp@@	13653
Fett@@	13649
p.@@	13648
Ziehen	13647
μ@@	13647
ged	13647
gebunden	13635
Reinig@@	13633
ttchen	13632
Stabilität	13631
Kunden@@	13631
regelmäßigen	13627
Erklärung	13625
log@@	13624
Imp@@	13623
has	13619
alter	13617
ystems	13616
entstehen	13613
phil@@	13610
Johannis@@	13609
Saturday	13608
wä@@	13602
World	13596
Kalzi@@	13593
Norm@@	13593
krankungen	13591
е@@	13584
Informations@@	13584
Abständen	13581
setz@@	13579
ble	13577
Teilnehmer	13577
Wein@@	13575
auth@@	13573
blu@@	13570
Mini@@	13569
vollen	13567
Rem@@	13560
uner@@	13559
INE	13552
Initiative	13550
Cu@@	13544
laden	13541
klasse	13532
Einleitung	13520
haltigen	13516
Online-@@	13513
stei@@	13513
gerät	13512
ges@@	13509
ani	13508
bildet	13506
ECH@@	13504
Gelegenheit	13504
wertes	13500
rü@@	13500
Knochen	13498
werk	13497
Inseln	13494
eindeutig	13488
privaten	13476
legte	13475
Ava@@	13470
ero@@	13469
öffentliche	13465
gener	13456
§	13456
werfen	13449
Ast@@	13447
häufige	13447
bewahren	13445
hä@@	13442
gebrau@@	13435
warten	13434
krankheit	13426
Tags	13422
Waren	13417
Messe	13417
hemm@@	13415
aktiver	13413
ity	13404
Mehr@@	13401
berücksichtigen	13398
erfüllt	13396
ktur@@	13396
chemische	13395
Fraktion	13395
straße	13388
v.	13386
wichtiger	13385
tisches	13377
Familien@@	13377
mas	13376
CEL@@	13375
43@@	13369
Erwägung	13365
Ereignissen	13364
Hormon@@	13364
management	13363
Leistungen	13348
cb	13344
Nachrichten	13341
LY@@	13341
int@@	13339
185	13339
ausreichende	13333
prüfen	13329
Bedenken	13329
Profil	13328
halt@@	13323
Sollten	13323
Funktions@@	13322
hervor@@	13312
val@@	13302
nt.html	13300
Anleitung	13298
zyklus	13297
begann	13294
stärker	13292
FER@@	13290
voll@@	13289
oms	13287
Basierend	13282
Ergebnissen	13279
mis@@	13277
bestimmter	13276
unver@@	13274
4.6	13274
che@@	13273
bstitu@@	13273
bul@@	13270
bindet	13269
Blä@@	13266
sph@@	13251
ure	13239
Bin@@	13238
Schul@@	13237
gischer	13235
CS@@	13231
private	13231
provided	13224
freuen	13220
schreib@@	13216
arbeit	13214
Schlei@@	13210
Kreb@@	13208
nachfolgenden	13207
Wählen	13205
erfordert	13205
limi@@	13195
oli@@	13186
kleiner	13183
esi@@	13178
Sport	13174
ergeben	13171
Wechselwirkung	13169
berechnet	13161
DNA-@@	13155
Unternehmer	13155
verstärkt	13146
ungser@@	13143
Dokumente	13143
bessere	13142
ino	13141
Vertrag	13126
fläche	13125
erhielt	13119
see	13117
Bft	13111
kraut	13109
372	13107
Lebens	13101
Click	13101
einzelne	13098
100@@	13095
Sitzung	13091
Binde@@	13089
Chin@@	13087
zuerst	13082
vorliegenden	13079
Start	13073
Blo@@	13068
entran@@	13067
Vom	13066
Integration	13064
Installation	13063
FS@@	13059
hu@@	13056
Min	13055
z-@@	13046
lauf@@	13046
DEM	13039
nisses	13036
radi@@	13033
mangel	13032
til	13032
erheblich	13030
tiges	13026
primäre	13024
ergaben	13022
nahezu	13021
BM@@	13019
zentrali@@	13019
Stamm	13016
Sollte	13014
ug@@	13013
Serie	13010
eventuell	13009
delivery	13008
äu@@	13007
Flä@@	13006
Antrag	13003
air	13001
solcher	13000
verstärken	12999
lös@@	12995
DEL@@	12992
Zit@@	12987
tätig	12986
tec	12984
Hel@@	12981
bol@@	12981
vorübergehend	12980
Hintergrund	12978
Original@@	12977
therapeu@@	12967
a.	12963
Anspruch	12963
hell@@	12962
stärke	12958
CER@@	12955
img	12954
MEN@@	12945
900	12942
früheren	12934
Öffentlichkeit	12932
barer	12929
Comp@@	12928
Group	12927
Oct	12921
Abhängigkeit	12918
getan	12914
Beeinträchtigung	12913
IP@@	12913
Bol@@	12912
Maria	12910
TS@@	12909
Medikamente	12909
State	12908
ek	12902
erfüllen	12895
Go	12888
gelangen	12884
53@@	12884
entlang	12884
Last	12883
kaum	12882
vis@@	12882
images.php	12882
Behandlungen	12876
wollte	12875
zumindest	12875
Jedes	12875
bestehende	12874
uss@@	12872
Gelb@@	12870
Q	12869
dischen	12864
dennoch	12863
weiblichen	12862
steigt	12850
Nad@@	12850
Hitz@@	12842
schönen	12841
bestand	12837
31.	12836
bedingten	12835
durchschnittlich	12835
bestimmen	12826
Tausende	12825
Sache	12820
plan@@	12811
gewählt	12805
Go@@	12799
feld	12796
Türkei	12796
out	12795
Zudem	12787
De	12778
verbundene	12776
Posa@@	12768
früh@@	12765
tra	12756
MT@@	12754
Star	12752
years	12751
rin	12751
101	12745
Gar@@	12744
our	12738
Set	12738
e-	12736
Stadt@@	12732
fer	12732
individuelle	12720
ux@@	12711
Werk	12711
inklusive	12700
ausgeprä@@	12700
geschlossen	12698
11-@@	12696
Finland	12691
schenk@@	12690
leitung	12688
IT-@@	12688
Rom	12683
Flex@@	12680
zentrum	12679
Bus@@	12678
360	12671
FAL@@	12668
antwor@@	12666
Krise	12664
Affen	12661
lation	12660
gar@@	12658
Vorschläge	12658
nen@@	12654
soziale	12651
zugänglich	12650
kontrollieren	12649
nisse	12649
GM@@	12648
ie-@@	12646
Fahrzeug	12645
Web@@	12642
tensi@@	12641
drehen	12640
Α@@	12640
f-@@	12639
Gly@@	12639
iere	12635
16,@@	12632
atur@@	12631
127	12631
Wunsch	12630
schaften	12628
ator	12624
Clar@@	12621
blieb	12616
ser	12611
PD@@	12610
thro@@	12608
veränder@@	12604
´	12602
spiel	12597
Rue	12597
But@@	12591
genauso	12591
jemand	12590
Spitze	12586
Zunge	12586
technik	12585
Fest@@	12584
str@@	12581
shor@@	12578
Sicht	12578
sent@@	12576
Verwaltungs@@	12566
h-@@	12564
Verschluss	12561
natürlichen	12559
ac	12555
wesentlich	12554
otro@@	12550
link	12546
Familien	12545
schöne	12545
gelöst	12544
Mag@@	12544
vermindert	12540
Erst@@	12538
Reise@@	12531
Diät	12526
sol@@	12525
Haus@@	12525
Tour	12524
Meine	12523
zentralen	12518
ates	12518
ί@@	12516
verbundenen	12516
128	12514
Wil@@	12511
liefern	12511
tungen	12511
Mehrheit	12507
getroffen	12506
ore@@	12505
Investitionen	12503
sil@@	12502
informiert	12501
ves	12497
geeigneten	12487
Dorf	12486
Früh@@	12483
domin@@	12482
gression	12478
Entwicklungs@@	12475
planen	12470
moderne	12468
Apartments	12467
Lösungs@@	12461
SY@@	12455
-0,@@	12454
Bundes@@	12454
4,5	12452
erniedri@@	12452
Trig@@	12448
Erre@@	12448
Br@@	12439
Privat@@	12437
Grun@@	12437
Stop@@	12435
Reisen	12428
able	12423
Verwir@@	12418
Japan	12416
Arbeitsgruppen	12416
pu@@	12412
Ungarn	12407
Anne@@	12403
г@@	12399
102	12399
OR	12395
Band	12395
stich@@	12394
Lassen	12393
Einschränkung	12393
infiziert	12392
Stu@@	12387
199@@	12382
Format	12379
Rin@@	12377
Tit@@	12376
rat@@	12372
Bef@@	12366
vali@@	12365
aktivi@@	12365
1-0@@	12358
Freude	12356
Anlage	12355
verändern	12354
Brüssel	12353
zentrale	12345
Je	12341
fi	12340
inva@@	12337
mac@@	12337
Manager	12332
jo@@	12331
Gesundheits@@	12331
Applikation	12331
Uni@@	12324
kannst	12322
Sprachen	12317
openx	12313
erzielen	12312
banner.gitverlag.com	12306
a5a750bd	12306
Danach	12303
Amin@@	12301
1,1	12297
Breite	12294
tiv	12291
Innen@@	12291
anlagen	12290
Hex@@	12288
Line	12286
sichere	12283
bal@@	12280
Dec	12276
Doh@@	12271
Polypro@@	12265
one@@	12264
Street	12262
Vorteil	12261
poe@@	12260
angemessene	12259
0,7	12255
184	12255
frequenz	12254
fun@@	12246
mittel-@@	12245
tic	12243
Wissen	12243
и@@	12241
organ@@	12236
Zurück	12236
fach@@	12234
seh@@	12233
voller	12232
Rom@@	12229
normaler	12227
Zusammen@@	12213
David	12212
Abkommen	12209
Gro@@	12199
MB@@	12198
national	12196
Tet@@	12193
2,0	12192
Tropfen	12192
Zahlen	12182
Lo-Fi	12182
dige	12179
komplett	12175
Anbieter	12170
ide	12169
vorwiegend	12166
ien@@	12166
skrip@@	12166
358	12163
Ara@@	12162
Produktions@@	12155
House	12154
Wegen	12149
ja@@	12141
kommenden	12136
Schein@@	12136
Ausnahme	12135
Luxembourg	12131
Hall@@	12128
MAR@@	12126
gewährleistet	12123
fung@@	12122
bildungen	12118
gebildet	12116
geschwindigkeit	12112
verschiedener	12111
750	12108
zes	12102
übertragen	12100
Sobald	12100
tten	12097
lob@@	12089
pin@@	12089
überhaupt	12087
bestehend	12086
assoziiert	12085
wissenschaftliche	12081
Michael	12079
kostenlose	12078
sieren	12075
abends	12070
MS@@	12070
genaue	12067
versucht	12066
Prostat@@	12066
1,4	12065
Schule	12064
H.	12062
1x@@	12062
Studio	12058
stre@@	12055
Enzyme	12055
uri@@	12055
primären	12054
Inhalte	12053
vorüber@@	12051
Wein	12051
abgesch@@	12048
produktion	12045
Atmosphäre	12043
IG@@	12043
jederzeit	12043
104	12038
ύ@@	12038
Wechsel@@	12037
ba	12036
krä@@	12034
Dialog	12033
Hund	12027
sat@@	12026
Miss@@	12026
gerecht	12023
Magen	12021
Pul@@	12019
gliche	12017
ings	12017
tions	12016
Anlagen	12015
gew@@	12015
rote	12013
Episoden	12008
form@@	12002
Chi@@	12002
Alters@@	12001
wiederholt	11998
ea	11995
Б@@	11988
54@@	11986
gest@@	11983
amm@@	11982
PRO	11981
Av@@	11981
.c@@	11970
We	11969
ergibt	11967
ssystem	11963
17,@@	11962
gang	11962
höchste	11962
OC@@	11954
tze	11954
dynamische	11952
Aspekte	11951
Nicht@@	11950
Kopf@@	11949
ted	11949
Forschungs@@	11949
111	11945
ack@@	11944
115	11941
►	11940
höchsten	11931
trinken	11930
alt@@	11928
jährigen	11927
AZ@@	11926
Ältere	11926
absolute	11925
kum@@	11925
mung	11923
Tablet@@	11923
QU@@	11922
IST@@	11921
einfache	11916
zusetzen	11916
ör@@	11916
Ze@@	11916
Reduzierung	11915
linge	11907
HERR	11906
Suite	11906
täts@@	11904
Potenzial	11901
Sprach@@	11896
Institutionen	11895
aven@@	11890
Relevanz	11888
bekannter	11888
Handels@@	11884
VA@@	11880
Gehirn	11874
jährlich	11869
leisten	11869
Spon@@	11862
Centre	11861
richten	11860
hätten	11860
von@@	11859
et-@@	11858
höhungen	11858
llen	11857
kn@@	11847
tar@@	11846
Sto@@	11845
Wahrscheinlichkeit	11845
senken	11842
Verwen@@	11839
eigentlich	11837
Schä@@	11834
Hotel@@	11833
cher@@	11833
wogen	11831
now@@	11827
Nicht-@@	11826
Grenzen	11826
Netz@@	11824
äl@@	11822
beinhaltet	11814
Bestellung	11809
Werke	11805
hafte	11793
örtlichen	11792
yr	11789
basierend	11784
Richtlinien	11777
ülen	11772
18,@@	11771
Technologien	11769
darstellen	11769
last@@	11765
cer@@	11764
kombiniert	11761
HR@@	11760
buchen	11757
Fortschritte	11756
natürliche	11756
map	11751
Diskussion	11750
sonst	11749
teil@@	11748
vorgelegten	11748
optimale	11746
Struktur	11745
unteren	11742
Innerhalb	11741
extra@@	11737
Services	11734
e.@@	11733
bewertet	11732
aren	11732
danken	11732
Regeln	11730
derselben	11727
Sep@@	11726
Lar@@	11726
verlassen	11725
Lunge	11724
Gedanken	11724
ya	11720
kompen@@	11718
Re	11717
zug	11714
fill	11714
gehenden	11711
Annahme	11710
Händen	11709
Κ@@	11702
Auswirkung	11700
wann	11700
gerin@@	11700
Kenntnis	11699
bargain	11692
Vergleich@@	11689
Peter	11687
Club	11687
105	11683
Schi@@	11683
con	11680
other	11679
Bevor	11675
lau@@	11675
Mat@@	11674
ständig	11673
Darm@@	11672
stadt	11669
dliche	11667
350	11666
beurteilt	11660
Finnland	11646
Gel	11643
Einheit	11637
Bau	11636
ral	11635
gro@@	11634
zeichen	11627
verwendeten	11626
Geräte	11625
angesehen	11623
Sol@@	11619
Stimme	11618
2.5	11618
IA	11617
ath@@	11613
sparen	11613
Wettbewerb	11613
ort@@	11613
der-@@	11611
ini	11608
Ausgabe	11607
Stil	11606
Sport@@	11606
zieren	11604
Zwischen@@	11594
vertreten	11594
posi@@	11593
Extra@@	11592
Herausforderungen	11584
machte	11583
glaube	11576
NICHT	11571
Strukturen	11570
Wohn@@	11568
schnelle	11566
Fab@@	11565
Tier	11560
Organisationen	11560
Soli@@	11558
Tur@@	11555
Datenbank	11552
ulf@@	11551
zon@@	11550
Leben@@	11550
kra@@	11541
relevante	11539
unterbrochen	11534
verlängert	11533
SE	11527
Tätigkeiten	11527
bild@@	11520
Flo@@	11517
schmer@@	11516
Ursache	11516
gab@@	11515
Idee	11512
nia	11511
Also	11509
wirtschaftliche	11505
sation	11504
Lang@@	11503
Schmerz	11501
Fuß	11500
schaft@@	11498
Umgang	11494
PA@@	11491
gewinnen	11489
maßen	11485
ë	11479
vorliegt	11477
ungsphase	11472
Geschmacks@@	11470
rück@@	11467
ole	11466
Extremi@@	11463
hl@@	11461
Lager@@	11461
hielt	11456
entschieden	11456
braucht	11455
auftret@@	11454
Malta	11453
punkte	11452
but	11451
versehentlich	11448
Kontakt@@	11443
bor@@	11442
386	11442
gelegen	11442
Antworten	11439
verseh@@	11433
Krieg	11433
gelb	11426
Kern@@	11425
kol@@	11423
jene	11414
GR@@	11413
Brustkrebs	11412
Videos	11408
Drücken	11399
laufenden	11394
................................@@	11393
gingen	11392
Zulassungs@@	11392
ungspflich@@	11390
IX	11389
32@@	11388
mischer	11386
Teilnahme	11384
hält@@	11381
vorübergehende	11380
CON@@	11376
markt	11373
Kommissar	11371
dia	11365
Zon@@	11364
Sprechen	11360
Fenster	11359
gal@@	11358
dein	11357
.07.@@	11347
reduzierte	11346
auss@@	11332
Immobilienanzeigen	11329
dal	11318
Lis@@	11317
Teil@@	11315
ist@@	11313
richtet	11310
Note	11305
Pseu@@	11302
Karten	11300
eter	11297
antes	11297
Programms	11296
Fin@@	11294
sul@@	11294
iler	11293
Auflösung	11288
erstellen	11286
Besser@@	11284
Aufbau	11283
Verhandlungen	11283
umin@@	11282
Landwirtschaft	11279
Transparenz	11279
erwiesen	11272
nü@@	11271
Gründe	11268
erklären	11268
Tuesday	11267
SS	11262
like	11262
entliche	11257
Web	11257
dete	11255
Netzwerk	11249
Fac@@	11246
ließ	11245
verzö@@	11244
Gesetz	11243
dieren	11243
analyse	11242
Rückgang	11241
fett@@	11239
XP	11234
Körpers	11231
Angebote	11230
sal	11228
Apartment	11219
Transport	11213
98@@	11211
Höchst@@	11211
Brust	11210
Aktualisierung	11210
Beiträge	11207
89@@	11206
Wahrheit	11204
Zweck	11203
Empfehlung	11200
od@@	11200
schlei@@	11199
bewusst	11197
Außen@@	11193
haft	11192
Rest	11190
mag@@	11189
vs.	11188
Deutschen	11187
gewonnen	11185
Jahrhunderts	11182
chti@@	11180
ular@@	11179
wesentlichen	11174
Alles	11173
u.a.	11169
Gleich@@	11168
421	11168
tig@@	11167
Cop@@	11157
Minister	11152
Leistungs@@	11151
Nar@@	11148
mäßigen	11145
führenden	11145
Neder@@	11140
-St@@	11139
Dop@@	11138
ut	11137
junge	11133
Geschmack	11133
ck-@@	11133
sah	11128
Formulierung	11128
ften	11119
Betten	11117
non	11115
verloren	11114
these	11114
niedrigere	11113
129	11112
West	11110
normal	11109
bt	11108
lierung	11103
70@@	11101
zen@@	11097
Bahnhof	11096
direkte	11094
verk@@	11092
oton@@	11088
Zwei@@	11087
Sam@@	11081
sy@@	11081
Unternehmens	11080
131	11080
The@@	11078
gegründet	11077
Entscheidungen	11075
Bereichs	11074
Refer@@	11069
Kreuz@@	11064
angemessen	11064
deutsche	11051
bs	11049
Musik@@	11049
tor	11045
è@@	11043
ри@@	11040
BV@@	11039
Ton@@	11035
97@@	11032
alkoh@@	11032
Zyklus	11029
Ker@@	11028
wa	11024
280	11022
AT	11022
cade	11004
EB@@	11002
Lehr@@	11002
ki	11000
Transfer	10996
Schaffung	10996
Frieden	10994
aktualisiert	10987
miteinander	10987
nern	10982
DER@@	10981
Option	10979
ula@@	10978
enter	10975
erforderlichen	10975
keiten	10975
Veranstaltung	10975
subject	10974
Pool	10973
Homepage	10970
web@@	10963
Bestätigung	10958
geschaffen	10953
Ausstattung	10953
19,@@	10951
nationale	10950
kontaktieren	10949
exam@@	10948
Max	10948
Bekämpfung	10946
streifen	10945
Buch@@	10944
unterziehen	10944
3Ftaxonomy	10943
Nationen	10941
stehenden	10941
Sunday	10938
can@@	10938
misch	10936
12.11.2016	10932
liger	10930
trö@@	10925
Mädchen	10925
Som@@	10923
allgemein	10923
dor@@	10920
Jahres@@	10916
Komfort	10912
gem@@	10909
Friday	10906
Gegensatz	10906
kürzlich	10902
initi@@	10900
Konzept	10895
Sozial@@	10886
schu@@	10884
jahre	10883
Freiheit	10881
kurze	10881
cat@@	10880
eig@@	10880
Vergleichs@@	10879
cil	10876
SP	10876
unterstütz@@	10875
files	10872
essel@@	10869
chs	10863
bli@@	10863
sodass	10860
Milli@@	10857
Abbruch	10856
Genehmigungen	10855
innen@@	10854
108	10853
2,4	10851
Großbritannien	10841
Gr@@	10836
BY@@	10835
Deutsche	10830
Wirkungs@@	10826
Stuhl	10826
106	10825
tiver	10822
Immuno@@	10819
bewegen	10818
Muskeln	10817
entsteht	10815
ê@@	10813
ir	10803
wand	10802
zentri@@	10800
Winter	10800
heutigen	10798
Ass@@	10796
bekannte	10794
standen	10793
ration	10792
ungss@@	10790
hinweisen	10790
ys@@	10789
beruht	10786
395	10785
ic	10781
Nein	10776
endo@@	10770
äußerst	10762
Mischung	10762
Niveau	10762
EK@@	10758
garantiert	10758
ENT	10758
Fort@@	10752
351	10751
Eingriff	10750
SC@@	10748
eil@@	10745
Bel@@	10744
Eltern	10743
offen	10742
Chil@@	10740
Christus	10740
stein	10737
denke	10737
Dennoch	10736
Dokumentation	10733
Mitgliedstaat	10732
verkaufen	10730
alls	10729
ine@@	10729
ons@@	10729
ritz@@	10725
beutel	10722
mes	10719
Prof.	10714
Stra@@	10712
US-@@	10712
WE@@	10710
iniert	10709
mulation	10706
ano@@	10705
angewandt	10703
leider	10699
ath	10691
document	10690
Zen@@	10689
Schwin@@	10688
tests	10687
Ersatz@@	10684
bur@@	10682
überwiegend	10673
Tan@@	10671
OL@@	10669
posts	10668
VIS@@	10665
ire	10665
our@@	10665
breite	10659
Sili@@	10658
moni@@	10653
69@@	10649
Nachricht	10646
Flug@@	10639
ussi@@	10637
kontrollierte	10637
Wo	10633
angebracht	10627
ъ@@	10627
GEN	10625
Demokratie	10625
tl	10621
lü@@	10619
unterhalb	10616
r-@@	10614
Adapter	10613
Klin@@	10611
dbar	10610
68@@	10607
Elemente	10605
Deh@@	10604
ideal	10601
Nep@@	10598
fertig	10597
liegenden	10595
Mein	10592
Tages	10590
chtigen	10590
KB	10589
erleben	10588
Aufsicht	10587
aro@@	10586
legt	10581
Wund@@	10581
aut	10579
eur@@	10577
Angelegenheiten	10574
eingeführt	10573
aufweist	10572
unterschiedlich	10572
unbekannt	10570
Abstimmung	10568
Ruhe	10566
wie@@	10563
cal	10562
ff	10557
nieder@@	10557
Grenze	10552
menschliche	10549
Landschaft	10549
schön	10545
krebs	10544
�	10543
gens@@	10543
erfordern	10538
testen	10537
mini@@	10536
einmaligen	10532
les@@	10525
ilen	10525
dank	10524
Verdacht	10523
A2	10521
Punkten	10519
Beteiligung	10517
Gau@@	10513
esk@@	10504
anzi@@	10503
Verbraucher	10498
ron	10496
welchen	10494
reiten	10491
bla@@	10491
notwendigen	10490
niedrig@@	10488
blo@@	10487
frühen	10485
Kr@@	10481
Update	10478
Grenz@@	10478
Osten	10478
HI@@	10473
Städte	10470
pers@@	10469
ara	10469
Pati@@	10467
dagegen	10466
tierte	10464
rol	10457
ling	10456
ligen	10451
verschluss	10449
.php	10449
Thursday	10448
genügend	10448
ess	10448
Dienste	10446
Fet@@	10445
DVD	10443
plötzlich	10442
Worte	10442
funktion@@	10440
darstellt	10438
plat@@	10437
beschriebenen	10436
ha	10433
Beide	10429
guter	10429
col	10428
20,@@	10428
einzel@@	10422
Alt@@	10422
Krankenhaus	10413
tä@@	10411
Lieferung	10410
Heizung	10408
runde	10403
ge-@@	10402
net	10402
AX@@	10400
Ek@@	10399
bist	10398
SB@@	10397
kurzen	10396
Schock	10395
zent@@	10395
Absatz	10392
einzigen	10392
etz@@	10391
ständige	10386
No	10382
fru@@	10380
Letzte	10373
ierung	10372
Hör@@	10369
open@@	10369
Wednesday	10364
ergriffen	10359
8000	10356
EC	10354
alisierung	10353
Wissenschaft	10349
type	10348
Pent@@	10346
Pel@@	10341
www.skepticalscience.com	10341
Stellungnahme	10339
schlu@@	10337
wechseln	10335
Berichterstatter	10335
zel@@	10335
Fortsch@@	10332
pha@@	10330
Standards	10330
3,0	10328
international	10325
thal@@	10322
los@@	10321
gelassen	10321
Aug@@	10321
dis	10311
Martin	10310
ta-@@	10309
×	10305
FR	10302
erungen	10302
Ausgang	10302
Cel@@	10302
Art.	10299
Aufrechterhaltung	10298
-Verhältnis	10297
th	10297
Eigen@@	10297
itäts@@	10294
Allgemein	10294
style	10293
messen	10291
EPÜ	10288
off@@	10287
Nahrungs@@	10287
manchen	10287
soweit	10286
Steigerung	10286
TN@@	10285
oda@@	10285
00-@@	10282
ständen	10281
Bindung	10278
dance	10276
way	10275
distribution	10273
pat@@	10270
folie	10264
Einhaltung	10257
eure	10257
cus	10249
ausreichenden	10245
tät	10243
65@@	10240
Fre@@	10237
burg	10236
keit@@	10235
AX	10235
Tuberkulose	10229
103	10228
verschli@@	10226
weiß@@	10225
Freunde	10224
sche@@	10224
Marketing	10222
text	10220
ertem	10220
geraten	10218
niemals	10209
opla@@	10208
harmoni@@	10205
Auftrag	10204
rom	10200
anlage	10199
m.	10199
Verpackung	10196
offene	10190
Asp@@	10188
eigenes	10186
Monday	10185
lan	10184
Mio	10183
erinnern	10182
src	10176
bach	10176
besitzen	10174
negativen	10173
ypen	10167
Redu@@	10165
grenze	10161
are@@	10161
losen	10157
pie@@	10155
selben	10153
Gewalt	10153
Stamm@@	10153
ug	10152
unterzogen	10152
hingewiesen	10149
gebaut	10147
Bewegungen	10145
Wal@@	10145
pan@@	10143
wo@@	10139
genes	10139
States	10138
s.com	10137
Stimm@@	10136
heraus@@	10133
vac@@	10133
betragen	10130
Global	10130
Trau@@	10125
get@@	10123
Sh@@	10123
.ch	10123
Übersicht	10121
Mont@@	10120
Therapien	10115
erlauben	10114
Tourismus	10113
67@@	10113
MO@@	10111
ak	10111
zir@@	10110
Bei@@	10109
Pali@@	10107
präsentiert	10100
Wind	10099
entdecken	10096
temperatur	10094
357	10093
Harmonisierung	10087
genehmigt	10087
rus	10086
vorzugsweise	10081
ältere	10080
tus	10080
illi@@	10079
sar@@	10078
Ban@@	10077
cyc@@	10077
Plan@@	10076
bereitung	10076
angesichts	10074
parti@@	10073
linken	10070
|	10070
IR@@	10069
industrie	10068
gehende	10065
Folge@@	10063
IB@@	10063
Mari@@	10061
Bene@@	10060
bs@@	10056
clo@@	10054
Abfall	10051
stan@@	10051
zün@@	10047
schließt	10046
bungen	10044
bezogen	10042
sur@@	10039
HERRN	10038
erst@@	10038
gaben	10035
liert	10035
reich	10034
Bis@@	10033
gekauft	10030
Personal@@	10027
steu@@	10026
chtet	10024
wasser	10023
Abgabe	10017
ersetzt	10014
1994	10014
Ideen	10013
Tradition	10011
title	10010
Feld@@	10010
zitäts@@	10009
alität	10002
Ob	9999
Media	9997
Mehrzahl	9995
zier@@	9994
Anwender	9987
GL@@	9985
Reservierungen	9983
tat@@	9978
einher@@	9978
tzeit	9978
Situationen	9977
entnommen	9977
Avenue	9975
keinerlei	9969
verwendete	9967
erhöh@@	9967
leiter	9962
Setzen	9958
berichten	9958
erscheinen	9956
Heiligen	9955
tel@@	9955
Linux	9952
tica	9951
artige	9951
DU@@	9950
Kilometer	9949
John	9948
großes	9945
ang	9944
Generation	9937
Mitteilung	9934
elim@@	9933
ders	9931
care	9931
griffen	9930
Video@@	9923
begleitet	9921
hof	9917
button	9913
Veröffentlichung	9911
Beziehung	9911
225	9900
Minute	9893
Schweine	9891
Milliarden	9889
lieren	9888
University	9887
Interessen	9886
Ernährung	9881
por	9880
135	9878
Staat	9877
National	9872
ott	9870
folgender	9868
stieg	9867
2-	9867
BA@@	9867
reisen	9866
akter@@	9864
dlichen	9861
teilnehmen	9860
dru@@	9851
Hirn@@	9850
Literatur	9850
trü@@	9850
liste	9849
rot	9843
eintritt	9841
geln	9841
läuft	9841
Menschenrechte	9840
brin@@	9834
methode	9834
modellen	9824
ferner	9824
orische	9824
beschädigt	9824
Stein@@	9821
schnellen	9821
Pap@@	9820
Not@@	9819
ös@@	9818
TOR@@	9817
Gon@@	9817
Fir@@	9817
Dienst	9815
vorhandenen	9814
imm@@	9811
oper@@	9811
sicherstellen	9811
Main	9809
Stal@@	9807
test	9807
427	9805
verhütung	9801
Erstellung	9801
park	9792
commercial	9790
dr@@	9790
3,3	9789
net@@	9784
kende	9782
keinem	9777
123	9776
Wer@@	9776
Dokument	9774
Parteien	9771
politik	9770
informationen	9770
geplant	9769
ausfall	9763
room	9763
pid	9763
überall	9758
url	9757
España	9754
rue	9750
wiegend	9750
~	9749
bed	9737
GAN@@	9735
fax@@	9733
schi@@	9730
geschehen	9729
erungs@@	9725
CA	9722
Mitteln	9722
zur@@	9721
bitten	9720
stoß@@	9717
13.@@	9714
Betriebs@@	9711
flächen	9708
Tat	9705
vers	9705
erreichten	9698
Hol@@	9696
unzureichend	9692
angewiesen	9688
kontin@@	9680
spiegeln	9671
Weiter@@	9670
gter	9669
ital	9669
Innovation	9664
negative	9663
db@@	9662
Fassung	9657
Ukraine	9655
erb@@	9651
Architektur	9651
Auswertung	9649
Wy@@	9649
Abb	9648
häufigste	9648
ls	9645
Kurs	9641
MER@@	9640
Typen	9640
Komponente	9639
Roche	9637
media	9636
Unterbrechung	9635
Dra@@	9634
Vent@@	9621
Ausschuß	9621
film	9620
abilität	9618
260	9615
hren@@	9614
musste	9609
ugh	9608
beschränkt	9608
Unternehmens@@	9608
Erb@@	9607
erfolgte	9605
setzte	9603
habt	9602
Übereinstimmung	9602
iner@@	9602
tan@@	9597
stest	9596
VIII	9595
fige	9594
entwickelte	9593
Steuern	9592
Staats@@	9588
übernehmen	9587
Sein	9586
Transport@@	9585
Email	9580
berichte	9578
Planung	9576
Hin@@	9570
Moment	9569
Kunststoff@@	9568
Maschine	9565
Bur@@	9563
ursprünglich	9563
acht@@	9562
stands@@	9561
Inno@@	9561
1-	9560
Immobilienportal	9559
derten	9559
fre@@	9559
speich@@	9557
Ansatz	9555
Vig@@	9551
exe	9550
Santa	9548
Problemen	9547
mag	9546
Proben@@	9545
vin@@	9545
vel@@	9544
gelö@@	9540
El	9539
Spaß	9536
PT@@	9536
Anmeldung	9530
rates	9528
its	9527
Nutzer	9527
stehende	9527
1992	9524
2,6	9523
GU@@	9521
Unterkünfte	9521
dap@@	9507
218	9505
.10.@@	9501
Lippen	9500
relevant	9498
atoren	9498
betroffen	9497
Bewertungen	9496
vul@@	9495
lösungen	9494
Kraft@@	9490
146	9486
service	9485
Length	9481
Sehenswürdigkeiten	9480
Hüh@@	9480
tom@@	9479
weiteres	9478
ungsan@@	9477
pes	9476
ftung	9475
Übersetzung	9473
wünsch@@	9472
dos	9472
Eindruck	9471
ches	9468
co-@@	9465
eng	9464
Verbindungen	9462
anter	9460
tag	9458
Ausland	9454
01@@	9453
poly@@	9452
fla@@	9447
Verwaltungsrat	9446
COM@@	9440
Stadtzentrum	9439
ch-@@	9435
chirurgischen	9433
Peri@@	9430
Potential	9428
Autor	9427
Arbeitsprogramm	9426
175	9423
stärken	9418
dringend	9418
wünschen	9418
lebt	9417
zugelassenen	9416
Dro@@	9414
Zimmern	9413
vid	9408
stischer	9408
Analo@@	9402
weißer	9400
dd@@	9399
rad@@	9398
EM	9396
Partei	9394
Pflege@@	9392
sichtbar	9391
blockiert	9387
Kranken@@	9385
profitieren	9384
eter@@	9377
ativen	9376
Industrie@@	9376
bestätigen	9376
weisung	9374
dienste	9374
Os	9372
Ham@@	9370
empfiehlt	9365
ungssystem	9365
142	9361
Köln	9359
geborene	9358
vorherige	9357
Kosten@@	9355
Norwegen	9354
Blutes	9353
erzeugen	9351
umfassende	9351
längere	9350
Feld	9348
gers	9347
Sä@@	9341
ns	9341
.-@@	9339
ologisch	9338
126	9334
л	9334
Inc	9332
NR@@	9331
fass@@	9330
87@@	9330
Opfer	9329
daraus	9327
Wechsel	9327
Ferienwohnungen	9325
schläge	9317
Isol@@	9316
-15	9315
iden	9315
Zusammenfassungen	9314
file	9314
erachtet	9313
ty	9311
offiziellen	9311
Zentral@@	9311
Ferner	9308
Schlüssel@@	9307
CAN	9306
zugrunde	9303
Bewegungs@@	9302
.at	9299
Beta-@@	9299
schwach	9297
ungen@@	9297
Bereitstellung	9296
Oh@@	9288
L.	9288
nte	9288
Twin@@	9286
cia	9283
bauen	9282
bestehender	9281
phin	9281
Depressionen	9280
Marke	9280
vermögen	9278
Costa	9276
erwarteten	9274
seien	9274
SAR@@	9273
850	9270
ding	9270
beziehen	9270
ura	9266
Wetter	9266
Durchmesser	9263
Trocken@@	9261
klerose	9256
bewirkt	9255
Arbeit@@	9254
230	9254
omi	9250
Vereinbarung	9250
Sitz	9250
besonderer	9249
wechsel	9249
75@@	9249
stabil	9249
ym@@	9248
Din@@	9246
107	9242
.09.@@	9241
wor@@	9233
aufrecht	9229
Sauna	9229
Ada@@	9228
Gei@@	9227
hoffe	9226
stanz	9225
appli@@	9223
24-@@	9222
Holz	9222
überschreiten	9222
Gesamt	9220
ART	9220
Internationalen	9219
kinder@@	9216
ade@@	9216
1.0@@	9213
Ski@@	9207
els@@	9206
lauf	9202
Indien	9196
Abfall@@	9195
Sitz@@	9190
Pure@@	9187
operativen	9187
physi@@	9186
Preisen	9183
mäßige	9181
wirkte	9181
markt@@	9181
ai	9178
1,6	9178
ang@@	9172
zufrieden	9172
Beschäftigung	9170
Page	9170
festzustellen	9169
↔	9168
zo	9163
konventionellen	9159
maschinen	9158
Reinigung	9155
Bedürfnisse	9154
Finanzierung	9153
Überleben	9152
Doppelzimmer	9150
RT	9145
damals	9143
id-@@	9137
schrittweise	9136
eingeschlossen	9134
häu@@	9133
Bedienungsanleitung	9125
empfehlungen	9125
Í@@	9120
Vielfalt	9118
Mir@@	9117
Mechanismus	9116
trockene	9111
15-@@	9111
375	9108
Norden	9101
saf@@	9099
Erreichen	9098
2,3	9098
­	9095
pation	9092
ZO@@	9090
tremulous.net	9090
etra@@	9090
stes	9088
bern	9086
people	9083
Qui@@	9080
Oder	9080
dritte	9079
dauert	9079
zentral	9079
‚	9078
direkten	9077
äden	9074
ms@@	9073
Han@@	9072
ke@@	9072
Natürlich	9072
string	9071
Entsorgung	9067
Omni@@	9066
fertigen	9064
wachsen	9060
tum@@	9060
lie@@	9058
Treffen	9058
wären	9058
sterben	9058
speichern	9055
gewünscht	9055
untersuchung	9052
amed	9050
mes@@	9049
Sac@@	9045
Gemeinschafts@@	9045
.12.@@	9044
sprache	9044
120@@	9043
Ebenso	9041
günstigen	9039
beoba@@	9039
Vertrauen	9038
Quote	9034
Cit@@	9034
Health@@	9033
bares	9032
medizini@@	9031
kombinierten	9030
sage	9029
bedingt	9027
Messung	9026
verwaltung	9025
wiederum	9022
Studi@@	9018
DT@@	9016
Spe@@	9016
IP	9013
data	9008
Austria	9005
gesunde	9005
komplette	9004
Standort	8998
Zürich	8998
zyklen	8996
teilung	8991
niedrigeren	8988
leistung	8988
dienst	8988
domi@@	8987
box@@	8985
Rechnung	8984
Herren	8982
144	8982
mor	8982
cy	8981
heim@@	8981
eingereicht	8973
zustand	8971
Seele	8970
fie@@	8970
tlicher	8969
erstmals	8968
Schu@@	8967
359	8966
ories	8963
stat	8958
stün@@	8955
Metho@@	8955
1,8	8953
iro	8953
umfassen	8952
wichtigste	8949
dem@@	8949
erwies	8947
vac	8945
Eingang	8943
Leitung	8938
Dass	8938
Kindes	8933
SCHAFT@@	8929
Browser	8929
Schäden	8926
Ref	8925
laufende	8925
300@@	8924
erforderliche	8924
chronische	8923
Jung@@	8919
Küste	8919
kulatur	8918
Ev@@	8918
64@@	8915
systeme	8914
deze	8910
fur@@	8910
Thomas	8909
fal@@	8909
sität	8908
Optionen	8906
wirkungs@@	8903
tz-otocac.hr	8901
iccaldate	8901
sigFreeId3fcf764576	8901
NE	8901
Dort	8900
Glie@@	8900
Wind@@	8899
ÄN@@	8899
omer@@	8898
günstig	8895
Ausgaben	8895
verursachte	8893
geräte	8893
AF	8889
arbeitete	8889
rechte	8888
betreffenden	8887
Bemühungen	8883
Pro	8881
Bezeichnung	8877
ments	8875
eingesch@@	8875
Sardinien	8874
adi@@	8873
haften	8869
d-	8867
Bus	8866
GER	8865
verhalten	8864
Appli@@	8864
Zwischen	8863
DE@@	8861
beraten	8860
alternative	8856
ri	8854
Bot@@	8854
starker	8853
einig@@	8852
begrenzten	8851
schen@@	8849
fikation	8848
ärz@@	8847
Gefahren	8847
Ess@@	8846
Enter@@	8843
schei@@	8836
gin	8834
chtern	8832
GP@@	8831
wäss@@	8831
zeitige	8829
Tol@@	8827
schwierig	8823
Kanada	8822
Budapest	8821
Experten	8820
Initiativen	8816
spiele	8815
passiert	8815
temp@@	8803
zierter	8801
ear@@	8799
liefert	8797
Sammlung	8792
OS@@	8792
woche	8789
tur@@	8783
pher@@	8780
ologischer	8779
Austausch	8776
Del@@	8775
produzieren	8774
falls@@	8773
I.	8771
verstärkte	8768
Tisch	8766
Zyklen	8766
meines	8765
Rechtsvorschriften	8761
belegen	8760
Afrika	8758
Beispiele	8755
glichen	8753
resist@@	8753
Versuchen	8753
24,@@	8751
herunterladen	8748
l.	8748
untersuchten	8744
bil@@	8744
CHE	8742
einschrän@@	8741
uli@@	8741
liegende	8739
Entwicklungen	8739
dert	8736
Island	8733
ade	8732
erklärte	8731
We@@	8728
Trä@@	8727
Bearbeitung	8725
ppen@@	8724
qualität	8724
GE	8722
woll@@	8720
Wahl@@	8720
Ja@@	8715
dig	8714
Chlor@@	8713
161	8701
Makro@@	8701
Tonnen	8700
eignet	8697
perfekt	8691
Todes@@	8689
1993	8688
geschieht	8687
Sper@@	8685
ay	8682
†	8681
nachweis@@	8676
Regierungen	8675
ativer	8674
reichenden	8668
Emul@@	8667
verlieren	8667
zieht	8666
produ@@	8666
brachte	8663
Here	8652
gungs@@	8652
eni@@	8650
en.	8649
Pers	8647
deri@@	8646
exkl	8646
anwendung	8645
unden	8641
stammen	8641
Aussicht	8639
s.r.@@	8638
mü@@	8638
J.	8632
erwar@@	8631
Spar@@	8631
Aussehen	8631
methoden	8630
vereinbart	8630
ten-@@	8630
stests	8629
körperliche	8628
Nut@@	8628
Top	8627
BS@@	8626
ausdrücklich	8626
Wertes	8625
vorgeschlagenen	8624
dio@@	8623
Poli@@	8622
ül@@	8622
elli@@	8620
globalen	8619
Haltbarkeit	8617
lations@@	8615
Erholung	8614
Kann	8613
inner@@	8611
unge@@	8611
wur@@	8608
Ori@@	8603
Aufbewahrung	8602
134	8602
Norm	8601
rant	8600
Hilfs@@	8598
blog	8598
gehalt	8592
Chance	8591
schreibung	8590
Winter@@	8589
wall@@	8589
ford	8589
Doppelbett	8580
Paul	8580
Sowohl	8579
Kroatien	8579
Partner@@	8574
organisiert	8573
zufolge	8573
months	8573
Gegend	8572
Haben	8572
ktive	8568
sorgfältige	8568
Hir@@	8567
zählt	8564
Ursachen	8563
Super@@	8562
omie	8561
ein-@@	8560
ori	8559
Stadium	8558
Überblick	8557
fanden	8555
151	8554
fi-@@	8553
Programm@@	8550
versehen	8548
Begleit@@	8546
84@@	8545
bereichs	8544
Index	8542
haltige	8542
dlicher	8541
spüren	8540
road	8540
Rever@@	8540
durchgeführten	8537
Station	8535
itu@@	8533
TAB@@	8532
unterscheiden	8532
Oberflächen@@	8531
Medikament	8530
.06.@@	8530
Bil@@	8528
bron@@	8525
gla@@	8524
ona	8522
französischen	8517
schicken	8514
fÃ	8514
Geben	8511
Radi@@	8506
überschritten	8505
beschäftigt	8505
strategie	8504
Fä@@	8502
Safe	8500
Sinn	8495
Spitzen@@	8494
Dreh@@	8494
Markierung	8493
Zubehör	8492
täglicher	8489
any	8485
computer	8485
Ami@@	8484
weißes	8484
Dem	8484
Firmen@@	8483
kurz@@	8479
1990	8477
proben	8477
plo@@	8476
Alternative	8473
hritis	8471
Let@@	8468
A-	8468
bereiche	8465
Plattform	8465
ley	8464
hose	8462
var	8459
i-@@	8459
Infrastruktur	8456
klingen	8456
mana@@	8456
spiel@@	8455
-Gruppe	8455
Liefer@@	8454
Präsidenten	8454
ses@@	8446
met	8446
Süden	8444
Lithi@@	8443
Research	8442
1200	8442
umgesetzt	8442
beider	8440
fahr@@	8440
Schwerpunkt	8439
Volks@@	8437
verschlossen	8437
Benutzen	8434
evo	8429
Angesichts	8428
Eier@@	8426
Erteilung	8425
aufeinander	8425
kom	8424
Einklang	8424
traditionellen	8422
Hauptstadt	8422
bisherigen	8421
Industri@@	8421
3000	8421
Gehen	8421
neun	8421
Rest@@	8420
.11.@@	8419
which	8418
beschlossen	8417
Dor@@	8417
isches	8415
ebo@@	8414
ktur	8413
verpackung	8412
Besch@@	8411
P.@@	8406
stands	8406
Engagement	8404
Gebieten	8402
diger	8399
Operationen	8397
N.@@	8394
tiefe	8393
Ken@@	8392
PP@@	8392
rän@@	8391
Gast	8391
hol@@	8390
enthaltenen	8390
Weich@@	8390
Futter	8389
nes	8383
5,0	8383
alia	8379
neutra@@	8378
Fremd@@	8372
bezahlen	8372
Aussprache	8372
vet	8369
bislang	8367
derter	8365
vert@@	8363
Bett	8361
malen	8360
cept	8360
licherweise	8357
Formular	8357
veni@@	8355
negativ	8355
Zir@@	8353
85@@	8352
Produktes	8352
Lager	8352
Kategorien	8351
ez@@	8349
.02.@@	8349
zungen	8349
Pass@@	8347
tut	8345
Start@@	8344
vas@@	8344
chtung	8340
Proteine	8338
auslösen	8337
abhängige	8333
senkt	8333
zil	8332
tia	8330
ursprünglichen	8328
German	8325
eth	8325
lokal	8324
ungspro@@	8323
114	8323
Ultra@@	8321
Gold	8320
--------------------------------@@	8320
spitze	8317
derzeitigen	8317
wert@@	8314
hen	8312
persönliche	8312
nissen	8312
Modelle	8310
tiere	8310
gesenkt	8309
116	8309
verstär@@	8308
Dublin	8306
gutes	8305
Absor@@	8302
fizi@@	8300
UC@@	8299
inneren	8297
nete	8296
Bank@@	8295
Tr@@	8295
hängen	8293
blutung	8290
zuverlässige	8290
CHEN	8289
sammeln	8287
cio	8286
mme	8286
Durchschnitt	8285
viewtopic.php	8284
show	8281
bte	8281
spe@@	8279
Kaffee	8277
einheit	8274
gelagert	8274
Geh@@	8274
gegangen	8272
Kno@@	8271
86@@	8269
ton@@	8268
hinzugefügt	8267
dynamischen	8266
Fähigkeiten	8265
Schlussfolgerungen	8264
europäischer	8263
Schweizer	8262
270	8255
übrigen	8254
Führung	8250
löffel	8248
GS@@	8244
231	8244
sicherheit	8244
Präsidentin	8244
ersatz@@	8242
öl@@	8242
feste	8240
welt	8240
ologi@@	8240
näher	8237
pylen	8237
MK@@	8235
Nieder@@	8235
wal@@	8233
gewünschte	8231
entstanden	8230
Medien@@	8230
Tami@@	8229
adäqu@@	8229
ideale	8228
enor@@	8226
eten	8225
ingen	8223
Gemäß	8223
län@@	8223
Armen	8220
Est@@	8220
.05.@@	8220
Tak@@	8219
lischen	8218
aku@@	8217
ø@@	8217
wider@@	8212
Verkehrs@@	8211
und-@@	8210
Cri@@	8208
118	8208
phase	8204
selbst@@	8204
.01.@@	8203
nummer	8201
Cli@@	8198
Ere@@	8198
fahrt	8197
Abteilung	8195
Koordinierung	8193
target	8192
travel	8192
Debatte	8191
scht	8190
Bün@@	8188
157	8183
Endo@@	8181
gemeldet	8178
heit@@	8178
breiten	8177
dauern	8176
fortgeschrittenen	8176
read	8175
Des	8175
Aden@@	8175
Sachver@@	8174
hervor	8174
OM@@	8171
Sterne	8171
Gab@@	8171
vermutlich	8169
Pä@@	8167
Vitam@@	8165
genannte	8162
Ax@@	8160
ence	8157
gation	8157
starten	8157
152	8156
anta@@	8156
mitteilen	8155
Berg	8154
Internet@@	8149
w-@@	8146
ger-@@	8144
nä@@	8143
forme	8143
Ve@@	8143
ersetzen	8138
monatlich	8137
yar@@	8135
Festival	8134
endlich	8134
Janu@@	8132
para	8130
nationaler	8130
esien	8129
pot@@	8128
353	8127
Gesi@@	8127
Bücher	8126
best	8124
achtete	8124
Gästen	8123
CM@@	8123
zugleich	8122
Insbesondere	8122
ure-@@	8121
EWG	8120
Glauben	8120
Jugend@@	8113
OH@@	8112
bezieht	8111
var@@	8109
figkeit	8109
31@@	8107
installiert	8106
Karton	8104
Spielen	8103
erzeugt	8098
akzeptiert	8096
schütteln	8094
Mitglieds@@	8091
funktionen	8091
fordern	8090
Strahl@@	8089
eiten	8089
gon	8084
IF@@	8084
ban@@	8075
Fuß@@	8075
™	8075
haut@@	8072
räume	8072
Λ@@	8069
Ablauf	8067
andra	8067
ologen	8066
status	8064
persönlich	8062
Gewährleistung	8061
tödlich	8059
Säu@@	8059
Chemo@@	8059
jüngeren	8056
Sa	8053
potenzielle	8053
Inf@@	8052
183	8051
chin@@	8051
gegenwärtig	8051
Sar@@	8049
Sk@@	8047
Stoffe	8045
Zo@@	8043
т@@	8043
ktors	8043
eröffnet	8042
funktionieren	8041
sierende	8040
bestellen	8037
hotels	8036
stück	8035
Kombinationen	8034
464	8030
index	8029
Begriff	8029
331	8028
Milch@@	8026
stag@@	8025
Einzelheiten	8025
Pflanzen	8025
ACE	8024
Spezies	8024
gna	8022
beding@@	8021
.08.@@	8020
TY@@	8017
Los	8015
STELL@@	8010
installieren	8010
Unruhe	8005
Sonstige	8003
Prozesse	8003
product	8001
Referat	8001
pression	8000
rup	7999
Saison	7999
just	7998
gerung	7995
Verschiedene	7995
Aktiv@@	7994
absolut	7993
let	7993
Hist@@	7991
Objekt	7991
SM@@	7990
Effizienz	7990
fab@@	7986
aufgeteilt	7984
pag@@	7982
Anschließend	7981
cla@@	7977
és	7975
halt	7974
ds@@	7972
Gegenstand	7970
farbe	7969
schönsten	7967
veg@@	7967
More	7966
sämtliche	7965
Einen	7965
dau@@	7964
WIS@@	7964
getrennt	7963
Spezi@@	7963
schwerwie@@	7961
Werkzeuge	7960
geschätzt	7960
to-@@	7958
Aff@@	7956
21@@	7956
RF@@	7954
ographie	7953
bahn	7952
Lebensmittel@@	7952
PL@@	7952
set@@	7950
Nacht@@	7950
füllte	7948
GA	7946
5000	7945
geringeren	7945
Darstellung	7944
Kein	7944
dan	7944
Galerie	7940
lische	7940
Sind	7940
kern	7939
list@@	7937
Netz	7937
220	7936
Trotz	7935
aufnehmen	7935
ZU	7935
Hals@@	7932
Are	7932
Sektor	7932
Etikettierung	7931
Zugriff	7930
Definition	7930
Log	7929
122	7927
schrift	7926
strasse	7925
Gute	7921
rechtlichen	7920
Analysen	7920
320	7919
niemand	7918
isti@@	7914
dichte	7907
Mitarbeitern	7905
amt	7905
utes	7900
119	7899
tzen	7898
anpassen	7898
jahr	7895
iertem	7894
aktions@@	7892
under@@	7891
irgendwelche	7890
Verbesserungen	7890
hierzu	7890
angebor@@	7889
Instrumente	7888
2,8	7888
zimmer	7888
ate@@	7888
beg@@	7886
Ordnung	7886
biologischen	7884
Partnerschaft	7884
VE	7882
erwähnt	7881
Öl	7880
Km	7880
Cin@@	7878
anti-@@	7878
wan@@	7877
DV@@	7876
1,7	7876
person@@	7876
lis	7876
Frühstücksbuffet	7875
Zucker	7873
4,8	7873
Werkzeug	7872
gerichtet	7870
Regelung	7868
identifiziert	7866
stein@@	7865
Jahr@@	7864
400@@	7863
spart	7862
Embry@@	7860
Botschaft	7860
vermuten	7856
ll	7853
10H	7851
lad@@	7850
Damen	7850
Juden	7850
core	7849
etta	7848
Texas	7848
Nit@@	7847
Paket	7845
digungen	7845
ost@@	7843
Il@@	7842
neten	7842
gelangt	7841
Herausforderung	7840
ter-@@	7838
bilder	7838
gungen	7838
63@@	7837
Amsterdam	7835
Gericht	7834
5-0@@	7832
FE	7831
Puerto	7831
Präparate	7830
fuer	7828
Euro@@	7825
regionalen	7823
standes	7822
aufgefordert	7821
Radio	7821
š@@	7821
Kunde	7820
teils	7819
beinhalten	7819
schätzen	7819
extrem	7818
preis	7818
EGA	7817
tent@@	7814
aufgelistet	7813
168	7812
Ohne	7812
verbesserte	7810
Fleisch	7809
Provinz	7808
historische	7805
einfachen	7804
linien	7804
Entstehung	7804
Konzentrations@@	7803
Sig@@	7803
Fortsetzung	7802
namens	7800
werk@@	7800
orte	7799
verteilung	7797
ritt	7795
Gleichzeitig	7793
Rund@@	7791
Hals	7791
anbieten	7790
ruhigen	7789
sogenannten	7789
rezep@@	7788
SL@@	7787
sach@@	7785
sea	7784
onen@@	7783
rein	7782
LD@@	7781
Fern@@	7781
Süd@@	7777
löst	7777
206	7776
Generi@@	7775
alb@@	7772
Versuchs@@	7769
esen	7768
England	7767
Texte	7766
basieren	7763
good	7758
fehlt	7754
cum	7749
arm@@	7749
betrachten	7748
kri@@	7746
änderung	7746
experimentelle	7744
Rad@@	7743
Den@@	7739
Solo@@	7738
ise	7738
Notfall@@	7737
Appetit	7736
Firmen	7736
einsetzen	7736
amerikanischen	7736
produkt	7735
ats@@	7734
dieselbe	7734
Städten	7732
gut@@	7731
Projekten	7731
Liter	7729
erweitert	7728
Stuttgart	7725
abhängigen	7725
news	7724
akti@@	7722
verlangs@@	7721
teile	7720
sau@@	7720
Verständnis	7720
Zimmer@@	7719
170	7719
beurteilen	7717
Vit@@	7716
Voraussetzungen	7715
ela@@	7713
ination	7712
is-@@	7709
werden@@	7708
chemischen	7706
kation@@	7702
siertes	7701
überzeugt	7701
Besonders	7699
Zustimmung	7695
image	7695
Benutzung	7691
2,7	7690
ansteigen	7689
stä@@	7686
Lauf@@	7686
ungsprozess	7681
Professor	7678
Johannes	7677
ärztliche	7675
arzt	7675
Papier	7675
Gestaltung	7671
Fü@@	7670
ention	7669
ide@@	7667
Büro	7667
Maß	7667
begrüßt	7666
gestalten	7664
jährige	7664
Fru@@	7661
Infos	7660
anischen	7660
Füßen	7659
gesprochen	7659
vorher@@	7658
Shi@@	7656
Je@@	7656
geringere	7654
schütz@@	7650
ations	7650
toleranz	7648
lö@@	7646
welchem	7646
haltung	7644
AIDS	7643
Verarbeitung	7642
Microsoft	7642
neuesten	7640
gui@@	7640
schätz@@	7639
Golf	7638
Kontrollen	7636
Plastik@@	7636
Belastung	7636
hilfe	7634
stattfinden	7631
druckt	7631
elektronische	7630
AUS@@	7629
chinesischen	7628
Registrierung	7628
interessiert	7628
Preis@@	7628
stoßen	7623
been	7621
Berge	7620
Meta@@	7619
Vereinigte	7618
Spuren	7616
vierten	7616
Horn@@	7616
karte	7616
nu@@	7610
OL	7607
Einstellungen	7606
Zom@@	7605
schlagen	7604
wohnen	7604
nutzt	7604
stimmen	7602
zt	7601
Album	7599
Basi@@	7599
201	7594
SD	7594
Stickstoff@@	7593
uren	7593
Fri@@	7592
EIB	7590
Parken	7589
Abendessen	7588
praktisch	7587
ello@@	7586
³	7585
zog	7584
vergleich@@	7584
Tim@@	7583
laut	7583
South	7582
hö@@	7581
Sach@@	7580
begleit@@	7577
ergreifen	7576
öl	7575
handeln	7575
Objekte	7574
herum	7574
tol@@	7573
ENCE	7572
.04.@@	7571
s.	7571
verbringen	7571
ordnung	7569
Dyna@@	7565
vada	7565
aufgelöst	7563
ctor	7562
Ankunft	7560
nachhaltige	7559
blasen	7558
don@@	7557
mess@@	7557
Abb@@	7556
MON@@	7556
ada	7556
Noch	7555
sichern	7555
Campingplatz	7554
TM@@	7552
rennen	7550
mengen	7546
vo-@@	7544
seite	7544
Stock	7542
Tele@@	7541
skepticalscience.com	7539
Schritten	7538
stände	7538
eta	7538
ce-@@	7538
italienischen	7536
Fr	7536
fäl@@	7535
Hauses	7534
Live	7533
unk@@	7531
Lagerung	7528
bedeut@@	7525
Verpflichtungen	7524
GEL@@	7524
ena	7523
alter@@	7523
Diesen	7522
1.jpg	7522
stie@@	7519
gol@@	7518
bes	7518
ziemlich	7518
Ausführung	7517
Archiv	7516
Führen	7516
trotzdem	7511
nennen	7510
Pferde	7506
Altstadt	7504
sammlung	7503
HD	7501
mussten	7498
GO@@	7498
Orte	7497
Ägypten	7497
langfristige	7496
verbinden	7496
bek@@	7495
MM	7495
band	7492
schlecht	7491
seid	7490
box	7486
1991	7483
Weiße	7483
sierenden	7481
Lau@@	7481
region	7481
hielten	7479
umgeben	7479
verfolgen	7479
kleines	7478
Bestand@@	7477
Charakter	7476
ring	7475
gü@@	7474
User	7472
besprechen	7468
uten	7468
Gewe@@	7467
ens-@@	7460
willkommen	7460
weshalb	7458
klein	7457
υ@@	7452
Überprüfen	7452
essions@@	7451
GER@@	7451
www.rau-consultants.de	7451
Krank@@	7451
Med@@	7450
deinen	7450
Banken	7450
körper	7449
Photos	7449
zeitraum	7447
Ärzten	7443
wirst	7443
Spa	7442
21,@@	7440
2,1	7439
IL@@	7439
Drei	7438
Atmung	7436
gefallen	7435
25-@@	7435
Schloss	7434
Förder@@	7433
ally	7432
Boden@@	7431
Maximal@@	7431
blank	7429
wachstum	7429
zuständig	7426
Dauer@@	7426
behörden	7426
beeinträ@@	7424
umgewandelt	7424
vermindern	7423
373	7423
mitglie@@	7421
reservieren	7420
79@@	7419
wahren	7418
Mark@@	7418
Presse	7417
flä@@	7416
love	7414
höchst@@	7414
å@@	7414
Tür	7414
teln	7408
ösung	7405
fische	7405
sterne	7404
erhoben	7403
getragen	7402
stab@@	7402
schreibt	7399
halte	7396
am-@@	7395
Abbau	7394
blaue	7394
Verletzung	7394
Halle	7393
ausgewählt	7393
well	7391
folge	7387
internationaler	7386
zte	7385
ix	7384
143	7383
Effe@@	7381
influ@@	7380
Sau@@	7378
Part	7378
ror@@	7376
Shop	7375
lock@@	7375
wagen	7373
festen	7373
dürfte	7369
β	7368
IL	7368
frage	7368
Schieds@@	7364
174	7363
Garda@@	7363
W-@@	7360
205	7358
Verstärkung	7357
gespeichert	7356
Hoffnung	7355
Theater	7354
NE@@	7354
hungen	7350
DS@@	7349
max@@	7345
state	7345
Hinsicht	7345
Deri@@	7342
möglicher	7340
terien	7339
Geld@@	7338
25,@@	7334
bequem	7334
Grand	7333
CIA	7330
a-	7329
nt@@	7329
kulturellen	7329
Entwurf	7328
satz	7326
berühmten	7326
Vec@@	7325
sei@@	7325
identisch	7324
	7323
zerk@@	7322
tags	7322
Selbst	7321
derartige	7318
ps@@	7316
Pet@@	7314
kli@@	7313
Kapazität	7311
Flecken	7310
Unternehm@@	7307
ola	7303
kontrolli@@	7303
Innen	7302
lu	7299
aufmerksam	7298
42@@	7295
KA	7295
elektronischen	7293
nten	7293
rang	7292
Luc@@	7290
Mindest@@	7289
Player	7289
Versuch	7289
ent-@@	7289
Straßen	7288
ESS	7287
Sy@@	7282
erinnert	7282
Belgium	7281
113	7279
sichergestellt	7278
Rechnungs@@	7277
Revolution	7277
Ware	7277
wiederholen	7276
22.@@	7275
Daf@@	7275
chens	7275
Photo	7274
Heilung	7273
Rumänien	7273
bene	7271
fertige	7271
14-@@	7270
spezi@@	7270
redu@@	7268
ties	7265
Gründung	7264
Standard-@@	7262
roter	7262
203	7262
18-@@	7262
о@@	7261
la-@@	7261
216	7258
Kühl@@	7258
Leg@@	7255
Westen	7255
Impressum	7253
there	7251
HEI@@	7251
Brennen	7247
stechnik	7247
veränderte	7246
Stiftung	7246
mem@@	7245
121	7245
2x	7245
DNS	7245
→	7244
Fett	7243
Haustiere	7240
Haushalt	7239
Aero@@	7234
angemessenen	7233
adju@@	7232
io@@	7228
Rau@@	7223
scheinen	7223
190	7222
Verb@@	7221
Entwickl@@	7220
Getränke	7217
jener	7214
iertes	7212
Studium	7211
110@@	7208
mitt@@	7207
ausgeprägt	7206
code	7206
Melo@@	7206
Beobachtung	7205
dende	7203
Fahrt	7203
Jerusalem	7202
Aufzug	7202
Stärken	7201
Events	7200
Medikamenten	7199
Kauf@@	7199
them@@	7198
IR	7197
MY@@	7197
besseren	7195
Diagno@@	7194
2,2	7193
nochmals	7193
Viertel	7193
were	7189
Free	7187
eingereichten	7184
-Syn@@	7184
Instrument	7181
Fla@@	7179
Schatz	7176
Verhaltens@@	7175
Denken	7175
CDATA	7173
wies	7172
Scan	7170
Autos	7170
gesicher@@	7168
doppelte	7164
Bauch	7163
hinweg	7161
hervorgerufen	7160
verfahrens	7157
verkehr	7155
ú@@	7153
lieben	7153
Drittel	7153
signifikan@@	7152
absor@@	7151
gard	7149
Wirbel@@	7147
î@@	7145
fordert	7144
pneu@@	7144
assoziierte	7144
ktor@@	7142
Schönheit	7141
werdet	7139
5,5	7139
Zar@@	7138
cover	7137
133	7136
Sun@@	7136
Mes@@	7134
Ble@@	7134
.....	7133
Wild@@	7133
219	7132
wider	7132
Gener@@	7132
bruch@@	7129
reg@@	7128
Strecke	7126
thy@@	7125
verzögert	7123
struktur	7123
Freunden	7121
vorschriften	7120
gründlich	7118
Games	7118
il-@@	7117
1,9	7116
354	7115
här@@	7113
Willkommen	7113
Strom	7110
ush	7105
HU@@	7103
229	7101
Filter	7101
Guta@@	7101
Sen@@	7100
ähnliches	7099
ici@@	7099
Mitgliedern	7099
ater@@	7094
Protokoll	7091
schwarz	7090
blau	7090
yn	7087
füllt	7087
Verhinderung	7087
hohes	7086
Computer@@	7086
Recht@@	7086
wiegt	7086
stand@@	7084
abhängi@@	7081
Lebensmittel	7081
stiegen	7081
aufrechterhalten	7078
Development	7075
Z-@@	7075
Bildern	7075
ungewöhnliche	7073
Beinen	7069
anzupassen	7069
korrekt	7066
Č	7065
krank@@	7062
Dollar	7061
g.@@	7059
Testoster@@	7056
Company	7055
Lap@@	7055
emi@@	7054
förmige	7052
uk	7051
bewertung	7050
einfacher	7048
95@@	7047
AND@@	7047
start	7046
morgen	7044
äne	7044
4000	7042
nd	7040
Nr.@@	7036
Vorsitzender	7036
stadium	7032
siv@@	7031
asy@@	7031
eins@@	7030
Metall@@	7029
Beu@@	7028
search	7027
organe	7025
Do	7025
Raum@@	7024
ti	7023
Symp@@	7023
Str	7021
mär@@	7020
Beur@@	7019
trags	7019
verfolgt	7018
ordnen	7017
Todesfälle	7017
Wann	7016
führende	7015
Blog	7015
Vielleicht	7014
Stand@@	7012
nachfolgend	7012
º@@	7012
Partnern	7011
HR	7010
Spezial@@	7010
3D	7010
schriftlich	7007
21.@@	7007
Lab@@	7006
chern	7005
Kooperation	7004
Glück	7000
Unterlagen	6999
Ritu@@	6998
â	6998
empfangen	6996
erleichtern	6994
.dll	6994
Non-@@	6993
Gol@@	6992
Information@@	6992
innere	6991
tief	6989
Net@@	6989
kenden	6986
arab@@	6986
ausgelöst	6985
Meeres@@	6985
General	6985
Fran@@	6982
ehemaligen	6981
ungsprogramm	6980
Supp@@	6980
klop@@	6979
Wand@@	6978
einzigartige	6975
serviert	6973
enge	6972
beachtet	6971
chtungs@@	6970
utter@@	6970
Zug	6969
Applikations@@	6968
denden	6965
amen	6964
umfassenden	6962
Immunität	6960
Krä@@	6960
part@@	6960
reise	6959
Kauf	6958
Gipfel	6957
matisch	6957
Et@@	6956
Back@@	6956
Monats	6954
NI@@	6953
brüche	6953
Office	6953
mierung	6953
31st	6952
drückt	6952
andau@@	6950
Zahlungs@@	6950
ange	6947
Klima	6947
führ@@	6947
Verzögerung	6946
oma	6945
New@@	6944
basis	6943
pon@@	6943
nukle@@	6942
Baby	6941
weite	6940
dische	6937
Feuer	6936
thema	6934
MI	6934
Sommer@@	6933
reiche	6932
deiner	6932
Günstige	6930
Schließlich	6928
produkten	6928
VERK@@	6928
Hom@@	6927
innovative	6926
leg@@	6925
fähig	6920
1989	6918
Nerven@@	6918
500@@	6917
Training	6916
biologische	6915
Flexibilität	6911
ungs-@@	6911
Dokumenten	6909
Versagen	6906
oro@@	6904
gegenwärtigen	6904
männliche	6901
gültig	6901
Anstrengungen	6898
ysi@@	6898
Worten	6897
erwor@@	6896
Activ@@	6896
196	6896
Amerika	6895
Slowenien	6894
onist	6893
modell	6893
137	6890
ā	6890
ISO	6889
terie	6888
Werbung	6887
Entsor@@	6886
Träume	6884
Tal	6884
Les@@	6883
e.htm	6881
durchschnittlichen	6878
Properties	6878
da-@@	6877
reichte	6876
sts	6875
eg	6874
angebot	6873
Abwä@@	6873
skin@@	6873
stag	6872
unveränder@@	6871
bad	6870
stau@@	6869
LAN	6869
Gui@@	6867
Ost@@	6866
junk@@	6866
Normali@@	6866
fenster	6863
erfahrenen	6862
Ausgangspunkt	6861
Basis@@	6860
DA	6859
freies	6858
Produ@@	6858
gewisse	6855
kuli@@	6855
etab@@	6855
aktivitäten	6854
Rach@@	6853
garantieren	6853
Rand@@	6853
längeren	6852
John@@	6849
UK@@	6849
geschla@@	6849
klassischen	6849
dium	6848
behalten	6846
208	6846
Aktivierung	6846
Studenten	6846
Filme	6843
gesetzten	6842
Edition	6840
IC	6839
mitten	6837
Technische	6837
ZE	6835
lungen	6835
Steuerung	6832
pal@@	6830
eingeschränkt	6830
Folgenden	6829
molek@@	6828
Voraussetzung	6826
anus	6824
schauen	6824
Kilogramm	6822
9,5	6822
reden	6822
äh@@	6821
Organe	6821
free	6816
Gehminuten	6816
set	6815
abgegeben	6814
Gew@@	6814
gat@@	6814
Lie@@	6813
day	6813
Vermeidung	6812
Solar@@	6811
Cat@@	6811
RE	6811
edr@@	6810
physikalische	6809
ähnlicher	6806
zogen	6806
inzwischen	6805
markierten	6805
trau@@	6805
spezifisch	6803
Geschäfte	6802
einander	6802
Dru@@	6801
staatlichen	6800
via@@	6800
e.com	6800
Heil@@	6799
52@@	6797
ky@@	6797
Fur@@	6797
gelieferten	6797
Medizin	6795
vorgesehenen	6793
zwölf	6793
Australien	6792
tal@@	6792
Previous1	6787
Motor@@	6787
Beseitigung	6785
jegliche	6784
R.	6784
Fluss	6783
führer	6781
Stärkung	6781
bewirken	6779
Drehen	6778
Periode	6778
hinzu	6778
1500	6778
wesen	6777
späteren	6776
Fö@@	6775
ärm@@	6775
great	6775
leistungs@@	6774
statische	6773
schie@@	6773
passt	6772
weitgehend	6771
gesellschaft	6771
apartment	6770
ame	6770
früh	6769
Wiederaufnahme	6769
Ausflüge	6769
Og	6769
Ernährungs@@	6768
.48	6768
LIN@@	6767
MM@@	6767
star@@	6765
vate	6765
wesentliche	6764
port@@	6764
instab@@	6762
dy	6761
geltenden	6759
Düsseldorf	6758
2020	6756
Neuro@@	6756
lig	6756
vorzu@@	6755
Direktor	6755
ñ@@	6754
Rock	6754
Kamera	6754
Zyp@@	6754
forschung	6752
üt@@	6751
ständigen	6751
zio	6750
Track	6746
Kommentar	6745
photo@@	6744
Vier@@	6743
einrichtungen	6742
wirtschaft	6741
Fahren	6740
Rückkehr	6740
sensi@@	6738
befolgen	6738
Prinzip	6738
Vielen	6734
Schüler	6733
3,6	6731
Lebensqualität	6730
beru@@	6730
Gelenke	6729
HA@@	6727
Websites	6727
tex@@	6726
Maus	6725
gänge	6724
Quad@@	6723
II.	6723
CC@@	6722
sien	6722
Gas@@	6721
blä@@	6721
back	6720
stimmt	6720
Möglicherweise	6719
Schiff	6719
Disk@@	6718
isation	6716
Europ@@	6715
lax@@	6715
chrom@@	6712
Versandkosten	6711
Konser@@	6709
emo@@	6708
allmählich	6708
rechnen	6707
pool@@	6703
Std.	6702
Aktion	6702
steigern	6702
ox	6695
ot	6691
ÄR@@	6691
motor@@	6689
Kab@@	6688
denjenigen	6687
riebene	6687
ç@@	6685
Strasse	6684
Mc@@	6683
ausgezeichnet	6681
Laser@@	6678
tical	6678
konzentrieren	6674
Geschäft	6673
same	6673
National@@	6671
Robert	6671
ause	6670
finanziellen	6667
Mamm@@	6666
Source	6665
moder@@	6664
212	6663
kontinuierlich	6663
rie	6661
Schwäch@@	6660
perfekte	6659
tere	6658
t.	6653
wünschte	6653
Poker	6652
design	6652
ria	6651
nahm@@	6648
anstatt	6642
4,6	6642
Kammer	6641
merk@@	6641
4,0	6641
tations@@	6640
äußere	6639
auswählen	6639
Fall@@	6638
Schaden	6638
Fel@@	6635
ar-@@	6634
207	6631
23,@@	6631
Institute	6630
JPG	6630
Alz@@	6630
eme	6630
Kalender	6629
ester	6628
Energien	6626
GB	6625
Risikomana@@	6625
Erkenntnisse	6623
bereitgestellt	6620
Brasilien	6620
-System	6619
etzen	6617
erhebliche	6616
SW@@	6614
Wesen	6613
ebene	6612
hierfür	6612
ht	6611
Priester	6611
Spie@@	6609
gangene	6609
vorbei	6606
Herzens	6604
-5	6603
P.	6602
ck.php	6600
Jal@@	6599
öffnet	6599
tter	6597
155	6596
Rede	6595
gewünschten	6594
test@@	6593
UN	6593
derjenigen	6593
li	6593
sicherlich	6591
Support	6589
mäß@@	6587
lia	6587
Französisch	6586
ALL	6586
ater	6585
gl	6585
gestellten	6584
Etage	6583
Tragen	6583
Einigung	6582
fle@@	6581
ved	6580
tifi@@	6580
leidet	6579
verbindet	6578
Ol@@	6577
Programmen	6576
ür	6575
versorgung	6575
UM	6574
verkauft	6574
spart@@	6573
tau@@	6569
eingestuft	6568
fortsetzen	6561
279	6561
Block@@	6560
ea@@	6559
dierten	6558
verabschiedet	6557
ßt	6554
schwin@@	6554
Tochter	6554
stel@@	6552
korrekte	6550
kombinierte	6550
amer	6549
materialien	6549
vorlegen	6548
Schlüssel	6548
Prozess@@	6547
Wel@@	6546
Meldungen	6546
Statistik	6545
Stämme	6545
ier	6545
höhe	6542
Cam@@	6541
externen	6540
Direkt@@	6539
lige	6539
Kontakte	6538
haus@@	6536
Pferden	6536
KR@@	6536
sing	6536
Blockade	6535
stor@@	6534
Fahrzeuge	6533
Pl@@	6533
jeglicher	6532
ober@@	6532
Wald	6532
Marken	6530
Mau@@	6530
what	6529
behälter	6528
Festlegung	6527
fassten	6527
punkten	6526
ALE	6525
Weil	6524
vergröß@@	6524
.03.@@	6522
Vol@@	6522
258	6519
Ina@@	6519
lar	6519
entgegen@@	6519
ub@@	6518
Phasen	6516
tene	6516
exp@@	6514
gefä@@	6514
Weiß@@	6511
195	6511
74@@	6510
decken	6510
post	6509
etik@@	6508
Realität	6508
bereiten	6508
415	6508
bewegt	6506
Kli@@	6505
YP	6504
LIN	6503
EN-@@	6501
ium	6500
chel@@	6499
zubereitet	6498
TEN	6496
zusammengefasst	6494
zieh@@	6494
namen	6493
Gegenwart	6493
3,4	6491
ey	6490
Linien	6488
Leider	6487
generell	6487
cer	6486
ungsverfahren	6486
Chrom@@	6483
Füße	6481
Völker	6480
Vertrags@@	6479
BV	6477
anza	6477
Internet-@@	6476
BES@@	6476
slo@@	6475
block@@	6475
hoffen	6474
Akkumulation	6474
offensichtlich	6474
schlimm@@	6473
elu@@	6472
í	6472
g.	6471
oten	6471
fü@@	6469
effizient	6469
läßt	6468
Aktuelle	6468
hierbei	6468
Bakteri@@	6465
Views	6465
verpackt	6465
analysiert	6464
schär@@	6463
Bulgarien	6460
Quartal	6458
itäten	6456
integriert	6455
ik@@	6455
Reform	6455
gesteigert	6454
Stellung	6452
ware	6452
sicher@@	6450
Temperaturen	6450
Umsatz	6447
Mittelpunkt	6447
unterscheidet	6445
psychiat@@	6444
Appartement	6443
besucht	6441
abl@@	6441
Ambi@@	6438
Versionen	6438
kos	6437
Gerichtshof	6436
CAN@@	6436
sport	6434
2.0	6434
mt	6433
Debian	6432
Don@@	6430
schwäch@@	6429
gamm@@	6427
iner	6427
Kalifornien	6427
Standpunkt	6426
22,@@	6424
press@@	6421
wechselt	6418
AK@@	6418
124	6418
blieben	6418
sinn	6417
ungs	6413
erteilt	6413
positionen	6412
Board	6412
fluss@@	6411
bewerten	6410
asmus	6409
bran@@	6409
Bürger@@	6408
LAGE	6407
schützt	6406
Konferenz@@	6405
AD	6404
234	6402
eria	6401
DR@@	6399
gelesen	6396
teren	6394
CL@@	6393
Verbreitung	6393
vermittelt	6392
Muster	6392
Ansprechpartner	6391
votes	6391
ASS	6390
94@@	6390
4-0@@	6390
Schulen	6386
handelte	6386
DS	6386
vorgeschlagen	6384
höherer	6381
house	6380
gebieten	6380
alisierte	6379
Regel@@	6378
sinkt	6377
Nachfrage	6376
Gebiete	6374
dauerhaft	6374
inc@@	6374
termin	6371
gespielt	6370
gek@@	6369
GI@@	6368
Mütter	6368
eingehalten	6368
schn@@	6367
wahrschein@@	6366
dens	6365
Systemen	6365
Söhne	6364
Nervensystem	6364
Zucker@@	6364
level	6362
RN@@	6361
maschine	6361
buch	6360
zahl@@	6359
Achten	6357
Stei@@	6356
selbstverständlich	6354
transparent	6353
Fli@@	6352
4.1	6350
sitzen	6350
ll@@	6350
Show	6349
aufzunehmen	6348
erfolgreiche	6347
Märkte	6346
Pension	6345
Downloads	6340
wachsenden	6340
Erd@@	6340
Ai@@	6340
Seb@@	6338
tigkeit	6335
Wir@@	6335
Haltung	6335
Flaschen@@	6334
work	6333
sem@@	6332
hül@@	6331
unterschiedlicher	6331
ville	6327
digitalen	6326
Behälter	6322
solches	6319
Enthält	6318
internen	6315
gsten	6314
bo	6311
phi@@	6309
Uhr@@	6309
machten	6307
lation@@	6304
Visu@@	6302
geri@@	6301
selber	6301
Motor	6300
Allgem@@	6296
außen	6295
benötigten	6294
lim@@	6294
FL@@	6293
rufen	6293
körperlichen	6292
einstellen	6292
durchaus	6292
bett@@	6291
liebe	6290
trägen	6289
hinein	6288
Chr@@	6287
Prag	6287
Bibliothek	6285
Open	6284
bf@@	6284
Berliner	6284
infizieren	6283
Somit	6282
potenziell	6282
Angelegenheit	6282
deutsch	6282
w.@@	6282
pres@@	6280
Satz	6279
operative	6279
à@@	6278
17.@@	6277
Strom@@	6277
eda	6276
ausgeführt	6275
ele	6274
risi@@	6274
avw.php	6274
select	6272
falsch	6272
fiel	6271
sierungen	6271
Asien	6269
wochen	6269
übernommen	6269
verursachten	6268
nö@@	6267
stur@@	6267
1-2	6266
vorbereitet	6266
entscheidet	6266
Route	6265
Primär@@	6265
iPhone	6265
enn@@	6264
Verzeichnis	6264
Herbst	6264
ω@@	6263
Sonnenlicht	6262
expon@@	6262
Non@@	6262
40-@@	6258
en.htm	6258
alis	6257
Life	6255
ausgerichtet	6253
Prof@@	6253
Folgendes	6251
tives	6250
ruhig	6250
Amt	6248
tagen	6246
kations@@	6246
betont	6246
Häuser	6246
primär	6246
Zol@@	6245
digt	6244
haber	6244
Econ@@	6244
stationen	6241
weis@@	6239
auer	6238
Element	6237
KM@@	6236
Rennen	6236
leit@@	6235
Vorhaben	6232
Termin	6231
zunehmend	6230
waschen	6230
veröffentlichten	6229
Bade@@	6228
alisierter	6227
niedri@@	6226
Ansprüche	6226
Begründung	6225
Ausrüstung	6224
rup@@	6220
Vereinten	6219
erkannt	6219
Niederlanden	6219
klassen	6214
clin@@	6214
evi@@	6213
tenden	6213
aufgebaut	6211
ster-@@	6211
Di	6211
Gerechtigkeit	6209
Mol@@	6208
investi@@	6207
202	6207
Copyright	6206
zoneid	6204
sexuellen	6204
ergänzt	6203
low	6202
wish	6202
Body	6200
click	6200
beobachtung	6199
Zeitungen	6197
gue	6196
RS@@	6196
Finger	6195
285	6192
Etwa	6190
Hinter@@	6189
Schreiben	6188
Bahn@@	6187
Weiteren	6186
xen	6186
ski	6186
freundlich	6185
Freiwilligen	6184
geplanten	6184
Weiter	6184
Seiten@@	6182
Detail	6179
leistungen	6178
zeichnet	6177
steigerung	6177
treatment	6177
evalu@@	6177
ay@@	6176
www.regiolab.info	6175
anerkannt	6174
verstanden	6172
ty@@	6172
ous	6172
ital@@	6172
Zwecke	6171
tiker	6170
Teams	6170
Aktionen	6169
ums@@	6169
Best	6167
tili@@	6167
separate	6166
Verlag	6166
ip@@	6164
276	6163
greifen	6163
sh	6162
6.1	6161
Darm	6159
separaten	6159
fördert	6155
wollten	6155
effektive	6155
hingegen	6154
westlichen	6154
Cookies	6152
Stahl@@	6152
145	6151
Mur@@	6151
SD@@	6149
weltweiten	6149
optimal	6148
Equ@@	6147
erfolgreichen	6147
m.@@	6146
Schü@@	6146
Gent@@	6145
erkennt	6142
lern	6142
Scho@@	6140
mä@@	6140
½	6139
festgelegten	6139
Halo@@	6138
articles	6138
fehlen	6137
dge	6136
vat@@	6135
188	6134
hoff@@	6134
geklärt	6133
vorange@@	6133
Straßen@@	6132
--@@	6132
Berechnung	6131
Nahrungsmittel	6130
tz	6130
etat	6129
Absicht	6128
dat@@	6127
sogenannte	6126
äres	6125
Badewanne	6124
cate	6124
Fisch@@	6124
oll@@	6123
Eintritt	6122
scher@@	6121
jenen	6119
blauen	6119
Pep@@	6118
rie@@	6118
over@@	6117
bereichen	6117
gkeiten	6115
tlich	6112
Porto	6111
3-	6110
gelegenen	6110
deinem	6109
rats	6108
nice	6108
welt@@	6107
Massen@@	6105
ziele	6104
feld@@	6102
genommenen	6102
versuche	6102
AK	6101
Landes@@	6101
Vorhandensein	6101
Publikum	6100
lok@@	6100
Mond	6099
Konto	6098
Alph@@	6096
präsentieren	6094
3,2	6094
FR@@	6093
Air	6093
Rinder	6093
Ferien@@	6091
Les	6091
uta@@	6087
buch@@	6086
136	6083
endet	6080
falsche	6080
stammt	6079
side	6079
MAN	6078
klaren	6077
jährlichen	6076
flüssigkeit	6076
schlägt	6073
221	6073
Prozentsatz	6072
iso@@	6072
Lern@@	6070
Wirklichkeit	6070
kulturelle	6070
Quellen	6070
O.	6068
kurzer	6067
Tätigkeits@@	6065
Zweifel	6065
stage	6063
blen	6063
auto@@	6063
Fie@@	6061
place	6061
hourly	6061
Öl@@	6061
fs	6060
Wochen@@	6060
gestaltet	6060
Südafrika	6059
Private	6058
Kulturen	6055
miert	6052
CP	6050
regionale	6050
zar@@	6050
ruft	6049
Strahlen@@	6049
D.	6048
gleichmäßig	6048
Schon	6045
Spektrum	6045
Proben	6043
deutet	6042
demi@@	6041
Wärme@@	6040
Prin@@	6037
strahlung	6037
Beine	6036
breakfast	6035
kontinuierliche	6035
Erste	6035
ws	6035
bat@@	6034
entdeckt	6033
ward	6033
hauses	6033
matischer	6032
ban	6032
hase	6032
Sachen	6031
Â	6029
pus	6029
Car	6028
Hof	6027
Nachkommen	6026
si	6026
Pres@@	6025
schlafen	6025
alysi@@	6022
Edi@@	6022
SF@@	6022
Steuer	6020
Gerichte	6019
Arbeitnehmer	6017
460	6016
einmalige	6015
entspannen	6013
wordpress.org	6013
malem	6011
GT@@	6010
č@@	6010
stal@@	6006
under	6006
hundert	6002
behörde	6001
hre	6000
uss	6000
übernimmt	5999
TOR	5998
Venedig	5998
28,@@	5998
sitz@@	5997
lang@@	5997
Therap@@	5996
organisation	5994
ensystem	5993
Runde	5993
Wald@@	5993
Misch@@	5990
Stimmen	5990
Kompli@@	5989
typischen	5988
user	5987
ale@@	5987
grundsätzlich	5987
synthe@@	5986
Frist	5986
geschickt	5985
jemals	5985
vorgeschlagene	5982
auswirken	5982
Tool	5982
Arbeitsplätze	5978
cul@@	5977
nehm@@	5975
schrei@@	5973
299	5972
ory	5971
к@@	5971
boden	5970
dorf	5970
hier@@	5970
Schach@@	5969
Biogra@@	5968
taten	5965
aktiv@@	5965
benötigte	5963
Feuchtigkeit	5960
eck@@	5959
Wettbewerbsfähigkeit	5955
Zusätzliche	5955
Vision	5953
Positionen	5951
city	5951
Administrador	5951
true	5951
Armut	5950
nerv@@	5950
Inserido	5950
Wohl@@	5949
Roll@@	5948
PE-@@	5948
Temperatur@@	5947
vention	5946
unmöglich	5944
Versorgung	5944
Risi@@	5942
chia	5941
Mo	5940
117	5939
gewo@@	5938
Geschlechts@@	5938
Newsletter	5936
zykli@@	5936
diskutiert	5935
5,6	5935
cts	5934
überein	5934
Parkplätze	5933
147	5932
,000	5930
Port	5929
shire	5929
lex	5927
DAR@@	5927
bekann@@	5927
Papier@@	5927
ering	5925
Büros	5925
berichtete	5925
fassung	5924
Vorsitz	5923
lingu@@	5923
Erwartungen	5922
danke	5922
Zypern	5921
A-0@@	5921
377	5917
Corporation	5914
res	5913
rechtliche	5910
unterbrechen	5907
finanzielle	5907
Aufnahmen	5905
leiten	5905
Betreuung	5903
stet	5902
Menü	5902
dre@@	5902
vollkommen	5900
ander@@	5899
Zeitschrift	5899
sern	5899
Mis@@	5898
Solche	5897
netz	5896
b.@@	5895
gearbeitet	5895
zuzu@@	5893
162	5893
NUNG	5891
ischem	5891
Kleidung	5890
interessante	5890
come	5889
tei@@	5889
Unknown	5888
potentielle	5887
ließen	5886
mittelte	5885
änderungen	5885
pflanz@@	5885
and-@@	5885
meistens	5884
Info	5883
beibehalten	5882
Italy	5881
erbar	5881
mut	5880
wiki	5879
gedacht	5879
Umfeld	5878
schluss	5877
echte	5876
Nichtraucherzimmer	5876
Regi@@	5875
Abgeordneten	5873
Stufe	5873
manche	5872
dra	5872
ð@@	5872
с@@	5872
Kabel	5871
Site	5870
vorgestellt	5870
Dur@@	5870
321	5867
med@@	5866
ete	5865
unterliegen	5864
zunehmen	5862
Aspekt	5859
γ@@	5859
heißen	5859
bekommt	5854
arbeits@@	5853
Schema	5852
sport@@	5851
14.@@	5850
zus@@	5848
fern	5848
bein@@	5847
Fort	5847
betra@@	5846
deter	5845
TS	5845
Vis@@	5845
diagnostiziert	5844
Haz@@	5843
sexuelle	5843
some	5843
niveau	5843
ou	5842
syst@@	5842
ALL@@	5841
gal	5838
gefördert	5838
umm@@	5836
list	5835
Pin@@	5833
-und	5832
potenziellen	5832
komm@@	5831
Behörde	5829
Bes@@	5829
-30	5828
kindern	5827
ela	5826
2-0@@	5826
Dire@@	5825
ermitteln	5825
enthaltene	5823
Inn	5823
vornehmen	5823
2.jpg	5823
Vista	5822
big	5821
mehrerer	5818
cr@@	5818
dab@@	5816
356	5815
ändert	5815
Konditionen	5815
Regen@@	5814
person	5813
Genießen	5813
ausgewählten	5813
TV@@	5813
erreichbar	5812
wald	5812
Sant@@	5811
Symbol	5810
kno@@	5810
werke	5809
lack	5808
potenti@@	5807
Lov@@	5806
Ral@@	5805
operation	5804
Science	5803
begrenz@@	5803
anstieg	5803
ICA	5803
vorzunehmen	5801
c.@@	5801
kennt	5800
defe@@	5799
val	5799
heiligen	5798
cop@@	5796
089	5796
globale	5795
asen	5794
pler	5793
ello	5792
Gemeinschaften	5790
Haare	5788
hn	5787
.cz	5786
hinter@@	5786
One	5785
Glo@@	5785
mona@@	5784
traditionelle	5781
ci	5781
Emp@@	5779
Plat@@	5778
mischung	5778
Belast@@	5777
Red	5777
Dil@@	5775
lassungs@@	5772
High	5772
3-0@@	5771
direkter	5771
Bl@@	5769
sprä@@	5769
alie	5768
häufi@@	5767
Fernseh@@	5766
jüngsten	5765
Ausbau	5764
Wiederhol@@	5763
heben	5763
kontakt	5761
If	5759
tende	5758
mg@@	5758
2,9	5757
eigen@@	5757
COMP@@	5756
ée	5756
Kapital@@	5754
zurückzu@@	5754
Klima@@	5752
Sofern	5752
schloss	5752
matik	5752
ität@@	5752
stärkere	5751
bit	5751
licht	5751
Wesentlichen	5746
schrieb	5745
füll@@	5744
make	5744
a.com	5743
Bereits	5743
ou@@	5743
ah	5743
neg@@	5742
akzeptieren	5741
software	5740
zerstört	5740
nahme@@	5740
ssen@@	5740
Tab@@	5740
gling	5739
sollst	5738
langfristigen	5737
Gut	5737
null	5737
wahr	5735
schneiden	5735
den-@@	5734
aktuell	5732
vieles	5731
usi@@	5731
Burg	5731
genheit	5731
euer	5730
Erg@@	5729
fähige	5727
SAN@@	5727
Boote	5725
effektiv	5724
weibliche	5724
pass	5724
Bay@@	5724
Maus@@	5722
Einer	5721
Marina	5721
д@@	5721
eien	5721
zug@@	5719
dünnen	5718
Vergrößerung	5718
versteht	5716
Level	5716
6000	5713
stehend	5713
There	5713
fes	5710
irre@@	5710
Vertrieb	5709
Beweis	5707
Suchen	5707
steri@@	5702
kleinere	5701
Prioritäten	5701
Aktualisierungen	5700
wand@@	5699
Religion	5699
Darum	5699
Freien	5699
vot@@	5698
gas	5695
schau@@	5694
erender	5694
4,4	5694
jahren	5693
erische	5693
Interaktion	5692
om-@@	5692
Bruder	5691
gegebenen	5691
Kop@@	5690
gewidmet	5690
errichtet	5688
Verfasst	5687
home	5687
App	5687
schäden	5685
verlangt	5685
Lissabon	5684
Projekts	5683
Dat@@	5683
n.	5681
Dritte	5681
dieselben	5681
Psych@@	5681
Erfüllung	5680
Lev@@	5679
Präsentation	5679
Flash	5678
aco@@	5678
›	5678
relative	5676
Mi	5675
13-@@	5675
russischen	5674
Spei@@	5673
tation@@	5672
Mose	5672
ama	5671
Fahrer	5671
Telefon@@	5670
ISE	5669
1988	5668
gemess@@	5666
Bedien@@	5666
FT@@	5665
v.@@	5663
Kanz@@	5662
dge@@	5662
dent@@	5662
Gegenstände	5661
Workshops	5660
chtens	5660
rout@@	5659
mul@@	5658
Sorge	5657
Museen	5656
Logo	5656
konsultieren	5655
betrieb	5653
anhaltenden	5653
gefragt	5653
Trinkwasser	5652
C.@@	5650
farben	5650
oval	5649
vorzulegen	5649
off	5648
monatigen	5646
gien	5644
Lehrer	5644
dachte	5642
sm@@	5642
ein-	5641
hinzu@@	5641
wunderschönen	5641
Gas	5637
Aer@@	5636
Spanisch	5635
Zylinder@@	5633
Trän@@	5632
Sie@@	5630
tü@@	5630
Schiffe	5629
Werbe@@	5627
heiten	5627
Veran@@	5627
Beach	5627
Optimierung	5626
einzigartigen	5625
Forderungen	5624
Stad@@	5624
weiten	5624
ckung	5624
kleben	5623
ee	5623
Ach@@	5622
gedrückt	5622
schafft	5621
räumen	5621
staatliche	5620
Such@@	5620
genehmigten	5618
notwendige	5618
sinken	5618
Gesellschaften	5615
einzuleiten	5615
Kontrol@@	5615
Milano	5614
EK	5614
Touristen	5613
grad	5609
Add	5608
Bewusstsein	5607
verstärkten	5606
ase@@	5605
Hat	5604
zig	5603
lex@@	5603
Verpflichtung	5602
Mineral@@	5601
Israels	5599
verwen@@	5598
27,@@	5598
Christi	5598
19.@@	5598
grosse	5597
Tin@@	5597
tional	5597
Geschäftsführer	5596
hochwertige	5596
teilungs@@	5596
üblich	5596
nar@@	5595
Hannover	5594
Büro@@	5594
Einschränkungen	5593
5,4	5593
year	5592
Produkts	5591
caf@@	5591
Einwohner	5591
Anfragen	5589
center	5588
etts	5588
East	5588
tigung	5586
einheiten	5586
web	5586
og@@	5585
Katze	5584
319	5583
hop@@	5581
spezialitäten	5579
Geburts@@	5578
betrieben	5578
ausgenommen	5577
anhaltende	5575
Ausschüsse	5575
ISCH@@	5574
Strategien	5573
Fine	5572
facher	5570
meldungen	5570
gesucht	5569
99,@@	5567
Reich	5566
derer	5563
Mac	5562
Anbetracht	5561
3,1	5560
Ebenen	5560
melden	5560
ica	5559
vorkommen	5558
beur@@	5556
preise	5555
bis@@	5555
Kirchen	5554
erfasst	5552
schul@@	5552
emp@@	5552
html	5551
Performance	5551
pes@@	5551
Facebook	5550
grünen	5549
pdf	5548
einhergehen	5547
Regelungen	5547
sein@@	5545
LA	5545
1987	5545
ethi@@	5545
beteiligten	5543
Menschheit	5543
fonds	5542
array	5541
gebnisse	5539
steten	5538
Branche	5538
0.00	5537
Tierarzt	5537
550	5535
165	5534
Nah@@	5533
dlich	5531
Beachten	5531
Johnson	5530
American	5530
zugunsten	5528
äußeren	5528
vergleichbare	5528
experimentellen	5527
Rückseite	5527
ärztlichen	5526
gh@@	5526
yon@@	5526
alph@@	5526
Erklärungen	5525
Herkunft	5524
Industrial	5523
21-@@	5522
Ersatz	5521
1.0	5520
stabilen	5520
entsprechender	5520
geübt	5519
Sav@@	5518
addi@@	5517
PD	5516
abgebaut	5515
Sab@@	5515
rige	5514
Post-@@	5513
Wand	5513
Brand@@	5513
bewer@@	5512
2-3	5511
vieler	5510
auftretenden	5510
equ@@	5509
regelmäßiger	5509
höhung	5507
213	5507
finde	5507
opport@@	5506
Müt@@	5505
geblieben	5504
Wahlen	5504
tten@@	5502
ology	5502
gent@@	5502
gehender	5500
Gemeinsamen	5500
steuern	5499
ham	5499
Kriegs@@	5498
PT	5497
Sachverständigen	5497
Rico	5496
mat	5495
tierung	5495
hPa	5494
Willen	5493
Rü@@	5493
Iran	5491
Wiederherstellung	5490
mol@@	5490
Literaturang	5490
kreis@@	5490
ement	5489
30,@@	5487
ny	5486
Platten@@	5484
langer	5483
ants	5482
Maßnahme	5481
Autovermietung	5481
PAD@@	5479
sicht@@	5478
Saint	5478
Rauchen	5477
ky	5475
grossen	5475
geänderten	5473
guss	5473
schule	5471
vertraut	5470
Zone	5470
Ad-hoc-@@	5468
Royal	5467
n.@@	5466
elemente	5466
offizielle	5465
Weiterhin	5465
CHT@@	5465
lers	5464
who	5463
stil@@	5463
SEO	5463
93@@	5460
empfehlung	5460
schädigen	5459
überleben	5459
blau@@	5458
handel@@	5458
Mission	5458
Anwesenheit	5457
3,9	5457
Revision	5456
Rezeption	5456
Bergen	5455
hinzufügen	5455
Mass@@	5455
entgegen	5455
agu@@	5454
organisieren	5452
estens	5451
Speisen	5450
For	5450
Las	5450
211	5450
scho@@	5449
EU-Mitgliedstaaten	5449
Pflege	5449
By@@	5449
vorrichtung	5448
publi@@	5447
Hünd@@	5447
IO@@	5446
Ple@@	5446
detaillierte	5445
garten	5444
spi@@	5444
leiter@@	5443
Christian	5442
jug@@	5442
245	5441
plate	5439
Fr@@	5439
Garten@@	5439
itz@@	5439
Gebühren	5439
schwarzen	5437
Entspannung	5435
н@@	5435
Vorstellung	5435
fat	5434
spezialisiert	5433
Weiterentwicklung	5433
film@@	5433
sichtbare	5433
karten	5432
166	5432
Krankenschwe@@	5431
vi	5429
voraussichtlich	5429
format	5428
gesetzte	5426
iel@@	5425
berg@@	5425
Achtung	5424
Bars	5424
¬	5424
Deinen	5423
Klassen	5422
TAN@@	5422
Casino	5422
oba@@	5421
Dichte	5420
auffäl@@	5420
Ferienhäuser	5420
orth@@	5420
fortgeführt	5419
unabhängige	5419
Well@@	5419
optimalen	5417
Erhalt	5417
ktiven	5417
open	5416
ced	5416
Komplex	5416
konkrete	5414
Tschechische	5414
Hohe	5413
Vorlage	5412
Clin@@	5412
they	5411
geladen	5410
freiem	5408
Wochenende	5407
verbrau@@	5407
kit	5407
kostenlosen	5405
Respon@@	5404
kosten@@	5404
seitens	5403
Music	5403
ability	5403
ST	5402
entlicher	5401
HIN@@	5400
Grunde	5399
Rücken	5399
Tagung	5398
armen	5394
Räume	5392
Einnahmen	5391
Slowakei	5391
Geboren	5390
proportional	5388
gige	5387
miss@@	5387
4,2	5386
Form@@	5386
HY@@	5386
Kuba	5384
dreh@@	5384
gewissen	5384
EPA	5383
strom	5382
119@@	5382
Trend	5381
dot	5381
world	5381
Van@@	5380
hibi@@	5380
Mechanismen	5379
ung-@@	5379
405	5378
BEST	5377
voraus@@	5375
Grün@@	5375
Brief	5374
empfindliche	5373
konzipiert	5373
bewegung	5372
Ball@@	5372
WOR@@	5372
geringfügig	5372
ā@@	5370
unterkünfte	5369
Material@@	5369
Empfin@@	5368
.......	5367
Danke	5367
hülle	5365
ine-@@	5365
Erhaltung	5363
eigener	5362
ores	5361
Rand	5361
æ@@	5361
Schnittstelle	5361
zunehmende	5359
überlegen	5359
AE	5358
Verwirrung	5358
Text@@	5358
Ferienhaus	5357
Event	5357
eur	5356
Euch	5354
niedrigem	5353
eth@@	5352
urs	5351
GNU	5350
tions-@@	5350
glau@@	5350
15.@@	5349
141	5349
Beat@@	5348
geringfü@@	5348
Ausgang@@	5347
carb@@	5347
Api@@	5347
netz@@	5347
Zahlung	5346
grenz@@	5346
NL	5345
Basel	5344
Berufs@@	5344
Haftung	5343
Beschluss	5343
Ram@@	5343
verschoben	5342
verschwinden	5342
Gang	5342
komp@@	5340
73@@	5339
vielmehr	5338
z.@@	5337
ova	5337
sli@@	5337
qm	5336
Veröffentlicht	5336
Stein	5336
kun@@	5335
FT	5334
Verfassung	5334
Garantie	5333
Lut@@	5333
häuser	5331
Sicht@@	5330
med	5329
Berichten	5329
poli@@	5328
geleitet	5328
vorbehalten	5327
ok	5327
oma@@	5327
Verfahrens@@	5327
steiger@@	5326
Litauen	5326
sichti@@	5325
Ganz@@	5325
assoziierten	5325
enzen	5324
cch@@	5324
einzeln	5322
CN@@	5322
area	5321
natur@@	5319
opp@@	5318
quellen	5317
Bedienung	5317
Kolleginnen	5317
Gre@@	5316
294	5314
bereit@@	5314
proph@@	5313
GEM@@	5312
orten	5312
berechtigt	5312
erlangen	5311
CH-@@	5310
Anreise	5310
3,8	5309
sex@@	5309
nungen	5309
bert	5309
Christen	5307
vorhandene	5306
bedeuten	5306
entstand	5305
Besuchen	5305
Eigentum	5305
iges	5305
Variante	5305
aden	5304
Tipps	5304
Renn@@	5302
As	5301
bliche	5301
Brot	5300
stücke	5300
stützen	5300
könnt	5299
Gold@@	5296
Kontext	5295
ritan@@	5295
Flat@@	5295
G.	5294
arbeit@@	5294
Stockholm	5294
erstes	5293
vis	5293
Arbeiter	5292
Tiefe	5292
ala	5292
Ausstellungen	5290
Hochschule	5290
Sauerstoff@@	5290
enger	5289
recht@@	5289
Brüder	5289
Gummi	5287
Kör@@	5287
HAL@@	5286
Treiber	5286
where	5286
Gam@@	5285
arer	5284
Engel	5284
entes	5282
unterliegt	5282
sera	5280
bekämpfen	5280
reagiert	5280
encounter	5280
einma@@	5279
Schie@@	5279
vorstellen	5277
gefüllt	5276
Nr.8@@	5275
ulationen	5275
their	5275
gin@@	5275
1.200	5275
vernachlässi@@	5274
reduzierten	5274
WIN@@	5273
CO	5273
Fonds	5273
Air@@	5272
ungssystems	5271
Priorität	5271
spolitik	5270
Zuge	5269
umfasste	5267
andererseits	5266
Luftfeuchtigkeit	5266
Fortschritt	5266
Schwimmbad	5265
leich@@	5265
weit@@	5264
Verbraucher@@	5264
Comments	5264
Ergänzung	5263
field	5263
inson	5262
www.qlyque.com	5261
lets	5260
tan	5260
ease	5259
weis	5259
Casa	5259
Organen	5259
Kontam@@	5258
Futter@@	5258
Masse	5257
halbe	5256
ambul@@	5256
Hil@@	5254
Richter	5253
3,7	5252
Riv@@	5252
Empf@@	5250
ado@@	5250
Andreas	5250
υ	5247
Beobachtungs@@	5247
ach	5246
Foto@@	5244
first	5243
tägigen	5242
prote@@	5241
anische	5240
sens@@	5239
Weg@@	5238
Gan@@	5238
214	5237
freier	5235
www.amarillas@@	5235
lichsten	5235
412	5232
Str@@	5231
Röntgen@@	5231
WP	5230
Reformen	5230
Kla@@	5230
erforder@@	5230
Diskussionen	5228
Übergang	5227
herzlich	5226
stor	5224
Solidarität	5224
geachtet	5224
Binnenmarkt	5223
not@@	5222
höchstens	5222
255	5221
Typs	5220
gewährt	5220
cra@@	5217
U-@@	5217
Erarbeitung	5217
knapp	5217
Mei@@	5215
appar@@	5214
Mallorca	5214
video	5214
TI	5213
Off@@	5212
total	5211
R.@@	5211
ausgestattete	5208
ablo@@	5207
geschäft	5207
basierte	5207
langsame	5206
Ring	5205
ded	5204
Anzeigen	5203
Interview	5203
had	5202
Ton	5201
bestanden	5201
Freizeit@@	5200
Gewi@@	5200
kostet	5200
60-@@	5199
folgendes	5198
mone	5198
Konsequenzen	5196
find	5196
Modell@@	5196
Ausführliche	5195
LV@@	5195
FIN@@	5195
based	5194
haf@@	5194
seg@@	5191
America	5190
Waffen	5190
nachhaltigen	5187
oli	5187
Vorjahr	5186
Erinnerung	5185
Dimension	5185
dunkel@@	5184
tigem	5183
ener@@	5183
griff@@	5182
Beh@@	5182
alisiert	5180
Kräfte	5180
lo	5180
sprech@@	5179
pel@@	5178
150@@	5178
erreichte	5177
dol	5177
drück@@	5177
beheben	5176
Saint-@@	5176
street	5176
dara	5175
artikel	5175
Lehre	5173
Master	5173
330	5173
Eintrag	5170
Dienst@@	5170
gratis	5170
nai@@	5169
Bosch	5168
korb	5166
rief	5166
beschi@@	5166
geschlagen	5164
mut@@	5164
fuhr	5163
PCI	5162
erweitern	5161
ernannt	5159
offiziell	5158
stunden	5157
annehmen	5157
od	5157
Wander@@	5156
cad@@	5154
233	5154
aft	5154
lands	5154
Entsprechend	5153
Brücke	5153
stecken	5153
hire	5152
schöpfung	5152
Products	5151
britischen	5150
entan	5149
Dach@@	5149
hl	5149
iv@@	5149
Original	5148
entscheidend	5148
download	5147
Ide@@	5147
Metern	5146
anzeige	5144
Chancen	5144
Zunächst	5143
kammer	5141
Kommunikations@@	5140
Änderungsanträge	5139
aufgetragen	5139
Ela@@	5137
bereitete	5136
ssysteme	5135
phen@@	5134
erleichtert	5134
ativ@@	5133
stufe	5133
v-@@	5133
Wünsche	5133
schlug	5132
herzustellen	5132
king	5131
anfän@@	5131
geräu@@	5131
Bewusst@@	5131
richtung	5131
betreffend	5130
fein@@	5130
Roma	5130
SH@@	5130
spezifischer	5128
infizierte	5128
hän@@	5128
Zusammen	5128
jünger	5127
Mah@@	5127
path@@	5127
112@@	5124
masse	5122
gewissern	5121
ator@@	5120
entsprach	5119
would	5118
erer	5118
grüne	5118
vertrag	5117
wahl	5117
Waschmaschine	5116
normales	5115
festlegen	5114
Angabe	5113
Tempel	5112
geprägt	5112
angaben	5112
erfolg@@	5110
Room	5110
Veröffentlichungen	5110
16.@@	5110
PL	5109
stellungen	5109
begrüßen	5107
gesti@@	5106
pod@@	5105
typ@@	5105
24-Stunden-Rezeption	5105
getrock@@	5104
650	5104
freundliche	5104
endgültige	5104
kompletten	5102
schwarzer	5102
Montage	5101
str	5100
atori@@	5100
Kleb@@	5100
580	5099
som@@	5099
Grundlagen	5099
abgestimmt	5098
hr	5098
tage	5096
egelt	5095
gan	5094
länge	5093
opä@@	5093
kämpfen	5092
Sauerstoff	5092
zusätzlicher	5091
order	5090
trag@@	5089
platte	5088
esto	5088
MH@@	5086
153	5086
Legen	5085
erheblichen	5084
369	5083
DIN	5082
occasione	5081
Boot	5080
Then	5080
у@@	5079
stechen	5079
Patent@@	5078
zugelassene	5078
Y-@@	5078
Konstruktion	5078
when	5077
mechanismen	5077
una	5077
Große	5077
bezogenen	5076
SPIEL	5076
quelle	5076
schwarze	5076
umpen	5075
sk	5074
mmert	5074
Felder	5073
geruf@@	5073
r.@@	5072
167	5072
want	5071
Verlän@@	5071
WESTERN	5071
Polizei	5070
Resort	5070
hom@@	5070
Oran@@	5070
endgültig	5069
gesetzlichen	5069
Schrift	5069
XL	5068
Brise	5067
Tabellen	5067
prägt	5066
Gruppen@@	5066
acc@@	5065
homo@@	5065
5,7	5064
Jesu	5064
Irak	5064
Daniel	5063
Lettland	5063
zustände	5062
dien@@	5061
künftig	5060
Besitzer	5059
bank	5059
Änderungsantrag	5058
organisationen	5058
MP3	5058
Hans	5056
Web-@@	5055
Bucht	5054
Erst	5054
stellten	5054
FS	5053
dynamik	5049
fin	5049
Im@@	5048
case	5048
al-	5047
bezug	5046
hervorragende	5043
Südtirol	5043
Messungen	5042
Militär@@	5042
assi@@	5041
Berichts	5041
Kammer@@	5040
Manche	5040
School	5040
SAM@@	5040
1945	5040
bedenken	5039
Urteil	5039
Orientierung	5038
Hierzu	5038
Biotechnologie	5037
licht@@	5037
zuge@@	5036
Valencia	5033
Wiener	5033
Gesetze	5032
verlangen	5032
baus	5031
erlebt	5031
ón	5031
esse	5031
vorherigen	5030
ERS	5030
beschleunig@@	5030
gebraucht	5030
museum	5029
läu@@	5028
ergebnisse	5028
einzusetzen	5028
Webseiten	5027
Patent	5027
Umstände	5025
breit	5024
Mail	5024
baut	5024
registriert	5024
ult@@	5023
wächst	5023
Schicht	5022
ez	5021
interessant	5021
blei@@	5021
sia	5021
steine	5021
typ	5021
chteten	5021
me-@@	5020
gebrochen	5019
organi@@	5019
3D@@	5018
Differenz	5017
ë@@	5017
etc	5017
freue	5017
ür@@	5013
Tanz@@	5013
epide@@	5012
1986	5011
schriftliche	5011
hafter	5011
ön@@	5010
Techniken	5010
interne	5009
Verk@@	5008
Base	5008
Backofen	5007
Immobilien	5006
149	5005
regeln	5005
ebri@@	5003
Angriff	5002
See@@	5001
Bezüglich	5001
Wissenschaftler	5000
kostenloses	5000
Schweiß@@	5000
spanischen	4999
Brin@@	4999
Eröffnung	4998
Verletzungen	4997
TC@@	4997
gesammelt	4997
sam	4995
Bürgern	4995
ü	4995
außergewöhnlichen	4994
Vorsitzenden	4994
dität	4993
existiert	4993
Bauernhof	4993
gas@@	4992
sexy	4990
dire@@	4990
egelung	4990
Sho@@	4989
hinreichend	4989
Dresden	4989
langfristig	4989
Derzeit	4988
betroffene	4987
Klassi@@	4987
Rein@@	4987
ads	4987
git@@	4986
Mobilität	4986
länder	4986
praktische	4986
Meister	4985
conc@@	4984
berechnen	4984
469	4983
Entschließung	4983
Gebet	4983
atta@@	4980
Wür@@	4980
äußern	4980
26,@@	4980
DEN@@	4979
Plaza	4979
Formel	4978
Armee	4978
XX@@	4978
Punk@@	4978
Anlass	4977
30th	4976
unterwegs	4976
ai@@	4976
kräftig	4975
nie@@	4973
effiziente	4972
psych@@	4972
Ganz	4971
fö@@	4971
auen	4971
großem	4971
beruhen	4968
Staat@@	4966
gendes	4966
ländlichen	4965
verhältnis	4965
fehlende	4964
aust@@	4964
wol@@	4964
bende	4963
passieren	4961
Kreislauf	4960
sinter@@	4960
Tools	4960
Kritik	4960
Straßenverkehr	4960
Gespräch	4957
gestattet	4955
Pumpe	4955
lautet	4954
CAR@@	4954
etes	4953
Lach@@	4953
gefü@@	4953
bb	4953
Tor	4953
Implementierung	4953
wirkenden	4952
Abweichungen	4952
PP	4951
engen	4949
ear	4948
body	4948
kes	4947
enken	4947
ctions	4946
hang	4946
Lyon	4944
Major	4942
ong	4941
Identität	4941
drucken	4940
NY@@	4940
konzentriert	4939
wiederholten	4939
Besitz	4938
Winkel	4938
Kleine	4938
ierenden	4938
ver-@@	4937
stufen	4936
Ambiente	4935
kompati@@	4933
Tumor	4930
Leipzig	4929
regi@@	4929
Seg@@	4928
Bein@@	4927
kultur	4926
geomet@@	4926
kleineren	4926
Termine	4925
RÜ@@	4925
в@@	4924
Premiere	4923
doppelt	4923
fünf@@	4923
Werk@@	4923
besuch	4922
Geräten	4922
verlauf	4921
ktivität	4920
Kurve	4918
Fahrzeugs	4918
sinnvoll	4917
7-0@@	4917
decke	4917
einbezogen	4915
sparameter	4915
1985	4914
vierte	4913
staaten	4911
annähernd	4910
nützlich	4909
ellem	4909
Social	4909
zentren	4908
Meg@@	4908
legenheit	4906
sen-@@	4906
schlä@@	4906
schicht	4905
Zusammensetzung	4905
Orten	4904
Rela@@	4904
tigungs@@	4903
ema@@	4903
dahin	4903
high	4902
most	4902
Molek@@	4901
stolz	4901
gerungen	4901
B-0@@	4901
saison@@	4900
empfän@@	4900
11-0@@	4899
weichen	4898
wichtiges	4898
sauber	4897
Bühne	4897
26.@@	4896
schung	4895
12th	4895
Moskau	4895
Zoll@@	4895
wel@@	4894
verleihen	4893
4,1	4892
action	4891
Quint@@	4890
sele@@	4889
31.@@	4888
sale	4888
Mexiko	4888
AGB	4888
Image	4887
Miet@@	4887
antwortete	4886
as-@@	4886
diskutieren	4885
digitale	4885
PO	4884
Normen	4884
professionellen	4883
DN@@	4881
SEL@@	4880
Beihilfen	4880
cel@@	4879
Gemeinden	4879
live	4877
kompatibel	4877
arme	4877
Mrd.	4876
Heu@@	4875
Zustände	4875
Durst	4874
sofortige	4874
cals	4874
tter@@	4873
Schei@@	4873
Technology	4872
dauerte	4872
arte	4871
........@@	4871
kau@@	4869
Maschinen@@	4869
entlichen	4867
From	4866
chro@@	4866
kombini@@	4864
schlossen	4863
sing@@	4863
PRI@@	4863
fan	4862
Deg@@	4861
herap@@	4861
gelöscht	4861
aufgeklärt	4860
О@@	4860
Cali@@	4860
sichtbaren	4859
Stahl	4859
Gran	4859
Tagesordnung	4859
Einsatz@@	4859
egal	4858
KMU	4857
GT	4856
rela@@	4855
-3@@	4854
Es@@	4853
Käl@@	4852
Befehl	4852
links@@	4851
ress	4851
ktiv	4851
Aroma	4849
besonderes	4848
Basili@@	4848
Musi@@	4847
demokratischen	4847
Passwort	4844
Om@@	4843
HA	4843
Ato@@	4842
deutliche	4841
Panz@@	4841
Lernen	4841
BTE	4840
rt@@	4840
life	4839
schaden	4839
mass@@	4838
gestimmt	4838
resse	4836
Übernahme	4835
163	4835
kontinuierlichen	4834
brachten	4833
Beitritt	4833
р@@	4832
wittgensteinsource.org	4831
Transpor@@	4831
As@@	4830
Vertrags	4829
Management-@@	4828
shi@@	4828
Küsten@@	4828
vereinbarten	4827
by@@	4827
Plätze	4827
einerseits	4826
inkl.	4826
kalische	4824
qualitativ	4824
feed	4824
grün	4824
Neues	4824
echten	4823
hra@@	4822
mittelten	4821
č	4821
Hierbei	4821
groß@@	4820
old	4819
getötet	4818
ils	4818
θ@@	4818
-1	4817
erlitten	4817
Fernseher	4816
Regime	4816
301	4816
SC	4815
Sciences	4814
Leistungsfähigkeit	4812
Anwesen	4812
Kn@@	4812
verh@@	4811
lings@@	4811
Abfahrt	4811
rip@@	4811
vil@@	4810
а	4809
könne	4808
kör@@	4808
Out@@	4808
einher	4808
Gegenteil	4807
ausgelegt	4805
FF@@	4804
ber-@@	4803
justi@@	4802
Ljubljana	4801
ierter	4801
Chr.	4801
uch@@	4800
irgendeinem	4799
Press@@	4799
215	4799
Presse@@	4799
krise	4797
Pläne	4797
klein@@	4796
Händler	4794
sehe	4794
Propheten	4794
Dick@@	4793
Dingen	4793
Reservierung	4792
Kau@@	4792
ž@@	4791
η	4790
stimmung	4789
Verkaufs@@	4789
Speich@@	4788
gement@@	4788
Einreichung	4788
oberhalb	4788
Gnade	4787
existieren	4786
ffer	4785
anstelle	4784
ros	4783
Agrar@@	4783
halle	4782
mani@@	4780
Mul@@	4780
desto	4780
atz@@	4779
Mikroorganismen	4778
gehabt	4778
dation	4778
NAM@@	4777
Heimat	4777
markiert	4777
verläuft	4776
Führer	4775
Regierungs@@	4775
hört	4775
ungsweise	4775
Tech@@	4775
Delegation	4772
anor@@	4772
Durchschnitt@@	4771
0,00	4771
blase	4770
zone	4770
Trinken	4769
essen@@	4769
Informa@@	4768
dene	4768
automatischen	4768
UV@@	4767
Weine	4766
tiefen	4766
Cr@@	4766
Anschrift	4765
rr@@	4763
Konzert	4762
Übernachtung	4762
Veterin@@	4762
anteil	4760
Weihnachts@@	4760
18.@@	4760
Marken@@	4759
Bab@@	4759
teilte	4759
Teilchen	4758
Zugehörigkeit	4756
Wirtschaft@@	4755
erischen	4755
medizinischer	4755
Port@@	4755
inmitten	4754
.info	4754
Schwein@@	4753
Sieg	4752
Trü@@	4752
vermitteln	4751
frieren	4750
systemen	4748
Minibar	4747
prüfung	4747
Filter@@	4746
Aufpreis	4745
jo	4745
Pau@@	4745
156	4743
aktivieren	4743
ausgegangen	4743
Wider@@	4742
EF	4742
Pfer@@	4742
Sing@@	4741
Autobahn	4740
182	4739
stit@@	4738
isch-@@	4738
leitet	4738
Betrag	4738
mittel-	4737
aussehen	4737
sie@@	4737
gend@@	4736
gefordert	4736
Bisher	4735
Spezialisten	4732
Fun@@	4732
katoren	4732
BA	4731
Gamm@@	4731
Hen@@	4730
Dal@@	4730
431	4730
CE@@	4729
Immobilien@@	4728
Eingriffe	4727
ausschuss	4727
kast	4725
Zelle	4723
Band@@	4722
Bildschirm	4722
Nachhaltigkeit	4722
USB	4721
20.@@	4720
Sprüh@@	4720
mente	4719
holi@@	4717
Die@@	4715
Roh@@	4715
Ny@@	4714
vorzubeugen	4714
wertung	4713
Gedächtnis@@	4712
zuständige	4712
alisierten	4711
Wartezeit	4711
zeugen	4711
tief@@	4710
geleistet	4710
main	4709
million	4708
Werden	4708
lischer	4708
Rab@@	4707
after	4706
E.@@	4706
e.de	4705
dt	4705
Bir@@	4705
Tour@@	4704
mitglieder	4704
227	4703
gate	4702
83@@	4700
177	4698
rechtzeitig	4697
Play@@	4697
red	4697
1.5	4696
Francisco	4695
hart	4695
Deb@@	4695
xi	4695
eingeladen	4694
kurs	4694
sichtig	4694
29,@@	4694
einstellung	4694
Fokus	4694
Bewusstseins@@	4692
reifen	4691
................@@	4691
Erdgeschoss	4689
eingehen	4689
zar	4689
Kunststoff	4688
valle	4688
ust	4687
Kundenservice	4687
Black	4686
Salzburg	4686
out@@	4686
gebeten	4686
seri@@	4686
belastung	4686
Pressemitteilung	4685
erzählt	4684
unabhängigen	4684
Struktur@@	4683
branche	4683
passende	4683
Appartements	4682
Č@@	4679
176	4678
visi@@	4676
Philosophie	4676
integrierten	4675
000@@	4675
e.V.	4674
TRO@@	4674
Abenteuer	4674
verworfen	4673
ires	4673
ot-@@	4673
es.com	4672
Way	4672
content	4671
209	4670
fährt	4668
tera	4668
Zeitung	4668
lassungen	4668
Atta@@	4667
kinder	4667
Volumen@@	4666
gereinigt	4666
465	4666
umfangreiche	4665
tics	4665
bearbeitet	4665
Schnell@@	4663
Planeten	4662
bett	4661
gam@@	4661
Kopie	4660
Größen	4659
28-@@	4659
dec@@	4659
Labor	4658
fleisch@@	4658
rami@@	4658
phone	4657
Gehalt	4657
gallery	4657
muster	4656
Data	4656
freiheit	4655
iel	4655
45-@@	4654
Finanzen	4654
Alo@@	4653
Jugend	4652
fortschrei@@	4649
8.1	4649
169	4648
ZA	4647
Karaoke	4647
binden	4646
Wiederauf@@	4646
phal@@	4646
erkennbar	4645
schwankungen	4645
138	4645
orange	4644
A1	4643
zten	4642
cl@@	4641
Jahresbericht	4641
mittlerweile	4641
Gramm	4640
Geschäftsbedingungen	4639
410	4638
ving	4638
cker@@	4638
Papst	4637
ž	4636
Üb@@	4636
gebäude	4636
used	4635
May@@	4633
cam@@	4633
Deutschlands	4633
know	4633
obere	4632
To	4632
ernde	4632
Central	4632
Verein	4631
Vertretern	4631
Plans	4630
mensch@@	4630
säu@@	4629
legung	4629
Book	4627
Schrift@@	4627
kostenfrei	4626
Wettbewerbs@@	4626
Allah	4626
Kurse	4625
м@@	4622
1973	4621
Apple	4621
jährliche	4620
anhalten	4619
Verabschie@@	4618
Wohnfläche	4617
ABl	4617
berühren	4617
535	4617
Strände	4616
t.@@	4616
hyth@@	4614
SR@@	4613
rh@@	4613
äch@@	4611
8,5	4608
Co	4608
provider	4608
Entdecken	4607
5.000	4606
onische	4606
board	4606
Stufen	4606
orischen	4605
Beste	4605
still	4604
logische	4603
Korrektur	4602
innovativen	4602
trocken	4600
erläutert	4600
Lufttemperatur	4600
neusten	4600
aufgaben	4600
com	4598
Laut	4598
HT@@	4598
erwachsene	4596
künftigen	4596
Betrieb@@	4595
-Fla@@	4594
Öffnung	4594
gebühren	4593
Medizin@@	4593
Unabhängigkeit	4593
spätestens	4592
stabile	4592
ere@@	4591
Fisch	4590
Service@@	4590
Cur@@	4588
Schatten	4588
16-@@	4588
Gesamtzahl	4588
intensiv	4587
angef@@	4586
greift	4586
Termin@@	4586
Widerstand	4585
ves@@	4584
prin@@	4584
tru@@	4584
politischer	4583
17-@@	4582
glas	4582
1984	4582
Zuletzt	4581
steigenden	4581
olischen	4581
geräten	4580
vergeben	4578
19-@@	4578
ring@@	4577
έ@@	4577
original	4576
Gehirns	4576
aufeinander@@	4576
zufuhr	4575
mittlerer	4574
geteilt	4573
undes	4573
Beschäftigungs@@	4572
Reser@@	4572
handel	4571
meter@@	4570
RI	4570
ne-@@	4569
available	4569
ή@@	4569
Autoren	4569
article	4568
sspezi@@	4568
übermäßige	4566
ple	4566
gemeinsamer	4566
ausgezeichnete	4565
Big	4563
Bat@@	4563
absoluten	4562
ktiver	4562
Heb@@	4561
Ecke	4561
Märkten	4560
gerechtfertigt	4560
Drogen@@	4558
bot@@	4558
Kit	4557
Florenz	4557
gesichert	4556
Aminos@@	4555
Spi@@	4555
sicht	4555
registrieren	4553
gesetz@@	4553
Spaziergang	4553
suche	4552
Skigebiet	4551
Spezialitäten	4551
finanziert	4550
Micro@@	4550
zeichnen	4550
Bedürfnissen	4549
Spain	4548
verarbeitet	4547
Fle@@	4546
rier@@	4545
Präsidentschaft	4545
passen	4545
leeren	4544
mmer@@	4544
Tee	4544
ed-@@	4544
338	4543
lieber	4543
527	4543
Vern@@	4542
8.2	4541
ate-@@	4541
aufs	4539
Anliegen	4537
ansehen	4537
mnt	4537
Vorstand	4537
offenbar	4536
reinigen	4535
car	4535
ow	4534
Varianten	4534
Theorie	4533
Alexander	4532
Paar	4532
Fein@@	4530
Einträge	4529
verse	4529
zit@@	4528
Herstell@@	4528
Investoren	4527
deckel	4527
alismus	4525
simp@@	4525
Beteiligten	4524
than	4524
PHP	4524
klassische	4524
ο	4522
LD	4522
232	4522
Strand@@	4521
iten	4521
Rahmen@@	4520
Intensität	4520
MAN@@	4520
6.3	4519
Rent	4519
Deckung	4519
Speicher@@	4518
CR	4518
Airport	4517
voraus	4517
rosa	4517
Bildungs@@	4516
ED	4515
ard-@@	4514
tigt	4514
Gibt	4513
Mira@@	4513
PI	4512
Erleichterung	4512
iden@@	4512
eignen	4511
Kamin	4510
Zuverlässigkeit	4510
lädt	4510
scha@@	4509
6,5	4509
automatische	4509
lager	4509
Grundsätze	4509
Wunder	4509
-1-@@	4508
ringen	4508
Erlebnis	4506
Einbeziehung	4506
Wartung	4506
steigerte	4505
lierten	4505
schien	4505
XS	4504
Lande	4503
Interessengruppen	4502
setzten	4502
entschied	4501
800@@	4500
tt	4500
gerechnet	4500
EIT	4499
View	4499
stisches	4498
LIA	4497
Volkes	4496
gran@@	4496
sichtige	4495
Verbrechen	4495
w.	4494
ziel@@	4494
Leder@@	4493
voneinander	4492
spontan	4492
Großteil	4491
Einzelbetten	4490
charakterisiert	4490
berufen	4490
ede@@	4490
Fertigung	4489
Gemeinsame	4488
stimm@@	4488
Lieferanten	4487
Super	4487
Isch@@	4487
7.5	4487
kette	4486
eman@@	4485
Taupunkt	4485
nah	4485
Sünde	4484
Agency	4483
Aussage	4483
wachsende	4481
Innenstadt	4481
wahr@@	4480
herrlichen	4479
cher-@@	4478
George	4478
Register	4477
Association	4477
bru@@	4477
pumpen	4477
umfassend	4477
sigkeit	4477
diskontierte	4477
Workshop	4476
Rechts	4475
glob@@	4475
undurch@@	4474
frühere	4473
ehe	4473
into	4473
dokumentiert	4472
ktiv@@	4472
Buchen	4472
ars	4472
formu@@	4472
modern	4472
Ausstellungs@@	4471
Stationen	4471
vag@@	4470
around	4470
programme	4469
minimieren	4468
Träger	4468
ré@@	4468
isoli@@	4467
Dateiendung	4465
system@@	4465
active	4465
feu@@	4465
cos	4465
vorliegende	4465
atten@@	4465
logischen	4465
ystem	4464
Т@@	4464
Risikom@@	4464
lieb@@	4463
etabliert	4463
denselben	4462
2.000	4462
Wirbelsäule	4462
235	4462
Unterkunfte	4461
Digital	4460
Weniger	4459
Rasse	4459
olische	4458
variieren	4458
Module	4458
228@@	4457
gewählten	4456
periode	4456
Gespräche	4456
Bern	4453
ausstattung	4453
600@@	4452
CHT	4452
Aminosäuren	4451
beschreibt	4450
Switzerland	4450
Wach@@	4450
sät@@	4450
löschen	4450
komme	4450
Rig@@	4449
199	4448
222	4448
konferenz	4447
ckers	4446
onia	4446
bearbeiten	4445
Abwehr@@	4445
100-@@	4444
krankheiten	4444
arbonat	4443
gerä@@	4443
Suiten	4442
Flug	4441
Bü@@	4441
img@@	4440
mögen	4439
Kommissarin	4438
gebo@@	4438
ham@@	4438
forderte	4437
gewinnt	4437
sorgfältiger	4437
dere	4437
Niederschläge	4437
light	4436
Audio	4435
wöchentlichen	4435
MET@@	4434
unklar	4433
beziehungsweise	4433
angenehm	4432
lle	4432
verbreitet	4432
Eng@@	4431
stattfindet	4430
Gy@@	4429
IS-@@	4429
Verbrauch	4428
Konfiguration	4428
nah@@	4428
grau@@	4428
100.000	4427
ranke	4426
Sant	4426
ν	4426
Sonnenuntergang	4425
fc@@	4423
untersuchte	4422
mobile	4421
ausschusses	4421
zunehmenden	4420
363	4419
2008-0@@	4419
eintreten	4419
Inneren	4419
Leuten	4419
leist@@	4418
Klimawandel	4417
Zubereit@@	4416
Neu	4416
4,9	4414
sus@@	4414
Wirtschafts-	4413
micro@@	4413
elektrische	4412
Netherlands	4412
pot	4411
spülen	4411
lus	4411
französische	4411
entation	4410
halts	4410
klar@@	4409
Dir	4409
öff@@	4409
luxus	4409
gedanken	4409
Treffer	4409
Kurz	4408
generation	4408
ato	4407
Mais@@	4407
bewegungen	4406
Träger@@	4405
sinn@@	4404
strau@@	4404
SF	4404
chi	4403
1.500	4403
flüssi@@	4402
Get@@	4402
och@@	4402
Resultate	4401
unmittelbarer	4400
ctive	4400
bezogene	4399
vgl.	4399
spra@@	4398
ola@@	4395
Mitgliedsstaaten	4394
rent@@	4394
rechtfertigen	4394
best@@	4394
lab@@	4393
beten	4393
grün@@	4393
Dom@@	4391
Alters	4391
englisch	4391
Eingabe	4391
aktion	4390
Aven@@	4390
5,3	4389
fließt	4388
erneute	4388
ffe	4387
condado-de-@@	4387
Wandern	4387
Seminar	4387
Entwickler	4386
yer	4385
5,8	4385
Pon@@	4385
Will@@	4384
wahre	4384
Vereinbarungen	4383
Innovationen	4383
euren	4383
192	4382
typen	4382
amerikanische	4381
sky	4380
288	4379
Ruf	4376
Türen	4373
need	4373
grid	4373
späten	4373
2.0@@	4372
en.@@	4372
4,7	4372
RO	4372
Manchmal	4372
gefährlich	4371
AID@@	4371
6.2	4371
526	4371
felder	4370
umge@@	4369
überwachung	4369
Gor@@	4368
tration	4367
strukturen	4367
PF@@	4367
Großen	4366
Hintergrund@@	4366
Ed@@	4365
VI	4365
cine	4365
158	4364
275	4363
berichterstat@@	4363
North	4363
310	4363
KON@@	4363
Publikationen	4362
Spiels	4361
1400	4361
Erfassung	4361
berech@@	4360
750@@	4360
K.	4360
Besuchern	4359
watch	4359
circa	4359
fern@@	4358
Power	4358
merkmale	4357
Cra@@	4357
mann@@	4357
strukturiert	4357
wiederholte	4356
gerufen	4355
edu@@	4354
schädlich	4354
hren	4354
verbesserten	4354
Signal@@	4354
gestartet	4353
wünsche	4353
sab@@	4352
angenehme	4352
Vertrieb@@	4351
beds	4351
Gebühr	4350
lichkeiten	4350
consi@@	4349
PAR@@	4349
eres	4348
feiern	4348
Investitions@@	4347
dol@@	4347
Award	4347
besser@@	4347
quote	4347
Versicherungs@@	4347
Innenhof	4344
Gaben	4343
Abmessungen	4342
Episode	4342
Klick	4341
wil@@	4341
Haartrockner	4341
Vin@@	4341
Perspektive	4341
First	4340
316	4340
224	4339
Bahn	4339
Abend@@	4338
nischer	4337
Basel@@	4337
Sekretariat	4337
Kampagne	4336
ό@@	4333
SK@@	4333
7,2	4333
wenigstens	4332
6-0@@	4332
Neigung	4331
Hügel	4330
above	4328
ari	4328
Gepäckaufbewahrung	4327
Uhrzeit	4326
eben@@	4326
Forderung	4326
aux	4325
Sorgen	4325
tour@@	4324
bedeutende	4324
erendes	4324
Washington	4324
Signal	4324
typische	4323
ov	4323
progressi@@	4323
externe	4323
GN@@	4323
Mikrowelle	4322
www.bibliotecapleyades.net	4322
essenti@@	4322
nachzu@@	4322
ratsam	4321
iss@@	4321
Url	4319
Kath@@	4318
deleted@@	4318
Jungen	4318
right	4317
Great	4316
228	4315
Stoff	4313
www.eib.org	4311
blatt	4311
Behinderung	4311
Vaters	4311
vest@@	4311
skop@@	4310
wich	4309
zutreffend	4309
AF@@	4309
rasche	4308
bus@@	4308
Anna	4307
schlechten	4306
dal@@	4304
Blumen	4304
Karriere	4303
Background	4302
mmi	4302
Dr@@	4301
Estland	4299
strategischen	4299
anu@@	4298
egi@@	4298
Ras@@	4298
gebühr	4297
Menschen@@	4297
visuell	4296
atives	4296
Häfen	4295
egel@@	4295
praktischen	4294
gesellschaften	4294
pharmazeutischen	4294
verzeichnen	4294
behandlungen	4293
deli@@	4293
Zahlungen	4293
ther	4293
erschienen	4293
Kreis	4293
ffer@@	4292
Pakete	4291
teilt	4291
ONE	4291
verboten	4291
Internetzugang	4291
Bibel	4291
Empfang	4290
veranstaltungen	4290
REL@@	4290
schalten	4289
professionelle	4289
ungsplan	4288
atory	4288
PAS@@	4288
prompte	4288
Ausführungen	4287
stik	4287
ness	4287
streng	4287
kombination	4287
fok@@	4287
sec	4286
Kreuz	4285
drän@@	4285
Arm@@	4284
fassen	4284
Gebär@@	4283
ome@@	4283
extra	4283
dien	4282
oni	4281
Mittl@@	4281
Überarbeitung	4280
WHO	4280
unzur@@	4280
rech@@	4278
Premium	4278
klär@@	4277
Tauch@@	4277
rt	4274
Trotzdem	4274
starkes	4272
bie	4272
ehemalige	4271
gemel@@	4271
Wandel	4270
einverstanden	4268
39,@@	4268
Freuen	4268
Sex	4268
Journal	4268
bezahlt	4265
Konferenzen	4265
Progra@@	4265
Nei@@	4264
Fernsehen	4264
Posi@@	4264
5,1	4264
Mé@@	4263
Fehler@@	4263
Real	4263
hochwertigen	4262
Syna@@	4262
Gemüse	4262
pfei@@	4261
ergänzen	4261
gelegten	4260
TER	4260
Nachfolgend	4259
Bürgerinnen	4259
Dol@@	4259
rel@@	4259
Pages	4258
62@@	4257
Pig@@	4257
sektor	4256
zw@@	4256
tausend	4255
Mögliche	4255
Cas@@	4255
Use	4255
Evi@@	4255
fran@@	4254
Freizeit	4254
feh@@	4254
Immer	4253
viertes	4253
mieten	4252
schte	4252
Fans	4250
Tube	4250
340	4249
gkeit@@	4249
Leiterin	4249
rahmen	4248
verschle@@	4248
auszuschließen	4248
beri@@	4247
Oli@@	4245
Glau@@	4245
inbegriffen	4245
Schle@@	4245
Zeile	4245
Alp@@	4244
Geschichten	4244
Wüste	4243
heutige	4243
mangel@@	4243
Dich	4243
gerem	4243
häufig@@	4243
10-0@@	4242
erstreckt	4242
irgendeine	4242
Währung	4242
Corporate	4242
Auftrags@@	4241
langsam@@	4240
Don	4239
vat	4239
E-Mail-Adresse	4238
lebens	4238
höheres	4238
platten	4237
48-@@	4237
Beein@@	4237
^	4237
PLUS	4237
Phot@@	4237
eini@@	4237
Blue	4236
fangen	4236
züge	4235
Zerstörung	4235
Bord	4235
umfangreichen	4234
brü@@	4233
Kenntnisse	4233
Berater	4233
Königs	4233
Laden	4232
eigenem	4231
290	4231
dale	4228
26-@@	4227
Magnet@@	4227
Lö@@	4227
ners	4226
medizin@@	4226
Fehlen	4226
ungszeit	4225
Musiker	4224
Wahrnehmung	4224
beck	4224
kunst	4224
angel@@	4224
ration@@	4224
zentu@@	4224
esischen	4223
1st	4223
Palette	4223
qualifizierten	4221
Wagen	4220
Bratislava	4220
Hinsichtlich	4220
fehler	4220
rose	4220
konkreten	4220
kunst@@	4219
paper	4218
Ohren	4218
überzeugen	4216
liefen	4215
Exp@@	4215
starb	4215
Ful@@	4215
ith@@	4214
Tieres	4213
Express	4213
versuch	4213
gerechte	4213
stimuliert	4212
gesetzl	4211
Tickets	4211
204	4211
Daumen	4210
width	4210
Gelände	4210
kala	4208
Bewohner	4208
beschreiben	4208
Ansichten	4208
ogramm	4207
Vorgehen	4206
W.	4206
Geschlechtsverkehr	4206
ul	4205
bauten	4205
lösungs@@	4205
Knö@@	4204
Agenda	4203
css	4201
ffen	4201
164	4201
minimale	4201
tionspro@@	4200
Kaffeemaschine	4199
Monats@@	4199
Jean-@@	4199
beantworten	4199
Points	4199
Che@@	4198
Antonio	4198
hrop@@	4197
Allergien	4197
erkunden	4197
vergi@@	4197
Chemie	4197
Handel@@	4196
super@@	4195
gangs	4195
Unterdrückung	4195
Erzeugnisse	4194
jeweilige	4194
aufwand	4194
Wolfgang	4193
offener	4193
grundlegende	4193
Umwandlung	4193
Käufer	4192
uter@@	4192
Themen@@	4192
leer	4192
stöcke	4192
ladung	4191
INTER@@	4191
Dokumenten@@	4190
beabsichtigen	4189
basierten	4189
Gerade	4189
Traum	4188
Author	4188
Buchstaben	4188
Lizenz@@	4188
tert	4188
Summe	4187
zukünftige	4187
verbindungen	4187
327	4187
Moderne	4186
wissenschaften	4186
Reserve	4185
Gleichgewicht	4185
ständiger	4184
ces@@	4183
PAT@@	4182
atmen	4182
sid	4182
Kapital	4181
lagerung	4181
Gilead	4180
CHER@@	4180
Ammoni@@	4179
Reaktions@@	4179
Tief@@	4178
operationen	4178
beginnend	4178
restlichen	4177
Universitäten	4176
row	4175
lokaler	4175
griechischen	4175
Verhält@@	4174
Einkaufs@@	4173
mei@@	4173
ère	4173
herz@@	4172
gelungen	4172
omp@@	4171
USD	4170
vergleichen	4170
Yo@@	4170
407	4169
ado	4168
Trends	4167
positions@@	4166
Alltag	4166
intensi@@	4166
Estate	4166
zukünftigen	4166
nacht@@	4166
Mobile	4165
gleicher	4165
andern	4164
schädliche	4163
zugestimmt	4163
seltener	4162
HTML	4162
sites	4162
Dienstleistungs@@	4161
Unterhaltung	4161
Zoll	4160
Regional@@	4160
berger	4160
Kredit@@	4159
uch	4159
Schwe@@	4158
CK@@	4158
müde	4158
WAR@@	4158
spannung	4158
And	4157
pos	4157
nunmehr	4157
relevanter	4157
Automobil@@	4157
veröffentlichte	4156
Esszimmer	4156
Personen@@	4155
herunter	4154
Darlehen	4153
hon@@	4153
förder@@	4153
Soldaten	4152
vorgeschrieben	4151
frisch	4150
verbindung	4149
milch@@	4149
roren	4149
Formulierungen	4147
Alternativ	4146
Dafür	4146
AccommodationZ.com	4146
Mobil@@	4146
Beratungs@@	4145
tier	4145
ita	4144
Existenz	4144
Direktlink	4144
Mieten	4143
Waschen	4142
super	4142
amm	4142
Stau@@	4141
Partik@@	4140
vs	4140
Verfugbare	4140
Care	4139
tit@@	4138
ating	4137
klären	4137
befassen	4137
197@@	4136
straat	4135
What	4135
gehe	4135
lag@@	4134
gebrauchte	4134
nachweislich	4133
iron@@	4132
schwierigkeiten	4132
gesetz	4131
Eines	4131
Hardware	4131
ance-@@	4130
vermischt	4129
F.	4128
bedeutenden	4128
größerer	4128
2-4	4128
Verteidigung	4128
entscheidende	4127
anlass	4127
spielte	4126
Heiz@@	4126
letzter	4125
Modi@@	4125
zes@@	4125
tien	4125
zuverlässig	4124
rock@@	4122
lich-@@	4122
Terrorismus	4122
anth@@	4122
Medium	4121
Lebensjahr	4121
xis	4121
stad	4121
ih@@	4119
guide	4119
arben	4119
abel@@	4118
Prozesses	4118
demselben	4117
Denk@@	4116
umzusetzen	4116
della	4116
ball	4115
erzi@@	4114
Voraus	4114
unden@@	4112
Literatur@@	4112
auff@@	4110
4,3	4110
Twitter	4110
Schrauben	4110
Gebrauchsan@@	4109
0200	4108
37,@@	4107
Control	4107
Modus	4107
reihe	4106
gebrauch	4106
Ufer	4106
tion-@@	4106
Verträge	4105
realisiert	4105
Koordin@@	4105
Haup@@	4105
Barb@@	4104
Ausrichtung	4104
deutscher	4104
139	4103
Stor@@	4103
beigetragen	4103
.amarillas@@	4102
development	4102
imp@@	4101
ï@@	4101
planung	4099
Kam@@	4099
24.@@	4099
aktualisieren	4099
hafen	4098
hilfreich	4098
flü@@	4098
kogni@@	4097
www.mogelpower.de	4097
dateien	4096
langsamer	4096
halter	4096
geschah	4096
Risk	4096
GO	4095
einnimmt	4095
grundlegenden	4095
Mexico	4094
height	4094
Schwester	4093
EP	4093
Deli@@	4092
wendet	4092
ó	4092
Pfad	4092
stätte	4091
Schwarz	4089
linsen	4089
256	4089
Lizenz	4088
hab	4086
gewohnt	4086
ssd	4085
strecke	4084
Parasi@@	4084
bahnen	4084
Public	4084
Place	4084
alisieren	4082
begründet	4082
Wunden	4082
u-@@	4082
Fischerei@@	4081
Content	4081
herausgegeben	4080
market	4080
ula	4080
orts	4080
komplex	4079
457	4079
pkoehn	4078
site-crawl	4078
abteilung	4077
derzeitige	4077
satz@@	4077
dargelegt	4077
hard	4077
Rio	4077
32-@@	4076
luft@@	4076
gericht	4076
College	4076
looking	4075
Deine	4075
achtet	4075
forma@@	4074
haftes	4074
Letzter	4073
verlängern	4073
1.1	4073
geistigen	4073
Richard	4073
Bruch@@	4072
chtig	4072
455	4072
funktionsfähig	4072
different	4071
Praha	4071
technologie	4071
anforderungen	4070
Sele@@	4070
beantragte	4069
www.b@@	4069
nachfolgende	4069
ausstellung	4068
CC	4067
detes	4067
omen@@	4067
Fast	4067
parameter	4066
zurzeit	4066
Joseph	4066
anda	4066
70-@@	4066
nes@@	4064
Vorgehensweise	4063
location	4063
Ima@@	4062
3-4	4062
1983	4062
Bewertungs@@	4062
messe	4061
standard	4061
vergleichbaren	4061
Ü	4061
problemlos	4061
Gesundheit@@	4061
406	4060
re-@@	4060
Aufhebung	4059
erwähnten	4059
ball@@	4058
game	4058
WER@@	4058
Konzern@@	4058
located	4058
Erscheinungen	4057
Fischer	4057
probe	4056
Phosph@@	4056
dings	4056
Flus@@	4056
Schwei@@	4055
Kenn@@	4055
falschen	4054
für@@	4054
Funk@@	4053
Segel@@	4053
Access	4052
kostenfreies	4052
pers	4051
alli@@	4051
grenzen	4049
behoben	4049
Ausbildungs@@	4049
gründen	4049
Fische	4049
Lü@@	4049
akzeptabel	4048
Verbindungs@@	4048
steuerung	4048
ück@@	4048
nutz@@	4048
Schwankungen	4047
künftige	4047
erneuten	4046
pf	4046
GRA@@	4046
ι	4046
preis@@	4046
237	4044
www.vidc.org	4044
Kni@@	4044
less	4043
wis@@	4043
tech@@	4042
RC@@	4042
gegenseitige	4039
gegen@@	4039
Regulierung	4039
Datenschutz@@	4039
Brü@@	4039
Engineering	4039
Fest	4039
limit	4039
ursprüngliche	4038
woh@@	4038
erfol@@	4038
Kloster	4038
Nürnberg	4037
bon@@	4037
www.blogigo.de	4036
Fischerei	4035
sitzt	4035
TRI@@	4035
Erachtens	4034
plant	4034
Schlussfolgerung	4032
defizi@@	4030
unternommen	4029
deswegen	4029
Kö@@	4027
Bern@@	4027
Stütz@@	4027
star	4026
BE	4026
Transfer@@	4026
Stimmung	4026
made	4025
kleb@@	4025
nennt	4025
sol	4025
Sorgfalt	4024
Terminal	4024
Benutzer@@	4023
gestör@@	4023
dg@@	4023
atorische	4022
Nachmittag	4022
genetischen	4022
Diego	4022
Finanzierungs@@	4022
Eier	4021
Koh@@	4021
Zweitens	4021
Angel@@	4020
191	4020
Tei@@	4020
spezifisches	4020
beantragt	4018
154	4018
Syrien	4018
Beachtung	4018
264	4017
tors	4016
bisschen	4016
illa@@	4015
mitgeteilt	4015
Sexual@@	4014
bricht	4014
gie@@	4014
vertrat	4014
lung@@	4012
eingegangen	4012
angenehmen	4012
schungen	4012
übermittelt	4011
jpg	4011
einhalten	4010
schil@@	4009
position@@	4009
0100	4009
Handeln	4007
zü@@	4006
projekt	4005
artigen	4005
Blau@@	4004
gelegene	4004
Zielen	4004
Ros@@	4003
geeigneter	4003
DF@@	4003
KA@@	4002
deu@@	4002
esta	4002
intensive	4002
glücklich	4001
Schraub@@	4001
Kompetenz	4000
Tex@@	4000
280@@	4000
steuer@@	3999
Vorher@@	3998
My	3998
fragte	3998
Mode	3998
189	3998
gsp@@	3998
nische	3997
author	3997
chtungen	3997
etwaige	3996
Manife@@	3996
jähriger	3996
übergeben	3996
50,@@	3995
klebt	3995
MD@@	3995
п@@	3994
Def@@	3994
aff@@	3993
wirtschaftlich	3993
herunter@@	3992
Ε	3992
wuchs	3992
adap@@	3992
Rout@@	3991
Geweb@@	3991
Abschließend	3990
einheitlich	3990
berühmte	3989
daten@@	3989
Boo@@	3988
179	3988
vorausgesetzt	3988
Übereinkommen	3988
1980	3987
Š@@	3987
entle@@	3986
DLL-Fehler	3986
Übersetzungen	3986
gesellschaftlichen	3985
HErr	3985
erwerben	3984
speci@@	3984
Swiss	3983
geschle@@	3983
Eisenbahn@@	3983
Karl	3982
werken	3981
halben	3980
440	3980
Adren@@	3980
Of	3980
komplexen	3979
kraft@@	3978
Generationen	3977
e.	3976
Jobs	3976
Dritten	3975
Kanal	3975
Wissenschaftliche	3975
www.c@@	3974
gesandt	3974
ess-@@	3973
480	3973
Toilette	3972
rom@@	3972
pool	3972
Charles	3972
Verlangen	3972
DB@@	3971
Offen@@	3971
23.@@	3971
hot	3971
die@@	3971
verkauf	3970
Medikam@@	3970
Tisch@@	3969
gg@@	3969
Pflanzen@@	3968
Zimmerservice	3968
rechts@@	3968
spektiven	3968
Software-@@	3967
gebe	3966
General@@	3966
---	3966
Arbeitsplatz	3965
samkeit	3965
Schön@@	3965
Bier	3964
definierten	3963
Pferd	3963
Erfolgs@@	3963
egt	3962
integrierte	3962
projekte	3961
287	3961
chen-@@	3961
T.	3959
versorgt	3959
Konzerte	3959
nights	3959
urlaub	3959
Architekten	3959
false	3959
plätze	3958
schar@@	3957
rar	3957
Rotterdam	3956
Tat@@	3956
typisch	3956
Prinzipien	3956
Tom@@	3956
425	3956
bestimmungen	3955
Spezielle	3955
Wäscheservice	3954
Taste	3954
Matrix	3953
beteiligen	3953
u.@@	3953
1979	3952
bilität	3952
minimal	3952
Nagel@@	3952
dad	3951
ler-@@	3951
neben@@	3951
burger	3951
amma	3949
Oxi@@	3949
Politiker	3949
Sicherung	3948
Sound	3947
Card	3946
kels	3945
Forsch@@	3945
dasselbe	3945
Franz	3945
komplexe	3943
tiefer	3943
Waren@@	3943
angen	3942
366	3942
Bettwäsche	3942
nnen	3941
zweier	3940
arn@@	3940
fasste	3939
Zei@@	3939
leben@@	3938
и	3938
komfortable	3938
ausgewertet	3937
Ausblick	3936
geordnet	3936
Klinik	3935
Kommissions@@	3935
SCHL@@	3935
Antrags@@	3935
Duo	3934
Maximum	3933
open-@@	3932
Mittagessen	3932
Harmon@@	3931
genetische	3931
barem	3931
411	3931
deutlichen	3931
tretenen	3930
stic	3930
2500	3928
Reihenfolge	3928
www.penilefitness.com	3928
Garden	3928
merken	3927
play	3927
punk@@	3926
wartet	3925
chtige	3925
teur	3924
pumpe	3924
holz	3924
Beschwerde	3923
Nil@@	3923
sechs@@	3923
parallel	3923
verzichten	3923
Analy@@	3923
gemeinschaft	3922
lierte	3922
pa	3922
tauchen	3922
Ultraschall@@	3922
schlägen	3921
Gewinn	3921
KE	3921
-25	3921
kümmern	3921
Niedri@@	3920
Manufa@@	3920
BIO@@	3919
elli	3919
tot@@	3919
Ι@@	3918
Gleichgewi@@	3918
248	3918
angeb@@	3918
strategische	3917
Wur@@	3917
ssystems	3916
orm	3915
Fahrzeugen	3913
Division	3913
Jur@@	3913
STA@@	3913
Empfänger	3913
Ehre	3912
398	3912
que-@@	3911
register	3911
.09.2015	3911
gestellte	3910
unterzeichnet	3909
bers	3909
1982	3909
5,2	3909
ING	3908
Western	3908
Meldung	3908
schlag@@	3908
knoten	3907
vorne	3907
date	3906
listen	3906
geringem	3906
Justiz	3905
Werken	3905
erbaren	3904
eleganten	3904
hing	3904
etten@@	3903
Globalisierung	3903
4.00	3903
243	3903
Folie	3902
Keu@@	3900
♦	3900
Autorität	3900
Heim@@	3900
europ@@	3899
mentierung	3899
ckte	3898
endgültigen	3898
Za@@	3897
beschränken	3897
Jahrzehnten	3897
schwache	3897
istische	3897
friendly	3896
Kir@@	3895
semi@@	3895
iz@@	3895
unt	3893
kÃ	3892
ung.htm	3892
Universitäts@@	3891
wunderschöne	3891
www.ypagesusa.com	3891
serie	3891
Distribution	3889
vision	3889
frischen	3888
Spin@@	3888
9-0@@	3888
Alpen	3888
gestern	3887
Not	3887
CAM@@	3887
schnitt	3887
ütt@@	3886
äußer@@	3886
erend	3885
CIS	3885
Xen@@	3885
ena@@	3884
Louis	3883
36,@@	3883
komponenten	3883
lten	3882
Augenblick	3882
may	3882
weisungen	3881
Alter@@	3880
Drive	3879
Sand	3879
Hafen@@	3879
223	3878
Wettervorhersage	3878
menten	3878
Logistik	3877
braune	3877
Krankenhaus@@	3877
Bonn	3877
Brun@@	3876
Gut@@	3876
Prop@@	3876
ema	3876
0.5	3876
352	3875
Dach	3875
ungssysteme	3875
fortzusetzen	3874
trennen	3874
....@@	3874
becher	3873
Teilnehmern	3873
ann	3873
Streifen	3873
musst	3872
zeitlichen	3872
Erk@@	3872
til@@	3871
Vier	3871
meer	3871
positiver	3870
ernst	3869
point	3869
eno@@	3869
fur	3869
Lip@@	3868
Fahrzeug@@	3867
AST@@	3867
Repli@@	3866
Vorgang	3866
dienst@@	3866
vermutet	3866
2014-0@@	3866
Netzwerk@@	3866
Café	3865
Aussagen	3864
angeschlossen	3863
verband	3863
Camping	3863
www.immobilsarda.com	3863
book	3862
5,9	3862
schnell@@	3861
top	3860
erleiden	3860
148	3859
383	3859
Wellness	3859
How	3859
Mwst	3859
TIM@@	3859
GD	3859
konzept	3858
Perg@@	3858
www.youtube.com	3858
erwartete	3856
antworten	3856
Wert@@	3856
beautiful	3856
hum@@	3855
resultiert	3855
1250	3855
sho@@	3854
fs@@	3854
Thailand	3854
21.0@@	3853
gr	3853
Trav@@	3851
Flächen	3851
hausen	3851
grund@@	3851
mithilfe	3851
technischer	3851
Know-how	3850
Nord	3850
lationen	3849
220@@	3849
erzielte	3846
Atom@@	3846
gefangen	3845
fahrten	3844
Schn@@	3844
337	3844
Verkauf@@	3843
Genuss	3843
artig	3843
stö@@	3843
begeistert	3842
Tendenz	3842
aal	3841
Lounge	3841
Antrag@@	3841
.it	3840
erschien	3840
Antrags	3840
etwa@@	3838
ik	3836
Minimum	3836
lebenden	3836
jes@@	3836
industriellen	3835
ym	3835
Pomp@@	3835
gebung	3834
www.google.com	3834
Mach@@	3834
Party	3834
blut	3834
sed	3833
Wärme	3833
fischen	3833
Anwendern	3832
0.87	3832
Reproduktion	3831
standards	3830
gasse	3830
datei	3830
it-@@	3829
tolle	3829
Betreiber	3828
Portal	3828
hi	3827
Tanz	3827
irgendeiner	3827
mein@@	3827
Staates	3826
Salz	3826
refer@@	3826
Gehirn@@	3826
173	3826
2015-0@@	3825
Stücke	3825
terung	3825
Präsenz	3824
sex	3824
eil	3824
Enterprise	3824
agen@@	3824
taxonomy	3824
italienische	3823
erheben	3823
198@@	3823
s.htm	3822
einheitlichen	3821
gy@@	3820
marks	3820
Ganzen	3819
einig	3819
schlechte	3819
demo@@	3818
nau@@	3818
Erstens	3817
pflanzliche	3817
Safety	3817
folglich	3817
gleichermaßen	3816
bereiches	3815
genauer	3814
wöchentliche	3813
Management@@	3813
Geschäft@@	3813
ning	3813
fühlt	3813
erstklassiger	3813
QUOTE	3813
Rel@@	3812
archi@@	3812
übernachten	3809
Versammlung	3808
behält	3808
VOR@@	3807
ops	3806
Quick@@	3806
Green	3806
Herrschaft	3805
Community	3805
allgemeines	3804
Erörterung	3804
Guide	3804
monatlichen	3803
Ministerium	3802
Angehörigen	3802
leitungen	3802
Frank	3802
musik	3801
fehlenden	3801
ey@@	3800
James	3800
stete	3799
empfindlichen	3799
Schne@@	3798
Konflikt	3798
öffentlich	3798
Baum	3798
politisch	3798
atz	3798
gefertigt	3797
Sü@@	3797
Geschrieben	3797
amo@@	3797
zugs@@	3797
249	3797
25.@@	3797
Lesung	3796
gezwungen	3795
Beta	3795
Funktion@@	3795
really	3795
fliegen	3794
vorzeitig	3794
immobilsarda.com.2015-12-05	3794
div	3794
real	3793
einst	3793
fr@@	3792
strei@@	3792
erklär@@	3792
rauchen	3792
Kern	3792
two	3791
betreiben	3791
Open@@	3791
É@@	3791
Heilige	3790
418	3790
reichlich	3789
png	3789
dest@@	3788
Gott@@	3788
kompli@@	3788
reprodu@@	3787
th-@@	3787
Agi@@	3787
öh@@	3786
www.g@@	3786
cri@@	3785
Tatsächlich	3785
benden	3785
bestätigte	3784
Design@@	3784
Frühjahr	3784
Bett@@	3784
freut	3783
Zähne	3783
ge-	3783
92@@	3783
Suchergebnisse	3782
Gesundheitszustand	3782
Det@@	3782
back@@	3782
fehl@@	3782
meister	3782
Ferien	3782
Aufsatz	3782
präzise	3781
TAR@@	3781
Perio@@	3781
aufgestellt	3781
Hilf@@	3781
gefähr@@	3780
medizin	3780
erzielten	3780
159	3779
schein	3779
540	3779
erworben	3779
Team@@	3779
341	3779
Datei@@	3778
Diff@@	3778
bereiteten	3778
Amo@@	3778
support	3777
DH@@	3777
aufgezogen	3776
schwierigen	3776
sr@@	3776
Burg@@	3776
Deckel	3775
erörtert	3775
plans	3775
analy@@	3775
Report	3775
Van	3774
sätze	3773
ün@@	3773
ér@@	3773
GE@@	3772
diente	3772
º	3771
Parallel@@	3770
Live-@@	3769
reli@@	3769
programms	3769
esis	3769
Kü@@	3768
Koch@@	3768
of@@	3768
ket@@	3767
help	3767
spont@@	3767
gelernt	3767
cta@@	3766
kr@@	3766
1800	3766
chender	3766
hörte	3765
Seife	3764
bi	3763
rooms	3763
beliebigen	3762
situation	3761
Kennzeichnung	3761
rechtfertigt	3760
vorangegangenen	3759
Vordergrund	3759
Aussch@@	3759
Öffnungszeiten	3758
376	3758
Schiff@@	3758
RES@@	3757
Edelstahl	3757
kontroll@@	3757
kus	3756
ziel	3756
Dé@@	3756
warmen	3755
Wall@@	3755
raumes	3755
5,00	3754
.eu	3754
port	3753
VEBEG	3753
nord@@	3753
EIT@@	3752
ely	3752
Erreichung	3752
GrundstÃ	3751
folgendermaßen	3751
Könige	3751
atorischen	3750
267	3749
analo@@	3749
stamm	3749
Feuer@@	3749
beschäftigen	3748
schlüsse	3747
metho@@	3747
elen	3746
stimmte	3746
glas@@	3746
graphie	3745
13.11.2016	3745
keln	3745
vie@@	3745
bestimm@@	3745
Grundstück	3745
Hostel	3745
Hz	3744
Stro@@	3744
cen@@	3743
Arbeitslosigkeit	3743
ständi@@	3742
`@@	3742
AP	3741
BB@@	3741
Direkt	3741
kulation	3741
Green@@	3740
chirur@@	3740
bemühen	3739
dé@@	3739
PR	3739
nifi@@	3739
Million	3738
umgekehrt	3738
iPod	3737
Bereich@@	3737
283	3737
enten@@	3737
Messen	3736
info@@	3736
Oberflächen	3736
wertvolle	3735
grupp@@	3735
kurse	3735
herausge@@	3734
35,@@	3734
Schreib@@	3734
pig@@	3734
rating	3734
Wor@@	3733
speed	3732
performance	3732
unzureichende	3731
TV-@@	3731
han	3731
Bestell@@	3730
Demo@@	3730
erinnen	3729
Auflage	3729
willen	3729
261	3729
217	3728
Lebensdauer	3727
Gästebewertungen	3727
ergänz@@	3727
Rund	3726
Koordination	3726
gezielt	3726
sagten	3726
ländern	3725
flexibel	3724
bereitet	3724
Rollen	3724
übrig	3724
Ursprung	3723
Angeles	3722
ito	3722
chtete	3720
Cloud	3719
grund	3719
Schaum@@	3719
Kürze	3718
BIP	3717
Operations	3717
beschreibung	3717
181	3715
12-0@@	3715
Whirlpool	3715
Herr@@	3715
Obst	3715
Baumwolle	3715
194	3714
flusses	3714
Verkür@@	3714
Versuche	3714
Gebäuden	3714
Stefan	3711
ve-@@	3711
geschätzte	3711
Export	3710
Hitze	3710
erbaut	3710
Gallery	3710
modified	3709
gesetzter	3709
Prei@@	3708
lear@@	3708
erre@@	3708
glaubt	3708
elektrischen	3708
maßnahme	3707
Ermittlung	3707
ling@@	3707
br	3706
Mailand	3706
TT	3706
etho@@	3706
soliden	3704
ción	3704
ruhige	3704
cent@@	3703
up-@@	3703
4.9	3703
30.@@	3702
Friedens@@	3702
dll	3702
letter	3701
wissenschaftlicher	3701
ernsthaft	3701
Einschätzung	3701
saubere	3700
stabiler	3700
23-@@	3700
ji@@	3700
spin@@	3700
-4@@	3699
ppe-@@	3699
Person@@	3699
Früchte	3699
Potenzi@@	3698
opie	3698
geplante	3697
stagen	3697
Bonus	3697
ohlen	3696
Game	3695
Penis	3695
Titan	3694
bemüht	3694
Fruchtbarkeit	3693
renoviert	3693
257	3692
Bad@@	3690
3D-@@	3690
Kampf@@	3689
reife	3689
Klar@@	3688
š	3688
M.@@	3688
EINE	3686
beigefügt	3686
Pflicht	3686
Sünden	3685
verurteilt	3685
ume	3685
EE	3685
ke-@@	3685
folgte	3684
eo@@	3684
ã@@	3684
Sat@@	3684
Beobachtungen	3683
pum@@	3683
istischen	3683
Juda	3682
ministerium	3682
Mitgliedschaft	3682
miner@@	3681
ple@@	3681
Chemi@@	3679
gio	3679
Lep@@	3678
eingef@@	3678
gestaltung	3676
-Sy@@	3676
zulassen	3676
CO2-@@	3676
Maps	3675
Artikeln	3674
Hosp@@	3674
Amarillas@@	3673
Begriffe	3673
Ero@@	3672
251	3672
profile	3672
Lebensmitteln	3671
82@@	3668
Vogel@@	3668
biegen	3668
ZEN	3668
38,@@	3668
ßig	3668
408	3667
foli@@	3667
Meri@@	3667
Gehäuse	3667
cing	3667
EIN	3666
Display	3666
landschaft	3666
es.@@	3666
visit	3665
Kino	3665
realen	3664
baum	3663
derartigen	3663
of-@@	3663
Branchen	3663
kräfte	3662
konstant	3661
umwelt@@	3661
chem	3660
märkte	3659
habern	3659
hinaus@@	3659
Ursprungs	3659
lot	3658
Zutaten	3658
Defe@@	3658
abkommen	3658
Vögel	3658
Obergrenze	3656
Straf@@	3656
Christ@@	3656
team	3656
Weiß	3653
Dun@@	3653
weiche	3652
GA@@	3652
Seminare	3652
Wort@@	3651
ho	3651
USt	3651
Erei@@	3650
Up	3650
Stabilisierung	3649
Silber	3648
techni@@	3648
ores@@	3648
effekt	3647
Soj@@	3647
ähn@@	3646
minimalen	3646
Geheimnis	3646
mehrfach	3646
Kreislauf@@	3645
retten	3645
Zeitraums	3644
items	3644
49-@@	3644
erkenn@@	3644
komfortabel	3643
exten@@	3643
pper	3642
then	3642
Küh@@	3642
hnen	3641
fir@@	3641
Kirchen@@	3641
High-@@	3641
CB@@	3641
niedrigsten	3640
hersteller	3639
Gärten	3638
struktur@@	3638
Praktiken	3638
erzählen	3638
Können	3637
sämtlichen	3636
transportiert	3636
Betriebe	3636
sischen	3635
samen	3635
differen@@	3635
hervorragend	3635
34-@@	3635
Tinte	3635
Zucht@@	3634
Tab	3634
Akademie	3634
Kathedrale	3633
Geschenk	3633
Kochnische	3632
pflichtigen	3632
Phone	3631
Vorbereitungen	3631
Grundsatz	3631
ausgesprochen	3631
27.@@	3631
Unit	3630
Ç@@	3630
Gyn@@	3630
Block	3629
Kupfer	3629
Massage	3628
frist	3628
stanz@@	3627
345	3625
mau@@	3625
IB	3625
GK@@	3625
website	3624
verletzt	3624
Kilometern	3624
Schichten	3623
events	3622
49,@@	3622
CAL@@	3621
angelegt	3621
minister	3621
schuss	3620
hro@@	3619
tto	3619
lebten	3619
mutter	3617
Ale@@	3617
Geistes	3617
hör@@	3616
olen	3615
Play	3614
Symptom	3613
spiegel@@	3613
adul@@	3612
29-@@	3611
öses	3610
roman@@	3609
late	3609
stätten	3609
File	3609
sit@@	3609
Tschechischen	3609
Wissens@@	3609
pil@@	3608
mod	3608
Day	3608
ake	3608
arbeiteten	3608
2000-@@	3607
CK	3607
gesundheit	3606
ras	3606
Songs	3606
′	3605
Swe@@	3605
gedreht	3605
Vermeiden	3604
gemi@@	3604
Schäd@@	3604
sollt	3604
Ps	3603
Fro@@	3603
kriterien	3602
sammlungen	3602
Gewinn@@	3601
Vertretung	3601
Nation	3601
rich	3601
einla@@	3601
01.@@	3601
Spannung	3600
Brenn@@	3600
Leser	3600
teilnahmen	3600
Tierarten	3600
Eigentlich	3599
leistet	3599
anzubieten	3599
breites	3598
Johann	3598
isierung	3598
viol@@	3598
requ@@	3597
trages	3596
Traditionen	3596
höhlen	3595
UN-@@	3595
vollem	3595
2007-0@@	3595
Etagen	3594
einzustellen	3594
Kälte@@	3594
Projektes	3594
lagen@@	3594
Polymer@@	3593
ST-@@	3593
Föderation	3593
welch	3593
ams	3592
Fax-	3592
Produktivität	3592
olo	3592
ò@@	3591
ast	3591
Plo@@	3591
operi@@	3591
zugeordnet	3591
269	3590
zeitraums	3590
LC	3590
loser	3589
att@@	3589
gemütlichen	3589
df@@	3588
magazine	3588
his	3586
folg	3586
eingesetzten	3586
starkem	3586
option	3585
wach@@	3584
bahn@@	3583
effizienten	3583
mot@@	3583
198	3583
ua	3582
Zuerst	3582
arch@@	3582
sur	3582
Pierre	3582
ots	3581
Nationalpark	3581
studierte	3581
Arme	3581
1981	3580
Aktien	3580
Helsinki	3580
MAG@@	3579
all-@@	3579
allo@@	3578
Tourismus@@	3578
Weisheit	3578
definieren	3578
griff	3578
kehren	3577
GES@@	3577
wachen	3576
station@@	3576
spät	3576
Schwarz@@	3575
Holland	3574
Erkenntnis	3574
Institution	3572
soli@@	3572
änder	3572
tum	3571
gültigen	3570
Prüfen	3570
dion	3569
Erwerb	3568
bool	3568
rollen	3567
Ausarbeitung	3567
sozialer	3567
terium	3566
Umweltschutz	3566
Stress	3564
bestä@@	3563
vereint	3563
räu@@	3563
rent	3563
Meinungen	3562
Medical	3562
herkömmlichen	3562
angebotenen	3561
ison@@	3561
bedeckt	3561
ült	3560
kommende	3560
BH@@	3560
Folien@@	3559
möglichkeit	3559
Grupp@@	3558
War	3558
bös@@	3558
ßer	3557
SAT@@	3557
sahen	3556
festzulegen	3556
297	3556
Net	3555
berät	3554
Lauf	3554
Geschirrspülmaschine	3553
293	3553
herstellt	3553
size	3553
voran@@	3553
Pir@@	3553
kü@@	3552
Therapeu@@	3551
einzelner	3550
umfang	3550
loses	3549
schaf@@	3549
Aust@@	3548
Gegner	3547
betonen	3547
Räumen	3547
Mehrwertsteuer	3546
Kart@@	3546
KIN@@	3546
180@@	3545
erarbeitet	3545
Modernisierung	3545
AW@@	3545
heimer	3545
Job	3545
Vertriebs@@	3544
sv@@	3544
Sales	3543
währ@@	3543
Playa	3543
ille	3543
Fahrrad@@	3543
St	3542
stration	3541
Ideal	3541
flamm@@	3540
Weltkrieg	3540
Puls	3540
terin	3540
31-@@	3539
beschleunigen	3539
ttung	3539
Π@@	3539
Fix@@	3539
gegenseitig	3538
OT@@	3538
Mann@@	3538
Geschäftsjahr	3537
bevorzugt	3537
warm	3537
Pic@@	3537
gefährdet	3535
XXX	3535
Psychiat@@	3533
Beri@@	3533
è	3533
317	3533
Feststellung	3532
Toskana	3531
Rezept	3531
geheilt	3531
comments	3531
mehrmals	3530
viertel	3530
2x@@	3530
ding@@	3529
brüchen	3529
GS	3528
übrigens	3528
Fan@@	3528
profil	3528
Fahrrad	3528
einigungen	3527
schlaf@@	3526
abschluss	3526
Kran@@	3526
PN@@	3526
Mac@@	3526
ühren	3524
beseitigen	3524
gewachsen	3523
Vietnam	3523
stärk@@	3522
dren	3522
einigte	3521
ra-@@	3521
sert	3521
stattgefunden	3521
Trin@@	3520
Bremen	3520
iter	3519
optimiert	3519
323	3518
Frauen@@	3517
line-@@	3517
Zwar	3517
investieren	3517
bandliste.de	3517
Technologie@@	3516
Feu@@	3516
Mittelmeer	3516
raschen	3516
Wat@@	3516
begrüße	3515
kapazität	3514
aggressi@@	3514
wiederkehr@@	3513
beeinflus@@	3512
Ganzes	3512
FC	3512
Compare	3512
Miner@@	3511
mieren	3510
Beratungen	3510
resulti@@	3510
fester	3508
beratung	3508
die-@@	3508
vermehrt	3508
ausländischen	3508
bot	3507
Internetseite	3506
ographi@@	3506
kenn@@	3506
Touren	3506
sprüfung	3506
Vorstellungen	3506
tas	3505
japanischen	3505
LT	3504
Sekret@@	3504
eit	3503
Days	3503
401	3502
deckung	3502
Umsatz@@	3501
unterschied	3501
ems	3500
Fix	3500
Komplex@@	3500
Kaiser	3499
freundlichen	3499
technisch	3499
Intervention	3499
Schnitt@@	3498
ästhe@@	3498
liges	3497
perio@@	3497
Erfindung	3497
volles	3497
strengen	3496
block	3496
Schal@@	3495
NG@@	3495
IMG	3495
Resultat	3494
quality	3493
informa@@	3492
igem	3491
Informationstechnologie	3491
SI-@@	3491
zentral@@	3489
traf	3489
Herz-Kreislauf@@	3489
Indem	3488
NH@@	3488
ands	3488
österreichischen	3488
stock@@	3487
aktives	3487
King	3486
Paulus	3486
ökonomischen	3486
riesigen	3486
225@@	3486
Eigenschaft	3486
unt@@	3485
eurer	3485
stil	3485
HOME	3483
1944	3482
wing	3482
Stri@@	3482
benannt	3481
verlaufen	3479
2.1	3479
christlichen	3478
südlichen	3478
Trock@@	3478
solch	3478
Event@@	3477
verdient	3477
ques	3477
Eigentümer	3476
zulässig	3475
steckt	3475
Beruf	3475
much	3475
TL@@	3475
geleg@@	3474
Erden	3474
Drittländern	3473
biologischer	3473
enz-@@	3473
fy	3473
phän@@	3473
abgerufen	3472
315	3472
Dolomiten	3472
28.@@	3472
296	3472
einmalig	3471
REN@@	3470
Co-@@	3470
Lokale	3469
anger@@	3469
Geburtstag	3469
Seen	3468
Fotokopiereinrichtungen	3468
No.	3467
nehmen@@	3467
gefällt	3466
380	3466
bemerkt	3466
Dünn@@	3466
Altersgruppen	3465
499	3465
videos	3463
SQ@@	3462
Datenschutz	3460
behaglich	3460
press	3459
letztlich	3459
Blumenstrauß	3458
herrscht	3458
skrank@@	3457
optimieren	3457
ftet	3457
gefüh@@	3457
Vortrag	3455
zö@@	3455
Mark	3455
erbare	3455
erli@@	3455
behaupten	3454
Italienisch	3454
eigenschaften	3453
Residence	3453
erei	3453
öffentlicher	3453
verletzungen	3453
sper@@	3452
Ema@@	3452
Rechner	3451
arische	3451
een	3451
anzunehmen	3451
verkehrs	3450
isActive	3450
demie	3449
8,0	3448
kungen	3448
problem	3447
aufhören	3446
50.000	3446
Gesetzgebung	3446
Pilot@@	3446
Psycho@@	3446
Bauern	3445
aktualisierte	3445
OB@@	3445
Füll@@	3445
versicherung	3444
00AM	3443
fel	3443
artik@@	3442
akzep@@	3442
Price	3442
Festivals	3442
PC-@@	3441
Map	3441
krank	3441
Thor@@	3441
1976	3440
herstellen	3440
schöner	3439
2008-@@	3439
470	3438
Albert	3438
Einkommen	3438
gefährliche	3437
wischen	3437
verein@@	3437
lass	3436
sich@@	3436
chemi@@	3436
Samen	3435
Evaluation	3435
t-	3435
ausreichender	3435
aufzubauen	3435
töten	3435
Überlegungen	3435
Adressen	3434
match	3434
CO2	3433
Tode	3433
1978	3433
Leidenschaft	3432
richtlinie	3432
fahrer	3432
Motto	3432
Energieeffizienz	3431
stimme	3431
1050	3430
Ora@@	3430
Marokko	3430
Frucht@@	3429
Rock@@	3429
Rabatt	3429
endeten	3428
statt@@	3428
länger@@	3427
210@@	3427
Geheim@@	3426
blick	3426
Online-Buchung	3426
unkompli@@	3425
Metall	3425
air@@	3425
G1	3425
fehlender	3423
Abkommens	3422
Sonn@@	3422
271	3422
PU@@	3421
dä@@	3420
Errichtung	3419
veröffentlichen	3419
anwen@@	3419
Ski	3419
fügte	3419
2006-0@@	3418
barkeits@@	3418
fielen	3418
verdienen	3418
incl	3418
ACT	3418
456	3418
O.@@	3417
anmacht	3417
1.2	3417
Auflagen	3417
drin@@	3416
Aspekten	3415
Hill	3415
Berat@@	3414
beabsichtigt	3414
dea	3414
Europa@@	3413
part	3413
fünften	3413
access	3412
biologisch	3412
Automodelle	3412
begegnen	3412
Turm	3412
ф@@	3411
Hung@@	3411
eu	3410
anre@@	3410
bler	3410
Polyester	3410
Fließ@@	3410
minutes	3409
gegenwärtige	3409
Lust	3409
az	3409
Beamten	3409
stellungs@@	3408
Genauigkeit	3408
Bör@@	3407
Release	3407
2.2	3407
halb	3406
Dunkel@@	3406
Rohr@@	3405
Strahlung	3405
Hochschul@@	3405
Designer	3405
zentraler	3405
mmel	3403
brachen	3402
lasse	3402
ordnete	3401
OG	3401
absichti@@	3401
123@@	3401
religiösen	3400
translation.php	3400
erhol@@	3399
urs@@	3399
240@@	3398
Vermietung	3398
Erbe	3398
Black@@	3398
PK@@	3398
stiegs	3398
Deck@@	3398
Wasch@@	3398
too	3397
Besitz@@	3397
übergehen	3397
Betriebssystem	3396
Berührung	3396
Sektoren	3396
raums	3396
gegeb@@	3396
CD-@@	3395
Hütte	3395
bewältigen	3395
Netzwerke	3394
Haar	3393
Kun@@	3393
Brussels	3392
Sat-TV	3392
Stühle	3392
Karten@@	3390
Intelligenz	3390
Malerei	3390
Kreativität	3389
Stoffwechsel	3389
Genf	3389
spiegelt	3389
sichtigen	3389
Grünen	3389
Schicksal	3389
klingt	3389
ovi@@	3389
Modellen	3388
cted	3388
laufs	3388
Ed	3388
nischen	3386
yo	3386
Herstellungs@@	3386
Interpretation	3386
bran	3385
verkehrs@@	3385
Director	3385
zed	3383
wen	3383
jugend@@	3383
Kil@@	3382
3.1	3382
365	3382
Ñ@@	3382
Rahmenbedingungen	3381
schü@@	3381
Argentinien	3381
Elektronik	3380
ativ	3380
Log@@	3380
Wassers	3380
ii	3379
strah@@	3378
ausgezeichneten	3378
178	3378
zwecken	3377
gelingt	3377
Viel	3377
abzugeben	3376
relation	3376
kür@@	3376
Emissionen	3375
OP	3375
ELL@@	3374
Normalerweise	3374
atten	3373
eingebracht	3372
Respekt	3371
aufgehoben	3371
Mobilisierung	3371
win	3371
Zentren	3370
führungen	3370
ältesten	3370
girl	3369
abnehmen	3369
ausüben	3369
LAND	3369
Cho@@	3369
tis@@	3368
GPS	3368
süd@@	3368
Marktes	3368
dreht	3367
Festplatte	3367
Behr@@	3367
Einfuhr	3367
Card@@	3366
Gebühren@@	3365
startet	3365
mur@@	3365
χ@@	3365
davor	3364
xion	3364
1975	3364
Security	3364
27-@@	3363
ECU	3363
gewohnten	3363
verwiesen	3363
illen@@	3361
Konkurrenz	3361
Konzepte	3361
tren@@	3361
Mum@@	3361
Ohr	3360
Müller	3360
down	3359
netes	3358
ku	3358
korrigiert	3358
brand	3357
AI@@	3357
junger	3356
Handlungen	3356
y.com	3356
Raten	3355
ī	3354
onal	3353
90-@@	3353
Odgovor	3353
Vermehr@@	3353
Mand@@	3353
ätz@@	3352
zusehen	3352
Schnee	3352
gesund	3351
432	3351
Attraktionen	3351
Gewinner	3350
anwendungen	3350
Verpackungs@@	3350
186	3350
Widerspruch	3350
Konzern	3348
folgendem	3348
Wunder@@	3348
cha@@	3348
Oslo	3347
Begegnung	3347
effe@@	3347
Vereinigung	3346
zeich@@	3346
tikel	3346
wissenschaft	3346
.08.2015	3345
Flüge	3345
sichert	3344
wü@@	3344
о	3343
bestens	3343
demokratische	3342
22-@@	3342
voran	3342
Abs	3342
entwurf	3341
Sonnenaufgang	3341
ggf.	3341
vorschlagen	3341
services	3341
entscheidung	3341
fo	3340
skarte	3340
aktu@@	3340
1970	3339
Diensten	3336
Überzeugung	3336
Hundes	3336
ruhiger	3336
Beleuchtung	3336
Meerblick	3335
ämpf@@	3334
Möbel	3334
Null	3334
ful	3334
Gemeinsam	3334
stamm@@	3334
ende@@	3333
einschließen	3333
-Datei	3333
Hier@@	3332
gebenen	3332
weises	3332
Satelliten@@	3331
01-@@	3331
Tä@@	3331
auseinander	3331
enswert	3331
265	3330
325	3330
elegante	3330
source	3330
sprechende	3329
PDT	3328
ash	3328
ant-@@	3328
mond	3327
zäh@@	3327
Prozent@@	3327
gum@@	3327
dom	3326
förderung	3326
leichtes	3326
befasst	3325
hinein@@	3324
Kompetenzen	3323
erbracht	3323
zulassung	3323
vall@@	3322
Leucht@@	3322
Eck@@	3322
Ä	3322
wunder@@	3322
Sortiment	3320
werks	3320
isten	3320
progno@@	3319
entschlossen	3319
1600	3319
local	3319
hell	3318
geschlossenen	3318
ologisches	3318
laufender	3318
Einfach	3317
ô@@	3317
75-@@	3317
richtlinien	3316
Stadien	3315
Krisen@@	3315
englischen	3315
244	3314
einzuhalten	3314
fuhren	3313
Wilson	3313
Kreditkarte	3313
Chile	3313
Schil@@	3313
aufnahmen	3312
Forscher	3311
Tablets	3311
wandern	3311
Linz	3311
emen	3310
ken-@@	3310
exi@@	3310
lichung	3310
Mut	3309
Handels	3309
Hell@@	3308
vorkommt	3308
José	3307
BMW	3307
arg	3306
Coins	3306
.00	3305
ía	3305
Fotografie	3305
Unterricht	3305
dl@@	3305
steh@@	3305
Sei@@	3303
TE@@	3303
364	3303
Tom	3303
Ersuchen	3302
Datenbanken	3302
Krieges	3301
Hauptbahnhof	3301
maler	3301
20.000	3301
409	3301
beruflichen	3300
effizienter	3300
herr@@	3300
opfer	3300
Alk@@	3300
typischerweise	3300
475	3300
default	3300
stem	3299
3.000	3299
sicherer	3299
Garage	3299
FI	3299
Polizei@@	3298
Kostenlose	3298
angel	3298
Verlu@@	3298
bekam	3298
Absol@@	3298
steuer	3298
Palma	3298
hervorragenden	3297
ble@@	3297
gewechselt	3296
Apotheke	3295
passenden	3294
ensi@@	3294
alternativen	3294
Kongress	3294
einsatz	3294
Master@@	3292
Mindestens	3292
einzuführen	3291
б@@	3291
uts	3291
Funktionalität	3291
veränderten	3290
ierungen	3290
Führungs@@	3290
Komp@@	3290
4.7	3290
Pie@@	3290
pic@@	3290
Administration	3290
riebenen	3290
Aqu@@	3290
auflösen	3289
zugeben	3289
dokum@@	3289
Broschüre	3289
Anmelden	3288
lon@@	3287
ols	3287
Keller	3286
aa@@	3286
gemütliche	3286
Kum@@	3286
luft	3286
nder	3285
weltweite	3285
einschlägigen	3285
Pause	3285
NJ	3284
Bran@@	3284
the-@@	3284
Verzehr	3284
ult	3283
Studios	3283
b.	3282
mph@@	3282
Reichweite	3282
ace@@	3282
begleiten	3281
Küchen@@	3281
sog.	3280
ordnungsgemäß	3280
mpfen	3280
Verkäufer	3279
Line-@@	3279
ín	3279
etzt	3279
tta	3279
vern@@	3278
partner	3278
herangezogen	3278
dicht	3278
Annehmlichkeiten	3277
46,@@	3277
bü@@	3277
gemeinschaftlichen	3277
999	3276
Lake	3276
kommission	3275
GB@@	3275
HErrn	3275
gelben	3275
befolgt	3275
erie	3273
resi@@	3273
Toten	3273
aks	3273
BC@@	3271
Kolo@@	3271
ehl@@	3271
stufen@@	3270
berührt	3269
verschlechter@@	3269
Vorder@@	3268
278	3268
2014-@@	3268
wirtschafts@@	3267
Organ	3267
Rie@@	3266
angebote	3266
cien@@	3266
nachhaltig	3265
Felsen	3265
Übergangs@@	3264
520	3264
mierten	3264
FA	3263
fing	3262
vorgesehene	3262
sieg@@	3262
HP	3261
schwach@@	3261
eile	3261
ji	3260
--------@@	3259
begannen	3259
Wolken	3259
ali	3259
anzuzeigen	3259
en.wikipedia.org	3258
ungeachtet	3258
OX@@	3258
trug	3257
Energy	3257
Aktuelles	3257
SAP	3256
Nerven	3256
kunden	3256
Außer	3256
IH@@	3256
266	3255
72@@	3255
www.gstadt.de	3254
223@@	3254
IK@@	3253
IX@@	3253
307	3253
Bohr@@	3252
onischen	3252
Schulung	3252
aden@@	3252
Nahen	3252
Skala	3251
west	3251
Nr.0@@	3251
vierter	3251
Zeichnungen	3250
uten@@	3250
Sohnes	3249
Brau@@	3248
wn@@	3247
erneuert	3247
Wachstums	3246
UV-@@	3246
Area	3245
7000	3245
Water@@	3245
hangs	3245
Ordner	3244
schwächen	3243
anna	3243
schätzung	3242
Phänomen	3242
zeitlich	3242
zien	3241
legten	3240
deines	3239
lebte	3239
Walter	3239
enseite	3239
Organismen	3239
Migration	3238
erfassen	3237
ahn	3237
Golf@@	3237
dauerhaften	3236
lasten	3236
215@@	3235
eingebunden	3235
zeige	3234
flug@@	3234
Nichtraucherzonen	3234
Zwangs@@	3234
tour	3233
Finger@@	3233
Kontaktieren	3232
Orts@@	3232
frische	3231
Designs	3231
Klebe@@	3230
Schlaf	3230
Monte	3230
steigende	3230
projects	3229
komplizierten	3229
facilities	3229
Ls	3229
LED	3228
Wurzeln	3228
bildungs@@	3228
entworfen	3227
Food	3226
moderner	3226
Künstlern	3226
241	3225
wild	3225
Dipl@@	3225
Möchten	3224
eits@@	3224
wesentlicher	3223
leere	3223
Menschenrechts@@	3222
agentur	3222
unterteilt	3222
implan@@	3221
Flüchtlinge	3221
Klassen@@	3221
Europäer	3221
iPad	3221
tischem	3220
Client	3220
8-0@@	3219
Boulevard	3219
Michel	3219
Touristen@@	3219
Immobili@@	3219
langsamen	3218
vielfältigen	3218
Ausnahme@@	3217
flexible	3217
Rec@@	3217
head	3217
lenken	3216
dürften	3216
sili@@	3216
Halbjahr	3216
gestützt	3215
Afghanistan	3215
Verbot	3215
ual	3215
Jer@@	3214
Perspektiven	3214
Osteuropa	3214
take	3214
Para@@	3213
eht	3213
Geschäften	3213
neigen	3213
weiss	3212
Read	3212
Erwachsenen@@	3211
stärksten	3211
Kosovo	3211
kam@@	3211
Handy	3211
automati@@	3211
Säuge@@	3211
dt@@	3210
entre@@	3210
Hören	3210
offen@@	3210
ohnen	3210
Daraus	3210
gewann	3209
mitglied	3209
Lateinamerika	3209
nachstehend	3209
Vag@@	3209
Adobe	3208
332	3208
öst@@	3208
Tagungs@@	3208
Aro@@	3208
Kandidaten	3207
Scher@@	3206
säule	3205
Deswegen	3205
Eigentümern	3205
Weihnachten	3205
vorhaben	3205
heilen	3204
Service-@@	3204
schädlichen	3204
vesti@@	3204
Insel@@	3203
vance	3203
olog@@	3203
GF@@	3203
80-@@	3202
1.html	3202
Dokuments	3201
deut@@	3201
ala@@	3200
Korruption	3198
Knoten	3198
Ky@@	3198
habers	3197
überwinden	3197
abgesehen	3197
ungstechnik	3196
etti	3196
Abschluß	3195
Benachrichtigen	3194
Power@@	3194
frühe	3194
de.@@	3194
Vall@@	3193
Love	3193
Energi@@	3193
Führ@@	3192
orientiert	3192
Info@@	3191
elf	3190
Over@@	3190
Eis	3190
dienstleistungen	3190
pp	3189
Physi@@	3189
Verband	3187
direktem	3187
eff@@	3185
stoppen	3185
625	3184
dierte	3184
Rechten	3183
spers@@	3182
Fabrik	3182
computer@@	3182
484	3182
verschieben	3182
verlu@@	3181
erneu@@	3181
aket	3181
siv	3181
Bund	3180
zuführen	3180
höhle	3180
ierungs@@	3179
fügen	3179
ská	3178
ples	3177
mün@@	3177
⋅	3177
aufgezeigt	3176
reitet	3176
go-@@	3176
Für@@	3176
häufigen	3175
sichten	3175
tik-@@	3175
Sicherheits-	3174
Dritt@@	3174
bia	3174
mache	3173
bst@@	3173
Laufzeit	3173
einheitliche	3171
chri@@	3171
Neg@@	3171
cturing	3171
scheibe	3171
Android	3171
kommerziellen	3171
Regen	3170
Ausübung	3170
gang@@	3170
empfehlenswert	3169
0,000	3169
6.5	3169
rischer	3169
Maß@@	3168
space	3167
liefer@@	3167
ski@@	3167
Debian-@@	3167
reinen	3166
Cube	3164
stung	3164
tatsächlichen	3163
Gegen	3163
west@@	3163
macher	3162
identifizieren	3161
Pflanz@@	3161
LOG@@	3161
ingern	3161
genommene	3161
elektro@@	3160
zusammenarbeiten	3160
Jazz	3160
eus	3160
Sämtliche	3160
Il	3160
teilzunehmen	3160
Szene	3160
ст@@	3159
von-@@	3159
Ausgehend	3159
YS	3159
jas	3158
313	3157
XVon	3157
personen	3156
aussch@@	3156
Mö@@	3156
nehme	3155
ral@@	3155
samt	3155
tte	3154
347	3154
transportieren	3154
Segment	3153
-Sitz@@	3153
offer	3152
Marketing@@	3152
Taxi	3152
gebor@@	3151
Arbeitsmarkt	3151
maß	3150
Kopenhagen	3150
Mik@@	3150
Schalt@@	3150
Kette	3150
übersetzt	3150
kunden@@	3149
Song	3149
eigentlichen	3148
387	3148
wes@@	3148
gra	3147
Panorama	3147
zweiter	3146
bestand@@	3146
künstlerischen	3146
fax	3146
Pilze	3145
neuem	3144
Space	3144
spenden	3144
zerstören	3143
Chel@@	3143
kk@@	3143
1972	3143
lebende	3143
Smart@@	3142
schönes	3142
ausgehend	3142
interessanten	3141
Kä@@	3141
zelle	3141
mind	3140
ero	3140
onale	3140
Press	3140
Diskriminierung	3139
tech	3139
Video-@@	3139
unen	3139
anzahl	3139
flache	3138
empfängt	3138
Bit	3138
Cast@@	3137
hinauf	3137
should	3136
gängigen	3136
aufgerufen	3135
wohn@@	3135
wertet	3135
Zugabe	3135
Suchmaschinenrobotern	3135
Allianz	3134
sions	3134
häusern	3134
Melan@@	3133
mpf	3133
spitz@@	3133
Mehrere	3133
vermögens	3133
führender	3133
chig	3132
Süd	3132
gängen	3132
Jean	3131
pern	3131
Mir	3131
Friedrich	3130
einiges	3130
steck	3130
Gil@@	3129
kirche	3129
Schrei@@	3129
ental	3129
Investition	3128
sequ@@	3127
Ähnliche	3127
fließen	3127
schlechter	3127
eriert	3127
Süß@@	3127
Kommt	3126
hand	3126
Audio@@	3125
runden	3125
could	3124
ca-@@	3124
fügt	3124
reser@@	3124
ological	3123
252	3123
Besonderheiten	3123
Neuen	3123
Tax@@	3123
277	3123
Auß@@	3123
Market	3122
Ebenfalls	3122
öffnete	3122
eingerichtete	3122
BW@@	3122
Abschnitten	3122
kas	3122
zelt	3122
intensiven	3121
fied	3121
befestigt	3121
Stoffen	3121
hard@@	3120
Bäume	3120
büro	3119
gessene	3119
Betra@@	3118
Vereinfachung	3118
sicherheits@@	3117
wirtschaftlicher	3117
entscheidenden	3117
musi@@	3117
Magazin	3117
Hilfsmittel	3117
bestellt	3116
weißem	3116
regelung	3116
12.5	3115
sank	3115
272	3115
Muss	3115
bet	3115
stiger	3114
Ausprä@@	3114
Wörter	3114
8,2	3114
angeht	3113
veranstaltet	3113
Einmal	3113
zum@@	3113
Cross@@	3113
Rech@@	3112
Tagesansicht	3111
gewähren	3111
Käse	3111
plätzen	3111
jahres	3110
EWR	3110
modelle	3109
verständigen	3109
chirurgische	3108
Gebäudes	3108
567	3107
punkt@@	3107
verleiht	3107
344	3107
Euro-@@	3107
Verwirklichung	3105
Schiffen	3105
moodle	3104
www.amarillasaustin.com	3104
Tür@@	3103
Executive	3103
admin	3103
operativ	3102
Erkennung	3102
diverse	3101
reine	3101
Wes@@	3100
paket	3100
besorgt	3100
Zivilgesellschaft	3100
freigegeben	3100
Piazza	3100
besetzt	3100
inta@@	3100
3.5	3099
restaurants	3099
Transaktionen	3099
lichkeit@@	3099
Cla@@	3098
sst	3097
USS	3097
geschwä@@	3097
ansonsten	3097
discher	3097
optional	3097
e-mail	3097
KÃ	3096
Einblick	3095
Verfolgung	3095
aufrechtzuerhalten	3095
water	3095
uman@@	3094
Hühner@@	3094
schuhe	3094
denkt	3094
Herstellers	3093
Zink	3093
ebenen	3092
sw@@	3092
arium	3092
fertigung	3092
Realisierung	3091
militärischen	3091
Zeilen	3091
Fron@@	3091
stabili@@	3090
illa	3090
ernsthafte	3090
Ein-	3090
zweit@@	3090
Schuhe	3089
ès	3089
russische	3089
kritischen	3089
Äquival@@	3088
reis	3088
befin@@	3087
Canada	3087
ausgestellt	3087
analysen	3087
asse	3086
ausführlich	3085
Platte	3085
relax@@	3085
Mondaufgang	3085
beliebt	3084
EG-@@	3083
Ele@@	3083
kauf@@	3083
rine	3083
262	3083
Erfolge	3083
dc@@	3083
Gefängnis	3082
ACH	3082
Marketing-@@	3082
schaff@@	3082
stütz@@	3081
Rosa	3080
orientierte	3079
bg-bab	3079
302	3079
Monduntergang	3079
inischen	3078
Farm	3078
viel@@	3077
Bauern@@	3077
ausgewiesen	3077
Oper	3076
Netzes	3076
abgeleitet	3076
Athens	3076
dei	3076
Lou@@	3075
Dorf@@	3075
DD@@	3075
Zeitplan	3075
vin	3074
willkür@@	3074
─	3073
Kuchen	3072
Sammel@@	3072
ader	3072
www.fotos.sc	3072
03-@@	3072
Hampshire	3072
196@@	3072
inforMARE	3071
bc@@	3071
Trainings@@	3071
Parks	3071
Zweiten	3070
beschleunigt	3070
prozess	3070
Glück@@	3070
verschieden	3069
beiträgt	3069
Io@@	3069
292	3068
Inhalten	3068
Dein	3068
Bedingung	3067
1974	3067
USB-@@	3066
gelt	3066
alisi@@	3066
Kaffe@@	3066
such@@	3065
Flan@@	3065
geschafft	3065
wu@@	3065
längerer	3065
verabschiedete	3065
kologie	3064
gene@@	3064
Jihlava	3064
ney	3064
verschlechtert	3064
Maßstab	3064
östlichen	3063
since	3063
Pun@@	3063
durchgeführte	3062
TW@@	3062
Flughäfen	3061
sicherung	3061
zel	3061
fat@@	3061
Zufriedenheit	3061
new@@	3060
group	3060
Bul@@	3060
britische	3060
always	3060
Wellen	3059
Erscheinung	3059
mechanischen	3058
both	3058
befand	3058
3.0	3058
nier	3058
Karlsruhe	3057
Etiketten	3057
Handlungs@@	3056
gbar	3056
án	3056
Patri@@	3056
Sche@@	3056
463	3055
ckten	3055
Ihm	3055
Vorgaben	3054
mc@@	3054
Abweichung	3054
Erstellt	3054
systematisch	3053
ehren	3053
kostenloser	3053
bester	3053
positives	3053
sla@@	3052
Leist@@	3052
ny@@	3051
fisch	3051
ye	3051
197	3050
gabe@@	3050
zukommen	3050
Sanktionen	3050
Verhütung	3050
Span@@	3050
Spor@@	3050
richt@@	3050
kon	3049
Klavier	3049
10,00	3049
Ø	3049
zahlungen	3048
Alternativen	3047
kW	3047
ful@@	3047
pflanzen	3047
ths	3047
Zug@@	3046
kopf	3046
390	3046
1x	3045
bit.ly	3044
Fristen	3044
Psychologie	3044
Später	3044
ow@@	3044
blichkeit	3044
ements	3044
Klang@@	3044
zeug@@	3043
Immo	3042
do-@@	3042
rieb@@	3042
Drucker	3042
realisieren	3042
Athen	3041
angekündigt	3041
host@@	3041
BESCH@@	3040
Weiterbildung	3040
Steck@@	3040
[...]
