"	21843644
,	18701442
the	16766014
.	15867720
of	11992198
/	9357734
and	9094844
in	7575640
to	7451892
)	6544707
(	6441968
:	6358342
a	5232641
is	4507131
with	4034098
for	3800383
The	2828290
be	2667636
or	2644267
on	2334539
1	2079972
-	2046351
that	1960136
are	1892234
not	1862616
as	1820678
you	1787331
by	1521197
mg	1520105
patients	1402574
%	1385674
at	1354685
was	1350191
from	1269540
have	1254691
your	1123065
should	1117446
it	1093102
an	1093054
this	1059948
2	993630
has	969585
will	875848
In	856769
been	832783
10	827651
dose	820352
can	818322
which	807818
may	804813
use	796020
+	765588
treatment	735125
•	733347
I	727900
other	722364
?	717989
3	693839
were	690439
EU	690001
;	686785
ml	673522
used	656981
’	639441
all	636829
http	623719
4	589410
also	580540
if	575824
one	574063
s	566027
_	558779
more	550062
5	547829
If	537884
see	535430
than	520023
after	514680
It	509782
This	508394
who	493012
=	486320
12	484673
any	483910
we	476048
7	469726
tablets	462839
no	455615
injection	451822
20	448442
blood	445563
A	433404
30	426364
time	426147
*	425805
00	411369
its	407649
6	404507
when	402196
their	400471
>	393808
doctor	391962
effects	390463
our	386003
up	381762
solution	381670
100	378820
studies	377300
but	377049
]	375007
only	373888
15	373332
–	373305
€	371226
11	370436
during	369581
these	365171
about	360767
years	360080
0	355191
's	355147
!	355123
[	349115
into	346554
16	344957
day	341887
new	338556
50	337327
take	333873
they	331357
section	331245
European	329854
had	329575
8	325686
“	325566
clinical	323588
such	322368
-@@	316523
&	316455
recommended	314555
18	313877
17	313234
first	313188
<	312546
must	306521
”	305348
there	304874
following	300865
information	300677
14	299526
2016	298754
contains	296890
side	296451
risk	292122
25	291393
two	290802
'	289601
data	287222
...	285352
out	284268
given	283381
You	281794
between	276575
before	274733
For	273883
days	273684
C	272952
products	270893
study	269424
What	269368
very	268711
24	267146
B	266241
increased	263969
available	263250
07	262439
therapy	261314
do	258639
including	257652
13	254327
over	250675
administration	248901
product	248212
system	248044
daily	246658
he	246479
some	246254
kg	246097
disease	243723
9	242746
01	241537
#	241415
21	240736
06	240659
his	239299
medicines	236623
We	234597
them	231801
most	231527
08	230575
22	229720
Tel	228775
people	228483
weeks	227737
m	227717
02	226718
reported	226706
taking	225468
well	225201
treated	224610
19	220957
per	220929
reactions	220904
us	219217
hours	218986
vial	216601
active	216423
x	215785
children	215644
so	214115
like	212482
oral	211113
»	209954
pain	209121
number	208992
without	208622
within	208545
levels	207857
associated	207082
skin	204996
There	204900
under	204714
28	203979
40	203505
administered	202755
04	202428
medicinal	201813
severe	201132
taken	199371
age	199035
would	197867
combination	196475
23	195866
body	195661
increase	195270
site	194919
03	194914
work	193544
months	192588
de	192535
°	192054
renal	191978
using	190477
doses	190444
those	189397
nights	188216
observed	188157
high	186425
times	185836
need	185543
am	185163
tablet	184611
patient	184560
each	184015
human	182476
05	182291
symptoms	182099
year	181169
Do	181124
effect	180280
safety	179819
insulin	179584
o	177120
found	177071
g	176490
EMEA	176078
en	175257
infusion	173059
where	172790
what	170270
same	169488
syringe	169477
now	168890
compared	168428
through	167750
water	167544
less	167290
No	167220
liver	166798
group	165855
many	165416
both	165217
once	164873
Commission	164422
made	164422
medicine	163651
t	162292
09	161856
common	160416
make	160323
i	160064
type	159188
area	157884
2015	157804
adverse	157320
every	157281
As	156069
how	155965
containing	155720
heart	155303
my	155286
60	154816
does	154732
being	154595
because	154530
plasma	154371
IU	153895
here	153752
three	153586
PM	152362
possible	151235
then	151200
www.@@	150505
S@@	150327
experience	149692
against	147938
26	147820
disorders	146891
placebo	146511
order	145998
way	145692
single	145307
How	144322
n	143841
least	142505
l	141839
place	141620
known	141592
TO	141527
development	141002
27	140699
low	139687
Patients	139647
due	139281
could	138791
based	137547
considered	137259
events	136678
impairment	136450
film-coated	136167
important	135618
K@@	134702
infection	134615
29	134009
B@@	133123
cause	132960
2008	132735
room	132099
different	132029
function	131466
Germany	131034
km	130505
p	130148
‘	129606
part	129470
And	129305
week	129289
P@@	129180
pre-filled	129167
May	128672
level	128424
Each	128151
case	127811
shown	127650
even	127197
sat	127150
women	127062
31	126951
These	126899
2010	126630
h	126341
However	126110
weight	126087
C@@	126043
below	125924
pressure	125636
Europe	125491
≥	125328
80	125023
After	124788
2009	124627
2007	124537
powder	124482
just	124276
response	124244
efficacy	124226
results	124128
T@@	123782
until	123704
D@@	123476
approximately	122707
E@@	122640
receiving	122449
special	122202
total	122182
When	122070
free	121894
45	121621
trials	121239
since	121226
G@@	120860
s@@	120271
necessary	120187
cases	120054
k@@	119993
get	119702
page	119115
To	118918
vaccine	118875
world	118485
M@@	118427
49	117982
end	117894
needle	117534
acid	117006
200	116807
2006	116800
me	116662
sodium	116660
es	116606
e.	116383
un@@	116229
provided	116124
able	116113
food	116091
F@@	115446
full	115302
small	115051
further	114434
last	114044
right	113626
H@@	113606
L@@	113514
4.4	113506
currently	113477
hepatic	113201
problems	113174
cells	113173
potential	113004
90	112832
while	112656
A@@	112495
therefore	112390
rate	111984
allergic	111732
support	111642
in@@	111583
period	111227
control	111152
«	110927
back	110922
48	110617
33	110471
32	110445
Your	110286
ed	109898
re@@	109884
2011	109713
Posted	109532
did	109228
substance	109173
received	108944
All	108569
conditions	108339
concentrations	107874
immediately	107694
higher	107282
long	107260
reduced	107209
seen	106936
e	106769
8@@	106530
studied	106519
N@@	106384
R@@	106192
contact	106185
good	106178
above	106134
capsules	106041
9@@	106019
56	105777
35	105582
Member	105552
view	105534
pack	105336
infections	105117
V@@	105072
exposure	105014
THE	104920
occur	104817
white	104690
2013	103855
States	103837
2012	103431
own	103415
er	103344
twice	103223
find	103046
change	102994
life	102870
2014	102695
t@@	102539
At	102109
e@@	101667
similar	101456
significant	101118
range	100674
result	100560
300	100006
.@@	99904
pm	99855
d@@	99492
set	98941
0.5	98827
marketing	98378
n@@	98183
main	98159
her	98036
7@@	97961
Hotel	97621
quality	97522
Union	97444
benefit	97164
activity	96999
company	96721
subjects	96658
6@@	96491
failure	96403
suspension	96034
required	95577
4@@	95577
minutes	95538
much	95407
include	95297
service	94896
rare	94709
hotel	94634
pregnant	94597
pregnancy	94368
en@@	94300
cancer	94266
another	94226
reduction	94092
44	94028
ritonavir	94010
m@@	93972
75	93922
too	93921
care	93870
5@@	93739
98	93719
either	93514
adults	93272
der	93216
W@@	93183
related	93092
500	92649
AM	92594
cell	92392
ingredients	92387
2005	92367
micrograms	92314
er@@	92207
help	92194
effective	92145
him	92021
39	91866
34	91734
treat	91540
ON	91514
blister	91437
name	91338
still	91016
called	90624
second	90387
August	90370
serious	90291
France	90212
light	90146
b	90139
cannot	90125
URL	90058
36	90018
best	90012
He	89989
d	89841
mean	89530
b@@	89245
countries	89110
März	88924
150	88860
already	88609
September	88606
down	88392
f@@	88247
z@@	88092
i@@	87726
market	87674
solvent	87646
around	87566
requested	87485
course	87239
normal	87228
400	87153
UTC	87141
Council	87138
specific	87037
D	87010
November	86998
together	86842
clearance	86731
prior	86608
70	86525
changes	86451
CHMP	86435
services	86390
They	86363
start	86297
lower	86261
Committee	86199
al@@	85944
h@@	85831
shall	85750
hard	85702
said	85611
bleeding	85438
United	85383
On	85315
But	84914
GmbH	84797
Therefore	84680
become	84652
One	84522
3@@	84389
authorisation	84335
43	84307
large	84286
appropriate	84071
management	84023
server	83968
addition	83642
42	83540
inhibitors	83357
und	83344
41	83303
next	83120
With	83070
S	83051
loss	82962
moderate	82917
a@@	82874
offers	82813
example	82809
great	82801
form	82716
local	82629
rooms	82352
provide	82298
know	82115
expected	81882
maximum	81804
p@@	81781
95	81659
red	81340
want	81315
g@@	81033
October	81023
pen	80951
O@@	80870
ing	80520
Other	80471
serum	80307
c@@	79877
clear	79862
production	79779
go	79734
2004	79240
international	79139
million	79062
process	78731
city	78594
included	78551
April	78427
tell	78275
stop	78211
.com	78131
y@@	78131
reaction	78122
whether	77902
German	77660
toxicity	77535
min	77482
old	77370
additional	77357
activities	77317
Use	77232
Treatment	77168
intravenous	77041
signs	76944
point	76887
history	76793
c	76622
Mr	76608
four	76317
June	76288
y	76231
please	76175
respectively	76153
46	76069
she	75986
according	75912
hepatitis	75795
test	75198
l@@	75171
mm	75164
means	75049
especially	75033
glass	74989
J@@	74960
2000	74812
controlled	74796
dosage	74774
house	74748
E	74641
New	74594
decreased	74233
particular	74005
growth	73988
PARTICULARS	73970
list	73925
give	73896
alone	73891
individual	73817
application	73764
public	73739
again	73723
APPEAR	73467
action	73452
@	73420
God	73390
working	73353
AUC	73325
…	73274
always	73209
N	73183
July	73117
date	73071
present	72918
March	72816
2@@	72731
w@@	72668
few	72658
line	72604
97	72557
reduce	72378
ensure	72307
²	72248
man	72212
II	72193
show	72155
car	71969
an@@	71757
g.	71684
r@@	71630
IS	71597
bone	71578
come	71527
µg	71485
I@@	71365
o@@	71325
38	71221
Our	71153
away	71088
HIV	70892
47	70806
PVC	70750
52	70746
j@@	70479
open	70458
v@@	70442
10@@	70301
Z@@	70297
37	70252
access	70207
84	70174
report	70130
groups	69984
55	69876
offer	69829
concentration	69805
m2	69784
greater	69730
business	69643
....	69643
OF	69589
S.	69571
ch@@	69540
limited	69529
Very	69441
rash	69390
FOR	69355
continue	69347
on@@	69225
current	69181
population	69163
ers	69136
AND	69090
eye	69041
el@@	69012
dogs	68802
major	68758
decrease	68711
established	68677
e-@@	68439
receive	68423
agents	68306
caused	68256
person	67978
state	67940
general	67817
incidence	67815
non-@@	67736
't	67701
several	67676
al	67400
kidney	67331
indicated	67315
Common	67264
99	67262
cm	67221
vomiting	67119
child	67050
national	66999
measures	66488
file	66476
muscle	66448
medical	66324
certain	66312
areas	66053
vials	66033
baseline	65888
International	65872
Aug	65859
duration	65668
drug	65558
dosing	65443
located	65291
January	65260
1.@@	65195
air	65173
might	64988
die	64888
000	64847
mild	64809
event	64786
starting	64779
amount	64755
off	64689
nausea	64655
Reply	64626
Please	64611
L	64245
month	63844
standard	63796
From	63524
injections	63473
substances	63385
usually	63169
2.5	63118
EUR	63084
Oral	63043
left	62991
es@@	62928
u@@	62872
healthy	62826
particularly	62694
$	62547
frequency	62513
whole	62337
drive	62286
2001	62195
um	62017
Take	61943
ist	61922
December	61904
is@@	61652
M	61458
virus	61350
performed	61298
presented	61178
better	61168
acute	61055
syndrome	61032
country	61023
{	60871
systems	60851
complete	60798
pharmacokinetics	60735
Fax	60689
however	60681
54	60666
1000	60664
2003	60628
monitored	60601
51	60569
real	60476
adolescents	60468
monitoring	60340
Marketing	60284
PACKAGING	60186
experienced	60182
18@@	60175
Number	60136
1@@	60124
ar@@	60086
contents	59884
President	59878
basis	59876
Human	59870
affect	59767
bed	59701
machines	59631
alfa	59559
59	59492
inflammation	59460
field	59419
chronic	59322
250	59293
analysis	59288
u	59137
release	59108
2002	59082
diabetes	59058
65	59002
via	58983
energy	58928
2.@@	58875
bottle	58828
feeling	58743
project	58509
w	58508
social	58387
ability	58269
58	58264
February	58197
primary	58125
}	58107
chloride	58102
animals	58069
Annex	58046
procedure	58010
future	57929
at@@	57923
health	57871
throughout	57755
significantly	57687
HOW	57676
ate	57607
power	57400
volume	57399
demonstrated	57327
caution	57241
X@@	57175
trial	57035
protein	57003
phase	56901
mouth	56875
prevent	56851
temperature	56774
sure	56761
adjustment	56649
various	56556
57	56523
.htm	56476
size	56461
men	56369
approved	56332
rats	56267
lead	56228
Cmax	56172
it@@	56165
IT	56156
put	56096
Winthrop	55999
effectiveness	55902
14@@	55897
close	55821
hand	55806
relevant	55740
technology	55721
swelling	55661
fever	55652
upon	55640
urine	55635
evidence	55597
53	55584
A.	55431
An	55431
today	55376
developed	55286
U@@	55243
adult	55195
develop	54978
4.2	54960
although	54871
breast	54793
WHAT	54781
works	54731
cap	54723
k	54711
milk	54609
protection	54546
package	54515
96	54472
position	54332
st@@	54299
alu	54291
among	54259
often	54187
Y@@	54087
tests	54052
U	54022
fully	53971
policy	53924
H	53906
CPMP	53901
economic	53898
needs	53838
600	53756
table	53661
distribution	53624
creatinine	53595
III	53514
concomitant	53499
See	53496
design	53434
family	53413
1,000	53311
leaflet	53257
clinically	53253
diarrhoea	53247
15@@	53239
disorder	53218
having	53175
value	53031
longer	53024
systemic	52703
think	52688
4.5	52682
74	52667
subject	52551
−	52544
surface	52519
surgery	52354
factor	52331
That	52273
centre	52272
4.8	52233
version	52193
vaccination	52168
13@@	52080
alcohol	52077
reports	52025
12@@	52021
pharmacokinetic	52009
Uncommon	51973
early	51823
as@@	51781
120	51768
During	51767
little	51749
soon	51742
names	51721
Parliament	51718
ID	51573
followed	51566
T	51546
showed	51528
say	51489
16@@	51392
advice	51217
condition	51079
001	51076
V	50969
Since	50945
el	50945
increases	50880
von	50811
breast-feeding	50777
third	50648
class	50641
produced	50593
needed	50587
Group	50556
vitro	50531
sections	50434
applications	50418
land	50416
or@@	50412
OUTER	50377
x@@	50329
em@@	50316
short	50208
By	50201
Kingdom	50182
hour	50148
CYP3A4	50074
tissue	50011
Italy	49863
r	49740
occurred	49734
F	49721
natural	49675
values	49575
makes	49564
game	49465
dizziness	49355
home	49293
General	49263
therapeutic	49018
guide	48872
previous	48870
State	48854
requirements	48831
continued	48741
Ltd	48614
ad@@	48606
overall	48577
research	48497
fact	48483
1.5	48449
O	48413
English	48374
inhibitor	48351
achieved	48301
glucose	48232
ation	48220
added	48124
multiple	48106
subcutaneous	48052
Authorisation	48036
positive	48022
young	48022
building	48009
online	47999
industry	47984
17@@	47982
visit	47976
financial	47943
Al@@	47942
abnormal	47916
website	47892
death	47878
top	47861
account	47748
ia	47685
initial	47574
started	47532
calcium	47471
look	47424
ad	47258
sugar	47226
problem	47185
.de	47144
US	47101
0@@	47066
di@@	47043
Pharma	46939
headache	46934
Berlin	46933
art	46930
rates	46891
am@@	46857
companies	46803
interferon	46787
ro@@	46781
private	46684
points	46634
syringes	46623
yellow	46621
im@@	46520
os	46449
dis@@	46426
face	46424
antibodies	46408
feel	46379
Table	46326
So	46254
far	46251
usual	46152
ti@@	46031
maintenance	45982
Home	45976
aged	45869
Internet	45843
TV	45822
stay	45820
Management	45806
rights	45778
seconds	45772
designed	45672
six	45644
In@@	45639
near	45632
live	45587
elderly	45555
z	45516
price	45506
5.2	45504
things	45396
ab@@	45380
4.3	45325
ed@@	45309
et	45286
avoid	45202
region	45150
P	45090
hypersensitive	45080
listed	45051
programme	45029
ol@@	44995
Some	44847
ic@@	44709
law	44695
ten	44684
10,000	44681
performance	44635
dry	44574
material	44559
Before	44532
3.@@	44503
animal	44477
sea	44383
political	44370
supplied	44343
five	44277
ic	44237
directly	44213
meeting	44211
humans	44201
a-@@	44189
ar	44091
Products	44047
\	43957
Agency	43907
play	43808
pharmacist	43788
types	43783
chemotherapy	43588
likely	43577
metformin	43547
002	43513
user	43506
conducted	43497
authorised	43482
keep	43481
request	43445
box	43444
check	43414
be@@	43399
discontinued	43383
done	43382
capsule	43360
delivery	43327
resistance	43312
20@@	43249
night	43174
content	43164
interaction	42993
Friday	42961
plus	42917
evaluated	42860
Saturday	42828
carefully	42810
reach	42795
v	42745
ac@@	42730
An@@	42679
issues	42613
gets	42598
profile	42513
users	42503
Spain	42458
agreed	42424
hypersensitivity	42393
hypertension	42392
count	42345
UK	42324
double	42294
ag@@	42291
R	42261
provides	42249
5.1	42218
long-term	42126
others	42109
upper	42108
Package	42010
assessment	42004
software	41956
oedema	41949
anaemia	41922
key	41835
os@@	41737
views	41680
800	41620
ver@@	41612
4.@@	41597
00@@	41537
Why	41418
stomach	41400
projects	41392
took	41377
CI	41359
training	41343
itself	41312
et@@	41266
half	41216
veterinary	41189
beautiful	41176
ask	41174
reconstituted	41113
involved	41019
central	41009
yet	41009
allow	40977
alfa-2b	40917
looks	40900
le	40856
Insulin	40852
updated	40851
reconstitution	40837
costs	40824
Here	40802
cartridge	40789
Date	40731
metabolism	40704
unless	40685
ated	40633
aluminium	40556
om@@	40555
More	40543
ago	40539
s-@@	40517
terms	40506
la	40505
generally	40489
1998	40388
really	40382
town	40367
damage	40341
breakfast	40333
für	40324
situation	40314
benefits	40253
average	40212
Product	40167
Article	40158
apartment	40143
©	40098
respiratory	40095
questions	40069
target	39995
Medicinal	39966
solutions	39938
contain	39906
whose	39898
living	39893
later	39888
defined	39885
excreted	39844
paediatric	39793
generated	39787
space	39782
hormone	39773
instructions	39757
depression	39730
—	39723
de@@	39716
scientific	39709
overdose	39705
nature	39612
location	39580
Special	39565
combined	39527
X	39522
eyes	39406
staff	39355
decision	39324
abdominal	39320
members	39302
immune	39288
carton	39265
units	39238
told	39184
code	39180
ri@@	39161
opinion	39142
Following	39109
original	39055
along	38993
text	38974
Then	38917
regimen	38886
address	38849
MAH	38842
0.0@@	38729
program	38725
making	38647
direct	38630
003	38546
den	38543
Board	38537
carried	38523
th@@	38404
K	38386
World	38386
thus	38331
sh@@	38331
matter	38293
ap@@	38292
risks	38283
W	38283
Uhr	38276
1997	38252
parts	38234
®	38234
easy	38223
create	38195
described	38143
cardiac	38045
obtained	38017
indication	38015
il@@	37989
regarding	37952
CVMP	37896
f	37874
mainly	37867
security	37803
role	37793
existing	37788
ine	37781
Hotels	37763
let	37763
comes	37744
transport	37737
technical	37723
intended	37720
us@@	37708
Thursday	37674
read	37612
completely	37599
actually	37594
past	37557
Limited	37546
drink	37538
ec@@	37423
Bayer	37411
difference	37389
Ar@@	37334
i.	37326
reached	37324
lack	37309
enzyme	37304
granted	37237
needles	37219
final	37214
±	37178
modern	37166
responsible	37152
almost	37126
music	37084
procedures	37068
require	37043
something	37014
64	37011
respect	36991
ta@@	36985
Name	36941
lot	36935
don	36928
South	36916
patch	36910
customers	36907
going	36886
leading	36848
environment	36845
prescribed	36843
Day	36831
etc	36821
love	36783
te	36778
authorities	36775
came	36744
Because	36731
question	36721
discontinuation	36716
ladysilvia	36670
suitable	36666
strong	36646
improvement	36601
presence	36590
sector	36504
half-life	36499
drugs	36404
Sch@@	36392
ating	36375
files	36369
AG	36367
professional	36361
enough	36352
unit	36317
prolonged	36260
equipment	36248
why	36244
ul@@	36243
se@@	36109
25@@	36087
stated	36083
looking	36065
University	36064
'@@	36033
61	36018
72	36014
Austria	36005
Re@@	35992
beginning	35990
guests	35935
produce	35922
004	35913
packs	35903
includes	35880
towards	35866
term	35857
adequate	35846
issue	35810
factors	35795
never	35772
highly	35766
sites	35739
rubber	35703
0.@@	35694
ts	35674
film	35617
label	35608
personal	35602
DNA	35558
forget	35496
vision	35422
valid	35394
measured	35331
images	35308
return	35292
notice	35278
iron	35244
tract	35231
1-@@	35220
1,@@	35181
joint	35177
regular	35137
turn	35118
o-@@	35056
injected	35054
Like	34956
follow	34955
ribavirin	34940
storage	34928
trade	34848
persons	34809
ing@@	34808
G	34805
Community	34790
document	34721
La	34718
affected	34705
elimination	34663
meal	34622
advanced	34584
measure	34578
road	34568
facilities	34558
id@@	34541
estate	34521
recombinant	34476
Windows	34467
potassium	34441
button	34436
USE	34360
mixed	34293
transfer	34275
wide	34275
submitted	34267
morning	34266
Humalog	34248
absorption	34229
viral	34208
diseases	34182
held	34161
binding	34145
increasing	34138
USA	34137
op@@	34132
San	34120
device	34118
difficulty	34094
member	34084
developing	34050
equivalent	34044
entire	34040
king	34036
pulmonary	34018
Rare	34006
initiated	33982
blisters	33947
arm	33933
media	33922
hands	33875
attention	33869
agreement	33847
plan	33844
network	33840
book	33837
method	33806
evaluation	33791
prices	33775
language	33771
enjoy	33764
exactly	33706
London	33697
majority	33694
closely	33680
older	33675
rental	33642
versus	33627
Leaflet	33626
phosphate	33592
28@@	33591
urinary	33577
27@@	33492
hotels	33451
interest	33420
image	33415
status	33413
center	33409
shows	33377
visits	33362
median	33317
Sunday	33312
improve	33303
impaired	33259
across	33255
accordance	33207
sch@@	33196
front	33161
separate	33133
Not	33132
ge	33104
adopted	33083
counts	33081
parties	33054
oxide	33011
created	33004
arthritis	32989
ratio	32989
head	32986
apply	32978
vaccines	32935
monotherapy	32907
speed	32898
agent	32893
materials	32892
pl@@	32891
30@@	32871
C.	32870
anti-@@	32857
previously	32856
Sodium	32796
led	32772
team	32767
link	32762
Ireland	32760
2-@@	32757
published	32757
advised	32712
beach	32704
map	32695
frequently	32695
peripheral	32686
requests	32638
Netherlands	32633
um@@	32576
Q@@	32571
randomised	32566
completed	32564
cooperation	32528
lamivudine	32512
species	32489
corresponding	32472
reason	32469
allows	32460
takes	32457
resulting	32352
co-administered	32323
House	32307
operation	32293
PACKAGE	32275
emea.	32273
180	32254
occurs	32244
35@@	32223
concentrate	32188
insufficiency	32186
style	32185
reference	32176
stage	32141
hypotension	32113
als	32059
applied	32041
click	32012
accommodation	32000
Irbesartan	31997
pool	31991
Film-coated	31930
Time	31923
sp@@	31921
interval	31874
Clinical	31842
5.@@	31826
floor	31821
Liprolog	31817
gastrointestinal	31812
adjusted	31796
physical	31792
board	31767
safe	31766
0.9	31742
computer	31734
ates	31726
indicate	31721
meet	31717
round	31713
co@@	31700
black	31694
IMMEDIATE	31682
components	31674
sun	31666
neutropenia	31658
24@@	31648
haemoglobin	31643
85	31640
press	31630
le@@	31609
	31592
3-@@	31584
features	31542
games	31534
im	31517
ant	31517
7.5	31473
Belgium	31378
big	31378
Mar@@	31375
89	31342
infected	31339
City	31335
prevention	31331
kind	31317
e.g.	31285
recent	31248
MINIMUM	31248
believe	31240
y-@@	31226
Information	31220
protect	31214
brain	31187
ting	31186
assessed	31183
son	31147
-2@@	31137
ur@@	31132
whom	31125
Sun	31096
physician	31095
supply	31078
interactions	31049
Free	31046
bl@@	31036
Total	30989
Phone	30983
marked	30959
Always	30958
series	30956
properties	30938
refrigerator	30919
customer	30906
ly	30893
wish	30817
pro@@	30780
Children	30780
id	30775
.jpg	30768
cover	30747
rapid	30725
legal	30690
unknown	30681
repeated	30640
influence	30566
VAT	30533
monohydrate	30518
fat	30505
machine	30495
identified	30493
amp	30408
lactose	30398
66	30393
ever	30385
Tuesday	30369
French	30356
differences	30315
global	30314
oil	30283
card	30274
essential	30249
ung	30249
rest	30244
government	30201
survival	30196
Teva	30191
in-@@	30180
recently	30164
Pregnancy	30146
Monday	30130
practice	30115
Ch@@	30107
impact	30103
call	30066
male	30063
ina	30048
implementation	29980
chest	29978
160	29973
forms	29969
Lord	29965
century	29955
re	29953
YOU	29934
clearly	29923
inject	29914
details	29897
ations	29894
Park	29853
73	29844
.html	29841
step	29832
ig@@	29803
store	29790
Based	29777
Although	29720
preparation	29715
breathing	29711
liquid	29662
pre@@	29655
weakness	29623
1.0	29619
testing	29611
2,@@	29609
Wednesday	29595
6.@@	29592
walk	29587
everybody	29576
125	29566
outside	29565
67	29563
B.	29555
expiry	29543
themselves	29520
enzymes	29505
Read	29494
19@@	29486
proposed	29470
commercial	29469
recommend	29451
laboratory	29447
th	29407
difficult	29390
search	29361
Now	29360
construction	29358
IV	29357
SPC	29356
hydrochlorothiazide	29356
26@@	29352
..	29339
ng	29301
correct	29291
regard	29283
er-@@	29276
86	29271
review	29267
Price	29263
re-@@	29260
John	29256
money	29250
au	29229
true	29220
female	29212
remove	29203
ings	29200
parking	29199
limit	29196
My	29186
operating	29171
National	29142
Health	29110
mmol	29061
causes	29051
everything	29028
62	29023
ent	29020
determined	29005
stopper	29004
44-20	29003
ter	28995
remain	28989
possibility	28978
subsequent	28947
93	28920
CARTON	28913
yourself	28908
knowledge	28872
efavirenz	28821
40@@	28798
005	28779
vein	28773
documents	28759
ie	28712
BEFORE	28666
evening	28661
models	28645
rarely	28642
0.3	28639
ke	28617
5-@@	28593
source	28591
RE@@	28582
commonly	28573
Portugal	28563
En@@	28541
built	28510
rules	28470
sometimes	28442
bar	28437
withdrawal	28424
Once	28396
allowed	28394
metabolite	28373
Of	28355
ne@@	28337
Breakfast	28325
war	28282
contraindicated	28269
82	28267
se	28224
fluid	28223
equipped	28208
achieve	28202
perfect	28181
OR	28153
recommendations	28152
route	28144
83	28119
rather	28102
slightly	28088
St@@	28079
unique	28054
ent@@	28035
dioxide	28019
decided	28016
cycle	28010
Ver@@	28004
zu	27998
bring	27995
ted	27982
video	27976
USED	27911
tumour	27909
born	27903
words	27891
parameters	27868
precautions	27865
connection	27857
involving	27844
37@@	27842
69	27823
est	27789
lo@@	27788
t-@@	27760
stored	27747
008	27737
photos	27720
68	27714
talk	27702
Republic	27700
≤	27668
ter@@	27660
Die	27648
extent	27643
TAKE	27630
Pro@@	27629
Safety	27624
capacity	27613
primarily	27593
Type	27562
Only	27549
71	27532
Dose	27528
select	27510
1999	27498
Tell	27476
web	27465
0.1	27464
itching	27448
li@@	27443
Paris	27421
platelet	27413
Last	27389
tested	27373
post	27352
detailed	27341
per@@	27338
dl	27330
cardiovascular	27328
remains	27313
consider	27311
Location	27293
Due	27277
91	27260
infants	27258
Also	27240
sub@@	27237
model	27228
con@@	27186
maintained	27179
His	27161
quickly	27134
Study	27134
Renal	27129
76	27081
China	27075
12.5	27054
ren@@	27034
Sh@@	27021
station	27001
office	26994
sick	26949
Adverse	26946
send	26919
negative	26919
guidelines	26899
du	26897
77	26896
beds	26891
Blister	26889
volunteers	26883
antiretroviral	26876
base	26849
complex	26830
easily	26827
Directive	26781
try	26763
92	26759
tax	26755
Page	26745
weekly	26742
63	26736
appear	26727
29@@	26707
rapidly	26693
tr@@	26683
over@@	26678
gas	26665
1996	26665
ex@@	26634
Most	26630
ans	26622
resources	26612
approach	26604
4-@@	26576
Israel	26575
Taking	26573
·	26567
metabolites	26554
Joined	26535
ot@@	26521
organ	26517
88	26513
no@@	26507
cholesterol	26489
ph@@	26485
stable	26449
Post	26441
des	26438
Ã	26433
Enbrel	26424
visual	26424
prepared	26417
internal	26398
eu	26397
inside	26378
ha@@	26372
soft	26369
proposal	26367
qu@@	26331
proteins	26322
colourless	26311
initiation	26302
-20	26262
36@@	26262
si@@	26240
sterile	26236
STORE	26231
dysfunction	26217
went	26206
property	26189
monitor	26189
hot	26176
uncommon	26159
ir@@	26152
opening	26118
007	26058
50@@	26036
immobili	26035
5.3	26017
share	26012
concerning	25982
Switzerland	25976
Al	25967
decide	25963
internet	25961
´	25960
success	25958
run	25958
ALT	25949
receptor	25934
aid	25928
te@@	25927
Holder	25908
fatigue	25840
006	25834
hypoglycaemia	25804
excellent	25800
ra	25797
bi@@	25785
oc@@	25778
quite	25771
Data	25747
meetings	25736
carry	25731
News	25727
onset	25719
Dr.	25713
resulted	25652
bathroom	25646
Click	25639
fast	25629
latest	25628
38@@	25622
thing	25620
Jesus	25620
lung	25619
removed	25617
ak@@	25613
village	25607
progress	25605
holiday	25569
restaurant	25551
plastic	25530
apartments	25503
sufficient	25443
par@@	25430
calendar	25426
estimated	25425
confirmed	25424
breath	25422
ready	25414
cats	25412
uploads	25410
anti@@	25385
antibody	25373
steps	25362
forward	25336
end@@	25336
ch	25325
ev@@	25286
sleep	25281
inter@@	25272
info	25264
79	25257
Plan	25257
Un@@	25252
Finland	25242
maps	25240
culture	25234
simple	25207
highest	25188
Section	25185
↓	25174
Centre	25159
ä@@	25136
choice	25135
eb@@	25124
metabolised	25112
nor	25101
Summary	25093
ator	25092
places	25061
cultural	25061
simply	25041
Airport	25023
Mon	25013
forum	25013
copies	24998
travel	24950
res@@	24941
partners	24938
undesirable	24935
alternative	24934
fall	24904
fatal	24902
stopped	24874
é@@	24873
suggest	24866
7.@@	24865
Con@@	24842
Insuman	24804
wind	24800
capital	24786
picture	24785
opened	24771
responsibility	24760
budget	24759
choose	24754
items	24737
appetite	24736
school	24727
improved	24724
ideal	24712
variety	24690
ep@@	24690
das	24674
concluded	24670
balance	24665
summer	24639
opportunity	24629
cost	24602
length	24584
81	24572
na	24552
pharmacovigilance	24549
and@@	24544
structure	24542
Co	24524
di	24520
wall	24510
friend	24496
ana	24487
inhibition	24476
Th@@	24471
hydrochloride	24470
pass	24466
strength	24456
diet	24443
23@@	24438
Samstag	24389
blue	24374
dependent	24361
noted	24360
Invented	24353
Two	24345
EPAR	24340
society	24319
https	24304
successful	24298
garden	24294
environmental	24278
treatments	24244
protease	24234
progression	24228
E-mail	24212
movement	24184
standards	24170
comfortable	24161
download	24126
ich	24122
hair	24093
78	24090
component	24083
She	24062
al-@@	24056
sale	24048
ou@@	24045
od@@	24018
relationship	24001
party	23996
concomitantly	23989
hope	23981
bioavailability	23980
auf	23976
IN	23964
reasons	23956
except	23956
deficiency	23946
mail	23945
tenofovir	23940
written	23937
follows	23936
Working	23930
concerned	23929
he@@	23919
ov@@	23913
setting	23912
America	23879
wp-content	23867
av@@	23854
mentioned	23818
influenza	23812
EC	23802
independent	23779
sound	23777
association	23776
crisis	23760
methods	23758
Sep	23745
focus	23735
container	23726
green	23711
Next	23710
lines	23710
Donnerstag	23700
Medicines	23685
purposes	23668
became	23662
Lilly	23619
appears	23606
10.@@	23602
planning	23594
reducing	23590
communication	23550
System	23543
First	23523
gives	23509
brought	23497
affects	23483
illness	23458
foreign	23445
Characteristics	23439
Main	23430
York	23416
closed	23410
clean	23406
Olanzapine	23380
paper	23371
030	23366
add	23352
cl@@	23351
exchange	23335
beta	23309
sales	23296
Tél	23285
traditional	23266
rise	23262
tools	23261
dialysis	23247
seizures	23245
tacrolimus	23242
institutions	23241
particles	23226
processes	23223
situated	23210
education	23205
Comb	23201
ies	23194
famous	23192
Animal	23192
pages	23183
changed	23158
external	23131
methotrexate	23130
PVDC	23123
Unit	23120
follow-up	23117
ut@@	23114
asthma	23103
Y	23095
woman	23094
degree	23081
39@@	23069
taste	23069
cartridges	23062
Ab@@	23039
official	23031
depending	23025
8.@@	23011
Water	23011
46@@	23004
regularly	23000
ber	22998
minimum	22995
importance	22994
St.	22994
selected	22984
coming	22966
hydroxide	22959
American	22953
www	22944
IN@@	22940
fold	22939
Deutschland	22939
exposed	22920
Party	22914
schedule	22910
ve	22898
avoided	22898
title	22871
though	22856
indications	22828
non	22828
vi@@	22825
Luxembourg	22818
ma@@	22815
mit	22808
transient	22801
45@@	22796
comparable	22792
got	22788
kitchen	22787
index.php	22786
pay	22782
Business	22780
plunger	22768
sexual	22705
normally	22689
s.@@	22686
LEAFLET	22675
Studies	22662
87	22661
Bed	22658
excretion	22644
-10	22637
coated	22634
Pen	22631
ge@@	22628
note	22626
inform	22621
DLL	22611
q@@	22583
handling	22563
48@@	22559
strategy	22539
nice	22536
wine	22529
Development	22474
placed	22449
giving	22447
says	22445
partner	22444
equal	22442
park	22430
Fri	22426
europa.	22402
Download	22399
ons	22396
Commissioner	22395
ski	22380
marrow	22372
thought	22370
placebo-controlled	22369
car@@	22360
secondary	22351
friendly	22327
Greece	22315
elevated	22313
sent	22300
Caution	22299
concerns	22286
Contact	22280
protective	22280
mon@@	22275
PC	22257
citizens	22255
Road	22248
force	22233
μ	22228
Pfizer	22226
HBV	22218
While	22217
maintain	22192
charge	22189
Apartment	22182
Administration	22171
peak	22167
me@@	22163
ones	22143
ways	22127
formation	22110
Mar	22108
induction	22095
st	22093
Sie	22064
on-@@	22053
colour	22030
......	22020
relative	22018
extension	22016
Service	21996
Research	21993
6-@@	21978
ise	21973
experts	21967
pre-@@	21955
Week	21932
transplant	21911
flow	21881
94	21881
sk@@	21856
myocardial	21855
levodopa	21853
consistent	21847
resistant	21842
attack	21826
ground	21819
states	21819
move	21801
enter	21774
score	21770
Russia	21756
outer	21742
met	21742
occurring	21724
vitamin	21709
Wed	21705
up@@	21698
luxury	21691
ne	21679
goods	21676
.org	21661
orodispersible	21652
unto	21644
port	21629
il	21596
selection	21587
Africa	21574
Machine	21566
Tablet	21556
da	21543
Blood	21512
transdermal	21483
Keep	21473
helps	21467
possibly	21461
0.4	21459
excluded	21458
flat	21440
raised	21423
Freitag	21410
community	21384
purpose	21383
Di@@	21377
7-@@	21377
regional	21366
frequent	21331
throat	21330
statistically	21327
8-@@	21320
mind	21312
Italian	21312
church	21305
peace	21294
aware	21268
ob@@	21257
Mon@@	21257
redness	21245
arms	21242
fl@@	21237
vessels	21236
leave	21234
basic	21231
Jan	21214
Go	21212
Games	21203
0.6	21195
stand	21180
ati@@	21179
continuous	21172
zidovudine	21165
ous	21162
exercise	21160
nothing	21141
shower	21141
Phase	21111
East	21107
AL@@	21103
infarction	21102
ism	21098
determine	21083
competition	21080
mechanism	21069
extra	21069
AB	21057
ro	21055
understand	21055
interested	21054
pa@@	21046
El@@	21036
Merck	21029
4.6	21026
60@@	21010
12.@@	21010
ber@@	20989
to@@	20978
Note	20977
ra@@	20967
sizes	20933
plant	20931
ol	20922
treating	20920
V.	20919
9.@@	20918
news	20916
Thus	20903
009	20894
getting	20890
ale	20883
bus	20873
island	20872
Be@@	20866
episodes	20862
asked	20855
word	20847
economy	20832
immediate	20812
height	20807
diabetic	20801
deep	20793
workers	20792
double-blind	20784
markets	20776
hold	20775
bottles	20767
bound	20737
former	20730
investment	20725
elements	20711
Any	20705
framework	20697
percent	20673
Office	20653
beyond	20647
distance	20636
EN	20631
AR@@	20626
polyethylene	20605
absolute	20603
airport	20595
severity	20588
22@@	20583
af@@	20578
context	20573
ing-@@	20557
insufficient	20544
cough	20525
ner	20517
exhibition	20515
á@@	20507
load	20496
368	20492
waste	20487
Head	20477
80@@	20475
constipation	20471
Car@@	20462
absorbed	20459
act	20458
feed	20442
tic	20421
birth	20421
option	20414
poor	20409
BMS	20385
industrial	20367
cold	20349
subcutaneously	20320
az@@	20319
mountain	20311
Version	20307
providing	20306
Source	20302
article	20300
extensive	20297
functions	20290
br@@	20290
message	20273
guidance	20262
hospital	20261
Ex@@	20252
terrace	20248
criteria	20238
pictures	20235
undergoing	20235
numbers	20224
haemorrhage	20219
bit	20209
Frankfurt	20202
11.@@	20199
0.2	20193
induced	20188
abnormalities	20186
visitors	20175
Bar@@	20165
dog	20161
49@@	20149
gr@@	20148
iz@@	20140
welcome	20128
s.	20121
medication	20119
instead	20114
Thu	20110
Court	20093
encyclopedia	20075
↑	20064
consists	20062
CD	20059
200@@	20056
ants	20054
idea	20027
Church	20026
Furthermore	20023
heat	20015
lesions	20012
potentially	20006
Company	20005
North	20001
UNITS	20001
Important	19974
Barcelona	19968
Using	19964
moment	19955
recognition	19952
onto	19952
historical	19947
incl	19942
respond	19939
kidneys	19936
seek	19924
Le@@	19921
slow	19917
kept	19906
Skin	19896
corticosteroids	19891
fe@@	19880
47@@	19880
minute	19879
ka	19869
discussion	19861
SMALL	19858
Services	19857
s.htm	19851
Store	19851
outcome	19846
Sweden	19840
popular	19797
en-@@	19795
anxiety	19779
probably	19776
ell@@	19776
urticaria	19768
White	19765
Further	19759
conventional	19752
tour	19751
neck	19750
behind	19733
stability	19728
gain	19726
Send	19724
NSAIDs	19723
legislation	19720
irbesartan	19719
Ma@@	19716
Box	19709
ads	19696
stroke	19689
Report	19663
conference	19656
West	19650
extremely	19649
pump	19644
2.0	19627
ja	19624
Par@@	19580
tumours	19572
careful	19550
High	19545
relation	19536
Art	19531
window	19527
vivo	19523
11@@	19517
1.2	19516
„	19488
learn	19469
PDF	19469
characteristics	19467
exercised	19464
unlikely	19461
assistance	19460
excessive	19446
sense	19434
uses	19430
nurse	19427
ü@@	19422
belongs	19421
pe@@	19417
Minister	19410
resolution	19406
ice	19402
intervals	19400
Regulation	19397
110	19375
divided	19368
contrast	19363
demand	19357
Viraferon	19346
HIV-1	19339
90@@	19330
010	19330
ins	19328
symptomatic	19325
Er@@	19324
orally	19321
consideration	19310
investigated	19306
Oct	19306
findings	19303
the@@	19294
doing	19287
Humira	19279
collection	19268
largest	19263
Museum	19253
supported	19248
becomes	19243
Picture	19241
109	19235
au@@	19234
we@@	19225
cheap	19215
Vienna	19199
olanzapine	19198
database	19197
Jun	19196
co-administration	19167
actions	19156
gave	19152
fixed	19144
Check	19136
debate	19128
decreases	19115
wood	19099
Remove	19091
friends	19081
crawled	19080
mortality	19075
feet	19075
abacavir	19071
links	19059
touch	19056
students	19051
Wayback	19039
season	19022
supervision	19021
terminal	19015
Reproduction	18995
integrated	18987
growing	18975
exceed	18973
ViraferonPeg	18970
3,@@	18962
bacteria	18955
Press	18953
adequately	18952
patches	18923
entry	18919
Se@@	18919
ard	18919
IS@@	18909
driving	18908
Kaletra	18901
climate	18901
--	18901
metres	18899
minor	18883
email	18880
PegIntron	18878
aim	18868
requires	18867
individuals	18866
recovery	18852
Sat	18850
cut	18840
1995	18828
Risk	18827
amounts	18826
circumstances	18825
contraception	18820
options	18818
processing	18812
ang@@	18797
Jul	18797
ors	18795
guarantee	18767
com	18762
Tue	18750
proportion	18742
mice	18723
del	18722
1.3	18710
Pack	18705
Today	18702
relating	18681
Web	18679
delivered	18666
policies	18663
2017	18661
Sector	18660
seven	18649
Hamburg	18642
direction	18619
annual	18604
pigs	18590
nicht	18588
baby	18581
Apr	18568
amlodipine	18567
fields	18566
Room	18562
Central	18558
Center	18544
irritation	18529
thousands	18518
Czech	18514
protected	18511
Tr@@	18505
referral	18502
cream	18494
absence	18493
objective	18490
ein	18482
tool	18480
Bank	18470
bo@@	18469
excipients	18466
Part	18458
activated	18457
55@@	18457
antibiotics	18449
Both	18446
int	18444
digital	18442
Via	18439
mother	18436
75@@	18436
regions	18430
Spanish	18417
slowly	18416
update	18414
refer	18405
earth	18399
courses	18397
employees	18395
aspects	18389
6.6	18381
ten@@	18353
potent	18343
Many	18331
himself	18326
fertility	18319
ance	18311
advantage	18296
anhydrous	18270
IX	18264
grade	18263
rheumatoid	18256
pens	18255
ker	18252
ur	18247
offered	18241
scale	18241
tions	18240
VIII	18218
ity	18213
ite	18204
og@@	18204
core	18204
competent	18203
cart	18200
0-@@	18188
LORD	18182
diluted	18180
rec@@	18172
remaining	18159
street	18155
formulation	18144
chemical	18113
Its	18111
fight	18111
numerous	18108
Nespo	18100
vs.	18098
replacement	18091
Saved	18084
otherwise	18081
deal	18075
fish	18067
phone	18051
approx	18049
net	18047
ciprofloxacin	18042
Book	18011
contribution	18008
Is	18001
www.	17989
Powder	17989
ach@@	17972
Concomitant	17964
drops	17959
Even	17957
e.@@	17957
appearance	17957
hr	17953
Swiss	17950
ally	17946
rabbits	17940
Institute	17919
ste@@	17919
Feb	17914
nervous	17910
specifically	17892
discuss	17887
rich	17884
machinery	17884
ages	17883
restaurants	17880
ler	17875
comparison	17873
thanks	17872
prescription	17867
Z	17859
post-marketing	17844
Application	17833
reduces	17830
Christ	17829
origin	17827
player	17826
pruritus	17822
ica	17816
index	17811
sl@@	17810
é	17804
covered	17802
PRODUCT	17795
concept	17792
eliminated	17777
efficiency	17775
star	17775
mobile	17774
suffering	17772
payment	17769
Ad@@	17767
mass	17763
ik@@	17746
electronic	17744
GMT	17738
docetaxel	17733
for@@	17726
operate	17709
straight	17709
availability	17706
acting	17701
Ciprofloxacin	17698
Car	17698
ide	17693
job	17685
self-@@	17678
ology	17671
E172	17655
pH	17648
worked	17642
thrombocytopenia	17640
remember	17632
salt	17618
Poland	17617
MB	17605
10-@@	17593
intramuscular	17583
em	17572
EXP	17567
efforts	17567
somnolence	17565
io	17559
gen@@	17546
topic	17535
contained	17528
EN@@	17527
Hypersensitivity	17523
Online	17515
lives	17512
lost	17497
chance	17496
ACE	17481
9-@@	17474
ö@@	17452
dedicated	17452
programmes	17435
format	17428
introduced	17426
depends	17414
33@@	17412
e-mail	17409
AS	17404
devices	17400
unchanged	17393
wipe	17382
Nov	17380
plants	17364
Br@@	17353
posts	17342
shipping	17335
intravenously	17326
About	17325
Pharmaceuticals	17317
ant@@	17316
receptors	17309
seems	17301
efficient	17293
ks	17289
endpoint	17283
behaviour	17281
rent	17280
est@@	17279
complications	17273
build	17254
thyroid	17249
com@@	17246
AS@@	17243
late	17240
eg@@	17212
Ne@@	17202
interesting	17194
item	17194
sensitivity	17192
antiviral	17187
paid	17182
principle	17179
nose	17174
sign	17163
tolerated	17160
Grade	17157
LE@@	17154
Pharmacovigilance	17154
meters	17152
0.8	17151
strain	17150
modified	17147
tip	17144
man@@	17117
tiredness	17114
AC@@	17101
bacterial	17090
visible	17089
looked	17078
Euro	17074
Back	17053
ud@@	17049
RO@@	17046
dem	17041
mar@@	17028
sw@@	17020
cards	17017
OJ	17006
011	16978
Director	16975
According	16973
D-@@	16967
Dec	16962
secure	16958
ovarian	16955
speak	16938
fumarate	16933
steady	16928
regulation	16925
intake	16904
lactation	16903
lo	16897
released	16894
ence	16889
SA	16876
201@@	16873
saquinavir	16873
anything	16867
seiten	16867
display	16866
Are	16858
ens	16850
persistent	16850
delay	16834
useful	16831
acknowledged	16822
father	16818
employment	16817
installation	16816
-0@@	16804
creation	16803
whilst	16798
began	16795
yl@@	16794
drop	16791
ANNEX	16785
languages	16781
s.com	16773
suffer	16773
disoproxil	16767
save	16766
Denmark	16766
Let	16763
metastatic	16743
AD@@	16716
're	16706
Efficacy	16697
sensitive	16693
coffee	16688
properly	16686
amended	16662
winter	16656
prolonged-release	16650
fair	16650
memory	16648
ÇáÓÇÚÉ	16639
ÇáÂä	16638
swimming	16627
.net	16609
apparent	16604
measuring	16604
eight	16601
warm	16588
offering	16585
a.@@	16570
í@@	16570
Parkinson	16569
disposal	16552
connected	16550
Severe	16524
sports	16521
co-@@	16516
innovative	16510
34@@	16509
Hydrochlorothiazide	16507
foetal	16503
consumption	16501
Chinese	16489
acts	16485
manner	16464
fire	16459
square	16454
IC@@	16445
preparations	16445
diagnosis	16436
begin	16434
Where	16421
Trudexa	16417
ah	16413
3.5	16410
race	16405
feature	16403
Cor@@	16393
monthly	16384
ca@@	16379
IntronA	16368
contract	16357
agree	16357
toxic	16354
insurance	16353
1st	16352
ci@@	16343
A-@@	16339
Aranesp	16321
steel	16315
all@@	16309
inhibit	16307
playing	16300
empty	16299
Co@@	16299
haemodialysis	16296
-1	16292
happy	16284
100@@	16272
summary	16262
responses	16258
erythema	16256
comprehensive	16253
transplantation	16249
He@@	16242
stearate	16240
disturbances	16234
shopping	16231
worsening	16229
ling	16217
transmission	16216
solid	16215
E171	16215
De@@	16215
dr@@	16192
Women	16187
uc	16186
ma	16178
flushing	16175
sensation	16174
representative	16174
vehicle	16172
obtain	16171
temporary	16163
record	16161
returned	16156
ampoule	16155
Pre@@	16154
1.1	16152
Red	16145
answer	16143
370	16141
guest	16141
130	16130
RNA	16126
Just	16124
Quality	16116
DE	16111
dictionary	16111
Am@@	16104
po@@	16081
amprenavir	16070
mellitus	16060
ca	16042
P450	16034
spread	16032
AL	16028
derived	16024
muscles	16015
color	16015
tissues	16011
detected	16004
error	16004
weather	15998
NovoMix	15994
fun	15992
break	15992
i-@@	15980
worldwide	15976
ef@@	15971
tri@@	15953
voriconazole	15952
tongue	15952
'll	15948
012	15946
Inter@@	15945
of@@	15942
fentanyl	15939
regulatory	15937
confusion	15929
screen	15927
mouse	15921
ical	15895
republika	15892
AN@@	15891
cities	15891
swabs	15883
les	15882
billion	15875
ff@@	15874
leads	15871
ye	15852
discomfort	15835
sustainable	15831
70@@	15828
AST	15826
4,@@	15823
ship	15809
confidence	15801
adjustments	15799
metabolic	15795
ann@@	15791
S-@@	15765
rod	15760
ill@@	15760
track	15750
cellulose	15749
27.@@	15748
Solution	15747
houses	15746
mutual	15745
fine	15742
CO@@	15741
uc@@	15739
everyone	15739
induce	15738
href	15738
neuropathy	15735
middle	15730
healthcare	15729
packaging	15725
goes	15713
la@@	15705
Dr	15703
path	15701
ug@@	15698
experiences	15689
ast@@	15688
fungal	15681
concern	15680
adjust	15674
Pl@@	15672
ian	15669
Description	15667
peginterferon	15652
angina	15650
Additional	15623
People	15615
Val@@	15605
won	15605
371	15595
interests	15587
atmosphere	15579
reproductive	15574
Basal	15569
Per@@	15567
platelets	15566
causing	15563
VI@@	15553
ear	15548
44@@	15546
reversible	15538
proposals	15537
mo@@	15535
articles	15526
indinavir	15520
Conference	15514
MS	15510
mann	15496
ATC	15495
myself	15490
discussed	15489
ongoing	15478
Das	15478
partial	15468
Bo@@	15465
quiet	15463
freedom	15462
tube	15453
attached	15452
ulcers	15448
saying	15445
99@@	15441
Cozaar	15428
ment	15427
Google	15424
22.@@	15409
Veterinary	15409
watch	15407
tasks	15401
draw	15400
reliable	15396
bag	15396
es-@@	15393
Russian	15383
category	15373
thank	15369
Mal@@	15359
retention	15353
Sonntag	15334
presentation	15332
larger	15321
delayed	15315
Dis@@	15311
210	15304
diuretics	15299
Madrid	15297
65@@	15284
requiring	15284
ness	15282
ics	15277
professionals	15254
buildings	15254
shop	15253
Paediatric	15249
boat	15249
140	15247
ist@@	15241
vote	15240
generation	15229
statement	15228
warfarin	15222
gastric	15219
Qu@@	15215
occurrence	15215
excess	15213
ano	15211
ish	15210
accompanied	15207
89@@	15206
ken	15204
saw	15204
RISPERDAL	15204
under@@	15203
NovoLet	15191
tic@@	15182
contribute	15180
accumulation	15178
bad	15173
meals	15169
typical	15165
prepare	15158
ser@@	15155
ring	15145
kinds	15141
train	15137
700	15132
malignant	15131
lansoprazole	15128
ot	15117
tion	15114
consequences	15114
orange	15114
consultation	15112
0.25	15107
else	15100
dark	15100
Gu@@	15098
88@@	15096
Or@@	15089
walking	15082
ino	15079
Mix25	15078
accepted	15076
32@@	15076
microgram	15072
Bi@@	15063
auch	15061
buy	15056
Effects	15053
CH@@	15049
reviews	15040
faeces	15035
eat	15015
sudden	15011
consult	15006
failed	15006
Area	15002
ene	15000
injury	14998
traffic	14998
magnesium	14994
ideas	14990
specified	14976
referred	14974
valsartan	14974
,00	14969
E.	14959
background	14957
relations	14956
implemented	14947
ay@@	14946
ON@@	14946
Cmin	14943
goal	14942
Betaferon	14930
ry	14923
Street	14917
inf@@	14916
TA@@	14903
su@@	14899
planned	14896
Mix50	14896
dic	14888
ents	14883
Hungary	14872
mis@@	14870
Sal@@	14866
Tlf	14859
1.4	14859
Search	14858
lispro	14855
Me@@	14852
ER	14849
Rome	14846
opportunities	14844
gradually	14841
sky	14840
ion	14839
running	14838
technologies	14830
mix	14829
Rebetol	14820
reservation	14820
linked	14805
stone	14794
sweating	14794
objectives	14793
PE	14790
lopinavir	14785
periods	14782
Me	14780
AN	14779
if@@	14773
intolerance	14772
GlaxoSmithKline	14768
block	14762
worse	14762
sildenafil	14758
proper	14757
chosen	14757
allergy	14756
instructed	14745
cor@@	14724
integration	14721
21.@@	14719
OR@@	14718
extended	14718
ib@@	14703
photo	14703
Social	14690
informed	14688
decisions	14668
Mittwoch	14665
om	14664
micro@@	14661
despite	14658
Italia	14645
Federal	14643
ari@@	14642
Dosage	14641
bu@@	14628
piece	14622
calculated	14615
Results	14608
fractures	14607
examination	14594
managed	14592
Peter	14590
writing	14587
j	14586
underlying	14570
someone	14568
Sp@@	14561
69@@	14560
assay	14555
bank	14554
ay	14553
emtricitabine	14552
Open	14551
military	14550
Great	14548
mental	14548
rat	14538
rosiglitazone	14535
voice	14534
documentation	14518
pneumonia	14497
RMP	14497
trip	14496
poly@@	14493
Turkey	14492
difficulties	14486
layer	14478
lin@@	14473
David	14472
APTIVUS	14470
ane	14468
240	14464
Association	14461
cytochrome	14454
Hepatic	14453
operations	14436
practical	14431
ators	14428
0.00@@	14417
story	14403
applies	14385
0000	14370
tim@@	14358
initiative	14355
EEC	14350
era	14346
0.7	14344
Agenerase	14342
ULN	14342
Co-administration	14341
Sea	14341
out@@	14339
Rasilez	14338
reporting	14337
i.e.	14321
min@@	14315
description	14312
selective	14311
automatically	14309
filled	14298
sitagliptin	14284
Bft	14284
players	14281
bedrooms	14278
regimens	14277
leukaemia	14271
situations	14271
revealed	14267
ets	14266
Gr@@	14261
life-threatening	14260
Air	14258
013	14258
Deutsch	14246
suspected	14238
cisplatin	14238
technique	14223
ich@@	14219
shock	14214
foil	14213
gender	14209
blocking	14204
promote	14198
osteoporosis	14197
0.001	14195
output	14188
fresh	14184
3.0	14181
berg	14180
simvastatin	14177
Cal@@	14171
mostly	14168
VIRAMUNE	14159
manufacturer	14156
south	14154
relevance	14151
feeding	14144
becoming	14143
reverse	14141
01.@@	14132
05@@	14120
understanding	14120
angiotensin	14118
sind	14116
isolated	14111
dilution	14109
inhibits	14104
Christian	14103
Economic	14094
max	14090
assess	14087
ie@@	14084
door	14073
85@@	14072
finally	14068
Photo	14067
optimal	14064
Video	14061
programs	14042
76@@	14033
reading	14033
cycles	14028
installed	14027
epilepsy	14022
ized	14008
bottom	14003
LABEL	14000
weak	13999
Japan	13997
Content	13994
MabThera	13992
families	13991
750	13990
manufacturing	13988
112	13986
bedroom	13985
glycol	13978
SC	13973
ME@@	13973
pers	13955
ind@@	13952
medium	13949
ass@@	13941
lies	13938
smaller	13924
ative	13914
TE@@	13910
aus	13905
gently	13905
014	13902
lake	13901
accept	13894
perform	13893
unable	13893
Treaty	13892
introduction	13887
starts	13885
fee	13885
participants	13881
Elderly	13881
dec@@	13867
gl@@	13857
doesn	13857
joints	13856
Lake	13856
res	13855
representatives	13849
percentage	13844
radiation	13838
Affairs	13833
gel	13817
motor	13811
functioning	13807
ø	13801
menu	13799
fondaparinux	13793
184	13787
Pegasys	13780
an-@@	13776
samples	13769
26.@@	13767
acetate	13763
pieces	13756
Driving	13752
rule	13751
expressed	13749
establish	13749
Thanks	13744
12th	13741
Brussels	13739
sight	13737
wonderful	13736
thinking	13735
reductions	13731
M.	13724
remained	13710
Atripla	13709
Le	13706
KG	13695
►	13688
23.@@	13688
updates	13679
hi@@	13673
stock	13669
wanted	13669
contraceptive	13669
affecting	13666
albumin	13656
IP	13654
185	13648
thou	13629
20.@@	13629
challenges	13626
Azomyr	13620
ised	13611
cleaning	13611
eine	13606
changing	13606
ans@@	13603
iv@@	13598
comfort	13594
booking	13588
pen@@	13587
served	13586
coagulation	13586
drawn	13585
che	13584
Class	13580
ys@@	13578
77@@	13575
900	13566
enable	13562
priority	13559
Villa	13556
lamotrigine	13553
inactivated	13550
telephone	13538
hip	13537
passed	13531
plans	13530
string	13521
legs	13518
Injection	13510
epoetin	13509
Media	13506
Col@@	13503
continues	13503
ulcer	13498
heard	13496
ciclosporin	13494
sides	13494
cross	13493
ality	13492
neither	13491
foot	13490
brand	13489
Place	13488
Ro@@	13487
respective	13484
push	13483
450	13482
registered	13475
turned	13473
gelbe	13471
challenge	13458
Puregon	13446
dissolved	13441
Belgique	13439
enlargement	13439
horses	13438
ty	13437
Forum	13434
advise	13432
67@@	13431
movements	13431
comments	13428
Overall	13427
ard@@	13423
mark	13418
nationally	13415
finished	13414
5,@@	13410
ton	13409
mm3	13407
els	13406
advance	13406
07.@@	13401
cars	13388
purchase	13384
satellite	13375
therapies	13369
¼	13368
sets	13367
Weight	13363
lowering	13360
relatively	13347
stopping	13345
08.@@	13345
altered	13340
artists	13339
desired	13333
vaccinated	13326
Add	13319
print	13316
vehicles	13311
13.@@	13310
ert	13309
juice	13301
categories	13298
rhinitis	13297
Munich	13293
Global	13286
ES	13277
formed	13276
ill	13270
applicant	13267
behalf	13265
adding	13262
orphan	13259
pharmaceutical	13247
antibiotic	13246
author	13245
my@@	13242
ub@@	13229
59@@	13227
adapter	13221
J	13220
Moreover	13219
sleeping	13218
Software	13215
regulations	13208
Holy	13208
ines	13199
col@@	13197
372	13187
commitment	13186
12-@@	13185
harm	13181
insomnia	13178
Ge@@	13175
instruments	13174
limits	13173
Accommodations	13173
360	13171
Such	13170
cable	13168
dermatitis	13157
bath	13154
Com@@	13150
task	13149
AM@@	13148
founded	13136
clients	13133
nasal	13131
nt.html	13130
Der	13127
can@@	13125
transparent	13123
Avastin	13123
band	13122
funds	13118
NAME	13117
ungen	13117
certainly	13113
28.@@	13113
Gastrointestinal	13110
controls	13109
d-@@	13094
books	13087
seal	13086
Finally	13085
permanent	13084
acidosis	13073
View	13071
dates	13068
thrombosis	13065
images.php	13062
GONAL-f	13058
ists	13057
OS	13045
29.@@	13041
Eesti	13038
Black	13031
Within	13030
ta	13026
producing	13023
elevations	13016
earlier	13015
huge	13011
ink	13010
patent	13006
covers	13003
Increased	13001
fundamental	13000
pioglitazone	12999
channel	12995
populations	12990
cb	12983
thy	12981
co	12977
Website	12977
DVD	12972
fri	12965
AT@@	12965
na@@	12962
character	12947
6,@@	12939
actual	12936
hire	12933
cleansing	12933
sulphonylurea	12931
HDPE	12930
vascular	12928
emergency	12928
participation	12925
psoriasis	12916
Every	12916
inflammatory	12905
angioedema	12903
river	12902
supportive	12897
ow@@	12878
consciousness	12874
24.@@	12868
metal	12865
pivotal	12861
PA	12854
wait	12852
den@@	12844
antihypertensive	12843
Don	12842
mode	12840
titanium	12833
Anti@@	12830
015	12830
warnings	12829
hear	12828
acceptable	12827
played	12826
demonstrate	12822
15.@@	12820
420	12819
127	12817
sich	12811
Comments	12805
MA@@	12804
coronary	12802
Pi@@	12802
provider	12800
Tags	12791
ranging	12790
surgical	12789
applicable	12786
25.@@	12783
principles	12781
sc@@	12781
04@@	12773
ang	12760
EL@@	12760
09.@@	12760
inner	12759
ement	12758
ak	12756
QT	12756
exist	12754
CellCept	12748
warning	12748
India	12747
EC@@	12747
à	12734
broken	12732
unusual	12727
object	12725
electric	12713
19.@@	12712
Her@@	12707
Station	12705
Es	12705
contraceptives	12701
ketoconazole	12698
Malta	12695
Ac@@	12691
AB@@	12691
Adults	12674
standing	12671
thoughts	12671
predominantly	12668
Belgien	12668
Studio	12667
distributed	12662
img	12662
forces	12656
labour	12654
St	12654
artery	12653
dialogue	12653
66@@	12652
one-@@	12652
cattle	12649
Fre@@	12643
Energy	12640
,000	12637
scope	12635
Make	12634
techniques	12633
aw@@	12627
ni@@	12626
2.4	12618
functional	12618
tics	12617
bilirubin	12615
supports	12614
sex	12610
ek@@	12606
Private	12604
art@@	12601
constant	12600
Ba@@	12598
spirit	12592
reality	12583
Canada	12580
sal@@	12578
clotting	12576
UN@@	12575
AUTHORISATION	12570
KwikPen	12565
recorded	12562
ER@@	12556
serve	12556
authority	12555
un	12553
creating	12552
sustained	12551
Food	12543
Actraphane	12543
bodyweight	12541
discontinue	12538
responded	12533
Paul	12530
younger	12529
ris	12528
Ser@@	12527
antagonists	12524
weighing	12516
Li@@	12507
write	12503
ir	12498
viruses	12495
harmful	12494
Sharp	12494
blog	12488
organisation	12483
surrounding	12478
happen	12477
museum	12476
bargain	12467
AT	12466
literature	12465
Manager	12464
infrastructure	12464
gu@@	12461
translation	12459
her@@	12458
fracture	12458
Q	12454
paclitaxel	12431
hazard	12429
locations	12426
Τηλ	12423
anc@@	12419
Mean	12416
post-@@	12414
shape	12409
shops	12407
tive	12401
Sk@@	12398
SE@@	12393
deliver	12392
FSH	12392
str@@	12385
lactic	12381
Public	12381
platform	12374
shortness	12370
Members	12369
ung@@	12360
jobs	12355
fruit	12352
ters	12350
worth	12349
provision	12346
Western	12346
innovation	12343
relief	12343
favour	12340
chain	12339
16.@@	12337
Mixtard	12335
structures	12335
pi@@	12331
resolved	12330
damaged	12328
ary	12325
multi-@@	12324
Xeloda	12322
TR@@	12321
appeal	12319
consecutive	12318
detail	12318
examined	12315
claims	12314
openx	12312
progressive	12310
banner.gitverlag.com	12306
a5a750bd	12306
nelfinavir	12301
rifampicin	12301
Code	12295
Danmark	12283
bar@@	12275
Pol@@	12272
died	12270
ip@@	12263
016	12261
calls	12254
learning	12253
pr@@	12252
Year	12250
biological	12248
mountains	12240
represents	12238
monkeys	12238
claim	12238
ase	12236
topical	12228
tuberculosis	12227
coli	12225
Latvija	12223
der@@	12221
hyper@@	12218
Good	12216
establishment	12212
mediated	12208
clots	12204
Can	12203
so@@	12199
ade	12198
osis	12197
practices	12192
north	12191
apart	12191
powerful	12187
edge	12186
eng@@	12182
investigation	12178
prolongation	12178
De	12176
Lo-Fi	12176
conclusion	12170
printed	12164
secretion	12162
gene	12157
ation@@	12150
enables	12147
4.1	12147
unused	12143
vs	12141
350	12140
Eli	12135
experimental	12130
Ribavirin	12130
Design	12128
,@@	12119
Life	12118
conditioning	12115
gallery	12115
ze	12113
NOT	12113
credit	12112
ess@@	12108
removal	12100
Herceptin	12099
rel@@	12093
Fr@@	12091
Work	12087
Rue	12083
Suite	12083
attacks	12083
surveillance	12082
positions	12075
organs	12074
Neoclarityn	12074
substrate	12073
grounds	12063
effectively	12063
ore	12062
directive	12056
medications	12053
provisions	12052
sen	12051
Ber@@	12048
US@@	12046
border	12044
sources	12043
automatic	12043
ratiopharm	12025
lymphoma	12018
burning	12016
host	12010
C-@@	12010
accidental	12007
ok@@	12004
Norway	12004
invasive	12001
ns	11995
Michael	11995
Module	11995
cr@@	11983
healing	11980
sa@@	11970
MwSt	11968
administer	11963
H.	11960
department	11957
ó@@	11949
022	11942
k-@@	11942
reproduction	11939
2nd	11937
exposures	11936
haematological	11936
heating	11932
anaphylactic	11924
tourist	11917
blurred	11910
06.@@	11908
ed-@@	11907
expert	11906
artist	11906
anti-inflammatory	11902
missing	11901
holder	11901
aprepitant	11899
bodies	11897
EPC	11895
dining	11894
clopidogrel	11890
gold	11888
ising	11887
negotiations	11885
letter	11884
court	11883
fer@@	11883
acquired	11882
q	11880
nearly	11880
ut	11877
steady-state	11877
regards	11875
atazanavir	11875
Caelyx	11868
ox@@	11856
Instructions	11851
quarter	11848
recovered	11841
win	11837
discover	11836
effort	11835
accommodations	11832
happens	11831
56@@	11831
printing	11829
ps	11826
Extavia	11826
titration	11821
smoking	11819
ble	11817
sectors	11817
ended	11813
ancient	11812
Wi-Fi	11811
tel	11810
α	11810
figure	11810
drinking	11808
Euro@@	11807
Docetaxel	11804
Restaurant	11798
balcony	11792
Penfill	11792
Tablets	11791
recommendation	11788
faith	11787
repeat	11785
missed	11781
ini	11777
Mo@@	11775
directed	11774
Novartis	11773
engine	11770
administering	11769
11-@@	11767
filter	11767
beauty	11766
Three	11763
browser	11763
owners	11756
o.	11754
Metabolism	11754
improving	11754
engineering	11751
slight	11743
sucrose	11743
appeared	11743
do@@	11740
0,@@	11739
Gen@@	11733
sample	11733
carcinoma	11731
arrival	11727
agreements	11726
tre@@	11726
jpg	11722
104	11720
132	11714
trough	11713
session	11711
58@@	11709
hand@@	11705
matters	11704
BLISTERS	11700
04.@@	11700
Mehr	11699
Aerius	11691
blocks	11689
showing	11683
ech@@	11682
supporting	11676
prescribe	11675
measurement	11670
Dohme	11662
mofetil	11662
fin@@	11660
aminotransferase	11660
finding	11656
antigen	11656
111	11654
suicidal	11653
atorvastatin	11652
qualified	11652
Applicant	11650
Find	11650
AP@@	11647
Body	11646
ac	11646
historic	11640
War	11636
Technology	11635
opinions	11629
manual	11629
preferably	11626
Re	11625
lips	11624
sa	11624
bought	11621
British	11620
ID@@	11619
Seite	11616
AR	11615
que	11607
Executive	11600
trees	11599
ships	11592
Mai	11592
buffet	11588
ah@@	11585
Yes	11585
ath@@	11584
strains	11583
mmHg	11582
instance	11579
resort	11578
mer@@	11575
polypropylene	11575
inhaled	11574
vildagliptin	11573
358	11571
stages	11564
386	11563
'm	11556
signal	11555
87@@	11555
fi@@	11551
CHF	11546
wear	11542
-C@@	11541
Asia	11536
ure@@	11536
REYATAZ	11531
tu@@	11524
ger@@	11524
compliance	11523
antagonist	11523
hearing	11522
Österreich	11522
dieses	11515
Wien	11499
tur@@	11494
copy	11492
continuing	11490
Photos	11490
SD	11483
conjunction	11480
childbearing	11476
VIAL	11476
furniture	11476
abdomen	11476
skills	11469
district	11468
lon	11467
Length	11466
loading	11461
tor@@	11459
Subcutaneous	11457
102	11457
Holiday	11451
represent	11450
Filgrastim	11446
pol@@	11444
mL	11437
Mrs	11436
booster	11436
ends	11435
2.1	11435
31.@@	11430
TEXT	11427
susceptible	11426
miss	11421
science	11420
easier	11417
ingredient	11416
meaning	11415
Single	11411
ost@@	11409
deposit	11408
14.@@	11408
chills	11407
implement	11406
Units	11405
Mediterranean	11402
architecture	11402
Remicade	11401
heavy	11398
Aluminium	11398
conclusions	11394
destination	11394
03.@@	11393
replaced	11393
rapporteur	11391
Over	11389
submit	11387
comparator	11383
79@@	11381
characterised	11380
Epoetin	11377
committed	11371
classes	11371
aff@@	11369
ek	11365
Te@@	11365
ou	11364
RA	11364
2.2	11362
uk@@	11354
physicians	11353
Sverige	11353
scheduled	11347
amendments	11339
breast-feed	11337
fishing	11335
indeed	11334
Test	11331
beat	11331
approval	11330
reform	11330
ens@@	11328
Man@@	11325
digoxin	11323
organisations	11318
walls	11317
tables	11316
completion	11313
funding	11313
lungs	11301
starch	11301
Evaluation	11300
Music	11296
mission	11296
consumer	11291
SP	11286
ll	11286
performing	11283
Bl@@	11282
17.@@	11280
ological	11277
tells	11271
master	11271
analyses	11268
ful	11268
bruising	11268
53@@	11259
BE@@	11256
Telzir	11256
Club	11249
België	11246
coloured	11243
consequence	11240
AF	11239
I.	11232
43@@	11232
director	11231
asthenia	11230
Policy	11228
desk	11228
civil	11224
Government	11221
conversion	11216
phenytoin	11216
Linux	11212
thereby	11212
install	11210
appointed	11207
successfully	11203
Sa@@	11197
lp	11194
mothers	11188
withdrawn	11185
od	11179
Capsule	11178
101	11175
2.6	11174
Under	11171
critical	11170
Among	11167
131	11164
risperidone	11161
106	11161
und@@	11159
Orphan	11157
8,@@	11156
arterial	11152
ile	11151
PRE-FILLED	11149
ley	11149
Bar	11144
cloudy	11142
etoricoxib	11142
ach	11139
Another	11130
doxorubicin	11119
post@@	11116
Bal@@	11115
entered	11114
alt	11114
developments	11113
entrance	11107
filgrastim	11102
IL@@	11102
wrong	11100
ering	11098
width	11095
ke@@	11094
fill	11092
No.	11087
allowing	11086
whereas	11085
truth	11084
Security	11074
attempt	11074
tradition	11071
preventing	11068
Days	11067
identify	11066
foetus	11065
395	11056
educational	11056
Spirit	11052
PREZISTA	11051
modification	11050
diagnosed	11049
ES@@	11043
randomized	11038
competitive	11035
evaluate	11031
coast	11031
ocular	11025
nine	11024
farm	11023
WC	11016
ren	11014
are@@	11013
interface	11012
SP@@	11011
expertise	11010
ab	11009
driver	11006
Review	11005
Ter@@	11003
HEXAL	10999
objects	10998
tachycardia	10994
P.	10988
registration	10985
alpha	10983
La@@	10978
fewer	10975
wants	10973
reveal	10961
HPV	10956
fre@@	10955
teratogenic	10953
Bedroom	10951
open-label	10949
Ros@@	10944
Standard	10944
broad	10941
Up	10940
spacious	10939
nearby	10935
Events	10934
gland	10931
mutations	10930
circulation	10926
spine	10924
bubbles	10923
hundred	10919
CD4	10919
van	10916
Rapid	10913
ell	10913
pattern	10911
ru@@	10908
tingling	10908
Cl@@	10908
Exelon	10906
Science	10904
Apartments	10900
initiatives	10898
susceptibility	10897
List	10894
ier	10893
Nederland	10891
spend	10888
lose	10884
TH@@	10883
flexible	10881
Rooms	10880
Rebif	10877
ere	10874
stress	10872
del@@	10869
arm@@	10869
Be	10867
females	10866
shared	10865
expression	10864
PE@@	10860
MIU	10859
strongly	10858
mixture	10855
Programme	10850
proven	10849
grow	10847
transparency	10846
CYP2C9	10835
è@@	10825
ventricular	10824
density	10822
AG@@	10822
sealed	10821
ker@@	10819
Convention	10817
Polska	10810
hall	10807
sel@@	10805
converted	10799
land@@	10786
drowsiness	10785
analogues	10777
ING	10774
Game	10772
relax	10768
anorexia	10760
Tracleer	10755
draft	10755
020	10755
tremor	10755
lowest	10749
client	10746
committee	10744
Best	10744
KOGENATE	10737
T-@@	10734
renewal	10730
parents	10730
stars	10729
signed	10721
8000	10714
ada	10712
spare	10712
displayed	10709
018	10708
Bel@@	10708
polysorbate	10702
substantial	10700
command	10700
Rapamune	10696
votes	10696
joined	10688
ms	10688
banks	10687
ster@@	10685
des@@	10685
painful	10685
Sta@@	10684
351	10683
speaking	10676
WITH	10676
rue	10675
topics	10673
produces	10666
disturbance	10665
swallowing	10662
numbness	10661
demands	10660
agitation	10658
manage	10657
sitting	10657
cre@@	10652
experiencing	10649
figures	10649
hal@@	10647
ampoules	10646
enrolled	10638
Technical	10635
compatible	10634
Su@@	10628
faster	10627
B-@@	10616
E-@@	10616
.php	10615
losartan	10614
prophylaxis	10601
register	10601
closure	10597
erg@@	10594
Volibris	10594
strategic	10587
pleased	10586
radi@@	10583
ZYPREXA	10583
myalgia	10581
existence	10573
For@@	10573
trying	10570
centralised	10560
ery	10555
aus@@	10554
oxygen	10552
element	10551
fil@@	10548
significance	10547
Decision	10540
compound	10537
Size	10535
PR@@	10534
stands	10533
VFEND	10533
announced	10532
offices	10529
inadequate	10518
speech	10517
Vimpat	10515
switch	10513
midazolam	10511
outdoor	10507
initiating	10504
heparin	10503
As@@	10501
Oktober	10501
consumers	10501
ba@@	10500
excl	10498
MIRCERA	10498
accidentally	10495
Pr@@	10492
BO@@	10491
le-@@	10491
democracy	10491
supplements	10489
Experience	10486
income	10484
ointment	10482
telmisartan	10482
waiting	10481
ai	10477
12.11.2016	10476
ve@@	10475
02.@@	10472
back@@	10471
Saint	10463
bolus	10462
seem	10452
bis	10451
camera	10446
ure	10443
males	10442
Lietuva	10439
leader	10437
Pal@@	10434
CYP2D6	10432
Kar@@	10431
Side	10430
diameter	10417
classic	10416
Order	10414
owner	10414
zone	10412
euro	10410
Median	10409
cur@@	10407
erythropoietin	10406
Fl@@	10404
Novo	10402
nerve	10398
landscape	10398
agricultural	10393
ast	10392
ere@@	10392
depend	10391
AIDS	10391
pharmacological	10391
3.3	10391
mechanisms	10390
280	10390
prescribing	10390
enhanced	10389
defects	10388
ti	10387
flight	10387
017	10387
replace	10384
TI@@	10380
Keppra	10380
default	10379
thousand	10378
Grand	10377
ger	10375
Avenue	10374
vary	10366
Sol@@	10365
alter	10365
eu@@	10364
dummy	10363
Start	10358
Distribution	10358
expect	10352
BYETTA	10351
corporate	10350
Santa	10349
ven@@	10349
We@@	10345
forest	10342
so-called	10340
NE@@	10337
exclusive	10334
participate	10333
intensity	10332
Hepatitis	10329
log	10328
substrates	10324
advantages	10321
named	10316
malignancies	10314
passing	10312
possibilities	10312
biconvex	10312
ourselves	10306
Who	10305
firm	10305
formal	10304
tro@@	10303
ata	10303
comparing	10302
105	10300
eth	10295
pre-existing	10293
motion	10290
Martin	10281
wurde	10279
birds	10278
ze@@	10276
ick@@	10274
Headache	10274
lasting	10272
bike	10267
diagnostic	10263
fasting	10256
repair	10253
perhaps	10252
itraconazole	10246
18.@@	10244
KB	10243
3D	10239
exact	10238
§	10234
6.1	10233
mal@@	10231
nucleoside	10230
MEDICINAL	10228
Chapter	10223
ibandronic	10217
specialist	10216
2.3	10205
ion@@	10204
trans@@	10202
-1@@	10198
hyperglycaemia	10192
bladder	10187
Thank	10185
radio	10183
chen	10182
mood	10182
organization	10180
CELSENTRI	10180
3rd	10177
gemcitabine	10177
STRIPS	10176
spp	10176
hy@@	10175
Response	10171
Croatia	10171
Meeting	10170
Neupro	10169
moving	10169
sachet	10169
administrative	10169
bur@@	10167
9.5	10166
Tri@@	10165
pharmacology	10158
Festival	10158
stick	10158
PRO@@	10157
Additionally	10157
thee	10156
inc@@	10155
357	10155
Vi@@	10153
tags	10152
val@@	10148
ically	10147
Rapinyl	10146
labelling	10146
rejection	10145
F-@@	10141
ez@@	10138
128	10136
Law	10135
05.@@	10132
cytotoxic	10132
dihydrate	10132
tion@@	10129
manufacturers	10129
off-white	10126
individually	10121
Show	10121
religious	10119
-F@@	10118
School	10117
proceedings	10113
pleasant	10109
holding	10105
HCV	10103
Links	10101
develops	10098
ReFacto	10093
src	10088
Market	10085
Category	10084
Zevalin	10084
sport	10074
reg@@	10073
Glivec	10072
fear	10072
427	10070
Del@@	10070
Clopidogrel	10069
conduct	10068
tree	10063
Romania	10062
Australia	10058
soluble	10056
Financial	10052
1.6	10051
1994	10050
sen@@	10048
MG	10043
doctors	10040
Islands	10039
irregular	10035
hypertensive	10032
thereafter	10032
Prof.	10030
Medical	10029
democratic	10025
sirolimus	10025
Change	10025
el-@@	10023
IT@@	10023
54@@	10019
opaque	10019
sing	10017
LO@@	10013
|	10012
att@@	10010
sil@@	10009
jaundice	10008
BOX	10007
well-@@	10006
didn	10001
Temodal	9996
d.	9995
Middle	9991
Xolair	9986
chewable	9982
ette	9979
57@@	9978
dyspepsia	9977
indicating	9977
Ingelheim	9975
mat@@	9973
Ph@@	9972
hormonal	9971
Top	9971
115	9967
explain	9966
BID	9963
fluticasone	9961
club	9961
201	9958
anyone	9955
ick	9954
ying	9954
pink	9949
improvements	9945
checked	9945
IM@@	9944
Roche	9943
journey	9943
Zometa	9942
España	9940
64@@	9937
protocol	9936
spent	9934
Ukraine	9933
Ger@@	9929
Duration	9928
Ministry	9928
bones	9925
Healthcare	9924
146	9922
overview	9919
swallowed	9912
bei	9911
Several	9911
flu	9910
Ta@@	9909
Inc	9904
membrane	9901
Mer@@	9897
AC	9897
triglycerides	9895
exists	9893
Sardinia	9889
renewed	9887
attractive	9887
examples	9884
pancreas	9879
p.m.	9878
Prometax	9873
castle	9870
join	9869
coordination	9867
fourth	9865
outstanding	9864
yl	9863
MI	9861
reflect	9860
Pain	9856
desire	9856
discarded	9853
versions	9853
presents	9849
Manufacturer	9847
103	9844
Father	9843
ue	9843
minimal	9841
230	9839
↔	9834
considering	9832
wording	9828
celecoxib	9825
Nervous	9821
fit	9819
30-@@	9811
uric	9811
31st	9811
Ap@@	9809
url	9808
TABLETS	9806
Serious	9800
Systems	9798
fees	9796
represented	9795
maternal	9794
4.0	9788
synthesis	9787
territory	9785
keeping	9784
instrument	9784
5.0	9777
ST@@	9771
elle	9770
elegant	9769
encounter	9767
collaboration	9767
intervention	9766
goals	9764
Egypt	9763
Welcome	9762
Liver	9757
channels	9755
oder	9751
anticipated	9751
Alu	9751
Care	9748
www.skepticalscience.com	9745
Heart	9745
Syndrome	9742
partnership	9742
6.5	9741
paroxetine	9739
corner	9738
DI@@	9738
wort	9736
orders	9735
itis	9733
3Ftaxonomy	9733
Tyrol	9732
sulphate	9731
hat	9729
clarithromycin	9728
ce	9727
elevation	9727
moved	9725
20-@@	9724
frame	9724
quick	9723
Titanium	9722
swab	9718
fluoxetine	9717
issued	9715
r.	9714
IP@@	9712
Presidency	9712
wife	9711
UR@@	9708
immunisation	9702
Trans@@	9696
Preis	9695
dyspnoea	9694
herbal	9693
rock	9687
dem@@	9687
Bre@@	9687
Debian	9686
laws	9681
magazine	9680
bas@@	9673
Lo@@	9667
pharmacodynamic	9666
6.2	9666
sol@@	9664
concrete	9662
collected	9662
At@@	9661
Film	9659
sm@@	9658
bright	9656
gro@@	9652
Moon	9646
Effentora	9645
L.	9640
e.com	9640
citrate	9634
errors	9632
angle	9628
Patient	9624
Their	9624
spring	9623
correctly	9619
tor	9616
Non-@@	9614
proof	9613
high-@@	9611
detection	9609
King	9608
inkl	9607
congenital	9607
messages	9607
135	9606
Rights	9604
in-use	9602
lyophilisate	9601
Dr@@	9601
pe	9597
NO@@	9595
aimed	9595
topotecan	9590
Plasma	9590
explained	9587
vital	9585
BR@@	9583
acc@@	9579
cy@@	9572
Trade	9572
Person	9570
neutrophil	9567
iti@@	9566
subsequently	9564
България	9563
ingen	9563
blockers	9561
ire	9557
regardless	9557
cuisine	9557
CD@@	9555
sold	9553
Austrian	9550
harmonisation	9549
205	9548
sell	9548
ization	9548
1.7	9547
07@@	9547
no.@@	9546
financing	9546
ties	9546
ely	9545
low-@@	9544
aims	9541
oval	9540
Old	9537
've	9535
08@@	9534
reserve	9534
Budapest	9534
Family	9532
Active	9532
form@@	9527
suppression	9527
dementia	9522
0.0001	9522
false	9519
tw@@	9518
discharge	9518
Catalogue	9517
ct	9516
dangerous	9515
MARKETING	9515
Calcium	9511
WiFi	9510
Costa	9505
hives	9502
statements	9496
firmly	9496
rhabdomyolysis	9493
Prolonged	9492
Remeron	9490
discussions	9488
leaders	9486
Mor@@	9484
beaches	9480
assembly	9480
Eastern	9478
coma	9478
850	9477
valley	9477
placebo-treated	9472
trend	9465
har@@	9465
Norge	9463
175	9461
rhythm	9460
Department	9460
Or	9458
lactating	9458
019	9458
greatest	9452
complicated	9451
Fertavid	9449
Mexico	9448
talking	9448
combinations	9447
Ziagen	9446
urban	9445
Absorption	9441
express	9439
microcrystalline	9439
Garden	9439
antidepressants	9438
immunosuppressive	9434
corrected	9432
86@@	9423
History	9423
Meer	9421
×	9419
enti@@	9416
felt	9415
Can@@	9414
extreme	9413
belong	9413
activation	9411
routine	9410
225	9408
5.5	9408
ports	9405
ensuring	9405
newly	9402
1992	9400
Rash	9397
withdraw	9397
Greek	9396
hier	9393
railway	9392
seeing	9390
sin@@	9389
EXUBERA	9387
undertaken	9384
Retacrit	9384
structural	9382
observation	9380
fr@@	9377
Pharmacokinetic	9377
wh@@	9374
swallow	9371
spontaneous	9369
ahead	9369
049	9367
EX@@	9365
knows	9364
reception	9360
settings	9359
cal@@	9358
sons	9357
adefovir	9354
Suspension	9348
duloxetine	9348
ball	9345
requirement	9345
~	9338
tetanus	9336
laid	9336
essentially	9329
Adult	9329
1.8	9328
publication	9325
1993	9322
El	9321
nuclear	9319
increasingly	9318
amp@@	9317
packages	9316
Living	9316
lay	9316
terfenadine	9315
aut@@	9308
User	9308
ats	9306
Ceplene	9305
holidays	9305
organised	9302
NovoRapid	9296
gut	9296
particulate	9294
routes	9292
thoroughly	9292
dead	9283
work@@	9281
radioactivity	9279
album	9279
variable	9275
ars	9275
absolutely	9274
Control	9270
●	9268
NexGen	9264
L-@@	9264
Industrial	9260
ize	9258
ADRs	9255
FlexPen	9254
HbA1c	9254
till	9245
™	9244
108	9243
-15	9241
multi@@	9240
fo@@	9239
Ag@@	9233
oven	9232
G3	9231
operational	9231
none	9231
stimulation	9229
Enjoy	9227
fa@@	9225
Silapo	9225
TAXOTERE	9223
0.0	9222
electricity	9219
Live	9218
97@@	9218
hoc	9215
grey	9215
ss	9214
Helixate	9211
networks	9209
tried	9203
aripiprazole	9201
ese	9200
forgotten	9200
police	9197
1990	9191
Hold	9183
accessible	9180
Justice	9179
Bur@@	9176
mer	9176
west	9176
BeneFIX	9173
nicotinic	9166
businesses	9165
Update	9164
R.	9162
inclusive	9160
ty@@	9160
decline	9156
ments	9154
and-@@	9154
Invirase	9153
359	9152
formulations	9151
handle	9151
ara	9151
tel@@	9151
division	9151
ische	9149
considerable	9149
carbon	9147
entacapone	9144
Advagraf	9143
bro@@	9143
html	9142
cup	9141
Rental	9139
ial	9139
Combination	9135
Eye	9130
ow	9130
carbamazepine	9129
1200	9128
tours	9128
260	9125
P-@@	9120
leg	9118
gone	9118
contemporary	9115
Kr@@	9112
ani	9109
pale	9108
exceptional	9100
ly@@	9100
naïve	9097
InductOs	9097
tremulous.net	9097
naturally	9097
Cases	9092
fosamprenavir	9090
windows	9090
Tarceva	9089
vacation	9088
Tasmar	9087
EP@@	9086
File	9086
indicates	9086
Child-Pugh	9081
UN	9078
06@@	9077
carcinogenic	9077
ites	9074
Respiratory	9072
sleepiness	9072
fraction	9072
trust	9069
2.7	9067
No@@	9066
Project	9065
imm@@	9064
Dutch	9061
ranged	9060
IONSYS	9060
isolates	9054
contacts	9054
Foundation	9050
NovoSeven	9049
ha	9047
uth	9042
Those	9041
perfectly	9039
ash	9038
ALL	9038
Available	9037
2.8	9036
agency	9036
restricted	9031
AD	9028
scheme	9027
limb	9026
ris@@	9024
Suomi	9024
amino	9021
conflict	9019
rac@@	9018
pres@@	9015
somatropin	9014
organic	9012
schools	9012
3000	9010
taxes	9010
Du@@	9009
ey@@	9007
Map	9005
bile	9005
wound	9004
220	9003
Acute	9002
bars	8999
Boehringer	8999
rDNA	8998
Possible	8993
Tour	8988
addressed	8988
ea	8988
Prevention	8988
corticosteroid	8987
circulating	8983
biggest	8981
anticoagulants	8979
opioid	8973
favourable	8971
stops	8971
wrote	8971
84@@	8969
Thomas	8968
suggested	8965
Light	8965
tadalafil	8958
ping	8957
mod@@	8957
pure	8957
raise	8956
Which	8956
Joint	8954
gentlemen	8950
infliximab	8949
Latin	8945
wird	8944
agencies	8940
dishes	8935
inhalation	8933
161	8932
Well	8932
78@@	8932
comprising	8930
shortly	8926
MO@@	8924
Bad	8922
carcinogenicity	8919
wal@@	8919
solar	8917
idiopathic	8916
sunlight	8916
Prior	8916
353	8914
421	8913
MA	8913
tourism	8911
venlafaxine	8911
lift	8911
stimulating	8910
web@@	8906
isation	8901
tz-otocac.hr	8901
iccaldate	8901
sigFreeId3fcf764576	8901
por@@	8900
accordingly	8899
Bondenza	8897
narrow	8894
MabCampath	8892
violence	8891
EIB	8887
our@@	8883
Gi@@	8882
mal	8882
151	8881
soul	8880
abroad	8878
go@@	8877
Roman	8868
east	8867
02@@	8865
videos	8864
SI@@	8864
ona	8863
boats	8863
leg@@	8862
7,@@	8861
couple	8860
vardenafil	8858
Lamictal	8857
Po@@	8857
pancreatitis	8856
Karvezide	8856
Prague	8855
ax@@	8853
ki	8852
Undesirable	8851
ves	8849
launch	8848
deze	8848
shaped	8842
rating	8842
Ritonavir	8841
Mr.	8839
fits	8839
Stalevo	8837
paraesthesia	8836
gen	8836
fibrosis	8836
CV	8835
CML	8833
enhance	8833
Purevax	8830
strengthen	8828
surrounded	8828
blank	8828
126	8825
reviewed	8821
array	8817
confirm	8813
oro@@	8813
-treated	8813
spot	8811
kit	8810
happened	8805
personnel	8802
Aclasta	8802
furnished	8801
ine@@	8794
Raptiva	8792
ole	8791
mixing	8789
expenditure	8788
0.75	8787
Myocet	8787
dexamethasone	8787
definition	8785
interior	8784
J.	8783
România	8781
emissions	8781
initially	8779
stones	8778
bid	8776
safely	8775
Ha@@	8773
pull	8771
immunity	8770
suicide	8769
9,@@	8768
3.1	8767
confirmation	8767
eu.	8767
ond@@	8766
Beach	8762
covering	8762
Diarrhoea	8762
oma	8762
colours	8760
lie	8759
Infections	8759
ning	8759
ulceration	8756
Har@@	8755
Christmas	8754
president	8752
batch	8751
Background	8750
segment	8748
ear@@	8742
capable	8741
meat	8738
ster	8737
scores	8736
bridge	8730
spaces	8728
interfere	8728
non@@	8728
SUMMARY	8726
ensures	8725
Nausea	8721
CNS	8720
Gal@@	8720
Email	8718
unstable	8717
Amsterdam	8717
21@@	8711
dinner	8710
tolerance	8709
ST	8707
Nevertheless	8705
Ben@@	8703
cooking	8702
Japanese	8700
cap@@	8698
guard	8697
psychiatric	8695
3.2	8692
Infanrix	8690
Details	8688
Pa@@	8686
o.@@	8686
4.7	8682
simultaneously	8682
variation	8682
β	8676
constantly	8676
Si@@	8674
stavudine	8673
ine-@@	8673
mechanical	8672
Quote	8668
MSD	8668
Earth	8666
mineral	8664
chamber	8663
top@@	8659
urea	8657
split	8655
catalogue	8652
HD	8650
sts	8650
boxes	8644
interact	8643
met@@	8643
River	8643
Dizziness	8642
ped	8640
variability	8640
pumps	8640
Intravenous	8624
ret@@	8613
HCT	8612
Maria	8612
PO@@	8612
bre@@	8611
021	8608
oo@@	8606
Luxemburg	8605
involvement	8605
brings	8602
transcriptase	8600
231	8597
6.3	8597
infant	8597
intensive	8596
ena	8596
Trizivir	8596
two-@@	8595
library	8595
Green	8595
Norvir	8595
connections	8594
Nor@@	8591
brown	8589
Rec@@	8588
InnoLet	8587
neurological	8584
episode	8581
ys	8581
med	8580
superior	8578
killed	8576
ik	8574
quantity	8573
172	8572
dynamic	8569
ros@@	8568
forth	8565
ational	8564
recognised	8564
dopamine	8559
notes	8558
pramipexole	8556
24-hour	8554
skilled	8554
generalised	8553
Local	8552
governments	8551
festival	8550
swollen	8547
Protopy	8547
rivastigmine	8546
Society	8543
331	8541
single-dose	8541
HR	8540
ered	8538
log10	8537
forecast	8535
Parking	8534
parenteral	8531
connect	8529
Cap@@	8527
impossible	8524
sclerosis	8523
intestinal	8523
ently	8522
disposed	8519
IR@@	8519
convulsions	8515
Link	8507
Agreement	8507
Edition	8505
Ich	8505
ides	8498
disposable	8497
Fi@@	8494
invited	8494
diuretic	8492
originally	8491
parent	8490
Juli	8484
Seretide	8483
commits	8480
Abseamed	8479
IA	8477
Pharmaceutical	8476
dreams	8473
Reference	8472
sepsis	8469
darunavir	8469
HO@@	8468
LI@@	8465
doubt	8464
manager	8461
DE@@	8461
smooth	8460
ging	8460
Bro@@	8459
toward	8458
assist	8453
residence	8450
shell	8449
ladies	8445
Second	8445
ICH	8444
Hol@@	8444
95@@	8443
NeoRecormon	8441
ola	8438
Elimination	8435
achieving	8435
eggs	8434
Small	8434
girl	8433
African	8433
Str@@	8431
CA	8431
Detailed	8430
157	8430
facing	8429
flu-like	8427
Therapy	8426
Get	8425
plays	8424
aseptic	8422
ED	8420
air@@	8420
Bonviva	8420
debossed	8419
My@@	8418
lu@@	8416
Education	8416
evil	8411
Bulgaria	8410
camp	8410
febrile	8405
artistic	8404
Conditions	8401
SO@@	8401
UL@@	8400
nations	8400
wishes	8399
Deutsche	8397
strengths	8397
packed	8397
Ref	8396
4.9	8396
Log	8396
Foreign	8395
minimise	8394
haemophilia	8393
contamination	8392
ya	8391
runs	8391
Master	8390
pertussis	8389
immunoglobulin	8387
flower	8386
reserved	8385
degrees	8382
por	8382
row	8381
lithium	8378
Release	8374
adoption	8373
IC	8370
ix	8365
Disorders	8356
anticancer	8356
coating	8356
ute	8355
bags	8355
guarantees	8354
pleasure	8353
Island	8352
AV@@	8351
Laboratories	8343
consisting	8342
de-@@	8342
www.amarillas@@	8341
I-@@	8337
PACK	8337
Support	8337
Im@@	8336
arthralgia	8336
Twinrix	8335
ba	8334
fashion	8331
Low	8331
hydrochloric	8331
jo@@	8330
var	8327
diluent	8325
Mac@@	8325
ches	8324
CYP	8320
yn@@	8317
OP@@	8315
Karvea	8315
Mus@@	8314
sore	8312
input	8312
binds	8311
compounds	8310
workshop	8309
presentations	8307
ened	8307
venous	8306
fuel	8302
Mutual	8301
WHO	8301
Guests	8298
1.25	8298
launched	8296
INFORMATION	8296
profit	8293
audio	8293
thigh	8292
о@@	8291
168	8289
Abbott	8287
til@@	8287
CR	8286
Indinavir	8283
Travel	8281
ord@@	8280
SYRINGE	8279
relapse	8278
relaxing	8276
Access	8276
Helicobacter	8276
export	8275
Microsoft	8272
entirely	8271
turning	8268
Slovenija	8266
bowel	8266
int@@	8265
sorbitol	8264
74@@	8264
†	8263
Annual	8262
homes	8262
enterprises	8260
Mat@@	8259
Min@@	8256
cirrhosis	8256
separately	8255
Through	8254
Slovenia	8254
dance	8254
68@@	8248
tipranavir	8248
organized	8245
painting	8244
opposition	8242
waters	8241
Age	8239
19th	8237
parallel	8234
107	8233
Sam@@	8232
flowers	8231
facility	8230
off@@	8230
clock	8230
ABILIFY	8230
116	8226
Site	8226
Κύπρος	8226
exclusively	8225
viewtopic.php	8223
career	8222
AF@@	8219
battery	8218
Tamiflu	8214
acetylsalicylic	8213
cast	8211
tons	8211
head@@	8209
infusions	8206
werden	8205
postmenopausal	8205
142	8204
320	8202
375	8201
severely	8200
123	8198
linear	8197
fitted	8195
OptiSet	8194
ching	8188
facilitate	8186
pooled	8183
ther@@	8182
trained	8177
spiritual	8177
to-@@	8172
spa	8171
targets	8170
wed	8170
š@@	8168
Card	8166
collect	8164
Lisbon	8162
insert	8157
latter	8157
visited	8156
foundation	8156
ori	8156
prevents	8156
Puerto	8155
ending	8153
Bas@@	8150
skepticalscience.com	8148
Puh	8146
flexibility	8145
sought	8144
Approximately	8143
glimepiride	8139
zum	8139
alkaline	8136
Cam@@	8136
Omnitrope	8133
kin@@	8132
exception	8131
Cardiac	8130
Soliris	8129
concurrently	8128
sqm	8128
Tre@@	8126
typically	8124
creative	8123
152	8121
ked	8120
begins	8118
extensively	8118
benign	8116
necrosis	8114
precise	8113
is-@@	8113
183	8113
Set	8111
München	8110
co-infected	8107
Jerusalem	8107
Vol@@	8105
Comp	8105
Disease	8104
locally	8098
Consequently	8098
Magnesium	8097
ash@@	8097
Zalasta	8097
men@@	8096
Should	8095
Bottle	8094
ose	8094
sort	8093
219	8090
Juni	8088
blind	8087
uncontrolled	8086
Gallery	8085
ul	8084
falls	8082
enc@@	8081
edition	8080
å@@	8080
Ru@@	8080
cat	8079
pri@@	8078
Tor@@	8077
recurrent	8076
TORISEL	8075
Gl@@	8072
Transfer	8072
teaching	8071
providers	8071
EMEND	8069
lots	8067
va	8066
module	8066
Latvia	8066
opposite	8065
Views	8065
ED@@	8059
Hall	8059
closer	8056
Emtriva	8055
chickens	8051
N.	8050
falling	8050
streets	8048
thin	8046
awareness	8045
butyl	8042
malaise	8042
NutropinAq	8041
MP@@	8040
0,0	8039
occasion	8035
Cy@@	8035
Sciences	8034
Cyprus	8033
pre-	8033
â	8033
Str	8033
SUSTIVA	8032
satisfaction	8030
electrical	8030
sauna	8027
Efavirenz	8026
theme	8025
Stuttgart	8023
occasionally	8021
ack@@	8019
sufficiently	8018
analogue	8017
harmonised	8015
obligations	8014
raw	8013
enz@@	8010
ding	8008
sti@@	8006
trimester	8005
con	8005
170	8000
du@@	7997
entitled	7996
fax	7991
INTELENCE	7990
XP	7986
206	7986
advertising	7985
Star	7985
Culture	7985
granules	7980
Posology	7980
prostate	7980
composition	7979
surroundings	7978
CI@@	7977
convenient	7976
Bondronat	7976
iness	7975
pan@@	7974
truly	7972
mor@@	7967
sign@@	7963
crucial	7962
son@@	7961
4th	7959
log@@	7958
Canary	7956
stations	7955
atic	7953
Ste@@	7953
354	7952
sur@@	7951
english	7951
engraved	7950
dizzy	7950
imaging	7949
switched	7946
fridge	7946
Efexor	7945
Hy@@	7944
Blue	7942
mon	7942
Dublin	7941
Ελλάδα	7941
ex	7941
atory	7940
D.	7939
cool	7939
Terms	7939
lived	7934
ass	7934
maintaining	7930
ong	7926
awarded	7925
drip	7924
drinks	7924
Ca@@	7924
cher	7923
Januvia	7922
union	7920
ours	7919
Pelzont	7917
import	7916
fix	7916
eating	7915
scan	7914
mel@@	7913
5000	7912
Protopic	7912
spinal	7912
CoAprovel	7911
	7911
Solvent	7911
injecting	7910
Zonegran	7910
ella	7909
aries	7909
impression	7908
depressive	7906
texts	7903
wa@@	7902
nearest	7901
aliskiren	7899
Reg@@	7899
134	7899
Dogs	7894
genotoxicity	7893
spots	7893
explore	7892
sun@@	7890
alisation	7890
Dry	7888
TO@@	7885
floors	7884
mention	7884
measles	7883
containers	7882
U.S.	7877
dehydration	7877
Sw@@	7877
Texas	7875
miles	7875
inspection	7873
144	7873
finance	7870
20th	7869
30th	7863
SE	7862
tin	7861
Kommentare	7859
amine	7859
ft	7859
vessel	7857
university	7857
helpful	7855
Jo@@	7855
Iron	7854
supplies	7853
mit@@	7852
STOCRIN	7848
inducers	7841
ron@@	7840
eh@@	7839
configuration	7837
super@@	7835
justice	7833
anaesthesia	7829
da@@	7829
accounts	7828
films	7828
aspect	7825
television	7825
Madam	7824
Step	7822
portfolio	7822
desloratadine	7822
hereditary	7819
OS@@	7819
reaching	7818
ß@@	7817
wooden	7816
phenylalanine	7816
variations	7816
noch	7816
burg	7813
ova	7813
Jewish	7812
stiffness	7808
Jews	7808
je	7807
England	7806
cutting	7805
heads	7800
ium	7799
Cas@@	7799
symptom	7797
3.6	7796
0.05	7796
Official	7795
Town	7794
OPA	7794
Symptoms	7794
15-@@	7793
transferred	7792
priorities	7789
congestive	7787
3.4	7784
documented	7784
sheet	7784
Rem@@	7783
Hel@@	7781
pal@@	7776
ey	7774
amendment	7772
doors	7771
Monitoring	7770
Despite	7768
IB@@	7768
discolouration	7767
ong@@	7766
drawing	7765
On@@	7765
cat@@	7758
hiking	7758
Johnson	7756
wash	7754
SCIENTIFIC	7751
CYP1A2	7751
ier@@	7747
spray	7747
concurrent	7745
acids	7742
Double	7741
Homepage	7740
ky	7736
herpes	7734
indigestion	7732
domain	7732
Cholestagel	7731
stools	7730
lists	7728
118	7726
charged	7723
zz@@	7722
loratadine	7719
Binocrit	7718
Brazil	7718
focused	7717
panel	7717
Located	7717
ben@@	7714
.at	7711
villa	7710
Sandoz	7709
171	7700
nutrition	7700
bear	7700
a.com	7698
ingly	7695
Thalidomide	7695
hel@@	7691
PL@@	7690
forming	7688
Bu@@	7685
pick	7676
stimulate	7675
visually	7674
ses	7672
western	7671
suddenly	7671
wild	7670
18-@@	7670
syrup	7668
Inject	7668
Talk	7666
ORENCIA	7665
didanosine	7664
amazing	7664
hol@@	7663
housing	7659
centrally	7658
vo@@	7658
Ko@@	7658
LA@@	7655
membranes	7654
Mary	7653
10H	7652
es.@@	7651
vol@@	7648
ate-@@	7645
domestic	7642
erm@@	7641
ern	7640
Lactose	7636
BMD	7636
promotion	7635
permitted	7632
ges@@	7630
nevirapine	7630
understood	7630
red@@	7628
affinity	7627
switching	7627
connective	7624
ov	7624
Magyarország	7621
373	7617
Non-smoking	7617
Kivexa	7616
Drug	7616
horse	7611
ities	7610
119	7604
inhabitants	7604
Ri@@	7603
extend	7602
Nature	7601
wi@@	7599
CH	7597
short-term	7597
ham	7595
of-@@	7595
comment	7591
Max	7589
Current	7588
trading	7580
olog@@	7575
helping	7575
BASAL	7575
southern	7575
Slovenská	7572
Sanofi	7564
Besides	7561
flatulence	7559
phosphatase	7554
98@@	7549
regime	7548
institution	7546
vertebral	7543
î@@	7543
ears	7542
Region	7541
Him	7538
war@@	7537
nach	7536
PD@@	7532
ust@@	7532
ARICLAIM	7530
afternoon	7529
ink@@	7529
dental	7528
cam@@	7526
133	7525
decreasing	7524
Â	7522
capecitabine	7522
lymphocytes	7521
attractions	7521
Mel@@	7520
tubular	7520
Em@@	7520
dosed	7518
euros	7516
Dynepo	7514
09@@	7514
composed	7514
Truvada	7513
self	7512
Follow	7509
logo	7509
rural	7508
lining	7508
facial	7506
MIRAPEXIN	7504
considers	7503
n-@@	7502
med@@	7501
adalimumab	7498
deterioration	7497
114	7496
Fund	7496
congestion	7491
hom@@	7487
award	7486
ISO	7486
virological	7481
destruction	7480
Tredaptive	7480
Land@@	7479
INCRELEX	7476
perspective	7476
tolerability	7476
bearing	7475
Environment	7475
definitely	7474
dated	7473
enter@@	7472
→	7471
seat	7471
hardware	7469
DepoCyte	7468
leaves	7467
exit	7466
dream	7465
Changes	7464
measurements	7461
balanced	7461
Polish	7460
Arts	7458
ign@@	7457
1.9	7456
add-on	7455
preparing	7453
www.rau-consultants.de	7452
serves	7452
pylori	7451
sounds	7451
profiles	7451
tea	7449
CHAMPIX	7448
investments	7446
skeletal	7446
hydro@@	7445
Lin@@	7443
ess	7443
visiting	7441
musical	7441
fell	7440
.ch	7440
174	7440
Power	7439
ank@@	7439
reservations	7439
designated	7438
organizations	7437
gh@@	7437
eastern	7435
net@@	7434
USB	7433
Placebo	7430
ride	7429
Gre@@	7428
comp@@	7428
microwave	7428
genetic	7427
forced	7427
Is@@	7423
tical	7423
Hyper@@	7423
Opinion	7419
thermal	7419
Ranexa	7418
influenced	7418
Los	7416
ff	7415
corresponds	7414
hypromellose	7411
erythromycin	7410
expansion	7410
finish	7406
Flash	7400
000@@	7400
Insulatard	7400
ory	7399
trouble	7398
Upper	7397
campaign	7397
Track	7396
ds	7393
Image	7392
RoActemra	7391
Royal	7391
untreated	7391
Thymanax	7390
hr@@	7390
song	7390
irritability	7390
ungs@@	7389
laser	7389
impressive	7386
spoon	7386
manufactured	7383
gi@@	7382
Fin@@	7381
Nations	7380
Carton	7379
Pri@@	7377
knew	7376
anz@@	7373
GR@@	7373
toilet	7372
manufacture	7369
Vomiting	7367
interrupted	7366
Program	7365
Chairman	7365
rain	7363
203	7360
Action	7360
Laboratory	7359
barrier	7356
schizophrenia	7356
modules	7354
sy@@	7351
identical	7345
cash	7345
Depending	7343
ee	7343
powers	7340
Revlimid	7340
ein@@	7340
Guest	7339
Musculoskeletal	7338
lands	7338
024	7338
l-@@	7336
totally	7336
si	7336
N-@@	7333
Tro@@	7333
0.01	7333
concert	7333
270	7331
refers	7330
star@@	7330
tal@@	7330
assigned	7329
lich	7328
1-2	7328
colitis	7326
046	7324
anaphylaxis	7322
sit	7322
precisely	7321
ien	7319
helped	7319
peaceful	7317
113	7317
Aus@@	7316
Diacomit	7315
symbol	7315
tired	7314
pregnancies	7314
Diovan	7314
Trevaclyn	7314
charges	7313
widely	7313
suite	7312
evident	7311
exciting	7309
temporarily	7307
the-@@	7307
wer@@	7306
passes	7301
Xeomin	7301
strict	7301
229	7297
Thelin	7296
discovered	7294
derivatives	7291
ente	7288
O.	7288
Paxene	7280
Network	7280
remote	7279
Procedure	7275
perforated	7274
Viani	7272
residue	7270
mycophenolate	7267
namely	7266
compact	7266
clothing	7265
Nov@@	7265
Dynastat	7264
dig@@	7263
lP	7262
inclusion	7262
Vial	7261
valuable	7260
frequencies	7260
plate	7260
golf	7260
classified	7256
marketed	7256
lev@@	7252
ades	7250
18th	7248
restlessness	7246
mobility	7246
tes	7242
ny	7242
payments	7242
1991	7242
purified	7242
Unknown	7241
pathway	7238
continuously	7237
calling	7237
143	7237
youth	7235
leaving	7235
alization	7234
varied	7233
Mari@@	7233
tiv@@	7231
1989	7230
publications	7226
Whether	7223
SUTENT	7222
Copalia	7220
interpretation	7218
spectrum	7215
ain@@	7215
thromboembolic	7214
pat@@	7213
Fuzeon	7213
immunogenicity	7210
Des@@	7208
che@@	7207
Pramipexole	7206
undergo	7206
Aprovel	7204
removing	7203
Scientific	7199
Ski	7199
studio	7199
Turn	7197
bel@@	7196
glaucoma	7192
Hi	7192
Fe@@	7192
Spa	7191
Busilvex	7190
lam@@	7189
Slovakia	7189
CONSTA	7188
Registration	7188
disodium	7187
Cartons	7187
colleagues	7185
Method	7183
letters	7182
Play	7182
bin	7181
Ol@@	7180
temperatures	7179
presenting	7174
HBeAg	7174
carrying	7172
Enviage	7170
Web@@	7169
Close	7168
sin	7167
scene	7167
1500	7167
nation	7165
bread	7164
CIALIS	7164
encourage	7160
Country	7160
inspections	7159
portion	7158
zi@@	7158
za	7157
PI	7157
formats	7157
breeze	7156
imatinib	7155
à@@	7154
Select	7153
borders	7153
1x@@	7152
loc@@	7151
Por@@	7149
haben	7146
directory	7146
poverty	7145
½	7144
serotonin	7144
rings	7142
sem@@	7142
accident	7141
Real	7139
Immune	7138
ances	7137
Protaphane	7137
releases	7136
bes@@	7135
CDATA	7135
ñ@@	7134
colors	7133
Dec@@	7132
Valtropin	7132
humidity	7131
196	7131
rising	7129
Kineret	7129
Lu@@	7128
silver	7127
über	7124
Rent	7122
reflected	7122
Swedish	7121
reasonable	7117
Pres@@	7115
calcitonin	7115
toxicities	7110
Sil@@	7110
Venice	7108
centres	7107
ado	7105
putting	7104
Tritace	7104
triple	7101
myopathy	7099
ls	7096
premature	7096
turns	7095
Sub@@	7095
Gro@@	7094
Mc@@	7093
pic@@	7092
dass	7090
wir	7089
beneficial	7087
reductase	7085
ture	7083
stenosis	7082
5.6	7082
TS	7081
CE	7080
thrombotic	7079
Turkish	7078
roll	7078
posaconazole	7077
applying	7076
declared	7074
SOMAVERT	7071
Sales	7071
zinc	7070
Ebixa	7069
mehr	7069
supplier	7067
define	7064
ho@@	7064
hl@@	7063
Neulasta	7059
ramipril	7058
Tasigna	7055
ischaemic	7053
curve	7053
radiotherapy	7052
Serum	7048
bradycardia	7048
sum	7045
comparative	7045
PritorPlus	7045
relaxation	7044
Lda	7044
resolve	7043
Month	7043
voted	7042
oid	7042
ably	7041
op	7038
SA@@	7033
Wi@@	7032
114@@	7032
NRTIs	7029
accurate	7025
inv@@	7024
student	7024
190	7024
Robert	7021
cessation	7019
haus	7019
gift	7018
authorisations	7018
Ísland	7014
ā@@	7013
ide@@	7012
00-@@	7011
fainting	7010
pravastatin	7007
Levemir	7006
audience	7006
Zavesca	7006
Protection	7005
i.@@	7004
027	7004
transition	7003
2.9	7002
interruption	7001
Zerit	7000
elections	7000
CT	6999
Terrace	6998
operators	6998
arrhythmias	6997
199@@	6997
218	6996
EVRA	6995
websites	6995
ANC	6993
agenda	6992
agriculture	6991
everyday	6991
5.4	6991
Piroxicam	6988
shares	6987
mu@@	6984
girls	6983
ously	6982
uro@@	6980
elected	6978
ures	6977
strategies	6977
wines	6977
Avoid	6976
hallucinations	6972
guided	6972
saved	6971
Sy@@	6970
plenty	6968
Professor	6967
PhotoBarr	6967
ticket	6967
25-@@	6967
hyperplasia	6966
telithromycin	6965
ulation	6964
tickets	6963
MRLs	6962
myeloma	6962
CR@@	6962
42@@	6961
suppliers	6957
Have	6957
195	6956
GB	6955
VIRACEPT	6954
Dem@@	6953
additive	6953
liability	6952
Vis@@	6952
equally	6951
sie	6950
largely	6948
Av@@	6948
DO@@	6947
sand	6945
e-	6944
Man	6943
co-	6943
Pages	6942
restrictions	6939
occasions	6939
2020	6937
introduce	6937
Points	6937
Daily	6935
ware	6934
testosterone	6933
substantially	6932
bringing	6932
timolol	6932
imprinted	6931
TESAVEL	6928
än@@	6926
answered	6926
ranges	6923
Yet	6921
urgent	6921
Moscow	6920
Interaction	6920
ham@@	6918
win@@	6917
transaminases	6916
seizure	6915
filed	6914
Pasteur	6913
BOEHRINGER	6913
survey	6912
magnetic	6912
DULOXETINE	6911
INGELHEIM	6911
politics	6910
dipivoxil	6909
COX-2	6906
hPa	6906
heaven	6905
guaranteed	6905
Actrapid	6904
mid@@	6903
mannitol	6902
granting	6900
ender	6900
Valley	6899
TRISENOX	6897
depressed	6897
bs	6897
214	6896
Gardasil	6896
obvious	6894
feline	6894
Abdominal	6892
Cologne	6891
all-@@	6891
Vista	6889
protamine	6888
8.5	6886
Son	6885
Telephone	6883
lounge	6879
ore@@	6879
Choose	6878
3.9	6877
accounting	6872
Muscle	6871
p-@@	6871
songs	6869
Tur@@	6868
Journal	6865
lets	6864
renewable	6864
decades	6864
sharing	6861
believed	6859
Eucreas	6858
wie	6856
Char@@	6856
INVEGA	6856
Ask	6855
Suboxone	6855
ous@@	6854
208	6852
sending	6852
Č	6851
Filmtabletten	6850
Sprimeo	6848
ts@@	6848
maximal	6847
52@@	6847
tennis	6844
victims	6843
1.jpg	6841
Darbepoetin	6839
PSURs	6838
Express	6837
eter@@	6837
recognized	6835
EL	6834
currency	6834
Haemophilus	6833
employed	6833
Ak@@	6831
Wyeth	6830
rol@@	6828
Square	6828
marks	6827
dealing	6826
HI@@	6825
Doxazosin	6823
Allah	6823
vaginal	6823
candidiasis	6822
96@@	6818
eth@@	6818
intense	6818
suggests	6817
Glustin	6817
Valdoxan	6816
incontinence	6814
mi@@	6813
155	6812
Axura	6811
responding	6811
Award	6807
parahydroxybenzoate	6805
or-@@	6805
15th	6803
mutagenic	6803
workshops	6802
pu@@	6801
pos@@	6801
farmers	6801
meant	6800
ör@@	6799
á	6798
MRI	6797
6.0	6797
noise	6797
lymphatic	6793
tho	6791
solve	6790
Efient	6789
eg	6787
arch@@	6785
ECG	6784
Lucentis	6782
Cr@@	6782
inactive	6781
oriented	6780
preferred	6780
organisms	6780
Allergic	6779
nen	6778
izing	6777
precipitation	6777
arrangements	6776
.dll	6775
match	6775
accession	6775
char@@	6774
equ@@	6770
ste	6769
Hu@@	6769
breastfeeding	6769
MicardisPlus	6767
kids	6767
sam@@	6764
Heating	6763
etravirine	6762
Feeling	6760
zur	6758
jetzt	6758
ho	6758
contributions	6758
promoting	6758
IV@@	6757
kann	6756
identity	6755
Castle	6754
flu@@	6750
Xigris	6749
Vel@@	6749
gre@@	6749
Team	6747
flights	6746
cure	6742
clot	6741
Server	6741
stream	6740
hourly	6738
ET	6738
surfaces	6737
Mod@@	6736
dihydrogen	6735
contracts	6733
babies	6732
fantastic	6730
Kal@@	6729
rose	6729
lunch	6729
factory	6728
assets	6728
cramps	6728
gel@@	6727
ita	6725
Res@@	6723
Fil@@	6723
whatever	6721
arise	6719
Thyrogen	6718
accessories	6718
yes	6717
Tra@@	6716
FeLV	6715
AU@@	6715
202	6713
Legal	6713
Mac	6711
Riprazo	6711
DA	6711
Professional	6709
yp@@	6709
northern	6709
MAR@@	6708
mil@@	6707
tue	6706
implementing	6704
nur	6703
determination	6702
involves	6700
Port	6700
fac@@	6697
thalidomide	6697
uns	6696
FORSTEO	6694
rail	6691
³	6691
affairs	6687
revision	6684
ket@@	6683
pipettes	6683
differ	6682
ner@@	6680
les@@	6678
OL@@	6678
.48	6675
Wind	6674
Digital	6674
entertainment	6669
communities	6669
mp@@	6669
radiolabelled	6668
ko	6668
PRODUCTS	6666
Plus	6665
destroyed	6664
resource	6664
Oy	6662
tn	6662
pur@@	6660
Abraxane	6656
boards	6655
Mylan	6653
emia	6650
Kon@@	6650
strasse	6648
New@@	6647
EXJADE	6646
Mg	6646
Orodispersible	6646
regarded	6644
facts	6636
nitric	6636
www.ypagesusa.com	6634
121	6630
bet@@	6630
cross-@@	6628
End	6627
Dafiro	6627
disabled	6621
Chi@@	6620
legislative	6620
-related	6618
6.4	6617
031	6617
campsite	6616
theory	6612
creates	6612
og	6612
Palace	6610
inserted	6610
depth	6609
propionate	6608
Assessment	6608
Celgene	6608
258	6606
ography	6606
converting	6603
cutaneous	6603
bipolar	6599
industries	6599
org	6597
Anti-@@	6596
Iceland	6594
graft	6593
Galvus	6589
Zurich	6589
actively	6589
bromobutyl	6589
rit@@	6588
bathrooms	6587
budgetary	6587
los	6586
struggle	6585
drivers	6585
mutation	6583
lat@@	6581
joy	6580
Post@@	6580
radioactive	6579
tis@@	6578
wheezing	6576
Poly@@	6576
submission	6576
partly	6575
212	6574
act@@	6573
cervical	6569
villages	6569
gam@@	6569
Act	6568
PT	6568
prayer	6568
directions	6567
anger	6564
agonist	6562
abl@@	6561
gastro-resistant	6559
Previous1	6558
revised	6557
Pradaxa	6557
lock	6557
principal	6556
122	6556
mine	6555
Vectibix	6555
nifedipine	6555
implant	6554
cont@@	6554
institutional	6552
erv@@	6552
Recognition	6551
023	6550
Regional	6550
5.7	6548
teams	6548
ils	6547
Four	6546
Frequency	6543
copper	6542
14-@@	6542
Med@@	6540
Silgard	6539
sofa	6539
finger	6537
Ur@@	6537
proved	6536
adapted	6535
ax	6534
examine	6532
comm@@	6531
Velmetia	6529
bor@@	6529
hor@@	6528
Accommodation	6528
iPhone	6528
ET@@	6527
RUB	6526
Gar@@	6525
doxazosin	6524
bri@@	6523
Line	6523
Hand@@	6520
sit@@	6520
endometrial	6519
shorter	6519
Pro	6518
Mil@@	6518
5th	6517
BV	6514
prove	6513
sn@@	6511
hit	6511
chair	6511
Ham@@	6508
hidden	6506
keys	6504
Cre@@	6503
amongst	6503
deaths	6502
Moses	6502
Vor@@	6500
025	6497
insulins	6497
nervousness	6496
isn	6495
ico	6494
Risperdal	6492
Yellow	6491
Organ	6489
Division	6489
8th	6487
lenalidomide	6486
non-	6485
thumb	6484
rifabutin	6482
considerably	6481
Val	6478
2-3	6477
soil	6476
Facebook	6476
dimensions	6476
roof	6476
eská	6473
ADROVANCE	6473
debt	6472
Medi@@	6472
Tourist	6472
gemfibrozil	6472
Janumet	6469
10,@@	6467
expensive	6466
221	6465
get@@	6465
greatly	6464
refractory	6463
-P@@	6463
lighting	6463
gentle	6462
brother	6462
sedation	6462
279	6462
recording	6460
Come	6460
stri@@	6459
-2	6457
IF@@	6457
Fri@@	6456
cul@@	6456
separated	6454
3A4	6452
inst@@	6449
Academy	6448
indoor	6446
63@@	6446
pyrexia	6445
D3	6443
ovulation	6442
z-@@	6442
-based	6439
sachets	6439
moderately	6437
remission	6436
Efficib	6434
intend	6434
ths	6432
Corporation	6432
Golf	6432
propylene	6431
guideline	6431
lumiracoxib	6430
BOTTLE	6429
207	6428
Analysis	6427
exacerbation	6426
specially	6426
secret	6426
islands	6425
shot	6424
GE	6422
teeth	6420
infused	6420
Icandra	6420
Computer	6417
hydroxy@@	6417
thu	6416
periodically	6416
concepts	6415
estimate	6415
istic	6414
obstruction	6412
lethargy	6412
classical	6412
CE@@	6410
arrived	6410
Combivir	6410
147	6409
characters	6409
involve	6407
Oprymea	6407
clo@@	6406
Es@@	6403
Customer	6402
cer@@	6401
saving	6401
kers	6401
acy	6400
inger	6400
Imprida	6397
multiforme	6397
RotaTeq	6397
QTc	6397
Les	6397
CRIXIVAN	6395
en.htm	6394
Preotact	6392
Zomarist	6392
Big	6389
privacy	6389
VELCADE	6388
crime	6387
hypoglycaemic	6386
org@@	6386
Authority	6385
Ventavis	6384
flip-off	6383
Invega	6383
diverse	6380
Polysorbate	6380
Men@@	6380
justified	6380
ford	6380
Hypromellose	6380
gained	6378
ij@@	6378
statin	6378
immunodeficiency	6377
technological	6372
satisfied	6370
publishing	6368
duty	6368
Zeit	6367
EU@@	6365
alopecia	6365
specialised	6363
ton@@	6363
oestrogen	6362
Staphylococcus	6362
162	6360
asse	6358
Hor@@	6358
ws	6357
San@@	6357
sweet	6356
94@@	6354
colloidal	6353
rubella	6353
Player	6352
ation-@@	6351
ic-@@	6351
Institut	6350
Sports	6350
associations	6349
IG@@	6349
Sonata	6348
set@@	6348
tubes	6348
afterwards	6348
ama	6347
cu@@	6346
detect	6346
postnatal	6344
follitropin	6342
Mimpara	6341
Full	6338
owned	6337
decorated	6332
Ms	6331
expectations	6331
entecavir	6331
deleted	6328
retinal	6328
Way	6328
0.03	6326
native	6324
Pull	6324
War@@	6324
relieve	6323
Au@@	6322
neuro@@	6319
advisable	6319
ush@@	6317
Cuba	6315
ination	6315
Abb	6315
seeking	6312
exceeding	6311
daughter	6311
California	6310
Influenza	6307
3D@@	6306
shake	6305
cent	6304
washing	6303
sec@@	6303
ded	6302
Crohn	6301
imp@@	6299
hormones	6299
fur@@	6298
charming	6295
Epivir	6293
Inn	6291
Loc@@	6291
onic	6288
german	6287
tendency	6286
Currently	6285
Maintenance	6285
screw	6285
departure	6284
fans	6284
grown	6281
contrary	6281
tightness	6281
Key	6279
isch	6278
learned	6278
Building	6277
Transport	6277
ck.php	6275
avw.php	6274
add@@	6274
travelling	6274
cleared	6272
claimed	6272
loads	6272
avenue	6272
trends	6270
dosages	6268
lovely	6267
Language	6266
burden	6266
tar@@	6264
dys@@	6260
emotional	6259
Op@@	6258
eness	6257
ht@@	6255
comply	6254
Mobile	6251
medi@@	6250
Activities	6250
Preclinical	6248
bel	6248
fluconazole	6247
FABLYN	6246
alized	6246
adrenal	6245
consulting	6241
The@@	6239
137	6239
well-known	6237
Lithuania	6237
Vascular	6236
ato	6236
vertigo	6235
revolution	6234
Geneva	6232
fleet	6232
massage	6231
029	6230
ira	6230
CO2	6226
ish@@	6225
designs	6224
strip	6223
appropriately	6221
ordered	6221
threatening	6220
listen	6220
communications	6220
modify	6219
hill	6218
Athens	6217
ün@@	6216
13th	6216
Indeed	6215
377	6215
Similar	6214
candidate	6213
illegal	6212
disappear	6211
frozen	6209
compromise	6209
password	6208
tower	6208
dia	6207
Unfortunately	6207
usage	6207
QD	6205
mus@@	6205
ni	6205
.....	6204
kl@@	6204
zoneid	6203
erectile	6202
follicular	6201
PS	6199
recurrence	6199
CYP2C19	6198
Love	6197
unwell	6195
hydrogen	6194
Primary	6193
iting	6193
defect	6190
oph@@	6188
run@@	6187
Inovelon	6186
Alzheimer	6186
passengers	6185
dar@@	6184
clofarabine	6183
army	6182
EWP	6181
ched	6180
meaningful	6179
infestations	6179
Infusion	6179
Reduction	6176
fifth	6174
lights	6174
Renagel	6174
prefer	6173
riding	6171
defence	6171
silica	6170
wing	6170
arising	6169
water@@	6167
reaches	6167
holds	6166
breaking	6166
-up	6166
Artikel	6163
028	6162
suffered	6160
opportunistic	6160
skiing	6160
enabled	6160
www.regiolab.info	6158
holy	6158
INFAI	6158
m-@@	6157
unexpected	6157
operator	6155
statins	6154
lit@@	6154
lipid	6154
transportation	6154
Industry	6153
Pat@@	6153
Iran	6150
epidermal	6150
operated	6149
Factor	6148
asymptomatic	6147
16th	6146
discard	6146
def@@	6146
129	6144
high-quality	6143
entering	6143
Ö@@	6142
hCG	6141
solidarity	6140
Training	6138
recipients	6136
SU@@	6136
pdf	6134
grant	6133
Secretary	6133
ias	6133
Parareg	6132
ili@@	6130
convention	6130
familiar	6128
alli	6127
SS	6123
--@@	6123
pemetrexed	6122
root	6121
ids	6118
revenue	6118
DR@@	6115
Clear	6114
pointing	6113
compatibility	6112
hypertrophy	6112
odi@@	6110
representing	6110
aber	6107
sub-@@	6107
Win@@	6106
bul@@	6102
ap	6102
ily	6101
v.	6100
det@@	6099
cultures	6099
coat	6099
uptake	6099
Chronic	6098
arc@@	6098
macrogol	6097
Düsseldorf	6096
So@@	6095
Copyright	6094
LU@@	6092
Neupopeg	6092
SIFROL	6091
arrive	6089
bacterium	6087
play@@	6087
intestine	6086
stories	6086
tically	6085
fail	6085
Iraq	6085
statistical	6082
bol@@	6082
cop@@	6082
LDL	6081
valproate	6080
inch	6076
Nexavar	6074
DC	6071
Sur@@	6069
CL@@	6068
itchy	6068
ingestion	6067
30.@@	6067
alendronate	6067
и@@	6065
chairs	6065
276	6064
tin@@	6064
pectoris	6063
LA	6063
leadership	6059
lesion	6057
stem	6057
alanine	6055
titrated	6053
kinase	6053
logistics	6051
Together	6051
Facilities	6050
disk	6049
wealth	6049
unlimited	6049
188	6048
records	6048
zen	6048
supervised	6047
ward	6046
addresses	6046
handled	6045
returns	6045
acquisition	6044
Between	6043
Ketek	6043
une	6043
pretty	6041
wordpress.org	6041
filtration	6039
026	6038
ZYPADHERA	6037
fund	6036
branch	6036
intention	6036
sole	6033
cerivastatin	6032
Nycomed	6031
Pe@@	6031
transactions	6031
prize	6030
Mycophenolate	6030
vom	6029
-like	6028
cartons	6028
processed	6027
Viread	6027
Nobilis	6024
234	6024
ath	6023
Tourism	6022
11th	6021
offspring	6021
as-@@	6019
Urinary	6018
establishing	6015
buprenorphine	6014
volumes	6011
a.	6009
at-@@	6009
emphasis	6008
glycaemic	6007
li	6005
iner	6005
lying	6002
genital	6000
3-4	5998
darbepoetin	5997
Ka@@	5997
4000	5996
justify	5995
Lantus	5994
ideation	5993
7.2	5991
tips	5990
malformations	5990
Land	5990
competence	5989
SINGULAIR	5989
romiplostim	5989
lessons	5987
aspart	5987
Ambirix	5987
vast	5986
moisture	5982
reforms	5982
heim	5982
ZOSTAVAX	5981
PCI	5981
Abnormal	5979
inspected	5978
dev@@	5978
periodic	5978
fitness	5976
MR@@	5974
acne	5973
cord	5973
arts	5972
carbidopa	5971
feedback	5971
nursing	5970
Bor@@	5969
producers	5969
Large	5968
ude	5967
Given	5967
beings	5967
Rock	5966
membership	5965
rashes	5965
emulsion	5962
bach	5962
EM@@	5961
TION	5958
17th	5957
Figure	5956
idi@@	5956
Interactions	5956
cancers	5956
415	5956
ox	5954
driven	5954
Administrador	5951
answers	5951
ora	5950
depletion	5950
Inserido	5950
discount	5950
brief	5950
dispersible	5949
CON@@	5948
č@@	5948
uniformly	5947
leisure	5947
orlistat	5945
centuries	5945
LH	5944
Visual	5944
Bosch	5943
managing	5941
attenuated	5939
parecoxib	5938
unemployment	5938
Replagal	5937
anniversary	5936
ë@@	5936
lisinopril	5934
loose	5932
-0.@@	5932
tab	5930
controlling	5930
patterns	5930
posology	5930
characterized	5929
mumps	5929
artificial	5929
breakdown	5929
ae	5928
gardens	5926
SoloStar	5926
edi@@	5925
generate	5925
ele	5924
Jehovah	5924
03@@	5923
ases	5923
ving	5923
Tabletten	5922
outcomes	5921
e.htm	5920
gt	5920
JPG	5919
3.8	5919
spoken	5918
aspirin	5915
Ren@@	5913
fighting	5911
cit@@	5911
reliability	5908
Pen@@	5907
combine	5907
Aldurazyme	5905
breeding	5905
Met@@	5905
039	5905
tomorrow	5904
6th	5904
Latest	5903
ode	5902
hath	5900
Upon	5899
infectious	5899
Peace	5899
roads	5898
Streptococcus	5897
dasatinib	5894
plain	5893
pathways	5891
Communication	5891
Porto	5890
preservative	5889
Sar@@	5889
ises	5889
dissolve	5888
ron	5888
open-@@	5886
Az@@	5885
palpitations	5882
syncope	5881
p.@@	5881
characteristic	5879
accuracy	5876
Level	5875
HBVAXPRO	5874
Federation	5871
exceeded	5870
sel	5870
genotoxic	5869
Mas@@	5869
TA	5868
lab@@	5868
anticoagulant	5868
Fer@@	5867
Doses	5867
Interferon	5866
SPRYCEL	5865
fed	5865
blowing	5865
hypo@@	5863
snow	5863
sessions	5862
spoke	5858
Volume	5857
proportional	5857
Wal@@	5856
endogenous	5856
eczema	5855
Baxter	5853
gn@@	5850
Pan@@	5850
Pre-@@	5849
wellness	5848
officials	5848
archive	5847
A-0@@	5847
bet	5845
124	5845
Will	5844
QU@@	5844
CSF	5842
haem@@	5841
suggesting	5840
£	5840
sed	5840
eyelid	5839
ular	5839
movie	5839
beer	5839
bioequivalence	5839
ail@@	5839
upright	5838
Lactation	5838
committees	5837
muscular	5836
Ram@@	5836
license	5835
react	5835
rer	5833
VTE	5832
proteinuria	5828
1988	5827
Tim@@	5825
enormous	5825
permanently	5824
Shop	5823
nitrogen	5823
quinidine	5821
weg	5821
trips	5821
ACR	5820
10th	5820
Posaconazole	5820
oll@@	5820
356	5818
stood	5817
lodging	5816
household	5813
attempts	5813
explains	5812
Ti@@	5810
zer	5810
Estate	5808
ruled	5808
inhaler	5808
alism	5807
abuse	5807
antimicrobial	5806
IgG	5805
CYMBALTA	5803
uk	5801
expenses	5801
signals	5800
proud	5799
religion	5799
graphics	5799
stomatitis	5798
posted	5797
Bathroom	5797
kilogram	5796
Stockholm	5796
subgroup	5794
Sebivo	5792
Xyrem	5791
Zerene	5790
ix@@	5790
cotton	5790
ards	5789
319	5788
patient-years	5788
marine	5785
stainless	5785
Ed@@	5784
ache	5784
INOmax	5784
ency	5781
Without	5781
Growth	5779
shaking	5777
Cat@@	5777
visitor	5774
pandemic	5773
Min	5772
reflux	5770
PR	5769
ProQuad	5769
Korea	5769
Biograstim	5769
einem	5768
aqueous	5765
TYSABRI	5764
es.com	5763
tend	5762
wiki	5762
Erbitux	5761
Specific	5759
flavour	5759
bed@@	5757
modified-release	5756
INR	5754
ologic	5751
thereof	5750
Mont@@	5749
wave	5746
dimension	5746
A.@@	5745
juvenile	5744
negligible	5744
einen	5744
Effect	5743
ari	5743
ethanol	5743
Tadalafil	5742
hypokalaemia	5741
battle	5741
Rico	5741
Fort	5741
oh@@	5738
towns	5738
heritage	5738
thickness	5737
elling	5736
LED	5736
criminal	5735
Instead	5735
Tekturna	5734
464	5734
TID	5733
Quixidar	5728
Signs	5727
renowned	5727
FR@@	5726
Route	5725
tal	5724
persist	5723
bit@@	5720
HepB	5720
intracranial	5720
instruction	5719
hard@@	5716
attributed	5716
inability	5715
erection	5714
rimonabant	5714
Kuvan	5710
Congress	5707
panoramic	5707
H-@@	5707
Direct	5705
adjuvant	5705
vor@@	5705
Shipping	5704
Contains	5702
ura	5700
CONDITIONS	5700
8.0	5699
competitiveness	5698
ace	5697
copyright	5697
cellular	5695
suit	5694
Cedex	5692
nov@@	5692
dial	5691
Britain	5691
squ@@	5690
ME	5690
mm@@	5689
ketoacidosis	5689
three-@@	5688
Ho@@	5688
loaded	5687
rem@@	5686
Micardis	5686
39.@@	5686
Bruxelles	5686
BE	5686
pronounced	5686
weekend	5685
Saint-@@	5685
8.8	5684
seroconversion	5683
Model	5683
Long-term	5683
066	5682
tourists	5681
MU	5681
responsibilities	5676
glands	5673
mucous	5672
neutralising	5672
hearts	5671
117	5669
province	5669
13,@@	5668
Actos	5668
ali@@	5668
Rotarix	5667
Panretin	5666
renovated	5666
tures	5665
Infusat	5664
Prime	5664
FR	5663
furoate	5663
displays	5662
Kinzalkomb	5662
Cur@@	5660
thi@@	5660
Don@@	5658
Investment	5658
dat@@	5657
Ra@@	5657
nor@@	5655
opens	5655
Salzburg	5653
145	5653
heartburn	5653
Ul@@	5653
EPO	5652
doxycycline	5652
7th	5648
elevator	5648
millions	5647
viewed	5645
phenobarbital	5645
BC	5641
Cubicin	5641
indirect	5641
120@@	5641
antipsychotic	5639
destroy	5638
ici@@	5638
Dor@@	5638
upwards	5636
ok	5635
6000	5634
ø@@	5634
PROCOMVAX	5634
NAMES	5634
Tel@@	5633
fly	5633
port@@	5633
Starlix	5632
diversity	5632
2015-0@@	5632
Diskus	5631
192	5630
SC@@	5628
Prevenar	5627
Visit	5626
245	5626
psoriatic	5623
thrombin	5623
5.8	5623
pin@@	5621
catalog	5621
Xiliarx	5620
136	5620
freezer	5619
alert	5619
pressing	5618
modifications	5618
Preparation	5616
migration	5616
cookies	5615
quantities	5613
potency	5612
classification	5611
Less	5610
Rule	5607
tenderness	5607
weapons	5607
registry	5606
election	5606
Ir@@	5606
stores	5602
piano	5600
optional	5600
Peripheral	5599
213	5596
Rom@@	5595
wheel	5595
constitute	5595
Looking	5594
stimulates	5593
Mit@@	5591
ements	5591
column	5588
pop@@	5588
incl.	5586
lim@@	5585
ler@@	5585
exhibitions	5585
GNU	5584
bronchitis	5582
monoclonal	5582
Jalra	5582
ADMINISTRATION	5581
transfusion	5580
USD	5579
toxin	5579
Irish	5578
stra@@	5576
methoxy	5576
SEO	5575
Fabrazyme	5574
ions	5574
priest	5573
dishwasher	5572
notified	5571
aqu@@	5569
ch-@@	5569
dom@@	5567
2014-0@@	5567
mid-@@	5566
amin@@	5565
Ceftriaxone	5564
412	5563
freeze	5562
Plavix	5561
089	5560
compensation	5559
dust	5558
BY	5557
DA@@	5555
6.7	5552
Dosing	5551
Micro@@	5551
a.m.	5550
kon@@	5548
Arab	5548
belonging	5547
participated	5546
Savene	5544
genotype	5544
ce@@	5544
Pets	5542
Sp.	5542
SM@@	5541
82@@	5540
153	5540
Population	5538
EF@@	5537
preclinical	5535
MP3	5535
dew	5534
twelve	5532
kingdom	5531
faced	5531
zero	5529
seasonal	5529
tem@@	5529
Doribax	5529
discoloration	5528
carrier	5528
Myozyme	5527
methadone	5526
oxidase	5525
Major	5524
biliary	5524
sch	5522
Drive	5521
166	5519
script	5518
arranged	5518
multidose	5517
responders	5517
part@@	5517
bioequivalent	5517
BEST	5516
NA	5515
stuff	5515
programming	5515
fatty	5514
hof	5514
PL	5514
t.@@	5514
breakthrough	5514
necessarily	5514
newborn	5513
convert	5511
Fol@@	5510
optic	5510
ISENTRESS	5509
bal@@	5509
cumulative	5507
booked	5507
alive	5507
adopt	5506
Iscover	5505
Pritor	5503
Literaturang	5503
slopes	5502
Takeda	5502
150@@	5500
seriously	5497
somewhat	5497
DO	5495
cerebrovascular	5495
Title	5494
ial@@	5494
photosensitivity	5493
delivers	5493
pap@@	5492
Log@@	5491
ori@@	5490
modest	5490
revolutionary	5489
Pap@@	5487
una	5485
90Y	5485
eller	5484
leather	5484
Ke@@	5482
0.15	5481
ord	5481
73@@	5480
conclude	5479
app	5478
magnificent	5478
certificate	5477
Basel	5476
ams	5475
bind	5475
contributed	5473
Starting	5472
H5N1	5472
UAB	5472
NeuroBloc	5470
disability	5470
tag	5470
conjunctivitis	5470
edit	5470
judgment	5469
ia@@	5469
universal	5469
arrest	5468
XERISTAR	5468
maraviroc	5468
Radio	5468
leflunomide	5468
FA@@	5465
215	5465
relationships	5465
Fever	5465
Restaurants	5463
aria	5463
Km	5463
Bon@@	5462
interim	5461
Roma	5460
Tu@@	5460
makers	5459
Inf@@	5459
12,@@	5458
Previous	5456
Milano	5455
estradiol	5455
Orgalutran	5455
G.	5454
ATION	5452
hu@@	5452
ined	5448
Den@@	5448
oldest	5448
highlight	5445
molecular	5445
eventually	5444
vis@@	5442
Europa	5441
embolism	5441
2008-0@@	5441
eter	5438
ent-@@	5437
All@@	5437
parathyroid	5435
Her	5435
Form	5435
fu@@	5435
PP	5433
scientists	5433
smoke	5432
sand@@	5432
HTML	5431
spondylitis	5430
0.00	5430
14th	5429
dro@@	5429
sor@@	5428
einer	5428
assays	5428
ziconotide	5428
Siklos	5427
rad@@	5427
37.5	5426
unter	5426
gar@@	5426
feelings	5426
STELARA	5426
pul@@	5424
ged	5423
Visudyne	5423
trace	5423
identification	5422
delicious	5421
Did	5419
controller	5418
investigate	5418
paintings	5418
invite	5417
consistency	5417
Complete	5417
immun@@	5416
vigabatrin	5416
Las	5416
theatre	5415
Height	5415
compare	5413
paragraph	5411
calculation	5411
pins	5410
Vaccine	5410
ea@@	5410
Mi@@	5409
Luc@@	5407
ain	5407
ort	5405
Go@@	5402
Night	5401
musculoskeletal	5399
gate	5399
steroids	5398
Estonia	5397
participating	5396
olive	5396
Adopted	5395
purchased	5395
approaches	5394
Milan	5392
TE	5392
285	5390
ón	5390
Mur@@	5389
overdosage	5388
labelled	5387
Bone	5387
ultrasound	5386
tig@@	5386
Ni@@	5386
Mag@@	5385
ians	5385
lacosamide	5385
teachers	5384
system@@	5383
Bay	5383
Questions	5381
hole	5381
kill	5381
ú@@	5380
Chemical	5379
Mild	5379
301	5378
1987	5378
MM	5377
bortezomib	5375
headaches	5375
Metacam	5375
8.3	5374
hence	5374
3.7	5373
í	5373
entries	5372
Bible	5372
sehr	5371
romantic	5371
Kor@@	5371
nam@@	5369
b.	5368
unity	5368
Activelle	5366
Residence	5366
uterine	5366
www.k@@	5366
customs	5366
Yondelis	5365
iss@@	5363
correction	5363
dri@@	5363
VICH	5362
glucuronidation	5362
tional	5361
enjoyed	5359
650	5358
alle	5358
α@@	5357
spectacular	5356
portal	5356
phot@@	5354
Paper	5353
Asian	5353
NL	5351
pointed	5351
blocked	5350
labels	5350
extraordinary	5347
winning	5346
01@@	5345
assessments	5345
reflects	5345
13-@@	5344
orm@@	5343
MP	5342
merely	5341
ned	5340
attended	5340
Tandemact	5338
non-steroidal	5338
recover	5338
gloves	5337
je@@	5337
tolerate	5336
auf@@	5336
endpoints	5335
suggestive	5334
Having	5334
RF@@	5334
sheep	5334
HOLDER	5333
combines	5333
abatacept	5332
Anaemia	5330
wireless	5329
m.	5328
Nice	5328
bonus	5327
Kinzalmono	5326
Joseph	5326
obligation	5324
oesophageal	5324
Cervarix	5323
cidofovir	5323
100,000	5322
sustainability	5322
Baraclude	5322
consist	5322
PCTFE	5321
pilot	5321
imprint	5321
James	5320
Arixtra	5319
th-@@	5318
app@@	5317
Hycamtin	5314
2.jpg	5313
assume	5313
Krka	5312
OSSEOR	5312
Nordisk	5311
applicants	5311
pegylated	5308
167	5307
Avonex	5307
uck@@	5306
ack	5306
ins@@	5305
Poker	5304
strengthening	5303
Put	5301
Surface	5300
ju@@	5300
designation	5300
formula	5300
heartbeat	5298
threat	5297
Pharmacotherapeutic	5297
Continue	5297
ric@@	5296
es.htm	5296
threats	5296
Cancer	5295
M-@@	5295
inspired	5295
antidote	5293
Index	5291
ela	5291
Wir	5289
investigations	5288
arrhythmia	5287
antipsychotics	5287
osa	5285
intermediate	5283
meningitis	5283
tors	5283
humanitarian	5281
Outer	5281
-to-@@	5281
165	5281
Hexal	5281
partially	5281
functionality	5281
permission	5280
dep@@	5280
Super@@	5280
terrorism	5279
Glaxo	5279
sten	5278
rituximab	5278
str	5278
egg	5277
danger	5276
Event	5276
ther	5276
Hum@@	5275
saline	5275
purpura	5274
Apple	5273
Maximum	5272
repaglinide	5272
211	5271
tone	5270
Simulect	5269
Zeffix	5269
adjuvanted	5269
p-value	5268
ê@@	5268
Palestinian	5268
Sunset	5267
Cetrotide	5267
Apidra	5267
Je@@	5267
co-operation	5266
Summer	5261
keeps	5261
gradual	5261
readily	5260
hardly	5259
Mos@@	5259
Bavaria	5259
1,200	5258
CYP3A	5258
Natural	5258
pseudoephedrine	5258
310	5258
voting	5257
o.com	5257
png	5257
Tevagrastim	5255
DuoTrav	5254
thirst	5254
residential	5252
summit	5252
generic	5251
turnover	5251
concentrated	5250
Florence	5249
churches	5248
Dicural	5248
INE	5247
fel@@	5243
prof@@	5242
targeted	5241
tray	5240
rises	5238
Distance	5238
shift	5237
ive	5236
settlement	5234
certified	5234
attitude	5233
metastases	5231
hits	5230
relate	5230
assumed	5230
fingers	5229
antifungal	5229
Marina	5228
arrow	5228
ki@@	5227
recognise	5227
Chief	5225
Naglazyme	5225
Fendrix	5225
405	5225
5-FU	5224
Hal@@	5224
investors	5223
leakage	5223
OPTISON	5223
Lab@@	5223
141	5222
NovoFine	5222
NV	5222
tracks	5222
antidiabetic	5221
describe	5221
anaphylactoid	5220
one@@	5220
Myfenax	5220
rap@@	5219
sinus	5219
anywhere	5219
Agriculture	5218
mcg	5217
onia	5216
encephalopathy	5215
Environmental	5215
Arava	5213
consistently	5213
PROTELOS	5212
acuity	5211
propose	5210
virtual	5208
amb@@	5208
Reservation	5208
sul@@	5208
Modern	5206
CL	5205
sanofi-aventis	5204
Menitorix	5203
Vill@@	5201
IM	5201
Ratiograstim	5201
lenses	5200
dietary	5198
pon@@	5198
176	5198
counter	5197
sive	5197
Casa	5196
acceptance	5196
harbour	5195
EVALUATION	5194
nail	5193
planet	5193
Candida	5193
Info	5193
tooth	5193
weights	5193
ust	5192
Long	5192
SS@@	5191
psych@@	5190
Lim@@	5189
meets	5189
chief	5189
intolerant	5188
ç@@	5188
continuation	5188
Authorisations	5187
är@@	5186
Cell	5183
May@@	5182
Wh@@	5181
philosophy	5181
aircraft	5180
oxybate	5180
Ze@@	5178
convinced	5178
Comp@@	5176
TMZ	5176
adventure	5175
ished	5174
lymph	5172
Consumer	5171
layers	5171
throw	5169
YENTREVE	5168
prefilled	5168
Soviet	5166
emerging	5165
X-@@	5165
workload	5164
Space	5163
Tygacil	5163
officially	5163
Increase	5162
validated	5162
productivity	5161
isotretinoin	5160
330	5159
inhibiting	5159
precision	5159
Sim@@	5157
Catholic	5156
PEN	5155
maybe	5154
ga	5154
294	5153
ORACEA	5153
clicking	5152
gibt	5152
malignancy	5151
STA@@	5150
299	5149
collective	5149
Baseline	5149
-5	5148
methyl@@	5148
telbivudine	5148
EUR@@	5147
Mark@@	5145
085	5144
et-@@	5140
Gender	5140
preserved	5139
explanation	5139
agonists	5138
stronger	5138
chapter	5137
ko@@	5135
synthetic	5134
sof@@	5134
expanded	5131
san@@	5129
S.@@	5129
Syn@@	5127
11,@@	5127
Over@@	5127
GANFORT	5126
happening	5123
Portuguese	5123
caps	5121
Econor	5119
Ministers	5117
VISTIDE	5117
032	5116
enting	5115
titre	5114
O-@@	5114
ivabradine	5114
Trazec	5114
specialists	5113
cyclophosphamide	5113
strictly	5111
Mol@@	5111
Manufacturing	5111
countryside	5110
hypercalcaemia	5110
ever@@	5110
overcome	5110
shoulder	5109
sz@@	5109
universities	5109
spe@@	5109
surely	5106
margin	5106
1.8.2.	5106
G-@@	5106
scored	5105
mir	5105
comprises	5104
Excipients	5104
accompanying	5103
Escherichia	5103
Hot	5102
new@@	5101
Balcony	5101
let@@	5097
finds	5095
rid@@	5093
Apart	5093
Daniel	5092
temple	5092
glomerular	5091
Valencia	5091
intellectual	5090
ern@@	5090
ei@@	5089
coll@@	5087
Competact	5087
don@@	5086
tis	5085
voltage	5084
developmental	5083
residues	5082
Nplate	5081
gal@@	5079
Ob@@	5078
Hans	5077
navigation	5077
Antwort	5077
WESTERN	5077
clothes	5076
Charles	5076
ater	5075
mask	5075
hills	5074
whenever	5074
holders	5074
dose-dependent	5074
weigh	5074
PAR@@	5074
Oc@@	5073
ues	5072
welcomed	5072
086	5072
College	5071
ences	5069
EU-@@	5068
Audio	5068
deals	5067
ille	5067
469	5066
Generally	5066
Maps	5066
dose-related	5065
thiazide	5065
methyl	5065
ag	5065
minimisation	5064
generator	5064
Na@@	5063
occasione	5061
Pulmonary	5060
156	5060
LITAK	5060
Ann@@	5060
permit	5059
Guide	5059
149	5057
Osigraft	5056
Cross	5056
Organisation	5056
distress	5056
interview	5056
book@@	5053
long-acting	5052
HMG-CoA	5051
arbitration	5051
independence	5051
autoimmune	5050
chemistry	5049
asking	5049
appointment	5048
analysed	5048
enterprise	5047
glory	5047
governance	5046
ogenic	5044
ordinary	5044
influenzae	5042
but@@	5041
bilateral	5041
GAME	5039
300@@	5039
personally	5038
ress	5037
›	5036
Sav@@	5035
VA	5034
dollars	5034
paralysis	5032
Baltic	5031
Regarding	5030
mas@@	5030
PAH	5030
tummy	5027
reply	5026
Deputy	5026
fr	5026
Finance	5025
-4@@	5024
Alliance	5024
BL@@	5024
menstrual	5024
Hydrochloric	5023
dual	5022
fiscal	5020
Optisulin	5019
pray	5019
6.8	5018
Nifedipine	5018
Mad@@	5017
8.2	5016
ALIMTA	5016
George	5013
stein	5013
bronchospasm	5012
suited	5012
stayed	5011
newspaper	5011
urination	5010
ment@@	5010
ig	5009
oper@@	5009
emergence	5009
ende	5008
erlotinib	5008
manifestations	5007
um-@@	5007
Non-clinical	5007
1985	5007
0.87	5007
mini	5006
21st	5006
ula	5005
Calendar	5005
enlarged	5005
pathogens	5005
Glubrava	5003
centers	5003
arguments	5003
JANSSEN-CILAG	5002
CEO	5001
sexy	5001
Therapeutic	5000
369	5000
Profender	4999
Mycamine	4997
COM@@	4996
M-M-RVAXPRO	4994
ibuprofen	4993
duodenal	4993
Guidelines	4993
antigens	4993
conferences	4990
ries	4989
massive	4989
moments	4988
bus@@	4987
antihistamines	4987
Discard	4987
ventilation	4987
filling	4985
Fr	4985
diastolic	4984
fol@@	4984
plates	4983
ceftriaxone	4983
Mul@@	4983
eradication	4982
demonstration	4981
2,000	4981
Address	4980
certificates	4980
adsorbed	4979
Bet@@	4979
adapt	4979
unter@@	4979
AZ@@	4977
fal@@	4977
onal	4977
hypercholesterolaemia	4977
LeukoScan	4976
spr@@	4976
QUADRAMET	4975
Revatio	4971
parameter	4969
Appropriate	4969
Intrinsa	4969
combat	4968
CO	4968
aph@@	4967
gol@@	4967
unexplained	4966
selling	4965
concerts	4965
MON@@	4965
Dresden	4965
faces	4964
Pope	4963
predicted	4963
levetiracetam	4963
raltegravir	4962
19.00	4962
smart	4962
preliminary	4961
creatine	4961
pains	4960
Bio@@	4960
Hib	4959
1986	4958
SMEs	4958
nec@@	4958
kilometres	4958
mag@@	4955
taught	4955
EVISTA	4955
teacher	4955
glycol-epoetin	4954
CET	4954
233	4954
PK	4954
Reports	4953
escape	4952
htm	4951
TachoSil	4951
EV@@	4951
VI	4951
damages	4950
Initial	4949
intact	4949
Blog	4948
ious	4947
depot	4947
UCB	4946
willing	4946
Indian	4945
ographic	4945
noticed	4945
-3@@	4944
glycerol	4944
restore	4944
Net	4944
Final	4944
Francisco	4943
PT@@	4943
engines	4943
varying	4942
Course	4942
sperm	4939
firms	4938
ect@@	4938
digestive	4938
straße	4936
estimates	4936
ric	4936
Northern	4935
163	4934
Leipzig	4932
stand@@	4932
montelukast	4932
movies	4932
Engineering	4932
bexarotene	4931
Staff	4931
linen	4931
GDP	4930
Partner	4929
productive	4927
commitments	4927
researchers	4927
ices	4926
LE	4926
oids	4926
observe	4925
inhibitory	4924
Sport	4924
Virus	4923
overweight	4923
�	4923
timing	4923
manic	4921
indicators	4921
satisfactory	4921
exhibits	4921
genuine	4920
Breast-feeding	4920
Christians	4920
hundreds	4918
431	4918
peoples	4917
limbs	4916
electrolyte	4916
PET	4916
Andreas	4914
255	4913
Net@@	4913
ankylosing	4912
expand	4912
INN	4911
restored	4911
multicentre	4910
Mannitol	4909
CYSTAGON	4908
Lyon	4908
inal	4907
inducer	4907
XL	4907
182	4907
7.0	4907
pregabalin	4906
Packs	4906
SD@@	4904
illa	4904
steam	4903
thoracic	4903
Plaza	4902
ented	4902
033	4901
UT@@	4901
lapatinib	4900
ple	4899
STAMARIL	4898
Spec@@	4898
Ovitrelle	4897
Xarelto	4897
papers	4896
circuit	4896
Ga@@	4895
edges	4895
1945	4894
flash	4893
breaks	4893
improves	4892
SW@@	4889
Production	4889
realized	4887
sk	4887
tender	4887
PRE@@	4885
Dep@@	4885
PS@@	4884
Laundry	4883
93@@	4883
mos@@	4883
cheese	4883
Sel@@	4882
177	4882
fibrillation	4881
â@@	4881
compartment	4879
pet@@	4879
fusion	4878
null	4878
¬	4877
carries	4876
forests	4874
internationally	4874
rest@@	4874
oring	4873
Fel@@	4872
dyskinesia	4870
Foscan	4870
mitotane	4868
tigecycline	4867
vasculitis	4867
outweighs	4866
soap	4865
Hom@@	4865
Luggage	4865
phases	4864
Diagram	4863
orthostatic	4863
ASA	4863
ska	4861
Child	4861
HA	4861
Downloads	4858
pneumoniae	4858
Lansoprazol	4858
gauge	4857
keyword	4857
som@@	4856
Fluticasone	4856
Zyrtec	4855
fellow	4855
Resort	4854
grace	4854
declaration	4853
malabsorption	4853
haemolytic	4853
necrolysis	4852
Stevens-Johnson	4851
orientation	4851
ied	4851
execution	4851
authors	4850
Bus	4849
dealt	4849
ishing	4849
speakers	4847
BTE	4847
Sometimes	4847
Simply	4846
Articles	4845
nevertheless	4845
us-@@	4844
50-@@	4843
transmitted	4842
ges	4842
SCH@@	4841
XS	4841
effusion	4840
158	4840
oseltamivir	4840
ika	4840
enabling	4839
ML	4838
Arzneimittel	4838
cardboard	4837
TRITACE	4836
Depression	4831
wittgensteinsource.org	4831
supplement	4830
Young	4830
aemia	4828
experiments	4828
eren	4828
operates	4827
alterations	4826
Call	4824
Internal	4824
winner	4822
Try	4822
museums	4820
titres	4820
PHP	4819
MPA	4817
brands	4816
interstitial	4815
rescue	4815
cin@@	4813
ote	4813
Protocol	4813
wet	4813
paths	4813
appreciate	4812
S.A.	4812
enfuvirtide	4810
composite	4809
perforatum	4809
1.8.1.	4808
Rapilysin	4808
Cooperation	4807
for-@@	4807
rolling	4805
gran@@	4805
TNF	4805
installations	4802
Chamber	4800
aj@@	4800
Hungarian	4799
roots	4799
folder	4799
discrimination	4797
ius	4795
8.1	4794
Ljubljana	4793
everywhere	4793
automotive	4793
savings	4793
Alternatively	4792
gap	4791
Exforge	4791
c-@@	4791
stays	4791
prednisone	4791
representation	4790
traditions	4790
CEPROTIN	4790
fun@@	4789
Psychiatric	4789
glad	4788
Gran	4787
ease	4786
Macrogol	4786
sequence	4785
Look	4784
derivative	4784
Advocate	4782
és	4780
powered	4780
wedding	4780
demanding	4779
Basic	4778
Hypertension	4777
K.	4776
ani@@	4776
reserves	4776
159	4775
Exceptional	4774
optimized	4774
tocilizumab	4773
ening	4773
Ober@@	4772
consequently	4772
Alle	4770
neuropathic	4770
consent	4770
Lodging	4769
strange	4767
Dimensions	4767
real@@	4767
eligible	4766
139	4765
receives	4765
Guidance	4765
considerations	4764
Microcrystalline	4763
courts	4763
litres	4759
sugammadex	4759
Was	4759
impair	4759
Strategy	4757
Diese	4757
show@@	4756
CANCIDAS	4755
TRAVATAN	4755
ero	4755
izes	4755
Sa	4754
deemed	4753
cake	4752
appropriation	4752
promptly	4752
ual	4750
entr@@	4750
bivalirudin	4750
prothrombin	4750
overnight	4750
soci@@	4750
ban	4749
SonoVue	4748
Equilis	4747
Prize	4747
7.9	4746
markers	4746
appl@@	4745
wor@@	4745
bigger	4743
Packaging	4742
explanations	4742
Mountain	4742
blockade	4742
ertapenem	4742
169	4742
E-Mail	4742
TER	4741
Hence	4740
Gaucher	4740
corneal	4740
ß	4738
supposed	4738
proceed	4736
statistics	4736
underground	4734
optimum	4734
Genzyme	4733
2016-0@@	4731
Series	4731
COMP	4729
C.@@	4729
VE@@	4729
Lam@@	4728
fri@@	4727
sensor	4727
transformation	4727
Videos	4727
138	4727
16-@@	4726
seats	4726
3-fold	4725
phen@@	4724
assessing	4724
obese	4724
screening	4723
Kom@@	4722
bosentan	4722
Solutions	4721
prevented	4721
agen	4720
036	4720
ania	4719
induces	4719
164	4718
Ot@@	4718
OVERALL	4717
trail	4717
ame	4717
behavioural	4716
morbidity	4715
translated	4714
NSAID	4714
procedural	4713
Properties	4713
colon	4712
INVANZ	4711
410	4710
KRKA	4710
Zarzio	4710
residual	4709
football	4709
judge	4709
anda	4709
Hypericum	4708
Levviax	4708
ello	4708
realize	4708
open@@	4708
serving	4707
isch@@	4706
Comm@@	4706
transfusions	4706
flea	4706
foods	4705
Februar	4705
PFS	4705
GSK	4705
е@@	4703
shuttle	4703
robust	4701
Exhibition	4700
mb@@	4699
consulted	4699
receipt	4698
actors	4698
Sc@@	4697
threshold	4697
fluids	4696
Lower	4696
Privigen	4696
talks	4695
tly	4694
Januar	4692
Pic@@	4690
BA@@	4690
runny	4690
conf@@	4689
favorite	4688
conc@@	4687
DaTSCAN	4686
7.4	4685
freely	4685
Lift	4685
candidates	4684
rejected	4681
Gra@@	4681
passenger	4680
EEA	4680
Item	4679
Constipation	4679
age@@	4679
lumbar	4678
spending	4677
specifications	4676
Washington	4676
CP	4675
revenues	4675
5.9	4675
Wash	4674
Danish	4673
Avandamet	4673
lac@@	4673
closing	4672
ð@@	4671
delegation	4670
oz@@	4670
Wharf	4669
0.5@@	4668
Applications	4668
hepatocellular	4667
Dom@@	4667
custom	4667
neonates	4667
dossier	4664
1973	4664
ec	4664
dam@@	4663
outweigh	4662
moxifloxacin	4661
ó	4661
fan	4660
rotavirus	4660
virologic	4660
CA@@	4659
arg@@	4659
Everything	4658
lyophilised	4658
db@@	4657
amphotericin	4656
Men	4656
Need	4655
5-fluorouracil	4654
certification	4653
Bleeding	4653
Macugen	4652
Neu@@	4652
dll	4652
Similarly	4651
Sul@@	4651
Works	4650
sailing	4650
antibacterial	4649
ark	4646
Aerinaze	4645
ogen@@	4644
aches	4644
adhesive	4643
ambrisentan	4642
Star@@	4642
icon	4641
loved	4641
servants	4640
Che@@	4640
а@@	4639
premises	4639
seemed	4638
Nr.	4637
338	4637
ild@@	4637
Georgia	4637
hi	4636
SARL	4636
NEVANAC	4635
uck	4635
Updated	4634
habe	4634
gathered	4633
Coun@@	4632
managers	4632
8.6	4631
wounds	4630
disc	4630
ip	4630
VII	4627
basal	4626
Syria	4626
Mir@@	4625
indicator	4624
deb@@	4624
trains	4623
generations	4623
Off@@	4622
solely	4620
sugars	4620
transaction	4619
heated	4617
0.18	4617
NO	4617
glycoprotein	4615
itation	4613
Decreased	4612
van@@	4612
FOSAVANCE	4611
Livensa	4610
Circadin	4610
theoretical	4610
Kepivance	4610
phenomenon	4610
carbonate	4609
cetuximab	4608
mounted	4608
nerves	4608
Orion	4608
sees	4607
Botulinum	4606
interferons	4605
Hen@@	4604
nic@@	4604
Systemic	4604
electro@@	4603
ProMeris	4603
UB@@	4603
encouraged	4601
KS	4601
Learn	4600
alk@@	4600
ITT	4600
5,000	4599
LUMIGAN	4599
sentence	4599
gram	4599
Investigations	4598
inappropriate	4597
themes	4596
ected	4596
CN@@	4595
attend	4595
meter	4594
Luveris	4594
kes	4593
Far@@	4592
extensions	4592
spec@@	4591
medic@@	4590
sores	4587
wise	4587
Emselex	4586
mobil@@	4586
Never	4585
hosts	4584
1,500	4584
cuts	4584
15,@@	4583
spasms	4582
aureus	4582
Black@@	4581
amiodarone	4581
tightly	4581
Nord@@	4581
wel@@	4580
Alexander	4580
stabilised	4580
ser	4580
migraine	4580
moves	4579
Prices	4579
526	4578
upset	4576
liber@@	4576
sublingual	4574
side-effects	4574
pools	4573
E110	4572
catch	4572
µ@@	4572
9th	4572
lens	4571
Climate	4571
dryer	4569
Out	4568
400@@	4568
Color	4567
delays	4567
destinations	4567
Gadovist	4567
municipality	4566
img@@	4566
aggressive	4565
bitches	4564
enh@@	4562
7.1	4562
Being	4561
ei	4559
armed	4559
ately	4559
Luminity	4558
ZIMULTI	4558
Von	4558
Bri@@	4558
poker	4557
Sími	4557
Schering	4556
prasugrel	4556
E132	4556
239@@	4555
West@@	4554
Cerezyme	4554
exhibited	4554
Kft	4553
valve	4553
clubs	4550
unborn	4549
PER@@	4549
uniform	4549
Bra@@	4549
bra@@	4549
rig@@	4548
ATE	4547
Cha@@	4547
Premium	4547
ž@@	4546
14,@@	4546
double-@@	4545
Discover	4545
199	4545
Document	4543
afraid	4543
it-@@	4543
mature	4543
vor	4542
0.088	4541
gri@@	4541
T.	4539
graphic	4538
60-@@	4538
550	4537
8.7	4536
biotechnology	4536
refugees	4535
mnt	4535
bing	4534
CT@@	4534
gout	4534
veins	4530
Levitra	4530
Overdose	4529
seed	4527
protecting	4527
relapsed	4526
variant	4524
stadt	4524
o-	4523
assisted	4520
tank	4520
compensated	4518
poisoning	4518
Significant	4517
medium-sized	4516
IL	4515
Fair	4515
Zenapax	4514
beta-blockers	4513
Art.	4513
PSUR	4513
ologist	4513
anti-HIV	4513
CK	4512
retail	4511
exacerbations	4511
tmax	4509
hyperkalaemia	4509
1984	4509
Circus	4508
IL-2	4508
by@@	4508
Anxiety	4506
priests	4506
Enterprise	4506
recognize	4506
aside	4505
P-gp	4504
blog@@	4503
lasts	4503
trigger	4503
CAR@@	4503
racing	4502
0.35	4502
USER	4502
035	4502
enhancement	4502
performances	4501
increments	4501
antithrombin	4501
eting	4501
25th	4500
Tyverb	4500
orthopaedic	4500
Wilzin	4500
first-line	4499
Pin@@	4499
OPINION	4498
Innovation	4498
Casino	4497
victory	4497
lesser	4496
adi@@	4494
oning	4494
Archive	4493
Sant	4493
raz@@	4493
isoenzymes	4492
bio@@	4492
mad@@	4492
ée	4491
Etoricoxib	4490
glulisine	4490
motor@@	4489
obstructive	4489
tap	4489
varies	4486
AVONEX	4486
banking	4486
gestation	4485
24-@@	4483
Twitter	4483
K-@@	4483
chairman	4483
DS	4483
systolic	4482
cas@@	4482
ate@@	4482
PIs	4480
Capital	4480
ARTICLE	4479
inj@@	4479
Corlentor	4477
uring	4477
Antonio	4476
Mark	4476
br	4474
Play@@	4473
you@@	4472
Kur@@	4471
SAP	4470
clockwise	4470
lasted	4470
ecological	4469
CHARACTERISTICS	4469
consensus	4468
evolution	4467
054	4467
treatment-related	4466
PD	4466
photographs	4466
aren	4465
Atlantic	4465
eder	4464
Operations	4464
535	4464
computers	4464
referrals	4461
syn@@	4461
weakened	4460
lad@@	4460
pre-treatment	4460
pension	4459
www.qlyque.com	4458
aggregation	4458
low@@	4458
Kitchen	4458
AU	4457
Frequencies	4457
myeloid	4456
f-@@	4456
Noxafil	4456
cooling	4455
attach	4455
ischaemia	4455
Preparing	4455
Fatigue	4454
berg@@	4454
passage	4454
zoster	4453
brothers	4453
monetary	4453
Pass@@	4452
hyperstimulation	4452
thick	4451
se-@@	4451
eld	4451
mediastinal	4450
Dezember	4450
judged	4450
mes	4450
ram	4449
cosy	4447
alf@@	4447
ARCOXIA	4447
CC@@	4446
Inhibitors	4445
Quintanrix	4445
AZARGA	4445
las	4444
tz@@	4443
Assembly	4442
behavior	4442
INTEGRILIN	4442
calm	4442
pipette	4442
dihydrochloride	4442
Compare	4442
veterinarian	4441
crushed	4440
chi@@	4439
Swelling	4439
RELEASE	4438
fruits	4437
Corporate	4437
sport@@	4437
age-@@	4437
delete	4436
ECALTA	4436
1980	4434
autumn	4434
lang	4433
loans	4432
31@@	4432
ri	4432
AP	4432
talc	4432
OM@@	4431
ders	4430
YYYY	4430
316	4430
ication	4428
2-4	4428
decisive	4428
alised	4427
OPTRUMA	4427
Gri@@	4426
465	4426
boy	4425
tabl@@	4424
Peak	4422
Dodge	4421
Text	4420
Evoltra	4419
Zyprexa	4419
cro@@	4418
20mg	4417
ales	4417
cisapride	4417
wax	4417
producer	4415
Gener@@	4414
ville	4414
366	4414
BLISTER	4413
vir@@	4413
28th	4412
obviously	4412
Ty@@	4412
igh@@	4412
atopic	4410
dose-@@	4410
test@@	4409
witness	4407
haven	4407
fallen	4406
plane	4406
Share	4405
carb@@	4404
227	4403
twenty	4403
medieval	4403
Zestril	4401
oned	4401
highlights	4401
plan@@	4401
vet	4400
Mid@@	4398
simultaneous	4398
cytarabine	4396
Ferriprox	4395
ATryn	4394
transformed	4394
fulfilled	4394
engaged	4394
worst	4393
mac@@	4393
cos@@	4391
span	4391
no.8@@	4390
ver	4389
Lady	4389
worry	4388
Dark	4388
Until	4387
dysphagia	4387
Early	4386
Save	4386
Vietnam	4386
Push	4384
Shopping	4384
ple@@	4384
demonstrates	4383
Super	4383
industri@@	4382
Youth	4382
key@@	4381
bil@@	4380
stylish	4380
209	4379
Word	4379
matrix	4378
begun	4378
Open@@	4378
homepage	4378
352	4377
ambitious	4376
promise	4376
ified	4374
yer	4374
amide	4374
Neuro@@	4373
acted	4372
pr	4372
unforgettable	4372
Hard	4372
Secretariat	4371
novel	4371
arteries	4371
suites	4370
Judah	4370
sized	4370
NovoNorm	4368
ss@@	4368
Air@@	4367
HRT	4367
www.youtube.com	4366
sheets	4366
cohesion	4365
ria	4364
contraindication	4363
substitution	4363
Help	4363
Amarillas@@	4362
aspartate	4362
Dispose	4362
044	4362
GI	4361
seminar	4361
070	4361
ed.	4361
Pacific	4360
hairdryer	4359
bedtime	4358
pro	4358
Ven@@	4358
vegetables	4358
Alps	4358
µM	4357
Ep@@	4356
Hepsera	4356
vers	4356
wider	4354
Tar@@	4354
systematic	4354
ort@@	4354
U.	4353
sickness	4353
flo@@	4353
mar	4352
Hill	4352
rid	4351
′	4351
Israeli	4351
Spe@@	4350
accelerated	4349
1400	4349
nM	4348
agu@@	4347
500@@	4346
caspofungin	4345
husband	4345
Phot@@	4345
remainder	4344
50,000	4343
tage	4343
7.7	4343
Url	4343
imag@@	4341
ban@@	4341
Vidaza	4340
ect	4340
MTX	4340
down@@	4340
otitis	4340
specialized	4339
ator@@	4337
tra@@	4337
zer@@	4335
Flo@@	4335
Sunrise	4335
rotigotine	4334
191	4334
melphalan	4334
CC	4332
3x@@	4332
asleep	4331
stor@@	4330
ez	4329
ii	4329
cho@@	4329
Hong	4329
rear	4328
www.eib.org	4327
implantation	4327
killing	4327
411	4327
www.bibliotecapleyades.net	4326
css	4326
235	4326
layout	4326
escalation	4325
Thailand	4325
To@@	4324
architectural	4324
228	4324
Form@@	4324
immunosuppression	4324
duties	4323
Cou@@	4323
288	4323
kilometers	4322
rav@@	4322
donors	4322
ech	4321
Gold	4321
communicate	4320
collapse	4320
Opera	4319
peritoneal	4318
accurately	4318
drowsy	4318
bud@@	4317
ith@@	4317
MAOI	4317
tam@@	4317
waves	4315
0.9@@	4315
Future	4313
Senior	4313
dy	4313
ran@@	4312
dL	4312
Tmax	4311
deleted@@	4311
Chest	4309
returning	4309
Rules	4309
diphtheria	4308
rated	4308
bird	4307
meth@@	4307
Prandin	4305
9.4	4305
suspended	4304
vertical	4304
Kong	4304
ADVATE	4303
ONE	4303
Charter	4302
Cultural	4301
RE	4301
-30	4301
Wel@@	4300
povidone	4299
atrial	4299
folinate	4299
TOVIAZ	4299
Advanced	4299
40-@@	4298
Sup@@	4298
argument	4296
aging	4295
olo	4295
Up@@	4295
IVEMEND	4295
TEVA	4294
Circumstances	4293
references	4293
notably	4293
24th	4293
los@@	4293
Right	4293
Ly@@	4292
urge	4291
5.00	4291
consolidation	4291
363	4290
extremities	4290
Dol@@	4289
instances	4288
340	4288
dependence	4288
92@@	4288
person@@	4286
189	4285
unwanted	4285
Rapporteur	4284
antiepileptic	4284
Jan@@	4282
separation	4282
tle	4281
bevacizumab	4281
Patent	4280
Sha@@	4279
oni	4279
Berg@@	4278
Protein	4275
3,000	4275
8.4	4275
break@@	4275
musicians	4274
suits	4274
321	4274
Avandia	4274
incorporated	4273
Regulatory	4273
fascinating	4273
ud	4273
complication	4272
Mother	4272
F.	4271
eta	4269
wind@@	4269
HIV-infected	4268
Kl@@	4267
Published	4267
passion	4266
welcomes	4266
shaken	4263
hem@@	4263
coordinated	4261
omeprazole	4257
x-@@	4257
ère	4257
geometric	4257
Sucrose	4256
Argentina	4254
time-@@	4253
dropped	4253
maker	4252
Rev@@	4251
pets	4251
hn	4251
cloud	4250
MBLength	4250
Islamic	4250
icht	4249
Sun@@	4249
fast-acting	4249
BA	4248
Mechanism	4248
dor@@	4247
unfortunately	4247
spontaneously	4246
licensed	4245
initiate	4245
Angiox	4245
GPS	4245
21-@@	4245
charter	4244
PDT	4243
Ev@@	4243
efficiently	4242
deeply	4241
federal	4240
-M@@	4239
aspartame	4239
tracking	4239
ums	4238
band@@	4238
sing@@	4238
flesh	4238
zones	4238
platz	4238
327	4238
penis	4238
traces	4237
impl@@	4237
shalt	4237
Neutropenia	4237
HCl	4236
hot@@	4236
conflicts	4235
173	4235
0.jpg	4234
societies	4234
Wall	4233
mania	4232
continent	4232
Bratislava	4232
sinusitis	4232
Pos@@	4232
12,5	4232
ight	4231
cycling	4231
losses	4230
Angeles	4230
RT	4229
IF	4229
Performance	4229
Tenofovir	4229
Nordic	4229
mucosal	4228
yearly	4228
CYP450	4228
232	4227
527	4227
coverage	4227
lin	4226
eau	4226
automation	4226
FOR@@	4226
Personal	4225
Little	4225
assi@@	4225
bands	4225
emp@@	4224
224	4224
Representative	4223
ited	4223
Bath	4223
chlor@@	4222
connecting	4221
pulse	4221
ceremony	4221
Tal@@	4220
Mis@@	4219
GO	4218
ane@@	4216
Sem@@	4216
surprise	4215
HP@@	4213
GMP	4213
yeast	4212
Usually	4212
tight	4211
Cer@@	4211
shoes	4210
fathers	4210
iger	4210
labor	4210
Born	4209
intr@@	4208
trastuzumab	4207
ò@@	4207
Holders	4207
remarkable	4206
high@@	4206
ible	4206
Hypotension	4205
LABELLING	4205
variables	4205
genic	4204
ital@@	4203
spite	4203
tent	4202
.......	4202
photography	4202
neutral	4201
servers	4201
exhibit	4201
glucuronide	4201
Kat@@	4200
Genotype	4200
Anna	4200
eck	4200
attained	4197
relapses	4197
implications	4196
ACOMPLIA	4196
Point	4196
Aldara	4195
cognitive	4195
grapefruit	4195
gabapentin	4195
towels	4195
assurance	4194
Zürich	4194
libido	4193
childhood	4193
Maybe	4193
calculate	4193
Ki@@	4193
PI@@	4192
dir	4192
II@@	4191
Firazyr	4191
arrange	4191
taxonomy	4191
precious	4190
perception	4190
radical	4189
wearing	4189
2007-0@@	4188
034	4188
ogen	4187
REFERRAL	4187
Ciproxin	4187
thromb@@	4186
Winter	4185
Yahweh	4185
Fasturtec	4185
immer	4184
ADENURIC	4183
Indonesia	4183
combining	4182
cou@@	4182
diminished	4181
evaluating	4180
lifts	4179
Tem@@	4179
st-@@	4177
schon	4177
8.9	4177
circle	4176
placing	4176
sandy	4175
0.6@@	4175
equine	4174
ble@@	4174
black@@	4174
varicella	4173
no-@@	4173
457	4173
Breast	4173
sights	4172
upside	4172
arrangement	4169
chemicals	4169
Strasse	4169
parks	4168
Statistic	4165
retro@@	4165
WTO	4165
rely	4164
480	4164
0200	4164
puts	4163
neutrophils	4163
LY	4163
Print	4162
imagine	4162
mandate	4161
470	4161
pimozide	4161
convenience	4160
anti-	4160
insul@@	4158
pad	4157
fer	4157
g-@@	4157
picturesque	4157
virtually	4156
bisphosphonates	4156
illnesses	4156
tered	4155
216	4155
caught	4155
Mart@@	4155
gelatin	4154
VIAGRA	4153
soldiers	4153
Tacrolimus	4152
ede	4152
Pu@@	4151
Agopton	4150
aggression	4150
ran	4150
Direktlink	4150
intracellular	4149
Fu@@	4148
tica	4148
perfusion	4148
describes	4147
Son@@	4146
constructed	4145
py@@	4144
Cyanokit	4142
Richard	4142
deadline	4141
bay	4141
Register	4141
integrate	4141
zoledronic	4140
ock	4139
vacuum	4139
Released	4138
7.6	4138
Onsenal	4138
Procoralan	4138
imiquimod	4137
Pharmacodynamic	4137
Povidone	4137
loan	4136
eling	4136
diving	4135
believes	4134
fasted	4134
Exchange	4132
lip@@	4132
pin	4132
economies	4131
W.	4131
ony	4131
Gadograf	4131
axis	4130
MIC	4130
phones	4130
nar@@	4129
semi-@@	4129
1250	4129
Cathedral	4128
transfers	4128
garage	4126
UV	4124
rabbit	4124
9.3	4124
rar	4124
grew	4124
Dur@@	4124
corruption	4123
tung	4123
GU@@	4123
Author	4123
www.mogelpower.de	4123
Elaprase	4123
exp@@	4123
activate	4121
Wolfgang	4120
viewing	4119
Vo@@	4118
warranted	4118
paste	4117
Multiple	4117
Train	4116
Vitamin	4116
probenecid	4115
Ein	4115
EB@@	4115
pollution	4115
Swallow	4114
vitamins	4114
Overview	4113
Mu@@	4113
yesterday	4112
servant	4111
magnitude	4111
Rio	4111
ands	4111
restructuring	4110
resumed	4110
irreversible	4109
causal	4109
airway	4108
summarised	4108
Wil@@	4107
conjugated	4106
Hello	4105
Rating	4105
suggestions	4105
hum@@	4105
ring@@	4105
Mountains	4105
pel@@	4105
check-in	4105
Red@@	4104
Ç@@	4104
amylase	4103
р@@	4102
nelarabine	4102
Storage	4102
2-fold	4102
observations	4102
arity	4101
drives	4101
407	4101
perf@@	4101
prolong	4099
Framework	4099
Wall@@	4099
breakfasts	4099
leucopenia	4098
Rotterdam	4098
laropiprant	4098
Opening	4097
adolescent	4096
beg@@	4096
ga@@	4094
horizontal	4094
pituitary	4094
ome	4093
sevoflurane	4092
prime	4092
Gently	4092
valdecoxib	4092
hypocalcaemia	4091
rot@@	4091
cefuroxime	4091
staying	4091
pressed	4090
losing	4090
excursions	4090
154	4090
prompt	4089
Rot@@	4089
ssd	4089
MedDRA	4088
pos	4087
magic	4087
varenicline	4087
Saquinavir	4087
iPod	4086
boost	4086
tub	4085
Refludan	4084
beta-@@	4084
foam	4083
CM@@	4083
ante	4082
detectable	4082
compromised	4082
etanercept	4081
tes@@	4081
MRL	4081
ologically	4080
sunny	4080
Gam@@	4080
pkoehn	4079
site-crawl	4079
222	4079
counter@@	4078
supplementary	4078
ken@@	4078
pot@@	4077
Dear	4077
unacceptable	4076
383	4075
replication	4075
Bonn	4075
Apply	4074
pair	4074
toxoid	4073
cerebral	4073
Bern	4072
tiny	4071
techn@@	4070
cf@@	4070
fort	4070
Organ@@	4070
ologie	4068
Strength	4068
rasagiline	4067
bly	4066
345	4065
unclear	4065
yield	4065
otic	4064
Sm@@	4064
BI@@	4063
intelligent	4062
pushing	4061
Ker@@	4060
ENT	4059
ati	4059
pet	4059
MS@@	4057
Mallorca	4057
Pot@@	4057
Holding	4057
ire@@	4056
ms@@	4056
prison	4056
Bol@@	4054
Fab@@	4054
astemizole	4054
anagrelide	4053
ida	4053
opioids	4052
antacids	4051
benzodiazepines	4051
humanity	4051
406	4050
interference	4049
Monotard	4049
186	4049
sunset	4049
Does	4048
sleepy	4047
Discontinuation	4046
bb@@	4045
boosted	4045
rivaroxaban	4045
Hon@@	4045
editor	4044
069	4044
www.vidc.org	4044
Wort	4043
Subjects	4043
Third	4043
cri@@	4043
ultimately	4043
weighed	4042
Nu@@	4041
Farm	4041
lar@@	4040
mandatory	4040
ige	4039
biopsy	4039
Hellas	4039
GFR	4038
800@@	4038
mirror	4037
PASI	4037
Vivanza	4037
Five	4037
citric	4037
Penta	4036
440	4036
atrophy	4036
bicycle	4036
Diego	4035
Neurontin	4035
enemies	4034
Copenhagen	4034
passive	4034
www.blogigo.de	4034
179	4033
excluding	4033
Sen@@	4032
2-	4032
married	4032
pers@@	4032
Insert	4031
Thrombocytopenia	4030
376	4029
204	4029
к@@	4028
headquarters	4028
Reactions	4028
337	4028
offset	4028
grid	4025
264	4025
Shake	4024
trails	4024
menopause	4024
dra@@	4024
overlooking	4023
Village	4022
Camp@@	4022
Diabetes	4020
enn@@	4019
knee	4019
580	4018
branches	4018
subsidiary	4018
independently	4018
Collection	4018
hospitality	4018
ming	4017
pass@@	4017
widespread	4016
л@@	4016
prostaglandin	4016
hamster	4016
Am	4016
focal	4015
eff@@	4015
Doc@@	4014
calves	4014
090	4014
Lang@@	4013
Squibb	4013
devoted	4011
psychological	4010
rows	4010
alfa-2a	4010
Stop	4009
eliminate	4009
287	4008
wieder	4007
Helsinki	4007
panels	4006
mining	4005
dist@@	4005
Library	4004
Database	4003
www.b@@	4003
1983	4002
bau@@	4002
ney	4001
Fentanyl	4001
OK	4001
eder@@	4001
297	4001
cabin	4000
interactive	3999
ols	3999
aluminum	3999
Gilead	3998
doc@@	3997
mes@@	3997
1981	3997
Wor@@	3997
ECU	3996
dorf	3996
293	3996
conjugate	3996
Kidney	3995
contraindications	3994
Pharmacokinetics	3994
newsletter	3994
ann	3993
45-@@	3993
operative	3992
flows	3991
District	3991
nes	3991
restriction	3990
Kol@@	3989
sponge	3989
ceiling	3988
⋅	3988
proliferation	3987
Sin@@	3987
Vaniqa	3987
epidemiological	3987
OTHER	3986
neutropenic	3985
complement	3985
м@@	3984
personality	3983
intelligence	3983
290	3983
Prialt	3982
anta@@	3982
275	3981
CP@@	3980
Jer@@	3980
busy	3980
E14	3979
behold	3979
Race	3978
flushes	3977
0100	3976
responsive	3975
251	3975
norm@@	3974
designer	3974
reputation	3973
Euros	3971
engage	3970
amed	3970
bes	3970
sins	3969
benzyl	3969
096	3969
bo	3968
Tuscany	3968
jaw	3968
1979	3968
sion@@	3967
flush	3965
^	3965
cancellation	3965
398	3965
focuses	3964
ured	3963
267	3963
Metro	3961
Messe	3961
198	3959
5mg	3959
Morocco	3959
10.00	3957
compete	3957
herself	3956
GM@@	3955
können	3954
wisdom	3953
host@@	3953
molecules	3953
PH@@	3953
GROUNDS	3952
speaker	3951
Aut@@	3949
Zealand	3949
zeit	3949
Material	3948
Foto	3948
cinacalcet	3948
ideally	3948
OptiClik	3948
euro@@	3947
opathy	3946
investigator	3946
admin	3946
remind	3945
focusing	3945
SR@@	3945
Losartan	3944
enemy	3944
BLUE	3944
VELOTAB	3943
intraocular	3942
237	3942
9.6	3941
blistering	3940
7.8	3940
None	3940
parturition	3939
Van	3939
colorectal	3938
amenities	3938
limiting	3937
elled	3937
pneumonitis	3936
logical	3936
Newspapers	3936
。	3936
bat@@	3935
substitute	3935
end-@@	3935
minority	3934
Westferry	3934
Infection	3934
raloxifene	3934
occupied	3933
Managing	3933
eva	3933
249	3933
ete	3932
low-dose	3932
DIN	3932
Rel@@	3932
essi@@	3931
cows	3930
341	3930
148	3929
LYRICA	3929
Below	3929
1982	3928
223	3927
Bot@@	3925
Wer@@	3925
bug	3925
17-@@	3925
ition	3923
contributing	3922
ref@@	3921
pending	3921
FOLLOWING	3920
Scale	3919
050	3917
ema	3916
Compared	3916
academic	3916
yellowing	3915
Rob@@	3915
ections	3915
Sec@@	3915
.info	3914
belief	3914
tension	3913
guia	3912
enhancer	3912
Psych@@	3912
databases	3911
oun@@	3911
yours	3911
eds	3911
PA@@	3909
lovers	3908
immigration	3907
fisheries	3907
sis	3907
maturation	3907
necessity	3906
425	3906
fabric	3905
repeatedly	3905
Dan@@	3904
satisfy	3904
Pas@@	3903
lupus	3902
equality	3902
painted	3901
Sl@@	3901
sharp	3901
eda	3900
hydroxycarbamide	3900
NeoSpect	3898
Forest	3898
laying	3896
oesophagitis	3895
bling	3895
memantine	3893
Democrats	3893
AA@@	3893
holes	3891
structured	3891
pancreatic	3891
adjunctive	3890
mark@@	3890
Ci@@	3890
innovations	3890
	3889
Eg@@	3888
paint	3888
cher@@	3888
cel@@	3887
tos	3887
ensured	3887
Bell@@	3887
abnormality	3887
farms	3887
TRITAZIDE	3886
intramuscularly	3885
analgesic	3885
FS@@	3885
Talc	3884
Us	3884
Ibaflin	3884
Death	3884
Lip@@	3883
consisted	3883
nodes	3882
macular	3882
Jud@@	3882
yst@@	3881
invest	3881
FA	3880
540	3880
Ku@@	3879
mere	3879
beta-1a	3879
ros	3878
She@@	3877
16,@@	3877
chaired	3876
Ultratard	3874
Ab	3874
Chile	3873
ischen	3872
box@@	3872
anna	3872
temsirolimus	3871
Finnish	3871
milky	3871
residents	3871
backing	3871
executive	3870
Jacob	3870
ays	3870
know-how	3870
Immun@@	3870
Ve@@	3869
ills	3868
tured	3868
lan@@	3867
GIST	3867
Eisai	3867
Comtan	3867
tumblr.com	3866
Praha	3866
Clinically	3866
abilities	3866
Medic@@	3866
year-old	3866
Verlag	3865
ethnic	3865
www.immobilsarda.com	3865
Hertfordshire	3865
RA@@	3864
Nonafact	3864
Ein@@	3863
NI@@	3861
9.0	3861
capabilities	3860
alb@@	3860
cimetidine	3860
Frank	3860
Ratio	3859
Inflammation	3859
celebrated	3858
uncomplicated	3857
snow@@	3857
Spr@@	3856
Users	3856
maize	3856
Ph	3856
excl.	3855
microbiological	3853
strips	3853
gener@@	3852
tailored	3851
Bat@@	3851
piroxicam	3851
exceeds	3850
sophisticated	3849
н@@	3848
RI@@	3848
Singapore	3847
iten	3846
dysgeusia	3846
lic@@	3845
strengthened	3844
ais	3844
lipodystrophy	3842
paliperidone	3842
FC	3842
ï@@	3842
V-@@	3841
struck	3841
317	3841
194	3840
nit@@	3839
polyester	3839
irrespective	3839
Summit	3839
Golden	3838
Southern	3838
scre@@	3838
AVANDAMET	3838
Symptomatic	3836
Cro@@	3836
Xagrid	3836
ovaries	3836
belt	3836
anlass	3836
glargine	3835
moon	3835
Bab@@	3835
7.3	3834
inform@@	3834
Rad@@	3834
delegates	3833
medicated	3833
OLANZAPINE	3833
busulfan	3833
iser	3833
455	3832
LS	3830
Botox	3829
evaluations	3828
Rep@@	3827
organize	3827
323	3827
alongside	3827
Vas@@	3827
Especially	3827
ought	3826
fü@@	3826
super	3825
Lysodren	3825
mileage	3825
Tax	3824
Universität	3823
guitar	3823
naive	3823
Les@@	3822
Lind@@	3822
Increases	3822
Ε@@	3822
Musik	3821
golden	3820
inate	3820
Intervet	3819
rif@@	3819
profound	3818
reservoir	3818
ck	3818
apple	3818
carmine	3818
respected	3818
rh@@	3818
welcoming	3818
finishing	3817
alarm	3817
GA	3816
Clean	3816
lif@@	3815
writer	3815
ρ@@	3815
mount	3815
292	3814
boot	3814
tax@@	3812
igen	3812
Do@@	3810
Def@@	3810
Oh	3810
heit	3810
boo@@	3810
hazardous	3809
`@@	3809
Reproductive	3808
premix	3807
undergoes	3807
heading	3807
а	3806
Produtos	3806
aching	3805
sion	3805
etc.	3805
etz@@	3804
azacitidine	3803
procurement	3802
Α@@	3802
gr	3801
wasn	3800
plaque	3799
precautionary	3799
esc@@	3799
ater@@	3798
Europeans	3798
380	3797
minister	3796
217	3796
Transient	3796
glucagon	3795
fen@@	3795
Mass	3794
Leg@@	3794
stunning	3794
wonder	3794
immobilsarda.com.2015-12-05	3794
guides	3793
acks	3792
pac@@	3792
acknowledged.	3791
Bos@@	3790
peptide	3790
Jahr	3790
Hannover	3789
Hz	3789
cyclosporin	3789
monuments	3789
Mail	3789
BP	3788
della	3788
monoamine	3787
upgrade	3787
Withdraw	3787
mich	3787
ept@@	3787
amm@@	3786
printer	3786
Unter@@	3786
pot	3785
418	3785
ester	3785
basiliximab	3784
PLUS	3784
gastritis	3783
Potassium	3783
favourite	3783
ram@@	3782
aux	3781
theophylline	3781
brinzolamide	3781
challenging	3781
multipack	3780
proton	3780
10000	3780
Di	3780
GnRH	3778
cour@@	3778
Parties	3778
Porcilis	3778
256	3777
B-0@@	3777
attributable	3777
Ed	3776
460	3776
.cz	3775
vineyards	3775
Atriance	3774
burn	3774
OG@@	3773
altar	3772
č	3772
Port@@	3771
invention	3771
ao	3770
ing.htm	3768
tot@@	3768
2x@@	3768
tran@@	3768
serv@@	3767
aker	3767
celebrate	3766
dic@@	3766
ih@@	3765
257	3764
County	3762
vit@@	3762
fulfil	3762
laundry	3762
ice-@@	3761
SL@@	3758
protects	3758
VEBEG	3757
injectable	3757
ry@@	3757
tag@@	3756
propyl	3756
luxurious	3755
hast	3754
Actually	3754
rodents	3753
exclusion	3752
rank	3752
fen	3751
cyclosporine	3749
Astellas	3748
External	3748
wire	3748
cross-border	3748
Fareston	3747
alpha-@@	3746
Sustainable	3746
325	3745
Louis	3745
äl@@	3745
selecting	3744
13.11.2016	3744
crimes	3744
obliged	3744
breeds	3744
simplex	3744
employee	3743
spleen	3743
AZOPT	3743
alg@@	3743
PHARMACEUTICAL	3742
croscarmellose	3742
Cup	3742
besides	3742
Schweiz	3742
20,000	3740
thread	3740
IB	3739
resorption	3739
catheter	3738
Reconcile	3737
Easy	3736
onwards	3736
Prograf	3736
Deb@@	3736
PML	3736
transaminase	3736
otherapy	3735
acht@@	3735
asp	3735
Tritanrix	3734
MBq	3734
Fentanyl-ratiopharm	3733
LAN@@	3733
3.jpg	3733
ONLY	3733
differently	3732
Und	3732
sweats	3731
realistic	3731
Belgian	3731
cardi@@	3731
inducing	3730
Solar	3730
assistant	3730
Shower	3729
oul@@	3729
etic	3729
Ret@@	3729
31-@@	3728
CYP2C8	3728
yard	3727
edited	3727
Perhaps	3726
HU@@	3726
G-CSF	3724
worsen	3724
Spring	3723
HOME	3722
warmth	3722
read@@	3722
Fast	3722
è	3721
trabectedin	3720
Written	3719
specify	3719
bec@@	3718
coughing	3718
palace	3717
oste@@	3717
perforation	3716
30-2@@	3715
stakeholders	3715
collections	3715
bles	3714
imposed	3714
lav@@	3714
PO	3713
Fill	3713
ique	3712
lia	3712
'd	3711
SIA	3711
parliamentary	3710
judgement	3710
bw	3710
chicken	3710
Cham@@	3710
static	3710
Im	3709
Resistance	3709
metabolized	3708
film@@	3708
azz@@	3708
atin@@	3708
QUOTE	3708
pursuant	3707
lymph@@	3707
Return	3707
117@@	3707
postal	3707
cope	3706
ll@@	3704
Android	3704
49-@@	3704
borne	3703
PDE5	3703
termination	3703
ito	3702
worthy	3702
complaints	3702
bleeds	3702
correspond	3701
sensory	3701
pace	3700
metro	3700
expressing	3700
enters	3700
OL	3700
adds	3700
sedative	3700
315	3699
secreted	3699
Bristol-Myers	3699
developers	3699
jo	3699
geb@@	3697
Disorder	3697
dress	3696
prospective	3696
checks	3696
Items	3696
Rate	3696
politicians	3695
alu@@	3695
Situated	3694
sister	3693
sy	3693
hydration	3693
enjoying	3692
oli	3692
Ear	3691
iloprost	3691
keit	3690
Optaflu	3690
eti@@	3690
kn@@	3689
harmony	3689
conservation	3689
Oedema	3688
ín	3687
ocyte	3687
NL-@@	3686
Relations	3686
blast	3685
dried	3685
tape	3684
hn@@	3683
Triatec	3683
prevalence	3682
mail@@	3682
adaptation	3682
sein	3682
contributes	3681
iled	3681
foot@@	3681
ners	3680
FO@@	3680
ön@@	3679
.it	3679
meloxicam	3679
70-@@	3679
Š@@	3679
Ec@@	3678
μ@@	3677
Gall@@	3677
oms	3677
TER@@	3677
Camping	3676
lowered	3676
8.00	3676
RESTRICTIONS	3676
crossing	3675
Aqu@@	3675
paying	3674
aden@@	3674
Tower	3672
CS@@	3672
Secondary	3672
Stat@@	3671
axetil	3670
Duo	3670
chen@@	3670
ally-@@	3669
fluctuations	3669
Il@@	3669
DU@@	3669
181	3668
atosiban	3668
ã@@	3668
Stra@@	3667
Pur@@	3667
lion	3667
tra	3666
26th	3666
XX@@	3666
cleaned	3665
Og	3665
mo	3664
locked	3664
dal@@	3663
Post-@@	3663
otoxicity	3662
lid	3662
0.45	3662
Secondly	3661
tun@@	3660
chocolate	3660
r-@@	3660
shield	3659
automated	3659
1800	3658
Pel@@	3657
fructose	3657
RC	3656
R-@@	3656
te-@@	3656
opposed	3656
transported	3656
408	3655
intermittent	3655
Serono	3655
founder	3655
Mand@@	3654
tering	3653
gastroenteritis	3653
straat	3653
rati@@	3653
sat@@	3652
Rap@@	3652
graduated	3651
ck@@	3651
MEMBER	3651
Floor	3650
269	3650
ves@@	3650
Haus	3650
ultimate	3648
dil@@	3648
Contraindications	3648
ider	3647
dy@@	3647
coadministered	3646
Activity	3646
cameras	3646
accessed	3644
liner	3644
elsewhere	3644
teach	3643
divine	3643
Wo@@	3642
accommodate	3642
H2	3642
by-@@	3642
haematopoietic	3642
class@@	3641
pro-@@	3641
pa	3641
fireplace	3640
merck.	3640
eptifibatide	3639
Fo@@	3639
best@@	3639
Hist@@	3638
Construction	3638
drawings	3637
exc@@	3637
anymore	3637
alist	3636
Communities	3636
welfare	3636
dehydrogenase	3635
ranolazine	3635
inherited	3635
authentic	3634
festivals	3634
estrogen	3633
♦	3632
TW@@	3632
ua	3632
affordable	3631
treatment-naïve	3631
Tag	3630
izer	3630
AUC@@	3630
tunnel	3630
296	3630
Kentera	3630
4HB	3629
Serbia	3628
Vision	3628
immunological	3627
eck@@	3627
absent	3626
27th	3626
Elevated	3626
Medium	3626
prot@@	3625
243	3625
schedules	3625
6-month	3624
chem@@	3624
agranulocytosis	3624
vi	3623
9.7	3623
symbols	3623
installing	3622
drotrecogin	3621
marking	3621
ür@@	3621
jointly	3620
432	3619
283	3619
CV@@	3619
Bremen	3619
MAN@@	3619
over-@@	3618
0.8@@	3618
liable	3617
salmon	3615
immunoglobulins	3615
liche	3615
awards	3614
shore	3614
arten	3613
delighted	3613
Sand@@	3612
332	3612
eing	3612
feld	3612
Drugs	3611
pipe	3610
Afghanistan	3610
inter-@@	3609
recruitment	3609
antidepressant	3609
strontium	3608
inen	3608
emesis	3608
ala	3607
teen	3607
preceding	3607
washed	3606
climbing	3606
coastal	3606
msec	3605
τ@@	3605
00AM	3605
pose	3604
Da@@	3604
burg@@	3602
faint	3602
arian	3601
universe	3600
Publications	3600
chat	3600
lined	3600
ored	3599
TEC	3598
hostel	3597
four-@@	3597
adver@@	3597
avi@@	3597
beside	3597
motorway	3596
salts	3596
kr@@	3595
haemorrhagic	3595
intra-@@	3595
voluntary	3594
Translation	3594
y.@@	3594
testicular	3594
united	3594
engineers	3593
amber	3591
utility	3590
1970	3590
markedly	3590
oth	3589
trauma	3589
senior	3588
casino	3588
tiles	3587
Books	3587
ep	3587
couldn	3586
viol@@	3586
featuring	3586
enhancing	3586
mucositis	3585
6.9	3585
Rua	3584
determining	3584
lakes	3583
discussing	3583
crying	3583
TP	3582
delta	3582
sword	3582
encouraging	3582
UD@@	3581
bikes	3581
RILUTEK	3581
physiological	3581
197	3580
RELISTOR	3580
Question	3580
Premiere	3579
tear	3579
sensations	3578
Cerenia	3578
Yttriga	3577
tail	3577
expanding	3577
mic@@	3577
magn@@	3577
retard	3577
optimised	3576
cinema	3576
AMMONAPS	3575
metabolisers	3574
Purified	3574
IDflu	3573
Moonrise	3573
Stefan	3572
Privacy	3572
Kosovo	3572
Lyrica	3571
DL@@	3570
Kabi	3570
Nat@@	3570
defend	3569
1978	3569
fixing	3568
gross	3567
amar@@	3567
lactate	3566
watching	3565
gear	3565
seriousness	3565
segments	3564
strike	3564
spasm	3564
2014-@@	3564
icht@@	3564
administrations	3562
promised	3562
top-@@	3562
Moonset	3562
electronics	3561
Mix	3561
agn@@	3561
anch@@	3560
10mg	3560
buses	3560
ali	3559
annually	3558
0.7@@	3557
justifies	3557
contr@@	3557
Oslo	3556
presidency	3556
Economy	3555
115@@	3554
bab@@	3554
tropical	3553
wood@@	3553
audit	3553
ataxia	3553
schemes	3550
examinations	3550
Queen	3550
reconstruction	3550
oval-shaped	3549
len@@	3548
ská	3548
chose	3548
osteoarthritis	3548
abnormally	3547
sensors	3547
child-bearing	3547
restoration	3546
kitchenette	3546
crew	3545
listening	3545
Cs	3545
Techn@@	3544
consolidated	3544
molecule	3543
LCD	3543
sup@@	3543
thorough	3543
ost	3542
prohibited	3541
lovastatin	3541
marker	3541
EE	3540
т@@	3539
yl-@@	3539
bool	3539
asylum	3538
incorrect	3538
air-conditioned	3538
XXX	3538
teratogenicity	3537
vicinity	3537
Biologicals	3536
premium	3536
zu@@	3535
STATES	3535
ACT	3534
nu@@	3534
half-@@	3534
enalapril	3534
postponed	3533
193	3533
verse	3533
dominant	3532
CONTAINING	3531
incidences	3531
rs	3531
deficient	3531
camping	3530
worn	3530
pointes	3530
Duloxetine	3530
invalid	3530
flying	3528
ā	3528
plat@@	3527
1944	3527
Pedea	3527
REN@@	3527
survived	3527
Bridion	3526
rob@@	3525
bunk	3525
speaks	3524
chlorobutyl	3523
isophane	3522
insight	3522
frames	3522
Ital@@	3522
Dam@@	3522
refused	3522
preserve	3522
SF	3521
tyrosine	3521
eri	3521
Draw	3520
nom@@	3520
ne-@@	3520
courage	3519
congratulate	3519
271	3519
Wat@@	3518
Kir@@	3518
.eu	3518
Ramipril	3518
ty-@@	3517
Comtess	3517
sid@@	3517
с@@	3516
ocean	3515
po	3515
Bed@@	3514
rotated	3513
Gemzar	3512
elli	3510
wenn	3510
Around	3509
infringement	3508
1975	3508
seminars	3507
Pf@@	3506
HD@@	3506
Dar@@	3506
Alcohol	3505
rich@@	3504
IX@@	3504
Ny@@	3504
Merc@@	3504
inquiry	3503
fied	3503
bandliste.de	3503
forums	3502
moral	3502
regulated	3502
Coins	3502
palms	3502
dialog	3501
cht	3500
och@@	3500
Periodic	3500
Careful	3499
off-@@	3499
32.@@	3499
Employment	3498
BMW	3498
selector	3497
mucosa	3497
401	3497
Label	3497
Heads	3497
ITP	3496
364	3496
eph@@	3495
allergies	3495
Gol@@	3495
Subject	3495
Physicians	3494
Albert	3494
vaccinations	3493
arti@@	3492
superficial	3492
conscious	3492
Ü@@	3492
252	3491
quarters	3491
Otherwise	3491
single-@@	3491
IMG	3491
Jordan	3491
Karl	3490
nel@@	3490
Core	3490
ship@@	3490
boys	3490
Capsules	3490
BM@@	3490
end-stage	3490
NT	3489
neonatal	3489
bild@@	3489
ovary	3488
Warszawa	3488
Straße	3488
en.wikipedia.org	3487
Linz	3487
Lat@@	3487
aggravated	3487
midst	3486
Bou@@	3486
anaesthetic	3486
265	3486
shed	3485
BATCH	3485
eternal	3485
disappeared	3484
taxi	3484
discovery	3483
Lamivudine	3483
041	3482
313	3482
vel@@	3482
INSTRUCTIONS	3482
248	3481
zen@@	3480
signature	3480
Repeat	3479
Jul@@	3479
cz@@	3479
character@@	3479
LAN	3479
isa	3478
SK@@	3478
faithful	3478
Pharmamatch	3478
Bundes@@	3477
NPH	3477
XXL	3477
pairs	3477
dispose	3477
ô@@	3477
gesch@@	3477
KIOVIG	3476
exercises	3476
IIIa	3476
OPATANOL	3475
venture	3475
Mess@@	3475
Immediately	3474
Wilson	3474
knowing	3473
www.penilefitness.com	3472
Gliolan	3472
ly-@@	3472
PRCA	3472
Asthenia	3471
Format	3470
interpreted	3470
autologous	3470
law@@	3469
pursue	3469
ration	3469
limitations	3468
neuromuscular	3468
enden	3467
hausen	3467
ification	3467
-1.@@	3466
uria	3466
translations	3465
raising	3464
Customers	3464
uncommonly	3464
pas@@	3464
VER@@	3463
d.@@	3463
chi	3463
Dolomites	3463
Process	3462
dairy	3462
highlighted	3462
blu@@	3462
ables	3461
Tools	3460
Record	3460
obj@@	3459
2800	3459
yt@@	3458
y.com	3458
Köln	3456
Bridge	3456
hospitalisation	3455
Cop@@	3455
456	3455
HP	3454
É@@	3454
wheels	3454
accounted	3454
beam	3453
alteration	3453
ulated	3453
cut@@	3453
Ñ@@	3452
---	3452
Enter	3451
alles	3451
correlation	3449
oes	3449
likelihood	3448
ishes	3448
settled	3447
enclosed	3447
compresse	3446
salvation	3446
Polyethylene	3445
Tom	3445
embryo	3444
seit	3444
409	3444
2006-0@@	3444
pathological	3444
pushed	3443
MT@@	3443
feels	3442
incorporation	3442
ide-@@	3441
110@@	3440
zaleplon	3440
Recombinant	3440
hair@@	3440
Force	3439
pine	3439
Behold	3439
gambling	3439
instituted	3438
Blo@@	3438
finalised	3438
CPK	3437
obl@@	3437
Panel	3436
Vaccination	3435
competitors	3435
SPCs	3435
earn	3434
enberg	3434
millilitre	3434
091	3434
Out@@	3434
dabigatran	3433
Pharmac@@	3432
dip@@	3432
Ban@@	3432
Neisseria	3431
Watch	3431
agg@@	3431
................................................................@@	3431
Radi@@	3431
Hem@@	3431
honour	3430
landscapes	3430
Disodium	3429
aling	3429
X-ray	3429
snack	3429
panic	3428
Cour@@	3428
drug-related	3428
TIC@@	3428
integrity	3427
Pasteurella	3427
Buy	3426
asting	3425
platforms	3425
Remember	3425
optical	3425
ethinyl	3425
dies	3425
specification	3424
erc@@	3424
CAPSULES	3423
exclude	3423
ots	3423
barbecue	3423
dispersion	3423
30.0@@	3423
Hypoglycaemia	3422
Delivery	3422
Gy@@	3422
surgeon	3422
ound	3422
Mount	3421
lamp	3421
Fondaparinux	3421
113@@	3421
Short	3421
seating	3420
62@@	3420
post-	3420
liked	3420
infusion-related	3420
desktop	3419
node	3419
Flebogammadif	3419
Coast	3419
isActive	3419
long-@@	3418
constitutes	3418
mammalian	3418
salmeterol	3417
hygiene	3417
clouds	3417
notification	3417
financed	3417
Beg@@	3417
CB@@	3417
bers	3416
collagen	3416
-S@@	3416
joining	3415
q.	3415
micro-organisms	3414
chances	3414
searching	3414
womb	3414
transplanted	3414
Would	3413
rivers	3413
∞	3413
counted	3412
NVR	3412
creativity	3412
öl@@	3412
w-@@	3411
terrorist	3411
choosing	3411
nis	3411
basin	3410
22nd	3410
Slovak	3410
ROUTE	3410
MM@@	3410
practically	3410
Jobs	3409
Germans	3409
mesto	3409
aks	3409
35-@@	3408
bon@@	3407
ASSOCIATED	3407
achievements	3406
dish	3406
proximity	3405
URE	3405
Welt	3404
Edit	3404
prints	3404
Ash@@	3404
overload	3403
Java	3403
zeta	3403
uch	3403
092	3403
milestone	3402
Kit	3402
Printing	3401
translation.php	3400
gather	3400
Servier	3400
AA	3399
morphine	3399
hypothyroidism	3398
FS	3397
344	3396
03.05.2016	3395
sia	3395
178	3394
Higher	3394
Civil	3393
demonstrating	3392
ave	3392
disaster	3391
approximate	3391
checking	3391
row@@	3391
Fun@@	3391
Len@@	3390
follicle	3389
Ster@@	3388
main@@	3388
fast@@	3388
s.de	3388
Farmacêuticos	3388
sphere	3386
formally	3386
Orange	3386
galactose	3385
hypoaesthesia	3385
barrel	3385
aps	3385
sar@@	3385
sake	3384
Vin@@	3384
poorly	3384
prostatic	3384
Cardiovascular	3383
allocated	3383
comprised	3383
handed	3382
micafungin	3382
medically	3382
045	3382
disposition	3380
subgroups	3380
ka@@	3380
keyboard	3379
environments	3379
Playa	3378
Tours	3378
Islam	3377
ès	3377
ulating	3377
0,00	3376
s1600	3376
pl	3376
lich@@	3376
Orfadin	3375
aur@@	3375
5-0@@	3374
Oil	3373
broad@@	3373
266	3373
ef	3372
reflection	3372
sav@@	3372
CONCLUSIONS	3372
folk	3372
Organization	3371
haematoma	3371
EVICEL	3371
anakinra	3370
Teл	3369
intrathecal	3369
febuxostat	3369
referring	3368
Labelling	3368
Olympic	3368
2309	3368
Kre@@	3367
nat@@	3367
Supervisory	3367
rectal	3366
roc@@	3366
dystonia	3366
jump	3366
relaxed	3366
adjunct	3366
chro@@	3366
Monte	3366
ired	3365
æ@@	3365
Orchestra	3364
Inactivated	3363
On-site	3362
Som@@	3361
º	3361
E.@@	3361
Kent	3361
Hil@@	3361
deficit	3360
AZILECT	3360
consumed	3359
silent	3359
ía	3358
assure	3358
www.amarillasaustin.com	3358
reactivation	3358
cylinder	3357
foundations	3357
Christ@@	3357
rigors	3356
Multi@@	3356
reac@@	3355
Ä@@	3355
finden	3354
alise	3354
uncertain	3354
Cloud	3353
mounting	3353
polyps	3352
ny@@	3352
Det@@	3352
grams	3352
reader	3351
eries	3350
999	3350
lip	3350
Franz	3350
Ocean	3350
BB@@	3349
.c@@	3349
prop@@	3349
ares	3349
funded	3349
tr	3349
Lag@@	3348
theater	3348
metre	3348
ceramic	3348
390	3347
Cit@@	3347
Yttrium	3346
decoration	3346
Brun@@	3346
alia	3345
vas@@	3345
fore@@	3345
Tip	3345
downloaded	3344
mistake	3343
Converter	3343
64-bit	3340
sampling	3340
avian	3339
start@@	3339
Imm@@	3339
tournament	3339
www.g@@	3339
modern@@	3339
extr@@	3338
governing	3338
questionnaire	3337
KIU	3337
commit	3336
styles	3336
enburg	3335
indicative	3335
Alb@@	3335
www.ypages@@	3335
py	3334
Notes	3334
Wo	3334
lamps	3333
Fa@@	3333
VIALS	3333
trimethoprim	3333
Hier	3333
enoxaparin	3332
TC	3332
disciples	3331
breathe	3331
Again	3331
NATO	3331
Later	3331
Lyme	3331
bad@@	3331
ires	3331
Synagis	3330
ownership	3330
fesoterodine	3329
pig	3329
toxicology	3329
Front	3329
altitude	3329
1.73	3328
José	3328
phosphokinase	3328
Odgovor	3327
Daronrix	3326
Aloxi	3325
29th	3325
262	3324
benzalkonium	3324
Message	3324
iPad	3324
Gel@@	3323
REGRANEX	3323
Sz@@	3322
obesity	3322
277	3322
Adobe	3321
mol@@	3321
ringing	3320
smell	3320
Problem	3318
Times	3318
polyvinyl	3317
GL@@	3316
retain	3316
VEN@@	3315
insertion	3315
Arthralgia	3314
1976	3314
Pure	3314
predictive	3313
postmarketing	3313
barriers	3313
Recommended	3311
rapporteurs	3311
Lev@@	3310
Herpes	3310
histamine	3309
farming	3309
aud@@	3309
Palma	3309
Buch@@	3308
Set@@	3308
crystalline	3308
Schw@@	3308
kal@@	3307
Suites	3307
AE	3307
hrs	3307
wer	3307
degradation	3305
ped@@	3304
invitation	3303
vocational	3302
designers	3302
astic	3302
Harbour	3302
Rol@@	3302
XML	3302
10.0	3302
instantly	3302
Bild	3301
sions	3301
buffer	3301
slide	3300
307	3300
Property	3300
stressed	3300
morph@@	3300
achievement	3300
ppm	3300
vegetable	3299
buying	3299
ergot	3299
unaffected	3298
serial	3298
path@@	3297
tac@@	3297
introducing	3297
lively	3296
decentralised	3296
Kle@@	3296
eps	3296
paradise	3296
judicial	3295
ben	3295
organism	3295
commission	3294
Trading	3294
ien@@	3293
occupation	3293
Not@@	3293
4-fold	3293
lifestyle	3292
graduate	3292
Catalonia	3292
extraction	3291
Allow	3289
tol@@	3289
ter-@@	3289
plastics	3289
-25	3289
twin	3288
Altargo	3288
reddening	3288
renin	3288
19,@@	3288
Berkshire	3287
hen	3286
failures	3286
über@@	3286
loop	3286
definite	3286
query	3285
auer	3285
equivalence	3285
IGF-1	3285
charm	3285
hydrolysis	3284
SPECIAL	3284
lacking	3284
ł@@	3284
Faslodex	3282
pharyngitis	3282
placenta	3282
hypotensive	3282
Optimark	3282
19-@@	3280
Meta@@	3279
am-@@	3279
Vic@@	3279
els@@	3278
alize	3278
exports	3277
Hazard	3277
Ads	3277
VIRBAC	3277
missions	3277
hypo	3277
biphasic	3277
jer@@	3276
manually	3276
SOLVENT	3276
Dre@@	3275
timely	3274
ups	3274
Survival	3274
hasn	3272
alled	3272
embossed	3272
Avaglim	3271
supplementation	3271
Concurrent	3271
prominent	3270
Trial	3270
Ris@@	3270
reflecting	3270
Metalyse	3269
Concept	3269
elec@@	3268
shareholders	3268
tries	3268
41@@	3267
camps	3267
ethyl	3266
packaged	3266
marriage	3265
Paroxetine	3265
decides	3265
ar-@@	3265
fails	3265
www.gstadt.de	3264
mi	3264
time@@	3264
photocopying	3263
criticism	3263
saith	3263
Built	3262
recipes	3262
mercy	3262
Value	3261
520	3261
ects	3260
bass	3260
4,000	3260
hood	3260
las@@	3260
hex@@	3259
bulk	3259
sulph@@	3259
walks	3259
article.php	3259
darkness	3258
glucose-galactose	3258
tt@@	3258
crawler	3258
Classic	3257
LDL-C	3257
51@@	3257
-2-@@	3256
WITHOUT	3255
Cape	3255
cham@@	3255
ees	3254
Kin@@	3254
acquire	3254
Made	3254
schaft	3254
imbalance	3253
pra@@	3253
ELISA	3253
Introduction	3252
Rh@@	3252
addressing	3252
iter@@	3252
buttons	3251
clinic	3251
batteries	3251
heavily	3251
Hampshire	3251
familial	3251
anterior	3250
Ges@@	3250
Propylene	3250
Vice-President	3249
ity-@@	3249
fro@@	3249
Vir@@	3248
ano@@	3248
s.html	3247
Amb@@	3247
institute	3246
visa	3246
breathlessness	3245
coordinate	3245
executed	3245
peri@@	3244
Jahre	3244
pec@@	3243
unc@@	3242
haematocrit	3241
crush	3241
invites	3241
Sailing	3241
83@@	3240
diclofenac	3240
enia	3239
unions	3239
luck	3239
1-0@@	3239
stairs	3239
inhibited	3238
Targretin	3238
worship	3238
any@@	3238
vin@@	3238
367	3238
Fir@@	3237
vul@@	3237
Benelux	3236
2007-@@	3236
kle@@	3235
2,5	3235
syndromes	3234
Vacation	3234
GR-@@	3233
ives	3233
ading	3233
Amendment	3232
matched	3232
Key@@	3232
Hostel	3231
decision-making	3231
warts	3231
Dat@@	3231
iro	3231
bromide	3231
23rd	3231
thr@@	3230
dopaminergic	3230
Almost	3230
.files.wordpress.com	3230
warranty	3229
ism@@	3228
enjoys	3228
ranking	3227
anal	3227
rebound	3227
tit@@	3226
definitive	3226
Band	3226
constitution	3226
SQL	3226
secured	3226
proportions	3226
warrant	3226
apparently	3225
MI@@	3223
day@@	3223
airports	3222
composer	3222
Case	3222
octocog	3222
Xenical	3221
diltiazem	3221
blocker	3219
pun@@	3219
alternatives	3219
Attention	3218
P.@@	3218
72@@	3218
Stand	3218
crystal	3218
emission	3218
TESLASCAN	3217
thromboembolism	3217
easiest	3217
tivity	3217
login	3215
organise	3215
oblong	3215
aug@@	3214
tom@@	3214
shadow	3214
beats	3213
tie	3213
NNRTIs	3213
rus@@	3213
ery@@	3212
undertake	3212
fairly	3212
asks	3212
mut@@	3211
constitutional	3211
deck	3211
Still	3211
df@@	3211
filters	3211
Optim@@	3210
Karlsruhe	3210
Mwst	3210
Gad@@	3210
Cab@@	3210
zzgl	3209
Glass	3209
nitrates	3209
Malaysia	3208
Shanghai	3208
Walter	3207
laan	3207
accomplished	3207
plenary	3207
Revasc	3207
readers	3207
actor	3207
Cos@@	3207
ancy	3206
iss	3204
ager	3204
17,@@	3204
compl@@	3203
experiment	3203
Arch@@	3203
forever	3202
Rarely	3201
equity	3201
Airlines	3201
Pictures	3201
0,000	3200
Dal@@	3200
formulated	3200
99.@@	3200
particle	3199
Pil@@	3199
minibar	3199
365	3199
ulcerative	3199
HER2	3199
Co-@@	3198
Round	3198
Tom@@	3198
80-@@	3197
bis@@	3197
playground	3197
amoxicillin	3197
347	3197
Hallo	3197
333	3197
fb@@	3197
nt	3196
geographical	3196
GO@@	3196
Images	3196
fraud	3195
glucocorticoids	3195
thro@@	3193
Cats	3193
Biotechnology	3193
guys	3193
2377	3192
proposes	3192
336	3191
check@@	3191
Injections	3189
accidents	3189
eding	3188
Regulations	3188
š	3188
Stability	3188
varieties	3188
7000	3187
MB@@	3187
restarted	3186
quote	3186
Competition	3186
11.2015	3185
Johann	3185
Wellness	3185
succeeded	3185
FORM	3184
¤	3184
Heritage	3184
adjustable	3184
gains	3183
half-lives	3183
cytogenetic	3183
confused	3182
benefit-risk	3182
sle@@	3182
eben	3181
bau	3181
qualities	3181
Dun@@	3181
0.02	3180
DG	3180
ld@@	3180
sciences	3179
9.2	3179
backup	3179
completing	3179
Tab	3179
Abraham	3179
reinforced	3177
networking	3177
tion-@@	3177
scenes	3176
Prepandrix	3176
272	3176
Jihlava	3176
unconsciousness	3176
uz@@	3175
FE@@	3175
incomplete	3175
2500	3174
fosaprepitant	3174
OM	3174
MRFG	3174
Lisonorm	3174
Trocoxil	3174
rub@@	3173
monastery	3172
Injecting	3171
Sitagliptin	3171
-free	3171
sche	3171
Emtricitabine	3170
Certain	3170
cargo	3170
stoppers	3169
ANT	3169
inspiration	3169
pam@@	3169
desert	3168
cladribine	3168
injuries	3168
resume	3167
Haematological	3166
tionally	3166
OHSS	3166
Cube	3165
stocks	3165
Chicago	3165
prisoners	3165
kings	3165
minim@@	3164
crises	3164
gest@@	3164
edly	3163
9.1	3162
eas@@	3162
power@@	3162
writes	3161
ased	3161
anim@@	3161
aire	3160
setup	3160
sarcoma	3160
flora	3160
integral	3160
placement	3159
normalisation	3159
tar	3159
Soci@@	3159
CS	3158
recycling	3158
publish	3157
e.V.	3157
solo	3155
pharmacy	3155
042	3155
pleural	3155
shop@@	3155
ith	3154
1g	3154
rinse	3153
eable	3152
commun@@	3152
a.htm	3152
Jean	3151
sanctions	3151
AstraZeneca	3151
realise	3150
tog@@	3150
yr@@	3149
subset	3149
build-up	3149
long@@	3149
downtown	3149
Warsaw	3149
degeneration	3149
flag	3148
8,000	3148
Empire	3148
vice	3147
2.00	3147
surcharge	3146
asis	3146
retained	3146
nobody	3145
Entertainment	3145
matches	3145
Component	3144
Um@@	3144
litre	3144
Vit@@	3144
investigating	3144
legally	3144
textile	3143
Beijing	3143
iter	3143
abortion	3142
Bay@@	3142
DF	3141
lock@@	3141
p.	3141
254	3140
declined	3140
Individual	3140
leukopenia	3139
Riviera	3139
iden	3139
Original	3139
authorized	3138
capitalist	3138
Constitution	3138
centr@@	3137
Per	3137
blend	3137
TED	3137
sec	3137
structurize	3137
Beginning	3136
scenery	3136
355	3136
officer	3136
3-5	3136
Pra@@	3135
ferry	3135
id-@@	3134
¶	3133
grass	3133
1A	3133
Holland	3132
Informationen	3130
ologists	3130
3.75	3129
BEROMUN	3128
pour	3128
olic	3128
energies	3128
Mes@@	3128
grand	3127
Minimum	3127
pegfilgrastim	3127
upload	3127
hosted	3127
departments	3127
udi@@	3127
2D	3127
pit	3126
EM	3126
cyanide	3126
Commerce	3125
fitting	3125
conversation	3125
bow	3125
P-glycoprotein	3124
Du	3124
multocida	3123
Ath@@	3122
Summaries	3122
Fal@@	3122
soya	3122
JavaScript	3121
Te	3121
KRAS	3121
sorafenib	3121
aded	3121
utes	3121
outlined	3120
yellowish	3120
Verfasst	3120
hyp@@	3120
obstacles	3120
matching	3120
scal@@	3120
in-	3120
slower	3119
objections	3119
Nevirapine	3119
Split	3119
www.google.com	3118
awaited	3118
cholestasis	3118
Hospital	3118
decade	3117
daptomycin	3117
387	3117
winners	3116
ava	3116
neighbouring	3116
metacresol	3116
Pergoveris	3115
Browse	3115
analytical	3115
fats	3115
degarelix	3114
Unless	3114
Alert	3114
once-daily	3114
measurable	3113
Muslim	3113
icul@@	3112
Wit@@	3112
purple	3112
pre	3112
architect	3111
Neither	3110
Shire	3110
scans	3110
analgesics	3110
outs	3109
210@@	3109
failing	3109
241	3109
MIN@@	3108
far@@	3108
Vilnius	3108
XX	3107
moodle	3107
possess	3107
modular	3107
Pir@@	3107
chol@@	3106
spot-on	3106
Province	3105
succeed	3105
parti@@	3105
oils	3104
impotence	3104
Cont@@	3104
Kn@@	3104
inated	3103
taxation	3103
PTH	3103
promotes	3101
fastest	3101
troops	3101
Authorities	3101
stro@@	3100
STE@@	3100
600@@	3100
altogether	3100
len	3100
neue	3099
4.jpg	3099
Peru	3099
steroid	3099
Strasbourg	3099
10.5	3098
paraffin	3097
cautiously	3097
dating	3095
durable	3095
TRE@@	3095
Clearance	3094
owing	3094
640	3094
doubled	3093
macro@@	3093
economical	3093
M.@@	3093
lifetime	3093
interventions	3092
rt@@	3092
Commun@@	3092
stretch	3091
withheld	3091
187	3091
es.	3090
zed	3090
angel	3090
freight	3089
Liv@@	3089
pelvic	3089
2013-0@@	3089
substitutes	3088
ext@@	3088
bert	3088
dieser	3088
Theatre	3088
phosph@@	3088
esses	3088
tinnitus	3087
silicon	3087
TSH	3086
elt	3086
д@@	3086
ance-@@	3086
litter	3086
kar@@	3085
Excellent	3085
exploitation	3085
cache	3085
ocytes	3083
Α	3083
enforcement	3083
625	3082
HA@@	3082
Middlesex	3081
verapamil	3080
hur@@	3080
after@@	3080
asti@@	3079
avoiding	3079
bg-bab	3079
ami	3079
Auf@@	3079
pill	3079
founding	3078
shar@@	3078
pack@@	3078
light-@@	3078
triazolam	3077
Cough	3077
Interior	3076
systematically	3076
chains	3076
courtyard	3076
full-@@	3076
Crixivan	3075
sacrifice	3075
ange	3075
Valsartan	3075
wa	3075
040	3074
child@@	3074
persists	3074
RS@@	3074
anti	3073
Reconstitution	3073
Essen	3072
antly	3072
lobby	3072
alpha@@	3071
Lansoprazole	3071
leuk@@	3071
editing	3071
y.	3071
gsk.com	3070
recommending	3070
037	3070
seller	3069
continually	3069
Rifampicin	3069
shapes	3068
Beromun	3068
anidulafungin	3067
Back@@	3067
god	3066
lymphadenopathy	3066
ulate	3066
tolcapone	3066
ι@@	3066
1600	3066
1972	3066
Target	3065
Bud@@	3065
Resources	3065
Groups	3063
ister	3062
Lane	3062
limitation	3062
lutropin	3062
seeds	3062
alling	3061
Various	3060
galleries	3060
melatonin	3059
clean@@	3059
nia	3058
giant	3057
phenomena	3057
travellers	3057
Taf	3057
trihydrate	3057
Measurements	3057
surprised	3056
with@@	3056
Fac@@	3056
Gaza	3056
pop	3056
sac@@	3056
woods	3056
essence	3056
ila	3056
commands	3056
productions	3055
extends	3055
profits	3055
Clomicalm	3055
silence	3055
geht	3055
ILP	3054
Sound	3053
www.fotos.sc	3052
Bus@@	3052
Česká	3052
happiness	3051
475	3051
Han@@	3051
extending	3050
citizen	3050
confident	3049
lag@@	3048
20,@@	3048
icate	3047
ja@@	3047
castor	3046
etta	3046
clicks	3046
recommends	3046
resi@@	3046
Hydro@@	3045
-02-@@	3045
cave	3045
Request	3044
embedded	3044
Added	3044
urg@@	3044
shelf	3044
Lor@@	3043
officers	3043
worker	3043
WP	3042
purchasing	3042
vic	3041
knob	3041
dial@@	3040
high-dose	3040
Lou@@	3040
kW	3040
4-0@@	3040
par	3040
Pierre	3040
278	3039
1974	3038
puncture	3038
eaten	3037
wand@@	3036
decompensation	3036
contractual	3035
Generated	3034
Belarus	3034
campaigns	3034
322	3034
Flushing	3034
mono@@	3033
modes	3033
pimecrolimus	3033
GIVEN	3033
Account	3033
6,000	3033
kernel	3032
vulnerable	3032
tackle	3031
Evohaler	3031
Haarlem	3030
rays	3030
Competent	3030
ym@@	3030
rhinotracheitis	3029
-D@@	3029
charcoal	3028
Gelatin	3028
encies	3028
ank	3028
races	3028
eosinophilia	3027
professor	3027
Riga	3027
gym	3026
positioned	3025
big@@	3025
urs	3025
prestigious	3025
Statement	3024
direc@@	3023
birthday	3023
DI	3023
Reserve	3023
posed	3023
push-button	3022
coins	3021
Male	3020
roughly	3020
neutr@@	3020
HEXAVAC	3020
Sor@@	3020
VASOVIST	3019
ing.com	3019
MAHs	3019
progression-free	3019
retinopathy	3019
Hg	3018
ovo	3018
Janssen-Cilag	3018
0.000	3018
extremity	3017
Ratiopharm	3017
singing	3017
VO@@	3017
Equ@@	3017
Guideline	3016
perspectives	3016
AI@@	3015
www.dutchgrammar.com	3015
auto@@	3015
25H	3015
lipids	3014
camp@@	3014
Aug@@	3014
methylnaltrexone	3014
aPTT	3013
ol-@@	3013
Warning	3013
Il	3013
myelosuppression	3012
fan@@	3012
alls	3012
water-@@	3012
Cast@@	3011
038	3011
Metal	3011
ows	3011
singer	3011
stat@@	3011
rocks	3010
Mi	3009
bir@@	3009
boote-kleinanzeigenmarkt.de	3008
Dyspnoea	3007
pay@@	3007
capture	3007
sten@@	3007
tabletten	3006
tobacco	3006
template	3006
asc@@	3006
toys	3006
codes	3006
High@@	3005
ORAL	3005
ested	3005
osteonecrosis	3005
icity	3005
Reduced	3004
moder@@	3004
Average	3003
VA@@	3003
Acc@@	3003
Relative	3003
postural	3003
ems	3003
physically	3002
.amarillas@@	3002
dann	3002
malware	3002
Bolzano	3001
Medicine	3001
Piazza	3001
-01-@@	3001
favor	3001
ruling	3000
wherever	3000
peeling	2999
4-6	2999
maritime	2999
satisfactorily	2999
0.50	2999
commanded	2999
ques	2999
specialities	2998
Lar@@	2998
27-@@	2998
Pet@@	2997
cohort	2997
34-@@	2997
obtaining	2996
fam@@	2996
pg	2996
defense	2996
302	2996
1.html	2995
progenitor	2994
angi@@	2993
ia-@@	2992
semen	2992
Ø	2992
clim@@	2991
abandoned	2991
anz	2991
fate	2991
125@@	2990
oe	2990
Caribbean	2989
whereby	2989
Alpine	2988
Seiten	2988
appearing	2988
LIN@@	2987
26-@@	2987
IOP	2987
formerly	2986
arg	2986
263	2986
TIN	2986
mill	2985
uss	2985
Santé	2985
NMS	2985
seeks	2984
Andalusia	2984
aster	2984
anthracycline	2983
HE@@	2983
LD@@	2982
pharmaceuticals	2982
notify	2982
Titan	2981
Sev@@	2981
asset	2980
305	2979
touching	2979
connects	2979
Sildenafil	2979
Tol@@	2978
suspicion	2978
var@@	2978
Graph	2977
268	2977
ici	2977
Spi@@	2977
501	2976
trademarks	2976
499	2976
assembled	2976
distinct	2975
Dig@@	2975
Labour	2975
5.jpg	2975
embryonal	2975
bot@@	2975
Left	2974
entity	2974
manifested	2973
Extra	2972
Post-marketing	2972
2C9	2972
disturbed	2972
exploring	2971
non-clinical	2971
cyt@@	2970
esia	2970
rosuvastatin	2970
delivering	2969
Under@@	2969
aemic	2969
289	2968
Recent	2968
Beautiful	2967
Ó@@	2967
rufinamide	2966
darifenacin	2966
kt	2965
282	2965
NYHA	2965
vacc@@	2965
WINTHROP	2964
Β@@	2964
HBsAg	2964
G1	2962
.co.uk	2961
refrigerated	2961
Failure	2961
gs	2960
emerged	2960
boarding	2960
deferiprone	2960
cystic	2960
hide	2959
batches	2959
asts	2958
uv@@	2958
promises	2958
-resistant	2956
Cephalon	2956
resonance	2956
prone	2956
scanning	2955
author@@	2954
Eth@@	2954
ischer	2954
án	2954
plac@@	2954
adversely	2954
bank@@	2954
Communications	2953
HI	2952
roles	2952
ental	2952
acher	2952
shellac	2951
mul@@	2950
TH	2950
Zentrum	2950
earnings	2950
AGE	2950
masses	2949
mid	2949
gifts	2949
palivizumab	2949
hesitate	2949
liv@@	2948
RO	2948
Marco	2948
faecal	2948
Partnership	2947
Industrie	2947
Ä	2947
blood-@@	2946
acht	2945
plas@@	2945
af	2945
life-@@	2945
COR@@	2944
adjacent	2944
cloth	2943
endorsed	2943
Fro@@	2943
Equipment	2943
mol	2943
CAD	2943
ores	2942
ministers	2942
Non@@	2941
inflamed	2941
principally	2940
Nav@@	2940
Easter	2940
meantime	2939
AX@@	2939
akes	2938
hospitals	2938
hotel@@	2938
special@@	2938
462	2938
carriers	2937
253	2937
Position	2937
Aclar	2937
neuritis	2937
predic@@	2937
analgesia	2937
Weeks	2937
ity@@	2936
chromosome	2936
glob@@	2936
texture	2935
Concerned	2935
horn	2934
purity	2934
tre	2933
venue	2933
abstract	2932
kinetics	2932
ratios	2932
agr@@	2932
een	2931
interfaces	2930
Tool	2930
Loss	2929
aan	2929
RG@@	2929
OÜ	2928
Gate	2928
Lundbeck	2928
clumps	2928
internation@@	2928
Amgen	2926
dos@@	2926
yacht	2925
Magn@@	2925
enk@@	2924
erie	2924
CMV	2924
Dev@@	2924
ev	2923
cetirizine	2923
385	2923
TIONS	2923
Focetria	2922
eless	2922
Meth@@	2922
ural	2921
ball@@	2921
contra-indicated	2921
Practice	2921
ington	2921
additionally	2921
alis@@	2920
influences	2920
potentiate	2920
possession	2920
App	2920
expressly	2919
lor@@	2919
hostels	2919
palm	2919
environmentally	2919
MAOIs	2918
well-being	2918
Kam@@	2918
fication	2918
Atorvastatin	2918
examining	2917
glasses	2917
lasofoxifene	2917
TTP	2917
Bir@@	2917
sted	2917
Pandemrix	2917
B12	2917
IgE	2916
Virgin	2916
similarly	2915
ITY	2915
Somatropin	2915
Oxyglobin	2915
Myalgia	2915
ustekinumab	2915
survive	2914
benz@@	2914
chang@@	2914
talked	2914
condado-de-@@	2914
refuse	2914
EP	2914
thrombocytopenic	2914
eudra.	2914
mirtazapine	2913
incredible	2913
epistaxis	2913
talent	2912
aer@@	2912
Velosulin	2912
squamous	2912
itch@@	2911
eur	2911
TIC	2911
riluzole	2910
Tallinn	2909
vic@@	2909
Pay	2909
ligh@@	2909
Ï@@	2909
Vari@@	2909
saf@@	2909
shipment	2908
eful	2908
tum@@	2908
view@@	2908
rol	2908
doripenem	2908
refined	2907
admission	2907
intends	2907
Istanbul	2907
Officer	2907
Pruritus	2907
295	2906
reteplase	2906
2008-@@	2905
Stocrin	2904
preservatives	2904
spo@@	2904
legitimate	2904
Outdoor	2903
milligrams	2903
natalizumab	2903
undetectable	2903
Trav@@	2903
check-out	2903
cab@@	2903
Cri@@	2902
EGFR	2902
superiority	2902
Notice	2902
75-@@	2902
UE	2900
suc@@	2900
NA@@	2899
buyer	2899
azine	2899
ining	2898
tren@@	2898
tendon	2898
Revision	2897
Railway	2897
anta	2897
Status	2897
utz@@	2897
genetically	2897
cb@@	2896
RS	2896
flat-screen	2896
differentiation	2895
polysaccharide	2895
behaviours	2895
Ltd.	2895
explicitly	2895
honest	2895
uting	2894
W-@@	2894
Os@@	2894
berger	2894
u.@@	2894
PF@@	2894
iler	2894
jurisdiction	2893
Declaration	2893
assured	2892
üh@@	2892
dispute	2892
grateful	2892
chambers	2891
-28@@	2891
post-operative	2890
Permanent	2890
nbsp	2889
ae@@	2889
pipes	2889
exhibitors	2888
Long@@	2887
Boulevard	2887
GN@@	2887
dei	2887
ature	2886
oid@@	2886
ichen	2886
SureClick	2886
Balearic	2886
haus@@	2886
Datum	2886
238	2886
Presentation	2886
closest	2886
conservative	2886
atten@@	2885
ald	2885
Tw@@	2885
climb	2885
SSRIs	2885
t1	2884
appreciated	2884
CAP	2884
binary	2884
lipase	2883
lik@@	2883
Bil@@	2883
Organon	2883
Spiel@@	2882
Pension	2882
drainage	2882
deeper	2881
Head@@	2881
ule	2881
ug	2881
bill	2881
ossification	2881
smallest	2880
tively	2879
Educational	2878
hexa	2878
them@@	2878
ests	2877
duc@@	2877
Pop@@	2877
informal	2876
glance	2876
aspergillosis	2876
craft	2876
diesem	2875
sho@@	2875
php	2875
Personnel	2875
LIST	2875
ensi@@	2874
utmost	2874
pit@@	2873
Hiking	2873
Gulf	2872
Hits	2872
Thema	2872
Croscarmellose	2872
bathing	2872
folding	2871
subscription	2871
opalescent	2871
ify	2871
BMI	2871
bleed	2870
tile	2870
Aivlosin	2869
gases	2869
Firstly	2868
Cystadane	2868
aces	2868
329	2868
Weekly	2868
atives	2868
1-	2868
upcoming	2868
praise	2868
boasts	2868
Angiotensin	2868
mankind	2867
design@@	2867
compassionate	2867
acker	2867
IO@@	2867
Sebastian	2866
Exit	2866
ains	2865
extravasation	2865
Da	2865
Intramuscular	2865
Meg@@	2865
terraces	2865
eria	2864
gamma	2864
child-resistant	2863
Retrieved	2863
expose	2862
Pakistan	2862
aming	2862
NSCLC	2862
panitumumab	2861
Espoo	2861
hydroxocobalamin	2861
erung	2860
ener	2860
thinks	2860
Harmonisation	2859
way@@	2859
thesis	2858
realization	2858
pati@@	2858
AbZ	2858
Tokyo	2857
intoxication	2857
hat@@	2857
Absolute	2856
Prac-tic	2856
Shelf	2856
asp@@	2856
cellar	2855
educ@@	2855
haemolysis	2855
Implementation	2854
wars	2854
Parts	2854
exterior	2854
tonnes	2853
dd@@	2852
Near	2852
confirms	2851
Revolution	2851
sneezing	2851
slot	2850
rupture	2850
loves	2850
Á@@	2850
oxidative	2850
Power@@	2849
William	2849
displacement	2849
studying	2848
uterus	2848
tv	2848
suspect	2848
Particular	2847
ection	2847
templates	2847
fetal	2847
esa	2846
Sol	2846
ü	2845
anyway	2845
tubing	2845
414	2845
ux	2844
qui@@	2844
hist@@	2844
AML	2844
Normal	2843
TS@@	2843
documentary	2843
first-@@	2843
rock@@	2842
divide	2842
nutritional	2842
CYP@@	2842
cm2	2842
Width	2841
Caucasian	2841
inverted	2841
recipe	2840
iver	2840
nica	2840
ories	2840
3116	2839
multitude	2839
PCR	2839
Rus@@	2839
Handling	2838
sou@@	2838
0,5	2838
din@@	2837
ander	2837
sv@@	2837
sehen	2837
Mo	2837
Water@@	2837
Gesellschaft	2836
werk	2836
Cu@@	2836
Produc@@	2836
anxious	2836
mobilisation	2836
Ig@@	2835
headed	2835
naloxone	2835
reject	2835
tan@@	2835
chew	2834
vigorously	2833
prote@@	2833
Driver	2833
www.ironmaxx.de	2833
gem@@	2833
WLAN	2832
Max@@	2831
µmol	2831
mini-@@	2831
-B@@	2830
nal	2830
Editor	2830
ecting	2829
GE@@	2829
distribute	2828
Valle	2828
reconstitute	2828
acetic	2828
Exposure	2828
r.@@	2826
Gay	2826
Titel	2826
Countries	2825
Jun@@	2825
Americans	2825
Technologies	2824
aft	2824
Army	2824
adrenergic	2823
sal	2823
etr@@	2822
fle@@	2822
E464	2822
localised	2822
UNESCO	2821
fi	2821
bits	2821
DK-2@@	2820
.Ε.	2820
conver@@	2820
sunitinib	2820
chemically	2819
291	2819
enza	2818
Pylobactell	2818
carte	2818
habits	2817
celebration	2817
rentals	2817
piglets	2817
Terfenadine	2816
A1	2816
discretion	2815
aking	2815
Pre-filled	2814
18,@@	2814
pulled	2814
STRONGHOLD	2814
oesophagus	2814
1977	2814
Taiwan	2813
Ibiza	2813
stiripentol	2813
spironolactone	2812
engagement	2812
attempted	2812
9.9	2812
organisational	2812
Plat@@	2811
Sep@@	2811
Alopecia	2810
Term	2810
Friedrich	2810
imports	2810
COM	2810
KE	2809
Luxury	2809
Motor@@	2809
Vil@@	2809
honey	2808
Coll@@	2808
Clar@@	2807
attraction	2807
fluoro@@	2807
Neopharma	2807
offerings	2806
MENT	2806
419	2806
ew@@	2806
menopausal	2806
purely	2806
oration	2805
Blu@@	2805
ocytosis	2805
545	2805
cultivation	2805
distant	2805
ile@@	2805
recall	2804
TT	2804
711	2803
souls	2803
Meetings	2803
arians	2803
omet@@	2802
Deep	2802
probable	2801
kareha.pl	2801
constructive	2801
HT@@	2801
Siemens	2801
FL@@	2800
311	2800
33-@@	2800
lt	2800
nominal	2800
inflation	2800
Bul@@	2799
Croatian	2799
Pad@@	2799
Arrow	2798
Excel	2798
Years	2798
violation	2798
announce	2797
orchestra	2797
335	2797
451	2797
distinction	2797
laboratories	2796
Learning	2796
meta@@	2796
Leave	2796
uni@@	2795
polyamide	2795
downloads	2795
on-line	2794
lap@@	2793
Ps	2793
cardiomyopathy	2793
banquet	2793
hop@@	2793
Juan	2792
catering	2792
484	2792
turn@@	2791
aesthetic	2791
alists	2791
aya	2791
gates	2791
anti-epileptic	2790
alle@@	2790
gods	2790
follicles	2790
adjusting	2789
Six	2789
grouping	2789
Pod@@	2789
Whilst	2788
jury	2788
22-@@	2788
Submitted	2787
monkey	2787
booth	2786
rad	2786
Energ@@	2786
tz	2786
lichen	2785
prophylactic	2785
E2	2784
Others	2784
Ideal	2784
healed	2784
bepridil	2784
Adam	2784
Paget	2783
tend@@	2783
transit	2782
Adriatic	2782
tec	2782
463	2782
ven	2782
poses	2781
complexity	2781
.png	2781
urgency	2781
Dienstag	2780
hopes	2780
─	2780
Hav@@	2780
enthusiasm	2779
dre@@	2779
08.2015	2779
alities	2779
solving	2779
Egyptian	2778
alternate	2778
ergotamine	2778
pil@@	2777
FI	2777
Alcon	2776
lymphoid	2776
fragile	2776
HCV-RNA	2775
Bild@@	2774
mur@@	2774
penalty	2774
Ang@@	2773
00.00	2773
ruins	2773
Potential	2773
admitted	2773
tanks	2773
prospects	2773
Administer	2773
Gas	2772
Appeal	2772
www.amarillasausti	2772
conception	2771
she@@	2771
auto-@@	2770
epithelial	2770
och	2770
Stre@@	2770
3-	2769
map@@	2768
Тел	2768
Carbaglu	2768
honduras.@@	2768
IDE	2767
Rab@@	2767
psychotic	2767
Zone	2766
91@@	2766
terminals	2766
cooperate	2765
tick	2765
ting@@	2764
Junior	2764
Electronic	2764
beta-1b	2764
up-to-date	2764
RCP	2764
MenC	2764
pigment	2764
medinfo	2763
ARE	2763
SYRINGES	2763
coadministration	2763
pups	2763
dibasic	2763
pir@@	2763
Connec@@	2762
lem@@	2762
Est@@	2762
tricyclic	2762
fot@@	2761
lady	2761
09.2015	2761
dramatic	2761
AVAGLIM	2761
136@@	2761
TRACTOCILE	2761
494	2760
breast-	2760
-and-@@	2760
welding	2760
Coordination	2759
E421	2759
Anorexia	2759
conjunctival	2759
NNRTI	2759
SB@@	2758
exceptionally	2758
U-@@	2758
pupils	2758
placental	2758
Danube	2758
virion	2758
tens	2758
ocy@@	2757
Lebanon	2757
itz	2756
Bren@@	2756
tablet@@	2756
Examples	2755
Bilder	2755
on-site	2755
expense	2755
differential	2755
calculations	2754
ach-@@	2754
filing	2754
oni@@	2754
labyrinth	2754
PERF	2754
Tit@@	2754
Everyone	2753
MRP	2753
32-@@	2752
Rou@@	2752
www.amarillasestad	2751
os-@@	2751
kommen	2751
Autom@@	2751
Insomnia	2750
irs	2750
Kunst	2750
Ticket	2750
orph@@	2750
Booking	2750
dres@@	2749
autom@@	2749
buccal	2748
iver@@	2748
246	2748
Speed	2747
electrocardiogram	2747
051	2747
STR@@	2747
ANTI@@	2746
epileptic	2746
Der@@	2746
Pseudomonas	2745
moreover	2745
Intel	2744
Create	2744
genes	2744
Telefon	2743
Farma	2743
defining	2743
harmonise	2742
peptic	2742
Alp@@	2742
Economics	2742
gle@@	2742
Magazine	2742
cle@@	2741
iert	2741
Alternative	2740
leuc@@	2740
ling@@	2739
Moderate	2739
rounded	2739
polymer	2738
339	2738
Ay@@	2738
yourselves	2738
canal	2738
opera	2738
244	2737
honor	2737
tabled	2736
Relevanz	2736
menus	2736
rep@@	2736
e.de	2736
folic	2736
Capacity	2735
Phoenix	2735
IC50	2735
gas@@	2735
Terminal	2734
39-@@	2734
Conf@@	2733
brethren	2733
750@@	2733
kur@@	2732
acetyl@@	2732
Gö@@	2732
dignity	2731
publisher	2731
oro	2731
ratings	2730
IE	2730
Var@@	2730
tops	2730
Nobivac	2729
glucosamine	2729
indigo	2729
actu@@	2729
triggered	2729
055	2729
Petersburg	2729
Barbara	2728
maintains	2728
100-@@	2728
globe	2728
Colour	2727
macrolide	2727
Aff@@	2727
505	2727
Login	2726
Audi	2726
AND@@	2726
free-@@	2725
fluvoxamine	2725
AMD	2724
bere@@	2724
aiming	2724
pneumococcal	2723
lob@@	2723
comprimidos	2723
PG	2723
lactase	2722
Edifício	2722
2015-@@	2722
Victoria	2722
pulling	2722
interrupt	2722
Client	2722
distinguished	2721
Santiago	2721
foetuses	2721
non-small	2721
SAS	2720
Wie	2720
DS@@	2720
sulfate	2719
anti-HBs	2719
License	2719
312	2719
somewhere	2719
Klaus	2719
crossover	2719
treaty	2718
Ring	2718
titles	2718
liberal	2718
directives	2718
Patrick	2718
shut@@	2717
Soleil	2717
mutagenicity	2717
Hikma	2716
Disinfect	2716
281	2716
spi@@	2716
wouldn	2716
choices	2715
promoted	2715
aviation	2715
ont	2714
violent	2714
intranasal	2714
Different	2714
TOTAL	2714
Ukrainian	2714
wild-type	2713
1A2	2713
motivated	2713
abrupt	2713
plot	2713
oo	2713
material@@	2713
kat@@	2712
Realty	2712
-07-@@	2712
files.wordpress.com	2712
ethical	2712
Languages	2712
enders	2712
Fall	2711
placebo-	2711
worlds	2711
ück	2711
League	2710
ten-@@	2710
journalists	2710
-05-@@	2709
hunger	2709
truck	2709
prosperity	2709
Saul	2709
furnishings	2708
Proc@@	2708
226	2708
442	2707
Repeated	2707
vaccinees	2707
Amlodipine	2707
Meloxicam	2706
foreseen	2705
memories	2705
lord	2705
Swimming	2704
initi@@	2704
076	2703
δ@@	2703
rocuronium	2703
Vegas	2703
Rica	2702
t.	2702
1-3	2702
beating	2702
steep	2702
cia	2701
sta@@	2701
Kap@@	2701
530	2701
Accidental	2701
la-@@	2701
Vice	2701
Wol@@	2700
mighty	2700
lifting	2700
villas	2700
Fire	2700
metals	2699
wage	2699
relates	2697
298	2697
accompany	2697
donation	2697
telling	2697
hallucination	2697
iker	2697
energy-@@	2697
angioneurotic	2696
BvR	2696
Consulting	2696
Fluid	2696
splendid	2696
parliament	2695
ety	2695
hunting	2695
Coated	2694
passages	2693
Kra@@	2693
pocket	2693
izz@@	2693
Cala	2693
complementary	2693
WBC	2693
Delta	2693
Host@@	2693
Constitutional	2692
Hard@@	2692
dear	2691
recipient	2691
oestrogens	2691
dol@@	2691
municipal	2691
flare	2690
lectures	2690
dryness	2690
tru@@	2690
0.12	2689
Installation	2689
oon	2689
AK@@	2688
RESPONSIBLE	2688
emerge	2688
skull	2688
iding	2688
ERS	2687
distinguish	2687
grain	2687
Cul@@	2687
breathtaking	2687
Ori@@	2687
ras@@	2686
psychosis	2686
hl	2686
cheapest	2686
ast-@@	2685
extracted	2685
ept	2685
iller	2684
rech@@	2684
bypass	2684
cables	2684
Along	2682
illy	2682
custom@@	2682
Ironing	2682
mt	2681
alike	2681
amer	2680
tern	2680
Stock	2679
embed	2679
382	2679
foaming	2679
Hot@@	2679
But@@	2678
Structural	2678
slope	2678
dered	2678
tation	2678
Doctor	2677
Dou@@	2677
NE	2677
validity	2676
Eine	2676
Simon	2676
Down	2675
Bour@@	2675
micronucleus	2675
11.5	2675
Gardena	2675
coun@@	2675
logic	2674
ett@@	2674
sco@@	2673
dilute	2673
063	2672
sed@@	2672
Shi@@	2672
Sum@@	2672
capacities	2671
zation	2671
priv@@	2671
Å@@	2670
Slowly	2670
cc@@	2670
bit.ly	2670
aters	2670
solved	2670
zonisamide	2669
nominated	2669
eon	2669
nozzle	2669
dos	2669
substitutions	2668
PID	2668
infiltrates	2668
delicate	2668
atur@@	2668
Mik@@	2668
amnesia	2668
Fitness	2667
FT	2667
smile	2666
fluoroquinolones	2666
EUROPEAN	2666
probability	2666
cottage	2666
Ric@@	2666
Sustiva	2666
terrible	2666
ND@@	2665
kin	2665
correlated	2665
generous	2665
drying	2665
alpine	2665
dc	2665
Newsletter	2664
UM	2664
applicator	2664
serotype	2664
ux@@	2664
vo	2663
deposits	2663
Desk	2663
nateglinide	2662
angels	2662
WH@@	2661
Registry	2661
Wa@@	2660
azathioprine	2660
mic	2659
analyse	2659
illed	2659
nas@@	2659
cathedral	2659
evaluable	2659
INVENTED	2658
Cardoreg	2658
circulatory	2658
HDL	2658
Paste	2658
narrowing	2658
и	2658
phrase	2658
DV@@	2657
ml@@	2657
Already	2657
105@@	2657
Lansoprazol-ratiopharm	2656
President-in-Office	2656
agalsidase	2656
kil@@	2656
A771726	2655
chart	2655
clarity	2655
fig@@	2655
az	2655
pipeline	2654
Weather	2654
ester@@	2654
rigid	2654
auto	2654
1.00	2654
304	2654
edetate	2654
ft@@	2654
colleague	2653
1,5	2653
routinely	2653
-in-@@	2652
-03-@@	2652
Initiative	2652
builds	2652
Al-@@	2652
sweet@@	2652
ind	2650
pan	2650
finest	2650
itor	2649
A2	2649
Geb@@	2649
kom@@	2649
fish@@	2648
link@@	2647
343	2647
dal	2647
Century	2646
baths	2646
'clock	2646
Steel	2645
bun@@	2645
grand@@	2645
non-smoking	2645
Base	2645
emotions	2645
oxidation	2645
ejaculation	2645
capability	2643
economics	2642
comfortably	2642
summ@@	2642
cheaper	2642
heart@@	2642
cot@@	2642
ral	2642
blessed	2642
realised	2642
afts	2642
Tun@@	2642
stove	2641
endothelial	2641
Top@@	2640
Credit	2640
grants	2639
valves	2639
balls	2639
Brit@@	2638
Ton@@	2638
ock@@	2637
ifying	2637
print@@	2637
COPD	2636
expects	2635
Torre	2635
Greens	2634
cha	2634
translate	2634
DB	2634
ION	2634
cent@@	2633
hear@@	2633
motivation	2633
Prof@@	2633
Sig@@	2633
399	2633
Nag@@	2633
brochure	2632
coal	2632
ase-@@	2632
DIS@@	2632
thor@@	2632
newspapers	2631
flex@@	2631
Lot	2631
ARD	2631
Lactic	2631
Mot@@	2631
512	2631
Biogen	2631
Div@@	2631
budgets	2630
ved	2630
106@@	2630
ACS	2630
Silver	2629
259	2629
Fixed	2629
stre@@	2629
-04-@@	2628
determines	2628
E.ON	2628
neighborhood	2628
PV@@	2628
Kitchenette	2627
rice	2627
hyperhidrosis	2627
presses	2626
stell@@	2626
hap@@	2626
у@@	2626
histological	2626
Operating	2626
distances	2626
Resid@@	2626
plug	2625
chel@@	2625
IT-@@	2625
Frank@@	2625
tabletter	2625
differs	2624
Jah@@	2624
nephropathy	2623
decompensated	2622
Fon@@	2622
metronidazole	2622
fibrin	2622
rotation	2621
14C-@@	2621
grades	2620
allopurinol	2620
Displaying	2619
MANUFACTURING	2619
UA	2619
95-@@	2619
attract	2619
п@@	2618
prednisolone	2618
basically	2618
49-	2618
ector	2618
RSS	2618
browsing	2618
dom	2617
capitalism	2617
aktu@@	2617
EMADINE	2617
cell@@	2617
tex@@	2617
penetration	2616
phil@@	2616
shooting	2615
nilotinib	2615
comparisons	2615
opponent	2614
bubble	2614
grows	2614
ective	2614
E218	2614
wat@@	2614
ex-@@	2614
B2	2614
LVEF	2614
palonosetron	2613
erotic	2613
hyponatraemia	2613
tenecteplase	2613
ej@@	2613
crosses	2612
viewer	2612
Kunst@@	2612
intrinsic	2612
alcoholic	2612
Main@@	2612
Gon@@	2611
Ind@@	2611
springs	2611
www.facebook.com	2611
1.7@@	2611
Shelf-life	2610
pads	2609
sep@@	2609
omas	2609
disorientation	2609
E420	2609
CF@@	2609
Cambridge	2608
intercourse	2608
haemagglutinin	2608
FAQ	2608
Safe	2607
flushed	2607
С@@	2607
did@@	2607
pp@@	2607
list@@	2606
HUMALOG	2606
Sauna	2606
fibre	2606
aine	2606
Hexavac	2606
Wellcome	2606
reversal	2606
ALS	2605
TAR@@	2605
2.	2605
legendary	2605
Bonus	2605
exenatide	2605
cyclic	2604
Darunavir	2604
exfoliative	2604
Procedures	2604
omm@@	2603
laurilsulfate	2603
Industries	2603
Py@@	2603
shaft	2603
monument	2603
Fig@@	2602
Bes@@	2602
warned	2602
435	2602
orn	2601
-06-@@	2601
ICS	2601
TU@@	2601
reveals	2601
Agenda	2601
existed	2600
skip	2600
re-evaluated	2600
ino@@	2600
spreading	2599
rotate	2599
newborns	2599
ugh@@	2599
resin	2599
post-dose	2598
Directors	2598
inn@@	2598
jazz	2597
schl@@	2597
pride	2597
noble	2597
ume	2597
ci	2597
folate	2596
ück@@	2596
590@@	2596
omy	2596
Prequenza	2595
cruise	2595
ING@@	2595
Bike	2595
Solomon	2594
slowing	2594
criterion	2594
enhances	2593
marble	2593
Whereas	2592
Heidelberg	2592
B-1180	2592
thrown	2591
recognises	2591
greenhouse	2591
567	2591
rein@@	2591
unnecessary	2591
DK	2591
virtu@@	2591
aves	2591
Operation	2590
ails	2590
phenyl@@	2590
Universal	2590
Ref@@	2590
Rock@@	2590
manifest	2589
Cellulose	2589
gon@@	2588
lipoprotein	2588
ethyl@@	2588
DJ	2588
color@@	2588
diesel	2587
Offers	2587
forthcoming	2587
2018	2587
economically	2587
s.r.o.	2586
transferase	2586
domains	2586
iced	2585
AX	2585
LES	2585
constituted	2585
Glob@@	2585
colored	2584
turkeys	2584
call@@	2583
Precautions	2583
highway	2583
EA	2583
Pun@@	2583
uren	2582
undergone	2582
rant	2582
394	2582
Stay	2582
Pompe	2582
lecithin	2582
perceived	2581
refusal	2581
In-@@	2581
countless	2580
regist@@	2580
gef@@	2580
Pool	2580
10.1	2579
Michel	2579
Coffee	2579
Van@@	2579
UR	2579
distension	2579
fc@@	2578
250@@	2578
Dance	2577
co-ordination	2577
smokers	2577
Naz@@	2577
Wine	2576
391	2576
clos@@	2575
Display	2575
Rat@@	2575
Artist	2574
suppress	2574
erythematosus	2574
vill@@	2574
edic@@	2573
bond	2573
large-scale	2573
1969	2572
Dex@@	2572
zip	2572
allocation	2572
Reconstitute	2571
Democratic	2571
ZO@@	2571
human@@	2571
licence	2571
Idec	2571
haloperidol	2570
dominated	2570
harmon@@	2570
wald	2570
36-@@	2570
minds	2570
dive	2569
convincing	2569
112@@	2569
Hun@@	2568
crossed	2568
snacks	2568
oting	2568
atics	2568
.g@@	2568
Sudden	2568
b-@@	2568
1968	2567
v.@@	2567
Cycle	2567
wash@@	2567
covenant	2567
hypomagnesaemia	2566
sad	2566
Af@@	2566
renally	2565
coach	2565
ray	2565
keine	2565
granul@@	2564
ian@@	2564
1967	2564
Gram-negative	2564
deltoid	2564
Bedrooms	2563
cancel	2563
1.	2563
-L@@	2563
high-risk	2562
ì@@	2562
Mycoplasma	2562
fare	2562
SQUIBB	2562
partnerships	2562
án@@	2562
Whe@@	2562
neurotoxin	2562
luggage	2562
Making	2561
Percent	2561
bos@@	2561
Dubai	2560
yed	2560
parish	2560
L01@@	2560
defective	2560
Profile	2560
Genoa	2560
retrospective	2560
1960	2559
para	2559
recordings	2559
Withdrawal	2559
grave	2559
shoot	2559
Hair	2559
MULTIPACKS	2559
il-@@	2558
sto@@	2558
thirty	2558
169@@	2557
spinning	2557
mechan@@	2557
Platelet	2557
tain@@	2557
xn--12ca8j2al6k.net	2557
verify	2556
2D6	2556
Vol	2556
isms	2556
skill	2556
conjugation	2556
tough	2555
ont@@	2555
compression	2555
hang	2555
post-authorisation	2555
Nar@@	2554
voices	2554
pancytopenia	2554
ankles	2554
inte@@	2554
Bavarian	2554
Satan	2554
Et@@	2553
gums	2553
beige	2553
jet	2553
bio	2553
1.75	2553
regulate	2552
Z-@@	2552
Veröffentlicht	2552
inks	2552
fulness	2552
accused	2551
desirudin	2551
GI@@	2551
Orientation	2551
Kalifornien	2551
Mic@@	2551
dog@@	2550
Thereafter	2550
Lansoprazol-CT	2550
sealing	2550
leaf	2550
hah	2549
retina	2549
SPA	2548
Whit@@	2548
haematologic	2548
directors	2548
.exe	2547
superb	2547
List@@	2546
vari@@	2546
TT@@	2545
broke	2545
ican	2545
bra	2545
ection@@	2545
persistence	2544
Nothing	2544
Ful@@	2543
Though	2543
Mah@@	2543
SL	2543
Sale	2541
configured	2541
ranked	2541
in-depth	2541
Projects	2541
olig@@	2541
Prince	2541
12.0	2541
ules	2540
conceived	2540
Sustained	2540
MAC@@	2540
diese	2539
righteousness	2538
Gem@@	2538
uncomfortable	2538
secretariat	2538
council	2538
prophet	2537
Dist@@	2537
Temple	2537
charging	2537
hang@@	2537
HUMAN	2536
eral	2536
apnoea	2536
implants	2536
plugin	2536
shut	2536
485	2536
Utrecht	2536
empirical	2536
bath-tub	2535
contest	2535
12.2015	2535
surprising	2535
pup@@	2535
cuba.@@	2535
Give	2535
reward	2535
mating	2534
Funds	2533
Cable	2532
rist@@	2532
fix@@	2532
tern@@	2532
MTU	2532
restart	2532
trol@@	2532
contractions	2531
BWP	2531
donate	2531
single-use	2530
murder	2530
Pugh	2530
predominant	2529
natur@@	2529
wheat	2529
Laboratoires	2529
Flex@@	2529
qualification	2528
Hell@@	2528
heal	2528
DVT	2528
arch	2528
aver@@	2528
HDL-C	2528
240@@	2528
stabilisation	2527
Motor	2527
Bec@@	2527
503	2527
redistribution	2527
noon	2527
Mit	2526
wid@@	2525
stop@@	2525
aka	2525
bovine	2524
bonds	2524
Superior	2524
senses	2524
latex	2523
retardation	2523
iers	2523
justification	2523
individualised	2522
nos@@	2522
arrested	2522
Fine	2522
bears	2522
insulation	2521
was@@	2521
Ari@@	2521
CHO	2520
hon@@	2520
kel@@	2519
selectively	2519
market@@	2519
ral@@	2519
ential	2518
GT@@	2517
zzo	2517
resuspending	2517
44-@@	2516
haemostasis	2516
Ok@@	2515
13.5	2515
eo	2514
tends	2514
nd	2514
alkaloids	2514
Explorer	2513
IR	2513
Habana	2513
collecting	2513
h-@@	2513
declare	2512
Excretion	2512
WE@@	2512
E216	2512
Consult	2512
Cagliari	2511
DUKORAL	2511
aplastic	2511
Reyataz	2511
ision	2511
BRISTOL-MYERS	2511
ministry	2510
UC@@	2510
Aaron	2510
ament	2510
ACTIVE	2510
cone	2510
pole	2510
Female	2510
protest	2509
resorts	2509
mile	2509
haematuria	2509
event@@	2509
Anaphylactic	2509
2013-@@	2508
Macedonia	2508
BOTOX	2508
ared	2508
ento	2508
Tony	2508
tour@@	2507
imagination	2507
в@@	2507
cesta	2507
Ped@@	2507
VIP	2507
world@@	2507
Metformin	2507
telecommunications	2507
testimony	2506
Spot-on	2506
liqu@@	2506
fers	2506
9001	2506
belly	2506
bases	2506
sightseeing	2505
agomelatine	2505
cysteamine	2505
Range	2504
hyperlipidaemia	2504
clastogenic	2504
Serv@@	2504
ru	2504
ò	2504
ä	2504
preservation	2503
Lapp	2503
581	2503
334	2503
Eff@@	2503
discipline	2503
te.htm	2503
surf	2502
hectares	2502
preferable	2502
e.jpg	2502
rightly	2502
SAFE	2502
pel	2502
wages	2501
oak	2501
And@@	2500
wall@@	2500
ranelate	2499
durability	2499
gastro-intestinal	2499
Reconstituted	2499
lowers	2499
Wild@@	2499
anes	2499
yn	2499
permits	2498
multiple-dose	2498
[...]
