"	207724
,	184489
.	148187
der	95168
/	85298
)	77937
die	77386
(	75141
und	74193
von	61959
mit	60752
in	51455
bei	35937
oder	33643
Patienten	29652
Sie	29293
mg	28944
werden	27454
1	27092
zu	26814
einer	25889
ist	25671
eine	24669
für	23035
-	22429
nicht	22195
Die	22185
des	21946
:	20686
auf	19890
%	19283
den	19231
wird	17620
im	16265
das	15784
zur	15338
Behandlung	14854
an	14514
als	14477
nach	13952
In@@	13527
ml	12631
wurde	12296
ein	11908
in@@	11626
dem	11277
sind	11142
Inje@@	11075
kann	11040
EU	10931
0@@	10761
bis	10734
•	10518
-@@	10435
2	10266
Anwendung	9800
wurden	9490
dass	9300
es	9131
x@@	8996
über	8807
Dosis	8782
10	8772
einem	8736
wenn	8666
o@@	8629
sich	8588
Bei	8340
um	7986
P@@	7863
ten	7790
?	7647
siehe	7599
3	7555
Arzneimittel	7547
Studien	7345
Arzt	7302
l	7235
do@@	7090
r	6949
sollte	6921
keine	6823
angewendet	6809
Blut@@	6798
unter	6781
al@@	6749
+	6733
e@@	6722
vor	6681
durch	6603
si@@	6588
ktions@@	6580
um@@	6537
Es	6479
5	6443
Nebenwirkungen	6431
In	6400
E@@	6361
;	6340
C@@	6322
A@@	6317
y@@	6270
a	6225
4	6194
Abschnitt	6166
haben	6164
einen	6103
enthält	6040
wie	5897
100	5855
vi@@	5813
on	5758
b	5746
Durch@@	5689
können	5684
EN	5679
ung	5618
or@@	5609
Der	5587
x	5562
H@@	5527
An@@	5524
tab@@	5495
at@@	5494
a@@	5453
su@@	5427
Tabletten	5380
Wenn	5345
ab@@	5318
li@@	5311
aus	5297
50	5289
ko@@	5284
e	5261
ri@@	5201
z@@	5149
N@@	5111
6	5077
während	5064
ul@@	5053
om@@	5052
op@@	5043
anderen	5004
zum	5003
on@@	5002
g	5000
auch	4984
20	4875
ti@@	4781
C	4766
tin	4726
Do@@	4723
stech@@	4699
en	4667
K@@	4658
an@@	4632
30	4631
re@@	4561
ungen	4544
Z@@	4536
Studie	4497
mi@@	4364
war	4337
klinischen	4319
xi@@	4293
täglich	4287
E	4287
<	4280
ktion	4261
sollten	4256
di@@	4250
O@@	4236
tis	4232
p@@	4232
s	4223
ie	4199
kg	4186
Er@@	4155
let@@	4150
en@@	4148
t@@	4147
Ver@@	4132
lösung	4115
d	4080
Impf@@	4068
F@@	4035
c@@	4035
ver@@	4035
Ein@@	4010
M@@	3982
o	3958
R@@	3952
Leber@@	3950
0,@@	3941
am	3941
ale	3887
Film@@	3879
T@@	3867
ro@@	3854
verab@@	3841
ungs@@	3806
Eine	3803
Wie	3803
Tel	3801
d@@	3800
EM@@	3770
8	3743
Met@@	3728
Wochen	3726
A	3722
gegen	3722
ra@@	3700
flasche	3683
25	3676
at	3674
lin	3668
CH@@	3663
l@@	3663
V@@	3627
zi@@	3619
12	3609
n	3602
“	3593
Daten	3591
Stunden	3583
Nieren@@	3577
–	3575
beobachtet	3564
sis	3523
ette	3519
ep@@	3519
MP	3517
t	3511
ster@@	3490
nur	3468
dieser	3459
avi@@	3454
eines	3443
Pla@@	3434
se	3411
sein	3395
Einnahme	3394
I@@	3394
darf	3366
ta@@	3356
Lösung	3352
15	3350
ämie	3342
ar@@	3341
k@@	3334
Therapie	3333
Ihr	3332
Wirksamkeit	3321
Tag	3299
hat	3292
sie	3255
Re@@	3224
s@@	3218
„	3210
0	3204
B@@	3197
EA	3195
ot@@	3179
Risiko	3170
de	3155
muss	3149
co@@	3135
alen	3128
empfohlen	3122
Das	3115
mehr	3101
Pharma@@	3101
Ab@@	3090
vir@@	3071
to@@	3070
fer@@	3059
untersucht	3052
Pro@@	3050
m@@	3047
7	2992
sowie	2979
Kombination	2956
behandelt	2948
er@@	2941
reicht	2936
Nat@@	2922
waren	2912
G@@	2910
diese	2907
zo@@	2902
IN@@	2889
intra@@	2884
da	2882
el@@	2881
Ihren	2877
über@@	2865
zy@@	2852
nehmen	2835
in-@@	2829
us	2823
*	2808
=	2804
i@@	2791
ceb@@	2791
D@@	2787
alle	2774
müssen	2771
Arzneimitteln	2765
24	2761
lo@@	2739
kin@@	2738
2@@	2722
u@@	2721
18	2716
pro@@	2715
st@@	2688
andere	2687
Di@@	2686
ter	2681
Über@@	2677
S@@	2672
X@@	2668
et@@	2666
L@@	2656
Nach	2649
auftreten	2638
be@@	2636
ent@@	2630
Jahren	2612
ac@@	2606
yc@@	2605
14	2592
fu@@	2579
ma@@	2566
us@@	2551
eingenommen	2548
40	2547
00	2546
Gabe	2542
W@@	2540
einschließlich	2540
sp@@	2517
funktion	2508
h@@	2498
min	2497
erforderlich	2494
Dosierung	2493
ol@@	2490
zwischen	2479
DER	2476
la@@	2475
Fertig@@	2461
Kindern	2454
Symptome	2445
Ser@@	2444
Mikro@@	2441
ven@@	2437
isch	2432
I	2429
9	2428
spritz@@	2426
va@@	2425
Verab@@	2424
06	2422
Wirkung	2422
Bli@@	2419
La@@	2413
mittels	2411
zwei	2409
AN@@	2407
einmal	2397
r@@	2393
nei@@	2391
bringen	2383
>	2382
Pulver	2380
am@@	2377
Körper@@	2375
er	2371
UNG	2365
störungen	2364
pro	2361
ohne	2356
gen@@	2348
Pack@@	2332
T	2322
E.	2320
v@@	2316
denen	2313
berichtet	2303
02	2303
arz@@	2299
Ihnen	2285
AB@@	2280
m	2272
z	2269
ch@@	2269
Informationen	2266
≥	2266
il@@	2264
verkehr@@	2251
60	2250
bo@@	2236
gegenüber	2225
reichung	2223
erhalten	2218
pack@@	2218
thr@@	2217
jedoch	2216
Arznei@@	2202
ol	2193
Dosen	2191
07	2170
Behandlungs@@	2159
aboli@@	2158
innerhalb	2153
Anti@@	2146
I.@@	2145
din	2138
Tage	2118
sta@@	2112
Genehmigung	2111
bi@@	2110
CY@@	2107
einnehmen	2105
Hyper@@	2099
n@@	2092
Schwangerschaft	2081
Vorsicht	2076
g@@	2067
AU@@	2066
un@@	2066
Diese	2064
em@@	2064
te	2061
Herz@@	2060
zeit	2053
U@@	2044
Haut	2043
Ri@@	2043
schmerzen	2040
Erkrankungen	2038
Ihrem	2033
gramm	2020
4.4	2019
Plasma@@	2015
pension	2008
ersten	2006
eg@@	2004
sions@@	1995
stoff	1983
Ins@@	1978
mittel	1972
de@@	1960
ANG@@	1959
art@@	1955
va	1951
erhielten	1947
11	1938
brechen	1936
3@@	1931
28	1931
it@@	1918
Vergleich	1917
Be@@	1916
80	1912
_	1910
durchgeführt	1909
Herstellung	1905
diesen	1901
mindestens	1891
WI@@	1888
zusammen	1886
Inter@@	1884
Rit@@	1881
Bestandteile	1873
hydro@@	1871
Al@@	1866
spiegel	1860
ph@@	1859
beträgt	1856
ad@@	1856
Hau@@	1851
behandelten	1850
Neu@@	1848
TI@@	1846
vom	1843
]	1839
Packung	1836
ap@@	1836
Zusammenhang	1835
so	1834
sierung	1833
Infektionen	1831
zu@@	1831
ab	1831
af@@	1828
Tabl@@	1825
0,5	1821
[	1820
ungsmittel	1812
Frauen	1811
IS@@	1809
führen	1805
Vor@@	1801
gi@@	1791
da@@	1786
beim	1782
Was	1782
16	1778
ST@@	1777
ffizienz	1775
Spritz@@	1772
liegen	1771
tro@@	1771
Reaktionen	1769
ex@@	1759
fusion	1757
mo@@	1757
me	1743
Y@@	1739
stoff@@	1739
Wasser	1739
Alter	1738
01	1734
98	1732
möglicherweise	1731
gen	1727
ur@@	1726
6@@	1726
yl@@	1725
Ihre	1724
Li@@	1724
B	1724
folgenden	1723
chen	1720
b@@	1716
04	1708
IST	1706
mon@@	1706
ba@@	1705
µ@@	1702
funktions@@	1701
Einzel@@	1698
ine	1697
ge@@	1695
sehr	1695
aler	1691
zweimal	1684
Lös@@	1682
200	1680
75	1677
1,@@	1675
EN@@	1672
R	1671
klin@@	1665
Blut	1659
häufig	1659
bei@@	1654
bzw.	1650
21	1650
ance	1647
aber	1647
c	1644
se-@@	1643
tes	1641
kung	1638
08	1637
Nov@@	1637
tra@@	1632
chl@@	1631
Vi@@	1629
tischen	1626
He@@	1626
Woche	1625
f@@	1625
Ä@@	1622
Im	1618
N	1618
kap@@	1610
gewicht	1603
Hepati@@	1601
90	1595
Menschen	1593
03	1592
Thr@@	1588
AUF	1584
Hydro@@	1581
p	1581
zin@@	1581
ss@@	1579
sen@@	1575
13	1572
noch	1571
S	1567
Monate	1567
ktion@@	1561
Jahre	1561
weniger	1558
bekannt	1551
stelle	1546
Gruppe	1546
Infektion	1546
anti@@	1539
ter@@	1529
dürfen	1528
zität	1528
res@@	1528
En@@	1527
G	1520
Wirkungen	1520
is	1518
ov@@	1515
ä@@	1510
ic@@	1510
Schmerzen	1508
s-@@	1506
9@@	1505
met@@	1505
ein@@	1504
hi@@	1499
em	1496
Jede	1493
To@@	1492
verwendet	1489
or	1488
har@@	1483
sub@@	1483
ori@@	1480
Tier@@	1477
22	1476
Ac@@	1476
300	1473
keit	1470
Erkrankung	1467
vu@@	1466
Ü@@	1459
therapie	1455
ende	1454
ck@@	1450
5@@	1450
u	1449
ene	1447
sk@@	1437
etwa	1436
fi@@	1435
°	1429
fall	1427
ens	1427
of	1422
tische	1420
tem	1419
aus@@	1418
gezeigt	1418
H	1417
gra@@	1415
for@@	1413
4@@	1411
ob	1409
2-@@	1409
hatten	1408
Glu@@	1408
kut@@	1405
schlag	1403
eri@@	1400
al	1400
Erwachsenen	1398
Wirkstoff	1397
lage	1396
150	1395
L	1392
Kinder	1392
empfin@@	1392
Hart@@	1391
onie	1389
mm@@	1389
AL@@	1380
indi@@	1380
anwenden	1376
8@@	1374
auf@@	1374
05	1371
sin@@	1371
erhöht	1366
RA@@	1365
97	1361
Übel@@	1361
h	1360
con@@	1359
setzen	1355
schwerer	1353
AR@@	1353
Atem@@	1350
aufgrund	1349
schweren	1343
ren@@	1342
se@@	1342
Clear@@	1342
drei	1342
tika	1342
VI@@	1341
Hyp@@	1339
Aus@@	1338
enz@@	1338
störung	1336
ra	1333
Res@@	1332
56	1330
ation	1325
erkran@@	1325
herapie	1323
Fällen	1321
FÜR	1321
Anzahl	1320
V	1319
Sicherheit	1319
entsprechend	1317
sonstigen	1317
500	1317
17	1315
Falls	1313
tik	1310
studien	1309
dies	1303
ane	1302
Häufigkeit	1300
ktionen	1298
vor@@	1296
Sus@@	1295
ger@@	1293
ron@@	1293
Tagen	1293
enthalten	1292
Knochen@@	1291
Für	1288
Ma@@	1276
sti@@	1274
Rat@@	1272
erhöhte	1271
EH@@	1268
Da	1267
HIV-@@	1265
ini@@	1265
70	1264
flaschen	1264
aller@@	1261
Auf@@	1261
te@@	1259
Beginn	1256
Europäischen	1254
US@@	1253
der@@	1253
Ex@@	1252
ox@@	1251
pen@@	1248
sprechen	1248
400	1247
45	1244
selten	1243
vit@@	1243
werte	1242
bit@@	1240
gegeben	1237
33	1237
seln	1236
Hypo@@	1233
fa@@	1233
EW@@	1232
den@@	1231
UND	1230
i	1230
Ne@@	1230
Ret@@	1226
95	1224
ten@@	1221
AS	1221
Monaten	1221
PVC	1220
Su@@	1219
48	1218
kt@@	1216
san@@	1215
Risiko@@	1215
orid	1211
Nutzen	1208
D	1206
Wirk@@	1206
AT@@	1204
Anstieg	1201
Par@@	1200
hal@@	1198
pi@@	1197
konzent@@	1197
all@@	1196
hr@@	1195
weitere	1192
klinische	1188
000	1188
gleichzeitige	1187
Gel@@	1186
na@@	1183
mus@@	1182
vo@@	1179
35	1176
dieses	1175
Inhalt	1174
Menge	1174
Typ	1173
betrug	1171
Pat@@	1170
fen	1170
Ö@@	1168
allen	1166
ge	1165
d-@@	1165
Mi@@	1161
Peg@@	1158
AM@@	1157
gruppe	1156
X	1154
Am@@	1154
ziert	1153
lor@@	1152
top@@	1151
Le@@	1148
Ur@@	1148
Tabelle	1148
ve@@	1146
pharma@@	1142
ali@@	1141
7@@	1141
Human@@	1141
daher	1140
f	1135
je	1135
ina@@	1131
A-@@	1129
min@@	1128
ci@@	1127
far@@	1125
erg@@	1123
max	1122
fa	1120
kar@@	1120
worden	1120
4-@@	1118
ho@@	1118
Exposition	1116
gl@@	1115
Poly@@	1113
Ereignisse	1112
bitte	1110
insbesondere	1110
19	1108
Flu@@	1106
il	1104
1-@@	1104
Muskel@@	1103
jizi@@	1102
tion	1101
besteht	1100
ak@@	1099
innen	1097
Anzeichen	1097
es@@	1096
eb@@	1096
par@@	1095
Immun@@	1093
Win@@	1092
10@@	1092
peri@@	1091
IT@@	1090
cro@@	1090
verglichen	1090
Seite	1087
1@@	1086
erreicht	1086
44	1085
sch@@	1085
ard@@	1085
Dies	1084
Zeit	1083
ischer	1082
Diabetes	1082
pla@@	1079
Ro@@	1079
kul@@	1077
kein	1074
behandlung	1071
J@@	1070
Minuten	1069
hy@@	1068
P	1065
zep@@	1065
CP@@	1064
84	1063
sofort	1063
ser@@	1061
ase	1061
2000	1060
Ci@@	1059
empfohlene	1058
Maschinen	1057
Pi@@	1057
Pf@@	1057
op	1056
rationen	1056
wieder	1056
Ir@@	1055
Ra@@	1055
2001	1054
pin	1054
23	1051
el	1049
END@@	1047
Hä@@	1047
ären	1045
Kopfschmerzen	1044
oto@@	1043
Ph@@	1042
My@@	1042
Te@@	1040
gleichzeitig	1039
en-@@	1038
bevor	1036
99	1035
96	1035
Rap@@	1034
aktionen	1031
syste@@	1028
Ergebnisse	1027
kation	1026
ker	1024
pass@@	1023
Zur	1022
Fieber	1021
fo@@	1019
bes@@	1015
.@@	1015
26	1015
deren	1014
Ein	1012
32	1010
schwere	1009
Dosier@@	1007
kon@@	1006
enden	1005
Daher	1004
EI@@	1003
soll	1003
ung@@	1002
mittel@@	1001
leiden	1001
darauf	1000
2,5	999
Mono@@	998
ert	997
ka	995
banden	995
ut@@	995
mpf@@	994
as@@	994
III	993
eu@@	991
dann	990
kontrollierten	990
Patient@@	990
ha@@	987
thi@@	985
gie	985
Harn@@	985
he@@	984
Si@@	984
Flasche	984
mmer	984
zer@@	983
Haupt@@	982
bereits	981
LA@@	976
inter@@	976
1000	976
konstitu@@	975
Dar@@	974
traten	971
EP@@	970
elle	969
omi@@	969
wert	969
gibt	968
per@@	968
zeigte	967
ellen	966
beiden	966
mp@@	965
Augen@@	964
Kre@@	963
oren	961
Bereich	960
om	960
medi@@	958
Tri@@	958
Auftreten	956
möglich	955
Ta@@	954
Kapseln	953
ster	951
Still@@	950
Blu@@	950
po@@	948
Ar@@	948
rei@@	945
enz	942
eln	941
LI@@	940
36	940
EX@@	939
31	938
körper@@	938
Com@@	937
mal	937
Besondere	937
verbunden	935
empfindlich	935
49	934
yo@@	934
athie	934
kardi@@	933
Verbindung	931
tik@@	929
dauer	928
Gesamt@@	928
Nadel	927
eingeschrän@@	927
Leu@@	926
taus@@	925
ru@@	924
LE@@	924
ly@@	923
Patient	921
gefühl	921
Dy@@	920
Ausschuss	920
fa-@@	920
zeigten	919
wirkt	919
fe@@	919
bin@@	919
keinen	919
FOR@@	915
Pa@@	915
mat@@	914
Veränderungen	914
Risiken	913
g-@@	912
001	912
Nier@@	912
Nehmen	911
AC@@	909
for	908
me@@	908
Jahr	907
4.2	907
Co@@	903
Sehr	903
Apothe@@	902
erkrankungen	901
lan@@	900
Pharma	899
Schwindel	897
Patienten@@	897
Entwicklung	896
P-@@	896
rate	895
Werte	895
kt	893
2002	893
Bio@@	893
gli@@	889
dra@@	888
laster	887
Schwell@@	886
überwacht	885
Haut@@	884
informieren	884
Unter@@	884
öse	883
signifikant	883
nachgewiesen	883
Hu@@	882
ET@@	882
schwanger	882
GmbH	881
Personen	879
Aktivität	879
250	877
Zeitraum	877
wer@@	875
cit@@	875
Blutdruck	872
B-@@	872
zwecke	871
Weitere	870
Un@@	868
C-@@	867
Bi@@	866
omen	866
lassen	866
Wechselwirkungen	863
m2	862
rix	862
kter	862
At@@	857
konzentration	857
lin@@	857
34	856
ET	856
Bauch@@	856
Mix@@	856
Kommission	856
erhältlich	855
Reaktion	854
eingesetzt	853
gesamten	853
EIN@@	852
ate	852
Dauer	851
din@@	850
Neben@@	849
einigen	848
Ly@@	848
V-@@	846
zugelassen	844
diesem	844
immer	842
mus	842
T-@@	841
entweder	841
Zusammenfassung	840
Herzin@@	840
”	838
gische	838
äure	837
1.000	837
Überwachung	836
Krankheit	835
Nicht	834
SS@@	833
Jugendlichen	832
siert	830
Zum	828
Fälle	827
eren	827
stop@@	825
leicht	825
65	824
dün@@	822
ro	822
Körper	821
Labor@@	819
Zu@@	818
jedem	818
Mor@@	818
sierten	817
führt	817
th@@	816
cto@@	816
damit	815
ose	814
ma	814
tation	813
46	811
4.8	810
gung	810
a-@@	810
39	809
End@@	807
sa@@	807
studie	805
ern	804
@	803
ts@@	802
Verwendung	801
inn@@	801
chtigkeit	801
was	800
Pra@@	799
säure	799
dienen	798
5-@@	798
erfolgen	797
SER@@	797
erhöhten	796
Mutter@@	795
cken	794
Ausgangs@@	792
Tra@@	790
−	790
et	790
Art	790
Während	789
sen	789
y	789
falls	789
Fall	789
Indi@@	789
Um@@	788
LL@@	787
is@@	786
Cy@@	786
ER@@	785
TA	785
opro@@	784
go@@	784
29	783
man	783
verursacht	781
vier	780
id	779
E-@@	779
ent	778
ö@@	778
sten	778
Kar@@	778
Auswirkungen	777
Arz@@	776
M	775
stin@@	774
pho@@	772
phy@@	772
ard	771
Ihrer	771
MI@@	770
lang	770
Kind	769
Deutschland	769
tri@@	769
Zellen	769
bestimmt	768
Antikörper	768
Merkmale	768
ga@@	767
Lungen@@	767
gesunden	767
UM@@	766
Rezep@@	766
flu@@	765
Erhöhung	764
4.3	763
TR@@	763
glo@@	763
inte@@	762
Hum@@	762
erung	761
dlichkeit	761
so@@	760
Leber	760
Inhaber	760
Anhang	759
ei@@	758
Kombin@@	758
ben@@	758
sierungs@@	757
rand@@	757
dop@@	756
Abschnitte	756
denz	756
Leb@@	755
4.5	755
Therapie@@	755
ations@@	754
rium	753
and	753
oi@@	752
ppe	752
600	752
PAC@@	750
Verfahren	750
berichteten	749
enten	749
5.2	749
ste@@	748
ption	748
Her@@	747
könnte	747
mid	747
Konzentration	747
dis@@	746
Zahl	746
Rahmen	745
Tel@@	744
oh@@	744
1,5	744
o-@@	742
Zi@@	741
0,0@@	741
allein	739
D-@@	739
II	738
AV@@	738
pp@@	737
ausgesch@@	737
vermin@@	736
42	735
ische	735
UNGEN	734
the	734
27	734
Agentur	733
EL@@	733
B.	733
74	733
verwenden	732
ne@@	732
ag@@	732
Erfahrungen	730
O	729
schen	729
Unternehmen	729
Konzentrationen	728
gkeit	728
ni@@	727
gleichzeitiger	727
druck@@	726
äre	725
Kon@@	725
Vir@@	725
finden	724
VON	724
IE	724
120	723
sorgfältig	723
Bitte	723
Z	722
47	722
liche	720
häufigsten	719
dia@@	719
Union	719
43	719
Arzneimittel@@	717
os@@	717
lose	716
CV@@	714
vermeiden	714
AL	714
sop@@	713
Q@@	713
festgestellt	712
le	711
Or@@	711
zucker@@	709
del@@	708
mischen	708
SCH@@	706
EL	706
I-@@	706
gemäß	705
sionen	704
3-@@	704
ieden	704
gre@@	703
Hunden	702
tung	702
RI@@	702
10.000	702
rat	701
maßnahmen	701
notwendig	701
farb@@	701
fälle	701
stoffen	700
mmern	699
yn@@	698
Schlaf@@	698
ins@@	698
Glas	697
Untersuchungen	697
Nor@@	696
alog	696
Calci@@	696
tt@@	696
Hinweise	696
losigkeit	696
don	695
empfohlenen	694
ität	694
5.1	693
AS@@	692
fen@@	692
prof@@	691
Bayer	691
retro@@	691
ologische	690
ation@@	690
lichkeits@@	690
tiv@@	689
kontra@@	689
hin	688
Tre@@	687
stro@@	687
ng	686
Ste@@	686
splan@@	686
wirkung	685
bestimmte	685
ato@@	684
Medi@@	684
älteren	683
pri@@	683
pl@@	682
Lan@@	682
äm@@	681
vergessen	680
Tages@@	679
del	679
blut@@	679
Studien@@	678
sowohl	677
Indu@@	677
ant	677
Wert	677
ologischen	677
zon	676
VER@@	675
wobei	675
Ni@@	675
Chemotherapie	674
CO@@	674
Ihres	673
kombin@@	673
Sch@@	673
insgesamt	673
ige	671
Gewichts@@	669
UB@@	668
ka@@	667
Müdigkeit	667
RE@@	667
Phase	667
gene	666
ana@@	666
ischen	665
l-@@	665
no@@	664
Einfluss	664
Se@@	664
Langzeit@@	664
Gen@@	663
gly@@	663
zyten	663
Prä@@	662
versi@@	661
Form	661
RO@@	660
Ju@@	660
tischer	659
ES	657
Kor@@	657
SA@@	657
Mon@@	657
vollständige	656
AR	656
y-@@	655
Kontra@@	655
führte	654
len	654
höher	653
eta@@	652
entzün@@	652
UN@@	651
drom	651
log	651
jeder	651
zell@@	651
Pre@@	651
folgende	650
Schluss	650
lich	650
trans@@	650
ebenfalls	646
liegt	644
Maßnahmen	644
Fer@@	643
Syn@@	642
scher	642
Magen@@	642
Gebrauch	641
entnehmen	641
kovi@@	641
entlich	640
z.B.	639
len@@	639
beginn	639
Ende	639
AP@@	638
Einheiten	637
ziehen	635
Erwachsene	635
Mahlzeit	635
stü@@	635
Zell@@	634
AD@@	634
Prote@@	634
po	633
milch	633
Gli@@	633
um-@@	632
55	632
Spiegel	632
sier@@	631
Em@@	631
Vor	631
±	631
kop@@	630
ff@@	630
human@@	630
09	630
tic@@	629
be	628
trä@@	628
lag	628
e-@@	627
ulation	627
verursachen	627
fin@@	626
gesch@@	625
Kontrolle	625
MIN@@	625
erhöhen	625
Häufig	625
LT@@	624
Verkehr@@	624
tre@@	623
gezogen	623
rin@@	623
zellen	622
Den	622
Arthritis	622
Bet@@	622
sel@@	621
oben	621
Antik@@	621
Eli@@	620
Plasma	620
Brust@@	620
dung	620
fall@@	619
800	619
Teil	619
kam	618
heit	618
Sicherheit@@	618
Störungen	617
st	617
wirksam	617
aussieht	616
meisten	615
α	615
sollen	615
anderer	614
kommen	614
Verbesserung	614
BE@@	614
ämat@@	613
Aufgrund	613
37	613
letzten	613
Aluminium@@	613
sto@@	612
&	612
omm@@	612
41	612
bin	611
wiegen	611
ausreichend	610
bereich	610
MS	610
empf@@	610
mische	609
SP@@	609
dy@@	609
Europäische	609
fl@@	608
Vorteile	608
a.@@	607
Per@@	607
tsch@@	606
yk@@	606
ACHT@@	606
aktiven	606
Amp@@	605
ON	605
ktor	604
isten@@	604
52	604
zeigen	603
ms	603
jeweils	603
Anfangs@@	603
infe@@	601
DES@@	601
bet@@	600
son@@	600
2,@@	600
pf@@	599
Behand@@	599
pfer	598
verlust	598
SIE	598
ungefähr	597
OR@@	597
stehen	596
Ober@@	596
ls@@	596
AH@@	596
stillen	595
geb@@	595
seltenen	595
ari@@	594
reich@@	594
post@@	594
Substanzen	594
mittlere	594
chron@@	593
Seh@@	592
…	592
}	591
Sul@@	591
ösen	591
{	590
ed	590
kor@@	590
38	590
Virus	590
pra@@	589
gut	589
angezeigt	589
DEN	589
VO@@	589
oni@@	589
qu@@	589
vollständig	589
hinsichtlich	589
RD	588
Entzündung	588
men	587
Ad@@	586
Int@@	586
sel	586
druck	586
größere	586
anzuwenden	585
Ten@@	585
hin@@	585
Wo@@	584
gel@@	584
zahl	584
λ@@	583
arr@@	583
le@@	583
ome	583
ar	582
Kali@@	582
Dieses	582
Enzy@@	582
ima@@	581
Faktor	581
L-@@	581
dosen	580
ht@@	580
S-@@	579
DE	579
Ag@@	579
symp@@	578
ahl	578
onisten	578
ure@@	578
Mer@@	577
hohen	577
ester@@	577
UR@@	575
einzunehmen	575
IN	575
sichts@@	575
Abnahme	575
weiteren	574
Sp@@	574
yla@@	574
Fach@@	574
dioxi@@	573
zweiten	573
2006	572
konnte	571
beschrieben	571
ne	571
A4	570
lichkeit	570
id@@	569
rone	569
Epo@@	569
elo@@	569
pop@@	568
Chol@@	568
est@@	567
ask@@	567
trat	567
kart@@	566
WO@@	566
ales	566
ärer	566
gelegentlich	566
uni@@	565
Limited	564
amin	564
Anwendungs@@	564
ronen	564
13@@	564
indu@@	564
erwachsenen	563
gelangte	563
hier	563
supp@@	563
gruppen	561
genau	560
ON@@	560
en-	560
Val@@	560
Na@@	560
00@@	560
Reprodu@@	559
Rück@@	559
Schmelz@@	559
0,9	559
ens@@	559
1.@@	559
F	558
unerwünschten	558
ender	556
Dia@@	556
angegebenen	555
HAN@@	555
fache	555
HB@@	555
mon	553
Allgemeinen	553
Kan@@	552
igen	552
nicht-@@	552
ca@@	552
entspricht	552
06@@	551
xy@@	551
ol-@@	551
datum	550
ο@@	550
ami@@	550
tu@@	549
erhö@@	548
reduziert	548
ähnlich	547
De@@	547
besonders	547
-S@@	547
-B@@	547
II@@	547
Sel@@	546
stoffe	546
ese	546
Rö@@	546
vergleichbar	545
Tieren	544
heu@@	544
Warum	543
Lymph@@	542
ethy@@	542
tran@@	542
51	542
PV@@	542
Kühlschrank	542
glichkeit	541
6,@@	541
08@@	540
neue	539
ja	539
tel	539
Fil@@	539
welche	539
Wirkstoffe	538
hinaus	538
mmung	538
je@@	538
F-@@	537
RA	537
pa@@	535
lungs@@	535
MAT@@	534
Beurteilung	534
uläre	534
geboten	534
Halb@@	534
Schwer@@	533
Des@@	533
54	533
Wortlaut	533
erk@@	533
verrin@@	533
Belgien	532
stark	532
ben	531
vollständigen	531
Zeitpunkt	530
hat@@	530
fri@@	530
ju@@	529
as	529
kre@@	529
Verfügung	528
to	528
w@@	528
Mu@@	527
tive	527
geben	527
dl	527
Sa@@	526
IS	526
Um	526
d.	526
12,5	525
einige	525
Du@@	525
Bildung	525
SI@@	524
alyse	524
tragen	523
ös	523
Mittel	522
Nutz@@	521
mal@@	520
S.@@	519
Monat	519
prä@@	519
unabhängig	519
U	519
ins	518
bildung	518
Ch@@	517
dose	517
wofür	517
ß@@	517
spor@@	517
Erfahrung	517
tz@@	516
xel	516
wichtig	514
Men@@	513
UNG@@	513
Human	513
hauptsächlich	513
ihre	513
Fragen	513
Fähigkeit	513
sion	512
Verringerung	512
prot@@	512
hatte	511
Ko@@	511
lität	511
unverzüglich	510
oxid	510
erteilen	510
7,5	509
lu@@	509
Königreich	509
Cl@@	509
aten	508
dro@@	508
gerte	508
Konzent@@	507
wege	506
Typ@@	506
oly@@	506
NA@@	505
eli@@	505
Bon@@	505
ION	505
oc@@	505
Ltd	505
modi@@	505
sches	505
Sympt@@	505
’	504
Cell@@	504
Hunde	504
Informieren	504
SIN@@	503
yst@@	503
häufiger	502
Analyse	502
neuen	502
unten	502
niedriger	502
Sub@@	501
Tru@@	501
äst@@	500
oral	500
Fax	499
öser	499
ER	498
Ce@@	497
1998	497
erten	497
η@@	496
ret@@	496
Kol@@	495
MA@@	495
verringert	494
Ent@@	494
blin@@	493
esie	493
chs@@	493
44-@@	492
Oste@@	492
darüber	492
TEL	491
Carb@@	491
ähnliche	491
Betracht	491
Ben@@	491
Imm@@	491
multi@@	491
signifikante	490
mak@@	490
signifikanten	490
gan@@	489
Veränderung	489
TEL@@	489
EV@@	489
AN	488
2007	488
ril	488
tions@@	487
Fa@@	487
za@@	486
ly	486
-0@@	486
≤	486
ck	486
ran@@	485
liti@@	485
wöch@@	485
stellen	485
0,3	484
Flüssigkeit	484
rischen	484
ct@@	483
Gla@@	483
amp@@	483
reichen	482
verschiedenen	482
Sti@@	482
py@@	482
hyper@@	482
20@@	481
pren@@	481
weiße	481
11@@	480
verfügbarkeit	480
gener@@	480
denk@@	480
Bu@@	480
schwer@@	480
TER@@	479
fung	479
Beschwerden	479
Flüssi@@	479
rans@@	479
days	478
Bestandteil	478
ρ@@	478
zusätzlich	478
che	478
8,@@	477
Frankreich	477
wegen	477
ich	476
Ap@@	476
Fal@@	476
beschwerden	476
är@@	475
Fol@@	475
via	475
mel@@	475
erte	474
dan@@	474
CI@@	474
Grad	474
hil@@	473
bemerken	473
Augen	473
sche	472
Katzen	472
mitteln	472
Ris@@	472
Unbe@@	472
omet@@	471
lebens@@	471
sonstige	471
Deshalb	470
Stunde	470
ES@@	470
mark	470
Aluminium	470
beginnen	470
stra@@	469
Häu@@	469
therapeutischen	469
mögliche	468
Ti@@	468
länger	468
0,1	468
1,0	468
7,@@	468
172	467
58	467
on-@@	467
spro@@	467
inen	466
men@@	466
S.A.	466
Arbeitsgruppe	466
Gem@@	466
Mund@@	466
wirksame	465
tivi@@	465
sor@@	464
ges	464
hot@@	464
begonnen	464
Zulassung	464
vens@@	464
Belgi@@	464
beachten	463
Lil@@	463
ob@@	462
anz@@	462
erwarten	462
erteilte	462
Let	462
nor@@	462
kte	462
Welchen	462
davon	462
α@@	461
↓	461
seltene	461
entwickeln	461
geren	461
vorge@@	460
Sil@@	460
ger	460
ς	460
Reduktion	460
Ep@@	460
Zu	459
selbst	459
stin	459
ationen	458
urop@@	458
cur@@	458
im@@	458
eng@@	458
DC	458
akuten	458
AB	457
gkeits@@	457
br@@	457
end@@	456
Auflistung	456
licher	456
einzelnen	456
cal@@	456
leichter	455
mu@@	455
Is@@	455
Untersuchung	455
Opti@@	455
PRE@@	454
yp@@	454
72	454
Effekt	454
Schlä@@	454
Kin@@	453
könnten	453
ach@@	453
In-@@	453
lichen	453
dazu	452
weiterhin	452
weg@@	451
030	451
pr@@	450
formation	450
kl@@	449
Ba@@	448
ile	448
schnell	448
pä@@	448
regelmäßig	447
gebracht	447
Senkung	447
tag@@	447
Mab@@	447
nung	447
gel	446
160	446
eingeleitet	446
Depression	446
gr@@	445
Anteil	445
oten@@	445
Sta@@	444
line	444
180	444
weiter	444
Schutz@@	444
scheidung	444
Zubereitung	444
fon@@	443
ell@@	443
schwerwiegende	443
volumen	443
Glas@@	443
zer	443
Zy@@	443
rig@@	442
m-@@	442
MIT@@	442
schema	442
masch@@	442
handelt	442
Schwanger@@	441
athi@@	441
aria	441
Unterschiede	441
er-@@	441
Fi@@	441
Can@@	440
wirksamen	440
ina	440
Welches	440
us-@@	440
Tél	439
Alle	439
ophi@@	438
immun@@	438
sechs	438
Op@@	438
iger	438
sin	437
ven	437
eti@@	437
Phanta@@	437
zeichnung	437
end	437
bro@@	437
my@@	436
GEN@@	436
ute	436
Produkt	436
tho@@	436
ebe@@	436
171	435
fällen	435
Tumor@@	435
Ak@@	435
fizierten	435
Hy@@	434
Pe@@	434
alo@@	434
Nieren	434
6-@@	434
frei@@	433
Th@@	433
Verlängerung	433
hergestellt	433
Ana@@	432
treten	432
Außerdem	432
cy@@	432
tern	431
geht	431
Markteinführung	431
gels	431
bezüglich	431
Grundlage	430
sta	430
stati@@	429
lass@@	429
Gast@@	429
mmt	429
Ter@@	429
abgesetzt	429
Asth@@	429
oberen	428
seine	428
Europe	428
lit@@	428
q	427
Tum@@	427
Kontakt	427
tikum	427
las	427
ido@@	427
flo@@	426
OP@@	426
Vereinigtes	426
meta@@	426
nen	426
Phosp@@	426
Mar@@	426
Gran@@	425
any@@	425
Thy@@	425
Gelenk@@	425
bili@@	425
stisch	424
xe	424
pit@@	424
125	424
bat	424
halten	424
12@@	424
asi@@	423
HIV	423
Verschlechterung	423
Ger@@	423
höhere	423
AG@@	423
cht@@	423
53	422
Pol@@	422
Eisen	421
pfen	421
Test	421
kommt	420
dreimal	420
2008	420
II-@@	420
gleichen	419
Bezeichnungen	419
zusätzliche	419
bestimmten	419
Referenz@@	419
73	419
ca	419
örper@@	419
sicher	418
http	418
67	418
Eigenschaften	418
DA@@	418
teil	417
ihrer	417
END	416
ml@@	416
K-@@	416
beeinflussen	416
chol@@	416
normalerweise	416
Aller@@	416
ers	415
eto@@	415
istenz	415
beeinflusst	415
derte	415
pen	414
in-	414
ys	414
hor@@	414
fra@@	414
cor@@	413
dungen	412
64	412
oti@@	412
außerdem	412
erste	412
-Syndrom	411
sierte	411
ft@@	410
Lat@@	410
1997	410
Nach@@	410
fär@@	410
Alkohol@@	409
ank@@	409
aca@@	409
57	409
izi@@	408
lig@@	408
Prot@@	408
Pan@@	407
lichem	407
dungs@@	407
jede	407
av@@	407
X-@@	407
Ty@@	407
Neur@@	406
raten	406
Warn@@	406
gemessen	406
opo@@	405
Sim@@	405
bre@@	405
or-@@	404
rhyth@@	404
A.	403
IM@@	403
PRO@@	403
Ansprech@@	402
tier@@	402
Anweisung	401
SEN@@	401
gei@@	401
ierte	400
vorliegen	400
relevanten	400
mit@@	400
teri@@	400
indem	400
Pop@@	399
durch@@	399
Sal@@	399
FI@@	399
UK	399
male	399
dar@@	399
rit@@	398
ie@@	398
oiden	398
Artikel	398
vall	398
zuvor	398
τ@@	398
DL@@	397
unmittelbar	397
ast@@	397
aly@@	397
weiß	397
UT@@	397
drü@@	397
K	397
14@@	396
Auf	396
lange	396
61	396
Pur@@	396
phar@@	396
Effekte	396
Park@@	396
wenden	395
anen	395
schw@@	395
2003	395
War@@	395
gleich@@	395
Titan@@	394
tox@@	394
GEB@@	394
ir@@	394
Pr@@	394
Entzün@@	393
91	393
z.	393
9,@@	393
bus	393
www.@@	392
mati@@	392
Clo@@	392
16@@	392
Organ@@	392
k	392
bung	392
Operation	392
zeigt	391
Ven@@	391
Andere	391
jeden	391
mali@@	391
Kapsel	391
St@@	391
PER@@	391
Standard@@	391
abhängig	391
á	390
schä@@	390
alin	390
Bezug	390
pe@@	390
Cis@@	390
vier@@	390
höheren	389
28@@	389
Ner@@	389
maximale	389
land	388
Rhin@@	388
J	388
Y	388
er-	388
G-@@	388
ani@@	388
unter@@	387
ausgeschlossen	387
Zunahme	387
MIT	386
chronischen	386
0,6	386
agli@@	385
osi@@	385
üle	385
27@@	384
genen	384
edi@@	384
europa.eu	383
behand@@	383
v	383
ig@@	383
beob@@	383
Jugendliche	383
Kal@@	383
her@@	383
wöchentlich	383
FO@@	383
Aufnahme	382
smus	382
Pneu@@	382
Ca@@	382
Bron@@	382
Bo@@	381
aufgeführt	381
dex@@	381
lagen	381
368	381
Sicherheits@@	381
Rei@@	381
kali@@	381
Far@@	380
aufgenommen	380
tige	380
↑	380
benötigen	380
sagen	380
tägliche	379
weder	379
oph@@	379
07@@	379
h.	379
Ul@@	378
cin@@	378
Nahrung	378
denn	378
Namen	378
Az@@	378
doppel@@	377
untersuchungen	377
nahme	377
MP@@	377
CI	377
fil	377
Mahlzeiten	377
5.3	376
ati@@	376
Lu@@	376
66	376
als@@	376
kontrolliert	376
ODER	376
danach	376
asis	376
übliche	375
Kra@@	375
0,4	375
ZU@@	375
bu@@	375
15@@	375
Benz@@	375
Bar@@	375
Gebrauch@@	375
3,@@	374
-F@@	374
ordnet	374
nationalen	374
Kaninchen	374
Präpar@@	374
sei	374
Substanz	374
09@@	374
erfolgt	374
Salz@@	373
az@@	373
gab	373
23@@	373
deln	373
Al	373
kti@@	372
Fra@@	372
daten	372
fortgesetzt	372
zurück	372
ste	371
KO@@	371
punkt	371
FLA@@	370
Mund	370
R-@@	370
fest	370
verfügbar	370
weißen	370
mien	370
o.	369
DIE	369
Portugal	369
SEN	369
1.	369
arb@@	369
V.	368
Rot@@	368
Auge	367
Kopien	367
Gra@@	367
pati@@	367
Beendigung	367
68	367
kä@@	366
möglichen	366
aller	366
Man@@	366
vo	366
unerwünschte	365
erhöhter	365
Tach@@	365
plus	364
neur@@	364
ro-@@	364
angepasst	364
gt	364
●	364
Schwere	363
Antragsteller	363
	363
wahrscheinlich	363
hau@@	362
Gummi@@	362
oxi@@	362
Gl@@	362
depres@@	362
auftritt	362
gabe	362
t-@@	362
Sit@@	362
verfügbaren	362
aufge@@	362
REI@@	361
du@@	361
Mitgliedstaaten	361
Ltd.	361
Unterstützung	361
PE	361
virus	360
genannten	360
solchen	360
ologie	360
PR@@	360
gehört	359
aufbewahren	359
vari@@	359
kro@@	359
entsprechende	359
reaktion	359
Dieser	359
Mit	359
cin	359
enter@@	358
enen	358
Substra@@	358
wirksamer	358
setzung	358
ulo@@	357
elte	357
cap@@	356
Hersteller	356
Ε@@	356
π@@	356
ahme	356
definiert	356
wissenschaftlichen	356
Pen@@	356
yp	355
bedroh@@	355
systems	355
usen	355
No@@	355
los	354
mikro@@	354
fachen	354
amin@@	354
mehrere	354
stu@@	354
ED@@	353
Unter	353
Nes@@	352
vorsichtig	352
Regel	352
hydra@@	352
0,00@@	352
selek@@	352
enheit	351
versch@@	351
Tem@@	351
eller	351
Antibiotika	351
ID@@	351
82	351
überwachen	351
Schild@@	351
os	351
geeignete	351
enk@@	351
trop@@	351
ι@@	350
schem	350
gewi@@	350
,@@	350
Änderungen	350
zun@@	350
Anerkennung	350
Schla@@	349
aufnahme	349
größen	349
ICH	349
langsam	349
reduktion	349
Möglichkeit	348
bar	348
Umständen	348
digung	348
Unterschied	348
Falle	347
tax@@	347
ce@@	347
Mä@@	347
77	347
mäßiger	346
zin	346
Schwan@@	346
50-@@	346
Ani@@	346
ehe@@	346
93	346
ax@@	345
erst	345
eingestellt	345
Nahrungsmitteln	345
here	345
59	344
ec@@	344
probleme	344
TE	344
а@@	343
Magnesi@@	343
tritt	343
theit	343
ien	343
Transplan@@	343
at-@@	343
alem	342
Ari@@	342
kationen	342
Grund	342
ase-@@	342
radio@@	342
behandel@@	342
one	342
geweb@@	341
Eth@@	341
gte	341
System	341
gestellt	341
aktivität	341
tiven	341
Heli@@	341
Von	341
Po@@	340
UR	340
Schütt@@	340
CD@@	340
aufzu@@	340
10,@@	340
Mangel	340
France	340
BO@@	340
aktive	340
spie@@	340
liches	340
gemischt	340
chter@@	339
Mehrfach@@	339
89	339
App@@	339
cli@@	338
ction	338
Folge	338
Car@@	338
beeinträchtigt	338
är	338
nach@@	338
H-@@	337
Da@@	337
LO@@	337
ole@@	337
Hinblick	337
Wirks@@	337
lat	336
kran@@	336
weg	336
HC@@	336
bakteri@@	336
mark@@	336
Darüber	336
ct	336
Code	336
aktiviert	336
stri@@	336
85	336
Nasen@@	336
sive	335
car@@	335
83	335
MEN	335
gesamte	335
ener	335
Österreich	335
18@@	335
wiederhol@@	335
EX	335
ele@@	334
Protein@@	334
62	334
entwickelt	334
Fon@@	334
elten	334
0-@@	333
Säug@@	333
US	333
Mix	332
keits@@	332
einge@@	332
Alkohol	332
allem	332
Pri@@	332
Protein	332
Millionen	332
an-@@	331
Wichtige	331
tigen	331
daß	331
Behörden	331
lagern	331
Ho@@	331
Cer@@	331
verringern	331
rische	331
toren	331
risiko	331
haltungs@@	331
Anträge	330
tationen	330
gen-@@	330
hen@@	329
DES	329
Über	329
HER@@	329
Blutgefä@@	329
ression	329
Bewertung	329
wiesen	328
but@@	328
ü@@	328
ber@@	328
110	328
ums	328
,5	328
Fo@@	327
Lop@@	327
yl	327
Bedingungen	327
zucker	327
hervorrufen	327
schwä@@	327
therap@@	327
weisen	327
Gutachten	326
17@@	326
Trans@@	326
chi@@	326
25@@	326
Slo@@	326
Klasse	326
c-@@	325
cet@@	325
and@@	325
Raumtemperatur	324
109	324
Anweisungen	324
Verlauf	324
Männern	324
anz	324
mittleren	323
IC@@	323
solche	323
ange@@	323
sat	322
Ansicht	322
Klinische	322
CT	322
weil	322
ze@@	321
ett@@	321
PS@@	321
ae	321
Flaschen	321
Ziel@@	321
Pha@@	321
schwan@@	321
Smi@@	320
niedrigen	320
Änderung	320
bisher	320
TA@@	319
Zeit@@	319
vel	319
olo@@	318
BL@@	318
cle@@	318
Etikett	318
personal	318
Parameter	318
ATE	318
etit@@	318
Road	317
Gefä@@	317
BER@@	317
geborenen	317
maximal	317
still@@	317
Gesichts@@	317
RIS@@	317
rit	316
Thi@@	316
ART@@	316
que	316
tron	316
hoher	316
63	315
klare	315
esp	315
zeu@@	315
Probleme	315
ino@@	315
PA	315
PC@@	314
sal@@	314
Rate	314
ln	314
zurück@@	314
zen	314
ä	314
ungsin@@	313
EG@@	313
erwartet	313
fragen	313
hinweise	313
vermieden	313
mäßig	313
pur@@	312
geeignet	312
gten	312
termin@@	312
Proph@@	312
DNA	312
außer	312
b-@@	312
Empfehlungen	312
tungs@@	311
69	311
medikam@@	311
dabei	311
biert	311
ax	311
plä@@	311
Ka@@	311
geringe	310
angegeben	310
lösen	310
ierten	310
drucks	310
ε@@	309
Rücken@@	309
aufweisen	309
Pil@@	309
erter	309
Sor@@	309
FA@@	309
SO@@	309
steht	309
88	309
.com	309
71	309
haut	309
tret@@	309
nis	309
0,2	309
ME	308
normale	308
begrenzt	308
El@@	308
Lä@@	308
q@@	308
cc@@	308
gefolgt	308
BR@@	307
KG	307
za	307
itte	307
μ	307
form	307
kan@@	307
ken	307
ux	306
omat@@	306
Getränken	306
Rat	306
ia	306
problemen	305
Halten	305
roten	305
hohe	305
nächsten	305
werten	304
einnahmen	304
2005	304
bedienen	304
Kontroll@@	303
fünf	303
frei	303
zeitigen	303
ell	303
0,8	303
maximalen	303
Lor@@	303
seit	302
bedingte	302
abgebrochen	302
UL@@	302
MR@@	302
anhand	302
begrenzte	301
las@@	301
republi@@	300
sucht	300
bio@@	300
Licht	300
λ	300
wi@@	300
ant@@	300
Krankheits@@	300
Plas@@	300
medizinische	299
Durch	299
phie	299
tori@@	299
Weise	299
Gesam@@	299
fil@@	299
Nex@@	299
BAS@@	299
drüse	298
ig	298
fum@@	298
PH@@	298
trocken@@	298
wen@@	298
faktoren	298
Aktivitäten	297
86	297
ing	297
niedrig	297
Bla@@	297
erenden	297
Mit@@	297
abzu@@	297
B.@@	297
zweite	297
Welche	297
Schw@@	296
gens	296
Gruppen	296
TRA@@	295
ata	295
abge@@	295
oberfläche	295
Druck@@	295
kto@@	295
stische	295
viel	295
ID	295
fig@@	294
Ther@@	294
TO@@	294
fortgeschritt@@	294
kristall@@	294
Vorbeugung	294
gst@@	294
ef@@	294
sicherzustellen	294
pul@@	294
Als	294
lar@@	294
Hemm@@	294
enza	294
größe	294
atri@@	293
tö@@	293
quival@@	293
neu@@	293
Tar@@	293
Τ@@	293
fet@@	293
aufgeführten	293
fro@@	292
E-mail	292
76	292
große	292
pH-@@	292
Cor@@	291
deshalb	291
opf	291
1996	291
Insgesamt	291
matische	291
Ireland	291
ö	290
cep@@	290
kator	290
leichte	290
ch	290
Immunsystem	290
älter	290
Aus	290
ellose	290
geringer	290
Verwenden	290
gegenseitigen	290
Gri@@	290
Krebs	290
them	289
bedeutet	289
Tro@@	289
sten@@	289
entsprechenden	289
Person	289
entin	289
enem	288
Ang@@	288
siven	288
Ster@@	288
verhindern	288
Test@@	288
Gen	288
erneut	288
30@@	287
δ@@	287
sion@@	287
rid	287
ga	287
Schwäche	287
vorgesehen	286
zusätzlichen	286
12,@@	286
logi@@	286
Auch	286
Obwohl	286
derung	286
Cro@@	285
HD@@	285
kts	285
nachdem	285
ce	285
kle@@	284
Vitamin	284
fühlen	284
Gewicht	284
enes	284
Ali@@	284
Dem@@	284
Infe@@	283
dom@@	283
infolge	283
Entfernen	283
reichten	283
Handhabung	283
zugehörige	283
450	283
o.@@	283
Haar@@	283
Dys@@	283
vers@@	283
N-@@	283
Notwendigkeit	282
O-@@	282
Wenden	282
Vertei@@	282
CR@@	282
witz@@	282
seiner	282
Ausmaß	282
d.h.	282
Zustand	281
versagen	281
mpfe	281
Einstellung	281
IV@@	281
bestehenden	281
Plus	281
Richtlinie	281
ken@@	281
Gall@@	281
SCHA@@	280
verfahren	280
halb@@	280
opor@@	280
Reihe	280
kturen	280
TT@@	280
PI@@	280
л@@	280
Bra@@	279
Hor@@	279
Schlu@@	279
therapeutische	279
esti	279
Angaben	279
M-@@	279
Vel@@	278
sep@@	278
aner	278
tica@@	278
Var@@	278
son-@@	278
Viren	277
ok@@	277
bruch	277
geschichte	277
p-@@	277
hoch@@	277
normalen	277
kum	277
Tal@@	277
bestehen	277
leichten	277
direkt	277
glu@@	277
Lam@@	276
veränderungen	276
p.	276
Italien	276
HP@@	276
ex	276
baren	276
enver@@	276
Empfindlichkeit	276
37@@	276
menschlichen	276
Mo@@	276
CT@@	275
diert	275
fli@@	275
sc@@	275
vermehr@@	275
Nadel@@	275
Initi@@	275
vorgelegt	275
Tod	275
370	275
kontrolle	274
konnten	274
kel@@	274
gehen	274
medizinischen	274
Tad@@	274
lung	274
i.@@	274
act	274
kel	274
Tiere	274
nat@@	274
fol@@	274
ML	274
bra@@	273
Ge@@	273
drücken	273
aktiv	273
denz@@	273
ansprechen	273
Leitlinien	273
wir@@	273
nicht@@	273
ν@@	272
wür@@	272
Basis	272
Schwierigkeiten	272
aut@@	272
üblicherweise	272
Partikel	272
á@@	271
kose	271
Bakterien	271
371	271
Art@@	271
sekund@@	271
onen	271
ά@@	271
Anpassung	271
Gal@@	271
BI@@	271
elles	271
aufgetreten	271
human	270
erin	270
ris	270
lez	270
stru@@	270
132	270
präpar@@	270
stimu@@	270
CE	269
geringen	269
rem	269
enti@@	269
Stellen	269
RT@@	269
Einige	269
Siehe	269
aufbewahrt	269
Top@@	269
unwahrscheinlich	269
Va@@	268
schwer	268
Abbildung	268
kurzem	268
mission	268
tiger	268
Zer@@	268
van@@	268
Name	268
Verminderung	268
Py@@	268
Ig@@	268
ska	268
männlichen	268
ines	267
IV	267
Vil@@	267
Vari@@	267
höh@@	267
LU@@	267
belegt	266
gesp@@	266
Eisen@@	266
Stat@@	266
ev@@	266
barkeit	266
ergab	266
heim	266
Beutel	265
Dan@@	265
VA	265
Verfahrens	265
Nase	265
International	265
schwerwiegenden	265
wirkungen	265
Stärke	264
Los@@	264
Leiden	264
Überlebens@@	264
n-@@	264
bare	264
Tran@@	264
hosp@@	264
verlän@@	264
x-@@	264
deten	264
ary	264
Implan@@	263
schützen	263
gerten	263
Stoffwechsel@@	263
wohl@@	263
fach	263
Reb@@	263
system	263
tor@@	263
Inspe@@	263
Son@@	262
Ox@@	262
vorhanden	262
beeinträchtigen	262
Verlust	262
tio	262
reduzieren	262
Sitzungen	262
pre@@	262
Komplikationen	262
Pu@@	261
2.@@	261
zuständigen	261
gischen	261
tim@@	261
SE@@	261
Arm	261
Tests	261
Len@@	261
Health	261
Eu@@	261
Stelle	261
örp@@	261
sa	261
spa@@	260
lä@@	260
Niederlande	260
Behäl@@	260
ing@@	259
leu@@	259
ical	259
umgehend	259
Störung	259
spezifische	259
81	259
Wasser@@	259
sprachen	259
information	259
Selbst@@	259
last	259
Gewebe	259
fähigen	258
verträ@@	258
92	258
210	258
unbe@@	258
Epi@@	258
dar	258
cre@@	258
Neo@@	257
Antibio@@	257
gering	257
κ@@	257
kal@@	257
verschrieben	257
Beratung	257
ZI@@	257
gnis@@	256
rad	256
6.6	256
ersch@@	256
78	256
schlus@@	256
Berichte	256
achteten	256
Prüfungen	256
Krebs@@	255
1,2	255
Johannis@@	255
ma-@@	255
ama@@	255
Milch	255
SN@@	254
San@@	254
Hinweis	254
beispielsweise	254
AC	254
gefunden	254
AL-@@	254
durchzuführen	253
ses	253
Skel@@	253
Gegen@@	253
Kalzi@@	253
sorgen	253
zwar	253
zogene	253
dadurch	253
ttchen	253
ermittelt	253
я	252
σ@@	252
hü@@	252
ION@@	252
Ren@@	252
häufige	252
ctor@@	252
pt@@	252
uter	252
phil@@	252
Schmerz@@	252
Wachstum@@	252
plötz@@	252
chen@@	252
Hilfe	252
dessen	251
krankungen	251
ort	251
rasch	251
haltigen	251
Verdau@@	251
Produkt@@	251
NA	250
Mal	250
products	250
CEL@@	250
bezeichnet	250
verhindert	250
rot@@	250
μ@@	249
lat@@	249
füllten	249
Gad@@	249
Ziehen	249
LY@@	249
ENT@@	249
Ava@@	249
krankheit	249
mie	249
Ärzte	249
Fe@@	248
gewöhnlich	248
bel	248
Umstellung	248
KI	248
²	248
Hormon@@	248
United	247
Auff@@	247
gewebe	247
Ber@@	247
zurückzuführen	247
1,3	247
ktoren	247
psycho@@	246
sä@@	246
4.6	246
Creme	246
täten	246
Abstand	246
ers@@	246
hab@@	246
dex	246
vent@@	246
deuten	246
Schutz	246
Wechselwirkung	246
DAS	245
8-@@	245
bstitu@@	245
Qualität	245
Abständen	245
ella	245
zei@@	245
starke	245
Nu@@	245
teilen	245
Normal@@	245
DNA-@@	245
arin	245
son	245
hemm@@	245
bindung	245
Cyc@@	245
W	244
etwas	244
DEM	244
Norm@@	244
2004	244
ergaben	244
erreichen	244
tion@@	244
ECH@@	243
gri@@	243
Empfän@@	243
Spanien	243
Mengen	243
chts	243
herab@@	243
j@@	243
ton	243
kraut	243
Bedarf	243
can	243
On@@	243
Prävention	242
auth@@	242
gende	242
Α@@	242
Blä@@	242
11,@@	242
diagno@@	242
Flä@@	242
art	241
Ohr@@	241
Beeinträchtigung	241
Hü@@	241
Ast@@	241
beide	241
pran@@	241
Wachstums@@	241
Mess@@	240
ei	240
hohem	240
Posa@@	240
Prüf@@	240
IM	240
beobachten	240
entscheiden	240
spezifischen	240
mpft	240
primäre	240
Jedoch	240
ere	240
schafts@@	240
Kingdom	239
Gelb@@	239
gem	239
Phar@@	239
genannt	239
gebrau@@	239
pol@@	239
sz@@	239
lingen	239
Diagnose	239
Por@@	239
2.	239
Qu@@	239
Verwir@@	238
sofern	238
94	238
Mil@@	238
EZ@@	238
Datum	238
entran@@	238
mm	238
Tau@@	238
Fehl@@	238
gn@@	238
unverändert	238
FAL@@	237
s-	237
sph@@	237
betroffenen	237
sierter	237
entfernen	237
INE	237
EU@@	237
hoch	237
endem	237
bindet	237
qui@@	237
Juli	237
Hitz@@	237
Basierend	237
bekommen	237
anschließend	237
Hg	237
gesetzt	237
í@@	236
mis@@	236
Krankheiten	236
ili@@	236
bri@@	236
September	236
Ran@@	236
zentrali@@	236
derzeit	236
cm	236
Shar@@	236
sobald	235
Alb@@	235
zunächst	235
Beim	235
kurz	235
shor@@	235
gischer	235
heits@@	235
Kom@@	235
regelmäßige	235
372	235
zung	234
schutz@@	234
überprüft	234
folgt	234
Erwägung	234
beenden	234
ystems	234
suchen	234
Verschluss	234
Italia	234
ί@@	233
wertes	233
erniedri@@	233
Affen	233
ύ@@	233
Radio@@	233
entfernt	233
el-@@	233
Juni	233
Öffnen	233
gression	233
mechanismus	233
Kreb@@	233
FER@@	232
Gly@@	232
mail	232
otro@@	232
Cir@@	232
fan@@	232
vermindert	232
Nad@@	232
1999	232
Ru@@	232
dafür	232
Hi@@	232
dritten	232
unde	232
klar	232
anderes	232
halten@@	232
spo@@	232
band@@	232
zyklus	232
Liste	231
©	231
Amin@@	231
Anti-@@	231
87	231
ed@@	231
TH@@	231
kleinen	231
erkennen	231
ungst@@	231
Schlei@@	231
EC@@	231
dierung	230
ran	230
Knochen	230
niedrige	230
ux@@	230
ity@@	230
Б@@	230
Ausschusses	229
MA	229
mittel-@@	229
ore	229
Stre@@	229
AG	229
ft	229
Polypro@@	229
cker	229
ktur@@	229
Bru@@	228
Binde@@	228
ner	228
Lin@@	228
Nachweis	228
vorübergehend	228
Ob@@	228
nden	228
gegebenenfalls	228
fung@@	228
Doh@@	228
Flex@@	228
mangel	228
Kurz@@	228
Verhalten	227
26@@	227
ME@@	227
skrip@@	227
wirk@@	227
behandeln	227
täglichen	227
faktor	226
Dis@@	226
Gesicht	226
Cap@@	226
Jan@@	226
großen	226
Einsatz	226
inva@@	226
legen	226
schließen	226
schreib@@	226
agen	226
Photo@@	226
thro@@	226
deutlich	226
Wird	226
CER@@	226
au@@	226
besitzt	226
stich@@	226
poe@@	225
Trig@@	225
ment	225
ill@@	225
gon@@	225
LAN@@	225
Κ@@	225
ktes	225
bedingten	225
Anne@@	225
schmerz@@	225
Enzyme	225
til	225
Reinig@@	225
aktiver	225
Fett@@	225
ogra@@	225
Arbeitsgruppen	224
matischen	224
ue	224
ausgeprä@@	224
Cal@@	224
vorgenommen	224
primären	224
Erre@@	224
Frei@@	224
später	224
weiblichen	224
therapeu@@	223
lesen	223
menge	223
assoziiert	223
Tu@@	223
durchschnittliche	223
Mel@@	223
30-@@	223
iert	223
Werten	223
Kap@@	223
wogen	223
MEN@@	223
EG	223
Prostat@@	223
ca.	223
nächste	223
are	223
Kri@@	223
van	223
Tet@@	223
Clar@@	223
morgens	223
FS@@	223
358	223
Bef@@	223
Einleitung	222
But@@	222
ausreichende	222
10-@@	222
Diät	222
Grun@@	222
zierten	222
Episoden	222
Ältere	222
dri@@	222
syn@@	222
Elektro@@	222
berücksichtigt	222
Ereignissen	222
Verhältnis	222
Bedeutung	222
DEL@@	221
normaler	221
tionsp@@	221
rö@@	221
90@@	221
EU-@@	221
SA	221
0,7	221
Con@@	221
Zunge	221
Eur@@	221
-0,@@	221
Stop@@	220
Tablet@@	220
Luxemburg	220
Magen	220
ni	220
Wachstum	220
limi@@	220
jeweiligen	220
'	220
bekannten	220
mac@@	220
yr	220
schenk@@	219
beendet	219
domin@@	219
höhungen	219
Mittel@@	219
regelmäßigen	219
nam@@	219
aven@@	219
betreffen	219
alleine	219
Ereignis	219
April	219
wirken	219
ße	219
erende	219
Volumen	218
tra	218
antwor@@	218
Verteilung	218
ähnlichen	218
3,5	218
bleibt	218
welches	218
tos	218
neu	218
verseh@@	218
fill	218
mar@@	218
scheint	217
79	217
Beispiel	217
machen	217
age	217
Finland	217
Jeder	216
Doppel@@	216
Vo@@	216
Lunge	216
bleiben	216
auszu@@	216
betrachtet	216
ülen	216
untersuchen	216
krä@@	216
Geschlecht	216
Har@@	216
VA@@	216
Spon@@	216
‘	216
ver	216
vorüber@@	215
Multi@@	215
arm	215
provided	215
cho@@	215
viele	215
alt	215
2,0	215
Sehen	215
1,1	215
185	214
Zahn@@	214
ack@@	214
now@@	214
Lösungs@@	214
Rem@@	214
tensi@@	214
na	214
Allgemeine	214
For@@	214
organ@@	214
gerin@@	214
Zusätzlich	214
entwickelten	214
auftret@@	213
24@@	213
mehreren	213
hält@@	213
une	213
infiziert	213
Er	213
kleine	213
ertes	212
vorübergehende	212
SY@@	212
ds	212
sent@@	212
ans	212
ide	212
rin	212
Leit@@	212
Mus@@	212
Au@@	212
PRO	212
OR	212
zeit@@	212
Luxembourg	211
Imp@@	211
besondere	211
Darm@@	211
Wieder@@	211
ungspflich@@	211
Schein@@	211
zierte	211
aktivi@@	210
getestet	210
schmer@@	210
Box	210
Entscheidung	210
London	210
Zon@@	210
lässt	210
bb@@	210
г@@	210
................................@@	210
Stamm	209
Einschränkung	209
positiven	209
ulf@@	209
Brustkrebs	209
nt	209
ausgesetzt	209
ats	209
veränder@@	209
184	209
oton@@	209
lös@@	209
Ki@@	209
Der@@	209
Chin@@	208
kom@@	208
Zeichen	208
Luft@@	208
bildungen	208
Übertragung	208
4,@@	208
vs.	208
Verwen@@	208
ora	208
üblichen	208
entliche	207
Zusatz@@	207
Hex@@	207
112	207
ink@@	207
überprüfen	207
Gel	207
ë	207
Zit@@	206
angesprochen	206
Bin@@	206
erzielt	206
kompen@@	206
Zulassungs@@	206
nachfolgenden	206
frequenz	206
Bestimmung	206
stat@@	206
besonderen	206
Park	206
verändert	206
nahm	206
Modul	206
setz@@	205
Fl@@	205
Hal@@	205
staat	205
AZ@@	205
Post@@	205
Faktoren	205
ante	205
position	205
cht	205
Applikation	205
Oktober	205
Tropfen	204
ged	204
fluss	204
kten	204
bestätigt	204
hei@@	204
ve	204
reduzierte	204
Geschmacks@@	204
sal	204
verzö@@	204
420	204
cade	204
fe	204
Extremi@@	204
durchführen	204
app@@	204
ry@@	203
Systems	203
1,4	203
Behandlungen	203
gender	203
pin@@	203
daran	203
geliefert	203
tin@@	202
anten	202
wechsel@@	202
tieren	202
speziellen	202
Dop@@	202
BY@@	202
dur@@	202
4,5	202
ku@@	202
cil	202
Gefühl	202
ъ@@	202
Arbeits@@	202
tionen	202
hängt	202
inger	202
unterschiedlichen	202
fett@@	202
ри@@	201
ehen	201
leb@@	201
gleich	201
Fab@@	201
national	201
Abbruch	201
Januar	200
CH	200
not	200
CA@@	200
sters	200
Pseu@@	200
vorwiegend	200
radi@@	200
Immuno@@	200
Lo@@	200
IX	200
freie	200
Anforderungen	200
endes	200
schein@@	200
Neder@@	200
beurteilt	200
pe	199
freien	199
Vergleich@@	199
-Verhältnis	199
vorgelegten	199
Bor@@	199
9-@@	199
niedrigere	199
9.	199
bol@@	199
Bro@@	199
März	199
durchschnittlich	198
MB@@	198
DO@@	198
unterziehen	198
ritz@@	198
Februar	198
ze	198
Funktions@@	198
Prüfung	198
umin@@	198
p.@@	198
12-@@	198
moni@@	198
exam@@	198
wä@@	197
gelbe	197
comp@@	197
bewahren	197
Pal@@	197
ump@@	197
Luft	197
log@@	197
Version	197
Wund@@	197
d.@@	197
ris@@	197
Ke@@	197
blu@@	197
gebunden	197
127	197
bekannter	197
ative	196
ula@@	196
oms	196
solange	196
keiten	196
►	196
13,@@	196
Auswirkung	196
Hall@@	196
ß	196
Genehmigungen	196
air	196
vorher	196
chtes	195
document	195
endo@@	195
unterbrochen	195
Dezember	195
99@@	195
iere	195
Ha@@	195
europäischen	195
Via	195
plan	195
tl	195
Besser@@	195
tze	195
offenen	195
sse	195
relevante	194
sicheren	194
trö@@	194
verbundene	194
nia	194
Gehirn	194
Schä@@	194
PD@@	194
November	194
Drücken	194
alkoh@@	194
Sep@@	194
Tor@@	194
chemische	194
fte	194
mmen	194
beteiligt	194
Sprechen	194
77@@	194
BM@@	193
versehentlich	193
eventuell	193
Schwin@@	193
TS@@	193
darunter	193
gener	193
hä@@	192
50@@	192
é@@	192
S.	192
nis@@	192
Wirkungs@@	192
15,@@	192
Fac@@	192
halt@@	192
zitäts@@	192
Tit@@	192
BV@@	192
feststellen	192
fel@@	191
kontrollierte	191
stärke	191
Vertreter	191
State	191
5,@@	191
System@@	191
zon@@	191
Fortsch@@	191
v.	191
char@@	191
niedrig@@	191
Klein@@	191
gekennzeichnet	191
Bereichs	191
maßen	191
Camp@@	191
sam@@	191
Pati@@	191
OC@@	191
AA@@	191
sul@@	191
holen	191
395	191
fort	190
14,@@	190
distribution	190
chte	190
esk@@	190
Som@@	190
Hälfte	190
ganz	190
mulation	190
führten	190
ur	190
dbar	190
Schock	190
NICHT	190
IST@@	190
cken@@	189
lien	189
this	189
macht	189
The	189
starken	189
Abschluss	189
ungsphase	189
bestimmter	189
one@@	189
gere	189
füllen	189
421	189
Tuberkulose	189
la	189
Sc@@	189
nungs@@	189
einiger	189
gehören	189
AX@@	189
Wahrscheinlichkeit	189
abends	189
ehr@@	189
fest@@	189
Zen@@	189
Sto@@	188
verstärken	188
Bedenken	188
gens@@	188
351	188
ien@@	188
achten	188
AX	188
Vergleichs@@	188
386	188
verteilt	188
schlei@@	188
chts@@	188
Schmerz	188
mar	188
abgesch@@	187
dynamische	187
Pali@@	187
reagieren	187
Bene@@	187
unterstütz@@	187
OS	187
Rates	187
Brust	187
bul@@	187
Überprüfung	187
weist	187
oda@@	187
zusetzen	186
non	186
SP	186
Geburt	186
Personal	186
zwei@@	186
8000	186
besser	186
Fet@@	186
stand	186
gleiche	186
iler	186
Abhängigkeit	186
lierung	186
Anleitung	186
Formulierung	186
Chil@@	186
vali@@	186
ts	186
beutel	186
3,0	186
GEN	185
ral	185
ilen	185
Sand@@	185
Ant@@	185
ebenso	185
verantwortlich	185
HR@@	185
Durchführung	185
tisches	185
col	185
240	185
mischer	185
Hände	185
lob@@	185
29@@	185
lokale	184
Alters@@	184
fähigkeit	184
Kl@@	184
tec	184
Deh@@	184
cu@@	184
Status	184
antes	184
Verdacht	184
schon	184
A.@@	183
krebs	183
col@@	183
neuer	183
mir	183
Medikamente	183
if	183
LE	183
ausreichenden	183
basierend	183
bereitung	183
vorliegt	183
2,4	183
Ek@@	183
wiegend	183
0,0	183
Nep@@	183
Unternehmer	183
Schweine	182
8.@@	182
verhütung	182
Zyklus	182
lei@@	182
Fu@@	182
verlängert	182
Ei@@	182
vorzugsweise	182
MB	182
größer	182
cyc@@	181
Nur	181
Char@@	181
nahmen	181
hervor@@	181
MT@@	181
verschluss	181
tete	180
bilden	180
örtlichen	180
commercial	180
only	180
TN@@	180
extra@@	180
schla@@	180
Eingriff	180
Bol@@	180
Muskeln	180
Refer@@	180
tests	180
PA@@	180
hell@@	180
täts@@	180
ero@@	180
geeigneten	180
rol	180
Auto@@	180
manchmal	180
Bindung	180
Aug@@	180
Punkte	180
10.	179
Oberfläche	179
w	179
verschli@@	179
GAN@@	179
HO@@	179
46@@	179
Nicht-@@	179
↔	179
klasse	179
akter@@	179
jedes	179
Hoch@@	179
trifft	179
keit@@	179
schreiben	179
ore@@	179
е@@	179
357	179
opla@@	179
rat@@	179
Nahrungs@@	179
kende	179
2.5	179
ern@@	178
Therapien	178
Rin@@	178
kontrollieren	178
Sin@@	178
einmaligen	178
SU@@	178
positiv	178
ausschließlich	178
wodurch	178
VIS@@	178
ces	178
geprüft	178
keiner	178
elim@@	178
thal@@	178
absolute	178
fax@@	178
zentri@@	178
linie	177
dance	177
gehenden	177
Lösungen	177
erhöh@@	177
oli@@	177
Allerdings	177
Lis@@	177
Früh@@	177
TOR@@	177
л	177
2-	177
glich	176
Sili@@	176
speich@@	176
76@@	176
zusammen@@	176
sehen	176
speziell	176
Milli@@	176
750	176
MS@@	176
folie	176
streifen	176
427	176
els	175
hält	175
Vorbereitung	175
erwiesen	175
Sur@@	175
Av@@	175
â@@	175
Cop@@	175
Aufsicht	175
So@@	175
ungser@@	175
Mai	175
Mehrzahl	175
pha@@	175
spar@@	175
Hirn@@	175
ac	175
unbekannt	175
früh@@	174
stei@@	174
aufweist	174
vac@@	174
Dabei	174
befindet	174
modellen	174
angemessene	174
fast	174
rote	174
Pul@@	174
GM@@	174
st-@@	174
chirurgischen	174
Gefahr	174
orische	174
Lage	174
CS@@	173
Blutes	173
Beg@@	173
vid	173
Funktion	173
Os	173
zes	173
int@@	173
drehen	173
einher@@	173
rom	173
dap@@	173
mäßigen	173
Bre@@	173
stest	173
uner@@	173
ussi@@	173
es-@@	173
España	172
gelb	172
gilt	172
nü@@	172
llen	172
12.@@	172
VIII	172
Asp@@	172
Co.	172
kontin@@	172
zün@@	172
tal	172
itäts@@	172
fige	172
tierten	172
Redu@@	172
Miss@@	172
ausfall	172
ther@@	172
unterzogen	172
Rue	172
A2	172
128	172
individuellen	171
häufigste	171
kn@@	171
3,3	171
DER@@	171
EK@@	171
Rom@@	171
05@@	171
kum@@	171
Depressionen	171
unbedingt	171
entnommen	171
wünsch@@	171
·	171
eh@@	170
Zusammenfassungen	170
An	170
essel@@	170
klerose	170
innen@@	170
etten	170
tem@@	170
Abgabe	170
Berücksichtigung	170
ani	170
August	170
clo@@	170
Lar@@	170
omi	170
Adapter	170
atur@@	170
Hüh@@	169
ano@@	169
sil@@	169
20-@@	169
Dänemark	169
Cel@@	169
jahre	169
hren@@	169
jungen	169
DU@@	169
alls	169
NR@@	169
Aufrechterhaltung	169
beschriebenen	169
rund	169
basiert	169
CAN	169
stoß@@	169
schneller	169
Sollten	169
ertem	169
130	169
Verfügbarkeit	169
Wy@@	169
Inno@@	169
ea	169
phin	169
Pure@@	168
111	168
anzi@@	168
trü@@	168
102	168
Sekunden	168
Unterbrechung	168
ates	168
zir@@	168
weiß@@	168
Abfall	168
4.@@	168
1-	168
pid	168
129	168
88@@	168
iniert	168
Pent@@	168
Gesch@@	167
ord@@	167
Am	167
anter	167
reiten	167
iner@@	167
Methode	167
Beta-@@	167
Arbeitsprogramm	167
ks@@	167
Ergebnissen	167
fi	167
18,@@	167
ek@@	167
ug	167
CON@@	167
pes	167
cus	167
Set	167
GL@@	167
tat	166
unzureichend	166
erachtet	166
mor	166
Stal@@	166
tzeit	166
0.@@	166
wiederholt	166
eintritt	166
Soli@@	166
218	166
Bedienungsanleitung	166
Eis@@	166
Sac@@	166
e-	166
sat@@	166
2,6	166
schlu@@	166
sation	166
abilität	166
QU@@	166
weißer	166
era	166
ös@@	165
last@@	165
Analo@@	165
eit@@	165
senken	165
wasser@@	165
Malta	165
1-0@@	165
initi@@	165
individuell	165
Vig@@	165
Arten	165
Sollte	165
78@@	165
por@@	165
Reduzierung	165
spiegeln	165
int	165
empfehlungen	165
Blo@@	165
33@@	164
einzel@@	164
Setzen	164
tiver	164
gern	164
Health@@	164
Ges@@	164
Peri@@	164
WE@@	164
Technologie	164
IG@@	164
mung	164
Herz	164
pation	164
Praxis	164
verschiedene	163
ors	163
mil@@	163
Verordnung	163
ENT	163
mb@@	163
104	163
Proben@@	163
ging	163
ration	163
Höchst@@	163
Dadurch	163
DI@@	163
COM@@	163
hritis	163
zugelassenen	163
zyklen	162
vac	162
SCHAFT@@	162
domi@@	162
nisses	162
d-	162
ner@@	162
medizini@@	162
Mal@@	162
ugh	162
chronische	162
planen	162
einzu@@	162
normal	162
gebiete	162
Comp@@	162
stat	162
ihren	162
Leben@@	162
schaft@@	162
Hand	162
Lebens@@	162
Nar@@	162
produziert	161
140	161
genommen	161
Kriterien	161
ÄN@@	161
Wechsel@@	161
ment@@	161
GR@@	161
kombinierten	161
ZO@@	161
untersuchung	161
Jahres	161
MER@@	161
verbessert	161
tus	161
Omni@@	161
nie	160
gliche	160
mor@@	160
ckt	160
Note	160
Stuhl	160
mer	160
oo@@	160
Folge@@	160
resist@@	160
Zyklen	160
Ergebnis	160
USA	160
pers@@	160
Vent@@	159
03@@	159
Lippen	159
dis	159
ente	159
Isol@@	159
blutung	159
Verwaltungsrat	159
pher@@	159
nde	159
tisch	159
Profil	159
EF@@	158
Potenzial	158
ßen	158
dient	158
wo	158
ärz@@	158
erwies	158
NO@@	158
Rückgang	158
bedingungen	158
blockiert	158
harmoni@@	158
vul@@	158
stests	158
sität	158
nachweis@@	158
untersuchten	158
hl@@	158
einschrän@@	158
Bri@@	158
ie-@@	158
ath	158
al-@@	158
trockene	158
angenommen	158
bericht	158
s.r.@@	157
rue	157
Hand@@	157
ta-@@	157
ity	157
SS	157
tom@@	157
berechnet	157
Rever@@	157
ren	157
poly@@	157
17,@@	157
gewährleisten	157
tum@@	157
iden	157
Rolle	157
genes	157
funktion@@	157
geborene	157
anzeigen	157
Nut@@	157
Ada@@	156
zierter	156
zeitige	156
man@@	156
unterhalb	156
SB@@	156
Körpers	156
Internationale	156
ys@@	156
bestehender	156
fi-@@	156
Λ@@	156
steigt	156
TAB@@	156
16,@@	156
Kopf@@	156
geschwindigkeit	156
IA	156
stellt	156
überwiegend	156
35@@	156
bestehende	156
SAR@@	156
Relevanz	156
täglicher	155
Irland	155
131	155
angewandt	155
liger	155
AF	155
erreichten	155
Glie@@	155
lation	155
Chemo@@	155
3.	155
früher	155
All@@	155
veni@@	155
Schritt	155
Ersatz@@	155
ungsan@@	155
10.@@	155
bungen	155
sorgt	155
iro	155
vis@@	154
eben	154
betrifft	154
fun@@	154
fort@@	154
reichenden	154
Entsorgung	154
verursachte	154
40@@	154
are@@	154
Arbeit	154
weißes	154
Pel@@	154
101	154
vet	154
größeren	154
beschädigt	154
Twin@@	154
misch	154
Chlor@@	154
haltige	154
drei@@	153
evo	153
Verkehr	153
kulatur	153
einig@@	153
Mutter	153
C.	153
artige	153
von@@	153
stanz	153
des@@	153
allerdings	153
ologisch	153
nimmt	153
bewertet	153
unteren	153
überschreiten	153
vorliegenden	153
runde	153
Original@@	153
é	153
Fir@@	153
formen	153
Din@@	152
pie@@	152
Harmonisierung	152
teten	152
pression	152
entwicklung	152
gelö@@	152
Sitzung	152
2,3	152
dal	152
19@@	152
hel@@	152
zent@@	152
stischen	152
ART	152
Voll@@	152
7-@@	152
verbundenen	152
Enter@@	152
Griechenland	151
1995	151
eindeutig	151
löffel	151
parti@@	151
11.	151
posi@@	151
wichtigen	151
amed	151
entsprechen	151
58@@	151
Mag@@	151
pylen	151
Lithi@@	151
id-@@	151
Krankenhaus	151
zil	151
225	151
Drei@@	151
Größe	151
Wien	151
tica	151
neutra@@	151
Information	151
werfen	151
sorgfältige	151
gef@@	151
trinken	151
--------------------------------@@	151
appli@@	151
kom	150
Tami@@	150
ett	150
uri@@	150
gebildet	150
Schweden	150
ug@@	150
Wertes	150
care	150
bron@@	150
tar@@	150
HI@@	150
Kreuz@@	150
konventionellen	150
Eier@@	150
abhängige	150
5,0	150
beoba@@	150
alter	150
—	150
genaue	150
mer@@	150
Vitam@@	150
Aden@@	150
Hund	149
bild	149
375	149
än@@	149
berücksichtigen	149
angewiesen	149
wirkte	149
dern	149
dliche	149
tor	149
5.@@	149
Überleben	149
derter	149
Col@@	149
niedrigeren	149
ativen	149
Erb@@	149
falls@@	149
erb@@	149
ble	149
900	149
Aufbewahrung	149
и@@	148
Extra@@	148
Gon@@	148
Metho@@	148
abgeschlossen	148
obwohl	148
hose	148
bedarf	148
vol@@	148
Ga@@	148
gin	148
kla@@	148
schütteln	148
yar@@	148
kol@@	148
Gesundheit	148
lauf@@	148
dargestellt	148
betragen	148
.07.@@	148
arten	148
bel@@	148
forme	148
Ursache	148
OL@@	148
tödlich	148
Star@@	148
omer@@	148
amm@@	147
Oh@@	147
ungs-	147
re	147
ry	147
ACE	147
wenige	147
exe	147
etra@@	147
360	147
Endo@@	147
verpackung	147
ungsp@@	147
Ze@@	147
Tol@@	147
280	147
legte	147
vas@@	147
schwerwie@@	147
gter	147
56@@	147
anwendung	147
ention	147
gation	146
eingeschlossen	146
ältere	146
Erst@@	146
STELL@@	146
alia	146
brin@@	146
MAR@@	146
ott	146
lokalen	146
aufrecht	146
Br@@	146
positive	146
früheren	146
Angst	146
erheblich	146
kat@@	146
ausge@@	146
go	146
Absor@@	146
somit	146
Markierung	146
Appli@@	146
erwarteten	146
äden	145
Haltbarkeit	145
Ara@@	145
Lesen	145
WIS@@	145
Referat	145
Gau@@	145
esien	145
verschlossen	145
RT	145
figkeit	145
Janu@@	145
Let@@	145
rant	145
IB@@	145
verstärkt	145
Etikettierung	145
seinen	145
angemessen	145
1,8	145
ital	145
108	145
Website	145
MK@@	145
topic	145
Tier	144
fie@@	144
genden	144
open@@	144
manchen	144
gab@@	144
European	144
Makro@@	144
-Gruppe	144
negativen	144
ular@@	144
Wei@@	144
01@@	144
fab@@	144
schläge	144
36@@	144
schwach	144
folgender	144
l.	144
allgemeinen	144
temperatur	143
Í@@	143
Unruhe	143
Methoden	143
PT@@	143
	143
Aufgaben	143
Klin@@	143
Bevor	143
iertem	143
106	143
--	143
ure-@@	143
woll@@	143
Avenue	143
grenze	143
mehr@@	143
Präparate	143
dischen	143
begrenzten	143
Proteine	143
fortgeschrittenen	143
wäss@@	143
wieder@@	143
haut@@	143
146	143
wie@@	143
verwendete	143
Produktion	143
äu@@	142
gewünscht	142
verwendeten	142
weiterer	142
relevant	142
nötig	142
4.	142
EGA	142
wirkungs@@	142
gest@@	142
Emul@@	142
ologischer	142
eig@@	142
fur@@	142
rup	142
angebor@@	142
ergriffen	142
Potential	142
chti@@	142
Trä@@	142
empfehlen	142
Erreichen	142
zuletzt	142
vada	142
derten	142
r-@@	141
auslösen	141
gelöst	141
Innerhalb	141
schrittweise	141
Fä@@	141
nisse	141
A-	141
senkt	141
Spezies	141
353	141
material	141
bestimmen	141
66@@	141
tel@@	141
möglichst	141
GP@@	141
rus	140
experimentelle	140
lt	140
ypen	140
erfordern	140
331	140
ssi@@	140
anta@@	140
geh@@	140
359	140
ZU	140
adäqu@@	140
stern	140
tlicher	140
sierende	140
hinweisen	140
Bün@@	140
analyse	140
stellte	140
Qui@@	140
spezielle	140
Appetit	140
20,@@	140
chten	140
verstär@@	140
Schi@@	140
sondern	140
box@@	140
nahezu	140
val@@	140
ler	140
weise	140
gs@@	140
methode	139
dieren	139
toleranz	139
kombiniert	139
linge	139
Konzentrations@@	139
geraten	139
dige	139
Männer	139
Säu@@	139
tig@@	139
GER	139
kinder@@	139
aut	139
Cit@@	139
19,@@	139
steu@@	139
Frau	139
Auswertung	139
ad	139
Teilen	138
tic	138
Futter	138
besten	138
22@@	138
Licht@@	138
ole	138
anders	138
achtete	138
Zwei	138
han@@	138
zeiten	138
Hals@@	138
Strahl@@	138
aktions@@	138
Lei@@	138
1,6	138
Weich@@	138
bewirkt	138
Studi@@	138
beeinträ@@	138
Inf@@	138
υ@@	137
ismus	137
stands@@	137
monatlich	137
ons	137
N.@@	137
gna	137
Pä@@	137
temp@@	137
deri@@	137
SC@@	137
Abb@@	137
ansteigen	137
angebracht	137
Garda@@	137
-St@@	137
Stickstoff@@	137
Komponente	137
Gi@@	137
ftung	137
tia	137
ta	136
®	136
allgemeine	136
161	136
essions@@	136
potenzielle	136
DT@@	136
erfordert	136
Ax@@	136
oft	136
TY@@	136
lich@@	136
β	136
stag@@	136
gebiet	136
Stabilität	136
CHE	136
mas	136
beginnt	136
Č	136
850	136
eigenen	136
Plan	136
zo	136
signifikan@@	136
überschritten	136
häu@@	136
eins	136
füllte	135
Atmung	135
200@@	135
vermuten	135
nahe	135
fikation	135
Typen	135
Bewegungs@@	135
bla@@	135
tat@@	135
ories	135
ENCE	135
bezogen	135
these	135
ym@@	135
nukle@@	135
IP@@	135
ersatz@@	135
Cre@@	135
Temperatur	135
weisung	135
saf@@	135
enor@@	135
wand	134
Versuchs@@	134
CHEN	134
GEL@@	134
ativer	134
aro@@	134
142	134
influ@@	134
Lang@@	134
doch	134
com@@	134
bereit	134
beruht	134
abhängigen	134
vermindern	134
FR	134
Gesi@@	134
eth	134
klingen	134
stabil	134
enter	134
griffen	134
Medikament	134
GU@@	133
gehende	133
anti-@@	133
relativ	133
do	133
ärztliche	133
IT	133
negative	133
mana@@	133
tiv	133
Generi@@	133
zerk@@	133
fallen	133
land@@	133
ssen	133
Pflege@@	133
Ere@@	133
3.@@	133
cept	133
trotz	133
geführt	133
Mitarbeiter	133
IR@@	133
stün@@	133
vo-@@	133
ke	132
berichte	132
eur@@	132
richtige	132
esi@@	132
ses@@	132
adju@@	132
Maximal@@	132
Händen	132
acht	132
belegen	132
omie	132
ech@@	132
Gewe@@	132
schreibung	132
Stadium	132
zz@@	132
proben	132
digen	132
verstärkte	132
Produkte	132
Ausnahme	132
bestehend	132
wenig	132
LD@@	132
Sobald	132
tiert	132
blieb	132
Krank@@	132
jüngeren	131
ihr	131
äl@@	131
103	131
bestand	131
Empfehlung	131
Begleit@@	131
Ami@@	131
individuelle	131
wichtige	131
gal@@	131
ösung	131
1,7	131
plo@@	131
blasen	131
tent@@	131
2,8	131
OH@@	131
geschützt	131
126	131
aufgelistet	131
hafte	131
fizi@@	131
Brennen	131
-Syn@@	131
ständen	131
..	131
stell@@	131
Führen	131
Finanz@@	131
Qualitäts@@	131
io@@	131
tungen	131
OS@@	131
derselben	131
gesenkt	131
tan@@	131
fru@@	131
Daf@@	131
Embry@@	130
Karton	130
Hist@@	130
Luc@@	130
tten	130
lokal	130
Bis@@	130
lax@@	130
Folgende	130
MY@@	130
geändert	130
144	130
HEI@@	130
ron	130
Erteilung	130
gelagert	130
lations@@	130
373	130
Mechanismus	130
trägt	130
Dyna@@	130
durchgeführten	130
operativen	130
Tim@@	129
04@@	129
Ist	129
Wil@@	129
festzustellen	129
Melo@@	129
steigen	129
wall@@	129
verlangs@@	129
vorherige	129
wissenschaftliche	129
benötigt	129
Wegen	129
Anschluss	129
krank@@	129
Star	129
ausgeprägt	129
Produktes	129
en.	129
beding@@	129
ez@@	129
ters	129
erwar@@	129
Zom@@	129
pag@@	129
464	129
veg@@	129
mi	128
sichere	128
geringeren	128
begleit@@	128
list@@	128
pan@@	128
rä@@	128
H.	128
lu	128
verändern	128
andra	128
Auffassung	128
vin@@	128
hungen	128
thy@@	128
itu@@	128
2,7	128
ligen	128
ungspro@@	128
CIA	128
Sonstige	128
151	128
a-	128
Mir@@	128
Ausschuß	128
Testoster@@	128
fass@@	128
Me@@	128
akti@@	128
helfen	128
pot@@	128
FE	128
od@@	127
Sachver@@	127
Roche	127
DNS	127
44@@	127
con	127
siv@@	127
onist	127
Haushalts@@	127
aufgelöst	127
Weiße	127
Nicht@@	127
6.	127
Sper@@	127
genauso	127
wichtigsten	127
werden@@	127
Farb@@	127
ssystem	127
mäßige	127
Kombinationen	127
chtigen	127
Bereiche	127
Fläche	127
plötzlich	127
Zyp@@	127
Steigerung	127
erforderliche	127
2,1	127
Applikations@@	126
Todesfälle	126
gon	126
Notfall@@	126
bereichs	126
Umfang	126
ens-@@	126
Zusammenarbeit	126
Kontakt@@	126
cer@@	126
spitze	126
ppen	126
tiges	126
starker	126
roter	126
Vec@@	126
hingewiesen	126
ergeben	126
4,8	126
malen	126
core	126
354	126
our@@	126
Meta@@	126
bedingt	126
YP	126
gemeldet	126
GS@@	126
co-@@	126
sierenden	126
175	126
che@@	126
Ausgang	125
schutz	125
Centre	125
John@@	125
Reg@@	125
illi@@	125
längere	125
ura	125
Plastik@@	125
siertes	125
dru@@	125
flä@@	125
Entfernung	125
jährigen	125
Antrag	125
meist	125
skin@@	125
uss@@	125
Spitze	125
schätz@@	125
Gab@@	125
mag@@	125
Symp@@	125
unver@@	125
105	125
asmus	125
VERK@@	124
Ärzten	124
festgelegt	124
Auflösung	124
genügend	124
ici@@	124
ons@@	124
Madrid	124
AIDS	124
Versuchen	124
ah@@	124
zieren	124
verzögert	124
körperliche	124
asy@@	124
punkte	124
außerhalb	124
angesehen	124
†	124
Verpackung	124
Frage	124
negativ	124
fach@@	124
NE	124
Ku@@	124
informiert	124
seh@@	123
alternative	123
wei@@	123
ihrem	123
und@@	123
96@@	123
h-@@	123
solcher	123
etab@@	123
Norm	123
Leiter	123
kraft	123
NE@@	123
laufende	123
Mehr@@	123
erwor@@	123
Entsor@@	123
zählen	123
Tätigkeit	123
Cu@@	123
135	123
genehmigt	123
Fö@@	123
Deri@@	123
260	123
besprechen	123
MM	123
157	123
abhängi@@	123
Abwä@@	123
rezep@@	123
geringere	123
ebo@@	122
Horn@@	122
Guta@@	122
Ultra@@	122
ath@@	122
kontrolli@@	122
Einführung	122
absor@@	122
Immunität	122
arzt	122
gard	122
sy@@	122
sogar	122
700	122
hervorgerufen	122
Folgen	122
Bakteri@@	122
physi@@	122
183	122
Paris	122
dio@@	122
Belgium	122
verpflichtet	122
folgen	122
dete	122
fahren	121
para	121
ated	121
Industrie	121
wiegt	121
Versagen	121
tät	121
Mitglieds@@	121
versuchen	121
ÄR@@	121
Bestand@@	121
Druck	121
ein-@@	121
.10.@@	121
ist@@	121
keinem	121
Rest@@	121
gamm@@	121
anzu@@	121
pneu@@	121
Pap@@	121
zungen	121
zustand	121
gehalten	121
stadium	121
9,5	121
unveränder@@	121
Kindes	121
OM@@	121
erfolgte	121
gü@@	121
digungen	121
206	121
Risikomana@@	121
nä@@	121
ā	120
iertes	120
Ziel	120
OL	120
adi@@	120
115	120
acht@@	120
sicherstellen	120
Finnland	120
kation@@	120
ber	120
Lap@@	120
TM@@	120
SD	120
Keine	120
Management	120
teln	120
teilweise	120
rates	120
º@@	120
thema	120
alb@@	120
statt	120
AND@@	120
Flecken	120
Wirbel@@	119
231	119
P.@@	119
mitglie@@	119
bruch@@	119
direkte	119
134	119
kenden	119
EC	119
Gleich@@	119
kur@@	119
Beur@@	119
Überprüfen	119
liegenden	119
eg	119
junk@@	119
Stimm@@	119
168	119
Gründen	119
ek	119
pool@@	119
Aff@@	119
chrom@@	119
48@@	119
instab@@	119
219	118
IR	118
Ritu@@	118
et-@@	118
100@@	118
state	118
Kranken@@	118
ktors	118
wissen	118
KA	118
Laufe	118
Beinen	118
174	118
49@@	118
Street	118
HU@@	118
ade@@	118
erzielen	118
Normali@@	118
CM@@	118
Trocken@@	118
gemeinsam	118
1,9	118
EWG	118
teilung	118
ox	118
anus	118
Stu@@	118
ändern	118
Cin@@	118
woche	118
treffen	118
BA@@	118
onen@@	118
ê@@	118
gerung	118
beider	118
ω@@	117
gesunde	117
use	117
Blockade	117
.02.@@	117
schütz@@	117
Akkumulation	117
BV	117
edr@@	117
stets	117
dynamischen	117
Daten@@	117
38@@	117
bor@@	117
ents	117
gesicher@@	117
Jal@@	117
kürzlich	117
229	117
Scan	117
kombinierte	117
SE	117
klop@@	117
216	117
Bauch	117
Bewegungen	117
terien	117
ZE	117
Est@@	117
nachfolgend	116
Kr@@	116
152	116
Ker@@	116
2,2	116
tene	116
Ass@@	116
nern	116
wechseln	116
empfiehlt	116
Krä@@	116
fertige	116
Unternehm@@	116
kuli@@	116
Gelenke	116
Verwaltung	116
ör@@	116
barer	116
107	116
erhielt	116
organe	116
info	116
Verhinderung	116
Schwäch@@	116
eil@@	116
Mamm@@	116
physikalische	116
4,6	116
Solo@@	116
ungewöhnliche	116
höchst@@	116
liert	116
Kilogramm	116
Allgem@@	116
du	116
UC@@	116
Zir@@	116
rü@@	116
gemeinsame	116
Drehen	115
cs	115
psychiat@@	115
Disk@@	115
Situationen	115
LAGE	115
kurz@@	115
Nervensystem	115
ello@@	115
veränderte	115
Tätigkeiten	115
det	115
4,0	115
heraus	115
teil@@	115
tun	115
Nit@@	115
Flo@@	115
laufenden	115
Gefahren	115
47@@	115
EN-@@	115
richtig	115
Gebiet	115
gangene	115
alt@@	115
ihnen	115
dia	115
richtet	115
ss	115
ESS	115
leitung	115
L.	114
assoziierte	114
hielt	114
sieben	114
Medikamenten	114
Econ@@	114
Dublin	114
Ina@@	114
02@@	114
Kur@@	114
Fort@@	114
schu@@	114
cum	114
berichten	114
dlichen	114
.09.@@	114
zahlen	114
blo@@	114
met	114
druckt	114
RN@@	114
ALE	114
GER@@	114
24,@@	114
EB@@	114
Ble@@	114
mär@@	114
alysi@@	114
read	114
Wechsel	113
Abfall@@	113
gui@@	113
1x@@	113
Umsetzung	113
ination	113
Nerven@@	113
nun	113
Feld@@	113
Gemäß	113
mitteilen	113
Tan@@	113
zentralen	113
tol@@	113
Zwei@@	113
aufeinander	113
Hals	113
befolgen	113
zier@@	113
.c@@	113
Operationen	113
3,6	113
Informations@@	113
sol@@	113
Rach@@	113
ten-@@	113
spart@@	113
vate	113
statische	113
essen	113
Part	113
db@@	113
Kno@@	113
Schieds@@	112
ush	112
LIN	112
Aussehen	112
möglicher	112
Non-@@	112
EM	112
oper@@	112
arm@@	112
gla@@	112
Todes@@	112
Möglicherweise	112
wann	112
Gu@@	112
förmige	112
lis	112
Einrichtungen	112
ographie	112
darstellen	112
Übereinstimmung	112
ps	112
ix	112
elu@@	112
Enthält	112
rennen	112
vergleich@@	112
Zugang	112
Alz@@	112
j	112
Geb@@	111
setzt	111
schlimm@@	111
identifiziert	111
hilft	111
.01.@@	111
6.@@	111
aufrechterhalten	111
the@@	111
CA	111
produkte	111
57@@	111
Konser@@	111
3,4	111
glauben	111
Gui@@	111
etik@@	111
MI	111
Flaschen@@	111
Material	111
Activ@@	111
stellung	111
Position	111
ine@@	110
eter@@	110
eni@@	110
zuverlässige	110
Hel@@	110
Darm	110
utes	110
männliche	110
cla@@	110
gründlich	110
Ham@@	110
Halo@@	110
5,5	110
isation	110
wachstum	110
2x	110
Trau@@	110
Pferden	110
dos	110
Messung	110
Mont@@	110
Mio	110
Business	110
118	110
Neuro@@	110
verk@@	109
redu@@	109
benutzen	109
shire	109
andau@@	109
vergröß@@	109
utter@@	109
Nord@@	109
brüche	109
geschla@@	109
Hör@@	109
aren	109
einzelne	109
Zar@@	109
Vergangenheit	109
Netz@@	109
IL	109
Umgang	109
415	109
GE	109
stärker	109
identisch	109
Minute	109
potenziell	109
Maße	109
alisierter	109
bekannte	109
Wiederaufnahme	109
bli@@	109
lim@@	109
ktur	109
tä@@	109
3-	109
elt	109
Ral@@	109
Tak@@	109
Mischung	109
raum	109
allgemein	108
möchten	108
5000	108
ing-@@	108
zugänglich	108
Verzögerung	108
gerade	108
gu@@	108
Zol@@	108
beurteilen	108
ford	108
sieren	108
rad@@	108
zel@@	108
Chrom@@	108
Danach	108
ähnlicher	108
wünschte	108
Verhaltens@@	108
tzen	108
ihn	108
blä@@	108
flüssigkeit	108
tili@@	108
ül@@	108
lassungs@@	108
würde	108
Therap@@	108
gerät	108
cover	108
gehalt	108
treatment	108
brauchen	107
Kat@@	107
11.@@	107
zeichen	107
nen@@	107
.06.@@	107
Ernährung	107
Visu@@	107
vert@@	107
vermögen	107
markierten	107
darin	107
molek@@	107
143	107
unterstützen	107
24-@@	107
gefä@@	107
chtern	107
umgewandelt	107
Et@@	107
ungen@@	107
anza	107
PO@@	107
Aero@@	107
γ@@	107
ologi@@	107
Austria	107
eda	107
verb@@	107
clin@@	106
Stamm@@	106
biologischen	106
mem@@	106
Sonnenlicht	106
PS	106
eingesch@@	106
116	106
riebene	106
ier@@	106
BES@@	106
geboren	106
AT	106
dem@@	106
malem	106
häufi@@	106
Ambi@@	106
SL@@	106
via@@	106
dlicher	106
sierungen	106
bildet	106
optimale	106
Essen	106
tr@@	106
per	106
Gent@@	106
spüren	106
VE	106
201	106
Seb@@	106
etat	106
HA@@	106
Freiwilligen	106
spezifisch	106
ori	106
Dennoch	105
Ernährungs@@	105
oro@@	105
chtens	105
TOR	105
.-@@	105
Nummer	105
ermöglicht	105
PE-@@	105
203	105
primär	105
prüfen	105
vers	105
Strahlen@@	105
irgendwelche	105
Pep@@	105
zentral	105
25,@@	105
Dazu	105
produktion	105
chin@@	105
Beobachtung	105
39@@	105
Verwaltungs@@	105
Verstärkung	105
chens	105
fertigen	105
wochen	105
los@@	105
fassten	105
114	105
E-Mail	104
syst@@	104
Lassen	104
205	104
Sonnen@@	104
zumindest	104
niedri@@	104
erster	104
KR@@	104
ktive	104
à	104
Europa	104
Str	104
rau@@	104
DAR@@	104
beobachtung	104
.0@@	104
Effe@@	104
lü@@	104
sammlung	104
80@@	104
kindern	104
Risi@@	104
verschiedener	104
Komponenten	104
ASS	104
messen	104
eter	104
bald	104
termin	104
expon@@	104
diagnostiziert	104
a.	104
löst	104
Ev@@	104
PAD@@	104
gewo@@	104
eingestuft	104
fällt	104
Mini@@	104
can@@	104
Wiederhol@@	103
Hir@@	103
schaften	103
bs@@	103
reichte	103
15-@@	103
Füßen	103
Bewegung	103
äußere	103
isti@@	103
vermutlich	103
Achten	103
Sowohl	103
Haz@@	103
unterbrechen	103
089	103
Q	103
Fru@@	103
4000	103
stre@@	103
Stärken	103
enthaltenen	103
besonderer	103
vielen	103
Ori@@	103
Dro@@	103
dium	103
Gr@@	103
imm@@	103
dichte	103
ihres	103
59@@	103
Programm	103
Kunststoff@@	103
ear@@	103
stehenden	102
yn	102
verursachten	102
Api@@	102
NUNG	102
.05.@@	102
potentielle	102
Biogra@@	102
207	102
Spie@@	102
hand@@	102
mäß@@	102
stischer	102
Oberflächen@@	102
dennoch	102
8.	102
Fortsetzung	102
abl@@	102
doppelte	102
ause	102
Mütter	102
vot@@	102
vorange@@	102
ologen	102
vorgeschlagenen	102
produkt	102
ALL	102
Barcelona	102
Geschlechts@@	102
Erg@@	102
270	102
Global	102
Norwegen	102
lan	102
Bestimmungen	102
Fett	102
MON@@	102
them@@	102
äne	101
TEN	101
Linie	101
max@@	101
verpackt	101
ker@@	101
f-@@	101
ärm@@	101
heim@@	101
Mitgliedstaat	101
Non@@	101
beitragen	101
IT-@@	101
Rinder	101
208	101
.08.@@	101
eingereichten	101
mes@@	101
pus	101
asen	101
Radi@@	101
aco@@	101
Anschließend	101
Poli@@	101
Prof@@	101
gal	101
SM@@	101
blen	101
anstieg	101
mg@@	101
rän@@	101
zykli@@	101
aku@@	101
alisierte	101
durchschnittlichen	101
vorhandenen	101
AK	101
Supp@@	101
est	101
ständige	100
Hünd@@	100
oma	100
21,@@	100
weit	100
lingu@@	100
Abbau	100
behälter	100
υ	100
279	100
212	100
Belast@@	100
monatigen	100
Literatur	100
lediglich	100
Trän@@	100
entan	100
Gewährleistung	100
Aktivierung	100
arab@@	100
umm@@	100
heit@@	100
00-@@	100
Mitglieder	100
6.1	100
Ursachen	100
mierung	100
eingereicht	100
GA	100
gelieferten	100
bekann@@	100
auss@@	100
version	100
Equ@@	100
geschätzt	100
Fassung	100
risi@@	99
dra	99
123	99
Alph@@	99
infizieren	99
oval	99
gling	99
3000	99
änderung	99
Aktualisierungen	99
Teile	99
CL@@	99
basieren	99
Schritten	99
verteilung	99
Gesundheits@@	99
wahrschein@@	99
uli@@	99
diger	99
beachtet	99
genehmigten	99
itäten	99
schnellen	99
276	99
nerv@@	99
gehender	98
aktiv@@	98
1200	98
wa	98
5,6	98
Bot@@	98
HIN@@	98
schwäch@@	98
Zylinder@@	98
befinden	98
blaue	98
ordnen	98
spezialitäten	98
klassen	98
zuerst	98
jug@@	98
ko	98
Richtlinien	98
234	98
fluss@@	98
verbesserte	98
unterschiedliche	98
sch	98
erhält	98
gelegt	98
KM@@	98
terie	98
356	98
hase	98
z-@@	98
chter	98
alie	98
angeboten	98
CAN@@	98
89@@	98
menschliche	98
Analysen	98
258	98
Ad-hoc-@@	97
umfassen	97
status	97
proph@@	97
AUS@@	97
Kapitel	97
tation@@	97
HR	97
verbessern	97
opport@@	97
mona@@	97
bal@@	97
längeren	97
Vorhandensein	97
aktuellen	97
regelmäßiger	97
Dauer@@	97
7.@@	97
hö@@	97
Prozentsatz	97
körperlichen	97
dol	97
sodass	97
trags	97
Müt@@	97
Formen	97
ital@@	97
Lagerung	97
sensi@@	97
BS@@	97
jährlich	97
Beu@@	97
körper	97
460	97
Folgenden	97
Absatz	97
Med@@	97
il-@@	97
positionen	97
Jung@@	96
evi@@	96
ISCH@@	96
stie@@	96
stieg	96
pflanz@@	96
Mitte	96
dge@@	96
gleichmäßig	96
Nachdem	96
2,9	96
4,4	96
MAN	96
mittelte	96
Beschreibung	96
5,4	96
377	96
stiegen	96
experimentellen	96
offene	96
sche@@	96
selben	96
Pferde	96
auftretenden	96
Träume	96
spart	96
gesteigert	96
Index	96
Veran@@	96
enthaltene	96
erforderlichen	96
un	96
einhergehen	96
ausgelöst	95
Text	95
plat@@	95
Krankenschwe@@	95
3,1	95
hülle	95
alis	95
estens	95
getroffen	95
zug	95
Sachverständigen	95
Bus@@	95
ieren	95
Schema	95
eingeschränkt	95
Kompli@@	95
Je	95
lock@@	95
addi@@	95
ärztlichen	95
Ungarn	95
Fie@@	95
Zo@@	95
uta@@	95
hül@@	95
dierten	95
dauern	95
rang	95
zte	95
beschränkt	95
derjenigen	95
welcher	95
DV@@	95
Ferner	94
Gew@@	94
mischung	94
carb@@	94
füllt	94
3,2	94
vereinbart	94
Vermeidung	94
GEM@@	94
Aktiv@@	94
bs	94
ring	94
liegende	94
cch@@	94
sh@@	94
lack	94
amer	94
internationalen	94
Meldungen	94
55@@	94
zio	94
feld@@	94
COMP@@	94
230	94
zugrunde	94
dieselbe	94
Vergrößerung	94
gingen	94
spricht	94
oba@@	94
bewirken	94
ate@@	94
IL@@	94
dau@@	94
ergibt	94
fortgeführt	94
350	94
chel@@	94
Anwender	94
emi@@	94
frühen	94
schwin@@	94
pes@@	93
aktualisiert	93
Armen	93
vorher@@	93
oma@@	93
empfehlung	93
sprä@@	93
Dokumente	93
No	93
Kontam@@	93
Fine	93
.000	93
ater@@	93
proportional	93
gewonnen	93
TAN@@	93
allmählich	93
versehen	93
Lut@@	93
erscheint	93
ulationen	93
evalu@@	93
3,9	93
uk	93
Lev@@	93
hn	93
ISE	93
Bewusst@@	93
erfahren	93
lation@@	93
geringfügig	93
tiefe	93
zubereitet	93
chemischen	93
plate	93
Primär@@	93
Heilung	93
höchsten	93
Belastung	93
war@@	93
schädigen	93
wechselt	93
Gründe	93
schär@@	93
biologische	93
.org	92
Kontrollen	92
gl	92
stehende	92
eme	92
leiter@@	92
chia	92
anpassen	92
drückt	92
ost@@	92
dünnen	92
gat@@	92
Zwischen@@	92
122	92
99,@@	92
mengen	92
korrekte	92
stab@@	92
methoden	92
zeitraum	92
ip@@	92
lieren	92
Erweiterung	92
lische	92
betroffen	92
WP	92
ritan@@	92
lischen	92
fat	92
kast	92
gelassen	92
höherer	92
Tragen	92
The@@	92
rout@@	92
Berichterstatter	92
alph@@	92
einma@@	92
chs	91
investi@@	91
Il@@	91
geringfü@@	91
Hilfs@@	91
119	91
glichen	91
West@@	91
IO@@	91
sar@@	91
M.	91
bene	91
Brüssel	91
zur@@	91
ambul@@	91
geklärt	91
bedeut@@	91
Kanz@@	91
Beide	91
Transparenz	91
dan	91
inson	91
angemessenen	91
Beitrag	91
handelte	91
zusammengefasst	91
Entstehung	91
Flat@@	91
bf@@	91
......	91
137	91
Tierarzt	91
ade	91
freies	91
4.1	91
entlicher	91
53@@	91
guss	91
Diagno@@	91
Kopf	90
win@@	90
ase@@	90
Durchschnitt	90
atoren	90
niedrigem	90
θ@@	90
η	90
188	90
sch-@@	90
bte	90
fäl@@	90
umfasste	90
vergleichbare	90
285	90
äres	90
ium	90
PC	90
stands	90
23,@@	90
iso@@	90
gewährleistet	90
hre	90
Dokumentation	90
nahm@@	90
133	90
ICA	90
anhaltenden	90
Ländern	90
keinerlei	90
ass@@	90
matischer	90
4,2	90
Hei@@	90
ppen@@	90
haber	90
IC	90
Fremd@@	90
geln	90
ritt	90
bliche	90
Spezi@@	90
stor	90
Produ@@	90
Tätigkeits@@	90
arer	90
Empfin@@	90
phase	90
CP	90
unterschiedlich	90
facher	89
demi@@	89
Herzens	89
cio	89
Behälter	89
här@@	89
phal@@	89
PP@@	89
lie@@	89
schei@@	89
geruf@@	89
cate	89
Verabschie@@	89
195	89
UK@@	89
Anfang	89
matisch	89
wert@@	89
5.	89
Folgendes	89
HY@@	89
nissen	89
PCI	89
kleben	89
moder@@	89
ations	89
Post-@@	89
zugelassene	89
О@@	89
anhaltende	89
gelangt	89
196	89
bares	89
Zucker	89
zustände	89
oten	89
Ausführliche	89
synthe@@	89
empfindliche	89
wesentlich	89
Ausschüsse	88
gewählt	88
ungss@@	88
mone	88
cad@@	88
Jedes	88
Sol@@	88
vorrichtung	88
fö@@	88
ür	88
.11.@@	88
sera	88
bau@@	88
stoßen	88
Lager@@	88
Stellungnahme	88
CH-@@	88
Milch@@	88
genheit	88
isches	88
sur@@	88
relative	88
mittelten	88
sprache	88
1-2	88
licherweise	88
teils	88
genommenen	88
9.@@	88
erst@@	88
begleitet	88
ic	88
ease	88
erfahrenen	88
einzuleiten	88
var@@	88
Liter	88
reduzierten	88
gemess@@	88
hoff@@	88
alter@@	88
unden	88
ror@@	88
defe@@	88
with	88
Wahl	88
Bezeichnung	87
hyth@@	87
Quad@@	87
flächen	87
Stra@@	87
dab@@	87
günstig	87
stechen	87
ban	87
Zusammen@@	87
sien	87
65@@	87
Aer@@	87
richten	87
test	87
kit	87
28,@@	87
Dil@@	87
3,7	87
MH@@	87
gs	87
ering	87
Fahrzeug	87
abgebaut	87
motor@@	87
ort@@	87
neten	87
nte	87
320	87
pon@@	87
lets	87
höhung	87
IF@@	87
deter	87
üt@@	87
................@@	87
beinhalten	87
block@@	87
plan@@	87
dara	87
ire	87
jünger	87
stä@@	87
getrock@@	87
entsprach	87
fla@@	86
auffäl@@	86
assoziierten	86
Respon@@	86
Tumor	86
usi@@	86
gaben	86
gungs@@	86
ή@@	86
Ple@@	86
121	86
ó@@	86
som@@	86
CHT@@	86
weibliche	86
tations@@	86
hibi@@	86
wies	86
separaten	86
denjenigen	86
5,7	86
gang	86
Verlän@@	86
unterstützt	86
6000	86
offiziellen	86
405	86
trägen	86
ungs-@@	86
normales	86
ablo@@	86
bran@@	86
ferner	86
beur@@	86
Zahlen	86
path@@	86
-System	86
113	86
gelten	86
epide@@	86
gewissern	86
Veterin@@	86
O.	86
gement@@	86
nai@@	86
dge	86
län@@	86
House	85
potenziellen	85
enken	85
schöpfung	85
wur@@	85
69@@	85
namens	85
Schritte	85
294	85
sinn	85
PD	85
ERS	85
empfän@@	85
Koordinierung	85
3,8	85
komp@@	85
potenti@@	85
korb	85
La	85
Johnson	85
pu@@	85
zehn	85
sichergestellt	85
schwarzer	85
Teil@@	85
bl@@	85
Phasen	85
infizierte	85
Nahrungsmittel	85
strahlung	85
teilungs@@	85
UN	85
Gummi	85
bt	85
Kosten	85
tenden	85
vernachlässi@@	85
aufgeteilt	85
AD	85
pod@@	85
ebri@@	85
Ato@@	85
rie	85
ster-@@	85
§	85
herap@@	85
έ@@	84
RÜ@@	84
ats@@	84
geöffnet	84
str@@	84
führung	84
TI	84
ein-	84
Basi@@	84
Lebensqualität	84
genannte	84
Riv@@	84
aufgetragen	84
verstärkten	84
zug@@	84
Cli@@	84
ž	84
yon@@	84
Personal@@	84
Universität	84
lex	84
213	84
Datenbank	84
Beobachtungs@@	84
ai	84
321	84
erlaubt	84
Einhaltung	84
ton@@	84
derartige	84
199@@	84
Milano	84
wirkenden	84
Beat@@	84
Min@@	84
45@@	84
Stämme	84
30,@@	84
steiger@@	84
set@@	84
mini@@	84
dot	84
Dass	84
niemals	84
kalische	84
Nachkommen	84
ckung	83
richtigen	83
glau@@	83
Speich@@	83
ursprünglich	83
standen	83
Z-@@	83
gien	83
funktionen	83
Quint@@	83
farbe	83
.04.@@	83
wiederholten	83
ysi@@	83
tägigen	83
erender	83
Durst	83
ms@@	83
4,1	83
Cri@@	83
Spei@@	83
ALL@@	83
all	83
benötigte	83
informationen	83
höchste	83
natürliche	83
22,@@	83
markt@@	83
Risikom@@	83
tig	83
hire	83
Kontrol@@	83
tical	83
natürlichen	83
verh@@	83
Mitteln	83
dität	83
Situation	83
equ@@	83
SAN@@	83
opä@@	83
anzupassen	83
ο	82
kombini@@	82
co	82
erfolgreich	82
etta	82
Wochen@@	82
Schü@@	82
Clin@@	82
stel@@	82
Nr.	82
ria	82
lauf	82
iv@@	82
legenheit	82
verfahrens	82
Durchmesser	82
fläche	82
chtet	82
2009	82
bislang	82
WIN@@	82
t.	82
standes	82
spezi@@	82
Inc	82
Ken@@	82
bewertung	82
hinreichend	82
Aminos@@	82
sparameter	82
Gamm@@	82
wiederholen	82
begrenz@@	82
prägt	82
EK	82
umpen	82
feste	82
aft	82
1.200	82
rats	82
etts	82
ale@@	82
phen@@	82
blase	82
fal@@	82
al-	82
Zusätzliche	82
ierung	82
off@@	82
kations@@	82
betroffene	82
Ela@@	82
221	82
412	82
am-@@	82
Sav@@	82
orth@@	82
abgegeben	82
ν	82
Schu@@	81
hrop@@	81
gesehen	81
füll@@	81
hra@@	81
sem@@	81
SAM@@	81
Trinkwasser	81
ay	81
Legen	81
Verwirrung	81
esto	81
Industrial	81
Bewusstseins@@	81
Zwischen	81
danken	81
anor@@	81
rige	81
sichtbare	81
vention	81
ungsweise	81
chtungs@@	81
LV@@	81
PRI@@	81
under@@	81
Vorteil	81
ität@@	81
berichtete	81
ator	81
schäden	81
film	81
Sä@@	81
einher	81
bild@@	81
beru@@	81
sein@@	81
egelt	81
stur@@	81
ets	81
geänderten	81
Lov@@	81
Fort	81
tiere	81
Om@@	81
т@@	80
Cali@@	80
PL@@	80
Wartezeit	80
Gener@@	80
kos	80
DE@@	80
annähernd	80
ften	80
és	80
Gedächtnis@@	80
202	80
vel@@	80
bein@@	80
HA	80
ent-@@	80
Major	80
gedrückt	80
Ljubljana	80
Etwa	80
319	80
fok@@	80
SEL@@	80
Rand@@	80
straße	80
-Fla@@	80
Bezüglich	80
Т@@	80
kontinuierliche	80
ure	80
tifi@@	80
fand	80
Beteiligung	80
........@@	80
Käl@@	80
bb	80
tende	80
Brin@@	80
7.	80
dauerhaft	80
rot	80
acc@@	80
ler@@	80
Einzelheiten	80
Syna@@	80
Dr.	80
214	80
let	79
ischem	79
meter@@	79
½	79
lad@@	79
Sauerstoff@@	79
zufolge	79
Edi@@	79
fortsetzen	79
benötigten	79
de-@@	79
Proben	79
generell	79
hohes	79
Stei@@	79
steri@@	79
ersetzt	79
Finger	79
1.0@@	79
schnelle	79
erforder@@	79
124	79
162	79
fische	79
gemacht	79
slo@@	79
ves	79
vorzubeugen	79
Kreislauf	79
wäre	79
hop@@	79
Spe@@	79
unzur@@	79
sele@@	79
punkten	79
dynamik	79
lösungen	79
langen	79
Interaktion	79
Fur@@	79
Zucker@@	79
beschleunig@@	79
469	79
berichterstat@@	79
ό@@	79
frieren	79
Produkten	78
233	78
og@@	78
mü@@	78
Maus@@	78
UM	78
60@@	78
Benutzen	78
DEN@@	78
Ausgang@@	78
gesti@@	78
Gehirns	78
nete	78
Bereitstellung	78
mul@@	78
Monats	78
stit@@	78
beraten	78
CR	78
häufig@@	78
Ressourcen	78
med@@	78
steigerung	78
27,@@	78
olischen	78
Ebenso	78
Bis	78
Ε	78
Vit@@	78
caf@@	78
weis@@	78
dauert	78
mes	78
öl	78
cals	78
gute	78
Organen	78
.12.@@	78
anderem	78
TV@@	78
cke	78
ierenden	78
Sprüh@@	78
Tr@@	78
verbrau@@	78
volle	78
entsprechender	78
spezifischer	78
erwachsene	78
GO@@	78
WOR@@	77
Germany	77
nö@@	77
strasse	77
300@@	77
25-@@	77
ungssystems	77
verworfen	77
Weiter@@	77
weiter@@	77
Group	77
dd@@	77
les@@	77
gebnisse	77
links@@	77
ganzen	77
MM@@	77
ange	77
sinken	77
b.@@	77
erlitten	77
veröffentlichten	77
ess@@	77
rup@@	77
Herzen	77
chro@@	77
is-@@	77
ungssystem	77
kri@@	77
operation	77
blieben	77
155	77
cat@@	77
ogramm	77
verwen@@	77
Bericht	77
le-@@	77
auen	77
60-@@	77
conc@@	77
Tin@@	77
derzeitigen	77
Mittl@@	77
weshalb	77
Vern@@	77
eta	77
bisherigen	77
Straßenverkehr	77
anfän@@	77
beibehalten	77
tan	77
r.@@	77
arbonat	77
mme	77
phi@@	77
369	77
Atta@@	76
erklären	76
Erstellung	76
bessere	76
Products	76
eingeführt	76
ranke	76
Uhr@@	76
NY@@	76
pler	76
medizinischer	76
Rauchen	76
ine-@@	76
-1-@@	76
programm	76
hielten	76
Dichte	76
bereitete	76
übermäßige	76
ky@@	76
fin	76
ergebnisse	76
Fahrzeugs	76
fortschrei@@	76
Mikroorganismen	76
m.	76
auswirken	76
uten	76
beschi@@	76
Deg@@	76
spülen	76
Angesichts	76
Volumen@@	76
Beseitigung	76
245	76
wenigen	76
anhalten	76
untersuchte	76
essen@@	76
lok@@	76
rami@@	76
schließt	76
get	76
zufuhr	76
Fü@@	76
stabilen	76
Zustände	76
Zubereit@@	76
waschen	76
Verletzung	75
kern	75
rück@@	75
LAN	75
♦	75
Röntgen@@	75
Progra@@	75
jahren	75
zentrale	75
Produkts	75
ps@@	75
Organe	75
ckers	75
Basili@@	75
deckel	75
valle	75
ungsverfahren	75
Natur	75
inneren	75
sau@@	75
4,9	75
ess	75
wa@@	75
überleben	75
Zugehörigkeit	75
sichtig	75
32@@	75
Ve@@	75
vorgeschlagene	75
Steuer	75
Baby	75
Schlussfolgerungen	75
Markt	75
benutzt	75
operative	75
vorgesehenen	75
bur@@	75
Füße	75
Typs	75
station	75
.03.@@	75
irre@@	75
sichtige	75
Geh@@	75
Spitzen@@	75
,000	75
emo@@	75
vorlegen	75
sexuellen	75
465	75
431	74
einmalige	74
Begründung	74
unge@@	74
ear	74
liefern	74
produzieren	74
REL@@	74
ums@@	74
FR@@	74
eingehalten	74
leiter	74
sterben	74
tierte	74
überein	74
Basel@@	74
tions-@@	74
geräu@@	74
Teilnahme	74
227	74
LIA	74
PO	74
darstellt	74
34@@	74
Dru@@	74
vag@@	74
Abwehr@@	74
gedanken	74
tration	74
schlossen	74
HAL@@	74
stammen	74
olische	74
entsteht	74
ι	74
kompati@@	74
Republik	74
neues	74
ado@@	74
ZA	74
31@@	74
da-@@	74
entstehen	74
sät@@	74
visuell	74
kau@@	74
wechsel	74
AID@@	74
Sun@@	74
Ablauf	74
5,8	74
5,3	73
Biotechnologie	73
denken	73
teilnehmen	73
×	73
aufeinander@@	73
Schach@@	73
Ι@@	73
überlegen	73
So	73
Panz@@	73
aufgefordert	73
appar@@	73
ub@@	73
kno@@	73
kontakt	73
rt@@	73
136	73
8,5	73
dagegen	73
tera	73
mmi	73
warten	73
Differenz	73
vis	73
Antworten	73
steigerte	73
gestellten	73
umfasst	73
Tatsache	73
lischer	73
Ess@@	73
cher-@@	73
übertragen	73
Drittel	73
Gesamtzahl	73
Plans	73
säu@@	73
schlä@@	73
Verhält@@	73
genug	73
Aven@@	73
Wirbelsäule	73
wöchentlichen	73
grid	73
cul@@	73
glob@@	73
gerungen	73
ø@@	73
schwankungen	73
seinem	73
undurch@@	73
Pumpe	72
schließlich	72
Anbetracht	72
neben	72
vorzunehmen	72
katoren	72
sach@@	72
Aufmerksamkeit	72
ola@@	72
Alo@@	72
xi	72
wasser	72
Einheit	72
0.00	72
7,2	72
deutet	72
Chr@@	72
GT	72
beinhaltet	72
cr@@	72
Dick@@	72
Kinder@@	72
ungszeit	72
Gebär@@	72
Erkenntnisse	72
C.@@	72
Umgebung	72
stöcke	72
jeglicher	72
Budapest	72
sichtbar	72
166	72
NI@@	72
Üb@@	72
strau@@	72
stimuliert	72
entlichen	72
147	72
korrekt	72
Erarbeitung	72
Eindruck	72
lösungs@@	72
FL@@	72
Geschlechtsverkehr	72
...	72
Interessengruppen	72
stehend	72
PAS@@	72
sorgfältiger	72
kurzen	72
Technik	72
NAM@@	72
84@@	72
rier@@	72
ck-@@	72
Kurve	72
к@@	71
irgendeinem	71
GT@@	71
Katze	71
kala	71
gige	71
Partik@@	71
onische	71
18-@@	71
ores	71
DS	71
mmert	71
580	71
bes	71
ela@@	71
unterscheiden	71
Evi@@	71
Dokumenten	71
betreffenden	71
zutreffend	71
ú@@	71
Einrichtung	71
schützt	71
hu@@	71
Allergien	71
relevanter	71
fleisch@@	71
Des	71
kurze	71
Standard-@@	71
Entsprechend	71
I.	71
4,7	71
gemel@@	71
entscheidet	71
s.@@	71
Beine	71
mensch@@	71
leich@@	71
schrift	71
zentu@@	71
test@@	71
ethi@@	71
wollen	71
gin@@	70
Basis@@	70
Ammoni@@	70
rr@@	70
Verbesserungen	70
stechnik	70
gelangen	70
kreis@@	70
Tube	70
fan	70
Insbesondere	70
Farbe	70
aktivitäten	70
gegenwärtig	70
Bereichen	70
211	70
esen	70
fertig	70
535	70
krankheiten	70
Research	70
sofortige	70
produkten	70
weis	70
soweit	70
sinter@@	70
ausgenommen	70
Way	70
Stoffe	70
direkter	70
Partner	70
Teilchen	70
geomet@@	70
gerem	70
langfristige	70
logischen	70
Base	70
wiederholte	70
seines	70
vollen	70
nar@@	70
Rechnungs@@	70
pharmazeutischen	70
Gebrauchsan@@	70
Block@@	70
freiem	70
alisierung	70
agu@@	70
vierten	70
angef@@	70
SC	70
Morgen	70
direkten	70
Tele@@	70
54@@	70
vat	70
sigkeit	70
MO@@	70
milch@@	69
anth@@	69
w.	69
Tieres	69
bestanden	69
45-@@	69
höchstens	69
linsen	69
č	69
gefü@@	69
orte	69
low	69
Molek@@	69
also	69
verschle@@	69
Eingriffe	69
unklar	69
Tages	69
sspezi@@	69
wesentlichen	69
Vorschriften	69
anzeige	69
5,1	69
Company	69
Gilead	69
charakterisiert	69
schrei@@	69
stimmung	69
g.	69
R.@@	69
750@@	69
Europ@@	69
gend	69
positions@@	69
verwaltung	69
roren	69
Geweb@@	69
schwierigkeiten	69
Alt@@	69
Titel	69
kleiner	69
besitzen	69
str	69
hinweg	69
späteren	69
ger-@@	69
bedenken	69
FIN@@	69
erneute	69
cal	69
stärkere	69
1500	69
els@@	69
Lach@@	69
langsam@@	69
DR@@	68
zusätzlicher	68
170	68
Abweichungen	68
gesetzte	68
lang@@	68
Not@@	68
gesetzten	68
Ab	68
verfügt	68
nahme@@	68
lung@@	68
75@@	68
höheres	68
dren	68
Sofern	68
26,@@	68
220	68
komplette	68
eria	68
Gan@@	68
Vorsitzender	68
14-@@	68
43@@	68
301	68
Weg	68
ktor@@	68
angesichts	68
bende	68
LIN@@	68
hängen	68
effektive	68
gestör@@	68
viertes	68
äußeren	68
detes	68
DA	68
mani@@	68
6.3	68
8.2	68
spezifisches	68
technische	68
Geschwindigkeit	68
rip@@	68
Spuren	68
Sig@@	68
spielt	68
PT	68
Erholung	68
8.1	68
langsame	68
Sauerstoff	68
Mais@@	67
Mehrheit	67
Def@@	67
erzi@@	67
defizi@@	67
ide@@	67
Shi@@	67
Std.	67
pot	67
kräftig	67
Nähe	67
amm	67
up@@	67
Fel@@	67
Parasi@@	67
Waschen	67
spontan	67
kombination	67
unterliegt	67
Formulierungen	67
CC@@	67
stes	67
PAT@@	67
eigene	67
satz	67
5-0@@	67
Phosph@@	67
Sciences	67
erendes	67
aufgeklärt	67
alten	67
gegebenen	67
SF@@	67
mut	67
einheit	67
he	67
ungsprogramm	67
sichti@@	67
40-@@	67
tagen	67
u.	67
vertrat	67
Bearbeitung	67
atori@@	67
Geben	67
AE	67
gebrauchte	67
Anschrift	67
....@@	67
85@@	67
beabsichtigen	67
verschoben	67
2-3	67
Zentral@@	67
Bein@@	67
resse	67
Dokumenten@@	67
RS@@	67
kontinuierlichen	66
verhalten	66
innere	66
6,5	66
stage	66
typ@@	66
Antwort	66
mittel-	66
griff@@	66
Bruch@@	66
153	66
Grund@@	66
ober@@	66
TRO@@	66
Gehen	66
fanden	66
zunehmen	66
halt	66
Sexual@@	66
kra@@	66
kogni@@	66
funktionsfähig	66
167	66
Nei@@	66
Aminosäuren	66
dert	66
dieselben	66
inner@@	66
funktioniert	66
Psych@@	66
Beein@@	66
XP	66
Π@@	66
cine	66
logische	66
pfei@@	66
Gei@@	66
foli@@	66
iron@@	66
holi@@	66
Schwein@@	66
atta@@	66
spektiven	66
minimieren	66
SCHL@@	66
PF@@	66
einstellen	66
bern	66
nachweislich	66
Auto	66
orischen	66
mehrerer	66
Entwickl@@	66
rose	66
SD@@	66
vergi@@	66
matik	66
arbeiten	66
6.2	66
RF@@	66
veröffentlicht	66
Gaben	66
dunkel@@	66
Damit	66
‚	66
setzte	66
ann@@	66
geplant	66
geachtet	66
vermischt	66
ensystem	66
drück@@	65
ratsam	65
Futter@@	65
STA@@	65
versuch	65
363	65
4,3	65
5,9	65
einzige	65
minimale	65
fehlende	65
BIO@@	65
327	65
sicher@@	65
Adren@@	65
Sekretariat	65
änderungen	65
Daumen	65
Mark@@	65
blut	65
mechanismen	65
festgelegten	65
Hin@@	65
Agi@@	65
Gemeinschaft	65
Kleb@@	65
vorzu@@	65
ermöglichen	65
201@@	65
182	65
ähnliches	65
blau@@	65
dion	65
5,2	65
410	65
Agency	65
177	65
einnimmt	65
amt	65
63@@	65
ütt@@	65
Mögliche	65
tigungs@@	65
xis	65
Trav@@	65
Pfer@@	65
besch@@	65
Praha	65
zunehmende	65
basis	65
Nagel@@	65
atorische	65
chern	65
ence	65
amma	65
Deckung	65
zar@@	65
mittlerer	65
Einnahmen	65
knoten	65
gebrauch	65
getrennt	65
Oran@@	65
Xen@@	65
atten@@	64
ini	64
Lebensjahr	64
tives	64
etwa@@	64
Manife@@	64
PI	64
Familien@@	64
Einschränkungen	64
atory	64
lex@@	64
over@@	64
Grenz@@	64
medizin@@	64
jetzt	64
87@@	64
FT	64
Mineral@@	64
Ultraschall@@	64
Benutzung	64
verschwinden	64
50,@@	64
!	64
West	64
Phot@@	64
Erörterung	64
auszuschließen	64
saison@@	64
Niedri@@	64
wöchentliche	64
Isch@@	64
Weiteren	64
dienste	64
neun	64
grau@@	64
nochmals	64
RI	64
pumpen	64
eten	64
aufgezogen	64
SW@@	64
we@@	64
skrank@@	64
vorzulegen	64
her	64
457	64
dec@@	64
tü@@	64
orm	64
Misch@@	64
Schwankungen	64
homo@@	64
denden	64
Nil@@	64
management	64
Annahme	64
zar	64
Aspekte	63
genetischen	63
Revision	63
tet	63
stationen	63
0.5	63
Information@@	63
Herstell@@	63
dg@@	63
ersetzen	63
Festlegung	63
rechtfertigt	63
halbe	63
Krankenhaus@@	63
ermitteln	63
separate	63
becher	63
tlich	63
Y-@@	63
Neigung	63
schädlich	63
iges	63
vergleichbaren	63
Funktionen	63
entwickelte	63
beantragte	63
formu@@	63
Ersatz	63
Polen	63
Keu@@	63
ks	63
Medikam@@	63
Antrags@@	63
407	63
kels	63
Feuchtigkeit	63
Verkür@@	63
cop@@	63
Antrag@@	63
KON@@	63
lar	63
21-@@	63
ge-@@	63
n.@@	63
WHO	63
dringend	63
Industri@@	63
Well@@	63
analo@@	63
alität	63
xen	63
176	63
ar-@@	63
Ny@@	63
CIS	63
Wi@@	63
mitt@@	63
1250	63
behandlungen	63
mol@@	63
Interesse	63
gol@@	63
Sant@@	63
Arbeiten	63
erneuten	63
FS	62
By@@	62
eno@@	62
neg@@	62
cia	62
→	62
Island	62
Gehirn@@	62
CHER@@	62
Sau@@	62
Aufsatz	62
verabschiedet	62
Schraub@@	62
eng	62
natürlich	62
Fruchtbarkeit	62
406	62
kompli@@	62
schaft	62
erbar	62
Schlussfolgerung	62
gesetzter	62
pflanzliche	62
schaden	62
Rest	62
Gehalt	62
Werkzeuge	62
Erk@@	62
Jahresbericht	62
illa@@	62
Anwendungen	62
xion	62
Kör@@	62
Geburts@@	62
ernde	62
om-@@	62
Veröffentlichungen	62
sonst	62
KA@@	62
⋅	62
GI@@	62
kör@@	62
ak	62
Programms	62
letzte	62
etho@@	62
4.9	62
tretenen	62
ppe-@@	62
Rückseite	62
New	62
Höhe	62
Kath@@	62
Punk@@	62
Aroma	62
Träger@@	62
Tur@@	62
hierzu	62
allgemeines	62
orange	62
Leiterin	62
455	62
ktiven	61
ZEN	61
ea@@	61
flüssi@@	61
lau@@	61
Points	61
ktiver	61
mentierung	61
TC@@	61
Click	61
unzureichende	61
χ@@	61
163	61
haft	61
209	61
kinder	61
288	61
Themen	61
Monats@@	61
mess@@	61
liefen	61
Beachten	61
beginnend	61
zen@@	61
gereinigt	61
ki@@	61
70-@@	61
cy	61
145	61
opie	61
Berichten	61
37,@@	61
bilität	61
Alters	61
voraussichtlich	61
PL	61
Tinte	61
Use	61
ühren	61
156	61
notwendigen	61
Ls	61
seltener	61
190	61
pal@@	61
leidet	61
mä@@	61
22.@@	61
Management-@@	61
ri	61
Fall@@	61
ba	61
MET@@	61
kontaktieren	61
Ganz@@	61
straat	61
Seife	61
ith@@	61
nachfolgende	61
dale	61
edu@@	61
Corporation	61
masse	61
Spar@@	61
kontinuierlich	61
demie	61
222	61
typ	61
Kab@@	61
Heil@@	61
operationen	61
Slowenien	61
lierten	61
progressi@@	61
Gedanken	61
Bestätigung	61
120@@	61
48-@@	61
Erleichterung	61
jegliche	61
gemeinsamen	61
RC@@	60
entschieden	60
erleiden	60
ration@@	60
einheitlich	60
sicherheit	60
100-@@	60
nationaler	60
behörden	60
lus	60
europäische	60
Antrags	60
isch-@@	60
monatlichen	60
Sicht@@	60
Reaktions@@	60
neben@@	60
Durchschnitt@@	60
einzeln	60
Problem	60
dende	60
eher	60
genetische	60
Partner@@	60
omen@@	60
sen-@@	60
Diskussion	60
usw.	60
sogenannten	60
leit@@	60
Gyn@@	60
cer	60
316	60
425	60
rechnen	60
sab@@	60
bietet	60
gültig	60
etzen	60
sol	60
67@@	60
mat	60
vorkommen	60
Kreislauf@@	60
CAR@@	60
sexuelle	60
obere	60
empfindlichen	60
materialien	60
Unterlagen	60
erhebliche	60
chender	60
ti	60
üblich	60
beigefügt	60
spin@@	60
eman@@	60
Trinken	60
3-4	60
beeinflus@@	60
höhlen	60
169	60
pum@@	60
schlafen	60
kommenden	60
Amo@@	60
Messungen	60
bett@@	60
CAL@@	60
fenster	60
stamm	60
Risk	60
diejenigen	60
eo@@	60
ison@@	60
gue	60
Ebene	60
dation	60
Trü@@	60
stabiler	60
passiert	60
stände	60
film@@	60
224	60
Knö@@	60
inc@@	59
lige	59
consi@@	59
rechten	59
gate	59
ativ@@	59
Straße	59
ge-	59
bran	59
Problemen	59
ült	59
EF	59
HT@@	59
schädliche	59
Glau@@	59
ktivität	59
ym	59
technischen	59
versuche	59
unterscheidet	59
Hinsichtlich	59
rosa	59
tors	59
Kühl@@	59
Bal@@	59
ī	59
akzeptabel	59
13-@@	59
dauerte	59
öffentlichen	59
cks	59
15.	59
Weiterhin	59
Tabellen	59
jemals	59
sus@@	59
Wärme@@	59
sichtbaren	59
Wiederauf@@	59
halts	59
Diff@@	59
hinzugefügt	59
Wa@@	59
PP	59
operi@@	59
Ras@@	59
haften	59
KIN@@	59
Konferenz@@	59
vornehmen	59
Ai@@	59
fes	59
reg@@	59
führ@@	59
ate-@@	59
minimal	59
Wunden	59
Polymer@@	59
Wissenschaftliche	59
adul@@	59
ket@@	59
aust@@	59
zudem	59
generation	59
arbeitete	59
39,@@	59
chirur@@	59
366	59
Seit	59
lassungen	59
langsamer	59
Gleichgewi@@	59
bezogenen	59
Pig@@	59
justi@@	59
angaben	59
stau@@	59
etes	59
UV@@	59
schen@@	58
gekommen	58
215	58
merkmale	58
pig@@	58
außergewöhnlichen	58
Gute	58
dig	58
wohl	58
erungen	58
280@@	58
to-@@	58
erteilt	58
Komplex	58
Perg@@	58
teilnahmen	58
ierter	58
XX@@	58
ausgegangen	58
sechs@@	58
miert	58
bereiches	58
Behörde	58
Seiten	58
belastung	58
NL	58
mph@@	58
35,@@	58
National	58
Ful@@	58
vest@@	58
Kenntnis	58
Herz-Kreislauf@@	58
Eigen@@	58
Lip@@	58
verlauf	58
Einreichung	58
Abend	58
que-@@	58
isoli@@	58
Prop@@	58
Schei@@	58
Erfolg	58
beruhen	58
nichts	58
Chi@@	58
entle@@	58
Soj@@	58
jo@@	58
Safety	58
Flus@@	58
digt	58
IB	58
parameter	58
Obergrenze	58
Beziehung	58
Zelle	58
Bewertungs@@	58
Erscheinungen	58
Development	58
Wesentlichen	58
ple@@	58
klebt	58
atorischen	58
Folien@@	58
spont@@	58
by	58
G1	57
1.500	57
Tierarten	57
terium	57
pat@@	57
Behinderung	57
TAR@@	57
165	57
heißt	57
vorhandene	57
großer	57
ple	57
egelung	57
folge	57
ard-@@	57
erfolg@@	57
berühren	57
pres@@	57
Transfer@@	57
w.@@	57
eins@@	57
Potenzi@@	57
DN@@	57
erhoben	57
Ort	57
gkeiten	57
117	57
konsultieren	57
Weniger	57
krise	57
BE	57
folg	57
öl@@	57
erinnern	57
Leistungs@@	57
wichtiger	57
case	57
TIM@@	57
langfristigen	57
-Sy@@	57
merk@@	57
Korrektur	57
uter@@	57
Solche	57
Perio@@	57
8,0	57
ergreifen	57
umfassende	57
absoluten	57
337	57
resultiert	57
Lep@@	57
vermittelt	57
pflichtigen	57
º	57
vermutet	57
arben	57
29,@@	57
sprech@@	57
dürfte	57
Vermeiden	57
nten	57
unk@@	57
pf	57
spe@@	57
Vereinigten	57
Oxi@@	57
ir	57
Sprach@@	57
36,@@	57
Β@@	56
CK@@	56
418	56
tigem	56
wich	56
position@@	56
Behr@@	56
Fuß@@	56
wahren	56
VOR@@	56
dor@@	56
bös@@	56
aktion	56
bestätigen	56
GK@@	56
Handels@@	56
stil@@	56
Bratislava	56
ctor	56
Kit	56
Platten@@	56
gan	56
positiver	56
minimalen	56
spielen	56
Puls	56
fehlender	56
nd	56
Entwicklungs@@	56
Verkauf	56
schloss	56
398	56
rechtfertigen	56
unterschiedlicher	56
Pres@@	56
Ausgaben	56
100.000	56
allo@@	56
resulti@@	56
141	56
158	56
Alternative	56
geschätzte	56
411	56
ф@@	56
match	56
marks	56
scheinen	56
Definition	56
linien	56
Dire@@	56
1400	56
Haushalt	56
fle@@	56
--------@@	56
Jahr@@	56
Prozent	56
einigungen	56
beck	56
weitgehend	56
berechnen	56
Č@@	56
essenti@@	56
Hom@@	56
SQ@@	56
Klicken	56
New@@	56
Stockholm	56
Episode	56
endgültige	56
brüchen	56
Reproduktion	56
ACT	56
jährlichen	56
Hosp@@	56
Fahr@@	56
Niveau	56
äh@@	56
LD	56
Internet	56
Materialien	56
sec	56
atmen	56
Van@@	56
dea	56
408	56
stärk@@	55
lear@@	55
330	55
317	55
letter	55
etwaige	55
Regi@@	55
Email	55
Empf@@	55
Schäden	55
rasche	55
geplanten	55
gebrochen	55
betra@@	55
berech@@	55
erungs@@	55
aufnehmen	55
Weiß@@	55
SR@@	55
circa	55
gerechtfertigt	55
Vorsitzenden	55
Pomp@@	55
Leg@@	55
illen@@	55
typen	55
Defe@@	55
würden	55
Le	55
phän@@	55
geeigneter	55
Wer@@	55
Hol@@	55
ungsplan	55
149	55
gut@@	55
sern	55
absichti@@	55
Man	55
Zudem	55
laufender	55
Punkt	55
nt@@	55
gessene	55
nie@@	55
endgültig	55
Strasse	55
uss	55
ausreichender	55
Kammer@@	55
$	55
esta	55
Kraft@@	55
Operations	55
nifi@@	55
gefüllt	55
Intensität	55
doppelt	55
Σ	55
Ο@@	55
Parallel@@	55
Start@@	55
photo@@	55
arn@@	55
ktiv	55
sens@@	55
bereiteten	55
Anwendern	55
ausgewertet	55
Grenze	55
spra@@	55
muß	55
verschlechter@@	55
ments	54
Glo@@	54
Stück	54
festlegen	54
hervor	54
13.@@	54
klär@@	54
4-0@@	54
micro@@	54
Hundes	54
ace@@	54
Gegensatz	54
enge	54
folgendermaßen	54
Kälte@@	54
unden@@	54
leeren	54
öhnung	54
Dünn@@	54
Bereich@@	54
binden	54
TT	54
WAR@@	54
verloren	54
Drei	54
AST@@	54
geschwä@@	54
punk@@	54
vorgeschrieben	54
ede@@	54
Stand	54
OG	54
Altersgruppen	54
Fraktion	54
simp@@	54
Psychiat@@	54
Line-@@	54
ham	54
ONE	54
ergänz@@	54
Kau@@	54
Getränke	54
WER@@	54
Ü	54
о@@	54
gelegten	54
XXX	54
Reise@@	54
sli@@	54
säule	54
besser@@	54
7.5	54
bestä@@	54
rh@@	54
raumes	54
laufen	54
elli@@	54
401	54
habern	54
verbesserten	54
75-@@	54
ensi@@	54
arme	54
biologischer	54
auflösen	54
erheblichen	54
у@@	54
einla@@	54
341	54
Informationstechnologie	54
ursprünglichen	54
periode	54
stützen	54
IS-@@	54
zentral@@	54
herstellt	54
ves@@	54
sammlungen	54
456	54
Lyon	54
gasse	54
mod	54
aden@@	53
spi@@	53
altab@@	53
Mira@@	53
hierfür	53
Α	53
Neben	53
TL@@	53
bereiten	53
Stoffwechsel	53
Vermehr@@	53
Duo	53
38,@@	53
1050	53
sit@@	53
stagen	53
steck	53
flusses	53
NH@@	53
igem	53
git@@	53
stanz@@	53
zwölf	53
einstellung	53
erbaren	53
Verletzungen	53
dort	53
la-@@	53
tional	53
Informa@@	53
Ersuchen	53
niedrigsten	53
EIT@@	53
sinkt	53
Schicht	53
cta@@	53
bereiche	53
TER	53
einfach	53
skop@@	53
Ide@@	53
д@@	53
MD@@	53
Standard	53
erfol@@	53
relation	53
164	53
cher	53
ut	53
ance-@@	53
а	53
trages	53
Mes@@	53
ST-@@	53
Gebühren@@	53
meldungen	53
gewohnten	53
Quick@@	53
287	53
Denken	53
wiederkehr@@	53
Card@@	53
-1	53
tigung	53
SH@@	53
Raten	53
ordnete	53
432	53
CE@@	53
zeitraums	53
geordnet	53
geringem	53
dritte	53
Kommunikation	53
Cr@@	53
Termin	53
farben	53
flamm@@	53
eini@@	53
Zeitraums	53
204	53
Gar@@	53
lig	53
Mechanismen	53
376	53
vorherigen	52
strategie	52
verse	52
erwartete	52
257	52
Spezielle	52
hang	52
OB@@	52
assi@@	52
befolgt	52
gar@@	52
umge@@	52
stimmte	52
EU-Mitgliedstaaten	52
tiker	52
geltenden	52
schie@@	52
einzigen	52
ges@@	52
beziehen	52
deutliche	52
gesundheit	52
Folie	52
Alternativ	52
kungen	52
Beobachtungen	52
starkem	52
Brussels	52
stabile	52
γ	52
ater	52
261	52
Prüfen	52
Direktor	52
Berechnung	52
amo@@	52
Frühstück	52
gend@@	52
maßnahme	52
CHT	52
häufigen	52
miner@@	52
550	52
brachen	52
trau@@	52
Reserve	52
nehmen@@	52
Kosten@@	52
Geschmack	52
Besch@@	52
97@@	52
š	52
come	52
blauen	52
unkompli@@	52
Rig@@	52
typischerweise	52
0000	52
Sicht	52
nationale	52
Jahres@@	52
12.	52
ley	52
lagerung	52
Ziele	52
Organisation	52
Chel@@	52
g.@@	52
	52
Kum@@	52
Meinung	52
leist@@	51
283	51
eingerichtet	51
Lab@@	51
Sekret@@	51
produ@@	51
leistungs@@	51
reli@@	51
217	51
hilfe	51
Schrauben	51
Μ@@	51
Maß	51
248	51
s.	51
Breite	51
ere@@	51
einigte	51
Bisher	51
blau	51
Fli@@	51
maler	51
vierter	51
lten	51
nachstehend	51
nehm@@	51
aggressi@@	51
up	51
einhalten	51
beziehungsweise	51
Säuge@@	51
zugestimmt	51
welchen	51
Fließ@@	51
verletzungen	51
mpfen	51
540	51
11-@@	51
Boden	51
323	51
müde	51
Alk@@	51
kosten	51
Erei@@	51
Koordin@@	51
einschließen	51
egel@@	51
alisierten	51
Schweiß@@	51
255	51
stiegs	51
4.7	51
aktu@@	51
Energie	51
eingef@@	51
soliden	51
gemeinsamer	51
abnehmen	51
hangs	51
fü@@	51
Klassen	51
Fehlen	51
Überarbeitung	51
öffentliche	51
Heb@@	51
Verzehr	51
Vag@@	51
implan@@	51
völlig	51
auer	51
BESCH@@	51
cl@@	51
vorangegangenen	51
ena@@	51
chig	51
Ausprä@@	51
gum@@	51
sia	51
Del@@	51
Uni@@	51
ingern	51
dens	51
Aufgabe	51
Matrix	51
reagiert	51
Ursprungs	51
Wild@@	51
345	51
EE	51
192	51
-Sitz@@	51
Tablets	51
vesti@@	51
iel@@	50
oberhalb	50
ber-@@	50
GRA@@	50
grenz@@	50
223	50
schi@@	50
aufmerksam	50
fähige	50
Vereinigte	50
ores@@	50
kurzer	50
reprodu@@	50
armen	50
Tax@@	50
übergehen	50
bar@@	50
wichtigste	50
schwach@@	50
Vielzahl	50
sogenannte	50
Wilson	50
Transpor@@	50
artik@@	50
erstma@@	50
m.@@	50
etabliert	50
70@@	50
vance	50
267	50
jes@@	50
meistens	50
Ora@@	50
bie	50
früh	50
deutlichen	50
Е@@	50
Auswahl	50
plans	50
raschen	50
Institut	50
Mum@@	50
pel@@	50
anteil	50
BN	50
Klassi@@	50
191	50
erklärt	50
ik@@	50
geheilt	50
Aktualisierung	50
zulassung	50
Therapeu@@	50
ßig	50
Pl@@	50
gek@@	50
..@@	50
21.@@	50
zeitlichen	50
SI-@@	50
pumpe	50
nieder@@	50
Gro@@	50
Stadien	50
qualität	50
bezieht	50
Wählen	50
det@@	50
äußern	50
ovi@@	50
Sitz@@	50
chirurgische	50
relax@@	50
etz@@	50
46,@@	50
Punkten	50
Temperaturen	50
steine	50
We@@	50
langsamen	50
off	50
Erhalt	50
me-@@	50
Office	50
Repli@@	50
409	50
sitz@@	50
Hühner@@	50
undes	50
erhol@@	50
adap@@	50
8,2	50
179	50
gewünschte	50
Winkel	50
ė	49
reinigen	49
Bör@@	49
Äquival@@	49
249	49
ana	49
blichkeit	49
Neue	49
Η@@	49
Initiativen	49
6,3	49
hierbei	49
mangel@@	49
ang@@	49
dische	49
fehlenden	49
Anwesenheit	49
49,@@	49
verläuft	49
linken	49
breite	49
sichtigen	49
28-@@	49
weises	49
310	49
schlecht	49
293	49
PDT	49
∞	49
modell	49
zunehmenden	49
ken-@@	49
Design	49
gerecht	49
154	49
verzeichnen	49
AM	49
Dur@@	49
bereitgestellt	49
EINE	49
optimalen	49
schlägen	49
bewer@@	49
akzeptiert	49
vermögens	49
aufzunehmen	49
öst@@	49
historischen	49
verlängern	49
Rau@@	49
Gy@@	49
uman@@	49
Vorsitz	49
erfüllt	49
biologisch	49
235	49
MAG@@	49
irgendeine	49
ladung	49
mussten	49
Implementierung	49
7000	49
nes@@	49
anstelle	49
anes	49
Unit	49
öses	49
modu@@	49
lebens	49
Hampshire	48
sed	48
Lebensmittel@@	48
verbleibt	48
Netherlands	48
gefüh@@	48
Zugabe	48
stamm@@	48
Pet@@	48
Nerven	48
Schlüssel@@	48
Transport@@	48
ver-@@	48
Plo@@	48
189	48
Betrieb	48
tics	48
tätig	48
gem@@	48
lings@@	48
Mast@@	48
mutter	48
Abschnitten	48
erkennt	48
angel	48
Abteilung	48
nau@@	48
Aufbewahr@@	48
Verantwortung	48
längerer	48
erkennbar	48
zess	48
aktualisierte	48
LC	48
ABl	48
2-4	48
eintreten	48
erstellt	48
nacht@@	48
Deli@@	48
jähriger	48
ires	48
Vorher@@	48
tikel	48
arbeitet	48
leichtes	48
findet	48
Unterdrückung	48
90-@@	48
Den@@	48
ory	48
AK@@	48
volumens	48
SAT@@	48
---	48
bestätigte	48
folgendes	48
passion@@	48
EIT	48
Verbindungen	48
lö@@	48
decke	48
-20	48
138	48
Mobilisierung	48
blei@@	48
requ@@	48
chinesischen	48
semi@@	48
internationale	48
MAN@@	48
form@@	48
stecken	48
269	48
OX@@	48
antik@@	48
NG@@	48
ame	48
artigen	48
sagt	48
ellem	48
resi@@	48
heraus@@	48
stein@@	48
netes	48
307	48
sale	48
Gramm	48
tischem	48
elektronischen	48
verlieren	48
ästhe@@	48
Manufa@@	48
484	48
Vorschlag	47
habers	47
steten	47
gerichtet	47
inta@@	47
Maximum	47
entschied	47
vorausgesetzt	47
spiegel@@	47
Deckel	47
rine	47
dene	47
LOG@@	47
schluss	47
Gefrier@@	47
Prozent@@	47
CAM@@	47
Koh@@	47
Bekämpfung	47
bestätigten	47
wachs	47
present@@	47
zten	47
Leistung	47
Umwandlung	47
Dal@@	47
Rasse	47
samkeit	47
243	47
side	47
Kni@@	47
befähi@@	47
Signal@@	47
operativ	47
zus@@	47
364	47
losen	47
Evaluation	47
dine	47
Spektrum	47
San	47
vorschriften	47
Athens	47
externen	47
wischen	47
versorgung	47
stück	47
xon	47
dargelegt	47
festen	47
höhle	47
High	47
zieh@@	47
hum@@	47
Schäd@@	47
taten	47
12.5	47
wachsenden	47
Gewi@@	47
ems	47
Komplex@@	47
Dunkel@@	47
Frankfurt	47
frühere	47
Fr@@	47
variieren	47
esis	47
Care	47
laufs	47
264	47
199	47
р@@	47
geschieht	47
geleg@@	47
19-@@	47
willkür@@	47
Berlin	47
Gür@@	47
Bay@@	47
k-@@	47
cturing	47
383	47
sing@@	46
Umstände	46
bezogene	46
Reser@@	46
nes	46
500@@	46
Wind@@	46
endeten	46
313	46
Blase	46
ved	46
Desinfe@@	46
Haarlem	46
korrigi@@	46
bewegungen	46
ernannt	46
PU@@	46
abzugeben	46
unterliegen	46
schnell@@	46
atives	46
vorliegende	46
bewusst	46
297	46
kologie	46
cher@@	46
haltenden	46
verständigen	46
herangezogen	46
öffnen	46
Со@@	46
not@@	46
Gegenstände	46
gegenseitige	46
198	46
vorkommt	46
liefert	46
tierende	46
paper	46
haftes	46
Nacht@@	46
Eiweiß	46
einsetzen	46
nachzuweisen	46
tis@@	46
feh@@	46
verkür@@	46
vermehrt	46
Liqu@@	46
194	46
80-@@	46
φ@@	46
Scho@@	46
0.0@@	46
konstant	46
625	46
ches	46
ders	46
Standards	46
alte	46
gegeb@@	46
ant-@@	46
REN@@	46
ré@@	46
aktives	46
2500	46
schwächen	46
ließen	46
az	46
Konsequenzen	46
mann	46
Stabilisierung	46
Wiederherstellung	46
Litauen	46
1.5	46
æ@@	46
TS	46
Zypern	46
173	46
benden	46
region	46
278	46
Filter	46
332	46
Dra@@	46
dien	46
jährige	45
Pani@@	45
vermu@@	45
Schaum@@	45
NJ	45
grupp@@	45
hauses	45
arte	45
weiche	45
schwarzen	45
chteten	45
zuständig	45
einmalig	45
gebor@@	45
Sele@@	45
gewisse	45
ungs	45
derartigen	45
Schnapp@@	45
pass	45
Stämmen	45
schil@@	45
Pir@@	45
vall@@	45
Fix@@	45
Hierbei	45
hören	45
Einfuhr	45
Hierzu	45
Rechtsvorschriften	45
sank	45
aal	45
Σ@@	45
stimm@@	45
26.@@	45
ara	45
Co	45
Periode	45
MED@@	45
zugelass@@	45
zellen@@	45
haltung	45
anwen@@	45
Zucht@@	45
stufen@@	45
körperlicher	45
Öffentlichkeit	45
Dossi@@	45
Rout@@	45
GES@@	45
wachsen	45
denselben	45
dat@@	45
с@@	45
Mau@@	45
unterschied	45
drän@@	45
psych@@	45
voll@@	45
299	45
Verlangen	45
kleb@@	45
181	45
voraus@@	45
b.	45
EWR	45
Update	45
Kern@@	45
271	45
459	45
perio@@	45
eat	45
braune	45
komplizierten	45
spitz@@	45
iden@@	45
meda@@	45
bekämpfen	45
Manche	45
139	45
RES@@	45
ologisches	45
275	45
lichkeit@@	45
Γ@@	45
GD	45
ér@@	45
alles	45
klero@@	45
Ausbildung	45
BW@@	45
enz-@@	45
Wir@@	45
YS	45
stad	45
Ähnliche	45
OP	45
begann	44
vereinbarten	44
Rel@@	44
schätzung	44
Gemeinschaften	44
sammeln	44
Ram@@	44
400@@	44
9,7	44
legt	44
Dem	44
erstmals	44
Mitgliedsstaaten	44
Konferenz	44
verschlechtert	44
beid@@	44
anschließ@@	44
handel@@	44
dokumentiert	44
Mé@@	44
wirksames	44
zuzu@@	44
syl@@	44
Logo	44
D-	44
oberfläch@@	44
Dienstleistungen	44
teren	44
Effekten	44
res	44
PR	44
och@@	44
erkenn@@	44
650	44
XX	44
Ps	44
Koordinierungs@@	44
Länge	44
Gegenstand	44
Fortschritte	44
Zink	44
bildes	44
bewerten	44
Abhängig	44
Φ@@	44
ckern	44
gewechselt	44
Gala@@	44
lineare	44
rel@@	44
Exp@@	44
aket	44
Apotheke	44
rauchen	44
same	44
98@@	44
hom@@	44
nämlich	44
mc@@	44
bewegen	44
breiten	44
Veröffentlichung	44
größte	44
umpe	44
Aust@@	44
steigenden	44
mid@@	44
tium	44
Suchen	44
Spr@@	44
ash	44
Meri@@	44
rascher	44
Previ@@	44
Tech@@	44
ding	44
fasste	44
prüfte	44
auszugleichen	44
beste	44
Thor@@	44
benachrichtigen	44
Erwachsenen@@	44
Verhütung	44
fam@@	44
237	44
6,4	44
cos	44
geringes	44
Förderung	44
Harmon@@	44
automatischen	44
Trin@@	44
2001-@@	44
kanal@@	44
Paraff@@	44
net@@	44
artiger	44
gemi@@	44
251	44
Estate	44
Bild	44
weißem	44
wiederum	44
größerer	44
Heu@@	44
7,6	44
eien	44
Angehörigen	44
systeme	44
erklär@@	44
─	44
64@@	44
näher	43
mut@@	43
Berührung	43
Festsetzung	43
ds@@	43
gelegenen	43
artig	43
Km	43
Ol@@	43
schädlichen	43
LA	43
kohle	43
giger	43
De	43
Direkt@@	43
stan@@	43
tex@@	43
Skala	43
vorgesehene	43
stiger	43
Klebe@@	43
419	43
barem	43
bil@@	43
onalen	43
gent@@	43
herausgegeben	43
Wege	43
schn@@	43
visi@@	43
Bevölkerung	43
teilte	43
exten@@	43
ktiv@@	43
Mädchen	43
durchgeführte	43
ty@@	43
Matri@@	43
470	43
zogen	43
räume	43
Sar@@	43
ε	43
stufen	43
Anwen@@	43
Sensi@@	43
skom@@	43
н@@	43
jederzeit	43
Belege	43
geschle@@	43
media	43
ohnen	43
reifen	43
mie@@	43
BH@@	43
barkeits@@	43
Becken@@	43
Leben	43
skarte	43
person@@	43
länger@@	43
siv	43
und-@@	43
gelist@@	43
serre@@	43
Bestimmte	43
werts	43
mierten	43
17-@@	43
Struktur	43
erli@@	43
flache	43
eth@@	43
aero@@	43
schwierig	43
119@@	43
heitss@@	43
reife	43
tere	43
stehender	43
34-@@	43
basierte	43
Familie	43
95@@	43
Gesundheitszustand	43
Es@@	43
Tschechische	43
Initiative	43
EUR	43
folgendem	43
ability	43
getragen	43
Tallinn	43
CK	43
row	43
Magnet@@	43
wol@@	42
effizient	42
Standar@@	42
hro@@	42
Rücknahme	42
Schmer@@	42
SION	42
venz@@	42
zum@@	42
verzögern	42
daraus	42
internen	42
paar	42
Dreh@@	42
bestimm@@	42
cis	42
ess-@@	42
bridge	42
296	42
stration	42
Ergänzung	42
nu@@	42
DF@@	42
34,@@	42
effekt	42
stock@@	42
302	42
ausgewiesen	42
gar	42
Posi@@	42
47,@@	42
256	42
solution	42
verlaufen	42
gestell@@	42
Jo@@	42
Д	42
überwachung	42
Symptom	42
Herstellungs@@	42
Gebühren	42
414	42
broschür@@	42
ener@@	42
genommene	42
nutzen	42
oli	42
hafter	42
Leder@@	42
anu@@	42
DH@@	42
PAR@@	42
effektiv	42
Hinweisen	42
Plan@@	42
Pilze	42
18.	42
gerechnet	42
Ganzen	42
gbar	42
.....	42
jahr	42
Fle@@	42
FA	42
aktualisierten	42
gering@@	42
----------------@@	42
ihm	42
gewiesenen	42
erbracht	42
heimer	42
PLUS	42
....	42
Anhalt@@	42
5.000	42
äch@@	42
ou	42
KE	42
Ausgehend	42
475	42
ausreicht	42
в@@	42
intensi@@	42
geschehen	42
uch	42
347	42
Leitung	42
Einklang	42
ungewöhn@@	42
Vorgehensweise	42
Emp@@	42
Vilnius	42
wirkende	42
einbezogen	42
Schwein	42
Dann	42
statischen	42
pern	42
Dé@@	42
1800	42
ständigen	42
Abweichung	42
bestand@@	42
Rü@@	42
niere	42
steigern	42
б@@	42
wesentliche	42
Ecu@@	42
PN@@	42
21@@	42
Rücken	42
Begren@@	42
nachzu@@	42
Einen	42
förmi@@	42
Niederlanden	41
lle	41
340	41
Zeitspanne	41
DE-@@	41
Klar@@	41
rischer	41
pos@@	41
NEH@@	41
neigen	41
Ds	41
Anteils	41
jährliche	41
reichende	41
Lettland	41
sts	41
Konzentra@@	41
wan@@	41
konser@@	41
mpf	41
291	41
Mindest@@	41
Wur@@	41
wertung	41
reitet	41
Co-@@	41
Einzelfall	41
TW@@	41
Appeti@@	41
Kohlenhydra@@	41
Mitglied	41
MUL@@	41
verblei@@	41
16.	41
dings	41
148	41
groß	41
stie	41
gruppen@@	41
sid	41
fortzusetzen	41
Modi@@	41
426	41
zufriedenstellend	41
bezo@@	41
2.000	41
development	41
Zei@@	41
MEL@@	41
TRI@@	41
erreichte	41
10,5	41
Trock@@	41
Echo@@	41
nest@@	41
leere	41
TION	41
tigter	41
zurückgezogen	41
ain	41
Untersuch@@	41
guten	41
501	41
änderte	41
CC	41
ungsprozess	41
dreh@@	41
Labor	41
Ach@@	41
277	41
ffer@@	41
irgendeiner	41
344	41
befin@@	41
geschä@@	41
Pflanz@@	41
Division	41
ISCHE	41
Handschuhe	41
verhältnis	41
Konservierungs@@	41
--@@	41
Dokuments	41
Übersicht	41
gebur@@	41
Kolo@@	41
übermäßigen	41
Sam@@	41
Polyamid	41
exi@@	41
sili@@	41
244	41
läu@@	41
440	41
Ganzes	40
entation	40
übersteigt	40
gedreht	40
ebene	40
stimmt	40
stabili@@	40
liste	40
IX@@	40
Mari@@	40
einzusetzen	40
TZ@@	40
gendes	40
Io@@	40
Anleitungen	40
pg	40
onale	40
erfasst	40
gro@@	40
stufe	40
t-	40
74@@	40
qualifizierten	40
hinter	40
befindliche	40
Oslo	40
forderte	40
Stufe	40
riebenen	40
frühe	40
Derzeit	40
266	40
dre@@	40
locker	40
sie@@	40
analysen	40
heiten	40
wo@@	40
geri@@	40
aufgezeigt	40
ch-@@	40
292	40
äußer@@	40
Anfrage	40
licht@@	40
beantragt	40
stisches	40
ώ@@	40
sämtlichen	40
Temperatur@@	40
ese@@	40
eck@@	40
Strahlung	40
stabilisiert	40
sistent	40
weichung	40
31.@@	40
gelben	40
potenzi@@	40
Sing@@	40
get@@	40
Gesamth@@	40
A6	40
336	40
schreibt	40
hergestellte	40
hes@@	40
zit@@	40
bach	40
gerungs@@	40
Säure	40
graphie	40
Alfa	40
chtung	40
Verfahrens@@	40
zien	40
480	40
S-	40
Angelegenheiten	40
schriftliche	40
tierischen	40
325	40
vorlagen	40
sensibili@@	40
Schwe@@	40
schicht	40
tierender	40
ská	40
322	40
z.@@	40
hing	40
FI	40
inde@@	40
herzustellen	40
probe	40
jemand	40
Mindestens	40
Verunreinigungen	40
ruft	40
nummer	40
stick@@	40
klaren	40
Rela@@	40
352	40
sich@@	40
leer	40
assozi@@	40
mur@@	40
erwägen	40
weisungen	40
32-@@	40
egi@@	40
ester	40
flus@@	40
unterdrückt	39
un-@@	39
Bad	39
68@@	39
No.	39
glas	39
ssen@@	39
Herstellers	39
463	39
O.@@	39
ala	39
Aggression	39
Organismen	39
Ν@@	39
korrigiert	39
DAT@@	39
aken	39
ssystems	39
starkes	39
gebo@@	39
keln	39
scher@@	39
zunehmender	39
Ausnahme@@	39
erbare	39
Stufen	39
restlichen	39
komm@@	39
Maus	39
tions	39
erzielten	39
KEN@@	39
erwähnten	39
lete	39
Operations@@	39
159	39
setzten	39
stö@@	39
59,@@	39
demselben	39
2-0@@	39
stärken	39
spenden	39
Solution	39
bot@@	39
gegenwärtigen	39
Sitzen	39
387	39
fassung	39
erleichtern	39
2000-@@	39
berichts	39
jugend@@	39
о	39
feuchten	39
ständi@@	39
muster	39
Ale@@	39
262	39
lierte	39
Streifen	39
BP	39
ganze	39
228	39
pharmazeutische	39
DP@@	39
gelitten	39
dyl@@	39
zweier	39
Frucht@@	39
gew@@	39
Laser@@	39
20.	39
Kategorien	39
beri@@	39
wenigstens	39
Aufbau	39
Erhaltung	39
verlu@@	39
Prozess	39
nder	39
ende@@	39
tter@@	39
ç@@	39
streng	39
Gegeb@@	39
enenfalls	39
ül	39
KAN@@	39
opf@@	39
Arbeit@@	39
Eng@@	39
Mat@@	39
Muster	39
gesichert	39
----@@	39
Mangels	39
Träger	39
Ergänz@@	39
veränderten	39
A1	39
Erkennung	39
272	39
ter-@@	39
grad	39
alli@@	39
Sweden	38
bitten	38
GS	38
olen	38
800@@	38
Leistungsfähigkeit	38
viol@@	38
Melan@@	38
größten	38
Selten@@	38
236	38
Ρ@@	38
lossenen	38
äußerst	38
Transport	38
ständig	38
beteiligten	38
Internationalen	38
ator@@	38
zugeordnet	38
stem	38
jahres	38
FAR@@	38
verabschiedete	38
voll	38
uber@@	38
42@@	38
manche	38
div	38
kontrol@@	38
inhalt	38
ACH	38
samen	38
übrigen	38
Möglichkeiten	38
erwachsen@@	38
gnisses	38
natür@@	38
Abbau@@	38
ENE	38
kompatibel	38
tau@@	38
17.@@	38
Ungefähr	38
ED	38
Durchblutung	38
м@@	38
VI	38
kürzer	38
schrauben	38
ugh@@	38
ή	38
17.	38
konsum	38
missions@@	38
и	38
ous	38
HAM@@	38
data	38
testen	38
vs	38
sämtliche	38
Flö@@	38
Mul@@	38
kompletten	38
Zusammensetzung	38
op-@@	38
sieg@@	38
ungeachtet	38
178	38
geteilt	38
verfügen	38
lagerungen	38
heben	38
hingegen	38
Herkunft	38
prüfung	38
Vorlage	38
CN@@	38
zunehmendem	38
3-0@@	38
monate	38
ology	38
meer	38
fehl@@	38
Angehörige	38
6.4	38
ema	38
Kop@@	38
-5	38
bos@@	38
LEX	38
einreichen	38
dliches	38
loses	38
ra-@@	38
GB@@	38
satz@@	38
Aufhebung	38
ändert	38
Verb@@	38
trocken	38
dokum@@	38
ziele	38
ungsprogramms	38
allmäh@@	38
Prof.	38
ziertes	38
Beeinträ@@	38
schlug	38
dauerhaften	38
hibition	38
no	38
erörtert	38
fat@@	38
gleicher	38
val	38
innung	38
kamen	38
AW@@	37
chri@@	37
gewohnt	37
interne	37
angehalten	37
ünd@@	37
Aufnahmen	37
600@@	37
od	37
Werfen	37
cken-@@	37
erfüllen	37
direktem	37
zeitiger	37
sistenz	37
Ermittlung	37
tier	37
Saison	37
euro@@	37
sofor@@	37
Labyrin@@	37
ungünsti@@	37
Nieder@@	37
Tritt	37
26-@@	37
24.	37
geschult	37
kulation	37
49-	37
567	37
zuviel	37
prote@@	37
Sali@@	37
ust	37
solches	37
gene@@	37
vorzeitig	37
Austausch	37
Pell@@	37
Dokument	37
baus	37
SAS	37
zierende	37
LT	37
atra@@	37
TEC	37
punktes	37
fy	37
ul	37
chtigungen	37
gra	37
möchte	37
Beta	37
guter	37
Delegierten	37
rom@@	37
fikationen	37
sexu@@	37
503	37
Ring	37
Umwelt	37
ée	37
Vorschläge	37
progno@@	37
seri@@	37
Ausbreitung	37
stal@@	37
späten	37
Küh@@	37
alar@@	37
achtet	37
Emb@@	37
50.000	37
Consumer	37
positives	37
metho@@	37
Boo@@	37
entes	37
zusammenhängen	37
aufrechtzuerhalten	37
cent@@	37
Š	37
dent@@	37
anpassung	37
Betreuung	37
Eier	37
545	37
Höhere	37
Jean-@@	37
lich-@@	37
tigkeit	37
markiert	37
anstatt	37
Ban@@	37
möglichkeiten	37
186	37
Beziehungen	37
‡	37
-4@@	37
anre@@	37
überschü@@	37
korrekten	37
Ob	37
Sekund@@	37
1x	37
ova	37
chene	37
Projekte	37
bereit@@	37
opath@@	37
ttest	37
trocknen	37
Swe@@	37
selbst@@	37
gewünschten	37
Mik@@	37
505	37
eingesetzten	37
nischer	37
gefährlich	37
FRAN@@	36
umfassend	36
1-3	36
Geschmack@@	36
ls	36
City	36
Kleidung	36
LAND	36
Treten	36
nächst@@	36
sei@@	36
systemen	36
verbli@@	36
Länder	36
ES-@@	36
einsei@@	36
ohlene	36
äuse	36
ktu@@	36
kreb@@	36
Stühle	36
förmig	36
hergestellten	36
abgeleitet	36
Tab@@	36
por	36
581	36
442	36
Tendenz	36
gkeit@@	36
Erklärung	36
Krist@@	36
ziell	36
aber@@	36
Fre@@	36
#	36
labor@@	36
Sorgfalt	36
fuhr	36
ants	36
pap@@	36
Kupfer	36
Marketing-@@	36
statistische	36
station@@	36
Verlu@@	36
Monat@@	36
20.000	36
Woch@@	36
Intervention	36
greift	36
ratio	36
response	36
liges	36
263	36
Hören	36
Auflagen	36
w-@@	36
Aluminium-@@	36
Befesti@@	36
passieren	36
Unmittelbar	36
Turn@@	36
Auftrag	36
Leistungen	36
Gesamts@@	36
kli@@	36
langer	36
atom@@	36
minütige	36
suppor@@	36
aufgaben	36
ohlen	36
schar@@	36
hol@@	36
Normalerweise	36
zes@@	36
zelt	36
Professor	36
Viele	36
Formel	36
ftet	36
Lokale	36
hier@@	36
Mem@@	36
Bekannte	36
Nacht	36
289	36
PVC-@@	36
verbleiben	36
Übergewicht	36
nachstehenden	36
Überblick	36
n.	36
Sicherheits-	36
Vin@@	36
geschlossen	36
Miner@@	36
operiert	36
brand	36
verwandten	36
ätz@@	36
ausgewählten	36
Hung@@	36
Meldung	36
Membran@@	36
ographi@@	36
Vas@@	36
tiefen	36
fünf@@	36
beschä@@	36
ausgeglichen	36
Bes@@	36
Erklärungen	36
spannung	36
phone	36
Einigung	36
Haus@@	36
grüne	36
CB@@	36
fester	36
multiple	36
giert	36
Estland	36
Forschung	36
urs@@	36
gänge	36
elektronische	36
John	36
stag	36
ral@@	36
gewonnenen	36
genomm@@	36
erleichtert	36
bevorzugt	36
fünften	36
ringen	36
deu@@	36
4-6	36
dr@@	36
Organ	36
Response	36
patients	36
bestandteile	36
AGE	35
hinzuweisen	35
Pump@@	35
name	35
Erkran@@	35
ollt	35
Net@@	35
22.	35
Adi@@	35
DS@@	35
entre@@	35
cam@@	35
Koordination	35
298	35
kus	35
Schwei@@	35
Gebrau@@	35
geres	35
leitungs@@	35
Einzel-	35
265	35
low-@@	35
BC@@	35
net	35
getötet	35
groß@@	35
einzuhalten	35
woh@@	35
eits@@	35
schlaf@@	35
ativ	35
ths	35
gerä@@	35
abgelöst	35
modul@@	35
ky	35
Psycho@@	35
gebrachten	35
Veterinär@@	35
Positionen	35
überschreitet	35
einzustellen	35
starben	35
vorgesch@@	35
Vereinbarung	35
auszugehen	35
422	35
Stau@@	35
klein	35
klären	35
Boulevard	35
cedur@@	35
entlang	35
eingebracht	35
Benachrichtigen	35
farbigen	35
520	35
Raucher@@	35
männ@@	35
FF@@	35
Großbritannien	35
ausgewählt	35
Chirur@@	35
Mitarbeitern	35
Variante	35
Concept	35
Markt@@	35
TEI@@	35
Linear@@	35
Ero@@	35
konzipiert	35
ausdrücklich	35
krank	35
Optimierung	35
Trend	35
source	35
CF	35
Versorgung	35
RE	35
T-S@@	35
physikali@@	35
glas@@	35
252	35
241	35
boa	35
finger	35
iner	35
EIN	35
klassifiziert	35
ots@@	35
Lauf@@	35
δ	35
erneu@@	35
gers	35
0,000	35
Grenzwerte	35
klein@@	35
poli@@	35
Vorgang	35
reduzierung	35
Hohe	35
Sinnes@@	35
HD	35
Allgemein@@	35
rey	35
haltes	35
Tul@@	35
Synthese	35
rechtliche	35
analysiert	35
asch@@	35
Inhaltsstoffe	35
profitieren	35
örper	35
gestützt	35
Computer@@	35
Zuge	35
v.@@	35
Wechseln	35
ähn@@	35
Babys	35
Herr	35
klärung	35
Pro	35
erscheinungen	35
193	35
200-@@	35
Silikon@@	35
Bild@@	35
Magnesium	35
Ansammlung	35
gas	35
197	35
STER@@	35
einheiten	35
erklein@@	35
tionspro@@	35
О	35
unerwartete	34
Abwesenheit	34
derzeitige	34
monatliche	34
chel	34
andauernden	34
Rumänien	34
transportieren	34
Forum	34
tas	34
lia	34
Vis@@	34
gesagt	34
hinzu@@	34
gesunder	34
tief	34
Blau@@	34
RO	34
Demo@@	34
Ohr	34
Denmark	34
odi@@	34
DK	34
zufrieden	34
amen	34
cam	34
abweichende	34
wider@@	34
exp@@	34
Bedienung	34
Medizin@@	34
gewählten	34
Wahn@@	34
hetero@@	34
Einwände	34
Institute	34
Maßnahme	34
anzeigt	34
Strategie	34
chi	34
Japan	34
Übergang	34
verwendbar	34
abgestimmt	34
enfalls	34
bler	34
dep@@	34
wissenschaftlicher	34
ungewöhnlich	34
musste	34
öffel	34
Barb@@	34
fehler	34
TH	34
Quanti@@	34
zuführen	34
verletzung	34
futter	34
080@@	34
zugunsten	34
aspe@@	34
Konsoli@@	34
Volum@@	34
TAS@@	34
emia	34
Region	34
Quin@@	34
gefährliche	34
E.@@	34
Schalen	34
92@@	34
sing	34
gement-@@	34
Wann	34
strecke	34
Amt	34
miteinander	34
endgültigen	34
268	34
Maximale	34
Warten	34
tec@@	34
aufhören	34
LTD	34
Hintergrund@@	34
329	34
Reinigung	34
Seine	34
367	34
weiteres	34
regime	34
Dun@@	34
Niem@@	34
rank@@	34
57,@@	34
onia	34
behörde	34
-2	34
bildeten	34
564	34
potentiellen	34
vorheriger	34
line-@@	34
Versa@@	34
Meg@@	34
strom	34
cel@@	34
gebraucht	34
etern	34
zie	34
Mehr	34
fehlen	34
yo	34
struktur	34
530	34
gl.	34
Entscheidungen	34
Än@@	34
Alter@@	34
Protokoll	34
TION@@	34
schätzen	34
saubere	34
23-@@	34
nier	34
gebung	34
Beispiele	34
entfaltet	34
reichlich	34
phin@@	34
kanäle	34
unsicher	34
besprochen	34
sv@@	34
394	34
334	34
-Fuß@@	34
rechtlichen	34
ст@@	34
geringerer	34
Papier@@	34
offiziell	33
lungen	33
Gerät	33
kleineren	33
gran@@	33
visuellen	33
Ton@@	33
benutzte	33
ordnungsgemäß	33
dlich	33
pan	33
angestrebt	33
Land	33
Kennzeichnung	33
post-@@	33
zahlreiche	33
SER	33
definierten	33
P.	33
organi@@	33
anhaltend	33
uren	33
älterer	33
basierten	33
kontam@@	33
7-0@@	33
fluores@@	33
Sach@@	33
bener	33
absorbiert	33
organ	33
lindern	33
Cross@@	33
trotzdem	33
Regel@@	33
tile	33
Common	33
familiäre	33
don@@	33
Dienst@@	33
emotionale	33
Einschätzung	33
zwecken	33
nenn@@	33
FT@@	33
Kei@@	33
1.1	33
31-@@	33
Zähne	33
Fest@@	33
schien	33
Emo@@	33
333	33
Reisen	33
alleinige	33
College	33
Versuch	33
esters	33
zusammenge@@	33
Angabe	33
Mass@@	33
TEM@@	33
profil	33
flach	33
kontroll@@	33
kammer	33
able	33
sichten	33
park	33
Abschluß	33
Prozesse	33
arbeits@@	33
CE-@@	33
Assessment	33
wir	33
vertik@@	33
erfolgten	33
deli@@	33
schlauch	33
48,@@	33
alisiert	33
Plastik	33
3x@@	33
ring@@	33
hinteren	33
450@@	33
schen-@@	33
Klassifizierung	33
Marketing	33
ser	33
gungen	33
u.a.	33
Drive	33
geeignet@@	33
Days	33
ala@@	33
sorgfäl@@	33
Nordic	33
teur	33
Grade	33
Fran@@	33
Fähigkeiten	33
sprechende	33
schuss	33
Lösen	33
namen	33
Hinzufügen	33
gendem	33
Cum@@	33
Gemeinsame	33
ell-@@	33
nungen	33
beschri@@	33
290	33
herausge@@	33
exter@@	33
Mangel@@	33
web@@	33
onischen	33
OT@@	33
ehl@@	33
Zweck	33
schung	33
ll@@	33
notwendige	33
terin	33
bo	33
Allgemein	33
Abb	33
versucht	33
Fri@@	33
GA@@	33
Fen@@	33
spekt@@	33
Quinta	33
Analy@@	33
lasten	33
Systeme	33
ernst@@	33
Alpha@@	33
ECO@@	33
diff@@	33
462	33
pflanzlichen	33
kriterien	33
leistung	33
sequ@@	33
-3@@	33
Stammzellen	33
transportiert	33
kun@@	32
getö@@	32
AF@@	32
Film	32
Weit@@	32
2x@@	32
etem	32
Mensch	32
grundsätzlich	32
komplizierte	32
spraxis	32
vollständiger	32
Stoff	32
SRL	32
teile	32
linear@@	32
verkürzt	32
ständiger	32
orienti@@	32
Liegen	32
Kiefer@@	32
Unfähigkeit	32
beschichtet	32
indirekte	32
Lokal@@	32
quanti@@	32
sofortigen	32
Les	32
beabsichti@@	32
jer@@	32
way	32
Vier@@	32
Rassen	32
enger	32
Innen@@	32
Technische	32
Gefäße	32
heute	32
35-@@	32
lokaler	32
tens	32
publi@@	32
bezug	32
öff@@	32
technologisch	32
tiefer	32
wachsende	32
geworden	32
Überwachungs@@	32
fördert	32
zurzeit	32
umfang	32
2.1	32
herum	32
Handel	32
Warte@@	32
tam@@	32
Thema	32
Papier	32
13.	32
Kraft	32
jenen	32
1992	32
ELISA	32
ernsthafte	32
Intensiv@@	32
gangenen	32
umgesetzt	32
Klinik	32
machten	32
Gang	32
281	32
beiträgt	32
Karte	32
sitzen	32
Schrei@@	32
MS-@@	32
Leitungs@@	32
freier	32
auto@@	32
Gebieten	32
part@@	32
tismus	32
va-@@	32
late	32
Schulter@@	32
II.	32
tivierung	32
Beer@@	32
senkrecht	32
ämpf@@	32
praktisch	32
grauen	32
CD	32
seitige	32
ed-@@	32
erteilten	32
befürwor@@	32
umfassenden	32
Omega	32
ttung	32
besseren	32
tivem	32
Arme	32
ress	32
DF	32
ii@@	32
Somit	32
mir@@	32
misches	32
ierende	32
Betreuer	32
Parlaments	32
ließ	32
Beachtung	32
Viertel	32
herz@@	32
Sab@@	32
hätte	32
ausgerichtet	32
Dipl@@	32
dierte	32
gebildeten	32
mittler@@	32
wirksam@@	32
zeitlich	32
Pass@@	32
Staaten	32
empfehlenswert	32
vielleicht	32
sicherheits@@	32
pers	32
SONSTIG@@	32
Parlament	32
А@@	32
mieren	32
ena	32
tierenden	32
Eingabe	32
alisi@@	32
fördern	32
Forschungs@@	32
wider	32
FC@@	31
Chemie	31
beschränken	31
München	31
laut	31
itz@@	31
requi@@	31
erzeugung	31
gebieten	31
freigegeben	31
relativen	31
onischer	31
schwache	31
6.5	31
aufgesch@@	31
Min	31
bek@@	31
medizin	31
Tä@@	31
Scher@@	31
gestoppt	31
vertraut	31
82@@	31
zeugen	31
Zwöl@@	31
ausgehend	31
Brü@@	31
stet	31
malige	31
schungen	31
Regime	31
PE@@	31
kulturen	31
Darstellung	31
vorstellungen	31
01-@@	31
Wurde	31
klärt	31
273	31
RC	31
Fortführung	31
vergehen	31
Erfahrungs@@	31
überein@@	31
Regulierung	31
282	31
ernsthaft	31
3.1	31
chtetes	31
ful@@	31
tik-@@	31
vierungs@@	31
Kopie	31
reis@@	31
Grupp@@	31
Erfolgs@@	31
³	31
der-@@	31
Verwei@@	31
zü@@	31
angemessener	31
sychi@@	31
Register	31
D.	31
Andro@@	31
Ema@@	31
trockenen	31
Services	31
zusammenhängenden	31
52@@	31
wies@@	31
spers@@	31
alternativen	31
CHTI@@	31
rela@@	31
lagen@@	31
Digit@@	31
Kommt	31
Schätzung	31
PK@@	31
Hell@@	31
Hen@@	31
Beri@@	31
640	31
heilen	31
86@@	31
lern	31
Schlaf	31
South	31
Denk@@	31
ktem	31
entu@@	31
711	31
Sy@@	31
bef@@	31
ression@@	31
beh@@	31
deutlicher	31
unzureich@@	31
omp@@	31
lebten	31
steigert	31
stöße	31
anntes	31
607@@	31
INTER@@	31
ii	31
Vorbereitungen	31
24h	31
-30	31
i-@@	31
spätestens	31
anim@@	31
ausgelegt	31
Partnern	31
390	31
Sekundär@@	31
gerei@@	31
Dienste	31
chen-@@	31
451	31
komplett	31
Sinne	31
ki	31
emen	31
335	31
Monitoring	31
mitgeteilt	31
vermehren	31
schall	31
23.	31
verbrauchen	31
3-5	31
Frist	31
Wat@@	31
516	31
uto	31
produkt@@	31
○	31
zierenden	31
Dokument@@	31
Atem	31
zugeteilt	31
238	31
sam	31
Romania	31
vität	31
jene	31
non-@@	31
Konsistenz	31
ð@@	31
versteht	31
Gegenwart	31
brachten	31
Kompatibilität	31
gressi@@	31
В@@	30
schlags	30
Stad@@	30
arbon@@	30
vorläufigen	30
gigen	30
Funktionsweise	30
zahlreichen	30
Regionen	30
zählten	30
sales	30
sanft	30
Green@@	30
16-@@	30
Voraussetzung	30
herunter@@	30
empfinden	30
chtige	30
verhin@@	30
männlich	30
ult	30
Plötz@@	30
1994	30
ansä@@	30
ş	30
orie	30
Nutzung	30
bildungs@@	30
402	30
serie	30
sprüfung	30
Bil@@	30
Null	30
ingegen	30
niveau	30
steigender	30
Bab@@	30
Β	30
welchem	30
Finger@@	30
abläufe	30
Fahrzeugen	30
ather@@	30
mierte	30
begründet	30
erscheinen	30
wären	30
USS	30
Ad-@@	30
hile	30
Path@@	30
RAT@@	30
Bewusstsein	30
fälligkeit	30
verbraucht	30
14.	30
Angelegenheit	30
gewohnheiten	30
Anspruch	30
Herausforderungen	30
Kalender@@	30
ELLE	30
Etiketten	30
eignet	30
übermäßig	30
haltende	30
Penis	30
les	30
Detaillierte	30
spon@@	30
deckung	30
schwen@@	30
Gene	30
eiten	30
Nägel	30
Gemeinschafts@@	30
enseite	30
Tuberku@@	30
-Set	30
isoliert	30
stiges	30
150@@	30
gentechnisch	30
Lebensmittel	30
block	30
1600	30
vierte	30
inierte	30
elektro@@	30
Versuch@@	30
stom@@	30
RH@@	30
formalen	30
Bei@@	30
Schie@@	30
ologe	30
Kö@@	30
187	30
Trotz	30
plänen	30
voneinander	30
Report	30
Nahrungsergänz@@	30
Ansatz	30
Aufmerk@@	30
isie	30
bay	30
Ernähr@@	30
ungsperiode	30
ut-@@	30
repli@@	30
ordnung	30
~	30
tech@@	30
Amm@@	30
erhobenen	30
vili@@	30
Sank@@	30
339	30
246	30
kontinuier@@	30
pflichtig	30
weichen	30
ties	30
Anwender@@	30
Agu@@	30
TV	30
einfacher	30
matik@@	30
Diä@@	30
Zukunft	30
bekamen	30
greifen	30
all-@@	30
kleinere	30
BG	30
etc.	30
Q-@@	30
Wachstums	30
Vinc@@	30
akzep@@	30
112@@	30
VER	30
Folglich	30
jüngere	30
digitalen	29
betrachten	29
wasch@@	29
Buchstaben	29
Beamten	29
junge	29
Genes@@	29
gewaschen	29
sterk@@	29
Spain	29
hinaus@@	29
Oberseite	29
Verän@@	29
LS	29
offenbar	29
Medizin	29
gegangen	29
Bac@@	29
anschließenden	29
chemi@@	29
wor@@	29
33-@@	29
buch@@	29
wachstums	29
angeraten	29
tierung	29
gefährdet	29
ausgeb@@	29
natürliches	29
erre@@	29
338	29
Hitze	29
personen	29
denklich	29
ript@@	29
Beli@@	29
Universitäts@@	29
übertrag@@	29
mungs@@	29
Thal@@	29
gerer	29
öffnete	29
sex	29
Außer	29
254	29
di	29
betreffend	29
342	29
YO@@	29
Internationaler	29
u-@@	29
ome@@	29
bezeichneten	29
Bein	29
aussehen	29
Organismus	29
skriterien	29
п@@	29
ological	29
verwiesen	29
232	29
erzielte	29
arbeit@@	29
VEN@@	29
Dela@@	29
hef@@	29
Etik@@	29
Frö@@	29
-00@@	29
bruchs	29
Bewu@@	29
552	29
persönlich	29
ites	29
ausgeh@@	29
Einbeziehung	29
ordner	29
bm@@	29
brechung	29
Schaden	29
gewissen	29
enkung	29
einzelstaatlichen	29
e.	29
systematisch	29
WES@@	29
minder@@	29
Pflege	29
Abwasser	29
fur	29
311	29
akzeptab@@	29
123@@	29
Vier	29
5x@@	29
000@@	29
para@@	29
Kann	29
β@@	29
zentrum	29
eventuelle	29
210@@	29
Bemühungen	29
dienst	29
markierte	29
Links@@	29
IH@@	29
Jähr@@	29
Bel@@	29
36-@@	29
93@@	29
versagt	29
Richtung	29
Modell	29
gesetz@@	29
künst@@	29
Erreichung	29
Fristen	29
typischen	29
SON@@	29
komplex	29
genutzten	29
sphase	29
bringt	29
Rab@@	29
3.000	29
П@@	29
bier	29
steigende	29
zusammenhän@@	29
Pille	29
Tab	29
343	29
253	29
hinein	29
1.2	29
sinformationen	29
Ausschluss	29
ī@@	29
berg	29
erläutert	29
akt@@	29
entri@@	29
kaum	29
Nachfolgend	29
chungen	29
Zitron@@	29
Dr@@	29
NEU@@	29
Haare	29
mate	29
Minimum	29
zogenen	29
verschwindet	28
Schlauch	28
chtt@@	28
doppelten	28
seitens	28
Rein@@	28
ernsthaften	28
akt	28
Strukturen	28
voller	28
ft-@@	28
kers	28
psychischen	28
Kanten	28
sitzt	28
DRO@@	28
Kunststoff	28
she@@	28
schwarze	28
primi@@	28
gebeten	28
unbedeut@@	28
397	28
Water@@	28
erfül@@	28
endern	28
Apo@@	28
inger@@	28
abweichen	28
Schacht@@	28
Level	28
abel@@	28
ath-@@	28
of@@	28
ß-@@	28
länge	28
Kein	28
nahms@@	28
anfänglichen	28
ethnischen	28
Techniken	28
management@@	28
Verdi@@	28
49-@@	28
Υ	28
Geschlechts	28
Distribution	28
447@@	28
major	28
gemeinschaftliche	28
mögliches	28
zuständige	28
extrem	28
BON@@	28
enten@@	28
Besonders	28
scht	28
Parc	28
28.	28
30.@@	28
info@@	28
Firmen@@	28
migen	28
Industries	28
KAR@@	28
onder@@	28
Daraus	28
ularen	28
Dolmet@@	28
Center	28
sischen	28
tim	28
anträge	28
anzahl	28
safety	28
abstand	28
komponenten	28
ssysteme	28
Leist@@	28
Via@@	28
wertet	28
eilnehmer	28
anwendet	28
Event@@	28
ausweis	28
Reli@@	28
merken	28
verbleibenden	28
Inneren	28
ECU	28
den-@@	28
rock@@	28
ander@@	28
572	28
Dor@@	28
Auß@@	28
Zeiten	28
yrin@@	28
sert	28
Generell	28
DIA	28
Adap@@	28
ystem	28
verleihen	28
ziellen	28
389	28
losem	28
lebende	28
Mann	28
454	28
361	28
regi@@	28
hitz@@	28
М@@	28
findung	28
Vol@@	28
ille	28
esse	28
fassungs@@	28
Potenti@@	28
Fin@@	28
and-@@	28
Wunde	28
Berühr@@	28
hängi@@	28
geschlagen	28
graue	28
382	28
467	28
Arm@@	28
klingt	28
Flüssigkeiten	28
offensichtlich	28
istische	28
reiche	28
Vertretern	28
Freien	28
field	28
erör@@	28
Betätigung	28
existieren	28
sible	28
mei@@	28
PAN@@	28
fizierungs@@	28
erlangen	28
beleg@@	28
Raum@@	28
schritt@@	28
ona	28
TP@@	28
objektive	28
irgendein	28
gewöhnliche	28
verwandte	28
erstoff@@	28
rasse	28
Chem@@	28
eingetreten	28
überwach@@	28
active	28
empi@@	28
Management@@	28
444	28
483	28
UV-@@	28
FAC@@	28
absoluter	28
verein@@	28
mithilfe	28
Association	28
ā@@	28
keinesfalls	28
dish	28
mütter@@	28
bedeckt	28
sko	28
19.@@	28
228@@	28
schnitts	28
nehmern	28
komplizierter	28
Zwangs@@	28
494	28
brü@@	28
André	28
ja@@	28
ot-@@	28
klarem	28
chtete	28
möglich@@	28
284	28
2.2	28
strenger	28
Kompati@@	28
makro@@	28
Natur@@	28
Verabschiedung	28
ernden	28
Eintritt	27
Planung	27
Selektion	27
M.@@	27
genutzt	27
Gang@@	27
Pfeil	27
Nacional	27
Netzwerk	27
europäischer	27
hr	27
GR	27
GE@@	27
maliger	27
ARD	27
Viale	27
NOR@@	27
Versi@@	27
24.@@	27
te-@@	27
kot@@	27
Mei@@	27
Schließen	27
SK@@	27
21.	27
11-0@@	27
Kontakte	27
General	27
Tode	27
Untersuchungs@@	27
fläch@@	27
Mitgliedern	27
kommission	27
geleitet	27
versen	27
Uhr	27
brachte	27
enzen	27
rigkeit	27
Hülle	27
größtenteils	27
grund	27
warum	27
í	27
einig	27
vorhergehenden	27
Rechnung	27
tchen	27
festzulegen	27
S-S@@	27
Wach@@	27
leisten	27
dienten	27
Meter	27
eiligen	27
As@@	27
Sagen	27
inklusive	27
Stoffen	27
ke@@	27
µm	27
Р@@	27
gültigen	27
ά	27
betreffende	27
Gemeinsamen	27
Reste	27
Zusammen	27
hierdurch	27
combin@@	27
305	27
sym@@	27
High-@@	27
mia	27
product	27
Programme	27
lichung	27
Äußer@@	27
Schulungs@@	27
farbige	27
dürften	27
Gefüh@@	27
uell	27
erlauben	27
Reports	27
Study	27
fähig	27
stanzen	27
PLA@@	27
25.	27
stischem	27
rn@@	27
führenden	27
GC@@	27
Fla@@	27
denzen	27
ST	27
gebundene	27
relev@@	27
ktop@@	27
studies	27
Zentrum	27
bon@@	27
435	27
stieren	27
umgekehrt	27
Albert	27
identifizi@@	27
wuchs	27
herkömmliche	27
bleibende	27
Bur@@	27
befindlichen	27
485	27
Broschüre	27
495	27
hilfreich	27
Rund@@	27
leiten	27
sexueller	27
446	27
verfüg@@	27
strah@@	27
Stroh@@	27
6.000	27
Net	27
Mio.	27
Spät@@	27
zählt	27
weiser	27
471	27
enthielt	27
star@@	27
Einstufung	27
1.7@@	27
stellter	27
risiken	27
rotem	27
veröffent@@	27
Video@@	27
ly-@@	27
annehmen	27
Spezial@@	27
niert	27
iell	27
Bulgarien	27
anerkannt	27
erzeugen	27
geschätzten	27
110@@	27
357@@	27
tterung	27
dokumentieren	27
Erwachsener	27
unterdrücken	27
Kü@@	27
anleitung	27
å@@	27
schri@@	27
Soll@@	27
Spezialisten	27
Filter@@	27
schlechte	27
663	27
fremd	27
Micro@@	27
Beratungs@@	27
Hem@@	27
reguliert	27
aux	27
austau@@	27
Lou@@	27
gramm@@	27
Paar@@	27
Inhalts	27
bid	27
Platz	27
Trading	26
voir	26
Büro@@	26
Bedien@@	26
Entz@@	26
Füll@@	26
betraf	26
zusätz@@	26
Varianten	26
sper@@	26
arium	26
Lö@@	26
au	26
Kurz	26
herkömmlichen	26
ne-@@	26
kommende	26
Bett	26
Schwellen@@	26
180@@	26
1.3	26
bas	26
Wür@@	26
bricht	26
115@@	26
rechtzeitig	26
dt@@	26
cular	26
richtlinien	26
ologischem	26
abgeschlossenen	26
ierungs@@	26
strengen	26
314	26
maß	26
Cyp@@	26
OD	26
Offen@@	26
herbei@@	26
administra@@	26
isierung	26
226	26
decken	26
й@@	26
р	26
behoben	26
Bewegen	26
Öffnung	26
frequenz@@	26
unabhängige	26
künstliche	26
Die@@	26
Rinder@@	26
tötet	26
Orientierungs@@	26
begründen	26
Ima@@	26
Infolgedessen	26
Forts@@	26
orin	26
zuge@@	26
versäumt	26
übersteigen	26
Öff@@	26
East	26
separat	26
Schichten	26
fiel	26
Weiterentwicklung	26
ty	26
247	26
stattfinden	26
Spiel@@	26
mern	26
Ohren	26
weitergeführt	26
с	26
bemerkt	26
ер@@	26
94@@	26
Einmal	26
zumeist	26
therapy	26
new	26
Verk@@	26
schluß	26
Photo	26
organisatorische	26
überdacht	26
DD@@	26
259	26
Literatur@@	26
dom	26
aloge	26
324	26
С@@	26
Sh@@	26
Ó@@	26
gekehrt	26
fel	26
ros	26
Beleg	26
Fern@@	26
As	26
Naf@@	26
gy@@	26
zerstört	26
.......	26
gefär@@	26
skomp@@	26
tätigkeit	26
CLA@@	26
Solange	26
vä@@	26
aci@@	26
boden	26
ernsten	26
ergeb@@	26
ang	26
bender	26
Eph@@	26
spekte	26
sprobleme	26
gedacht	26
Rele@@	26
bevölkerung	26
ardi@@	26
Kohlendioxid	26
entfalten	26
scheiden	26
Workshops	26
versorgt	26
dere	26
Aussch@@	26
rechts	26
aff@@	26
terte	26
840	26
Od@@	26
554	26
BH	26
zustellen	26
variiert	26
Genuss	26
vergangenen	26
zusätzliches	26
FF	26
jeweilige	26
IEN	26
ns	26
NZ@@	26
baut	26
bewegt	26
cov@@	26
rig	26
iti@@	26
Feststellung	26
AA	26
standard	26
gebende	26
getrennte	26
zugs@@	26
bedürfen	26
Stickstoff	26
tek	26
ira	26
Lyn@@	26
ethnische	26
3.3	26
zurückzu@@	26
fir@@	26
Instit@@	26
chtliche	26
286	26
Dingen	26
Modell@@	26
Frag@@	26
chemischer	26
unterschieden	26
ère	26
Signal	26
intensive	26
dauerhafte	26
bedeuten	26
Medium	26
Fasten	26
Jugend@@	26
ake	26
én@@	26
ennummer	26
NHL	26
vat@@	26
ELL@@	26
beschleunigt	26
glatten	26
ел@@	25
ik	25
TC	25
Fahren	25
höhe	25
Medical	25
9000	25
vak@@	25
kultur	25
Wel@@	25
Entwurf	25
Überwach@@	25
Roma	25
326	25
73@@	25
Stellung	25
Schulter	25
chemie	25
erholt	25
Gleichzeitig	25
Schaum	25
grün	25
wählen	25
Evaluierung	25
486	25
Männ@@	25
einzuführen	25
Umwelt@@	25
regler	25
Jungen	25
geburt	25
ausüben	25
streichen	25
konventionelle	25
Wahrnehmung	25
940	25
Hoheitsgebiet	25
otenzial	25
resultieren	25
lusi@@	25
1.4	25
teilungen	25
fizierung	25
Feind@@	25
schwarz	25
zeitwei@@	25
ulen@@	25
mehrmals	25
sinnvoll	25
Phän@@	25
entscheidung	25
außen	25
sex@@	25
Bod@@	25
396	25
Sonder@@	25
augenblick@@	25
schluss@@	25
früherer	25
marki@@	25
Pilot@@	25
chtungen	25
öfter	25
Kil@@	25
gesammelt	25
konvention@@	25
YER	25
kes	25
Tagungs@@	25
besonderes	25
BEL@@	25
BA	25
gisch	25
eigen@@	25
FH	25
Regelung	25
ult@@	25
Toll@@	25
Weil	25
gefähr@@	25
passive	25
ž@@	25
soli@@	25
507	25
anschließende	25
30.	25
Immobili@@	25
örung	25
dier@@	25
glicher	25
gelieferte	25
ypa@@	25
Stütz@@	25
elemente	25
dahingehend	25
Weder	25
hen	25
Hill	25
Retro@@	25
stattgefunden	25
Polyur@@	25
Agen@@	25
it	25
Verhaltens	25
mbH	25
vorherseh@@	25
Rand	25
gestützten	25
weltweit	25
stimmen	25
Box@@	25
stütz@@	25
gesprochen	25
ZEN@@	25
541	25
Team	25
Kla@@	25
Schwerpunkt	25
Eltern	25
aufwand	25
tions-	25
zö@@	25
red	25
stör@@	25
Dau@@	25
tag	25
BEN@@	25
bern@@	25
hän@@	25
meinen	25
regt	25
punkt@@	25
MAS@@	25
Grunde	25
Schulung	25
441	25
pflanzung	25
zunehmen@@	25
verstanden	25
Inst@@	25
ypto@@	25
übertragung	25
312	25
schuhen	25
schlüsse	25
vorgegebenen	25
Erfordernis	25
minütigen	25
stellten	25
bestimmungen	25
fischen	25
gebrauchten	25
599	25
Beschri@@	25
ctive	25
˚	25
chtlin@@	25
uten@@	25
alumini@@	25
halben	25
tief@@	25
Att@@	25
dorp	25
497	25
Aufklär@@	25
Wal@@	25
as-@@	25
ndes	25
miss@@	25
mangelnder	25
Verschiedene	25
392	25
423	25
Welpen	25
Spin@@	25
K.@@	25
nica	25
Stich@@	25
Brüste	25
esia	25
zahl@@	25
ECT	25
Programmen	25
gig	25
bren@@	25
abweich@@	25
Mittler@@	25
Science	25
Differ@@	25
Kupfer@@	25
Pferd	25
Masse	25
restliche	25
pfer@@	25
lichsten	25
ühlt	25
gezielt	24
RS	24
nem	24
Riga	24
ku	24
ino	24
In-	24
fortsch@@	24
abschließen	24
03-@@	24
engem	24
zenz	24
AS-@@	24
ex-@@	24
Raum	24
menten	24
Beweglichkeit	24
Committee	24
elem@@	24
summ@@	24
nützlich	24
stellvertretenden	24
ulare	24
BRA@@	24
aufgehoben	24
ito	24
well@@	24
Beginnen	24
ono@@	24
Beh@@	24
chenen	24
gas@@	24
Erfassung	24
beabsichtigt	24
rissen	24
Dialog	24
Beschädigung	24
999	24
Hungary	24
ausgetauscht	24
Massen@@	24
Prognose	24
Hintergrund	24
kürzere	24
Kanada	24
blich	24
engen	24
detaillierte	24
klarer	24
läuft	24
Vorgehen	24
ßer@@	24
Mis@@	24
Verbreitung	24
STR@@	24
jeglichen	24
ergebnis	24
weit@@	24
ada	24
02-@@	24
Austausch@@	24
Schwen@@	24
Rechts@@	24
Child	24
brochen	24
GRE@@	24
lag@@	24
spektive	24
menschliches	24
annter	24
aufgebracht	24
28.@@	24
bewegung	24
Industrie@@	24
bör@@	24
box	24
mask@@	24
ICH@@	24
schlechten	24
21.0@@	24
239	24
Krise	24
exo@@	24
Wänden	24
chem	24
Tam@@	24
fügte	24
fielen	24
Υ@@	24
Unabhängig	24
isa	24
HK	24
einigten	24
fo	24
Heart	24
klassischen	24
erarbeitet	24
Ausschü@@	24
512	24
esene	24
Resultate	24
Uhrzeit	24
Katzen@@	24
Weibchen	24
stoß	24
José	24
weiten	24
absolut	24
entag	24
Spielen	24
ès	24
Wachstumsp@@	24
3600	24
zahn@@	24
Ki	24
Quadratmeter	24
weite	24
UNTER@@	24
Projekt@@	24
Knoten	24
differen@@	24
ventions@@	24
dorfer	24
ud@@	24
refer@@	24
discher	24
Tropf@@	24
besteh@@	24
befestigt	24
Oberflächen	24
Größenordnung	24
ume	24
Charakteristi@@	24
weib@@	24
433	24
-02-@@	24
Helsinki	24
sauberen	24
29-@@	24
Michael	24
tigt	24
Cat@@	24
schlechter	24
506	24
Kindes@@	24
punkts	24
378	24
international	24
Lau@@	24
eingeteilt	24
Gebrauchs@@	24
dokumentation	24
gefährlichen	24
309	24
beschriebene	24
Schul@@	24
Ausstattung	24
Ulm	24
plement@@	24
kos@@	24
übrig	24
quellen	24
vgl.	24
eben@@	24
3.2	24
konzentrierte	24
generi@@	24
Na	24
315	24
11,3	24
ht	24
Vietnam	24
less	24
individueller	24
bösartigen	24
274	24
ungsergebnisse	24
Epide@@	24
SZ@@	24
Ansprechpartner	24
Generation	24
V.@@	24
agen@@	24
Jose@@	24
ML-@@	24
jener	24
46-@@	24
heiß@@	24
alogen	24
europ@@	24
durchschnitt@@	24
orten	24
stärkeren	24
substan@@	24
bat@@	24
348	24
rali@@	24
Stabili@@	24
1993	24
565	23
1987	23
zuverlässigen	23
gegenseitig	23
lus@@	23
kömm@@	23
ffer	23
defini@@	23
Garden	23
sog.	23
maximum	23
Avenida	23
gram	23
abra@@	23
Spra@@	23
Pierre	23
KEN	23
einzelner	23
theoretisch	23
Italy	23
Verda@@	23
erzeugt	23
472	23
urs	23
Catal@@	23
J.	23
blockieren	23
served	23
andro@@	23
rank	23
angeb@@	23
nische	23
manifesti@@	23
Beratungen	23
zieht	23
abgeben	23
478	23
rac@@	23
ão	23
Ermessen	23
untersagt	23
1300	23
Republi@@	23
8.000	23
literatur	23
derartiger	23
dal@@	23
inieren	23
arbeit	23
nr	23
Drogen@@	23
Durchschnitts@@	23
spezialisierten	23
W-@@	23
diesbezüglich	23
stempel	23
ό	23
27.@@	23
Verrin@@	23
anträgen	23
seligkeit	23
Pest@@	23
herunter	23
mind	23
fortgeschrittene	23
detaillierten	23
optimales	23
Kommissions@@	23
psychische	23
schein	23
Fruchts@@	23
cts	23
feine	23
Mann@@	23
wäsche	23
marketing	23
erend	23
kin	23
DD	23
Vagina	23
quet	23
BO	23
Zerstörung	23
verschwunden	23
BC	23
rech@@	23
überarbeitete	23
beha@@	23
К@@	23
н	23
höher@@	23
warm@@	23
Re-@@	23
Ec@@	23
drittes	23
cell@@	23
Bas@@	23
körperlich	23
tum	23
verletzen	23
fre@@	23
16.@@	23
ingen	23
SF	23
räumen	23
Komp@@	23
werk	23
Montag	23
308	23
Energie@@	23
uchen	23
vorhandener	23
ough	23
ced	23
Super@@	23
DB@@	23
against	23
beliebigen	23
ursache	23
onal	23
Will@@	23
erörtern	23
machte	23
Ruhe@@	23
MEDI@@	23
untere	23
Erinnerungs@@	23
abbau	23
beteiligte	23
Syst@@	23
einsetz@@	23
haltbar	23
geplante	23
erwähnt	23
begrenzen	23
anger@@	23
health@@	23
Vergleiche	23
FÜ@@	23
Ähnlichkeit	23
362	23
WEL@@	23
fer	23
phen	23
Sämtliche	23
Weltgesundheitsorganisation	23
Fell	23
Lamin@@	23
ise	23
zan@@	23
mass@@	23
cien@@	23
sprechenden	23
ban@@	23
abnehm@@	23
einschlägigen	23
Span@@	23
packt	23
leben@@	23
U-@@	23
gehend	23
fett	23
Physi@@	23
statistischen	23
NET@@	23
bearbeitet	23
sage	23
tung@@	23
Großteil	23
ESA	23
langfristig	23
risk	23
lab@@	23
ergänzt	23
ema@@	23
Schwerpunkt@@	23
volum@@	23
Band@@	23
ziel@@	23
379	23
berufen	23
nachweisen	23
Effizienz	23
Louis	23
gete@@	23
ony@@	23
sa-@@	23
Interpretation	23
384	23
klassische	23
Stür@@	23
B-0@@	23
ull	23
18.@@	23
ausfallen	23
ago@@	23
daraufhin	23
schnelles	23
Sarko@@	23
melden	23
zw@@	23
Sonne	23
tragenden	23
ariats	23
fizierte	23
stics	23
rein	23
realen	23
gehörten	23
B2	23
wahl	23
alin@@	23
entwickelnden	23
großes	23
mission@@	23
braten	23
IP	23
Dermat@@	23
GAR@@	23
349	23
schieben	23
zelle	23
Elast@@	23
enn	23
hätten	23
US-@@	23
entgegen@@	23
bal	23
Metall@@	23
beides	23
zielle	23
Stor@@	22
FH@@	22
ffizi@@	22
Bau@@	22
überwie@@	22
tot@@	22
gesamt@@	22
begeben	22
Leitfaden	22
214@@	22
Gut@@	22
ergie@@	22
Vorkehrungen	22
555	22
kleines	22
Pot@@	22
typische	22
Sko@@	22
verbindung	22
Schaffung	22
Heraus@@	22
verur@@	22
ansonsten	22
datenbank	22
erwär@@	22
544	22
gradu@@	22
offener	22
Funktion@@	22
lebenden	22
Instru@@	22
Kli@@	22
exakte	22
geistige	22
famili@@	22
extreme	22
Validierung	22
Maschine	22
Abschließend	22
Anteile	22
anfangs	22
staatlichen	22
INN@@	22
objektiven	22
Ausarbeitung	22
Stress	22
bereitstellen	22
ete	22
stete	22
Schätzungen	22
zinische	22
Analytik	22
Bochum	22
verbesser@@	22
Mun@@	22
programms	22
gegenwärtige	22
bungs@@	22
DEP@@	22
seitig	22
dunkler	22
Nik@@	22
gewesen	22
sämtlicher	22
Recovery	22
kirchen	22
Aspekten	22
365	22
ynth@@	22
Verbindungs@@	22
verschieben	22
Wassers	22
Л@@	22
Änderungs@@	22
Einer	22
offensichtlichen	22
della	22
ausführlich	22
Vul@@	22
ric	22
zugeführt	22
getrunken	22
Mittels	22
externe	22
übermittelt	22
wassers	22
regulieren	22
verwal@@	22
ld	22
OM	22
register	22
enser	22
into@@	22
gültige	22
oster@@	22
erstmalig	22
gemeinschaftlichen	22
optimierten	22
Max-@@	22
gebundenen	22
Sicherstellung	22
Δ@@	22
ebenen	22
Block	22
beherrscht	22
dasselbe	22
Fragebogen	22
orten@@	22
Konferenzen	22
verantwortlichen	22
Kart@@	22
Performance	22
eriert	22
950	22
ograph@@	22
NO	22
Beruhi@@	22
Übersetzungen	22
tät@@	22
leistungen	22
variable	22
ct-@@	22
ographische	22
Reinheit	22
zini@@	22
verständi@@	22
U.	22
Unterscheidung	22
frucht@@	22
e-mail	22
vorbereitet	22
Punkt@@	22
Vertrieb@@	22
mos	22
stärker@@	22
ssystemen	22
242	22
neter	22
Alle@@	22
rühren	22
gelesen	22
mangelnde	22
Porte	22
Alpes	22
Landstraße	22
schte	22
Gas@@	22
lationen	22
stung	22
materials	22
achen	22
295	22
holte	22
angestrebten	22
Sprache	22
Konsul@@	22
Service	22
mehrfach	22
prechen	22
436	22
KS	22
ssp@@	22
maximaler	22
Beiträge	22
head	22
304	22
Stellen@@	22
füh@@	22
eingestellten	22
Selbst	22
Innenseite	22
system@@	22
Absicht	22
geänderte	22
sozialen	22
Stempel	22
bieren	22
328	22
mechanischen	22
graphischen	22
abschließend	22
8-10	22
Knor@@	22
ät	22
esi	22
beugt	22
Dossier	22
tifizi@@	22
Becher	22
Cam@@	22
Neb@@	22
beschlossen	22
Absen@@	22
affen	22
thin	22
funktionellen	22
umi@@	22
kompa@@	22
Off@@	22
ggf.	22
303	22
Haushalt@@	22
318	22
Termin@@	22
Puls@@	22
zwingend	22
Hilfsmittel	22
5-6	22
tien	22
intensiv	22
Lebensmitteln	22
rd	22
Philadel@@	22
AP	22
verdoppelt	22
quantita@@	22
Herde	22
luft	22
gebenen	22
nahr@@	22
han	22
beschleunigen	22
start	22
EP	21
bedeutenden	21
von-@@	21
geprüften	21
nomin@@	21
Pis@@	21
implementiert	21
Poland	21
Drucks	21
eingegangen	21
Stri@@	21
Partnerschaft	21
erfolgreiche	21
Zustimmung	21
T1	21
Tagungen	21
62@@	21
schl@@	21
GF@@	21
geeignetes	21
vorteil	21
Inte@@	21
deut@@	21
setzungs@@	21
Fortbildung	21
23.@@	21
tenden@@	21
Hinsicht	21
minderung	21
erworbenen	21
erfolgreichen	21
gelass@@	21
Soja	21
Bedürfnissen	21
ted	21
Vielleicht	21
103@@	21
Betra@@	21
visuelle	21
unterteilt	21
Aro@@	21
VAR@@	21
tet@@	21
Schweiz	21
tatsächlich	21
tender	21
verschließen	21
Qualitätsmanagement	21
GP	21
Blue	21
derer	21
Ves@@	21
gängigen	21
SV@@	21
bru@@	21
dauer@@	21
ey	21
differ@@	21
dol@@	21
aktuelle	21
glichkeiten	21
wissenschaftlich	21
unmöglich	21
genehmigte	21
sonder@@	21
670	21
ktori@@	21
Oc@@	21
Kammer	21
Projekt	21
vision	21
Cour@@	21
tta@@	21
Statut	21
Monop@@	21
Bilder	21
Verstär@@	21
Vitamine	21
nal	21
schü@@	21
ira@@	21
City@@	21
west	21
währ@@	21
Dritte	21
lock	21
Krisen	21
meg@@	21
aussch@@	21
stellbar	21
ausgestattet	21
Posten	21
GA-@@	21
verbinden	21
zugrundelie@@	21
manuellen	21
erkannt	21
Slovakia	21
Regelungen	21
fehlt	21
passt	21
20.@@	21
Stellvertretender	21
ham@@	21
austausch@@	21
verwandt	21
CO	21
gegebene	21
rung	21
wahrnehmen	21
Betreu@@	21
4.000	21
Seien	21
Tren@@	21
Fahrzeu@@	21
ON-@@	21
eindeutigen	21
kern@@	21
geschwächt	21
ursprüngliche	21
genehmi@@	21
Gasse	21
falsch	21
erweiter@@	21
Beweis	21
404	21
kombinationen	21
progressive	21
Citro@@	21
indirekten	21
Prioritäten	21
nieren	21
kalte	21
Saint	21
Main	21
gegend	21
gebühren	21
organisationen	21
beacht@@	21
Aspekt	21
ela	21
Disposition	21
Kühe	21
220@@	21
Erste	21
reno@@	21
Kürze	21
mart@@	21
wal@@	21
lux	21
Technical	21
ра@@	21
dé@@	21
berührt	21
veröffentlichte	21
trin@@	21
FC	21
Webseite	21
IA@@	21
561	21
Alexand@@	21
355	21
abhängt	21
416	21
Frü@@	21
TOS	21
HEL@@	21
EST	21
bereichen	21
Ω@@	21
angeführten	21
inzwischen	21
Toleranz	21
param@@	21
Ketten@@	21
Compliance	21
ov	21
488	21
eingebunden	21
Fün@@	21
Berichterstatters	21
vollständiges	21
9-0@@	21
tru@@	21
CO2-@@	21
bio	21
optimal	21
hälfte	21
Zent@@	21
modifiziert	21
ois@@	21
wirkten	21
abbau@@	21
bedarfs@@	21
entierte	21
ai@@	21
690	21
-3	21
Jetzt	21
Abstimmung	21
vermarktet	21
phe	21
Aussage	21
steigerungen	21
betes	21
HP	21
verantwortliche	21
Minde@@	21
County	21
Beob@@	21
Body	21
fts@@	21
opini@@	21
künfte	21
alisation	21
Dagegen	21
Starke	21
flüssigen	21
490	21
kapazität	21
Partners	21
AI	21
dossi@@	21
verzichtet	21
Entstehen	21
Gene@@	21
räu@@	21
gesucht	21
si	21
gesundheitlichen	21
ilde	21
auseinander	21
Zahnarzt	21
Diskussionen	21
3.5	21
geformt	21
BRI@@	21
ckeln	21
Stro@@	21
ITY	21
regu@@	21
ITE	21
letzt@@	21
Stark	21
seite	21
WEIS	21
Flan@@	21
Cambridge	21
wirklich	21
gestellte	21
Million	21
inische	21
fristige	21
ssige	21
т	21
1.8@@	21
raums	21
URL	21
sieht	21
code	21
Zweit@@	21
still	21
verfahr@@	20
Allen	20
komplettes	20
zäh@@	20
551	20
zt	20
Sime@@	20
chtig	20
602	20
Kategorie	20
Herausge@@	20
diskutiert	20
ausschusses	20
größeres	20
nehmbar	20
ßer	20
Anwend@@	20
em-@@	20
erheb@@	20
Fünf@@	20
gefundenen	20
propor@@	20
Indem	20
dir	20
sitzung	20
1st	20
venti@@	20
stabilität	20
499	20
gangs	20
elf	20
ción	20
einstell@@	20
Campus	20
Lieferung	20
Great	20
487	20
VII	20
524	20
angegebene	20
zehn@@	20
eigenes	20
Vereinbarungen	20
passende	20
Erforder@@	20
bestmögliche	20
	20
TA-@@	20
525	20
Akti@@	20
bedeutende	20
spä@@	20
lenken	20
Z.@@	20
ohr@@	20
Gie@@	20
Allgemeines	20
scheibe	20
Wand	20
380	20
COR@@	20
route	20
lisiert	20
Belastbarkeit	20
Trotzdem	20
mächtig	20
sie-@@	20
physische	20
it-@@	20
ermittelten	20
ualität	20
Ausdruck	20
NS@@	20
kante	20
Wo	20
dos@@	20
Einflüsse	20
Ärz@@	20
erisches	20
Haushalts	20
gesetzlichen	20
Versäum@@	20
Verschwinden	20
dierungs@@	20
bahn	20
bert	20
vorzubereiten	20
403	20
Zurzeit	20
Slowakei	20
ALLE	20
überla@@	20
aufgebaut	20
organisation	20
reisen	20
klares	20
Spender	20
praxis	20
Rom	20
bieten	20
Г@@	20
ähnelt	20
eisen@@	20
blättern	20
flüssige	20
hebung	20
Drittländern	20
technologischer	20
renn@@	20
165@@	20
staatlicher	20
Schlußfolgerungen	20
117@@	20
zufügen	20
beträchtlich	20
Hat@@	20
bis@@	20
Probe	20
begannen	20
Bran@@	20
geform@@	20
bter	20
nah@@	20
Chirurgie	20
ersatz	20
ßes	20
dire@@	20
ş@@	20
vet@@	20
bury	20
445	20
2.0@@	20
sector	20
geteilten	20
vollständi@@	20
offizielle	20
breites	20
sig	20
spalten	20
koh@@	20
š@@	20
fähi@@	20
main	20
sicht@@	20
Charles	20
bestimmung	20
bilisierung	20
1990	20
Anfan@@	20
gsp@@	20
Schutzes	20
Nah@@	20
vermei@@	20
Beth@@	20
Schwä@@	20
dokumente	20
auswirkt	20
kontrollen	20
abgenommen	20
Vereinfachung	20
industrie	20
780	20
benannt	20
digten	20
Smart@@	20
vornehmlich	20
ples	20
Avi@@	20
5,000	20
gewarnt	20
Einbau	20
Implantate	20
Barri@@	20
POL@@	20
к	20
Be-	20
anzunehmen	20
kleidung	20
passi@@	20
otential	20
fün@@	20
hl	20
Aman@@	20
aks	20
Aufstellung	20
reste	20
stunden	20
abzuschließen	20
näher@@	20
gesundheits@@	20
Anlass	20
Trink@@	20
sklasse	20
kanal	20
erfolgreicher	20
gesammelten	20
auffordern	20
geschoben	20
spezielles	20
Bislang	20
kehren	20
plant	20
konstruiert	20
Lippen@@	20
667	20
449	20
Art.	20
Begriffe	20
tate	20
aktuell	20
Identifizierung	20
enswerte	20
Mass	20
post	20
manifestiert	20
Apfel@@	20
498	20
regelmäß@@	20
Im@@	20
43-@@	20
mente	20
ausgew@@	20
jk	20
sexuell	20
ungewöhnlichen	20
Screen@@	20
ola	20
Associ@@	20
Kreis@@	20
Pho@@	20
Werden	20
wandeln	20
qualifizi@@	20
zent	20
erholen	20
DIN	20
39-0@@	20
Differenzierung	20
Area	20
überhaupt	20
Innere	20
Gefährdung	20
Hündin	20
verfügbare	20
wärmen	20
stattfindet	20
Vac@@	20
erstes	20
farbenen	20
CO2	20
Station	20
Heilmittel	20
Versuche	20
Malaysia	20
zuverlässig	20
Performance-@@	20
721	20
Ot@@	20
belassen	20
ign	20
Absol@@	20
schwachen	20
Tony	20
erschwert	20
Holz@@	20
627	20
Royal	20
fon	20
analy@@	20
LAS	20
normen	20
ano	20
Schnell@@	20
umfangreichen	20
Kulturen	20
458	20
affe@@	19
getrennten	19
.html	19
zweites	19
AND	19
Hun@@	19
logistische	19
Beauf@@	19
Bewer@@	19
350@@	19
alog@@	19
desselben	19
pflichtige	19
gie@@	19
eon	19
Häl@@	19
381	19
beträchtlichen	19
bst@@	19
angemess@@	19
Roll@@	19
ho	19
wth	19
gefahr	19
effektiven	19
Stärkung	19
Kit@@	19
ull@@	19
hinter@@	19
ji@@	19
beleuchtung	19
wach@@	19
Wut	19
atorien	19
charac@@	19
wand@@	19
fazi@@	19
Ama@@	19
timi@@	19
ML@@	19
Sprech@@	19
Vaku@@	19
ha	19
Stab@@	19
größ@@	19
kreise	19
Reflex@@	19
zunehmend	19
iz@@	19
abgesehen	19
Meilenstein	19
zination	19
schock@@	19
Voraussetzungen	19
Verbund@@	19
Don@@	19
Nä@@	19
Beck@@	19
zusamm@@	19
wehr	19
ICS	19
Proto@@	19
ausgewies@@	19
beg@@	19
standards	19
vereinbaren	19
ï@@	19
Nem@@	19
seg@@	19
vorgang	19
getrocknet	19
Keiner	19
leistet	19
Blaue	19
tels	19
25.@@	19
braucht	19
Erfüllung	19
2.3	19
obgleich	19
esti@@	19
.info	19
terung	19
Agri@@	19
cord	19
615	19
Schwefel@@	19
Oli@@	19
Quality	19
verschieden	19
Infolge	19
mot@@	19
sicherer	19
6-0@@	19
Director	19
befunden	19
menschlicher	19
zufriedenstell@@	19
zeitgleich	19
bens	19
Sm@@	19
rittel	19
market	19
Gegenwärtig	19
Katech@@	19
konstante	19
skopie	19
beginn@@	19
Ohne	19
Synth@@	19
persönlichen	19
L.@@	19
502	19
Secon@@	19
Syste@@	19
730	19
folglich	19
Antivi@@	19
parallel	19
spunkte	19
Qualitätskontrolle	19
brille	19
Rating	19
Größ@@	19
kk@@	19
413	19
schuhe	19
struktur@@	19
Vorrichtung	19
ef	19
pulver	19
424	19
225@@	19
halter	19
uth	19
jo	19
enni@@	19
multinationalen	19
Schritt@@	19
feu@@	19
ausführliche	19
Iris@@	19
Konsolidierung	19
grenzen	19
Rhein	19
tion-@@	19
Spaltung	19
sische	19
fließen	19
Leucht@@	19
Beginn@@	19
neuem	19
ADA	19
Sorge	19
lon@@	19
falsche	19
Zusatz	19
Peter	19
binnen	19
Ungleich@@	19
560	19
offensichtliche	19
Fresenius	19
tifiziert	19
Transaktionen	19
diejenige	19
.-	19
Polyester	19
Euro@@	19
AI@@	19
emie	19
geleitete	19
lings	19
Differen@@	19
entstanden	19
haf@@	19
geblieben	19
Jer@@	19
Haushaltsplan	19
Voraus	19
966	19
Mitteilung	19
Anhand	19
Federation	19
Bewältigung	19
wechselte	19
Vollendung	19
Reh@@	19
Archivierung	19
Cres@@	19
handeln	19
frühzeitig	19
leben	19
act@@	19
haftigkeit	19
bedacht	19
abger@@	19
bestmöglichen	19
optisch	19
zunimmt	19
Kund@@	19
Nichtrau@@	19
emp@@	19
senden	19
ziel	19
NC@@	19
derin	19
FLO@@	19
dynamisch	19
562	19
Stellvertret@@	19
bilater@@	19
norm@@	19
präsentiert	19
enn@@	19
Weiß	19
Teilnehmern	19
VAL@@	19
BRE@@	19
eignen	19
Minister@@	19
Teilnehmer	19
eters	19
monaten	19
skali@@	19
irgend@@	19
osteuropäischen	19
höchstwahrscheinlich	19
eres	19
ennen	19
sor	19
üh@@	19
organische	19
effekte	19
fä@@	19
Beschaffenheit	19
grade	19
509	19
tliche	19
äußert	19
Genau@@	19
abschließende	19
spiegelt	19
FRA@@	18
ve-@@	18
ded	18
Operation@@	18
behäl@@	18
kas	18
ques	18
MD	18
DEU@@	18
Details	18
Konsultation	18
kr@@	18
verzeichnet	18
‰	18
vorbereiten	18
Institutionen	18
55-@@	18
Äl@@	18
organismen	18
erweitert	18
Träumen	18
üb@@	18
Warnung	18
Wiederholung	18
.01	18
Lebens	18
10-0@@	18
verkaufen	18
opp@@	18
sweise	18
Einge@@	18
461	18
ret	18
Paseo	18
Profile	18
Centro	18
dringt	18
Verzögerungen	18
effe@@	18
points	18
MO	18
tschi@@	18
358@@	18
430	18
Arbeitsp@@	18
vergleich	18
ahn	18
cula	18
890	18
annte	18
ausschließen	18
veranlassen	18
Administration	18
amor@@	18
784	18
BN@@	18
Gor@@	18
в	18
´	18
faches	18
gewöl@@	18
schnellstmöglich	18
Aufsichtsbehörden	18
LÄN@@	18
besuch	18
eriode	18
491	18
gelehrt	18
bedarfs	18
gewählte	18
günstige	18
ctions	18
bildenden	18
Bos@@	18
Works	18
27-@@	18
Beschleunigung	18
ausbreiten	18
Start	18
zurückgegangen	18
riss	18
schutzes	18
Meilen@@	18
angeregt	18
französischen	18
Obgleich	18
Einfluß	18
TO	18
überführt	18
verabschiedeten	18
630	18
transparenten	18
Prin@@	18
demo@@	18
Unterschie@@	18
pflich@@	18
Feld	18
konkurrieren	18
Ά@@	18
Alternativ@@	18
1080	18
kalibri@@	18
gebräuch@@	18
Entwicklungen	18
onna@@	18
Quelle	18
Board	18
wü@@	18
G.	18
ätigkeit	18
Wan@@	18
vergleichen	18
ttenen	18
abschnitt	18
Lung@@	18
antrag	18
bisherige	18
gangs@@	18
Seg@@	18
Fleisch	18
Gebäude	18
Fär@@	18
unterschied@@	18
Anstrengungen	18
146@@	18
Zwecke	18
führende	18
squ@@	18
vertra@@	18
fs	18
osen	18
Ärztin	18
künstlichen	18
statisch	18
Ausstellung	18
Π	18
N.	18
Lum@@	18
kis@@	18
Asc@@	18
vent	18
funktionelle	18
Modellen	18
vergangen	18
vertret@@	18
79@@	18
loser	18
Raucher	18
Bar	18
SK	18
ware	18
software	18
osa	18
lisieren	18
reihe	18
ernährung	18
abor@@	18
ó	18
offen	18
Sind	18
rollen	18
kurzfristigen	18
Ein-	18
uch@@	18
sicht	18
body	18
lade@@	18
Viet@@	18
mand@@	18
med	18
veran@@	18
Rekru@@	18
beantra@@	18
Projekten	18
lege@@	18
tägige	18
RAS@@	18
177@@	18
defin@@	18
Hier	18
inwieweit	18
Che@@	18
lte	18
sm@@	18
una	18
gefallen	18
mungen	18
Joghurt	18
Heran@@	18
läufige	18
kei@@	18
Tom@@	18
Str@@	18
situation	18
alis@@	18
licht	18
wachen	18
rie@@	18
dicke	18
will	18
schlü@@	18
Richter	18
1.6@@	18
Netzwerke	18
.de	18
Personen@@	18
wer	18
nin@@	18
Rh@@	18
NATION@@	18
komponente	18
entscheidend	18
Wichtigkeit	18
ement@@	18
Sk@@	18
related	18
flor@@	18
Protokoll@@	18
äum@@	18
füllung	18
Experten	18
irgendeinen	18
DIN@@	18
Beweg@@	18
Bou@@	18
vorgeschriebenen	18
alpha@@	18
PR-@@	18
Tuber@@	18
seien	18
ël	18
zugeschrieben	18
eigenschaften	18
III.	18
Inspektion	18
Geflügel	18
geführte	18
Fass@@	18
Qualitäts-	18
sprach	18
istischen	18
langfristiger	18
anbelangt	18
Profils	18
Schaf@@	18
rigen	18
lass	18
Whit@@	18
Fax@@	18
Spi@@	18
bau	18
informa@@	18
SS-@@	18
Geschäfts@@	18
Zahlungen	18
staates	18
Vor-	18
Pack	18
gebro@@	18
optimiert	18
ón	18
tech	18
gewonnene	18
ed.com	18
Strecken@@	18
gehabt	18
Derartige	18
Schale	18
dopp@@	18
ни@@	17
Abschluss@@	17
gleichermaßen	17
Mut@@	17
erstellen	17
begleitenden	17
order	17
our	17
hauptsäch@@	17
556	17
urg	17
pic@@	17
Θ@@	17
584	17
Freigabe	17
optimierte	17
aussage@@	17
Verband	17
uchs@@	17
Bewusstseins	17
vertreten	17
Reihenfolge	17
marke	17
zulässig	17
Charakter@@	17
tex	17
Fische	17
Fischen	17
126@@	17
steigen@@	17
braun	17
geschlossenen	17
1.0	17
entr@@	17
Plenar@@	17
26.	17
Vorkommen	17
Lagern	17
529	17
Bedarfs@@	17
Stimme	17
unternommen	17
rekru@@	17
gesunken	17
Plat@@	17
Bearbeitungs@@	17
980	17
alternativ	17
2.0	17
keines	17
ausschuß	17
438	17
ies	17
nab@@	17
vorgeschlagen	17
911	17
Gesamt	17
japanischen	17
maten	17
missbrauch	17
festgesetzt	17
Speci@@	17
loch	17
437	17
dicht	17
ffe@@	17
Geistes@@	17
abschluss	17
Parametern	17
mop@@	17
489	17
beträchtliche	17
unabhängigen	17
einfache	17
Leicht	17
Schrift	17
harm@@	17
Beschränkung	17
monat@@	17
Abendessen	17
beseitigen	17
reten	17
sk	17
Wider@@	17
gi-@@	17
Slowak@@	17
558	17
ophysi@@	17
ko-@@	17
Sprachen	17
GMT	17
massi@@	17
wel@@	17
vorbeu@@	17
Rezept	17
ereig@@	17
ss-@@	17
befriedi@@	17
breit	17
Sammel@@	17
ce-@@	17
unmittelbare	17
einigung	17
handhaben	17
Fertigstellung	17
Schafen	17
Spezifikationen	17
Halt@@	17
Mol@@	17
ografie	17
beigetragen	17
verfolgt	17
auton@@	17
verschlei@@	17
befürwortet	17
Zurück@@	17
geräten	17
Kristall@@	17
vorab	17
set	17
3.0@@	17
PG	17
2.4	17
bekanntes	17
praktischen	17
file	17
dition@@	17
qualitativ	17
klar@@	17
stattung	17
erheblicher	17
AU	17
-01-@@	17
schritte	17
enke	17
Questi@@	17
τ	17
Route	17
arbeiteten	17
genauen	17
hinein@@	17
Beoba@@	17
skat@@	17
kranken	17
gebietes	17
391	17
DY@@	17
standardisierten	17
schl	17
durchzu@@	17
einzureichen	17
bemerkbar	17
later@@	17
zwecks	17
unmittelbarer	17
Pfe@@	17
Schn@@	17
geschaffen	17
kammern	17
Distribu@@	17
ares	17
Tö@@	17
angestiegen	17
dien@@	17
benutzten	17
Erd@@	17
Aussetzung	17
Vall@@	17
errechnet	17
gehör@@	17
Infrastruktur	17
beantragen	17
zeich@@	17
Pau@@	17
reiß@@	17
Fenster	17
skrankheiten	17
Ausschüssen	17
ll	17
Vom	17
Gran	17
hard@@	17
faßte	17
sations@@	17
quelle	17
pro-@@	17
sterten	17
ähl@@	17
Ash@@	17
umgebenden	17
Zimmer@@	17
interagieren	17
unvermei@@	17
geistigen	17
Vet@@	17
2010	17
systematische	17
befestigen	17
Arbeitsweise	17
teter	17
wenngleich	17
Mineralwasser	17
326@@	17
vi	17
auff@@	17
Lah@@	17
from	17
go-@@	17
FE@@	17
Sofort	17
platz	17
enen@@	17
orik	17
Ф@@	17
managements	17
tee	17
Baden	17
Angeb@@	17
Bath	17
Fun@@	17
Vertrau@@	17
Anforderung	17
Audits	17
ausgedrückt	17
ernste	17
öh@@	17
anscheinend	17
zeitliche	17
gehand@@	17
habt	17
Gedächtnis	17
beherrschen	17
David	17
Novi@@	17
erken@@	17
ł	17
erer	17
Notfall	17
York	17
tisch-@@	17
Verbraucher	17
cie@@	17
förder@@	17
deon	17
Köl@@	17
abhängen	17
zurückziehen	17
Fabrik	17
Zentr@@	17
wachstums@@	17
Spä@@	17
verbindungen	17
kreuz@@	17
loo	17
kt-@@	17
Diagnostik	17
610	17
forci@@	17
sek@@	17
under	17
Stimmung	17
abend@@	17
Kanal@@	17
Versch@@	17
intensiven	17
maxim@@	17
soziale	17
speci@@	17
Rückkehr	17
feld	17
Mü@@	17
of-@@	17
schließ@@	17
table	17
ett-@@	17
ún	17
super@@	17
Flori@@	17
Hauptstraße	17
berg@@	17
fizieren	17
brauch@@	17
Generaldirektion	17
Anlagen	17
tatsächliche	17
Czech	17
automatisch	17
Mitgliedstaates	17
ě	17
quip@@	17
trag@@	17
Transfer	17
zog	17
Experten@@	17
Dose	17
Prozesses	17
halb	17
EUROPÄISCHEN	17
Ink@@	17
verun@@	17
ßten	17
länder	17
hter	17
diesbezüglichen	17
King@@	17
jüngsten	17
übersicht	17
31.12.@@	17
abgehalten	17
Unterseite	17
mmet@@	17
We	17
its	17
wahrnehm@@	17
346	17
Erwartungen	17
tiertes	17
vil@@	17
fication	17
alz	17
schneiden	17
til@@	17
Je@@	16
623	16
nenden	16
Baus@@	16
deswegen	16
BAR@@	16
küh@@	16
215@@	16
ried	16
indirekt	16
resultierende	16
SR	16
	16
Kurzem	16
richtung	16
trennen	16
Wie@@	16
BRD	16
folgte	16
v-@@	16
Zeh@@	16
beugen	16
finanziellen	16
Deleg@@	16
Ñ@@	16
verfäl@@	16
tei@@	16
Vorder@@	16
gebnissen	16
einsatz	16
Antriebs@@	16
eva	16
SI	16
136@@	16
Out@@	16
Zwar	16
bus-@@	16
Pflanzen	16
herstellen	16
stellungen	16
elektrischen	16
Ejakulation	16
type	16
gerichts@@	16
protokoll	16
Instabilität	16
1100	16
beschreiben	16
folgedessen	16
Partikel@@	16
jün@@	16
Durchbruch	16
Faser@@	16
Rauch@@	16
Bestimmungs@@	16
RP	16
Bewertungen	16
Berichts@@	16
logo	16
Verpflichtungen	16
stange	16
festhalten	16
ests	16
quote	16
Bek@@	16
ohn@@	16
Erläuterungen	16
komi@@	16
Herrn	16
Black@@	16
äußerte	16
Knopf	16
Б	16
ual	16
Berat@@	16
eil	16
ár@@	16
39-@@	16
geleistet	16
Liegt	16
gängig	16
nd@@	16
Sant	16
alkohol@@	16
wein@@	16
illen	16
1,00	16
T2	16
Transpar@@	16
amtliche	16
terer	16
Ebenfalls	16
ungsprobleme	16
May@@	16
770	16
berücksichti@@	16
gang@@	16
äuren	16
42-@@	16
VIS	16
angestre@@	16
unen	16
Hierdurch	16
Ware	16
Zeitplan	16
agon	16
JO@@	16
428	16
388	16
lers	16
720	16
Beobachter	16
Alpha	16
Gas	16
Resultat	16
ausreichen	16
behalten	16
stimmten	16
evtl.	16
ü	16
Amtssprachen	16
Cus@@	16
etti	16
514	16
Provi@@	16
Toler@@	16
Van	16
Empfänger	16
aden	16
gerechte	16
Abgesehen	16
ress@@	16
Berater	16
Stellungnahmen	16
559	16
Software	16
spezieller	16
GH@@	16
Palazzo	16
jahres@@	16
Handels	16
Herden	16
Amei@@	16
örtliche	16
Sloven@@	16
522	16
voran@@	16
schreiten	16
liegend	16
eile	16
Lenk@@	16
abstimmen	16
gert	16
ane@@	16
Vali@@	16
Termine	16
forma@@	16
Technologien	16
rieben@@	16
Porto	16
Vogel@@	16
Parque	16
Hein@@	16
elen	16
Martin	16
dynamischer	16
Ms	16
obigen	16
gewohn@@	16
großem	16
521	16
Konvention	16
öhn@@	16
chteter	16
irgendwelchen	16
zed	16
verzichten	16
ush@@	16
ill	16
leister	16
zugewiesen	16
link@@	16
brau@@	16
drin@@	16
inn	16
töten	16
internationaler	16
eindeu@@	16
lusive	16
Umstrukturierung	16
Sever@@	16
GLO@@	16
site	16
ξ@@	16
Land@@	16
∆	16
zugehen	16
stance	16
iegel	16
Agenturen	16
Ausgangspunkt	16
geforderten	16
behin@@	16
Jones	16
NC	16
Duschen	16
maßes	16
überarbeitet	16
aj@@	16
unkomp@@	16
kehrten	16
frag@@	16
verlangt	16
661	16
teilnehmenden	16
Mant@@	16
zulegen	16
bers	16
wunden	16
Progno@@	16
Terminologie	16
reib@@	16
Gebühr@@	16
Zin@@	16
Indon@@	16
Summe	16
Anschlag	16
Document	16
775	16
Runde	16
anger	16
Saint-@@	16
zertifizierten	16
447	16
gewinnt	16
Schließlich	16
droh@@	16
entspannen	16
ausen	16
feldes	16
Interim@@	16
gleichmäßige	16
usammensetzung	16
Fak@@	16
Erfordernissen	16
Jonas	16
anzuregen	16
pel	16
geschmack	16
missionen	16
sator	16
Betriebs@@	16
habe	16
eingehend	16
leitete	16
453	16
Erdbe@@	16
22-@@	16
konzentrieren	16
Ath@@	16
Vermarktung	16
Deck@@	16
geordnete	16
546	16
Rotations@@	16
125@@	16
zusammengesetzt	16
Silizi@@	16
mac	16
Ma	16
Getränk	16
tragungs@@	16
älen	16
end-@@	16
schritt	16
erweitern	16
.Die	16
befassen	16
brä@@	16
fuhren	16
diensten	16
Form@@	16
vere	16
hir@@	16
UE	16
belegte	16
genauer	16
Kombini@@	16
managementsystem	16
dener	16
glichkeit@@	16
Füllen	16
konzentriert	16
Gehör@@	16
vorderen	16
É@@	16
veranlasst	16
tierter	16
ling	16
liefer@@	16
rieb@@	16
gres@@	16
05.@@	16
hrt	16
Unregelmäßigkeiten	16
sehr@@	16
Datenbanken	16
Verwaltungsrats	16
01.01.@@	16
Pin@@	16
Zeiträume	16
Zähnen	15
cis@@	15
ersu@@	15
ula	15
tal@@	15
ak-@@	15
gestattet	15
sung	15
eingehenden	15
angelegenheiten	15
market@@	15
schienen	15
kür@@	15
Außen@@	15
inge	15
B1	15
Merkmalen	15
vorbereit@@	15
vierung	15
lichere	15
515	15
WS	15
Nicar@@	15
esischen	15
binder	15
aktivieren	15
Eindringen	15
Ausbruch	15
481	15
ffekt	15
4x@@	15
356@@	15
usch	15
mitglieder	15
Kindheit	15
Marcel	15
577	15
spezifi@@	15
heißen	15
dunklen	15
verlangte	15
ausführ@@	15
erläutern	15
bewertungen	15
recht	15
Anfragen	15
misch@@	15
-Fel@@	15
ci	15
Sr@@	15
rust@@	15
wichtiges	15
versorgen	15
Markierungen	15
Food	15
474	15
Д@@	15
itali@@	15
Andernfalls	15
separ@@	15
wass@@	15
olin@@	15
mmer@@	15
pun@@	15
2,00	15
proto@@	15
ре@@	15
pp	15
ausrüstung	15
П	15
Amtsblatt	15
onnen@@	15
überdies	15
kus@@	15
daten@@	15
bilder	15
angewandten	15
tur@@	15
Vögel	15
Beschaffung	15
einfachen	15
Inc.	15
ols	15
alerweise	15
REM@@	15
ergänzende	15
Host@@	15
Fühlen	15
Sechs	15
beteiligung	15
393	15
buch	15
Kalibri@@	15
Gunsten	15
angepasste	15
anderweitig	15
steins	15
Berichts	15
ungsprozesses	15
erhebung	15
weitergegeben	15
Haar	15
moderate	15
besetzt	15
zel	15
like	15
charakter@@	15
fahr@@	15
entsprechendes	15
Gin@@	15
10-15	15
Contra@@	15
kü@@	15
vorgelegte	15
schlägt	15
andererseits	15
edel@@	15
Berech@@	15
Greece	15
DJ	15
plet@@	15
Weizen@@	15
renov@@	15
Reinhard	15
Rast@@	15
Büro	15
berfläche	15
Fahrzeuge	15
nennt	15
Besuch	15
gues	15
empfangen	15
ÜBER	15
klassischer	15
aufkommen	15
erson	15
letz@@	15
Dienst	15
zia	15
ärzte	15
bewältigen	15
Χ@@	15
Zugriff	15
Signale	15
Ros@@	15
Amsterdam	15
prepar@@	15
schritten	15
eigentlichen	15
stützt	15
Fusion	15
Allergi@@	15
lic@@	15
Ruhe	15
Phänomen	15
reinigung	15
513	15
Bestimm@@	15
lib@@	15
ÜBER@@	15
EI	15
One	15
enne	15
rufen	15
landes@@	15
ilo	15
Pfei@@	15
1,20	15
Gesundheit@@	15
Core	15
Färbung	15
Aber@@	15
band	15
tif	15
EW	15
unerlässlich	15
gtes	15
Hause	15
570	15
erschweren	15
Zusammenfass@@	15
ope	15
geführten	15
gegliedert	15
zwöl@@	15
urin	15
entierten	15
gemischten	15
Instandhaltung	15
Streu@@	15
Kontaktieren	15
Begriff	15
PB	15
lo-@@	15
K.	15
Telefon@@	15
PM	15
On-@@	15
ke-@@	15
durften	15
enswerten	15
bleibend	15
kammer@@	15
release	15
stoppen	15
Tiefe	15
Lern@@	15
verstehen	15
halte	15
sogen@@	15
r.	15
Welt	15
Format	15
konfer@@	15
Haupts@@	15
ATION	15
ports	15
Erweiterungen	15
schwächer	15
kürzeren	15
Ich	15
PV	15
elektrische	15
essment	15
zente	15
Off	15
Völ@@	15
89-@@	15
ville	15
Haup@@	15
Schien@@	15
viertel@@	15
States	15
Fazi@@	15
Wein	15
übergeben	15
ids	15
verwirrt	15
heil@@	15
bedeutend	15
Spekt@@	15
zugang	15
Det@@	15
pause	15
Fäl@@	15
Gefähr@@	15
dahin	15
Executive	15
interner	15
Kro@@	15
Regional	15
594	15
problemlos	15
Burg@@	15
NT	15
farm	15
Patrick	15
Gefrierfach	15
701	15
wovon	15
gh@@	15
ersucht	15
ų	15
orientieren	15
Register@@	15
sprechen@@	15
rest@@	15
Over@@	15
diente	15
Diensten	15
unterstützung	15
eite	15
Rosa	15
Workshop	15
Augenmerk	15
Grenzen	15
Lebensweise	15
Abend@@	15
eintrag	15
Sorg@@	15
pothe@@	15
court	15
476	15
04.@@	15
sta-@@	15
Zielsetzungen	15
dist@@	15
jas	15
CUR@@	15
ache	15
223@@	15
galt	15
2008-@@	15
abzustimmen	15
ames	15
з@@	15
optimieren	15
910	15
589	15
brech@@	15
hervorgeht	15
ück@@	15
verlief	15
vorteil@@	15
BU@@	15
RIS	15
einschließt	15
viert	15
ast	15
griff	15
gleichwer@@	15
kritischen	15
dünn	15
mitunter	15
Plasti@@	15
herkömm@@	15
beschäftigt	15
DI	15
Kiefer	15
ahmen	15
anda	15
Überlegungen	15
Chemi@@	15
č@@	15
Delegation	15
Schmier@@	15
entdeckt	15
Papp@@	15
Einheit@@	15
Alkoholi@@	15
Alber@@	15
widerstand	15
Stö@@	15
Genauigkeit	15
Wert@@	15
olle@@	15
zierung	15
€	15
fr	15
pft	15
planung	15
MW@@	15
Wort@@	15
zulassen	15
bedürf@@	15
anwendungen	15
Kalorien	15
Bed@@	15
5.4	15
fleisch	15
beschädigen	15
Kohlenstoff@@	15
Stern@@	15
Systemen	15
gründen	15
El	14
ensystems	14
Verzeichnis	14
weichungen	14
zylinder	14
Hak@@	14
e.@@	14
ähneln	14
gabe@@	14
beschränkten	14
Vorhaben	14
Schreiben	14
oth@@	14
gefährden	14
schwar@@	14
bad	14
servation	14
19.	14
Regeln	14
abgedeckt	14
-10	14
76-@@	14
gemä@@	14
ktives	14
Schafe	14
Mur@@	14
dig@@	14
1986	14
1988	14
Eil@@	14
Scan@@	14
gebenden	14
468	14
Erwägungen	14
formi@@	14
lampen	14
tigte	14
stellvertretender	14
629	14
Unfall@@	14
stum@@	14
organis@@	14
Aber	14
pflan@@	14
genetisch	14
Hindernis	14
Verzö@@	14
Parteien	14
derungs@@	14
665	14
Weinen	14
Bul@@	14
Praxis@@	14
grades	14
künftig	14
Akzep@@	14
vertritt	14
Aufkleber	14
Kalender	14
schub	14
gepres@@	14
geräte	14
lei	14
diffic@@	14
FDA	14
aker	14
künftigen	14
mine	14
anerkannten	14
Neg@@	14
oll@@	14
konzentri@@	14
ausstattung	14
Rea@@	14
einheitlichen	14
482	14
dete@@	14
bezeichnung	14
verwies	14
Hoff@@	14
ständiges	14
sst	14
ica	14
generelle	14
ental	14
Tei@@	14
erhaltenen	14
д	14
zentraler	14
Hilf@@	14
Bereits	14
Zeigen	14
Deb@@	14
traf	14
unmittelbaren	14
einander	14
cen	14
tragung	14
Blin@@	14
Hunde@@	14
rost@@	14
stößt	14
569	14
Treffen	14
missi@@	14
eingeh@@	14
rät	14
reinen	14
rund@@	14
Diesen	14
SAL@@	14
könne	14
Abwehr	14
PAL	14
BL	14
Akkum@@	14
Widerspruch	14
ita@@	14
Stati@@	14
dak@@	14
Keim@@	14
skop	14
224@@	14
unten@@	14
Thre@@	14
jagen	14
tie	14
zweck@@	14
definierte	14
Listen	14
Sorgen	14
511	14
pools	14
Maß@@	14
einführen	14
strukturelle	14
geäußert	14
sum	14
Vienna	14
unterrichten	14
dura	14
Sap@@	14
schnelleren	14
eindringen	14
Abteilungen	14
2.8@@	14
Sport	14
reagi@@	14
übernommen	14
Cent@@	14
uf@@	14
computer@@	14
Ausrüstung	14
fter	14
skräfte	14
Unterstütz@@	14
endet	14
eley	14
equi@@	14
aktualisieren	14
dunkle	14
sing-@@	14
GV@@	14
vorhaben	14
ologie@@	14
mini	14
699	14
Frem@@	14
messung	14
710	14
439	14
Rec@@	14
Schlü@@	14
rücken	14
PC-@@	14
richt	14
eindeutige	14
Kanin@@	14
reißen	14
leichter@@	14
Membran	14
Besorgnis	14
Frank@@	14
vertrieb	14
chtlicher	14
EG-@@	14
Michel	14
STU@@	14
stammende	14
eingeholt	14
Corpor@@	14
getroffenen	14
tauchen	14
Erhebung	14
herauszufinden	14
ausgedehnte	14
RS-@@	14
otenti@@	14
elle@@	14
besonderem	14
option	14
ISBN	14
anregen	14
konstanten	14
ás	14
870	14
apparat	14
595	14
unerwartet	14
fahrzeugen	14
Verbraucher@@	14
belast@@	14
Kompl@@	14
konferenzen	14
dk	14
571	14
mangels	14
einheitliche	14
Ein-@@	14
ön@@	14
grün@@	14
Koff@@	14
Kenn@@	14
schlusses	14
mt	14
installiert	14
index	14
Modelle	14
Investoren	14
Erfordernisse	14
aris	14
stress	14
lieferten	14
other	14
geworfen	14
Sign@@	14
flachen	14
ernähr@@	14
Zam@@	14
dünne	14
enta@@	14
elia	14
abteilung	14
naher	14
digte	14
experiment@@	14
306	14
Gewässer	14
globale	14
ction@@	14
strauen	14
Mom@@	14
Reu@@	14
breiter	14
Sofia	14
CHF	14
563	14
klappen	14
pink	14
Impul@@	14
künftige	14
EGF	14
Entsteh@@	14
ersichtlich	14
integrierten	14
schlechtes	14
Programm@@	14
15.@@	14
kon	14
unvollständig	14
chtigung	14
Erscheinung	14
ausgedehnt	14
Hefe	14
Schle@@	14
417	14
Todes	14
mige	14
Building	14
davor	14
schlag@@	14
England	14
Astro@@	14
abschließenden	14
fein@@	14
inischen	14
Simp@@	14
Bett@@	14
erinnert	14
4-5	14
optionen	14
sak@@	14
Drogen	14
usses	14
Versionen	14
Spannungs@@	14
lässi@@	14
Baltic	14
Han@@	14
Defizi@@	14
24-Stunden-@@	14
agiert	14
Ausführung	14
globalen	14
TE@@	14
atz@@	14
EU-Staaten	14
Ziffer	14
unum@@	14
gänglich	14
Max@@	14
krei@@	14
Cra@@	14
Gehäus@@	14
3.4	14
belief	14
Anstrengung	14
sprobl@@	14
Ordnung	14
91-@@	14
kopf	14
künstlich	14
ry-@@	14
oberflächen	14
mach@@	14
32.@@	14
Easy@@	14
lisch	14
ER-@@	14
DIS@@	14
seit@@	14
EAS@@	14
Assoziation	14
97-@@	14
jemandem	14
PET@@	14
geringste	14
05-@@	14
Wirtschafts@@	14
contin@@	14
zed@@	14
zone	14
Booster	14
nennen	14
f.	14
Schnitt@@	14
466	14
Tage@@	14
vation	14
Betä@@	14
Schätz@@	14
stens	14
Manchmal	14
Proz@@	14
guta@@	14
Queen@@	14
beunruhigt	14
Klärung	14
aufnahmen	14
kurren@@	14
3.0	14
erstör@@	14
unterrichtet	14
Wick@@	14
Füllung	14
Volume	14
offen@@	14
Fettsäuren	14
esystem	14
J.@@	14
PF	14
erhaltene	14
tionale	14
Variablen	14
explor@@	14
beläuft	14
810	14
prü@@	14
re-@@	14
bibli@@	14
sech@@	14
Bir@@	14
rohr	14
c.	14
sterung	14
Rote	14
sichtlichen	14
2.6	14
Dec@@	14
bemühen	14
250@@	14
implementieren	14
Parti@@	14
Gam@@	14
komplexen	14
regul@@	14
31.0@@	14
vin	14
Diesel@@	14
Freitag	14
Tuch	14
ells	14
434	14
Gebiets	14
irgendetwas	14
anwendbar	14
sti	14
Stall@@	14
arden	14
MAC	14
Berlin-@@	13
iel	13
abel	13
Integration	13
Geltungsbereich	13
te-	13
t.@@	13
schrän@@	13
Alu@@	13
Lyme-Borreliose	13
patienten@@	13
Alkoh@@	13
Steuerung	13
steuern	13
existiert	13
unternehmen	13
Option	13
5.0@@	13
weiblich	13
aufzeigen	13
effizienten	13
ements	13
Nr	13
rent	13
TL	13
Fehler	13
Ley@@	13
gangsp@@	13
leiterin	13
minimiert	13
Kits	13
augen@@	13
bl	13
kön@@	13
ausschlag@@	13
zeitig	13
förmigen	13
ann	13
539	13
strichen	13
Tie@@	13
betreuen	13
bereitet	13
eux	13
scheren	13
vermerkt	13
Brent@@	13
664	13
prozesse	13
eingesetzte	13
risches	13
antworten	13
isol@@	13
Konzept	13
wünschten	13
aufhalten	13
nutz@@	13
forderten	13
Seiten@@	13
bourne	13
Era@@	13
1991	13
ч@@	13
weiterung	13
one-@@	13
Europäisches	13
tt	13
dienstes	13
Publikationen	13
World	13
strahlt	13
Kommunikations@@	13
schätzungsweise	13
Kek@@	13
fied	13
Bl@@	13
leger	13
berater	13
Bulgaria	13
kova	13
gängi@@	13
Mehrere	13
Bean@@	13
Falt@@	13
stationären	13
zurufen	13
angefertigt	13
549	13
Plateau	13
.1	13
Fernando	13
kni@@	13
strich	13
räum@@	13
Gehir@@	13
zusehen	13
seb@@	13
hte	13
531	13
uns	13
bogen	13
INA	13
einverstanden	13
legten	13
unt	13
asiatischen	13
elli	13
KB@@	13
Reise	13
individu@@	13
kret	13
pol	13
grünen	13
Η	13
Anth@@	13
itzen	13
nunmehr	13
rea@@	13
O2	13
esc@@	13
best@@	13
betro@@	13
JA	13
mans	13
eingerei@@	13
alitäts@@	13
Ausweitung	13
EPS	13
Bedingung	13
einrichtungen	13
sc	13
Hier@@	13
83@@	13
parall@@	13
gestört	13
wall	13
wunsch	13
-4	13
abdecken	13
erfassen	13
erkannte	13
sag@@	13
Euro	13
biger	13
enkomp@@	13
erfahr@@	13
573	13
schrä@@	13
chirurgie	13
1234@@	13
Gaumen	13
vermischen	13
Qualität@@	13
IE@@	13
ζ@@	13
hüllt	13
antie	13
Erheb@@	13
Berichterstattung	13
vorhand@@	13
geprä@@	13
eicher@@	13
For	13
pain	13
HI	13
informations@@	13
verpflich@@	13
Ergeb@@	13
stärksten	13
RAT	13
neuesten	13
Moleküle	13
versor@@	13
06.@@	13
li	13
Übersetzungs@@	13
596	13
angenehme	13
Praktiken	13
vollkommen	13
entfernung	13
reich	13
situationen	13
ny	13
ilität	13
einschränken	13
ÖR@@	13
cara	13
Penis@@	13
Reykja@@	13
п	13
Antioxi@@	13
HEIT@@	13
xx@@	13
Klassen@@	13
Les@@	13
vereinbar	13
tto@@	13
geleiteten	13
Roy@@	13
Uni	13
gelegenheiten	13
Tho@@	13
sauber	13
Kolle@@	13
Zucht	13
kürz@@	13
ti-@@	13
nähere	13
Wiscon@@	13
Ca	13
flei@@	13
Stock@@	13
tages@@	13
Di	13
ello	13
Haltung	13
Engagement	13
Tours	13
Gesellschaft	13
konsul@@	13
346@@	13
mmel	13
wu@@	13
physischen	13
sprogramms	13
A5	13
bildende	13
ausübt	13
praktizieren	13
Effektivität	13
eingefügt	13
hasen	13
ESS@@	13
Fertigung	13
799	13
Hil@@	13
on.@@	13
Bier	13
Elisa@@	13
günstigen	13
strahlen	13
Verschiebung	13
Ear@@	13
gewartet	13
eilige	13
Interna@@	13
schaffen	13
ssig	13
Geräusch	13
Schwester	13
umgebung	13
Herz-@@	13
chtiger	13
Chief	13
Mitwirkung	13
besorgt	13
ersystem	13
Skali@@	13
geträn@@	13
chth@@	13
koord@@	13
Production	13
144@@	13
ach	13
steck@@	13
Sex	13
gebene	13
Mail	13
totale	13
Zentrums	13
risch	13
Spa@@	13
yes	13
Unterschieden	13
lack@@	13
tritts	13
regulären	13
Vertretung	13
vorzuschlagen	13
Symbol	13
SYST@@	13
Per	13
pil@@	13
koordiniert	13
Erneu@@	13
ling@@	13
Exten@@	13
cat	13
Ø	13
ram	13
kurve	13
Verpflichtung	13
anzugeben	13
luft@@	13
Gerhard	13
schnellere	13
stattdessen	13
meter	13
Kultur	13
Fünf	13
vervollständigen	13
Gou@@	13
raining	13
gele@@	13
bten	13
Domäne	13
Fast	13
149@@	13
Magi@@	13
voran	13
Korrektur@@	13
Eiern	13
tend	13
gearbeitet	13
rer	13
klu@@	13
typisch	13
Wissen	13
produzierten	13
Kette	13
ans@@	13
beizubehalten	13
4.0	13
stand@@	13
Forschungs-	13
Mini-@@	13
geführ@@	13
gefährlicher	13
standardi@@	13
oter	13
humor@@	13
Dinge	13
verbun@@	13
Scienti@@	13
selbstständig	13
macher	13
Stoff@@	13
Interessen@@	13
entliches	13
lans	13
geschwindi@@	13
Wör@@	13
variabel	13
EURO@@	13
bevorzugten	13
ßen@@	13
ras	13
sagte	13
ª	13
452	13
Verun@@	13
Big@@	13
erzeu@@	13
Place	13
Äuß@@	13
1-1	13
eus	13
män@@	13
Sitz	13
2004-@@	13
Buch@@	13
212@@	13
fertigte	13
lem@@	13
gerichtete	13
km	13
sammelt	13
mau@@	13
quality	13
ř	13
ok	13
bereitzustellen	13
φ	13
Unver@@	13
spunkt	13
ruppe	13
TU@@	13
XY@@	13
politik	13
Strecke	13
baus@@	13
echan@@	13
GEMEIN@@	13
neuer@@	13
gess@@	13
direktor	13
CO-@@	13
befasst	13
64-@@	13
655	13
700@@	13
erhält@@	13
Syl@@	13
Sonntag	13
KT	13
Vitaminen	13
Fas@@	13
Einzelne	13
Minderung	13
beauf@@	12
496	12
effiziente	12
women	12
Inten@@	12
Haf@@	12
beschränkte	12
UV	12
Marb@@	12
Stephen	12
≈	12
279@@	12
Lauf	12
skri@@	12
bedeutender	12
entgegen	12
angabe	12
Anmerkungen	12
BET@@	12
08.@@	12
initiiert	12
kehrt	12
Last	12
angehoben	12
Maj@@	12
Anpassungen	12
Audit@@	12
links	12
aufsichts@@	12
Breit@@	12
wendung	12
ultur@@	12
bereite	12
meine	12
lux@@	12
697	12
luß	12
GF	12
ws	12
abe	12
strukturellen	12
kombinieren	12
scan@@	12
Louise	12
Lehr@@	12
fugen	12
fließt	12
weicht	12
cable	12
Medizinische	12
Anhän@@	12
385	12
Nij@@	12
repräsent@@	12
Darf	12
ust@@	12
Knie	12
Selbstmord	12
erzeugte	12
zeitweise	12
exakt	12
dreht	12
stätten	12
Utrecht	12
MU@@	12
chung	12
East@@	12
alterna@@	12
Genehmi@@	12
Bezugs@@	12
IDE	12
bem	12
auszuüben	12
dementsprechend	12
hinunter	12
25.000	12
US-amerikanischen	12
EO@@	12
einsetzt	12
Н@@	12
hnen	12
Außer@@	12
Übermittlung	12
fern@@	12
tv	12
restri@@	12
atem@@	12
Schulungen	12
Texte	12
etten@@	12
beseitigt	12
befesti@@	12
einheit@@	12
chan@@	12
Stillstand	12
Ray@@	12
gni@@	12
seitigen	12
cm@@	12
Ähnlich	12
Grundsätzlich	12
Famili@@	12
tage	12
Dol@@	12
.p@@	12
Vorschlägen	12
sky	12
maske	12
Mandat	12
sr@@	12
chtlichen	12
6-8	12
verfolgen	12
Pumpen@@	12
mitglied	12
schungs@@	12
Romano	12
garantiert	12
NET	12
laubnis	12
dk@@	12
Weißen	12
Heiz@@	12
funktionieren	12
satzes	12
ahmt	12
schlüssen	12
Zone	12
einleiten	12
enden@@	12
en.@@	12
è@@	12
allgemeiner	12
bak@@	12
demzufolge	12
potential	12
egor@@	12
sigen	12
appro@@	12
angeführt	12
extremen	12
ehe	12
lies	12
Limi@@	12
port@@	12
Aufklärung	12
IW@@	12
Berk@@	12
use@@	12
Rund	12
Depot	12
strukturen	12
590	12
ehle	12
gewirkt	12
lautet	12
technischer	12
ministerium	12
angehörige	12
-25	12
Low-@@	12
wes@@	12
bestimmtes	12
umliegenden	12
linke	12
Meier	12
2.7	12
unbekannten	12
Fachkräfte	12
Gesundheitswesen	12
verkürzen	12
vieler	12
elektronischer	12
subje@@	12
Leere	12
Compa@@	12
steinen	12
sw@@	12
Verbren@@	12
angel@@	12
vey	12
pure	12
27.	12
Bestand	12
Dreieck	12
Absprache	12
leitet	12
Widerstand	12
dans	12
ach-@@	12
hlen	12
518	12
Daraufhin	12
Alternativen	12
213@@	12
toler@@	12
Court	12
Kopenhagen	12
matic	12
Rank@@	12
ley@@	12
mith	12
inal	12
teilt	12
Promotion	12
bedürftigen	12
dä@@	12
Schlafen	12
wünschen	12
Herkunfts@@	12
Regimes	12
ssiges	12
888	12
Are@@	12
473	12
sechsten	12
vorzugehen	12
Abstammung	12
Za@@	12
Räumen	12
SPA	12
OLA@@	12
Mc@@	12
iss@@	12
fasern	12
gezü@@	12
korrigieren	12
443	12
wiederhergestellt	12
fassen	12
design	12
ausführlichen	12
during	12
Sult@@	12
Korn@@	12
On	12
Fan@@	12
glat@@	12
576	12
1.6	12
hof	12
106@@	12
Republic	12
Ringen	12
forts@@	12
gno	12
Entspannung	12
Haushaltsplans	12
fran@@	12
Integra@@	12
Sozial@@	12
revi@@	12
Working	12
2.8	12
pfel@@	12
Holland	12
37-@@	12
ín	12
Bedürfnisse	12
übereinstimmt	12
ov.@@	12
Asi@@	12
Sa	12
organischen	12
digkeit	12
Dementsprechend	12
recht@@	12
apar@@	12
ason	12
gründliche	12
967	12
Rollen	12
Gö@@	12
Räumlichkeiten	12
Erholungs@@	12
PM@@	12
beeinflußt	12
Defizite	12
Verordnungen	12
öpf@@	12
Max-Planck-@@	12
ary@@	12
fungen	12
Benö@@	12
kehrte	12
ã@@	12
Zuständigkeit	12
sachen	12
inf@@	12
heran@@	12
tes@@	12
atz	12
Seit@@	12
breitet	12
basierenden	12
Edelstahl@@	12
Zwei-@@	12
925	12
Miß@@	12
sn@@	12
zion@@	12
Blick	12
spezifiziert	12
kenn@@	12
enkungen	12
erweiterten	12
zeige	12
Kuchen	12
etzung	12
Georges	12
produzierte	12
Rönt@@	12
179@@	12
Reichweite	12
sp	12
aben	12
zonen	12
transparente	12
beantworten	12
Hunger	12
Fis@@	12
haushalt	12
ules	12
intensiver	12
Einheitlichkeit	12
isten	12
herrsch@@	12
All	12
stopp@@	12
zugenommen	12
Aku@@	12
INI	12
gutes	12
µ	12
stic	12
iss	12
Sein	12
Mittwoch	12
eim@@	12
Tief@@	12
IK@@	12
206@@	12
Wichtig	12
BRO@@	12
vorschlagen	12
Dü@@	12
Einsatzes	12
ruhig	12
140@@	12
Klo@@	12
Noch	12
activ@@	12
flat@@	12
Zus@@	12
bezeichnete	12
akete	12
entfällt	12
bauen	12
Volks@@	12
vorläufige	12
digitaler	12
Ok@@	12
widerrufen	12
ING	12
rock	12
Go@@	12
Ion@@	12
zeichneten	12
samm@@	12
Technology	12
Grundsätze	12
kennung	12
Frequenz	12
DM	12
1985	12
Verpackungs@@	12
vorgangs	12
zerstören	12
prin@@	12
Instrumente	12
isiert	12
zubereiten	12
angelegten	12
rechtlicher	12
ordnungen	12
Abwicklung	12
komplexe	12
altet	12
level	12
Lage@@	12
genau@@	12
Innovation	12
leitungen	12
information@@	12
ungefähr@@	12
TRE@@	12
stört	12
226@@	12
Bern@@	12
ausgedehnten	12
Zun@@	12
label	12
kompl@@	12
day	12
abili@@	12
ummer	12
entstandene	12
Glanz@@	12
Ausübung	12
Inse@@	12
Typische	12
gekühl@@	12
14.@@	12
reale	12
realer	12
Master	12
504	12
Gleichgewicht	12
Freiwillige	12
Bescheid	12
uli	12
Zykl@@	12
größt@@	12
lv	12
aufbewahr@@	12
teilzunehmen	12
splanung	12
ländern	12
sicherheit@@	12
Fette	12
3-1	12
Biom@@	12
Plattform	12
ich@@	12
anie	12
effect	12
reichen@@	12
dele@@	12
vie	12
aba	12
verleiht	12
wertvolle	12
beratung	12
geschlossene	12
Saft	12
587	12
Goo@@	12
Wirtschaftsraum	12
britannien	11
ABC	11
läufe	11
Investi@@	11
child	11
33,@@	11
.es	11
erische	11
zögern	11
An-	11
strenge	11
Lot	11
Apri@@	11
Orgas@@	11
Ejaku@@	11
4.0@@	11
umfaßt	11
inneh@@	11
formationen	11
quarti@@	11
erweist	11
gestütz@@	11
47-@@	11
Packaging	11
borg	11
tren@@	11
atus	11
Grav@@	11
532	11
Hergestellt	11
jähr@@	11
Mais	11
236@@	11
bedeutsam	11
verarbeitet	11
nov@@	11
staats	11
CAS@@	11
1984	11
zweiter	11
Peak	11
315@@	11
haus@@	11
Haben	11
Input	11
dz@@	11
heftig	11
scho@@	11
Miete	11
Schwarz@@	11
fiziert	11
etzt	11
gefordert	11
eht	11
Modul@@	11
Liechtenstein	11
-Funk@@	11
erarbeiten	11
eingehen	11
vorzeitige	11
harte	11
iet	11
219@@	11
Wellen@@	11
Laser	11
Süßigkeiten	11
679	11
Chal@@	11
papier	11
Taste	11
Websites	11
birgt	11
BB@@	11
Pass	11
utz@@	11
Umfrage	11
Bibliothek	11
skur@@	11
Burk@@	11
gegeneinander	11
bekommt	11
HL@@	11
1,50	11
mond	11
ungsspektrum	11
Instrument@@	11
theore@@	11
angeordnet	11
Cur@@	11
far	11
Standpunkt	11
brennen	11
Rai@@	11
sprodu@@	11
Konkurrenz	11
mitzuteilen	11
Spül@@	11
Mängel	11
kehrung	11
023@@	11
38-@@	11
Widerruf	11
einerseits	11
Feuchtigkeits@@	11
verhältnissen	11
Wachs	11
stär@@	11
schir@@	11
möglichkeit	11
BG@@	11
u.@@	11
dritt@@	11
time	11
entstehenden	11
Büros	11
steller	11
Pa	11
dad	11
Irish	11
Dritt@@	11
Alfred	11
strahl@@	11
strahl	11
signale	11
GAL@@	11
Nähr@@	11
Kapazität	11
herab	11
aufgezeichnet	11
stücke	11
abo	11
ettes	11
stron@@	11
40.000	11
berto	11
wendet	11
Sicherheits-@@	11
tter	11
Wunsch	11
Größen	11
Guil@@	11
gebildete	11
Orangen@@	11
American	11
verbindet	11
die@@	11
chsen	11
tagsüber	11
zukünftigen	11
Type	11
kompletter	11
giene	11
lieferte	11
1983	11
zulässige	11
Expan@@	11
Maria	11
signifi@@	11
nüsse	11
Sofor@@	11
available	11
ruck@@	11
versetzt	11
ämpfung	11
gemäßen	11
Commission	11
transpar@@	11
zutreff@@	11
zerstör@@	11
IER@@	11
verschwand	11
WA@@	11
überle@@	11
eilig	11
GN@@	11
Persönlichkeits@@	11
Teams	11
gendsten	11
Eric	11
Ernennung	11
neutr@@	11
natürlicher	11
Para@@	11
Messer@@	11
ttern	11
entscheidenden	11
konserva@@	11
f.@@	11
ungssysteme	11
Blind@@	11
gebil@@	11
Do	11
hiervon	11
geladene	11
Experiment@@	11
extremer	11
Anzeige	11
einsatz@@	11
kopf@@	11
erung@@	11
Sequ@@	11
verblieben	11
aufgeb@@	11
öffnung	11
mium	11
besi@@	11
äußerten	11
vorgehen	11
geladen	11
umfan@@	11
egt	11
CZ	11
611	11
erheben	11
elling	11
German@@	11
ultra@@	11
sparung	11
Soll	11
kommens	11
Tot@@	11
Inkrafttreten	11
Oft	11
Lok@@	11
Aufgaben@@	11
240@@	11
spannen	11
660	11
igkeit	11
zip@@	11
Klammern	11
éri@@	11
230@@	11
mangelnden	11
EUROP@@	11
wesentlicher	11
befanden	11
frist	11
bestellen	11
Dom@@	11
Pflanzen@@	11
ungsprobl@@	11
Politik	11
Nationale	11
num@@	11
Prognosen	11
korre@@	11
optimi@@	11
kommen@@	11
ă	11
etri@@	11
Berechnungen	11
skraft	11
Funktionieren	11
kultur@@	11
mancher	11
drückte	11
erstellte	11
frisch	11
messungen	11
schnitt	11
707@@	11
án@@	11
raubt	11
Control	11
Erweiterungs@@	11
resultierenden	11
spal@@	11
techni@@	11
Bandbreite	11
technology	11
multination@@	11
ix@@	11
Spal@@	11
Hohl@@	11
dell	11
organisiert	11
Pie@@	11
sprüh@@	11
ausgehen	11
Deswegen	11
wechslung	11
mitwirken	11
ierungen	11
Mi	11
Abonn@@	11
kräften	11
fortfahren	11
over	11
Eignung	11
geöffneten	11
ussel@@	11
Guten	11
Geräte	11
Blick@@	11
Davon	11
EZI@@	11
Künst@@	11
archen	11
stein	11
Flächen	11
hoc-@@	11
umfangreiche	11
1.5@@	11
effizienter	11
innovative	11
Prototyp@@	11
Bedarfs	11
enzeit@@	11
jetzigen	11
umen	11
erlaubten	11
Nürnberg	11
zwin@@	11
Chap@@	11
Maxim@@	11
angen	11
ally	11
Norway	11
lien@@	11
gebe	11
klear@@	11
egeln	11
flächen@@	11
KER@@	11
besseres	11
dingt	11
Imb@@	11
Kohlen@@	11
vorigen	11
bildern	11
Dolo@@	11
Männchen	11
60.000	11
Beleg@@	11
Führung	11
AUS	11
Tschechischen	11
erwärmt	11
gewöhnlichen	11
ordnungsgemäße	11
alisieren	11
Mou@@	11
sur-@@	11
Strah@@	11
sierungs-	11
arische	11
eur	11
51@@	11
verursa@@	11
™	11
2.9	11
Kir@@	11
Gegebenheiten	11
Alp@@	11
mann@@	11
saison	11
gesäu@@	11
words	11
unbekannte	11
Š@@	11
ansatz	11
cen@@	11
fter@@	11
zurückgegeben	11
gia	11
entdecken	11
lichten	11
ops	11
andernfalls	11
Energi@@	11
Kälte	11
Male	11
letzter	11
mauern	11
Süß@@	11
loc@@	11
Sv@@	11
ank	11
Algorithmus	11
8-0@@	11
lis@@	11
Beibehaltung	11
tätigen	11
29.	11
Breitband@@	11
entwickel@@	11
477	11
beschichtung	11
ntnis@@	11
gestaltet	11
vorstehenden	11
verantwor@@	11
junger	11
2007-@@	11
verteilen	11
POR@@	11
steil@@	11
Manuel	11
creme	11
behindern	11
area	11
Gold@@	11
Os@@	11
Halbjahr	11
760	11
fis@@	11
PRES@@	11
onom@@	11
PIN@@	11
organisatorischen	11
Futtermittel	11
verbren@@	11
bie@@	11
Bundesministerium	11
1010	11
sisch	11
bevor@@	11
fixer	11
Zweif@@	11
ücken	11
gbarkeit	11
gewissen@@	11
entz@@	11
alu@@	11
Präzision	11
sers	11
Gebiete	11
Übergangs@@	11
148@@	11
derungen	11
Head	11
verwei@@	11
entspannt	11
versu@@	11
Kanäle	11
festgehalten	11
Vögeln	11
238@@	11
Oct@@	11
Cannab@@	11
vergrößert	11
Personals	11
cir@@	11
unterschiede	11
verhaltens	11
ler-@@	11
Firma	11
verdrängt	11
recomm@@	11
Teils	11
big	11
tti	11
handels@@	11
stern@@	11
University	11
blatt	11
Hat	10
eri	10
Konzep@@	10
Auswahl@@	10
rief	10
0,00	10
mindern	10
verschieden@@	10
Freund	10
opol	10
dul@@	10
	10
Unternehmens	10
740	10
kräf@@	10
Ei	10
Verbesser@@	10
stechniken	10
Richt@@	10
Pfeil@@	10
0049	10
Marino	10
Öl	10
Materials	10
flexiblen	10
durchführ@@	10
reinig@@	10
tionalen	10
Schlauch@@	10
288@@	10
ente@@	10
ets@@	10
Beitrags	10
Aktuelle	10
Positive	10
bekämpft	10
Niko@@	10
ee	10
Tageb@@	10
wächst	10
früher@@	10
tokol@@	10
gerichteten	10
582	10
arisierung	10
esz@@	10
person	10
steckt	10
Sex@@	10
uelle	10
verrichten	10
Index@@	10
tur	10
Schläge	10
Jegliche	10
enswert	10
Kru@@	10
vok@@	10
Einzelnen	10
Positiv	10
befragen	10
eingebaut	10
Check@@	10
Behin@@	10
41@@	10
zugeben	10
durchlaufen	10
Soweit	10
exper@@	10
Dicht@@	10
OT	10
sand@@	10
kens	10
Castle	10
umzu@@	10
Sturz	10
dehn@@	10
mann-@@	10
Baby@@	10
North	10
gewöhn@@	10
elementen	10
ermöglichte	10
Direkt	10
1.7	10
dynami@@	10
section	10
poliert	10
ou@@	10
Summ@@	10
water	10
zukünftige	10
Oro@@	10
umzusetzen	10
gelegene	10
samer	10
Europä@@	10
Verein@@	10
CHER	10
zem@@	10
BOR@@	10
Zäh@@	10
erisch	10
Frisch@@	10
leicht@@	10
beteiligen	10
beo@@	10
fristigen	10
eum	10
gewisser	10
Fortschritt	10
unwirksam	10
boten	10
basier@@	10
eingeführten	10
com	10
09.@@	10
Islands	10
klei@@	10
uti@@	10
þ@@	10
anfällig	10
culture	10
stich	10
Dün@@	10
widerspiegeln	10
Halte@@	10
HE@@	10
508	10
Schwelle	10
inne	10
schluß@@	10
gerufen	10
Muss	10
Hav@@	10
registriert	10
Griff	10
Element	10
Verständnis	10
Zuverlässigkeit	10
526	10
verletzt	10
hervorgehoben	10
100ml	10
rungen	10
charakteristisch	10
ness	10
Mot@@	10
Jean	10
pas	10
contain@@	10
nm	10
elekt@@	10
.z	10
fix@@	10
ield	10
Schub@@	10
ableiten	10
rutsch@@	10
einger@@	10
ihrerseits	10
limitiert	10
schere	10
014@@	10
reiz@@	10
ueller	10
begünstigen	10
zurückgekehrt	10
slow	10
Eltern@@	10
Linien	10
farbig	10
04-@@	10
umgibt	10
beweg@@	10
wechselnden	10
genuss	10
598	10
Post	10
manipu@@	10
TM	10
imi@@	10
830	10
Gerä@@	10
vernichten	10
ero	10
kehrungen	10
Bell@@	10
interpretiert	10
Internet-@@	10
umgeben	10
Indikator	10
spr@@	10
Wiesbaden	10
116@@	10
Und	10
Up@@	10
korrespon@@	10
Little	10
gefärbt	10
ir-@@	10
Instand@@	10
ausgeführt	10
bus@@	10
bewiesen	10
MT	10
hill	10
beschrän@@	10
Kleine	10
stopft	10
xy	10
sig@@	10
basierende	10
bekämpf@@	10
gestrichen	10
Stär@@	10
übrige	10
vorteilhaft	10
äußerster	10
geschul@@	10
abgabe	10
Ball@@	10
LF	10
Beitritt	10
farben@@	10
Ergebnis@@	10
Paper	10
Erwar@@	10
seel@@	10
tea	10
obli@@	10
reserve	10
änder	10
Hannes	10
ZT	10
Stabilitäts@@	10
milden	10
forder@@	10
ove	10
fic	10
issues	10
Letzte	10
Speicherung	10
Manipu@@	10
bearbeiten	10
ita	10
Pool	10
merkte	10
Wiederaufbau	10
Sanit@@	10
erforscht	10
gesät@@	10
Morgen@@	10
KO	10
Erwachsen@@	10
Four@@	10
Chemische	10
irri@@	10
3.6	10
auswählen	10
hintereinander	10
Classi@@	10
cron@@	10
burg	10
cue	10
Cla@@	10
jenigen	10
10-12	10
persönliche	10
sh	10
xn@@	10
51-@@	10
anfangen	10
schätzt	10
landwirtschaftlichen	10
Betrieben	10
Subsidi@@	10
Watson	10
.-Nr.	10
verpflichten	10
darauffolgenden	10
anzusehen	10
grau	10
Angriff	10
Nun	10
Spitz@@	10
orts	10
worth	10
Zentren	10
Umfeld	10
Unregelmäß@@	10
ston	10
diplo@@	10
Behebung	10
Boden@@	10
37.@@	10
leiden@@	10
1975	10
zulässigen	10
ächlich	10
aufzubauen	10
bz@@	10
Toilette	10
befand	10
Pause	10
lit	10
start@@	10
strich@@	10
Foren	10
kurzfristig	10
Doch	10
Mey@@	10
angenehmer	10
Einmischung	10
ffi@@	10
Speisen	10
Wiel@@	10
glatt	10
Brä@@	10
Heiß@@	10
durchweg	10
Bank@@	10
etablierten	10
zurückgehen	10
ij@@	10
festgelegte	10
Kliniken	10
aufgehört	10
Nahr@@	10
manu@@	10
10.0@@	10
Mobilität	10
sten-@@	10
orientiert	10
327@@	10
beschloss	10
Malaria	10
modelle	10
Auswertungen	10
Mittel-	10
Projekts	10
Lediglich	10
Gegen	10
0100	10
960	10
schwieriger	10
press@@	10
rechte	10
Thomas	10
stead	10
nächst	10
Viertel@@	10
sichtliche	10
tatsächlichen	10
gefragt	10
-15	10
eingeladen	10
überlegt	10
trug	10
verlassen	10
45.@@	10
vio	10
SO	10
Magn@@	10
propa@@	10
MR	10
Rup@@	10
Sé@@	10
Metern	10
mich	10
Peripher@@	10
Gießen	10
spezialisiert	10
genauere	10
Ask@@	10
SL	10
gängige	10
Down@@	10
lossene	10
rus@@	10
Zunächst	10
entscheidende	10
langs@@	10
ign@@	10
Vertrag	10
meri@@	10
cheln	10
run@@	10
achsen@@	10
hellen	10
Sho@@	10
ECE	10
Tschechien	10
Good	10
stra	10
äumen	10
eingeb@@	10
Präven@@	10
liber@@	10
loi@@	10
knapp	10
.g@@	10
Bitten	10
jed@@	10
Bleistift	10
gestartet	10
Sie@@	10
Abdeckung	10
hut	10
ausmachen	10
kodi@@	10
mix	10
Beteiligten	10
Ala@@	10
flexibler	10
lands	10
VC@@	10
klass@@	10
02.@@	10
104@@	10
beruhi@@	10
Fem@@	10
Negativ@@	10
stown	10
ning@@	10
alisierungen	10
wahr@@	10
variablen	10
1.4@@	10
Presse@@	10
beleu@@	10
verbände	10
Tagesordnung	10
schaltet	10
dali@@	10
umgehen	10
Passi@@	10
Einbau@@	10
bilaterale	10
Acht	10
im-@@	10
dent	10
Verhaltensweisen	10
iegen	10
gebühren@@	10
zahlreicher	10
sichert	10
gezielten	10
TAG@@	10
applications	10
Willi@@	10
Square	10
steilnehmer	10
Til@@	10
Pläne	10
Abkommen	10
verhält@@	10
oren@@	10
vernichtet	10
1150	10
echten	10
paar@@	10
Gabriel	10
befürchten	10
ämatologie	10
einhalb	10
sah	10
Soziales	10
Vorfälle	10
GM	10
Industrielle	10
wö@@	10
wing	10
wände	10
Pfarr@@	10
Mary	10
bräuch@@	10
Refra@@	10
VC	10
verknüpft	10
Theore@@	10
ous@@	10
erieren	10
Samen	10
c.@@	10
ati	10
Verfassung	10
Reich@@	10
510	10
Ecken	10
Zehn@@	10
spannungs@@	10
Wir	10
modified	10
1976	10
stren@@	10
ement	10
Kaffee	10
eingegangenen	10
gestalten	10
Erwerb	10
diam@@	10
zeichnet	10
Hamburg	10
pezi@@	10
pflege@@	10
dot@@	10
th	10
680	10
Klick	10
Firmen	10
zugleich	10
argum@@	10
production	10
konsoli@@	10
deckt	10
mas-@@	10
sanften	10
Mala@@	10
30.000	10
Vorrat	10
Dokumentations@@	10
Adresse	10
quer@@	10
-6@@	10
Warnungen	10
artiges	10
Krisen@@	10
Netto@@	10
-Programm	10
stellungs@@	10
eff@@	10
children	10
meeting	10
autorisierten	10
nität	10
Gewinnung	10
⏐	10
ace	9
ergän@@	9
herstellung	9
Cho@@	9
freiwilliger	9
»	9
«	9
fähiges	9
netzwerk	9
ANA	9
inten@@	9
Messen	9
Fair@@	9
Dri@@	9
betrieb	9
Alar@@	9
pend@@	9
orium	9
fic@@	9
hundert@@	9
Jacques	9
frage	9
374	9
ward	9
ablen	9
Organisationen	9
Glob@@	9
aufenthalt	9
Neuseeland	9
eitung	9
FE-@@	9
unterstützte	9
weiterentwickelt	9
obje@@	9
bewusst@@	9
Fein@@	9
haus-@@	9
Individuen	9
Wahrnehm@@	9
Publikation	9
leitern	9
integriert	9
rum	9
Legi@@	9
Bestä@@	9
Priorität	9
wussten	9
Freude	9
Nova	9
zusammengestellt	9
Big	9
erlangt	9
ya	9
eventuellen	9
ausgebaut	9
dringende	9
tanz@@	9
Gebur@@	9
wünschenswert	9
sationen	9
Spitzen	9
Aufgabenstellung	9
1.8	9
Bespre@@	9
33.@@	9
Verwandten	9
Hamp@@	9
Life@@	9
stermin	9
Gum@@	9
ZK@@	9
lip@@	9
apier	9
est-@@	9
Code-@@	9
imp@@	9
719	9
SERVI@@	9
legende	9
Erkenntnissen	9
auffällig	9
IO	9
wiederherzustellen	9
Borgo	9
Michele	9
Wall@@	9
dus	9
Lon@@	9
momentan	9
eingehende	9
angeschlossen	9
fell	9
bewußt	9
Rhythmus	9
wissenschaften	9
Private	9
Chur@@	9
Strau@@	9
Broad@@	9
praktische	9
Recherche	9
brei@@	9
pi	9
unvermeidlich	9
ро@@	9
№	9
Τ	9
Porträt	9
EUROPÄISCH@@	9
399	9
Ave	9
Mitarbeiterinnen	9
kette	9
Verfolgung	9
cier	9
abgerufen	9
jeg@@	9
mechanische	9
Berg	9
CU@@	9
Engli@@	9
vollem	9
ř@@	9
profile	9
Pear@@	9
verkauf	9
viertel	9
compli@@	9
ye	9
OK@@	9
jun@@	9
sack	9
herbei	9
Agent@@	9
Mobiliar	9
Eg@@	9
rt	9
gesamt	9
Open-@@	9
uren@@	9
atische	9
fas@@	9
Zentrale	9
ω	9
if-@@	9
81,@@	9
Life	9
spätere	9
vertrieben	9
FP@@	9
vermag	9
studien@@	9
ordnungsgemäßen	9
beantwortet	9
üben	9
ity-@@	9
ür@@	9
loss@@	9
Font@@	9
haltene	9
Material@@	9
konstan@@	9
stammten	9
karte	9
verluste	9
ergänzen	9
agentur	9
verstarb	9
mitte	9
leib	9
prüft	9
Acht@@	9
Ed@@	9
soll@@	9
vem	9
aufenthalte	9
Brau@@	9
hemen	9
Spann@@	9
Aggre@@	9
Wartung	9
Neutra@@	9
flas@@	9
win	9
Ressourcen@@	9
Abfälle	9
hinausgehen	9
iker	9
0.1	9
Ideen	9
Elekt@@	9
kräfte	9
halber	9
buchs	9
fem@@	9
Benachrichtigung	9
Silber@@	9
D.@@	9
rechnung	9
ao	9
1700	9
Loh@@	9
Homepage	9
bevorzugte	9
heller	9
verbreitet	9
olog@@	9
zarten	9
hinzu	9
klassi@@	9
Rotation	9
Simu@@	9
Gemü@@	9
done	9
vik	9
Ш@@	9
м	9
Lit@@	9
Verbrauchs@@	9
skan@@	9
if@@	9
geschickt	9
reser@@	9
190@@	9
ausgewählte	9
Training	9
Viel@@	9
Origin@@	9
Rechtfertigung	9
Große	9
repräsentiert	9
dei	9
Erhältlich	9
Handhab@@	9
strikt	9
Satz	9
öffneten	9
koordinieren	9
Erzielung	9
enk	9
tetes	9
formuliert	9
abgezogen	9
assen	9
gewinnung	9
Berichterstattern	9
777	9
bigkeit	9
so-@@	9
Formu@@	9
wandelt	9
Tat@@	9
taste	9
dendes	9
belie@@	9
lätter	9
Public	9
anten@@	9
ih@@	9
Zahlungs@@	9
Sieben	9
Modells	9
Kandidaten	9
stechnische	9
engt	9
Zugangs@@	9
vie@@	9
mehl	9
Tisch	9
digitale	9
И@@	9
Add-@@	9
8.5	9
ί	9
harmon@@	9
unseren	9
Gusta@@	9
ffel	9
vertei@@	9
ffen	9
Esc@@	9
beschaffung	9
unde@@	9
bein	9
überhinaus	9
Bevölkerungsgruppen	9
Beschädigungen	9
Girona	9
gül@@	9
amtlichen	9
Colo@@	9
übersch@@	9
sselt	9
Fortgeschritt@@	9
2b@@	9
Lebenszyklus	9
Vorderseite	9
Inva@@	9
versehene	9
Umweltverträglichkeit@@	9
kat	9
eilung	9
Produktions@@	9
mbo@@	9
ähr@@	9
gewährt	9
Verfügbare	9
Inanspruchnahme	9
betrachtete	9
Übernahme	9
EFTA-@@	9
anerkannte	9
gebilligt	9
litt	9
ose@@	9
31.	9
Vergü@@	9
Karton@@	9
neun@@	9
Strand@@	9
blind	9
Karel	9
Marketing@@	9
externer	9
C3	9
ausschließ@@	9
Qualitätssicherung	9
tinu@@	9
mic	9
associ@@	9
läßt	9
GENOMM@@	9
Abbildungen	9
Mitglied@@	9
tten@@	9
sas	9
berat@@	9
Ja@@	9
Hero@@	9
static	9
Verwertung	9
lichkeiten	9
bildete	9
überzeugend	9
progra@@	9
Å@@	9
Strei@@	9
Darauf	9
zeln	9
HAR@@	9
zione	9
ands	9
identifizieren	9
überschuss	9
Rass@@	9
technologi@@	9
konzer@@	9
Installation	9
olin	9
Beschluß	9
aler@@	9
Kooperations@@	9
glatte	9
een	9
FK@@	9
riefen	9
CM	9
up-@@	9
erwähnte	9
349@@	9
gemäße	9
Generaldire@@	9
rechnet	9
faci@@	9
dring@@	9
440@@	9
gy	9
olab@@	9
einiges	9
befaßt	9
fällig	9
trugen	9
Klär@@	9
LP	9
Josef	9
Vergessen	9
Themen@@	9
verschie@@	9
Meinungen	9
ctiv@@	9
fac@@	9
Verschie@@	9
gesundheitliche	9
Pumpen	9
Schwar@@	9
spen@@	9
af	9
ausgaben	9
Pulver@@	9
Xin@@	9
ben-@@	9
Benutz@@	9
taucht	9
Gedächt@@	9
Lebenserwartung	9
isse	9
Doktor@@	9
Erweiter@@	9
starb	9
,00	9
betre@@	9
entstandenen	9
gie-@@	9
crip@@	9
wissenschaft	9
abwechselnd	9
Gemeinschaft@@	9
Natür@@	9
5.5	9
frischen	9
apo@@	9
schür@@	9
Quali@@	9
wurf	9
Kreuz	9
lauten	9
stechnischen	9
Australien	9
Mak@@	9
strei@@	9
fit	9
Perioden	9
Hinter@@	9
fristen	9
Viri@@	9
Regeneration	9
brauch	9
ika	9
289@@	9
1989	9
Dienstag	9
Donnerstag	9
yd	9
charge	9
Etage	9
alternativer	9
Studium	9
Aus-	9
Marath@@	9
Auslöser	9
angesch@@	9
hinunter@@	9
stik	9
Vorgänge	9
Erfol@@	9
Anhörung	9
Schließung	9
Ziffern	9
fixiert	9
Entwick@@	9
Zä@@	9
.00	9
biges	9
sons	9
schriftlich	9
vergrößern	9
maße	9
atischen	9
Kultur@@	9
κ	9
oce@@	9
onic	9
nächstgelegene	9
nacheinander	9
größer@@	9
Eigenschaft	9
ney	9
arest	9
sätze	9
ot	9
Butter@@	9
Iris	9
isch@@	9
Polym@@	9
unvor@@	9
richt@@	9
Durchfluss@@	9
eling	9
eilen	9
futter@@	9
schlechter@@	9
wertige	9
ð	9
fügen	9
anforderungen	9
Export	9
anpass@@	9
Grundlagen	9
genügt	9
Offizielle	9
Kolonie	9
DC-@@	9
Dank	9
.com.@@	9
leuchtet	9
^	9
ffe	9
systematischen	9
Salz	9
Einfach@@	9
ca-@@	9
stattfand	9
558@@	9
Wiederein@@	9
spolitik	9
Fül@@	9
Telefon	9
verordnung	9
complete	9
grünes	9
notwendigerweise	9
überarbeiteten	9
Methodik	9
mens	9
standardmäßig	9
dir@@	9
used	9
Kle@@	9
zuverlässiger	9
angelegt	9
verwalt@@	9
handlung	9
MV@@	9
178@@	9
etsch@@	9
Kohlenhydrate	9
undet	9
anta	9
getan	9
Lake	9
LAR	9
ffekte	9
Wood@@	9
Elemente	9
geno@@	9
angepa@@	9
Time	9
vermitteln	9
Mitarbeit	9
ark@@	9
verbänden	9
flü@@	9
vorwärts	9
netz@@	9
enda@@	9
Joint	9
esa	9
Bananen@@	9
tzahl	9
analog	9
warmen	9
Wales	9
üttet	9
kristal@@	9
ju	9
bedecken	9
Regen@@	9
bogen@@	9
Soci@@	9
EWR-@@	9
JS@@	9
Aktionsp@@	9
beanspruchte	9
code@@	9
Königreichs	9
timent	9
Final	9
Wissenschaft	9
Vorab@@	9
darum	9
anhängi@@	9
620	9
ice	8
docum@@	8
ausmacht	8
tab	8
Mart@@	8
Zeu@@	8
biologie	8
dazu@@	8
gehörige	8
solch	8
eiro	8
Beamte	8
verband	8
stuhl	8
Upper	8
geltende	8
alien	8
Präsidentschaft	8
gg	8
Etiket@@	8
vorrätig	8
wunder	8
01.08.@@	8
Mikrowellen@@	8
forderungen	8
sicherung	8
desto	8
hton	8
gerechten	8
sieb@@	8
eber@@	8
cci	8
Hoh@@	8
gefördert	8
527	8
Größen@@	8
Bord@@	8
laden	8
1.9@@	8
Interesses	8
steuert	8
gesandt	8
fordern	8
ec	8
Konsequenz	8
lossen@@	8
schriftlichen	8
schuß	8
Entlassung	8
klang	8
zi	8
Anrei@@	8
Premier	8
Shu@@	8
regionen	8
diskutieren	8
Schluss@@	8
bewältigt	8
1.00	8
Erbringung	8
Erinnerung	8
ima	8
karten	8
signal	8
Intensivierung	8
ύ	8
607	8
teres	8
ts-@@	8
dy	8
verlässliche	8
EU-Ländern	8
Nutzer	8
Sen@@	8
überall	8
vention@@	8
prüf@@	8
Wasserstoff@@	8
Darin	8
Arsen@@	8
wahl@@	8
Vorfeld	8
ен@@	8
wach	8
Kollegen	8
verwaltungs@@	8
übertragenen	8
Nütz@@	8
eti	8
Werkzeugen	8
spanischen	8
Product	8
583	8
Produk@@	8
cker@@	8
Multi-@@	8
format	8
behinderte	8
unge	8
ony	8
übernahm	8
1001	8
fehler@@	8
Joan	8
Deut@@	8
Risikomanagement	8
Überschrift	8
former	8
brechungen	8
Siegel	8
tionsprozess	8
Francisco	8
5.6	8
Magne@@	8
allgemein@@	8
cated	8
ky-@@	8
Parallel	8
ussion	8
sl	8
C2	8
höhen	8
Hop@@	8
KER	8
Propor@@	8
analytischen	8
cz@@	8
harten	8
neigt	8
3.8	8
Total	8
5.0	8
scha@@	8
onien	8
erh@@	8
mom@@	8
einwandfrei	8
Kräf@@	8
Stücke	8
geprägt	8
137@@	8
versicherung	8
storben	8
wers	8
änder@@	8
eno	8
ina-@@	8
Franco	8
inform@@	8
lastung	8
ings	8
zie@@	8
Eingreifen	8
Betroffenen	8
St.	8
transf@@	8
Suche	8
Kautsch@@	8
hig@@	8
Barbara	8
Heinrich	8
Kalibrierung	8
kleber	8
Enth@@	8
Nachfol@@	8
behält	8
sozialer	8
UN-@@	8
cht-@@	8
gesund	8
Marke	8
motiviert	8
kant	8
Phänomene	8
verwendung	8
Unterstützungs@@	8
ehemals	8
emin@@	8
Raj@@	8
Bela@@	8
Technologie@@	8
Reparatur	8
einziges	8
Dent@@	8
grundlegende	8
Implem@@	8
pläne	8
arbeitung	8
Linse	8
richtlinie	8
Chance	8
Missbrauch	8
problematisch	8
vil	8
Can	8
Administra@@	8
verfolgung	8
Council	8
übernehmen	8
finanzielle	8
Bestes	8
Verstärker	8
gebiets	8
mah@@	8
stabil@@	8
zierungen	8
Hauptsch@@	8
speicher	8
Sonstiges	8
BIN@@	8
Cort@@	8
414@@	8
beschlossenen	8
Ø@@	8
sign@@	8
statt@@	8
rägt	8
terungen	8
Carlos	8
wonach	8
lassung	8
Anschluß	8
na-@@	8
nu	8
Davis	8
chere	8
07.@@	8
wasser-@@	8
Fragestellungen	8
stören	8
Staub	8
Schmutz	8
Lachen	8
Außerhalb	8
kennen	8
Esp@@	8
milde	8
Opport@@	8
Sat@@	8
schmack@@	8
Problem@@	8
aufgestellt	8
letztendlich	8
scrip@@	8
Ausführungen	8
29.@@	8
mischt	8
null	8
PS-@@	8
Delegationen	8
vorgänge	8
Manipulation	8
kühl@@	8
MC	8
Aqu@@	8
we	8
Verwal@@	8
Text@@	8
gbare	8
Profilen	8
reiben	8
phor@@	8
Segment	8
voor@@	8
229@@	8
Daniel	8
Spa	8
aufre@@	8
Gesamtheit	8
langfristi@@	8
Meinungsverschiedenheiten	8
event@@	8
akte	8
löste	8
86-@@	8
114@@	8
Erhol@@	8
cker-@@	8
chse	8
bisweilen	8
429	8
kontakte	8
ckel@@	8
Cast@@	8
KL@@	8
Hierfür	8
qualifiziert	8
allgemeinem	8
Hauptt@@	8
DB	8
G.@@	8
support	8
Quartal	8
ruh@@	8
3.7	8
479	8
Besonderheiten	8
succ@@	8
Adressen	8
kurzfristige	8
Squ@@	8
bilanz	8
widerspiegelt	8
INT	8
abelle	8
verzehrt	8
zige	8
Einkaufen	8
king	8
lt@@	8
Tec@@	8
Té@@	8
voraus	8
rahmen	8
stages	8
star	8
rön@@	8
aufger@@	8
Gä@@	8
	8
konsisten@@	8
Bevölkerungs@@	8
hilfreiche	8
ffen@@	8
ssel@@	8
gesteckt	8
ment-@@	8
entstehende	8
Metall	8
но@@	8
Platin@@	8
wal	8
tent	8
ethan@@	8
René	8
Ja	8
Ped@@	8
techniken	8
List	8
Chan@@	8
AO@@	8
grundlage	8
reflektiert	8
familiären	8
Sebastian	8
TB	8
Fr	8
Verantwortlichkeiten	8
ruf@@	8
gekauft	8
SV	8
zustimmen	8
Anordnung	8
anima@@	8
außergewöhnlich	8
autonomen	8
schnitt@@	8
lic	8
Hilfestellung	8
erlaubte	8
chten@@	8
Peru	8
Nachmittag	8
Module	8
cri@@	8
zukünftig	8
6x@@	8
dazugehörigen	8
Nähere	8
té@@	8
non@@	8
türk@@	8
interpretieren	8
Nahrungsmittel@@	8
Prozess@@	8
Platzierung	8
geänder@@	8
züglich	8
transparenter	8
Konzepts	8
abri@@	8
es.org	8
umen@@	8
Sensibilisierung	8
536	8
beheben	8
schlagen	8
eigens	8
pt	8
billi@@	8
rohr@@	8
service	8
historische	8
gesundheit@@	8
Achse	8
Gate	8
upp@@	8
Strän@@	8
verhält	8
sozi@@	8
Zugangs	8
zugute	8
prüfungen	8
Einsetzung	8
Switzerland	8
SON	8
159@@	8
Sieben@@	8
gehäuse	8
stoßes	8
qualifizierte	8
Verbinden	8
gewinnen	8
ing-	8
neutrale	8
dl@@	8
Prü@@	8
Geflügel@@	8
vielmehr	8
geschützten	8
gebrachte	8
cion@@	8
922	8
Wärme	8
gewichte	8
Erreich@@	8
Sop@@	8
Widerstand@@	8
Hygiene	8
ausgeht	8
ök@@	8
eu	8
gehörigkeit	8
profil@@	8
disziplin@@	8
ttert	8
Auth@@	8
Welcher	8
1932	8
Sek@@	8
RON@@	8
Sets	8
iron	8
administrative	8
selten@@	8
Vittorio	8
Ell@@	8
Homo@@	8
Verbrauch	8
trock@@	8
teilten	8
Aussagen	8
ave@@	8
537	8
alp@@	8
Abmessung	8
buches	8
Kegel@@	8
ama	8
Winde	8
unzulässig	8
ometrie	8
Back@@	8
oto	8
Rückzug	8
tit@@	8
phasen	8
Berichterstat@@	8
Einfluss@@	8
Erpro@@	8
Vervielfäl@@	8
einschliesslich	8
tle	8
Alumini@@	8
ausgesprochen	8
gelin@@	8
.gr	8
annehm@@	8
F.	8
Zielsetzung	8
hundert	8
Ira@@	8
veri@@	8
beschreibt	8
gebra@@	8
chtigt	8
problem	8
bequemen	8
nommenen	8
Aussa@@	8
Hul@@	8
DO	8
Verschlechter@@	8
standard@@	8
Ä	8
geni@@	8
weitaus	8
Schlußfolgerung	8
sorge	8
Iss@@	8
technik	8
Europäischer	8
ud	8
basi@@	8
sichern	8
reinigt	8
gleicht	8
Events	8
stattungen	8
Dresden	8
Vorsorge	8
Eag@@	8
Doktor	8
dend	8
verdi@@	8
Kran@@	8
statisti@@	8
Linden@@	8
586	8
Verarbeitung	8
Radik@@	8
einziger	8
ood	8
Umweltverträ@@	8
588	8
Kosme@@	8
zwi@@	8
läufer	8
Fili@@	8
Sche@@	8
Hamilton	8
tton	8
VO	8
anschließen	8
Hersteller@@	8
Erkennen	8
Ausfuhr@@	8
Victor	8
k.@@	8
Vordergrund	8
long@@	8
sprogramme	8
-und-@@	8
reflex@@	8
Auffassungen	8
875	8
Vakuum	8
psel	8
worfenen	8
nah	8
South@@	8
geord@@	8
457@@	8
ichten	8
Mitarbeiter@@	8
Alexander	8
Anmel@@	8
räger	8
ungssystemen	8
vorder@@	8
angenommenen	8
stor@@	8
sprü@@	8
egal	8
deck@@	8
wijk	8
vorne	8
Ta	8
Experi@@	8
passenden	8
Neun@@	8
verteilten	8
Pre-@@	8
entsprechen@@	8
exist@@	8
ished	8
41-@@	8
Analyse@@	8
schul@@	8
herrschenden	8
Term	8
A3	8
konsu@@	8
i.	8
control@@	8
manufa@@	8
gesam@@	8
selber	8
õ@@	8
Bd	8
bekanntlich	8
Verfüg@@	8
langes	8
maßgeb@@	8
schöpf@@	8
George	8
Gesellschaften	8
Struktur@@	8
vern@@	8
MEZ	8
ara@@	8
chtigkeits@@	8
Mikrowelle	8
richtete	8
road	8
Darmstadt	8
ppt	8
▪	8
parado@@	8
617	8
alogue	8
life	8
costs	8
WEI@@	8
sicheres	8
logisch	8
Gradu@@	8
Dir@@	8
Cas@@	8
Holger	8
conta@@	8
Geräten	8
diesbezü@@	8
maßgeblichen	8
charakteristischen	8
temperatur@@	8
frischem	8
bezog	8
Verbraucherschutz	8
entwurf	8
Samstag	8
Erkenntnis	8
unserer	8
ausschuss	8
Affairs	8
Teilung	8
María	8
lieu	8
werk@@	8
Trennung	8
reiches	8
pharmazeu@@	8
Claus	8
besorgniserre@@	8
beruflichen	8
ruhigen	8
Aufenthalt	8
Society	8
NT@@	8
-Farb@@	8
Maul@@	8
Omeg@@	8
217@@	8
Indikatoren	8
VM@@	8
empfänger	8
abgelaufen	8
cb	8
entwickl@@	8
ausgie@@	8
custom@@	8
staatliche	8
MANN	8
weltweiten	8
12-0@@	8
Komplexität	8
lehre	8
geschritten	8
erbringen	8
Amtszeit	7
meinem	7
praktik@@	7
gepackt	7
ety	7
wil@@	7
istisch	7
kan	7
Pek@@	7
Niveaus	7
bindungen	7
windet	7
übereinstimmen	7
Ann@@	7
drängen	7
eingeleiteten	7
sposition	7
Fortgeschrittene	7
Verwaltungs-	7
Campo	7
Prag	7
CMS	7
cra@@	7
Assisten@@	7
A-0@@	7
ţ	7
itze	7
grund@@	7
Psy@@	7
Netzwerks	7
Auskunft	7
reguli@@	7
Gleiche	7
würfen	7
beanspruchten	7
zweckmäßig	7
[...]
