"	164988
,	160048
.	157292
the	135750
of	128024
in	91249
/	88045
and	83844
)	80048
(	78621
to	68452
with	53682
a	49651
is	47056
for	40571
or	39726
be	34338
mg	30559
1	27716
patients	27218
The	26257
:	24956
not	22628
on	21022
%	20747
should	19099
as	18864
you	17961
dose	17612
are	17362
that	14965
an	14634
at	14167
treatment	14102
by	13800
•	13605
may	13525
was	13460
ml	13258
-	13100
have	13083
your	12829
use	12787
ine	11851
EU	11570
been	11568
2	11367
used	10853
o@@	10799
in@@	10017
In	9960
has	9942
were	9612
other	9525
0@@	9294
10	9077
tablets	9024
injection	8842
from	8809
one	8633
blood	8441
see	8399
3	8196
if	8035
after	7943
If	7900
r	7737
doctor	7558
P@@	7482
effects	7365
than	7301
x@@	7148
studies	7117
4	6950
solution	6921
5	6816
+	6813
clinical	6671
;	6629
al@@	6562
it	6557
A	6488
any	6294
this	6248
section	6115
100	6115
can	6019
which	5965
recommended	5927
on@@	5741
during	5739
ac@@	5600
who	5593
no	5514
g	5486
administration	5472
avi@@	5462
50	5460
contains	5450
risk	5395
ate	5377
6	5362
az@@	5252
20	5246
side	5223
therapy	5140
C	5135
will	5131
C@@	5129
ro@@	5108
’	5103
re@@	5033
vi@@	5002
al	4995
E@@	4954
when	4891
30	4882
s	4849
treated	4848
study	4834
l	4803
increased	4795
day	4763
x	4695
given	4664
administered	4662
I@@	4653
more	4623
In@@	4603
<	4599
-@@	4581
medicines	4566
T@@	4559
take	4558
disease	4541
daily	4513
kg	4484
at@@	4451
also	4431
following	4402
U	4383
H@@	4316
ic@@	4308
?	4287
reported	4286
reactions	4286
pharmac@@	4281
years	4259
vial	4229
days	4209
these	4142
weeks	4127
y@@	4118
age	4072
pro@@	4059
oral	4055
What	4024
ia	4020
atic	4015
op@@	3995
b	3987
an@@	3965
pain	3958
data	3944
di@@	3939
medicinal	3919
12	3904
MP	3904
taking	3883
thro@@	3872
all	3866
associated	3865
renal	3864
severe	3854
Tel	3813
including	3799
active	3784
emia	3770
doses	3750
con@@	3731
8	3711
skin	3705
coated	3693
levels	3693
before	3678
ant	3663
product	3654
must	3650
S@@	3632
such	3630
anti@@	3629
observed	3589
tablet	3578
combination	3578
hours	3568
om@@	3556
p	3555
ab@@	3531
It	3516
insulin	3506
products	3482
patient	3462
symptoms	3460
V@@	3447
ase	3443
ide	3436
EMEA	3435
common	3433
B@@	3429
0.@@	3422
tic	3420
This	3419
ap@@	3397
A@@	3390
15	3386
infusion	3377
hy@@	3358
en@@	3357
ous	3345
inge	3338
25	3338
syr@@	3312
us	3301
G@@	3296
–	3264
up	3254
liver	3224
pre-@@	3218
had	3216
ation	3197
increase	3180
co@@	3138
am@@	3137
body	3133
time	3121
D@@	3107
into	3100
available	3091
taken	3089
lo@@	3087
information	3079
only	3078
hyper@@	3078
compared	3073
medicine	3065
two	3064
ic	3061
per	3058
effect	3043
adverse	3041
plasma	3039
0	3019
Do	2994
plac@@	2991
containing	2990
months	2990
*	2989
children	2986
7	2985
id@@	2978
safety	2978
inhib@@	2959
24	2951
O@@	2950
tin	2942
=	2940
N@@	2935
first	2913
less	2902
p@@	2898
ag@@	2890
18	2883
ir@@	2870
ebo	2863
ol@@	2853
ter	2834
as@@	2833
it@@	2833
ha@@	2831
disorders	2829
hydro@@	2827
t@@	2820
filled	2817
ti@@	2800
b@@	2799
Z@@	2797
S	2791
et@@	2778
af@@	2776
ov@@	2760
m@@	2757
For	2751
>	2747
L@@	2744
ur@@	2738
l@@	2734
z@@	2732
il@@	2721
human	2718
Patients	2716
14	2713
ud@@	2711
ole	2709
micro@@	2708
film-@@	2691
impairment	2656
I	2655
TO	2647
ox@@	2646
c@@	2642
ar@@	2631
infection	2613
using	2612
hep@@	2603
em@@	2588
00	2586
between	2585
9	2582
once	2574
R@@	2569
about	2549
system	2536
ON	2532
M@@	2516
40	2515
within	2511
rit@@	2511
ok@@	2495
type	2494
AR@@	2492
CY@@	2479
ul@@	2471
or@@	2464
ated	2457
its	2452
≥	2447
without	2444
tis	2443
X@@	2441
efficacy	2412
os@@	2406
group	2393
F@@	2391
dis@@	2382
European	2381
06	2378
No	2373
weight	2370
i@@	2369
powder	2367
e@@	2366
60	2351
T	2350
considered	2341
my@@	2335
heart	2333
AP@@	2331
trav@@	2326
ex@@	2324
trials	2322
vaccine	2314
ol	2314
receiving	2301
some	2291
c	2291
cause	2280
needle	2272
sodium	2268
CH@@	2265
over	2264
acid	2256
under	2250
ensi@@	2249
low	2244
pers@@	2228
response	2225
B	2218
There	2214
o	2213
mon@@	2208
to@@	2208
site	2206
but	2205
4.4	2194
Each	2193
H	2189
marketing	2187
a@@	2184
allergic	2168
11	2157
AR	2154
approximately	2150
week	2147
3@@	2145
UL@@	2144
e.	2143
ep@@	2143
av@@	2143
ax@@	2141
function	2141
least	2136
tics	2125
”	2118
shown	2107
pressure	2101
known	2093
number	2090
concentrations	2089
high	2086
single	2083
“	2083
cells	2080
pack	2074
each	2067
due	2061
ed	2059
How	2055
capsules	2055
substance	2049
hypo@@	2048
E	2047
cy@@	2038
d@@	2036
met@@	2036
28	2035
ad@@	2033
sub@@	2022
gly@@	2021
events	2020
og@@	2013
infections	2012
exposure	1978
there	1978
studied	1965
_	1953
below	1938
experience	1935
twice	1928
occur	1925
those	1921
u@@	1914
art@@	1911
rate	1910
80	1906
g@@	1899
grams	1898
ric	1888
16	1885
out	1884
related	1880
n	1875
their	1874
water	1873
women	1871
comit@@	1866
You	1864
reduced	1859
er@@	1853
IN@@	1853
0.5	1852
ACK@@	1844
THE	1830
min	1830
potential	1828
suspension	1827
cases	1824
pregnant	1821
white	1820
pregnancy	1817
controlled	1811
activity	1807
ed@@	1802
tr@@	1801
tive	1798
subjects	1795
tri@@	1792
ised	1788
blis@@	1788
very	1786
ne@@	1785
bre@@	1784
ren@@	1782
atin	1779
immediately	1776
el	1765
cancer	1761
failure	1756
ING	1755
cut@@	1751
Y@@	1749
ri@@	1749
v@@	1747
both	1745
‘	1744
three	1742
75	1734
itors	1734
fi@@	1732
rare	1731
treat	1721
cell	1718
most	1717
chloride	1713
L	1711
IS@@	1710
AU@@	1707
every	1706
ted	1704
un@@	1700
solvent	1699
als	1699
21	1696
200	1694
AL@@	1689
authorisation	1685
non-@@	1685
received	1682
ingredients	1682
adults	1682
clearance	1671
need	1671
90	1669
yl@@	1667
times	1666
higher	1665
07	1659
bleeding	1658
µ@@	1656
01	1654
tension	1652
ST@@	1651
]	1646
04	1645
ea	1644
[	1644
benefit	1643
significant	1642
However	1635
13	1626
IM@@	1620
reduction	1619
ab	1618
toxicity	1615
D	1613
based	1608
li@@	1606
08	1604
total	1596
Pro@@	1591
98	1587
seen	1582
moderate	1580
similar	1580
normal	1575
problems	1575
AG@@	1570
dosage	1566
mo@@	1564
serum	1564
el@@	1562
ine@@	1561
does	1556
N	1554
bi@@	1550
2@@	1545
IS	1542
ca@@	1540
1.@@	1539
300	1531
provided	1526
osis	1526
food	1526
These	1524
oph@@	1521
same	1520
22	1519
isation	1514
tion	1512
serious	1509
necessary	1508
n@@	1508
new	1506
until	1504
s@@	1503
MA@@	1497
th@@	1495
03	1485
After	1484
pen	1483
Treatment	1483
well	1479
prior	1478
par@@	1476
PE@@	1475
do	1475
hepatitis	1473
°	1471
r@@	1471
K@@	1466
against	1465
let	1464
mean	1460
ut@@	1460
h	1456
ho@@	1455
As	1454
en	1450
feeding	1447
PARTIC@@	1446
es	1445
im@@	1445
Nov@@	1437
HIV	1436
150	1435
reaction	1434
max	1433
per@@	1432
mb@@	1430
results	1427
pl@@	1424
decreased	1418
9@@	1414
ent@@	1414
u	1414
ema	1413
iness	1409
period	1405
02	1403
respectively	1402
Un@@	1402
Your	1401
id	1400
co-@@	1397
g.	1397
interfer@@	1395
effective	1393
500	1388
chlor@@	1380
ent	1379
either	1377
aneous	1377
loss	1376
de	1375
PVC	1374
ast-@@	1371
lower	1365
um@@	1361
tivity	1360
possible	1359
ations	1356
er	1348
su@@	1346
400	1344
ary	1343
bone	1340
signs	1340
ically	1338
rash	1335
t	1335
year	1331
ec@@	1330
special	1328
17	1327
0.0@@	1326
release	1325
end@@	1325
pi@@	1323
When	1323
being	1317
il	1316
95	1316
56	1312
incidence	1310
AL	1309
FOR	1309
ig@@	1309
vomiting	1306
thi@@	1302
dosing	1297
kidney	1296
care	1295
am	1290
protein	1289
appropriate	1289
48	1285
y	1285
97	1284
ER	1284
like	1283
te@@	1283
baseline	1283
Therefore	1279
70	1277
decrease	1271
full	1268
level	1265
tic@@	1265
concentration	1263
they	1262
drug	1258
nausea	1257
indicated	1256
tell	1256
expected	1251
therefore	1249
metabol@@	1249
required	1247
muscle	1246
anti-@@	1244
AND	1241
hard	1238
AT	1238
dogs	1237
control	1236
45	1236
agents	1236
Common	1235
2.5	1234
pre@@	1234
injections	1233
8@@	1232
maximum	1231
viral	1230
OF	1229
ten@@	1228
inf@@	1228
6@@	1227
excre@@	1227
mild	1226
is@@	1225
cre@@	1221
Oral	1218
Use	1216
Committee	1214
TR@@	1214
Other	1213
life	1212
conditions	1212
05	1211
Re@@	1207
lac@@	1207
inetic	1206
19	1206
4@@	1201
5@@	1199
fa@@	1198
virus	1194
de@@	1194
f@@	1194
changes	1191
ance	1191
AC@@	1191
over@@	1189
ability	1188
car@@	1186
above	1184
lim@@	1184
acute	1184
contact	1183
bu@@	1181
ter@@	1179
z	1179
iv@@	1178
le@@	1176
development	1176
syndrome	1174
diabetes	1174
fa	1172
trans@@	1169
tes	1169
CP@@	1168
glass	1168
est@@	1168
case	1166
duration	1165
adolescents	1165
alone	1162
meth@@	1161
cl@@	1161
ph@@	1156
eye	1154
could	1154
ci@@	1153
IR@@	1149
84	1149
od@@	1146
2000	1144
inflammation	1143
monitored	1143
red	1142
Li@@	1142
while	1142
AN@@	1141
reduce	1140
1@@	1137
inal	1137
pen@@	1137
flo@@	1135
do@@	1135
further	1134
et	1131
include	1129
sive	1125
form@@	1124
Very	1123
stop	1121
chronic	1121
HOW	1117
35	1116
P	1116
pr@@	1114
clo@@	1114
WH@@	1112
A4	1112
fl@@	1112
substances	1109
EN@@	1108
AV@@	1106
frequency	1104
caution	1103
caused	1102
23	1102
m	1101
33	1100
Win@@	1098
intestinal	1098
ers	1097
oc@@	1097
range	1095
Annex	1094
where	1093
ATE	1089
Ac@@	1089
lit@@	1089
diat@@	1088
ster@@	1088
rats	1086
Hum@@	1085
clin@@	1083
Marketing	1082
diarr@@	1082
sp@@	1082
urine	1080
amp@@	1077
f	1076
did	1076
swelling	1075
minutes	1074
m2	1073
bottle	1072
ORE	1071
po@@	1069
IV@@	1069
lam@@	1065
fever	1065
because	1064
Author@@	1063
work	1061
therapeutic	1060
through	1060
change	1059
specific	1059
healthy	1058
vaccination	1057
ib	1056
adjustment	1056
affect	1054
99	1052
Pharm@@	1051
itor	1049
icity	1046
them	1046
e-@@	1046
demonstrated	1044
continue	1044
1000	1044
Th@@	1044
medi@@	1042
included	1041
regim@@	1040
sy@@	1038
IN	1037
ven@@	1037
people	1036
bes@@	1034
leaflet	1033
limited	1032
population	1032
i	1030
4.2	1029
II	1028
e	1028
96	1027
breast	1026
cap	1021
performed	1019
greater	1018
R	1018
AT@@	1016
st@@	1016
systemic	1015
26	1014
disorder	1012
order	1011
−	1011
ological	1010
called	1009
2001	1007
d	1006
S.	1006
effectiveness	1005
trial	1005
vitro	1002
Human	1001
experienced	997
adult	996
fo@@	995
month	994
ist	994
RE@@	990
result	989
primary	989
dium	988
Ab@@	987
OUT@@	986
test	986
4.8	985
AD@@	984
ery@@	984
oma	983
um	983
lis@@	981
starting	980
Ex@@	980
contents	979
mouth	978
44	978
Take	977
der@@	977
V	976
monitoring	976
medical	976
4.5	975
Commission	975
ob@@	974
AM@@	973
U@@	973
feeling	971
32	970
tim	969
hydrate	968
significantly	967
dizz@@	965
1,000	962
cannot	960
made	960
flu@@	957
bio@@	957
additional	956
My@@	956
end	954
49	952
me	951
addition	949
small	948
usually	947
Dis@@	947
Com@@	946
ring@@	945
Insul@@	943
250	941
raz@@	940
milk	940
surgery	940
alcohol	939
child	936
yl	936
ane	933
line	932
then	932
contrac@@	932
main	931
Con@@	931
glucose	931
Co@@	928
To	927
abnormal	926
established	925
how	925
of@@	925
ene	924
Vir@@	924
Al@@	924
cin	922
tissue	920
001	917
ocy@@	916
list@@	915
post-@@	914
A.	914
mal@@	913
Pen	912
ast@@	912
afil	911
M	911
important	911
open@@	910
approved	910
TA	909
groups	907
US@@	907
Pharma	907
III	907
start	906
headache	906
calcium	906
evidence	906
ys@@	904
vast@@	904
volume	903
random@@	903
rix	901
occurred	900
ME@@	898
GmbH	897
ure@@	896
Di@@	895
antibodies	895
rh@@	895
G	894
EX@@	894
tests	893
fa-@@	893
Ad@@	892
another	892
long	891
found	891
ence	890
ard	890
via	889
31	889
LE@@	889
gen@@	888
Le@@	887
ana@@	886
Fil@@	886
AB@@	885
whether	883
En@@	882
fold	882
2002	882
animals	879
amide	877
growth	877
date	876
One	876
ular	876
UN@@	875
factor	875
plate@@	875
showed	874
last	873
IC@@	873
action	873
us@@	872
sections	872
able	872
ax	871
ve@@	870
machines	869
dy@@	867
second	866
ub@@	865
CV@@	862
ating	859
increases	859
continuation	859
36	857
receive	856
Ltd	855
ra	854
ogen@@	854
ED	853
4.3	852
phen@@	851
France	851
different	850
elderly	850
four	849
tre@@	848
ini@@	848
prevent	848
clear	847
immun@@	846
DNA	845
evaluated	844
5.2	843
history	841
chemotherapy	839
h@@	839
area	838
Mix@@	838
discontinued	838
light	837
ant@@	837
la@@	836
capsule	835
1.5	835
phase	835
immune	834
si@@	833
tom@@	830
IL@@	830
ing	829
@	828
state	827
mono@@	827
dic@@	827
constituted	825
10,000	825
34	823
Q@@	823
angi@@	823
procedure	822
amount	822
7@@	822
39	821
dialysis	820
k@@	819
amine	818
ot@@	816
ously	815
65	815
although	813
advice	811
infected	811
neuro@@	810
sugar	810
Par@@	810
IT	809
bo@@	809
in-@@	809
74	808
pri@@	808
000	807
constitution	807
analysis	806
no@@	805
train@@	805
le	803
ty@@	801
aged	801
make	801
Hep@@	800
presented	799
ally	799
pae@@	798
oli@@	798
yellow	795
names	795
Y	795
itis	794
5.1	794
eva	793
bin	793
abdominal	793
Table	793
authorised	792
29	792
ta@@	790
humans	790
Package	788
002	788
Medic@@	788
600	788
OP@@	787
CO@@	787
veterinary	786
5-@@	785
Member	784
ology	784
cartridge	784
half-@@	784
ar	783
too	783
An@@	780
sible	780
rib@@	779
CI	779
uc@@	778
distribution	777
become	776
EF@@	776
gastro@@	776
stomach	776
initial	776
metabolism	773
MIN@@	772
me@@	771
br@@	771
F	771
46	770
interaction	770
label	770
multiple	769
major	767
relevant	767
respiratory	766
especially	766
mar@@	766
management	765
27	765
val@@	764
carton	761
hormone	761
package	761
mal	761
ness	761
drive	761
42	760
ism	760
ject	758
individual	757
usual	757
followed	756
absorption	754
United	754
ates	754
tide	754
part	751
redness	751
PRE@@	750
ants	750
enzyme	749
Tr@@	749
por@@	749
sw@@	748
ensure	748
supplied	747
depression	747
corti@@	746
continued	744
path@@	743
according	743
EL	743
gras@@	743
disper@@	742
IX	742
activities	741
resistance	740
please	739
itus	739
PRO@@	738
120	737
ori@@	737
back	736
RO@@	735
xy@@	735
EP@@	734
Ne@@	734
prote@@	734
cardiac	733
xim@@	733
reports	733
den@@	732
quin@@	732
AN	730
cer@@	729
At	729
Nor@@	729
OR@@	728
k	728
ose	727
eme@@	727
icon@@	726
ART@@	724
Kingdom	724
10@@	722
conducted	722
Belgi@@	722
va	720
1998	720
Agency	719
frac@@	719
i.	719
list	718
packs	717
pho@@	717
&	716
needles	716
phosphate	716
DI@@	715
7.5	715
hi@@	715
what	714
air	714
Ren@@	713
zy@@	713
MS	713
IT@@	713
hour	711
ancy	711
develop	711
pine	711
count	711
cit@@	711
Peg@@	711
asis	709
condition	709
overall	709
Bayer	709
ra@@	708
m-@@	708
place@@	707
local	706
a.	706
J@@	706
otherapy	705
es@@	702
ovi@@	701
ser@@	701
arthritis	700
indication	698
carefully	694
fol@@	693
PC	692
equivalent	692
X	692
bo-@@	691
Limited	691
Rap@@	691
ative	690
prolonged	690
colour@@	690
aluminium	690
ato@@	689
dos@@	689
lead	688
throughout	688
table	688
ET@@	687
Ir@@	686
Pu@@	686
See	686
prescribed	686
positive	682
patch	682
Inf@@	681
arm	681
top@@	681
men@@	680
pul@@	680
AGE	680
OR	679
col@@	679
±	679
particularly	678
retro@@	678
combin@@	677
injected	677
together	676
So@@	675
bro@@	675
CT	674
alog	673
eron	673
assessment	673
lets	671
animal	671
certain	671
achieved	670
cal@@	669
acet@@	669
log	668
emat@@	668
point	668
since	666
Preg@@	665
potassium	665
coag@@	665
agli@@	664
oid	661
tract	661
ities	661
dry	661
post@@	659
ell@@	659
ch@@	658
P2@@	658
surface	658
ben@@	657
stop@@	656
TI@@	656
emic	655
mel@@	655
onic	655
likely	653
upper	652
harm	652
Rare	652
47	652
elimination	651
free	651
oxide	651
enzymes	651
unless	651
support	651
dil@@	651
Products	650
urinary	650
UM	650
ching	649
application	649
maintenance	648
Before	648
general	647
43	647
ste@@	646
ans@@	646
produced	645
2.@@	645
listed	645
avoid	644
ite	643
gets	643
might	642
USE	642
carcin@@	640
versus	638
instructions	638
profile	636
sufficiency	636
Hy@@	634
lev@@	633
vaccines	633
2-@@	633
so	633
initiated	633
impaired	633
oto@@	632
resistant	632
Following	632
Union	631
form	630
Vi@@	630
looks	629
get	629
Do@@	628
standard	628
man	627
VI@@	625
rubber	625
vir@@	624
temperature	623
activated	623
event	623
ents	623
long-term	623
2006	622
ulation	619
values	619
peripheral	619
som@@	617
	617
09	616
immuno@@	616
les	615
During	614
drugs	613
nit@@	613
prolong@@	612
sure	611
Op@@	611
ing@@	607
sul@@	607
contain	607
generally	606
particular	606
44-@@	605
deficiency	605
Clinical	604
ou@@	604
obtained	604
dial	604
Germany	603
zap@@	603
ac	603
adequate	603
52	602
rep@@	601
800	601
assessed	600
interval	599
radi@@	599
SA@@	597
measures	596
advised	596
pa@@	596
ysis	596
gast@@	596
ts	596
Inter@@	595
counts	593
ly	592
emor@@	591
ATION	590
down	590
2007	589
Met@@	589
diabe@@	588
commonly	588
thesia	587
lactose	587
risks	586
se	586
meal	586
interactions	585
difficulty	585
types	584
sulph@@	584
EL@@	583
Pre@@	583
physician	582
agent	582
oids	581
los@@	580
ogenic	580
place	579
toxic	579
set	578
eth@@	577
41	576
availability	576
started	575
class	575
help	575
ef@@	572
tumour	572
ocar@@	571
six	571
0.9	570
Ser@@	569
measured	569
combined	569
37	569
peg@@	569
concentrate	568
ON@@	568
bil@@	567
rosis	565
oste@@	565
BV	565
current	565
rates	565
inhal@@	564
fen@@	564
leuk@@	563
Always	563
intr@@	563
he@@	562
Like	562
granted	562
needed	561
provide	560
ati@@	559
expiry	558
agreed	558
death	558
mixed	558
improvement	557
drink	556
fat	556
binding	556
arr@@	554
ng	554
vein	553
phosph@@	553
tac@@	553
act	552
are@@	552
trac@@	551
iron	551
occurs	551
YOU	551
gia	550
ial	550
fe@@	550
ures	550
present	549
prescri@@	549
complete	549
previous	548
00@@	548
IV	547
gluc@@	547
defined	547
normal@@	547
1997	547
tox@@	547
weakness	547
α	546
described	546
chest	546
180	545
na	545
breathing	545
TAK@@	545
ae	544
brain	544
55	544
AF@@	543
go	543
Sol@@	543
13@@	543
survival	542
verse	542
450	542
Eff@@	542
pneum@@	541
Why	541
diseases	541
dia	540
≤	540
show	537
.@@	537
next	537
UK	537
ept	537
res@@	536
repeated	536
Management	536
dependent	536
intended	535
way	535
Ro@@	535
early	534
An	534
ja	534
cholesterol	534
stated	533
opathy	533
te	533
Cy@@	533
All	531
ket@@	531
ID	531
fatal	530
ina	530
adjusted	530
38	529
AB	528
indicate	528
even	527
Fax	527
nia	527
ed-@@	527
scientific	526
Hydro@@	526
ines	526
Her@@	525
onset	525
ough	525
ens	525
factors	525
refrigerator	525
longer	524
euro@@	523
and@@	523
Special	523
{	522
damage	522
vo	522
ator	522
λ@@	522
infants	522
precautions	522
units	522
DU@@	521
soon	520
ly@@	520
basis	520
lu@@	520
gener@@	520
OT@@	519
Ci@@	519
PV@@	519
older	518
Europe	518
vision	518
Neo@@	517
any@@	517
dl	517
cardiovascular	517
receptor	517
rac@@	516
poly@@	516
benefits	516
ID@@	516
plas@@	516
Please	515
difference	515
rarely	514
12.5	513
ver@@	513
ases	513
xis	513
Su@@	513
sy	513
ins	513
ile	513
prevention	512
}	512
dioxide	512
hibition	511
Av@@	511
course	511
bit@@	510
far@@	510
1.0	510
125	510
existing	510
fluid	510
here	509
closely	509
lymph@@	508
told	508
emo@@	507
plastic	507
ting	507
vacc@@	506
enia	506
ev@@	506
withdrawal	506
unknown	506
tation	506
aes@@	505
acting	505
epilep@@	504
sil@@	504
ind@@	504
sions	503
currently	503
ip@@	503
initiation	502
sterile	502
Tell	502
lan@@	502
sal@@	502
off	502
Bon@@	501
face	501
procedures	501
uncommon	501
average	501
Holder	500
stip@@	500
several	500
-1	500
valid	500
Pe@@	500
CON@@	500
ari@@	499
blind	499
affected	499
dysfunction	499
rel@@	498
liquid	498
ino@@	498
ath@@	498
frequently	498
SU@@	498
54	498
proteins	498
PE	498
zo@@	498
Me@@	497
applications	496
1,@@	496
large	496
0.3	495
rapid	495
ten	495
Pr@@	495
antly	495
evaluation	494
re-@@	494
much	494
pro	494
DC	494
lack	494
kin@@	493
lose	493
previously	493
laboratory	492
go@@	492
eyes	492
volunteers	491
D-@@	491
forget	491
corresponding	491
already	490
onia	490
International	490
UT@@	490
LET	490
fu@@	489
up@@	489
everybody	489
mm@@	489
ge	489
would	489
antibody	489
Ha@@	488
↓	488
gi@@	487
them@@	487
06@@	486
plus	486
pin@@	486
fatigue	486
Based	486
Taking	485
measure	484
ES@@	483
172	483
resulting	483
mainly	482
inflammatory	482
developed	482
W@@	481
q	480
St@@	480
dys@@	480
rel	480
C.	480
da	479
160	479
B.	479
K	479
glycer@@	478
undesirable	477
EM@@	477
cc@@	477
however	477
EV@@	476
ka	475
name	475
pin	475
oten@@	475
pep@@	474
Let	474
Im@@	474
require	473
identified	473
2008	473
health	472
subsequent	472
notice	472
eri@@	471
asta	471
row	471
0.1	471
Study	471
y-@@	470
fer@@	470
51	470
Product	470
ering	470
des@@	470
sick	469
5.3	468
aria	468
act@@	467
sin@@	467
BL@@	467
appetite	467
male	465
uro@@	465
Summary	464
presence	464
million	464
ae@@	464
1-@@	463
xi@@	463
LL	463
size	463
working	462
quality	462
pos@@	462
3-@@	462
007	461
advanced	461
transplant	461
ratio	461
Lil@@	460
CR@@	460
involving	460
Is	460
weekly	459
negative	459
72	459
man@@	459
pid@@	458
dic	457
regular	457
Medicines	457
chol@@	456
progression	456
induced	456
Ch@@	455
Because	455
Ireland	455
arc@@	455
influenza	454
submitted	453
Mab@@	453
sup@@	453
seiz@@	453
Val@@	453
transi@@	452
END	452
lung	452
iz@@	452
tel@@	451
cats	450
Some	450
plung@@	450
metast@@	449
-0@@	449
bul@@	449
Bas@@	449
Characteristics	448
breath	448
differences	448
Al	448
States	446
61	446
ran@@	445
around	445
http	444
ir	444
organ	444
ination	444
030	444
double-@@	443
mi@@	443
171	442
national	442
asthma	442
ER@@	442
bacterial	441
Tél	441
AS	440
SY@@	440
unit	440
EC@@	440
sig@@	440
tiv@@	440
cartridges	440
lax@@	439
zer	439
eu	438
opinion	438
ides	438
64	438
TS	438
involved	438
RA	437
beta-@@	436
General	436
lin@@	436
feed	436
resulted	435
Em@@	435
still	435
cap@@	434
μ	434
cu@@	434
PER@@	434
give	433
DE	433
beta	433
female	433
adal@@	432
press@@	432
onist	432
lor@@	431
Animal	431
rapidly	430
indications	430
fully	429
etal	429
pol@@	429
multi@@	429
causes	429
mid@@	429
Caution	428
Hyper@@	428
bound	428
tors	427
El@@	426
58	426
value	426
recommendations	426
oe@@	425
Belgium	425
TER@@	425
rheum@@	425
whole	424
whose	424
symp@@	423
SC@@	423
pip@@	422
F-@@	422
cular	422
few	422
species	421
copies	420
ane@@	420
slightly	420
maintained	420
amus@@	420
doc@@	420
skeletal	420
induction	420
joint	420
LE	419
example	419
feel	419
hydr@@	419
marked	419
Children	418
IF@@	417
parameters	417
having	417
ture	416
term	416
check	415
fungal	414
reached	414
73	414
elevated	413
flu	413
Sub@@	413
LO@@	413
follow-up	413
gra@@	412
production	412
Sil@@	411
rit	411
ira	411
AS@@	411
8.@@	411
gic	411
statistically	410
preparation	410
AZ@@	410
apar@@	410
US	410
accordance	410
stopped	410
Merc@@	410
atory	409
fin@@	409
olic	409
alised	408
ade	408
fil@@	408
ACE	408
Since	407
target	407
vitamin	407
cop@@	407
gen	406
Tablet	406
produce	406
HD@@	405
completed	405
lip@@	405
normally	405
…	405
3.@@	404
Article	404
so@@	404
one@@	404
estimated	404
L-@@	403
08@@	403
Tre@@	402
means	402
illness	402
o-@@	401
affects	401
Section	401
53	401
half	401
tem@@	401
avoided	401
testing	400
Z	399
iso@@	399
fusion	399
primarily	399
Unit	399
absorbed	399
20@@	398
particles	398
ITS	398
diet	398
ushing	397
regarding	397
occurring	396
Blood	396
E-mail	396
sed	396
Lev@@	396
medication	396
12@@	396
polyethylene	395
se@@	395
company	394
Fer@@	394
carried	394
throat	394
emb@@	394
eption	393
tested	393
atro@@	393
Type	393
code	393
atitis	392
lym@@	392
91	392
ie@@	391
nol@@	391
visual	391
tal	391
room	391
five	391
ella	391
ve	391
increasing	391
bron@@	391
a-@@	390
B-@@	390
comparable	390
↑	390
0.6	390
anz@@	390
severity	389
determined	389
coma	389
exactly	389
bet@@	389
Phase	389
episodes	389
upon	388
Tri@@	388
lesions	386
fam@@	386
dine	386
box	386
Ar@@	386
swe@@	386
guidelines	386
document	385
4.6	385
IDs	385
tron	385
ized	385
cover	385
CV	384
cep@@	384
Co-@@	384
era	384
ami@@	383
adequately	383
dro@@	383
old	383
omet@@	382
Kal@@	382
majority	381
acid@@	381
amin@@	381
cycle	381
reach	381
points	381
ins@@	381
tions	381
Sev@@	380
hands	380
treatments	380
gram	380
fertility	380
Rapid	380
kidneys	380
monitor	379
sa@@	379
undergoing	379
368	379
Plan	379
protection	378
treating	378
Portugal	378
reference	378
many	378
vascular	378
0.4	378
ps@@	378
short	378
yn@@	377
transfer@@	377
Working	377
status	377
sin	377
Kar@@	376
tumours	376
protective	376
stored	376
rati@@	376
tam@@	376
14@@	375
requirements	375
67	375
radio@@	375
Netherlands	374
sor@@	374
ons	374
ali@@	374
protect	374
ising	374
ill@@	373
88	373
du@@	373
onists	373
68	373
threatening	372
6-@@	372
LAB@@	372
cis@@	372
dom@@	372
MR@@	372
's	372
07@@	372
bloc@@	372
une	371
Administration	370
V.	370
schedule	370
injec@@	370
str@@	369
ics	369
adj@@	369
etra	369
A-@@	369
Skin	368
orb@@	368
ach@@	368
initi@@	368
Health	368
na@@	368
ids	367
16@@	367
ο@@	367
pal@@	367
separate	366
exposed	366
010	366
noted	366
potent	366
Keep	366
confirmed	366
nurse	366
2005	366
non	365
designed	365
ang@@	365
hal@@	365
rogen	365
Kin@@	364
ancies	364
Car@@	364
remove	364
They	364
bottles	364
added	364
Pl@@	363
insufficient	363
influence	363
sleep	363
my	362
ere	362
often	362
Reproduction	362
vas@@	362
Studies	362
war@@	362
bearing	361
peak	361
score	361
Safety	361
28@@	360
Not	360
State	360
Due	360
stable	360
Hel@@	360
Az@@	360
Atri@@	359
induc@@	359
applied	359
66	359
gel@@	359
exercised	359
recep@@	359
concluded	358
secre@@	358
Although	358
frequent	358
suggest	358
anxiety	358
close	357
container	356
mortality	356
η@@	356
til	356
physical	356
Rev@@	356
23@@	356
sim@@	356
esp@@	355
decreases	355
secondary	355
P-@@	355
q@@	355
method	353
irritation	353
away	353
st	352
tim@@	352
mice	352
CD@@	351
developing	351
VIII	351
77	351
4-@@	350
Important	350
www@@	350
cor@@	350
extent	350
referral	350
yr	350
Mix	349
Sector	349
carb@@	349
enter@@	348
tro@@	348
diluted	348
potentially	348
patches	348
59	347
TA@@	347
Bar@@	347
unlikely	347
pigs	346
intervals	346
93	346
excluded	345
opor@@	345
2003	345
morning	345
fum@@	345
Ε@@	345
investigated	345
ps	345
stroke	345
third	345
cardi@@	345
outer	344
AG	344
men	344
her@@	343
Bio@@	343
83	343
XP	343
57	343
formation	343
reg@@	343
0.2	342
62	342
v	342
Remove	342
rabbits	342
left	342
ux	342
inter@@	342
soft	342
pres@@	342
6.6	341
Tel@@	341
antibiotics	341
person	341
1996	341
O	341
Powder	340
makes	340
allow	339
final	339
Finland	339
rec@@	338
albu@@	338
tig@@	338
programme	338
27@@	338
sufficient	338
born	338
relative	338
0.00@@	338
gene	338
store	338
4.@@	338
wi@@	338
oxy@@	338
gem@@	338
meeting	338
tolerated	337
gli@@	337
read	337
fon@@	337
NE@@	337
ril	337
Day	337
85	337
vs.	335
Dos@@	335
pens	335
ret@@	335
acy	335
ad	334
cellulose	334
pic@@	334
89	334
field	334
account	334
reducing	334
inated	333
vor@@	333
I-@@	333
lowering	333
Risk	333
gran@@	332
esp	332
prescription	332
MAR@@	332
formulation	332
T-@@	332
а@@	331
jection	331
meetings	331
route	331
suppression	331
RT@@	331
82	331
thyroid	331
IA	331
Once	331
PC@@	330
Pharmaceuticals	330
trop@@	330
authorities	330
INE	330
ign@@	330
properties	330
removed	330
Week	330
ς	330
EN	330
ony@@	329
vessels	329
mine	329
Be@@	329
perfor@@	329
Store	329
Tas@@	329
110	329
nucle@@	329
Er@@	329
crystalline	328
central	328
lic@@	328
arian	328
Bet@@	328
Grade	328
aar	327
15@@	327
possibly	327
FOR@@	327
109	327
anine	326
limit	326
consistent	326
nel@@	326
cr@@	326
loc@@	326
VA	326
Pack	325
Cap@@	325
ard@@	325
pH	325
ex	325
sit@@	325
kinson	325
icular	324
ine-@@	324
za	324
imp@@	324
Cal@@	324
tor@@	324
ask	323
Road	323
ni@@	323
eu@@	323
ANNEX	322
Smi@@	322
recently	322
storage	322
ris	322
09@@	322
tron@@	321
areas	321
suitable	321
com@@	321
ys	321
On	320
abs	320
Anti@@	320
component	320
RIS@@	320
ages	320
prov@@	320
Aran@@	319
guidance	319
ENT@@	319
exceed	319
tur@@	319
complications	319
bacteria	319
eliminated	319
decide	318
odynamic	318
5.@@	318
w	317
nervous	317
TIV@@	317
Sloven@@	317
pur@@	317
entis	316
excessive	316
astro@@	316
Ce@@	316
ile@@	316
Cell@@	316
d.	316
device	315
PR@@	315
whom	315
und@@	315
ρ@@	315
neck	315
que	315
ess	315
keep	314
Kline	314
AZ	314
ES	314
ment	314
mit@@	314
version	314
own	314
py@@	314
SE@@	314
ice	313
inhibit	313
ling	313
sia	312
conv@@	312
IB@@	312
25@@	312
sexual	312
Plus	312
Council	312
86	311
Lat@@	311
direct	311
elev@@	311
ML	311
bru@@	311
repub@@	310
em	310
June	310
Board	310
fill	309
UR@@	309
EC	309
transplantation	309
completely	309
transfer	309
process	309
tan@@	309
lum@@	309
Luxembourg	308
s.	308
talk	308
regularly	308
gam@@	307
worsening	307
unchanged	307
mechanism	307
young	306
1.2	306
tin@@	306
thal@@	306
dar@@	305
better	305
nec@@	305
eph@@	305
Am@@	305
supervision	305
Italy	305
Gl@@	305
Non-@@	305
technology	304
pump	304
staff	304
disturbances	304
eces	304
12.@@	304
With	304
cers	303
Ras@@	303
persistent	303
1.3	303
arter@@	303
rea	302
hospital	302
Pos@@	302
tures	302
macro@@	302
um-@@	302
selective	302
oly@@	302
Nex@@	302
pan@@	301
icidal	301
proportion	301
eff@@	301
July	301
appear	301
proposed	301
strain	300
life-@@	300
sites	300
review	300
discomfort	300
derived	300
p-@@	300
IP@@	300
Box	299
Lam@@	299
adopted	299
reversible	299
minor	298
MI@@	298
Or@@	298
asth@@	298
AX	298
stage	298
various	298
induce	298
63	297
mis@@	297
CT@@	297
ron@@	297
30@@	297
Fe@@	296
E-@@	296
metabolic	296
ication	296
Water	296
λ	296
C-@@	296
Dy@@	296
71	296
chrome	296
steady	295
non@@	295
San@@	295
mati@@	295
intake	295
kal@@	295
ution	295
RNA	294
grade	294
mark	294
0.8	294
nose	294
findings	294
Name	294
inform	294
psycho@@	293
tissues	293
ural	293
done	293
icy@@	293
AC	293
IM	293
except	293
ace@@	292
Ret@@	292
mail	292
tos@@	292
sensation	292
OM@@	292
sensitivity	292
drow@@	292
correct	291
works	291
outcome	291
actions	291
ft	291
follow	291
sometimes	291
occurrence	290
allergy	290
qu@@	290
ANCE	290
ride	290
Gen@@	290
Veterinary	290
kers	290
appears	289
always	289
absolute	289
tap@@	289
Sus@@	289
AX@@	289
malignant	288
ENT	288
cul@@	288
reproductive	288
17@@	288
ris@@	288
Data	288
Pen@@	288
INV@@	287
0-@@	287
yr@@	287
acknowledged	287
69	287
OJ	287
September	287
assay	287
esis	287
col	286
ble@@	286
apply	286
10.@@	286
res	286
esti	286
ï@@	286
absence	285
ro-@@	285
components	285
replacement	285
Application	285
Cart@@	284
sion	284
belongs	284
out@@	284
TH@@	284
Bo@@	284
ocular	283
sep@@	283
Spain	283
slowly	283
Solution	283
л@@	283
reduces	282
76	282
attack	282
button	282
black	282
Farm@@	281
improved	281
Mic@@	280
treat@@	280
monthly	280
otype	280
careful	280
SP@@	279
ment-@@	279
Neu@@	279
cro@@	279
continuous	279
intolerance	279
actose	279
Effects	279
hen@@	278
elec@@	278
magnesium	278
compar@@	278
tu@@	278
report	278
ze@@	278
nat@@	277
FIL@@	277
alo@@	277
Using	277
card	277
fos@@	277
detected	277
highly	277
yel@@	276
alternative	276
CI@@	276
orphan	276
92	276
olate	276
among	276
370	276
CS@@	275
HOR@@	275
0.25	275
single-@@	275
Pi@@	275
again	275
sizes	274
eptive	274
thr@@	274
long@@	274
allowing	274
1.0@@	274
os	274
muc@@	274
slow	274
IC	274
Deutschland	273
pac@@	273
du	273
Sp@@	273
depending	273
ills	272
conventional	272
ano@@	272
adjustments	272
determine	272
sleep@@	272
2.0	272
hair	272
MB@@	271
BER@@	271
London	271
Τ@@	271
GE	271
Head	271
confusion	271
oni@@	271
Clo@@	271
users	271
Ste@@	270
371	270
retention	270
Pol@@	270
apparent	270
Vel@@	269
child@@	269
instructed	269
tives	269
cream	269
Doc@@	269
GR@@	269
fluor@@	269
bacter@@	269
AST	269
derly	268
pancre@@	268
Tar@@	268
accumulation	268
questions	268
ICH	268
responses	268
LY@@	268
2004	268
terminal	268
association	268
aph@@	268
Ca@@	268
Ig@@	268
proph@@	267
ache	267
forms	267
ton	267
Austria	267
mut@@	267
John	267
Most	266
delayed	266
round	266
diagnosis	266
estion	266
preparations	266
international	266
Flu@@	266
prop@@	265
enough	265
rod	265
log@@	265
MED@@	265
handling	265
mm	265
Party	265
Hypo@@	265
October	265
amended	264
Group	264
blocking	264
ilia	264
mat@@	264
abol@@	264
needs	264
Hg	264
Tab@@	263
Two	263
cer	263
April	263
2,@@	263
tip	263
muscles	263
Bi@@	263
tery	263
PV	263
sti@@	263
isol@@	262
follows	262
respect	262
del@@	262
immediate	262
pes	262
tongue	262
thy@@	262
Du@@	261
Tra@@	261
Rem@@	261
AUT@@	261
Per@@	261
impact	261
132	261
tablet@@	261
natural	261
Se@@	261
ili@@	260
summary	260
raf	260
inations	260
strength	260
leading	260
user	260
ator@@	260
detailed	260
clearly	259
respond	259
safe	259
acon@@	259
Directive	259
81	259
Res@@	259
iting	259
December	259
6.@@	259
Dr	259
ity@@	259
IG@@	259
Qu@@	258
©	258
requiring	258
Dan@@	258
drops	258
dog	258
short@@	258
open	258
sudden	258
exacerb@@	258
think	257
evening	257
3.5	257
á@@	257
directly	257
box@@	257
responsible	257
-0.@@	257
trem@@	256
duc@@	256
stam@@	256
210	256
gest@@	256
ves	256
beat	256
я	255
ada	255
ity	255
78	255
heart@@	255
tar@@	255
improve	255
syn@@	255
recognition	255
ro	255
au	254
yourself	254
band@@	254
Cardi@@	254
if@@	254
competent	254
possibility	253
suspected	253
best	253
Read	253
aus@@	253
performance	253
February	253
Information	253
Adv@@	253
equal	253
atr@@	253
activation	253
baby	253
CEL@@	252
injury	252
consider	252
right	252
mic@@	252
90@@	252
January	252
amounts	252
body@@	252
l-@@	252
dop@@	252
olog@@	252
nasal	251
carry	251
healthcare	251
PS@@	251
attention	251
exercise	251
administ@@	251
Zer@@	251
dri@@	251
machinery	250
IST@@	250
S-@@	250
matter	250
neph@@	250
idal	249
purposes	249
stead@@	249
antibiotic	249
LED	249
MP@@	249
ED@@	249
18@@	249
rat	249
consideration	249
pran@@	249
o.	249
foil	249
NAME	248
position	248
maintain	248
Driving	248
hydration	248
Any	248
ules	247
eti@@	247
ez@@	247
N-@@	247
onal	247
ges@@	247
issues	247
raised	247
whilst	247
Avastin	247
conjug@@	247
ely@@	247
coron@@	247
aden@@	247
Bre@@	246
nationally	246
tra@@	246
TE@@	246
printed	246
arti@@	246
tting	246
altered	246
1.1	246
excess	246
94	245
chew@@	245
MA	244
double	244
1.4	244
Part	244
ies	244
Vacc@@	244
dissolved	244
Total	244
arms	243
commercial	243
suffer	243
Symp@@	243
rine	243
Bot@@	243
pivotal	243
OL@@	243
taste	243
open-@@	243
Shar@@	243
0.7	242
uv@@	242
consult	242
operation	242
ute	242
pir@@	242
HR@@	242
ventr@@	242
causing	242
FS@@	242
On@@	242
Increased	242
be@@	241
oda	241
bing	241
Regulation	241
behaviour	240
therapies	240
EG@@	240
Cir@@	240
biological	240
zol@@	240
shaped	240
gently	240
later	240
March	240
ado@@	240
Italia	240
vil@@	239
ge@@	239
Tem@@	239
hr	239
recovery	239
recent	239
LD@@	239
INT@@	239
'	239
lessness	239
7.@@	239
►	238
As@@	238
titanium	238
Te@@	238
Rib@@	238
material	238
SA	238
ologic	238
supportive	238
May	238
chemical	238
cm	238
Ty@@	238
relevance	238
-R@@	238
Ri@@	237
olab@@	237
ά@@	237
ver	237
top	237
November	237
tiva	237
ren	237
comes	237
embry@@	236
remain	236
partial	236
ore@@	236
contrast	236
shock	236
clar@@	236
Men@@	235
live	235
joints	235
hos@@	235
prepared	235
ros@@	235
X-@@	235
post	235
CE@@	234
expo@@	234
ever	234
mental	234
EEC	234
chi@@	234
Б@@	234
inger	234
ephal@@	233
Adults	233
itu@@	233
stopping	233
t-@@	233
amed	233
agen	233
com	233
tor	233
gh	233
ion	233
WP	232
flow	232
reverse	232
Fab@@	232
delay	232
solutions	232
Na@@	232
dex	232
sures	232
reductions	232
warnings	232
lo	232
ION	232
372	232
Co	231
salt	231
cycles	231
CA@@	231
just	231
Eli	231
184	231
cleansing	231
18.@@	231
irrit@@	231
dr@@	231
junc@@	230
ast	230
radiation	230
gain	230
KO@@	230
characteristics	230
í@@	229
monkeys	229
hip	229
sz@@	229
δ@@	229
var@@	229
irus	229
hazard	229
gal@@	229
1999	229
usi@@	229
xa	228
seek	228
tos	228
ori	228
helps	228
Epo@@	228
sed@@	228
tuberculosis	228
amaz@@	228
orange	228
across	227
ders	227
BM@@	227
coli	227
market	227
idi@@	227
Ag@@	227
van	227
nic@@	227
pot@@	227
No@@	227
insu@@	227
isch@@	226
Si@@	226
relationship	226
GEN@@	226
balance	226
RA@@	225
Mar@@	225
Note	225
remains	225
systems	225
α@@	225
Α@@	225
IST	225
professional	225
-like	225
White	225
hydrogen	225
yp@@	225
gon@@	224
Ly@@	224
ige	224
affecting	224
minute	224
ring	224
entire	224
ascular	224
e.g.	224
Lac@@	224
part@@	224
esia	224
sule	223
administer	223
predominantly	223
concerns	223
seal	223
isolated	223
adapter	223
lic	223
opening	223
tibility	223
comparison	223
STR@@	223
ica	223
QU@@	222
Applicant	222
Johnson	222
invasive	222
gol	222
gel	222
ens@@	222
blurred	222
essential	222
PRO	222
Neuro@@	222
79	221
tra	221
Fac@@	221
A2	221
j@@	221
unused	221
substrate	221
CER@@	221
cin@@	221
accidental	220
Cor@@	220
zi@@	220
VEL@@	220
cir@@	220
conversion	220
models	220
weighing	220
consciousness	220
TEX@@	220
Pas@@	220
topical	220
static	220
od	220
degree	220
SS@@	220
ote@@	220
Overall	220
420	219
verte@@	219
Κ@@	219
blue	219
hil	219
Park	219
ki@@	219
,000	219
ë	219
185	218
abdomen	218
8-@@	218
Only	218
hyp@@	218
30-@@	218
trough	218
ne	218
sis	218
System	218
surgical	218
mic	217
paren@@	217
hab@@	217
off-@@	217
®	217
polypropylene	217
load	217
achieve	217
divided	217
ora	217
3.0	217
11@@	216
Women	216
put	216
creati@@	216
medications	216
Orph@@	216
Cam@@	216
use@@	216
SEN@@	216
gradually	216
beginning	216
num@@	216
ogen	216
bas@@	216
glu@@	216
chem@@	216
content	216
adjust	215
regulatory	215
documents	215
Instructions	215
15.@@	215
OS	215
etus	214
remaining	214
π@@	214
vs	214
ent-@@	214
Nerv@@	214
contained	214
individuals	214
diagnosed	214
view	214
drop	213
parties	213
medic@@	213
ium	213
hormonal	213
booster	213
requested	213
suscep@@	213
HER@@	213
populations	213
ting@@	213
dian	213
updated	212
Tit@@	212
ate@@	212
istic	212
bubbles	212
tube	212
bol@@	212
methyl@@	212
Further	212
exam@@	212
published	212
coloured	212
Module	212
viruses	211
Head@@	211
cloudy	211
consecutive	211
PH@@	211
empty	211
г@@	211
original	211
mia	211
gre@@	210
atine	210
Units	210
enic	210
ple@@	210
BY@@	210
temporary	210
vet	210
topic	210
Peri@@	210
fall	210
susceptible	210
ung@@	210
int	210
mon	209
uss@@	209
alogues	209
worse	209
vo@@	209
rise	209
bed	209
bladder	209
responded	209
mutual	209
birth	209
underlying	209
breast@@	209
Report	209
Set	209
decided	208
plan	208
sto@@	208
bor@@	208
bris	208
anth@@	208
refer	208
appearance	208
pra	208
2.4	208
sustained	208
phy	208
Med@@	208
ύ@@	207
ALL	207
HOL@@	207
yol@@	207
G-@@	207
mutations	207
ox	207
min@@	207
acids	207
starch	206
land	206
Sweden	206
calculated	206
Denmark	206
attached	206
opathic	206
lithi@@	206
density	206
good	206
juice	206
lungs	206
asi@@	205
assess	205
glut@@	205
suffering	205
cam@@	205
come	205
ъ@@	205
preferably	205
Polska	205
ри@@	204
strains	204
bag	204
Pan@@	204
pra@@	204
criteria	204
meals	204
87	204
á	204
extension	204
feet	204
240	204
relating	204
37@@	204
uk@@	204
strong	204
clari@@	204
358	204
heim	204
ma	204
ingredient	203
straight	203
properly	203
logical	203
Rom@@	203
BO@@	203
Aluminium	203
wall	203
regard	203
discuss	203
To@@	203
pension	203
held	203
oint@@	203
127	203
driving	202
ections	202
ses	202
bral	202
equi@@	202
au@@	202
specifically	202
ongoing	202
bot@@	202
tle	202
includes	202
IPS	202
Nederland	202
PA	202
agitation	201
112	201
3.3	201
high-@@	201
PD@@	201
minimum	201
changed	201
colour	201
subject	201
anal@@	201
Ris@@	201
physicians	201
enz@@	200
Fl@@	200
recovered	200
ash	200
oidal	200
INAL	200
thus	200
New	200
gland	200
Ind@@	200
cold	200
practice	200
experts	199
operate	199
ear	199
140	199
alpha	199
problem	198
ical	198
circumstances	198
Österreich	198
ja@@	198
cattle	198
ská	198
16.@@	198
From	198
dum@@	198
20.@@	198
disturbance	197
Novo	197
Additional	197
centralised	197
19.@@	197
4.1	197
E.	197
live@@	197
enrolled	197
looked	197
sach@@	197
395	197
led	196
enc@@	196
Sand@@	196
Dec@@	196
Ap@@	196
Date	196
IONS	196
initiating	196
pharmaceutical	196
tol@@	196
spine	196
Flex@@	196
Rs	195
specified	195
samples	195
pt@@	195
apo	195
measuring	195
escent	195
advise	195
stability	195
almost	195
Ur@@	195
Community	195
percentage	195
eg	195
relation	194
accidentally	194
sensitive	194
Via	194
tec	194
Evaluation	194
V-@@	194
ina@@	194
gin	194
reporting	194
le-@@	194
Comb@@	194
low-@@	194
hand	194
fied	194
lipo@@	194
II@@	194
unc@@	193
MG	193
transmission	193
yet	193
disposal	193
substrates	193
NOT	193
females	193
421	193
al-@@	193
services	193
August	193
Class	193
Eli@@	193
aise	193
MS@@	193
uli@@	193
emer@@	192
implementation	192
pe@@	192
By	192
return	192
WITH	192
↔	192
ones	192
inate	192
pass	192
onium	192
mentioned	192
sorption	191
11.@@	191
les@@	191
8000	191
Mon@@	191
750	191
Seven	191
withdrawn	191
she	191
MARK@@	190
ak@@	190
Me	190
sel@@	190
desirable	190
damaged	190
gender	190
terms	189
re	189
swa@@	189
push	189
iris	189
poor	189
hall@@	189
organs	189
ranging	189
gr@@	189
weak	189
Also	189
film	189
é	189
SC	189
fel@@	188
provides	188
dec@@	188
gl@@	188
professionals	188
Hex@@	188
Bene@@	188
legs	188
Number	188
Check	188
apse	188
386	188
10-@@	188
stimulating	188
0.0	188
sion-@@	187
progressive	187
elled	187
vid	187
RES@@	187
iro	187
40@@	187
PO@@	187
slight	187
mothers	187
resolved	187
lon	187
periods	187
Is@@	187
ace	186
1995	186
vac@@	186
experimental	186
opaque	186
ect	186
BOX	186
revealed	186
past	186
yn	186
fasting	186
source	186
Serious	186
ah@@	186
swallowed	185
anium	185
Pain	185
Zi@@	185
ently	185
disposed	185
public	185
FO@@	185
—	185
rho@@	185
nor	185
TOR@@	185
sten@@	185
spo@@	185
draw	184
maternal	184
ERE	184
ION@@	184
reproduction	184
2.6	184
missed	184
eline	184
Child-@@	184
soluble	184
deep	184
younger	183
opened	183
failed	183
Cl@@	183
roid@@	183
shall	183
comparing	183
discarded	183
gab@@	183
seconds	183
head	183
applicant	183
functioning	183
ade@@	183
cium	183
age@@	183
EX	183
kept	183
acts	183
now	182
eyel@@	182
Centre	182
Syndrome	182
surveillance	182
Gad@@	182
Patient	182
17.@@	182
Gen	182
weg	182
ze	181
Response	181
nerve	181
onto	181
emul@@	181
eci@@	181
iner@@	181
..	181
Healthcare	181
decision	181
depends	181
ix@@	181
extensive	181
M-@@	181
ehr@@	181
mar	181
he	180
harmful	180
delivery	180
consultation	180
Plasma	180
mac@@	180
rest@@	180
congenital	180
sealed	180
request	180
2.1	180
shire	180
ur	180
did@@	179
char@@	179
alisation	179
Mus@@	179
hot	179
ko@@	179
25.@@	179
35@@	179
horses	179
AA@@	179
base	179
MET	179
Tac@@	179
dementia	179
Greece	178
España	178
respon@@	178
Os	178
glo@@	178
ollen	178
supply	178
â@@	178
IL	178
ecia	178
closed	178
thereafter	178
solid	178
Distribution	178
bow@@	178
aci@@	178
TE	178
Labor@@	178
auto@@	178
Ran@@	178
compound	178
427	178
TIONS	177
fixed	177
representative	177
genetic	177
operating	177
evo	177
bos@@	177
SP	177
Hi@@	177
tory	177
io@@	177
ms	177
kit	177
irregular	177
5.0	177
know	177
bo	177
9.5	177
ost@@	177
Of	177
9.@@	177
л	177
ACK	176
lyn	176
eight	176
path	176
cil@@	176
EI@@	176
prof@@	176
Ter@@	176
acceptable	176
turn	176
Ki@@	176
DS	176
characterised	175
é@@	175
Manufacturer	175
12-@@	175
warning	175
particulate	175
atio	175
eg@@	175
epi@@	175
omi	175
cyclo@@	175
dn@@	175
clean	175
others	174
Stal@@	174
technique	174
Cel@@	174
oxid@@	174
Rit@@	174
swallow	174
lar@@	174
sch@@	174
mination	174
alk@@	174
enza	174
Zen@@	174
14.@@	174
Pure@@	173
PL@@	173
inadequate	173
ols	173
internal	173
tec@@	173
mouse	173
supplements	173
valence	173
351	173
Ho@@	173
oval	173
Both	173
24.@@	173
males	173
painful	173
uses	173
357	173
accompanied	173
optimal	173
Inno@@	173
clos@@	173
●	173
hoc	172
24@@	172
6.1	172
comp@@	171
weigh	171
all@@	171
highest	171
relief	171
Fos@@	171
Mag@@	171
burning	171
tia	171
Aller@@	171
deb@@	171
little	171
Recor@@	170
extr@@	170
2.2	170
d-@@	170
th	170
Recon@@	170
ram@@	170
Pel@@	170
ranged	170
nor@@	170
concerning	170
giving	170
Magn@@	169
izz@@	169
rue	169
TO@@	169
methods	169
1-0@@	169
muscular	169
formulations	169
air@@	169
rejection	169
spinal	169
FR	169
Nut@@	169
lips	168
50@@	168
ancer	168
mix	168
demonstrate	168
transcri@@	168
role	168
elin	168
β	168
Cases	168
visible	168
meas@@	168
vary	168
Rue	168
elo@@	168
remember	167
DR@@	167
countries	167
sides	167
fraction	167
cet@@	167
Gal@@	167
renewal	167
ousness	167
Br@@	167
examination	167
riv@@	167
rope	167
sac@@	167
Ber@@	167
128	167
planning	167
fewer	167
omas	167
7-@@	166
PT@@	166
r.	166
circulating	166
parts	166
dur@@	166
organisms	166
gy	166
Ph@@	166
SD	166
Adult	166
teur	166
synthesis	166
fab@@	166
29@@	166
bile	166
BAS@@	166
While	166
unusual	166
difficulties	166
wording	166
aliz@@	165
otherwise	165
official	165
vit@@	165
cholester@@	165
preventing	165
diagnostic	165
closure	165
unable	165
BV@@	165
SE	165
waste	164
recommendation	164
TP	164
experiencing	164
Malta	164
febr@@	164
met	164
AF	164
origin	164
limb	164
touch	164
izoph@@	164
shows	164
orders	164
pas@@	164
reasons	164
orph@@	164
nature	163
Zal@@	163
getting	163
indicating	163
membrane	163
des	163
218	163
nev@@	163
examined	163
LEX	163
wort	163
Care	163
Twin@@	163
mass	163
ches	162
ther@@	162
herbal	162
sleeping	162
vent	162
CNS	162
adding	162
alter	162
Vis@@	162
ura	162
6.2	162
GL@@	162
Bus@@	162
reveal	162
Om@@	162
variability	162
pale	162
minim@@	162
producing	162
discussion	161
33@@	161
psychiatric	161
referred	161
cere@@	161
sector	161
obtain	161
press	161
Ef@@	161
woman	161
Cro@@	161
allo@@	161
spontaneous	161
bial	161
anticipated	160
placed	160
AIDS	160
pati@@	160
evaluate	160
polar	160
Ni@@	160
CRE@@	160
genic	160
Rec@@	160
neurological	160
cope	159
Photo@@	159
Mer@@	159
26@@	159
2.3	159
sclerosis	159
ENCE	159
RI	159
ale	159
ont	159
High	159
antim@@	159
е@@	159
28.@@	159
epid@@	159
healing	159
tum@@	158
tis@@	158
neur@@	158
200@@	158
Possible	158
1.7	158
Side	158
mus@@	158
continuing	158
toler@@	158
confidence	158
1.6	158
inside	158
ke	158
111	157
Hold	157
360	157
Laboratories	157
indig@@	157
Janu@@	157
depres@@	157
modification	157
xed	157
900	157
Wy@@	157
independent	157
thigh	156
VER@@	156
Results	156
oses	156
budget	156
lowest	156
Pharmaceutical	156
4.0	156
pool@@	156
alis@@	156
MB	156
concerned	156
steps	156
access	156
Prevention	156
performing	156
zzy	156
K-@@	156
HA@@	156
Post-@@	155
persons	155
elevation	155
family	155
whe@@	155
mil@@	155
IX@@	155
ν@@	155
infant	155
corrected	155
complex	155
immunity	155
05@@	155
1.25	155
Quality	155
renia	155
	155
oz	155
aware	155
heat	155
ital	155
FA@@	155
neutr@@	155
Mutual	155
stimulation	155
elle	155
--------------------------------@@	155
binds	155
disposable	155
harmonisation	154
Ram@@	154
375	154
layer	154
oxygen	154
centre	154
Compet@@	154
ESS	154
104	154
ida@@	154
KR@@	154
bones	154
cos@@	154
MI	154
CIA	154
analyses	154
LA@@	154
conjunction	154
updates	154
new@@	154
labelling	154
uz@@	154
²	154
commits	154
ency	154
KS	153
esium	153
INFORMATION	153
ky	153
ma@@	153
on-@@	153
phos@@	153
131	153
Gem@@	153
thoughts	153
46@@	153
For@@	153
stra@@	153
TER	153
sen	152
pig@@	152
details	152
FIC	152
benign	152
W	152
ide@@	152
DER	152
yar@@	152
ready	152
one-@@	152
130	152
1.8	152
ashes	152
alkaline	152
quickly	152
conges@@	152
modi@@	152
can@@	151
SIN@@	151
Bin@@	151
minimise	151
War@@	151
Λ@@	151
flat@@	151
sc@@	151
po	151
sore	151
ofi	151
recurrent	151
trap@@	151
setting	151
ors	151
illin	151
225	151
01@@	151
repeat	151
Ny@@	151
equ@@	151
Í@@	150
documentation	150
modified	150
Luxemburg	150
Thal@@	150
contin@@	150
interfere	150
I.	150
ani	150
consists	150
amino	150
acquired	150
reduc@@	150
took	150
ky@@	150
Bri@@	150
database	150
wound	150
gas	150
N1	149
Prior	149
ol-@@	149
99@@	149
rhythm	149
hex@@	149
smoking	149
allowed	149
suicide	149
difficult	149
yt@@	149
ere@@	149
uncontrolled	149
atten@@	148
sequ@@	148
drug@@	148
ening	148
wide	148
chickens	148
core	148
roid	148
NA	148
photos@@	148
sk@@	148
26.@@	148
removal	148
reason	148
circulation	148
Furthermore	148
Depo@@	148
LES	148
loading	148
Tru@@	148
lins	148
ERS	147
146	147
hem@@	147
sunlight	147
Over@@	147
ι@@	147
NA@@	147
Cop@@	147
itation	147
drinking	147
Cet@@	147
ink	147
20-@@	147
pink	147
Lor@@	147
defects	147
percent	147
Mal@@	147
toms	147
bular	147
Eye	147
ici@@	146
mood	146
Syn@@	146
ety	146
stom@@	146
mor@@	146
fication	146
mes@@	146
anted	146
pap@@	146
hereditary	146
Avenue	146
fain@@	146
Oro@@	146
bid	145
materials	145
102	145
-2	145
Therapy	145
stiffness	145
scale	145
oil	145
2.7	145
MT@@	145
prostate	145
concurrent	145
331	145
intensity	145
mig@@	145
GA	145
fruit	145
selected	145
external	145
self-@@	145
unstable	145
cur@@	145
emergency	144
explained	144
candi@@	144
ICAL	144
literature	144
key	144
2.8	144
Ax@@	144
comparative	144
consequence	144
CAR@@	144
Disease	144
EA	144
situations	143
Shel@@	143
pregn@@	143
phar@@	143
thin	143
enlargement	143
Pri@@	143
broken	143
index	143
STA	143
holder	143
probably	143
acom@@	143
connec@@	143
ovan	143
movements	143
30.@@	143
4.7	143
ils	143
fast	142
linear	142
progress	142
cross-@@	142
alia	142
SS	142
9-@@	142
280	142
Por@@	142
With@@	142
interact	142
rub@@	142
cycl@@	142
Dyn@@	142
Contact	142
Fu@@	142
multic@@	142
ck@@	142
uated	141
entr@@	141
mp@@	141
inum	141
Post@@	141
Approximately	141
Activ@@	141
protocol	141
seven	141
Aer@@	141
variation	141
4.9	141
minimal	141
syrup	141
engraved	141
etre@@	141
remained	141
icro@@	141
nerv@@	141
paper	141
osa	141
ara	141
0.05	141
batch	141
affinity	141
tal@@	141
enta	141
Immun@@	140
SO@@	140
FOL@@	140
esk@@	140
CP	140
jec@@	140
prepare	140
Active	140
burn	140
episode	140
itself	140
esca	140
sufficiently	140
6.3	140
pit@@	140
Within	140
ise	140
operative	140
That	140
ker	140
22@@	139
length	139
De@@	139
GER	139
Meth@@	139
sex	139
22.@@	139
packaging	139
skin@@	139
359	139
beyond	139
CA	138
Micro@@	138
DO@@	138
Pre-@@	138
Prote@@	138
rial	138
353	138
informed	138
spread	137
Luc@@	137
glau@@	137
Jan@@	137
P.	137
contamination	137
OS@@	137
find	137
pivo@@	137
uth	137
harmonised	137
27.@@	137
Ble@@	137
completion	137
Heart	137
membranes	137
analogue	137
lation	137
Gard@@	137
Film@@	137
850	137
Ben@@	137
WHO	137
losing	137
spon@@	137
routine	137
ologically	137
DL@@	137
electroly@@	137
extensively	137
zo	137
technical	137
H-@@	137
St	137
extrem@@	137
influ@@	136
morph@@	136
21.@@	136
member	136
picture	136
H.	136
ron	136
eling	136
Days	136
etra@@	136
stag@@	136
dal	136
Paris	136
teli@@	136
opinions	136
3.6	136
mostly	136
val	136
vis@@	135
Dogs	135
Lu@@	135
congestion	135
propylene	135
add-on	135
161	135
relatively	135
scores	135
numbers	135
ί@@	135
Ls	135
requires	135
pseu@@	135
withdraw	135
106	135
logic	135
untreated	135
HA	135
block	135
combinations	135
ba@@	135
eth	135
eous	135
detec@@	135
mixture	135
ences	135
fli@@	135
464	135
219	134
usion	134
D3	134
Test	134
23.@@	134
ill	134
ester@@	134
tells	134
spoon	134
Vent@@	134
whereas	134
comprising	134
354	134
our@@	134
arbe@@	134
distributed	134
trimester	134
inary	134
tial	134
reli@@	134
ker@@	133
purified	133
zum@@	133
movement	133
mother	133
Weight	133
pion@@	133
PA@@	133
Abra@@	133
0.01	133
severely	133
Drug	133
scheduled	133
ire	133
sta@@	133
He	133
bev@@	132
pathway	132
but@@	132
6.5	132
Experience	132
κ@@	132
Str	132
ria	132
ry	132
ach	132
amps	132
TY@@	132
CL@@	132
Gr@@	132
36@@	132
assistance	132
tra-@@	132
strengths	132
Č	132
pel@@	132
Rip@@	132
consequences	132
alp@@	132
angle	131
develops	131
ylan	131
cand@@	131
isations	131
EO	131
authorisations	131
info	131
abant	131
members	131
doctors	131
ettes	131
Col@@	131
Detailed	131
firmly	131
tine	131
PRODUC@@	131
LU@@	131
step	131
genital	130
Ara@@	130
mad@@	130
Cerv@@	130
142	130
len@@	130
decreasing	130
financial	130
CG	130
aller@@	130
fle@@	130
child-@@	130
thoroughly	130
observation	130
residue	130
entin	130
courses	130
cessation	130
training	130
373	130
Wien	130
tel	129
Gener@@	129
1200	129
Reference	129
Make	129
National	129
3.1	129
3A	129
rad@@	129
700	129
Ari@@	129
sid@@	129
discharge	129
Vec@@	129
la	129
converted	129
reviewed	129
aceu@@	129
bar	129
ym@@	129
visually	129
aqu@@	129
multi-@@	129
veg@@	129
tolerance	128
flux	128
idation	128
Roche	128
Madrid	128
ATED	128
144	128
lu	128
responding	128
address	128
hn	128
testosterone	128
Sch@@	128
despite	128
CEP@@	128
two-@@	128
collo@@	128
becomes	128
imaging	128
height	128
discussed	128
late	127
para	127
depend	127
Work	127
subsequently	127
2.	127
13.@@	127
facial	127
chy	127
O-@@	127
tram@@	127
COMP@@	127
Leu@@	127
uter@@	127
ental	127
Mann@@	127
tone	127
ves@@	127
ophy@@	127
lasting	127
stro@@	127
Norway	127
trophy	127
van@@	127
Mim@@	126
applies	126
CL	126
231	126
Effici@@	126
apart	126
OP	126
memory	126
etic	126
proper	126
leg	126
recur@@	126
seizure	126
ras@@	126
requ@@	126
gue	126
contribution	126
bid@@	126
†	126
released	126
depressed	126
MRI	126
L.	126
essentially	126
arist	126
alising	126
spar@@	126
mer@@	126
controls	126
maximal	126
enhanced	125
investigation	125
marketed	125
derivatives	125
Sal@@	125
finding	125
undertaken	125
ators	125
stat@@	125
126	125
NO@@	125
Cs	125
44@@	125
compounds	125
CR	125
introduced	125
1.9	125
vaginal	125
additive	125
limits	125
stic	125
deterioration	125
Therap@@	125
175	125
adin	125
151	125
tek	125
mea	125
и@@	124
AIR	124
PI	124
5.5	124
Additionally	124
ual	124
favourable	124
proportional	124
mation	124
PT	124
HU@@	124
struction	124
adol@@	124
hospit@@	124
arab@@	124
guard	124
returned	124
Dar@@	124
Nob@@	124
spare	124
mixing	124
168	124
Ke@@	124
occasionally	124
04@@	123
los	123
miss	123
ographic	123
Method	123
stitu@@	123
DIT@@	123
hearing	123
rence	123
inactive	123
eral	123
formations	123
ory	123
perform	123
Muscle	123
oz@@	123
icals	123
capacity	123
cou@@	123
yte	123
erv@@	123
Equ@@	123
fate	122
Wil@@	122
interruption	122
IDE	122
protected	122
ani@@	122
abe@@	122
Laboratory	122
aspir@@	122
dark	122
bl@@	122
USA	122
significance	122
cervical	122
216	122
first-@@	122
108	122
labelled	122
Thus	122
concern	122
260	122
Ku@@	122
ALS	121
RY@@	121
flat	121
mutation	121
Alo@@	121
clic	121
ā	121
novel@@	121
takes	121
ga	121
6.4	121
ET	121
filtration	121
Hungary	121
submit	121
Mil@@	121
symptom	121
rest	121
CM@@	121
Monitoring	121
issue	121
ate-@@	121
sus	121
channel	121
Gly@@	120
verti@@	120
lot@@	120
dispen@@	120
stages	120
ull	120
ans	120
Cre@@	120
attacks	120
aco@@	120
VIS@@	120
directed	120
Ver@@	120
motor	120
towards	120
industry	120
tent	120
Director	120
Fir@@	120
pec@@	120
AD	120
3.2	119
looking	119
bis@@	119
boosted	119
ese	119
switched	119
MES	119
sev@@	119
dem@@	119
sample	119
remission	119
229	119
tab@@	119
land@@	119
tho@@	119
Avoid	119
Three	119
responsibility	119
undergo	119
τ@@	119
pumps	119
checked	119
Organ	119
Recognition	119
UC@@	119
night	119
situation	119
oration	119
Lum@@	118
ays	118
Frequency	118
alu@@	118
N.	118
Star@@	118
considering	118
qui@@	118
acti@@	118
tight@@	118
osing	118
Street	118
har@@	118
stick	118
opportun@@	118
side-@@	118
fun@@	118
101	118
Development	118
am-@@	118
blocks	118
ette	118
ful	118
under@@	118
allows	118
equipment	118
PAD@@	118
157	118
183	118
6.0	118
complicated	118
neum@@	118
Ambi@@	117
applicable	117
OL	117
locally	117
5000	117
reas@@	117
got	117
sight	117
future	117
going	117
das@@	117
CC@@	117
ny	117
compromised	117
far	117
forgotten	117
zinc	117
Q	117
Star	117
135	117
31.@@	117
safely	117
ta	117
preserv@@	117
206	117
ê@@	117
v.	117
Global	117
Sonata	116
ue	116
MAN@@	116
UF@@	116
psych@@	116
biop@@	116
arly	116
IO@@	116
never	116
tane	116
neo@@	116
w@@	116
Qui@@	116
regardless	116
Pla@@	116
COM@@	116
mum@@	116
Repl@@	116
Tablet@@	116
infectious	116
decom@@	116
moderately	116
retinal	116
igen	116
ality	116
manufacturer	116
strasse	116
expressed	116
76@@	115
O.	115
tons	115
FER@@	115
inspections	115
frequencies	115
HR	115
Chr@@	115
parent	115
3.4	115
ix	115
Mac@@	115
ecz@@	115
Py@@	115
Blo@@	115
peri@@	115
extended	114
115	114
Mir@@	114
stances	114
UR	114
con	114
5.6	114
Dublin	114
spray	114
pull	114
SI@@	114
tion@@	114
MAN	114
47@@	114
tasks	114
1.	114
manner	114
plate	114
Tek@@	114
Opinion	114
VE	114
AK	114
atri@@	114
photo@@	114
eda	114
77@@	114
mechanisms	114
kom@@	113
ass@@	113
produces	113
ucle@@	113
transport	113
interrupted	113
2.9	113
detection	113
174	113
stimulate	113
ding	113
Company	113
acks	113
3,@@	113
2a	113
Business	113
uration	113
SOL@@	113
........@@	113
grey	113
implant	113
·	113
mes	113
MENT	112
prone	112
advisable	112
id-@@	112
acu@@	112
103	112
periodically	112
ster	112
discard	112
Nag@@	112
prevents	112
e-	112
becoming	112
text	112
prolifer@@	112
elling	112
erectile	112
foreign	112
Joint	112
Cer@@	112
ELL@@	112
MON@@	112
BR@@	111
Anti-@@	111
kus	111
Candi@@	111
48@@	111
intestine	111
radioactive	111
det@@	111
nutrition	111
leads	111
Cub@@	111
.com	111
18-@@	111
outside	111
tari@@	111
ended	111
short-term	111
introduction	111
ography	111
88@@	111
desired	111
tomy	111
rod@@	111
aine	111
hold	111
chamber	111
aut@@	111
PD	111
ral@@	111
submission	111
deple@@	111
cri@@	110
Red	110
delivered	110
fits	110
Non@@	110
techniques	110
ram	110
230	110
49@@	110
IAL	110
SAR@@	110
oper@@	110
colo@@	110
Pul@@	110
guideline	110
typically	110
centrally	110
electronic	110
electro@@	110
atal	110
tica	110
Tak@@	110
rhin@@	109
gens	109
stabil@@	109
-related	109
uniformly	109
disk	109
drawn	109
indicates	109
bin@@	109
Som@@	109
switching	109
vig@@	109
Jal@@	109
ai	109
punc@@	109
lap@@	109
series	109
tools	109
Hol@@	109
mineral	109
inc@@	109
TEL@@	109
gh@@	109
region	109
PAS@@	109
TF@@	109
functional	109
Primary	109
mi	108
f-@@	108
sun@@	108
premature	108
5.4	108
dor@@	108
cancers	108
3000	108
vinyl	108
Macro@@	108
8.5	108
acne	108
Zar@@	108
mir@@	108
Prep@@	108
categories	108
relieve	108
Rel@@	108
-S@@	108
ton@@	108
56@@	108
1-2	108
Food	108
152	108
coating	108
thor@@	108
Elev@@	108
glomer@@	108
GS@@	108
Sav@@	108
116	108
lin	107
Suc@@	107
hormones	107
ham@@	107
Reduction	107
insert	107
ford	107
juven@@	107
finger	107
screw	107
Dic@@	107
55@@	107
replaced	107
BE	107
kilogram	107
arma	107
Research	107
Sh@@	107
potenti@@	107
201	107
ens-@@	107
tran@@	107
OV@@	107
pose	107
8.8	107
avenue	107
nar@@	107
enti@@	107
film@@	107
03@@	106
documented	106
implemented	106
TIVE	106
Sa@@	106
agr@@	106
passing	106
run@@	106
visit	106
arm@@	106
babies	106
3.9	106
Poly@@	106
ba	106
Phys@@	106
vessel	106
temporarily	106
renewed	106
stric@@	106
UN	106
rol@@	106
Such	106
Changes	106
ha-@@	106
Pot@@	106
negligible	106
Alzheimer	106
Among	106
DA@@	105
suggested	105
1a	105
starts	105
chromos@@	105
lasts	105
ch	105
5.7	105
Chapter	105
Gast@@	105
der	105
pathways	105
Long-term	105
089	105
80@@	105
pe	105
happens	105
Bruxelles	105
partners	105
med@@	105
½	105
annual	105
shortly	105
recommend	105
lining	105
GMP	105
ame	105
hag@@	105
her	105
Decision	105
inspected	105
mc@@	105
Executive	105
uti@@	105
Ten@@	105
214	105
vul@@	104
Arz@@	104
J	104
ome	104
packed	104
intoler@@	104
.0@@	104
ist@@	104
6.7	104
BC	104
Ul@@	104
Single	104
tired	104
29.@@	104
mill@@	104
conclusions	104
decline	104
curve	104
Barcelona	104
dissolve	104
HB@@	104
aspects	104
lude	104
the@@	104
Yellow	103
omes	103
205	103
hia	103
transformation	103
window	103
triple	103
Simul@@	103
provision	103
Mel@@	103
rot@@	103
EK	103
ition	103
individually	103
den	103
iti@@	103
aren@@	103
-C@@	103
tre	103
Ru@@	103
periodic	103
tenderness	103
managed	103
contribute	103
straße	103
ender	103
proven	103
break	103
Investig@@	103
consumption	103
Then	103
Effect	103
opted	103
Factor	103
raine	102
permanent	102
shell	102
MBER	102
50-@@	102
dreams	102
ºC	102
Fine	102
279	102
CH	102
vid@@	102
gives	102
sh@@	102
standing	102
restricted	102
linked	102
203	102
fr@@	102
143	102
ational	102
Scan	102
compl@@	102
ham	102
stri@@	102
VR	102
enter	102
CAN@@	102
goes	102
45@@	102
Enter@@	102
Signs	102
shaking	102
wal@@	102
118	102
portion	102
ection	102
infect	101
MAC@@	101
shake	101
weighs	101
PCI	101
thought	101
ping	101
.07.@@	101
Frequ@@	101
providing	101
cat@@	101
er-@@	101
Prof@@	101
BS@@	101
CHAR@@	101
along	101
Body	101
presentation	101
Office	101
134	101
pandemic	101
glands	101
long-@@	101
FS	100
lingual	100
suggesting	100
cum@@	100
barrier	100
Econ@@	100
Po@@	100
wor@@	100
cho@@	100
oth@@	100
eli@@	100
initially	100
Talk	100
supervised	100
effectively	100
nine	100
ish	100
ome@@	100
02@@	100
showing	100
CAP@@	100
improvements	100
PH	100
19@@	100
Similar	100
89@@	100
variations	100
raft	100
53@@	100
offspring	100
276	100
scher@@	99
wait	99
Bor@@	99
Low	99
gan@@	99
manual	99
TUR@@	99
planned	99
appeared	99
fas@@	99
recipients	99
38@@	99
resor@@	99
idity	99
objective	99
relle	99
quanti@@	99
appropriately	99
to-@@	99
granting	99
Procedure	99
ä@@	99
separately	99
x-@@	99
basic	99
easily	99
ted@@	99
cos	99
persist	99
270	99
ss	99
compatibility	99
corne@@	98
rose	98
rava	98
ty	98
Sor@@	98
birds	98
sera	98
cumulative	98
Scientific	98
Page	98
Consequently	98
etc	98
wash	98
Ask	98
constant	98
elt@@	98
nursing	98
Care@@	98
media	98
ut	98
hom@@	98
356	98
ε@@	98
bottom	98
350	98
eat	98
bed@@	98
Republic	98
ylene	98
................@@	98
entre	98
Assessment	98
ADV@@	98
filter	98
Krka	97
reliable	97
Son@@	97
suggestive	97
Phen@@	97
TI	97
optic	97
larger	97
tical	97
typ@@	97
pou@@	97
zio	97
377	97
eggs	97
415	97
ril@@	97
converting	97
headaches	97
Events	97
removing	97
Outer	97
BA@@	97
eptic@@	97
3-4	97
end-@@	97
formal	97
258	97
pending	96
educational	96
formed	96
encies	96
212	96
GAR@@	96
cup	96
Appropri@@	96
ce-@@	96
oster	96
tens@@	96
hib@@	96
mu@@	96
rog@@	96
exceeding	96
ic-@@	96
cher	96
Tro@@	96
sar@@	96
Maintenance	96
fet@@	96
sterone	96
implantation	96
j	96
dge	96
supplem@@	95
Ib@@	95
mentation	95
ethanol	95
approval	95
bon@@	95
15-@@	95
cross	95
KA	95
functions	95
gut	95
7.2	95
breakdown	95
plan@@	95
People	95
107	95
gil@@	95
24-@@	95
ultrasound	95
phy@@	95
icum	95
SAN@@	95
welling	95
supported	95
sugar@@	95
extra	95
stimulates	95
agen@@	95
Iron	95
Clear	95
enfu@@	95
web	95
More	95
classified	95
Pur@@	95
Zy@@	95
it-@@	95
Multi@@	94
234	94
Str@@	94
100@@	94
approach	94
eni@@	94
conclusion	94
REN@@	94
chance	94
want	94
....@@	94
2009	94
BI@@	94
containers	94
Lis@@	94
3.7	94
Jans@@	94
designated	94
133	94
begin	94
ICA	94
ful@@	94
medium	94
forge	94
chro@@	94
leakage	94
bur@@	94
ST	94
Prepar@@	94
Gau@@	94
DING	94
cleared	94
lymph	94
warm	94
tit@@	94
inability	94
TRU@@	93
cad@@	93
UE	93
upright	93
workload	93
PO	93
208	93
erc@@	93
HY@@	93
brown	93
green	93
practices	93
eding	93
Da@@	93
Psychiat@@	93
b.	93
intra-@@	93
substantial	93
ogram	93
classes	93
simultaneously	93
Dry	93
Wh@@	93
lob@@	93
105	93
Priv@@	93
DIS@@	93
460	93
intervention	93
114	93
§	93
tes@@	93
productive	92
deaths	92
red@@	92
zin	92
207	92
cure	92
Change	92
thereby	92
University	92
stops	92
cobal@@	92
resources	92
ce@@	92
race	92
isers	92
expenditure	92
near	92
ma-@@	92
196	92
qualified	92
'@@	92
ONE	92
pattern	92
erection	92
................................@@	92
PP@@	92
presentations	92
ACT	92
making	92
costs	92
look	92
phas@@	91
KG	91
clu@@	91
bic@@	91
ation@@	91
investig@@	91
paralysis	91
ney	91
fan	91
corresponds	91
facilities	91
ido	91
signal	91
Brussels	91
measurement	91
agon	91
growing	91
sign	91
holding	91
Time	91
antine	91
pathogens	91
ULT@@	91
ugen	91
trab@@	91
freeze	91
constitute	90
sale	90
etary	90
premi@@	90
smaller	90
inity	90
ECT	90
tend@@	90
Diag@@	90
cellular	90
covers	90
NV	90
add	90
cas@@	90
Liv@@	90
Final	90
ford@@	90
GRO@@	90
entry	90
orthop@@	90
developmental	90
58@@	90
nitrogen	90
pop@@	90
def@@	89
ats	89
inner	89
Syste@@	89
flam@@	89
fed	89
ammon@@	89
culture	89
Edi@@	89
119	89
imprint	89
intan@@	89
replace	89
ston	89
ho	89
Close	89
OI	89
net	89
reflect	89
Concentr@@	89
Bs	89
Preparation	89
compatible	89
2-3	89
Sur@@	89
agre@@	89
HP@@	89
validated	89
programmes	89
dist@@	89
113	89
195	89
bags	89
outcomes	89
obstruc@@	89
SW@@	88
mature	88
nearest	88
BY	88
variable	88
refriger@@	88
Poland	88
Latvia	88
overweight	88
sts	88
Ant@@	88
successful	88
3.8	88
amer	88
diameter	88
regulation	88
amin	88
anc@@	88
substantially	88
320	88
benz@@	88
32@@	88
limbs	88
accordingly	88
poli@@	88
dispose	88
tolerate	88
limiting	88
LV@@	88
verb	88
compliance	88
ebr@@	88
involvement	88
toric@@	88
lines	88
perc@@	88
ion@@	88
120@@	88
earlier	87
sur@@	87
Evol@@	87
eradication	87
environment	87
9.4	87
shel@@	87
pointing	87
upwards	87
beneficial	87
mul@@	87
ag	87
thinking	87
Population	87
65@@	87
Industrial	87
25-@@	87
ation-@@	87
aries	87
consisting	87
Initial	87
Fati@@	87
ISTICS	87
Canary	87
arf	87
legislation	87
Prop@@	87
ban	87
itary	87
breath@@	87
stol@@	86
GT@@	86
unexpected	86
strongly	86
Exceptional	86
design	86
60@@	86
disability	86
recorded	86
expert	86
oo@@	86
Tal@@	86
213	86
thirst	86
4000	86
states	86
behavioural	86
ick@@	86
breakthrough	86
exact	86
319	86
ulo@@	86
care@@	86
pronounced	86
О@@	86
break@@	86
Depression	86
carbo@@	86
μ@@	86
refer@@	86
plex	86
itra	86
6000	86
ain@@	86
correctly	86
1,200	86
digestive	86
cell@@	86
ale@@	86
meaningful	86
Cell	86
412	86
continues	86
Contains	86
dated	86
hydra@@	85
House	85
selection	85
opia	85
5.8	85
Specific	85
Trans@@	85
Kid@@	85
bus@@	85
depot	85
ž	85
blockade	85
Man@@	85
Increase	85
with@@	85
57@@	85
Its	85
188	85
conduct	85
mos@@	85
West@@	85
.06.@@	85
ti	85
frozen	85
.02.@@	85
uls@@	85
sec	85
Vid@@	85
aza	85
evident	85
attempt	85
Chairman	85
rid	85
defect	85
221	85
instead	85
switch	84
Medical	84
manifestations	84
Chinese	84
rim	84
inserted	84
ó@@	84
alt	84
Clin@@	84
CF	84
Gli@@	84
tok@@	84
residues	84
bind	84
MER@@	84
Radi@@	84
Hor@@	84
39@@	84
La	84
ovascular	84
assi@@	84
fight	84
falling	84
Guidance	84
light-@@	84
epidemi@@	84
background	84
Ven@@	84
establish	83
letter	83
Phar@@	83
Dil@@	83
pharm@@	83
Where	83
8.0	83
.01.@@	83
structure	83
gregation	83
Lab@@	83
colon	83
Des@@	83
162	83
SPEC@@	83
disappear	83
fast-@@	83
tendency	83
ded	83
naturally	83
ono	83
405	83
coordination	83
fin	83
activ@@	83
eating	83
atur@@	83
meet	83
appropriation	83
variety	83
Produ@@	83
lov@@	83
med	83
website	83
gy@@	83
stine	83
derivative	83
cle@@	83
gloves	83
Fort	83
experiences	82
strategy	82
nom@@	82
milli@@	82
gu@@	82
REL@@	82
RAL	82
Cancer	82
Optim@@	82
Advocate	82
aflo@@	82
shorter	82
aim	82
MM	82
superior	82
EU@@	82
dental	82
don	82
00-@@	82
All@@	82
Orion	82
aff@@	82
lowing	82
dietary	82
245	82
rapporteur	82
faster	82
odynam@@	82
estimate	82
Fast@@	82
yethylene	82
aly@@	82
influenced	82
scan	82
Turn	81
alterations	81
an-@@	81
attributed	81
inclusion	81
awa	81
chain	81
294	81
appointed	81
1500	81
Duration	81
responsive	81
quantity	81
april	81
react	81
flavour	81
5-0@@	81
suggests	81
Be	81
justify	81
sing	81
Cauc@@	81
senal	81
litres	81
fatty	81
alert	81
Inc	81
................................................................@@	81
his	81
statistical	81
then@@	81
apr@@	81
σ@@	81
changing	81
increments	81
Czech	81
PET	81
Points	80
STAT@@	80
233	80
FR@@	80
69@@	80
Hell@@	80
CK	80
narrow	80
iod@@	80
larg@@	80
aggrav@@	80
molecular	80
a.@@	80
321	80
resolution	80
Chemical	80
ASA	80
129	80
50.@@	80
identical	80
DA	80
6.8	80
Refl@@	80
Fi@@	80
poisoning	80
Standard	80
RU@@	80
ateg@@	80
fat@@	80
Parliament	80
grap@@	80
ei@@	80
LAS@@	80
8.2	80
8.3	80
ered	79
is-@@	79
veins	79
clockwise	79
121	79
és	79
147	79
speech	79
Cli@@	79
identify	79
sperm	79
34@@	79
Ti@@	79
Push	79
vic@@	79
micro-@@	79
update	79
Manufacturing	79
transparency	79
arbitration	79
Milano	79
walking	79
useful	79
Significant	79
markers	79
arteries	79
Т@@	79
Los@@	79
asked	79
vari@@	79
469	79
ts@@	79
vin@@	79
someone	79
neither	79
Strasse	78
Don	78
requirement	78
network	78
occasions	78
ARD	78
123	78
rowing	78
DO	78
rt@@	78
RF@@	78
220	78
tubes	78
boxes	78
improving	78
R-@@	78
Wash	78
Ljubljana	78
7.9	78
West	78
model	78
readily	78
Less	78
dossier	78
155	78
arisation	78
specialised	78
processes	78
HB	78
ms@@	78
designation	78
Oc@@	78
mem@@	78
assium	78
⋅	78
fluids	78
importance	78
suddenly	78
lat@@	78
bb	78
focal	78
specialist	78
ushes	78
int@@	78
exceeded	78
applic@@	78
tan	78
degrees	78
carbonate	78
dial@@	78
achieving	78
cim@@	78
Place	77
scored	77
pains	77
Oxy@@	77
distress	77
jects	77
tab	77
stem	77
Pand@@	77
EF	77
202	77
dren	77
cel	77
osi@@	77
accepted	77
aly	77
trend	77
joined	77
.08.@@	77
Figure	77
M.	77
cord	77
lost	77
measurements	77
750@@	77
generic	77
interested	77
lib@@	77
ization	77
inspection	77
synthetic	77
recognised	77
detect	77
collected	77
foli@@	77
Chest	77
ferry	77
Circus	77
predic@@	77
addressed	77
clum@@	77
SN@@	77
organ@@	77
pers	77
FIN@@	77
real	77
84@@	77
compres@@	77
Rapporteur	77
465	77
oter@@	76
actic	76
Gel@@	76
predicted	76
rox	76
tightly	76
devices	76
establishment	76
nerves	76
Incre@@	76
revised	76
Sit@@	76
136	76
PR	76
rather	76
grounds	76
RH	76
residual	76
Depending	76
icians	76
agn@@	76
partner	76
12,5	76
s-@@	76
Cr@@	76
spots	76
tility	76
stream	76
66@@	76
ption	76
modest	76
31@@	76
40-@@	76
eas@@	76
MY@@	76
sought	76
weights	76
	76
explain	75
Ob@@	75
Fle@@	75
Programme	75
expression	75
cards	75
PON@@	75
losis	75
ru@@	75
5.9	75
trouble	75
iser	75
ranges	75
spl@@	75
maintaining	75
manufacturing	75
ase-@@	75
adrenaline	75
gradual	75
authority	75
Gn@@	75
Official	75
profiles	75
43@@	75
LC	75
usal	75
fact	75
ause	75
Released	75
policy	75
agreement	75
Ε	75
vic	75
upset	75
AP	75
latest	75
moisture	75
normality	75
resolve	75
square	75
fees	75
strip	75
blood-@@	75
mag@@	75
poin@@	75
--	75
eta	75
erg@@	75
75@@	75
Eis@@	75
54@@	75
Transi@@	74
bri@@	74
happen	74
department	74
ust@@	74
Technical	74
isti@@	74
RP	74
exists	74
reaching	74
cros@@	74
lys@@	74
9.6	74
sel	74
stell@@	74
WIN@@	74
OG@@	74
escalation	74
Cil@@	74
2-	74
ns	74
interest	74
trained	74
str	74
enhance	74
atec	74
assessments	74
Over	74
rig@@	74
PAR@@	74
FIR@@	74
7.8	74
wear	74
diver@@	74
instituted	74
137	74
space	74
Kap@@	74
warranted	74
lives	74
acknowled@@	74
ged@@	74
78@@	74
369	74
deliver	74
431	73
G1	73
A.@@	73
sali@@	73
agree	73
Regulatory	73
graf	73
died	73
4,@@	73
Upper	73
emi@@	73
compartment	73
He@@	73
bodies	73
eds	73
inappropriate	73
Way	73
301	73
ú@@	73
.09.@@	73
stress	73
thel@@	73
pr	73
Euro@@	73
INST@@	73
Reconc@@	73
Top@@	73
motion	73
idence	73
Wort	73
Fas@@	73
interim	73
walk	73
7.4	73
We@@	73
caps	73
ω@@	73
substitution	73
differ	73
fourth	73
forming	73
Virus	73
und	73
enhanc@@	73
veterinarian	73
weakened	72
king	72
composite	72
TH	72
→	72
lenses	72
Iceland	72
EMI	72
RELEASE	72
chy@@	72
5,@@	72
124	72
ida	72
confirm	72
Repe@@	72
compensated	72
thumb	72
push@@	72
Budapest	72
scope	72
Gender	72
Sciences	72
note	72
END@@	72
summar@@	72
Shake	72
emergence	72
program	72
IES	72
prolong	72
convention	72
Lop@@	72
passes	72
del	72
replication	72
7.0	72
Should	72
Slovenia	72
loads	72
nea	72
ways	72
choice	71
loose	71
215	71
context	71
respective	71
guide	71
Visual	71
plat@@	71
BAT@@	71
xi	71
gauge	71
285	71
summarised	71
580	71
-up	71
bia	71
List	71
mer	71
ark	71
100,000	71
ises	71
asm	71
ruled	71
υ@@	71
crushed	71
split	71
COMM@@	71
shaken	71
bus	71
ears	71
passed	71
ral	71
tically	71
Strength	71
CC	71
www.@@	71
tray	71
mania	71
Thi@@	71
proposal	70
upside	70
Protein	70
entation	70
og	70
♦	70
166	70
squ@@	70
extreme	70
ir-@@	70
nail	70
caus@@	70
XX	70
tess	70
nau@@	70
Major	70
personnel	70
sitting	70
geometric	70
Vig@@	70
PP	70
dion	70
promptly	70
deg@@	70
spontaneously	70
ou	70
revision	70
ducing	70
ZA	70
nas@@	70
try	70
un	70
calves	70
Kab@@	70
rica	70
soap	70
irreversible	70
r-@@	69
intact	69
υ	69
LA	69
Cit@@	69
sympath@@	69
move	69
TRO@@	69
0.00	69
sponge	69
rup@@	69
olig@@	69
č	69
regards	69
rella	69
ventilation	69
Cyprus	69
energy	69
inating	69
Mechanism	69
Stom@@	69
och@@	69
pins	69
ings	69
three-@@	69
research	69
Target	69
aer@@	69
blocked	69
63@@	69
aton@@	69
Annual	69
sickness	69
requests	69
ear@@	69
itate	69
modifications	69
deficient	69
aesthetic	69
........	69
wounds	69
Card@@	69
dea	69
ority	69
Ster@@	69
Which	69
sv@@	69
Organ@@	69
ann@@	69
foot	69
122	69
DE@@	69
UTE	69
Inspec@@	69
hes@@	69
ing-@@	68
rol	68
originally	68
Release	68
kin	68
fingers	68
153	68
HT@@	68
covered	68
freezer	68
rabbit	68
535	68
pain@@	68
analysed	68
ces	68
at-@@	68
11-@@	68
PDT	68
acea	68
8.1	68
theter	68
1250	68
R.	68
atch	68
eca	68
handled	68
7.7	68
TS@@	68
59@@	68
straat	68
segment	68
head@@	68
spir@@	68
therm@@	68
ø@@	68
ite@@	68
rid@@	68
lake	67
sules	67
our	67
Fond@@	67
ONLY	67
operational	67
projects	67
HAR@@	67
chemistry	67
First	67
worked	67
227	67
import	67
ours	67
8.6	67
applicants	67
yellow@@	67
cardboard	67
weighed	67
else	67
focus	67
committees	67
201@@	67
intensive	67
org	67
lesser	67
Generally	67
S.A.	67
Need@@	67
naive	67
8.7	67
vation	67
echo@@	67
well-@@	67
sha@@	67
orm	67
Der@@	67
dried	67
objectives	67
supporting	67
plaque	66
Vor@@	66
9.7	66
Conference	66
initiatives	66
Concer@@	66
Pal@@	66
missing	66
facilitate	66
UK@@	66
Rhe@@	66
Wi@@	66
indirect	66
NY@@	66
flush	66
SL@@	66
mamm@@	66
exception	66
10000	66
14-@@	66
vier	66
copper	66
finished	66
crisis	66
vers@@	66
challenge	66
Gilead	66
nearly	66
timing	66
ew	66
spectrum	66
chosen	66
cem@@	66
Internet	66
project	66
uncomplicated	66
arrest	66
Regarding	66
Immuno@@	66
TP@@	66
az	66
CAN	66
Xen@@	66
fes@@	65
us-@@	65
antagon@@	65
300@@	65
jaw	65
Ox@@	65
progres@@	65
9.3	65
ank@@	65
piece	65
typical	65
disposition	65
logo	65
preferred	65
XX@@	65
327	65
none	65
Sum@@	65
implement	65
87@@	65
According	65
211	65
13-@@	65
ér@@	65
communication	65
8.4	65
alian	65
Mi@@	65
Analysis	65
infl@@	65
representatives	65
ential	65
Tyrol	65
Lip@@	65
Step	65
itated	65
success	65
seasonal	65
21-@@	65
97@@	65
EB@@	65
-3@@	65
asleep	65
cent	65
SH@@	65
proof	65
21@@	65
176	65
remainder	65
MT	65
o.@@	65
457	65
benef@@	65
7.1	65
sheim	65
Lo@@	65
ELISA	65
2B@@	65
exchange	65
tooth	64
Put	64
consulted	64
intend	64
p.	64
SIA	64
applying	64
institutions	64
accident	64
determination	64
hid@@	64
prevalence	64
ely	64
Secretariat	64
impl@@	64
abrup@@	64
assessing	64
planted	64
cat	64
vehicle	64
biotechnology	64
cognitive	64
Alternatively	64
CAL@@	64
PL	64
spi@@	64
resumed	64
Peak	64
Insert	64
ucc@@	64
CLUS@@	64
.05.@@	64
principal	64
concentr@@	64
Praha	64
explanations	64
historical	64
asc	64
3x@@	64
covering	64
accounting	64
Sim@@	64
ers@@	64
Secondary	64
GES	64
cut	64
к@@	63
YS	63
gene@@	63
170	63
purpose	63
delivers	63
vital	63
Romania	63
ned	63
Midd@@	63
tech@@	63
risk-@@	63
artic@@	63
indi@@	63
167	63
Cri@@	63
omo@@	63
aggression	63
consistency	63
yeast	63
wish	63
Growth	63
written	63
emotional	63
infiltr@@	63
PAT@@	63
elements	63
knee	63
-4@@	63
epo@@	63
las@@	63
363	63
afterwards	63
Multiple	63
407	63
gave	63
410	63
record	63
ug@@	63
Complete	63
60-@@	63
Under	63
9.0	63
Fol@@	63
Black	63
...	63
heavy	63
SD@@	63
b.@@	63
astic	63
polymer@@	63
Pres@@	63
366	63
service	63
falls	63
Mr	63
192	63
Follow	63
ulin	63
killed	62
session	62
1,500	62
melan@@	62
Vitamin	62
.03.@@	62
Ι@@	62
gover@@	62
RD	62
Haz@@	62
justifies	62
strict	62
zan@@	62
Ade@@	62
considers	62
presenting	62
urgent	62
67@@	62
location	62
aches	62
idol	62
Sant@@	62
investigate	62
Daily	62
MD@@	62
sem@@	62
output	62
BP	62
2.0@@	62
--------@@	62
vol@@	62
Operations	62
ds	62
parallel	62
ILE	62
Upon	62
GM@@	62
222	62
otic	62
things	62
stones	62
markedly	62
atan	62
stand	62
Vil@@	61
omer	61
cio	61
faint	61
Foc@@	61
UB@@	61
turning	61
288	61
.....	61
el-@@	61
6,@@	61
SK@@	61
Code	61
Click	61
406	61
maize	61
310	61
#	61
assigned	61
RON@@	61
preparing	61
travel	61
accelerated	61
fee	61
182	61
global	61
visits	61
ich@@	61
Sing@@	61
Bov@@	61
variant	61
fung@@	61
Nev@@	61
Survi@@	61
magnitude	61
ska	61
sub-@@	61
CD	61
7.6	61
sen-@@	61
190	61
exceptional	61
attained	61
age-@@	61
varying	61
EE	61
mol@@	61
317	60
yo@@	60
extrac@@	60
Scale	60
398	60
coat	60
wine	60
ri	60
donors	60
arely	60
unclear	60
pup@@	60
intermediate	60
individu@@	60
draft	60
vis	60
39.@@	60
represent	60
unwanted	60
collagen	60
tum	60
terior	60
precip@@	60
177	60
salts	60
permanently	60
Loc@@	60
Financial	60
els	60
9.9	60
8.9	60
connection	60
bers	60
ny@@	60
Four	60
IB	60
Acc@@	60
board	60
Buc@@	60
ART	60
Pa@@	60
ero@@	60
ley	60
intermedi@@	60
cast@@	60
alm	60
Document	60
amber	60
Gra@@	60
GT	60
TRE@@	59
delta	59
mask	59
rotated	59
Ab	59
orientation	59
night@@	59
Α	59
routes	59
companies	59
Press	59
embos@@	59
Form	59
chaired	59
lasted	59
Similarly	59
EEA	59
Back	59
selector	59
party	59
Clear@@	59
leave	59
∞	59
MAL@@	59
nodes	59
425	59
though	59
Bron@@	59
156	59
Given	59
PRES@@	59
D.	59
Nel@@	59
Cros@@	59
ters	59
ming	59
investigations	59
Nevertheless	59
Drugs	59
rin	59
Corporation	59
Local	59
diminished	59
procedural	59
ility	59
molecule	59
surrounding	59
sensory	59
sensations	59
ath	59
valent	59
Rest@@	59
dual	59
hibi@@	59
455	59
Vas@@	59
ks	59
EP	58
illnesses	58
Prac@@	58
ses@@	58
Kent	58
Cat@@	58
ή@@	58
Volume	58
Age	58
bag@@	58
lo-@@	58
evalu@@	58
simultaneous	58
Sto@@	58
sne@@	58
Duo	58
ophthalm@@	58
bal	58
smooth	58
Packaging	58
aid	58
ber	58
280@@	58
Sac@@	58
tables	58
About	58
wax	58
finalised	58
modify	58
VII	58
OG	58
Inc@@	58
overload	58
exhibits	58
estimates	58
automatic	58
AE	58
Bl@@	58
iliary	58
instruction	58
337	58
U.	58
fy	58
OTHER	58
S.@@	58
manufactured	58
sun	58
48-@@	58
Česk@@	58
ician	58
ained	58
New@@	58
zon@@	58
modifying	58
85@@	58
adoption	58
organisation	58
224	58
POW@@	58
enlarged	58
Reports	58
evaluating	58
dangerous	58
expertise	57
tival	57
palms	57
edge	57
err@@	57
Len@@	57
actu@@	57
Small	57
Apply	57
Guidelines	57
GI	57
RT	57
Card	57
Repeat	57
Resistance	57
Rep@@	57
represents	57
copy	57
293	57
trauma	57
exhibited	57
familial	57
NL	57
sick@@	57
145	57
316	57
Consider@@	57
24-hour	57
dispersion	57
classification	57
country	57
AI@@	57
keys	57
Ü	57
nin	57
Moreover	57
mec@@	57
ula	57
trace	57
permitted	57
sets	57
beck	57
Es@@	57
physiological	57
mas@@	57
Mo@@	57
Β@@	57
Stockholm	57
158	57
newly	57
Guid@@	57
tively	57
Lar@@	57
g-@@	57
º	57
instances	57
seriousness	57
arg@@	56
Cats	56
reservoir	56
sus@@	56
Email	56
Harmon@@	56
223	56
163	56
ong@@	56
SAF@@	56
assisted	56
Ma@@	56
relate	56
evaluations	56
Att@@	56
embryo	56
AM	56
uk	56
seems	56
attributable	56
brand	56
ai@@	56
Pap@@	56
IF	56
panc@@	56
Au@@	56
necess@@	56
alteration	56
Es	56
proc@@	56
blast	56
plants	56
149	56
multiple-@@	56
asian	56
mode	56
411	56
Electro@@	56
ф@@	56
´	56
OD	56
ppm	56
controlling	56
superficial	56
publishing	56
stad@@	56
satisfactory	56
WITHOUT	56
spheres	56
1400	56
transparent	56
i.@@	56
Draw	56
smokers	56
talking	56
ades	56
duction	56
rela@@	56
yearly	56
470	56
Ano@@	56
varies	56
ty-@@	56
seeing	56
Aden@@	55
esi@@	55
330	55
×	55
Gar@@	55
432	55
icated	55
θ@@	55
Isol@@	55
Benelux	55
OB@@	55
NU@@	55
Activity	55
likelihood	55
inees	55
Tw@@	55
shoulder	55
Even	55
hort	55
Questions	55
breeds	55
9.1	55
volumes	55
1A	55
repe@@	55
70-@@	55
FI	55
Moder@@	55
positions	55
š	55
artificial	55
statement	55
exist	55
mares	55
Π@@	55
reflected	55
Hard	55
261	55
prospective	55
Hist@@	55
allergies	55
XXX	55
initiate	55
Need	55
Athens	55
169	55
Inhal@@	55
compas@@	55
nal	55
Maximum	55
50,000	55
287	55
app	55
7.3	55
Ket@@	55
matrix	55
FORM	55
341	55
adhesive	55
34-@@	55
proliferation	55
ref@@	55
LAN@@	55
Pag@@	55
26-@@	55
cauti@@	55
channels	55
376	55
ini	54
TC	54
emerg@@	54
intox@@	54
800@@	54
clothing	54
hr@@	54
worms	54
45-@@	54
regulations	54
Ds	54
dg@@	54
Route	54
BN	54
209	54
ī	54
accurately	54
Mit@@	54
.04.@@	54
Bratislava	54
ITY	54
behavi@@	54
Eth@@	54
Available	54
540	54
crush	54
267	54
screening	54
Good	54
brought	54
ment@@	54
substitu@@	54
ul	54
breeding	54
enhancement	54
reaches	54
141	54
255	54
tella	54
Area	54
Dig@@	54
restrictions	54
build-up	54
minister	54
Component	54
ech@@	54
ay	54
о@@	54
block@@	54
Biotechnology	54
dispos@@	54
tap	54
i.e.	54
continuously	54
approx	54
Te	54
degeneration	54
standards	54
system@@	54
Le	54
418	54
Activities	54
illary	54
carbon	54
judged	54
molecules	54
Lithuania	54
imer	54
MO@@	54
manage	54
456	54
wipe	54
RC@@	53
digital	53
INTER@@	53
Refer@@	53
quantities	53
Respon@@	53
Usually	53
persists	53
hundred	53
6.9	53
fluctuations	53
Alcohol	53
season	53
topics	53
salmon	53
c-@@	53
soya	53
Alert	53
1050	53
adi@@	53
pub@@	53
Direct	53
rank	53
involve	53
improves	53
114@@	53
obesity	53
Never	53
why	53
408	53
consistently	53
Applications	53
incorporation	53
01-@@	53
2-4	53
pulse	53
draw@@	53
stitute	53
accurate	53
pressing	53
indicator	53
Glu@@	53
justified	53
164	53
esta	53
magnetic	53
117	53
cows	53
PB@@	53
idental	53
lowered	53
substitutes	53
stin@@	53
199@@	53
rinse	53
wil@@	53
Net	53
te-@@	53
force	53
X-ray	53
belonging	53
generated	53
rises	53
RS@@	53
decentralised	53
323	52
gate	52
wich	52
athy	52
xy	52
217	52
249	52
knob	52
257	52
ern@@	52
absent	52
Wilson	52
Contro@@	52
Sud@@	52
ally-@@	52
blo@@	52
urs	52
vers	52
womb	52
MM@@	52
front	52
accompanying	52
crying	52
impotence	52
we@@	52
297	52
launch	52
oric	52
τ	52
Acti@@	52
correlation	52
ure	52
favour	52
Proced@@	52
surgeon	52
impression	52
EG	52
correction	52
а	52
inherited	52
composition	52
transferred	52
401	52
AND@@	52
collect	52
tion-@@	52
Sin@@	52
Pra@@	52
recommending	52
Tur@@	52
0000	52
peeling	52
Month	52
Prec@@	52
egg	52
arising	52
postponed	52
schedules	52
turnover	52
Light	52
Spo@@	52
332	52
Lyon	52
─	52
Hampshire	51
APPL@@	51
ga@@	51
battery	51
worm	51
500@@	51
successfully	51
4-0@@	51
charcoal	51
ENTS	51
sense	51
Loss	51
313	51
extremely	51
189	51
alle	51
amp	51
business	51
jer@@	51
satisfactorily	51
atically	51
conference	51
-30	51
widely	51
Е@@	51
representing	51
sta	51
attach	51
teeth	51
grow	51
scheme	51
ather@@	51
indicative	51
dependence	51
Ide@@	51
д@@	51
OD@@	51
Immediately	51
FL@@	51
fem@@	51
550	51
unaffected	51
rhe@@	51
Gon@@	51
smoke	51
delays	51
proposals	51
292	51
desir@@	51
middle	51
---	51
409	51
imbalance	51
Ger@@	51
DV@@	51
broad	51
employed	51
ista	51
Frankfurt	51
generation	51
dynamic	51
quarter	51
у@@	51
carrier	51
345	51
ologist	51
anything	51
ie	51
concentrated	51
Hu@@	50
etta	50
asse	50
aming	50
consisted	50
degradation	50
bridge	50
Nas@@	50
Pom@@	50
041	50
delegates	50
encing	50
app@@	50
Bacter@@	50
trigger	50
notified	50
nov@@	50
aggressive	50
Mor@@	50
269	50
IE	50
committee	50
Carb@@	50
MIC@@	50
gol@@	50
ap	50
sa	50
ires	50
pushing	50
thes@@	50
chairman	50
ulose	50
IR	50
entered	50
Sul@@	50
Staff	50
aver@@	50
ension	50
poorly	50
117@@	50
Spr@@	50
margin	50
abolic	50
vitamins	50
sionate	50
certificates	50
sen@@	50
271	50
Well@@	50
Rever@@	50
circul@@	50
......	50
repair	50
integrated	50
At@@	50
wise	50
served	50
Reduced	50
mary	50
batches	50
omer@@	50
113@@	50
Dr.	50
GO@@	50
Sy@@	50
pes@@	49
lion	49
prevented	49
Tet@@	49
mind	49
packaged	49
rules	49
inverted	49
æ@@	49
arrow	49
judgement	49
lled	49
partially	49
wind	49
ows	49
observ@@	49
Fel@@	49
odi@@	49
Mono@@	49
acc@@	49
WAR@@	49
exhibit	49
expressing	49
involves	49
share	49
jes@@	49
ain	49
irrespective	49
Ge@@	49
lying	49
Kle@@	49
vine	49
von	49
rev@@	49
avian	49
competitive	49
prep@@	49
diff@@	49
fitted	49
k-@@	49
atives	49
Tol@@	49
considerable	49
breakfast	49
holders	49
themselves	49
accounted	49
aching	49
distance	49
Many	49
Industri@@	49
uterus	49
mobilisation	49
Ο@@	49
Sust@@	49
approximate	49
precautionary	49
CZ@@	49
Veter@@	49
ė	49
179	49
backing	49
fifth	49
7000	49
ushed	49
Wo	49
paid	49
gen-@@	49
Gab@@	49
1-	49
251	49
9.8	49
pill	49
BW@@	49
atori@@	49
tus	49
bim@@	48
283	48
tubing	48
exceeds	48
tionally	48
Compared	48
intense	48
stre@@	48
flav@@	48
Μ@@	48
Ka@@	48
2100	48
option	48
measurable	48
Tor@@	48
ringing	48
CAM@@	48
m.	48
guided	48
32.@@	48
Allerg@@	48
lay	48
keeping	48
critical	48
stor	48
eness	48
suffered	48
dal@@	48
elast@@	48
composed	48
examinations	48
Cas@@	48
γ	48
364	48
98@@	48
sum	48
confirmation	48
ca	48
139	48
Nim@@	48
participation	48
laser	48
San	48
dry@@	48
CIP@@	48
administrations	48
catar@@	48
liner	48
revenue	48
litre	48
retard@@	48
mur@@	48
2nd	48
elected	48
alized	48
social	48
235	48
prompt	48
initiative	48
CAB@@	48
Occasi@@	48
ib@@	48
interference	48
pent@@	48
breaking	48
adversely	48
uble	48
collection	48
Failure	48
play	48
Estonia	48
ila	47
Guill@@	47
rescue	47
248	47
165	47
superiority	47
Tum@@	47
SR@@	47
28-@@	47
Haarlem	47
Bal@@	47
Ges@@	47
Child	47
9.2	47
Differ@@	47
650	47
1st	47
St.	47
Weeks	47
cant	47
considerations	47
atively	47
159	47
isi@@	47
actual	47
clam@@	47
abortion	47
lists	47
heter@@	47
16-@@	47
org@@	47
contacts	47
243	47
2,000	47
Continue	47
administrative	47
formula	47
191	47
co	47
Comm@@	47
SER@@	47
ares	47
Jean-@@	47
definition	47
varied	47
che	47
something	47
vec@@	47
plain	47
Index	47
edness	47
Lane	47
Trial	47
Consumer	47
agencies	47
Σ	47
H2	47
suspended	47
TOTAL	47
625	47
budgetary	47
GP@@	47
Y-@@	47
264	47
marker	47
Beh@@	47
Slow@@	47
3-5	47
gamma	47
ulating	47
Quick@@	47
307	47
CB@@	47
w-@@	47
alde@@	47
porte@@	47
igh@@	47
separated	47
polyamide	47
3-	47
Amp@@	47
5,000	47
pad	46
sional	46
tas@@	46
NJ	46
edings	46
forward	46
excluding	46
lav@@	46
hir@@	46
pig	46
stay	46
lux	46
None	46
vigorously	46
trad@@	46
Parties	46
arise	46
fur	46
She	46
pigment	46
ration	46
V2	46
largely	46
Institute	46
Paste	46
C.@@	46
inter-@@	46
killing	46
substitute	46
für	46
IVE	46
E2	46
Со@@	46
became	46
198	46
targets	46
Absolute	46
speak	46
en-@@	46
040	46
routin@@	46
Personnel	46
10.0	46
invol@@	46
FA	46
description	46
75-@@	46
----------------@@	46
consequently	46
issued	46
Fr@@	46
MAG@@	46
optimised	46
CN@@	46
ensures	46
shi@@	46
Fluid	46
Nic@@	46
strips	46
ective	46
y.	46
grouping	46
Pig@@	46
HD	46
adir	46
priority	46
Kno@@	46
affairs	46
items	46
aps	46
Estate	46
om	46
ense	46
186	46
Prof.	46
recruitment	46
gall@@	46
je	46
awaited	46
art	46
d.@@	46
484	46
т@@	45
pre	45
liz@@	45
accounts	45
Bro@@	45
barrel	45
per-@@	45
insertion	45
matters	45
questionnaire	45
discussions	45
ily	45
sampling	45
cent@@	45
ole@@	45
telephone	45
Control	45
self	45
Update	45
TT	45
raise	45
demonstrating	45
2000-@@	45
ity-@@	45
io	45
pion	45
attempts	45
ums	45
lol	45
Potential	45
atom@@	45
ordination	45
onian	45
ratios	45
firm	45
Particular	45
Sw@@	45
194	45
beats	45
10.5	45
household	45
shield	45
greatly	45
thritis	45
esses	45
vom@@	45
posts	45
vering	45
demonstration	45
licensed	45
MET@@	45
onally	45
eligible	45
ensuring	45
aten@@	45
р@@	45
ME	45
204	45
sunset	45
Re-@@	45
173	45
Berlin	45
signals	45
Pick	45
equally	45
64@@	45
383	45
ady	44
restriction	44
labyrinth	44
dipl@@	44
letters	44
anom@@	44
Revision	44
Communities	44
ocr@@	44
releasing	44
Authorities	44
Km	44
big	44
ana	44
Transfer	44
ulsion	44
framework	44
ated-@@	44
environmental	44
DF@@	44
Bra@@	44
ond@@	44
bright	44
NING	44
crossover	44
20,000	44
TW@@	44
carries	44
alise	44
preceding	44
preservatives	44
Pure	44
believed	44
panic	44
feelings	44
deemed	44
sters	44
bar@@	44
office	44
termination	44
ANT	44
supplementary	44
tary	44
semen	44
tear	44
operations	44
Industrie@@	44
chis@@	44
consolidation	44
blind@@	44
Ros@@	44
Var@@	44
surfaces	44
BU	44
367	44
119@@	44
monkey	44
th-@@	44
Vilnius	44
Post	44
promote	44
ck	44
RS	44
icul@@	44
examine	44
thickness	44
0,@@	44
Mut@@	44
325	44
tid	44
uncertain	44
Arrow	44
figure	44
consist	44
A1	43
car	43
ain-@@	43
arial	43
Clean	43
graduated	43
UV	43
responsi@@	43
veness	43
pat@@	43
silicon	43
ATIONS	43
Difficul@@	43
printing	43
pg	43
PUR@@	43
threshold	43
organised	43
fine	43
Key	43
üssel	43
retina	43
comm@@	43
harmonise	43
.org	43
42@@	43
principally	43
Exc@@	43
3rd	43
oping	43
dep@@	43
abuse	43
opath@@	43
observations	43
hea	43
~	43
seness	43
acia	43
incre@@	43
bilities	43
idated	43
began	43
inging	43
destruction	43
228	43
OM	43
proportions	43
mouth@@	43
passive	43
buff@@	43
-20	43
FT	43
Gran@@	43
TION	43
AMD	43
3,000	43
ambul@@	43
thick@@	43
capable	43
275	43
selectively	43
e-mail	43
Γ@@	43
dermat@@	43
failures	43
speaking	43
Dé@@	43
Thereafter	43
knowledge	43
Tallinn	43
277	43
Hal@@	43
chicken	43
s.r.o.	42
Progres@@	42
anus	42
tional	42
dges	42
investigating	42
alis	42
Η@@	42
344	42
Sever@@	42
PS	42
COR@@	42
322	42
Lou@@	42
fats	42
conduc@@	42
Deputy	42
PU@@	42
recognise	42
aluminum	42
Ann@@	42
manifested	42
Resid@@	42
501	42
sl@@	42
UA	42
Institut	42
154	42
gram@@	42
slower	42
travelling	42
ilers	42
experiments	42
Early	42
Swedish	42
Services	42
atology	42
blood@@	42
ju@@	42
reserve	42
299	42
respir@@	42
$	42
LF	42
sessions	42
Professional	42
conve@@	42
ulated	42
noctur@@	42
awareness	42
Slovakia	42
336	42
138	42
processing	42
475	42
Vice-@@	42
Out@@	42
RAP@@	42
packages	42
έ@@	42
all-@@	42
disturbed	42
History	42
262	42
nings	42
Certain	42
2500	42
pharmaceuticals	42
amendment	42
coming	42
eb@@	42
suppressed	42
1-3	42
four-@@	42
Division	42
8,000	42
build	42
199	42
pharmacy	42
zur@@	42
Allow	42
hum@@	42
litter	42
б@@	42
Cin@@	42
Year	42
assist	42
Free	42
organic	42
bra@@	42
DV	41
340	41
hypno@@	41
400@@	41
Compl@@	41
paste	41
sent	41
persistence	41
considerably	41
Exposure	41
82@@	41
efficient	41
dd@@	41
alt@@	41
toward	41
296	41
publication	41
419	41
reness	41
Ps	41
Pir@@	41
Male	41
isia	41
Ic@@	41
tender	41
seem	41
Д	41
baz@@	41
gum	41
IK@@	41
Φ@@	41
414	41
la-@@	41
31-@@	41
inium	41
Rh@@	41
VI	41
milestone	41
gambling	41
compati@@	41
slowing	41
characterized	41
shape	41
donation	41
181	41
warrant	41
suspicion	41
handle	41
labels	41
calculate	41
ser	41
reversal	41
team	41
metal	41
A6	41
intrinsic	41
releases	41
hence	41
skull	41
440	41
acryl@@	41
easier	41
Medi@@	41
12.0	41
temperatures	41
480	41
catal@@	41
Š	41
Normal	41
farm@@	41
stu@@	41
suppress	41
ptions	41
kill@@	41
CO2	41
ly-@@	41
inferior	41
Review	41
breathe	41
atyp@@	41
fish	41
PN@@	41
seln	41
278	41
197	41
peti@@	41
Handling	41
gasse	41
brit@@	41
ed.	41
brates	41
bilateral	41
By@@	40
68@@	40
alies	40
lowers	40
GU@@	40
Medium	40
fic@@	40
Ν@@	40
ested	40
gau@@	40
resume	40
unsure	40
collapse	40
Kit	40
resol@@	40
features	40
eria	40
beige	40
Registration	40
Per	40
Oslo	40
Ammon@@	40
DK	40
intest@@	40
Stop	40
4-6	40
ACS	40
256	40
son@@	40
Conditions	40
ia@@	40
spect	40
precise	40
Finally	40
calendar	40
17.5	40
Indi@@	40
sing@@	40
eder@@	40
jury	40
link	40
ures@@	40
burden	40
aking	40
ICS	40
Bulgaria	40
comprised	40
Concept	40
148	40
software	40
coc@@	40
survived	40
adher@@	40
options	40
indicators	40
Another	40
1-5	40
19-@@	40
bec@@	40
92@@	40
-4	40
time-@@	40
Race	40
-off	40
Blue	40
whenever	40
sol@@	40
Pac@@	40
SG@@	40
alities	40
Bu@@	40
bypass	40
в@@	40
53.@@	40
193	40
Hou@@	40
predominant	40
cake	40
lot	40
bring	40
237	40
Educational	40
gg@@	40
tracking	40
adver@@	40
esc@@	40
directions	40
comparisons	40
assumed	40
LT@@	40
-based	40
expose	40
545	40
slow@@	40
Coordination	40
phases	40
breaks	40
NOV@@	40
96@@	40
sting	40
Intel@@	40
mechanical	40
Ev@@	40
ova	40
fec@@	40
nier	40
244	40
teen	40
effic@@	40
272	40
anxious	40
Chi@@	40
throw	40
redistribution	40
347	40
lid	40
CE	39
practical	39
Bad	39
Industrie	39
FRANCE	39
2x@@	39
NF@@	39
lens	39
we	39
atus	39
Recommended	39
Try	39
aimed	39
Mat@@	39
Emul@@	39
Tim@@	39
Label	39
than@@	39
osph@@	39
lete	39
266	39
Department	39
302	39
die	39
RC	39
uted	39
70@@	39
goals	39
De	39
valve	39
proved	39
obligations	39
52-@@	39
Hall@@	39
951	39
dropped	39
hazardous	39
alization	39
refers	39
apol@@	39
displacement	39
demonstrates	39
opt	39
steril@@	39
retrospective	39
probable	39
French	39
resonance	39
onomic	39
specially	39
ECU	39
Between	39
lie	39
biom@@	39
oxidation	39
ress	39
survey	39
advantage	39
strictly	39
bli@@	39
life@@	39
Replace	39
secretariat	39
preferable	39
Dep@@	39
nav@@	39
In-@@	39
differentiation	39
1998-@@	39
Sut@@	39
Members	39
Public	39
lip	39
352	39
begins	39
Eur@@	39
kind	39
ye@@	39
grades	39
CHF	39
mam@@	39
acious	39
505	39
PF@@	39
forecast	39
ITE	39
adap@@	38
ked	38
Ip@@	38
challenges	38
jus@@	38
bes	38
statements	38
581	38
human@@	38
442	38
foam	38
ord	38
supplement	38
clicks	38
returns	38
zero	38
collaboration	38
1993	38
exes	38
policies	38
Rob@@	38
territory	38
expenses	38
tt@@	38
efforts	38
о	38
greatest	38
pu@@	38
Comp@@	38
donate	38
Heads	38
Bos@@	38
Brit@@	38
ball	38
sticky	38
ventil@@	38
beating	38
252	38
178	38
Choose	38
sko	38
regression	38
relax	38
Ham@@	38
supplies	38
latex	38
amendments	38
narrow@@	38
URE	38
phys@@	38
3-0@@	38
Land@@	38
tw@@	38
perf@@	38
rey	38
10.1	38
GB@@	38
participated	38
systematic	38
Grap@@	38
amen@@	38
Colonel	38
decisions	38
246	38
10.6	38
1,0@@	38
BW	38
helping	38
daytime	38
sion@@	38
warmth	38
ister@@	38
extend	38
longer-@@	38
tides	38
tite	38
ö@@	37
Details	37
600@@	37
100-@@	37
washed	37
vens	37
Forte	37
structures	37
co-ordination	37
definitive	37
241	37
WE@@	37
Scher@@	37
ki	37
Large	37
great	37
organism	37
exclude	37
community	37
mites	37
strum	37
Protocol	37
arity	37
itating	37
TV@@	37
proprietary	37
ber@@	37
387	37
ici	37
lock	37
wh@@	37
dan@@	37
Hence	37
run	37
LY	37
254	37
ille	37
reflects	37
hasn	37
ARY	37
ner	37
division	37
publications	37
и	37
Omega	37
3b	37
carrying	37
onwards	37
arrangements	37
Publications	37
depleted	37
patterns	37
ée	37
Live	37
IP	37
amic@@	37
268	37
South	37
80-@@	37
Improvement	37
fal@@	37
Known	37
absor@@	37
cost	37
bel@@	37
Sup@@	37
super@@	37
ç@@	37
633	37
Every	37
But@@	37
ce	37
OF@@	37
Higher	37
12.3	37
0,5	37
PRI@@	37
Zol@@	37
loaded	37
stool	37
notably	37
calculation	37
Dem@@	37
ο	37
Deter@@	37
ped	37
vehicles	37
cotton	37
ical@@	37
462	37
ary@@	36
officially	36
Committees	36
brow@@	36
buffer	36
8,@@	36
MEP	36
tax@@	36
languages	36
es-@@	36
eving	36
structural	36
74@@	36
ence-@@	36
express	36
kil@@	36
reflecting	36
2-0@@	36
objections	36
49-	36
567	36
ble	36
520	36
м@@	36
Open	36
SAS	36
genes	36
Del@@	36
paired	36
Straße	36
oline	36
World	36
Har@@	36
eluc@@	36
precaution	36
Now	36
a-	36
Conven@@	36
progressed	36
Wait	36
similarly	36
responsibilities	36
host	36
Sk@@	36
----@@	36
intercourse	36
с@@	36
11.5	36
rapporteurs	36
mus	36
crystall@@	36
ecom@@	36
stered	36
γ@@	36
Lisboa	36
doubled	36
easy	36
saturation	36
Female	36
biz@@	36
lag	36
clerosis	36
fungi	36
vap@@	36
polyester	36
b-@@	36
Despite	36
rolling	36
Nordic	36
ensured	36
pts	36
Lower	36
interpretation	36
12.1	36
understood	36
Reg@@	36
Description	36
freez@@	36
da@@	36
4,000	36
290	36
variables	36
formulated	36
recover	36
1800	36
direction	36
icate	36
interrupt	36
balanced	36
32-@@	36
stabilisation	36
succ@@	36
nozzle	36
BG	36
Leg@@	36
EPO	35
choose	35
institution	35
matory	35
Ple@@	35
Bat@@	35
236	35
still@@	35
η	35
amic	35
regions	35
anes	35
touching	35
alternate	35
298	35
recovering	35
omeg@@	35
declined	35
anim@@	35
265	35
291	35
Meetings	35
Consult	35
category	35
itory	35
gul@@	35
It@@	35
dates	35
33-@@	35
childhood	35
783	35
sectors	35
essive	35
specificity	35
short-@@	35
263	35
format	35
Quin@@	35
sole	35
Les	35
13.5	35
NO	35
080@@	35
Thir@@	35
10.4	35
BIG	35
preliminary	35
Stel@@	35
17-@@	35
6,000	35
Simultane@@	35
pure	35
implications	35
LTD	35
329	35
complement	35
xen	35
differential	35
Max-@@	35
adjusting	35
purple	35
AU	35
Second	35
disc	35
yeth@@	35
Canc@@	35
etz@@	35
rays	35
D2	35
Gri@@	35
toes	35
continu@@	35
acter@@	35
cleaning	35
150@@	35
Telephone	35
sol	35
dive	35
95@@	35
undergone	35
AA	35
ales	35
colouring	35
AI	35
scal@@	35
ulates	35
ey@@	35
berg	35
goal	35
plant@@	35
394	35
leak	34
suspect	34
exic@@	34
Ltd.	34
cleaned	34
Liquid	34
sweat	34
ect@@	34
Five	34
resc@@	34
fur@@	34
precipitation	34
Add	34
floor	34
uclear	34
pride	34
presents	34
genetically	34
call	34
ery	34
City	34
Rate	34
382	34
metres	34
Japanese	34
1992	34
rule	34
aque	34
or-@@	34
Boulevard	34
off@@	34
VE@@	34
Specification	34
cultures	34
ffy	34
ī@@	34
ments	34
endorsed	34
theoretical	34
atics	34
rav@@	34
Lin@@	34
penis	34
stimulated	34
erial	34
eric	34
86@@	34
....	34
organisations	34
sit	34
enclosed	34
headings	34
ths	34
comprehensive	34
understand	34
Drive	34
ported	34
ice-@@	34
Fat@@	34
Alfa	34
erase	34
564	34
S.p.A.	34
deal	34
Indic@@	34
Febr@@	34
former	34
Q-@@	34
sensi@@	34
Refer	34
paras@@	34
lethal	34
propor@@	34
xing	34
contract	34
task	34
ό@@	34
emptying	34
tor-@@	34
Science	34
cartilage	34
INCLU@@	34
comfortable	34
Association	34
dly	34
aesthetics	34
analytical	34
alcohol@@	34
disagreement	34
plans	34
piz@@	34
Starting	33
officials	33
9000	33
aspiration	33
weight-@@	33
IS-@@	33
recommends	33
ties	33
PEN@@	33
eastern	33
edges	33
Ρ@@	33
entre@@	33
heimer	33
Recent	33
hyster@@	33
Sam@@	33
Yar@@	33
orus	33
last@@	33
twit@@	33
transporter	33
ş	33
father	33
463	33
combining	33
Gu@@	33
anger	33
35-@@	33
ached	33
Whilst	33
ANT@@	33
ecological	33
doubling	33
heads	33
Σ@@	33
dispensing	33
rever@@	33
drinks	33
282	33
Vienna	33
confused	33
CK@@	33
mitting	33
injuries	33
530	33
333	33
hostility	33
son	33
layers	33
ytes	33
located	33
Alex@@	33
proxim@@	33
52@@	33
returning	33
create	33
sives	33
Vietnam	33
.1	33
ecin	33
pro-@@	33
TAR@@	33
Considering	33
ASS@@	33
Bay@@	33
defence	33
Initi@@	33
drainage	33
M1	33
participate	33
PLUS	33
fail	33
Organisation	33
estr@@	33
289	33
incomplete	33
fore@@	33
regarded	33
343	33
nutritional	33
EQU@@	33
607@@	33
Several	33
11.4	33
5-10	33
Paren@@	33
deleted	33
Uni@@	33
422	33
prob@@	33
PAN@@	33
bad	33
vista	33
Gel	33
diffuse	33
isa	33
Sab@@	33
200-@@	33
registration	33
335	33
domain	33
339	33
HV@@	33
uri@@	33
arbitr@@	33
110@@	33
preclu@@	33
EUR	33
latter	33
horse	33
homogeneous	33
spectro@@	33
moist	33
B2	33
tisation	33
traces	33
334	33
Cycle	33
orie	33
513@@	33
eruption	33
accumulate	32
techn@@	32
Regulations	32
exer@@	32
acy@@	32
ð@@	32
rotate	32
thym@@	32
arium	32
plex@@	32
SCH@@	32
convenient	32
YOUR	32
PI@@	32
transition	32
dness	32
NR@@	32
immobil@@	32
Meier	32
1994	32
lers	32
232	32
Crit@@	32
fluo@@	32
supports	32
402	32
J.	32
parasites	32
Start	32
voice	32
legal	32
Doc	32
Practice	32
Holdings	32
sibility	32
cz@@	32
Japan	32
ert@@	32
Adjustment	32
10.3	32
progressing	32
Quad@@	32
Iv@@	32
MUST	32
HAN@@	32
pulling	32
238	32
speed	32
cann@@	32
YER	32
heal	32
GI@@	32
trembling	32
unavoidable	32
exaggerated	32
tend	32
workshop	32
Spon@@	32
precursor	32
OTEC	32
hormon@@	32
notes	32
inspect	32
rising	32
epl@@	32
essness	32
substituted	32
ignant	32
Cha@@	32
lig@@	32
cult	32
posi@@	32
ound	32
contributed	32
DB@@	32
parall@@	32
preserved	32
ii	32
laminated	32
transmitter	32
icle	32
426	32
TEN@@	32
urge	32
ess@@	32
Main	32
created	32
Across	32
incorporated	32
immedi@@	32
ar-@@	32
committed	32
Surgery	32
restart	32
actively	32
390	32
Score	32
meat	32
Advice	32
home	32
accum@@	32
Cut@@	32
parameter	32
odour	32
luc@@	32
000@@	32
ister	32
twi@@	32
abl@@	32
Conf@@	32
ican	32
dedicated	32
ved	32
Jos@@	32
interfering	32
extensions	32
r.@@	32
cid	32
calories	32
10.7	32
sound	32
50x@@	32
dru@@	32
metre	32
degenerative	32
Quinta	32
electrical	32
semi-@@	32
oul@@	32
rigidity	32
manufacture	32
Leverkusen	32
uma	32
ESA	32
ст@@	32
Reduc@@	32
Ot@@	32
extracted	32
F2	31
pensions	31
10.8	31
SION	31
Scre@@	31
-to-@@	31
SRL	31
deadline	31
partnership	31
bla@@	31
calibrated	31
Ga@@	31
Lap@@	31
73@@	31
disinf@@	31
Suff@@	31
Professor	31
ull@@	31
activate	31
attaching	31
twelve	31
abor@@	31
foods	31
disappeared	31
represented	31
yours	31
bubble	31
pads	31
Imaging	31
es.	31
fer	31
cooperation	31
Wa@@	31
wishes	31
deletion	31
Alternative	31
living	31
profound	31
psychological	31
allevi@@	31
appeal	31
Ko@@	31
i-@@	31
Up	31
ement	31
quet	31
12.4	31
503	31
Canada	31
swings	31
de-@@	31
27-@@	31
emission	31
Fin@@	31
cups	31
Centr@@	31
deficiencies	31
matched	31
dairy	31
transactions	31
711	31
alum@@	31
fragile	31
Turn@@	31
displayed	31
459	31
Cis@@	31
partly	31
δ	31
numer@@	31
enbach	31
Holding	31
tid@@	31
451	31
DF	31
glaci@@	31
alit@@	31
definite	31
priorities	31
incl.	31
640	31
wet	31
mini	31
HI	31
Through	31
reactive	31
compare	31
minu@@	31
anti	31
Previous	31
Fa@@	31
failing	31
dissemin@@	31
603@@	31
79@@	31
shelf	31
24h	31
Replacement	31
Ban@@	31
she@@	31
encouraged	31
sies	31
apple	31
healed	31
enhances	31
н@@	31
Ta@@	31
253	31
empirical	31
Tab	31
GRE@@	31
Keeping	31
А@@	31
need@@	31
tex@@	31
Zac@@	31
tili@@	31
Cross-@@	31
Lan@@	31
swine	31
entially	31
laying	31
formally	31
В@@	30
ectious	30
14.5	30
endemic	30
casu@@	30
alty	30
correspond	30
Men	30
selec@@	30
contr@@	30
T1	30
Tap	30
sequence	30
particle	30
sheep	30
fiable	30
115@@	30
behind	30
Current	30
intending	30
aerob@@	30
ched	30
xes	30
HO@@	30
338	30
examples	30
GS	30
wat@@	30
agu@@	30
49-@@	30
abil@@	30
enhancing	30
pseud@@	30
arsen@@	30
Ibra@@	30
sales	30
Picture	30
Selec@@	30
acrylic	30
uality	30
dom	30
targeted	30
low@@	30
recognises	30
assembly	30
187	30
Articles	30
DD	30
vagina	30
11.7	30
H2@@	30
steel	30
teen@@	30
defective	30
259	30
----	30
SES	30
wave	30
thereof	30
aw@@	30
laminate	30
gentle	30
faced	30
ened	30
wa@@	30
mim@@	30
Monday	30
intensified	30
HE@@	30
inning	30
outlined	30
polymer	30
consensus	30
Minist@@	30
solvents	30
centr@@	30
Hung@@	30
210@@	30
purity	30
instruct	30
Core	30
consulting	30
provider	30
Storage	30
840	30
N.@@	30
SEE	30
pressed	30
consumed	30
EST	30
DRE@@	30
mann	30
osyn@@	30
93@@	30
Suppl@@	30
moving	30
patent	30
ona	30
Ts	30
‡	30
article	30
desire	30
cath@@	30
row@@	30
lab@@	30
Agu@@	30
as-@@	30
304	30
Rab@@	30
ep	30
false	30
contributions	30
eculi@@	30
Fill	30
ll@@	30
WR@@	30
sources	30
extraction	30
Film	30
Term	30
deposit	30
Diagno@@	30
Adol@@	30
ranked	30
Meeting	30
displays	29
Brad@@	29
disappears	29
vigorous	29
adhesion	29
scans	29
wearing	29
spac@@	29
Court	29
building	29
rin@@	29
tism	29
PPE	29
secon@@	29
ame@@	29
326	29
Green@@	29
Groups	29
Directorate	29
397	29
ateral	29
Sunset	29
Ensure	29
ias	29
flexible	29
lacking	29
Far@@	29
7-0@@	29
anyone	29
Currently	29
evenly	29
342	29
ger	29
determining	29
water-@@	29
rip@@	29
tic-@@	29
Mos@@	29
Long	29
B.V.	29
xion	29
College	29
Dur@@	29
urgency	29
Service	29
snack	29
396	29
Quali@@	29
Problems	29
demand	29
focused	29
aster	29
Viagra	29
Printing	29
images	29
-00@@	29
traumatic	29
meters	29
sor	29
ux@@	29
retained	29
optimise	29
!	29
cites	29
Sau@@	29
platinum	29
3.0@@	29
depend@@	29
cured	29
fre@@	29
dark@@	29
candidate	29
fell	29
dissolution	29
Gro@@	29
	29
instance	29
personal	29
exc@@	29
prog@@	29
exclusively	29
rob@@	29
CZ	29
noticed	29
CLAR@@	29
chair@@	29
GH	29
467	29
Ep@@	29
identification	29
2001-@@	29
Implementation	29
311	29
Level	29
AY	29
organisational	29
withdrew	29
MED	29
transmitted	29
pinch	29
prospec@@	29
ISBN	29
П@@	29
han	29
understanding	29
spinning	29
Central	29
eventually	29
decides	29
true	29
frame	29
crosses	29
gad@@	29
Institu@@	29
TV	29
ature	29
oso@@	29
security	29
aan	29
	29
153@@	29
Dro@@	29
ending	29
DK@@	29
efficiency	29
est	29
ARE	29
SEN	29
probability	29
ticks	29
acidity	29
accuracy	29
keeps	29
pel	29
Deli@@	29
aux	29
Start@@	29
11.1	29
alli@@	29
pil@@	29
w.@@	29
ke@@	28
PAC@@	28
WIT@@	28
Trading	28
needing	28
developments	28
DEX	28
registry	28
cia	28
antel	28
fluorescence	28
Roma	28
erts	28
submissions	28
smell	28
zed	28
euph@@	28
B-0@@	28
11-0@@	28
LT	28
Having	28
Positive	28
click	28
unacceptable	28
ND	28
inet@@	28
borne	28
issen	28
mission	28
Persistent	28
1.00	28
VER	28
ische	28
alo	28
expon@@	28
optimum	28
question	28
assistant	28
BON@@	28
GER@@	28
opol@@	28
94@@	28
Center	28
select	28
accession	28
bs	28
Degree	28
versions	28
simple	28
pieces	28
implants	28
scar@@	28
Hen@@	28
rab@@	28
park	28
TU@@	28
nails	28
alive	28
HT	28
penetration	28
z-@@	28
Asian	28
classic	28
-T@@	28
cavity	28
2600	28
lined	28
compete	28
454	28
φ@@	28
Dun@@	28
et-@@	28
zone	28
conf@@	28
existence	28
receipt	28
six-@@	28
mbH	28
sti	28
citation	28
Event	28
advance	28
anni@@	28
yield	28
Sleep	28
protects	28
creation	28
lis	28
Tables	28
estation	28
Van@@	28
weaken	28
12.7	28
Unless	28
differently	28
hon@@	28
FC	28
471	28
	28
im	28
tising	28
Helsinki	28
ately	28
ch-@@	28
LS	28
kyo	28
uniform	28
ably	28
aris	28
impurities	28
divergent	28
solving	28
ör@@	28
FI@@	28
hay	28
-2@@	28
commitment	28
ML@@	28
prematurely	28
483	28
572	28
aut	28
Doctor	28
11.9	28
body-@@	28
belly	28
Arbitration	28
Sti@@	28
cau@@	28
pilot	28
underwent	28
DG	28
aeros@@	28
dell	28
compact	28
494	28
controllable	28
Contr@@	28
Bel@@	28
Combined	28
aring	28
324	28
engineered	28
565	27
Stro@@	27
wash@@	27
München	27
stuff	27
Riga	27
coded	27
Bil@@	27
Nacional	27
knows	27
ata	27
enters	27
Can@@	27
DRO@@	27
Viale	27
Europa	27
ester	27
sco@@	27
62@@	27
differs	27
ejaculation	27
BRE@@	27
cont@@	27
Glass	27
skip	27
38.@@	27
RO	27
brief	27
bull@@	27
hic@@	27
corp@@	27
hear	27
pushed	27
headed	27
226	27
twist	27
dition	27
р	27
encapsul@@	27
ues	27
systematically	27
SELE@@	27
worldwide	27
permit	27
kes	27
T2	27
embran@@	27
Presentations	27
Flat@@	27
Did@@	27
Ves@@	27
deli@@	27
672	27
Industries	27
eno@@	27
thec@@	27
EW@@	27
247	27
maz@@	27
TIC	27
commence	27
Cic@@	27
ometric	27
2300	27
gent@@	27
remedies	27
exhibiting	27
Louis	27
Life	27
labour	27
separation	27
digital@@	27
contributing	27
stainless	27
repeatedly	27
fen	27
passage	27
ESS@@	27
ko	27
ros	27
crystals	27
rn@@	27
papers	27
BEN@@	27
withdraw@@	27
sle@@	27
wrap	27
М@@	27
y-	27
Hill	27
aire	27
Clar@@	27
WES@@	27
435	27
ferred	27
principles	27
Albert	27
281	27
plays	27
meer	27
gro@@	27
characteristic	27
123@@	27
food-@@	27
541	27
Swe@@	27
Hand@@	27
ected	27
ECO	27
Fru@@	27
matic	27
mod@@	27
aspect	27
clinic	27
lime@@	27
Ang@@	27
Health@@	27
E-0@@	27
escal@@	27
ov	27
avoiding	27
claimed	27
gained	27
neutral	27
agency	27
dust	27
predict	27
Lyn@@	27
sam@@	27
Parc	27
stimul@@	27
NC@@	27
516	27
444	27
nitrate	27
Spar@@	27
color@@	27
zing	27
evidenced	27
Che@@	27
Colour@@	27
Agr@@	27
10.9	27
228@@	27
overnight	27
Neph@@	27
housing	27
ichi	27
663	27
2,5	27
bought	27
Dr@@	27
mixtures	27
284	27
minimize	27
multiply	27
fragments	27
Doctors	27
sper@@	27
cool	27
Mig@@	26
contributes	26
erosion	26
cylinder	26
Alph@@	26
GR	26
ung	26
Mé@@	26
˚	26
Negative	26
maxim@@	26
half@@	26
Sar@@	26
slaughtered	26
eled	26
portions	26
Apo@@	26
contaminated	26
unconscious	26
472	26
oms	26
provisions	26
ell	26
486	26
unique	26
frag@@	26
observe	26
attempted	26
5-6	26
TOP@@	26
refl@@	26
Testing	26
Β	26
Υ	26
coordinated	26
447@@	26
ier@@	26
assa@@	26
se-@@	26
Species	26
7,@@	26
somewhat	26
Р@@	26
widespread	26
triggered	26
usage	26
factor@@	26
dividing	26
ni	26
went	26
ECO@@	26
Individuals	26
urg@@	26
counter	26
Nit@@	26
DS@@	26
ich	26
är@@	26
Ó@@	26
Hem@@	26
physically	26
Prepare	26
Vag@@	26
non-EU	26
Can	26
two-year	26
conclusive	26
NE	26
Sle@@	26
putting	26
Rating	26
activates	26
Anim@@	26
Bio-@@	26
ail	26
Statis@@	26
strengthen	26
syno@@	26
independently	26
quick	26
Rapporte@@	26
inch	26
aesthe@@	26
berry	26
investigators	26
348	26
Nico@@	26
aerobic	26
Lim@@	26
José	26
485	26
389	26
659@@	26
Six@@	26
1990	26
Treat@@	26
Continu@@	26
ever@@	26
Fran@@	26
423	26
Tax@@	26
CLE@@	26
colony	26
Dor@@	26
differentiate	26
ush	26
less@@	26
H1	26
minist@@	26
Cou@@	26
passages	26
sexually	26
tiny	26
ASE	26
731	26
perme@@	26
Neither	26
tly	26
So	26
Whereas	26
mate	26
357@@	26
2,3	26
concentrating	26
Introduction	26
tie	26
ture-@@	26
pedi@@	26
iden@@	26
ric@@	26
ore	26
Kon@@	26
1600	26
don@@	26
ein	26
23-@@	26
trine	26
315	26
Remember	26
™	26
anes@@	26
Eck@@	26
8-10	26
marking	26
eng@@	26
farm	26
tick	26
receives	26
for@@	26
Peel	26
thine	26
Facil@@	26
marks	26
stituting	26
36-@@	26
fertilis@@	26
hygiene	26
complex@@	26
CX@@	26
FE	26
AE@@	26
MW@@	26
detail	25
tended	25
VO@@	25
ducks	25
violet	25
33.@@	25
provisional	25
chick@@	25
amm@@	25
But	25
Pierre	25
Lot	25
thorough	25
explanation	25
bath	25
ance-@@	25
RI@@	25
emphasis	25
organiz@@	25
let@@	25
Character@@	25
180@@	25
Support	25
eliminate	25
Vien@@	25
11.8	25
ino	25
di	25
rat@@	25
randomly	25
sounds	25
embryonic	25
rejecting	25
instability	25
й@@	25
HL@@	25
362	25
Site	25
Break@@	25
girls	25
MUL@@	25
Repub@@	25
273	25
999	25
bloody	25
diagno@@	25
radical	25
ecting	25
harm@@	25
constituents	25
graded	25
ACC@@	25
с	25
ер@@	25
cancer@@	25
02-@@	25
tv	25
dra@@	25
,@@	25
HP	25
cles	25
µm	25
puppies	25
BEL@@	25
Agents	25
inc	25
п@@	25
nant	25
Status	25
st-@@	25
ž@@	25
shortened	25
BL	25
bm@@	25
completing	25
late@@	25
no-@@	25
361	25
voor	25
element	25
figures	25
humour	25
erb@@	25
ounding	25
MR	25
May@@	25
resin	25
graduate	25
palate	25
Sm@@	25
p.@@	25
phenomena	25
tends	25
Saint	25
CEE	25
obvious	25
straw	25
Program	25
American	25
tul@@	25
fertile	25
355	25
10,@@	25
physi@@	25
tness	25
stru@@	25
hil@@	25
ATH@@	25
multinational	25
Ms	25
locked	25
emerging	25
temporal	25
Classical	25
Examples	25
trou@@	25
ound@@	25
worsen@@	25
Stav@@	25
Vision	25
dos	25
599	25
Alco@@	25
necessarily	25
Ulm	25
End	25
552	25
histo@@	25
ions	25
cks	25
limitations	25
dorp	25
446	25
Building	25
318	25
tioned	25
anu@@	25
286	25
End@@	25
multipl@@	25
classical	25
én@@	25
-out	25
anov@@	25
spot@@	25
305	25
onism	25
freezing	25
Bag@@	25
interests	25
ел@@	24
Mai@@	24
Poli@@	24
plenary	24
outh	24
secret@@	24
nuclear	24
justification	24
Net@@	24
compromise	24
Nature	24
rolment	24
co-ordin@@	24
table@@	24
Nax@@	24
tured	24
ficial	24
821	24
blu@@	24
cond@@	24
aying	24
ik	24
Photos@@	24
eaten	24
10.2	24
Their	24
Dop@@	24
Stop@@	24
Tests	24
903	24
VAR@@	24
Gy@@	24
Enzy@@	24
Switzerland	24
auto-@@	24
ign	24
Mun@@	24
-6	24
9,@@	24
East	24
therap@@	24
Rot@@	24
AK@@	24
fashion	24
shoc@@	24
progressively	24
Essential	24
IZ@@	24
Unknown	24
TIM@@	24
liaison	24
970	24
relaxation	24
Dim@@	24
leaflets	24
hazards	24
iel@@	24
PK@@	24
robust	24
progno@@	24
achment	24
Mul@@	24
rigid	24
ouring	24
ita	24
reading	24
PG	24
507	24
kill	24
Look	24
PUR	24
Ministry	24
helpful	24
placing	24
conferences	24
ι	24
G.	24
Box@@	24
transformed	24
MF	24
3600	24
health@@	24
495	24
Fri@@	24
duct	24
pills	24
staining	24
connect	24
itates	24
summarized	24
effort	24
Notice	24
Applic@@	24
validation	24
uncomfortable	24
envelop@@	24
alcoholic	24
sn@@	24
icide	24
MAT@@	24
Best	24
DOM@@	24
-02-@@	24
stores	24
ious	24
consumer	24
Recommendations	24
Develop@@	24
12.8	24
determin@@	24
oured	24
cataly@@	24
modelling	24
peel	24
endas	24
spent	24
assurance	24
4x@@	24
deviation	24
å@@	24
kills	24
canal	24
messenger	24
bly	24
EMENT	24
poultry	24
miner@@	24
Average	24
ā@@	24
ight	24
ID-@@	24
ola	24
13.2	24
Federation	24
Fon@@	24
siveness	24
Stor@@	24
inding	24
André	24
reasonable	24
441	24
Presentation	24
852	24
PPP	24
tight	24
kinds	24
groundwater	24
charge	24
interventions	24
ink@@	24
laid	24
1987	23
Premi@@	23
mp	23
dging	23
round@@	23
Avenida	23
LAND	23
dialogue	23
theoretically	23
watch	23
ff	23
ek	23
phenomenon	23
Epid@@	23
asts	23
SIL@@	23
Catal@@	23
volum@@	23
sell	23
Floor	23
CU@@	23
indoor	23
rooms	23
entering	23
character@@	23
NS	23
ente	23
ick	23
perception	23
940	23
omers	23
1300	23
well@@	23
trying	23
valu@@	23
technologies	23
Univers@@	23
concept	23
mid-@@	23
solves	23
state@@	23
plateau	23
predictable	23
SV@@	23
Gam@@	23
zer@@	23
squeeze	23
info@@	23
David	23
ticul@@	23
iri@@	23
380	23
Hot	23
Opinions	23
Just	23
Journal	23
dual-@@	23
ator-@@	23
xen@@	23
RE	23
testi@@	23
BO	23
suck@@	23
С@@	23
JO@@	23
EUROPEAN	23
fel	23
Full	23
6-0@@	23
che@@	23
ous@@	23
Υ@@	23
asty	23
Effective	23
Progressive	23
tech	23
512	23
came	23
declared	23
ón	23
notify	23
404	23
elia	23
spot	23
ès	23
DY@@	23
5x@@	23
ograms	23
resting	23
recruited	23
eck	23
refrain	23
regime	23
eco@@	23
554	23
392	23
242	23
FLEX	23
328	23
hairy	23
Photo	23
warned	23
433	23
thesis	23
915@@	23
Documentation	23
adapted	23
506	23
Rome	23
boosting	23
unsuitable	23
713	23
312	23
appointment	23
ennial	23
SF	23
Uno@@	23
pened	23
drunk	23
laboratories	23
Select	23
Statement	23
attaches	23
Peter	23
seals	23
timely	23
VEG@@	23
524	23
versi@@	23
384	23
Preliminary	23
adapt	23
497	23
ère	23
innovative	23
966	23
coordinate	23
anco	23
aggres@@	23
wet@@	23
ques	23
4-5	23
fac@@	23
laz@@	23
nes	23
ringe	23
flor@@	23
s.@@	23
533	23
late-@@	23
EM	23
Wor@@	23
OUT	23
title	23
627	23
Glo@@	23
participants	23
rd	23
rhyth@@	23
principle	23
connected	23
resource	22
Add@@	22
Individual	22
Marion	22
Forum	22
abr@@	22
begun	22
chor@@	22
disruption	22
381	22
shor@@	22
Alg@@	22
osom@@	22
exceptionally	22
GF	22
new-@@	22
rent	22
combine	22
544	22
-free	22
ISH	22
sue	22
jar	22
seal@@	22
ik@@	22
Function	22
syner@@	22
478	22
adherence	22
responds	22
Great	22
-in	22
ão	22
candidates	22
379	22
WN@@	22
Rim@@	22
11.6	22
ha	22
Those	22
pool	22
combines	22
nr	22
636	22
sided	22
simply	22
preceded	22
consume	22
Inv@@	22
rene	22
NI@@	22
Path@@	22
928@@	22
kirchen	22
Plan@@	22
proto@@	22
90-@@	22
sealing	22
Slovak	22
PW@@	22
facing	22
High-@@	22
strat@@	22
VEN@@	22
IND@@	22
prudent	22
hol@@	22
ek@@	22
295	22
behalf	22
shar@@	22
Dol@@	22
tabs	22
entirely	22
plenty	22
concentrates	22
165@@	22
pam@@	22
unt	22
nod@@	22
21.0@@	22
Regular	22
chem	22
surger@@	22
adul@@	22
opportunity	22
whites	22
-time	22
Looking	22
Mineral	22
CO	22
amongst	22
stes	22
tised	22
origin@@	22
places	22
belong	22
exert	22
950	22
pper	22
velocity	22
conservative	22
oscopic	22
391	22
tening	22
Overview	22
Charles	22
Lov@@	22
sac	22
facilitation	22
39-0@@	22
β@@	22
ying	22
Oph@@	22
Authority	22
parents	22
Friday	22
780	22
export	22
liquids	22
interpreted	22
Porte	22
Alpes	22
bling	22
dispersed	22
116@@	22
foreseen	22
so-called	22
NHL	22
308	22
GD	22
relates	22
criterion	22
-3	22
Accounting	22
annually	22
12.6	22
assess@@	22
complementary	22
690	22
Cambridge	22
vertically	22
scientifically	22
BT@@	22
node	22
Economic	22
alternating	22
flip	22
Ral@@	22
ERA	22
Na	22
flora	22
refusal	22
border@@	22
conclude	22
Rand@@	22
York	22
11.3	22
over-@@	22
Low@@	22
myself	22
Sli@@	22
REACH	22
8-0	22
HI@@	22
remodel@@	22
509	22
490	22
upro@@	22
Representative	22
NOR@@	22
occasional	22
tuber@@	22
rounded	22
Rig@@	22
geb@@	22
ticals	22
dams	22
predomin@@	22
346	22
-02	22
substanti@@	22
ël	22
amus	22
exclusion	22
pow@@	22
ually	22
721	22
37.@@	22
FB@@	22
our-@@	22
Establishment	22
Riverside	22
solitary	22
Stability	22
Transparency	22
equipped	22
Affairs	22
u-@@	22
n-@@	21
screen	21
Pis@@	21
214@@	21
eon	21
WS	21
pol	21
χ@@	21
comments	21
AS-@@	21
š@@	21
ele	21
ná	21
tex	21
nell	21
Inte@@	21
erup@@	21
track	21
481	21
hul@@	21
ret	21
SI	21
Paseo	21
Wo@@	21
Cort@@	21
rent@@	21
pyr@@	21
ONS	21
symbol	21
propose	21
zin@@	21
Analytik	21
itäts@@	21
Bochum	21
cula	21
Work@@	21
Wel@@	21
Garden	21
Lake	21
op	21
hel@@	21
proceed	21
input	21
sistent	21
KIN@@	21
Black@@	21
zel	21
sk	21
Title	21
ood	21
IMPORTANT	21
texts	21
oles	21
Pare@@	21
39-@@	21
pressu@@	21
2400	21
wrapping	21
xp@@	21
IU@@	21
erior	21
К@@	21
н	21
deal@@	21
nish	21
absolutely	21
day@@	21
ße	21
Conversely	21
ff@@	21
digestion	21
fresh	21
13,@@	21
distributes	21
withdrawing	21
458	21
Ker@@	21
asters	21
Ja@@	21
disrup@@	21
Las@@	21
„	21
DN@@	21
prove	21
worry	21
ş@@	21
BC@@	21
Systems	21
416	21
orig@@	21
IVA	21
counselling	21
implant@@	21
alg@@	21
manufacturers	21
europa.eu	21
divide	21
Limit	21
shed@@	21
agreements	21
Temporary	21
ATS	21
0.87	21
dé@@	21
11.2	21
outbreak	21
America	21
toxins	21
Eisen@@	21
opposite	21
dissemination	21
leaving	21
Michael	21
damaging	21
lit	21
488	21
fallen	21
satur@@	21
adic	21
pulled	21
Continuous	21
11.0	21
CIS	21
bio	21
LL@@	21
everything	21
kap@@	21
She@@	21
offered	21
hor@@	21
video@@	21
vag@@	21
Apart	21
closer	21
Mid@@	21
carriers	21
diary	21
education	21
Range	21
manifest	21
fd@@	21
ken	21
560	21
Λ	21
bent	21
coverage	21
home@@	21
mention	21
Environmental	21
substantiated	21
jk	21
4th	21
charges	21
modul@@	21
Ra@@	21
cone	21
3x	21
Treat	21
Partners	21
,5	21
610	21
Dire@@	21
314	21
specimens	21
274	21
Meg@@	21
Technology	21
band	21
303	21
confer	21
10x@@	21
ribs	21
settings	21
Chief	21
14.3	21
graphy	21
UV@@	21
VAL@@	21
feasible	21
understands	21
carbohydrates	21
Social	21
enabling	21
Minor	21
usting	21
65-@@	21
Almost	21
breeders	21
comprises	21
Find	21
Tony	21
worn	21
nica	21
Nar@@	21
isn	21
amid	21
905	20
551	20
ve-@@	20
walls	20
Round	20
Hör@@	20
categor@@	20
602	20
ES-@@	20
Glut@@	20
Hair	20
Cream	20
impossible	20
constantly	20
exercising	20
000-@@	20
B1	20
55-@@	20
785	20
.01	20
Park@@	20
Ak@@	20
Benefit	20
killer	20
499	20
las	20
Getting	20
13.1	20
CIM@@	20
LER	20
read@@	20
display	20
describe	20
487	20
Ori@@	20
Minimum	20
pursuant	20
CARD	20
ger@@	20
Inspection	20
convenience	20
reminder	20
restore	20
image	20
FDA	20
Elevation	20
racing	20
Position	20
residence	20
aligned	20
booklet	20
mobility	20
icles	20
spec@@	20
PER	20
43-@@	20
670	20
1-4	20
25,000	20
Л@@	20
coni	20
sharp	20
heim@@	20
OME@@	20
icited	20
The@@	20
OH	20
Works	20
Six	20
Ring	20
oni	20
odes	20
deciding	20
start@@	20
ит@@	20
BA	20
400-@@	20
stal@@	20
Sel@@	20
explore	20
City@@	20
quarters	20
Meas@@	20
Sep@@	20
competence	20
ready-to-@@	20
introduce	20
BE@@	20
tumor	20
Planck	20
secure	20
Operation	20
Dom@@	20
Contrac@@	20
16.5	20
promotes	20
sulphur	20
confir@@	20
Count	20
445	20
Immediate	20
adapters	20
wastewater	20
Od@@	20
margins	20
gar@@	20
high-grade	20
checking	20
complaints	20
40,000	20
Related	20
081	20
errors	20
Grades	20
herd	20
AH	20
mint	20
Steering	20
enty-@@	20
commun@@	20
ilo	20
predefined	20
Booster	20
413	20
pering	20
strokes	20
Recovery	20
kinetic	20
DER@@	20
house	20
eh@@	20
к	20
Auto@@	20
225@@	20
PB	20
esome	20
378	20
Lau@@	20
poll@@	20
destroy	20
Rhein	20
power	20
dealing	20
transmitters	20
aks	20
eters	20
happening	20
TB	20
isted	20
tumors	20
rap@@	20
elines	20
Chem@@	20
straight@@	20
43.@@	20
449	20
EST@@	20
securely	20
gold	20
Four@@	20
County	20
498	20
FAC@@	20
silicone	20
NK@@	20
fax	20
obtaining	20
22-@@	20
appearing	20
cod@@	20
inserting	20
kittens	20
payments	20
WOR@@	20
scales	20
esi	20
Patrick	20
46-@@	20
Sach@@	20
relations	20
yes	20
borough	20
239	20
consequent	20
FU@@	20
altogether	20
GD@@	20
leg@@	20
Aff@@	20
Swit@@	20
anal	20
eves	20
Ju@@	20
define	20
translucent	20
349	20
ish-@@	20
Deep	20
Ali@@	20
ра@@	20
Station	20
anol	20
THAT	20
Mail	20
Royal	20
migration	20
т	20
second-@@	20
sweet@@	20
Content	20
cran@@	20
aled	20
fixed-@@	20
Malaysia	20
declines	20
employment	20
odon@@	20
mandate	19
waiting	19
aments	19
sity	19
03-@@	19
215@@	19
ament	19
Z-@@	19
555	19
stiff	19
expect	19
sque@@	19
porters	19
durable	19
aling	19
Rij@@	19
messages	19
Mas@@	19
10-0@@	19
Stat@@	19
computer@@	19
andro@@	19
NEC@@	19
elapsed	19
meaning	19
Centro	19
plant	19
Campus	19
Dir@@	19
commencement	19
980	19
IDS	19
Death	19
A-	19
shiel@@	19
prohibited	19
438	19
unrelated	19
Beli@@	19
ya	19
offer	19
626	19
EC-@@	19
890	19
finishing	19
reac@@	19
attempting	19
hardening	19
489	19
say	19
methodological	19
APC	19
YO@@	19
oi@@	19
t.	19
Used	19
Extreme	19
365	19
odds	19
Gi@@	19
Dal@@	19
nevertheless	19
AGEN	19
dram@@	19
della	19
Spanish	19
ALL@@	19
Comparison	19
Pall@@	19
Inc.	19
light@@	19
eter@@	19
maturity	19
missible	19
bitter	19
regulate	19
aiming	19
HAM@@	19
Metho@@	19
BR	19
blend	19
manship	19
retain	19
union	19
esti@@	19
foodstuffs	19
Hoo@@	19
IUS	19
Eg@@	19
heating	19
bir@@	19
ld@@	19
circuit	19
bury	19
zia	19
recipient	19
confer@@	19
ow@@	19
300-@@	19
methodology	19
100ml	19
complying	19
Tril@@	19
Internal	19
Retro@@	19
undertake	19
ographs	19
Sun@@	19
Up@@	19
il-@@	19
attended	19
evolution	19
Associated	19
rich	19
730	19
Mes@@	19
coon	19
Hat@@	19
Measuring	19
shallow	19
Translation	19
finally	19
intention	19
Return	19
Vall@@	19
les-@@	19
Ω@@	19
0,1	19
Aviation	19
burns	19
Martin	19
mandatory	19
cylinders	19
penile	19
ach-@@	19
hardware	19
slowed	19
exter@@	19
co-operation	19
9-0@@	19
Smart	19
ley-@@	19
tz@@	19
above-mentioned	19
thetic	19
words	19
crises	19
Hos@@	19
Mis@@	19
transported	19
illed	19
widening	19
326@@	19
shortest	19
436	19
limitation	19
payment	19
thinks	19
tee	19
AV	19
Jones	19
fts	19
paragraph	19
transferring	19
valves	19
costing	19
port	19
Ec@@	19
Advanced	19
ple-@@	19
governing	19
discretion	19
asive	19
Ach@@	19
Cim@@	19
proportionality	19
Wal@@	19
Soci@@	19
Richter	19
person@@	19
speci@@	19
aug@@	19
sur-@@	19
tant	19
gone	19
closures	19
Notes	19
namely	19
701	19
crip@@	19
dam@@	19
bap@@	19
Eas@@	19
sal	19
Reduce	19
Kund@@	19
chop@@	19
answer	19
Bou@@	19
workshops	19
La@@	19
dentist	19
FLO@@	19
rubbish	19
Haupt@@	19
ete	19
apparently	19
breasts	19
ge-@@	19
rapid@@	19
Solutions	19
standardised	19
answers	19
emar@@	19
ank	19
eting	19
ej	19
AER@@	19
IG	19
prime	19
heavily	19
explor@@	19
cal	19
centres	19
Directorate-General	19
SIDE	19
tag@@	19
pos	19
aning	19
Kg	19
competition	18
726	18
556	18
oring	18
Emil@@	18
forte	18
TRA	18
Sc@@	18
805	18
1.7@@	18
LON@@	18
familiar	18
numerous	18
Super@@	18
sponsors	18
oria	18
Bac@@	18
wild	18
reinforced	18
ASS	18
ucks	18
Fre@@	18
LI@@	18
lamps	18
bic	18
san@@	18
jug@@	18
.04	18
103@@	18
Méri@@	18
pler	18
positively	18
carriage	18
Sexual	18
skills	18
Consider	18
definitely	18
quite	18
START	18
icit	18
Action	18
learned	18
accomplished	18
GP	18
525	18
784	18
increasingly	18
unusually	18
453	18
OT	18
sever@@	18
в	18
yielded	18
ices	18
directive	18
Evidence	18
lapse	18
CET	18
harmless	18
DIRE@@	18
oncology	18
IO	18
adaptation	18
Vog@@	18
yan@@	18
EO@@	18
AMA	18
4.0@@	18
optional	18
403	18
trends	18
filling	18
participating	18
soles	18
fields	18
Rous@@	18
ideally	18
wrapped	18
-25	18
preventive	18
Indonesia	18
Г@@	18
addiction	18
him	18
DED	18
west	18
minority	18
elliptical	18
42-@@	18
Fern@@	18
ICE	18
Adding	18
dependency	18
invited	18
trading	18
ye	18
chron@@	18
ish@@	18
Branch	18
Δ@@	18
upward	18
P.@@	18
compression	18
615	18
1080	18
ecular	18
allowances	18
nominated	18
archiving	18
activating	18
Ton@@	18
Irish	18
grasp	18
Others	18
complexes	18
discussing	18
tea	18
encountered	18
MIT@@	18
reviews	18
Red@@	18
ethn@@	18
Vital	18
jud@@	18
RR@@	18
Short	18
protocols	18
ameters	18
accumulated	18
Matrix	18
-5	18
630	18
ena	18
Subsequently	18
TOS	18
Π	18
146@@	18
424	18
GENER@@	18
builds	18
oural	18
ital@@	18
hav@@	18
K.	18
GN	18
2A	18
l.	18
duced	18
Existing	18
roll	18
Def@@	18
lateral	18
Test@@	18
Vet@@	18
audits	18
Altern@@	18
incub@@	18
alle@@	18
ADA	18
309	18
platz	18
alizing	18
177@@	18
entional	18
ars	18
AH@@	18
confined	18
Fresenius	18
10-12	18
appl@@	18
screened	18
consolidated	18
penetrates	18
drawing	18
.02	18
thre@@	18
running	18
7,000	18
IGHT	18
Regional	18
Köl@@	18
447	18
Calcul@@	18
check-@@	18
31.0@@	18
Production	18
regional	18
delivering	18
üssel@@	18
terminated	18
ANTS	18
Orange	18
Diagnostics	18
reversed	18
inea	18
processed	18
penetrate	18
fir@@	18
phone	18
722	18
VC	18
THER@@	18
item	18
Milk	18
transmitting	18
izing	18
incompatible	18
Fig@@	18
chances	18
EGF	18
itting	18
667	18
Hearing	18
Philadelphia	18
ILL@@	18
intent	18
ving	18
gap	18
358@@	18
adequacy	18
Multi-@@	18
Av	18
skeleton	18
Parti@@	18
Vertrieb@@	18
Fem@@	18
approxim@@	18
quantitative	18
3355	18
horizontally	18
GA@@	18
extra-@@	18
strengthened	18
doubt	18
prohibit	18
Analys@@	18
ни@@	17
FH@@	17
ABC	17
rant	17
registered	17
Beau@@	17
iP@@	17
hoo@@	17
Inten@@	17
stays	17
illi@@	17
Thre@@	17
Parque	17
Θ@@	17
ams	17
turns	17
aquatic	17
38-@@	17
utilised	17
126@@	17
GLO@@	17
6-8	17
BRA@@	17
folding	17
Pep@@	17
deterior@@	17
lights	17
Network	17
5-7	17
Produced	17
omy	17
shared	17
CAS@@	17
set@@	17
nominal	17
ow	17
fulfilled	17
promotion	17
societies	17
physiology	17
promoting	17
ony	17
achieves	17
³	17
html	17
presumed	17
atis	17
Otherwise	17
iron@@	17
fibres	17
ulate	17
Flor@@	17
doing	17
FORM@@	17
Mu@@	17
GMT	17
491	17
Trou@@	17
P1	17
Kil@@	17
rhythms	17
Pip@@	17
IDA	17
thereto	17
overlapping	17
purchase	17
stance	17
asting	17
cel@@	17
focusing	17
Modified	17
beam	17
393	17
962	17
Protect	17
utation	17
399	17
erated	17
ler	17
write	17
Mol@@	17
reform	17
Double	17
blindness	17
Compar@@	17
opposed	17
particul@@	17
utility	17
Nine	17
bility	17
lighting	17
Rod@@	17
renov@@	17
ifen	17
microscope	17
viscosity	17
Gent@@	17
-01-@@	17
O2	17
loop	17
Being	17
Question@@	17
12.2	17
Hav@@	17
distinguish	17
practically	17
Bir@@	17
Amsterdam	17
Camp@@	17
broad@@	17
maintains	17
Ill@@	17
replacing	17
ay@@	17
OC@@	17
audit	17
Ring@@	17
CENTR@@	17
AMS	17
GH@@	17
afforded	17
557	17
699	17
Abr@@	17
Fixed	17
infrastructure	17
recurring	17
noticeable	17
je@@	17
implementing	17
Heat	17
Surveillance	17
km	17
chambers	17
1.20	17
doesn	17
panel	17
ications	17
CAP	17
specifications	17
Connect	17
launched	17
Wednesday	17
561	17
Patch	17
structur@@	17
highlighted	17
DT@@	17
Empty	17
bour@@	17
amo@@	17
Long@@	17
Lag@@	17
FROM	17
Opport@@	17
year-old	17
tane@@	17
ied	17
inscription	17
up-@@	17
zones	17
Gran	17
tain	17
horizontal	17
abilities	17
inspectors	17
OX@@	17
stab@@	17
DEN@@	17
addressing	17
ó	17
NR	17
ider@@	17
adhere	17
distinct	17
depth	17
learning	17
turned	17
SM@@	17
ulations	17
uber@@	17
culosis	17
ef	17
weaker	17
refrigeration	17
∆	17
free@@	17
forum	17
gin@@	17
missions	17
sistently	17
ogens	17
Conv@@	17
epil@@	17
line@@	17
controller	17
661	17
una	17
13.3	17
character	17
bi-@@	17
facility	17
comply	17
inform@@	17
DM	17
scar	17
calculations	17
Jer@@	17
«	17
rik	17
invert	17
fort	17
NT	17
din@@	17
hosted	17
income	17
Waterloo	17
resi@@	17
720	17
utter	17
stup@@	17
Protective	17
Pro	17
domains	17
mac	17
similarity	17
Self-@@	17
illa	17
inconsistent	17
Issues	17
thirsty	17
uate	17
longer-term	17
sadness	17
yb@@	17
water@@	17
catalogue	17
ultra@@	17
hrs	17
wider	17
efficiently	17
Shor@@	17
occasion	17
Hunter	17
ě	17
dossi@@	17
Holz@@	17
Budgetary	17
appropriations	17
Usu@@	17
lock@@	17
bind@@	17
29-@@	17
ud	17
ero	17
databases	17
subsidy	17
payable	17
č@@	17
hl@@	17
ano	17
rov@@	17
Animals	17
reliably	17
Dark	17
challenged	17
ode	17
Stad@@	16
bel	16
Hun@@	16
enda	16
1x@@	16
Taste	16
variants	16
Requirements	16
ahead	16
halves	16
notification	16
mel	16
closing	16
76-@@	16
additionally	16
reflex	16
2-5	16
1-1	16
pill@@	16
1986	16
1988	16
etric	16
Medicine	16
perim@@	16
etry	16
ji@@	16
529	16
utilisation	16
136@@	16
gains	16
CHE	16
eux	16
Marcel	16
charged	16
exposing	16
41-@@	16
Monthly	16
mo	16
engage	16
trip@@	16
911	16
approaches	16
Point	16
428	16
abling	16
EPC	16
portal	16
by-@@	16
voluntarily	16
707	16
ampton	16
umin@@	16
ision	16
Sco@@	16
482	16
Bru@@	16
possesses	16
Speak	16
Registry	16
Jus@@	16
sp	16
fails	16
occurrences	16
Together	16
test@@	16
П	16
budgets	16
Fan@@	16
habits	16
U-@@	16
telem@@	16
estic	16
tiz@@	16
-15	16
attending	16
sentence	16
exterior	16
seldom	16
soil	16
pm	16
Sant	16
pupils	16
files	16
enable	16
M2	16
Lut@@	16
Mem@@	16
communications	16
Training	16
Reinhard	16
exerc@@	16
deposits	16
conditioning	16
stration	16
transcription	16
CES	16
í	16
legislative	16
Schwe@@	16
surge	16
polystyrene	16
Provid@@	16
encia	16
TT@@	16
emerge	16
negatively	16
respected	16
translations	16
phil@@	16
formerly	16
Io@@	16
rated	16
register	16
Palazzo	16
style	16
martin@@	16
Australia	16
Det@@	16
renal@@	16
workers	16
quito	16
BOX@@	16
613	16
Italian	16
amel	16
tif	16
Michel	16
arbit@@	16
counter@@	16
Lind@@	16
Porto	16
incineration	16
Hein@@	16
volunteer	16
bit	16
VOL@@	16
MD	16
Frederi@@	16
PM	16
Ash@@	16
Ά@@	16
Line	16
fluctu@@	16
Bab@@	16
technological	16
caffeine	16
outstanding	16
pellets	16
Includes	16
gues	16
TRAD@@	16
generate	16
KE@@	16
ß@@	16
tile	16
Ф@@	16
125@@	16
detrimental	16
NC	16
graduation	16
93-@@	16
pocket	16
Written	16
beliefs	16
Proph@@	16
A5	16
Cooperation	16
casc@@	16
moves	16
KL@@	16
770	16
CH-@@	16
tried	16
overview	16
farms	16
solely	16
tool	16
ł	16
Elis@@	16
aper@@	16
Toc@@	16
illes	16
tracted	16
TAC@@	16
MN	16
delegation	16
optimisation	16
2.00	16
775	16
hand-@@	16
Gö@@	16
long-lasting	16
Tes@@	16
Fak@@	16
ticity	16
ώ@@	16
drain	16
architecture	16
2010	16
viability	16
straw@@	16
ert	16
net@@	16
ects	16
CAD@@	16
homogen@@	16
Pain@@	16
emp@@	16
Ma	16
ling@@	16
Pin@@	16
Fat	16
fame	16
Cham@@	16
jas	16
Van	16
Associations	16
institute	16
interpreting	16
ression	16
ry@@	16
fo	16
Call	16
hire	16
Mari@@	16
Making	16
910	16
ials	16
Conduct	16
558	16
me-@@	16
Sometimes	16
Triple	16
accommodation	16
thirds	16
Europ@@	16
ang	16
machine	16
Protection	16
tera	16
ise-@@	16
world	16
notifications	16
712	16
MOT@@	16
moved	16
diffusion	16
TON	16
dominant	16
pictures	16
fridge	16
»	16
US-@@	16
piston	16
ism@@	16
thood	16
Below	16
reacts	16
and-@@	16
bom@@	16
ania	16
Bed@@	16
01.01.@@	16
MAC	16
ack@@	15
eri	15
necessity	15
astr@@	15
Baus@@	15
kas	15
elle@@	15
friend	15
ges	15
diamond	15
excellent	15
kr@@	15
fying	15
CMS	15
584	15
aining	15
Background	15
revers@@	15
ples	15
beer	15
Codex	15
compens@@	15
dig@@	15
250@@	15
expanded	15
PSA	15
dreaming	15
microwave	15
links	15
mast	15
Ñ@@	15
ILLE	15
Scan@@	15
Psych@@	15
623	15
External	15
461	15
din	15
unfavourable	15
PEC@@	15
alkal@@	15
equals	15
1100	15
umb@@	15
Question	15
acceptance	15
notable	15
amorph@@	15
balloon	15
Differences	15
F.	15
Д@@	15
zur	15
tification	15
AME	15
microscop@@	15
three-year	15
North	15
two-thirds	15
amending	15
estive	15
lies	15
TOR	15
translation	15
aims	15
BB@@	15
prec@@	15
whichever	15
chan@@	15
ulp@@	15
personality	15
ambient	15
ologies	15
Whole	15
integr@@	15
ineffective	15
Relief	15
edel@@	15
teams	15
Ware	15
guarantee	15
Industry	15
offices	15
weak@@	15
Stage	15
pools	15
possess	15
682	15
Hospital	15
para-@@	15
VL@@	15
430	15
search	15
Albu@@	15
.06	15
learn	15
Signific@@	15
corpor@@	15
examining	15
institutional	15
11,@@	15
5th	15
MO	15
windows	15
herds	15
recall	15
522	15
tely	15
aceae	15
733	15
tt	15
06.@@	15
omed	15
GMBH	15
Alexandre	15
meant	15
newly-@@	15
beverages	15
POR@@	15
ao	15
Priest	15
UPD@@	15
ameter	15
fungus	15
Mark@@	15
work@@	15
764	15
Main@@	15
414@@	15
213@@	15
acity	15
hill	15
templates	15
EME@@	15
ss@@	15
Smith	15
571	15
‰	15
insignificant	15
Gerhard	15
thousand	15
Modi@@	15
Old	15
Bec@@	15
Ad	15
Exp@@	15
576	15
mally	15
labeled	15
ti-@@	15
cus@@	15
piper@@	15
ht@@	15
inh@@	15
MC	15
advises	15
ello	15
502	15
Tin@@	15
89-@@	15
interchangeable	15
SB@@	15
Bath	15
sensing	15
susp@@	15
questionable	15
benchmarking	15
570	15
656	15
Non	15
icks	15
Ol@@	15
Gall@@	15
bum@@	15
product-@@	15
operated	15
stating	15
Rub@@	15
dict@@	15
grape	15
awning	15
follow@@	15
Saint-@@	15
Conferences	15
texture	15
deficits	15
594	15
Burgos	15
word	15
FES@@	15
1.5@@	15
Jonas	15
meter	15
Warning	15
Artificial	15
calf	15
DP@@	15
Ath@@	15
ularly	15
specification	15
placement	15
fibre	15
Physical	15
synthes@@	15
BERG	15
ourt	15
Fis@@	15
beverage	15
Chap@@	15
indices	15
regulator	15
Til@@	15
-12	15
Agencies	15
chemie	15
EAS@@	15
establishing	15
Dam@@	15
berg@@	15
excessively	15
icking	15
з@@	15
Load	15
356@@	15
haematology	15
589	15
solve	15
Performance	15
10-20	15
Membership	15
∗	15
surg@@	15
gren	15
iler	15
thick	15
13.4	15
accidents	15
chin@@	15
shed	15
EFTA	15
meg@@	15
therapeu@@	15
Mou@@	15
468	15
associations	15
LIN@@	15
athing	15
Nil@@	15
É@@	15
dealt	15
ume	15
drag@@	15
226@@	15
aa	15
step@@	15
ize	15
Leave	15
Que@@	15
grown	15
434	15
automatically	15
facilitated	15
ká	14
El	14
Ther@@	14
Eng@@	14
scaling	14
ún	14
350@@	14
gas@@	14
º@@	14
euc@@	14
760	14
Lyme	14
terminals	14
nio	14
bas	14
Im	14
comfort	14
crucial	14
Gren@@	14
Belgian	14
informal	14
Adjust@@	14
v-@@	14
TL	14
back@@	14
anxi@@	14
Ley@@	14
dig	14
515	14
lifetime	14
Fast	14
zent@@	14
47-@@	14
Est@@	14
caring	14
felt	14
ulators	14
ord@@	14
577	14
ness@@	14
clarification	14
lead@@	14
boulevard	14
constituting	14
665	14
emptied	14
315@@	14
Srl	14
referring	14
innovation	14
under-@@	14
DL	14
decay	14
sticker	14
08.@@	14
20,@@	14
bourne	14
Carm@@	14
lightly	14
ffing	14
DEP@@	14
KAR@@	14
idol@@	14
oli	14
Compos@@	14
encouraging	14
Hoff@@	14
ll	14
ре@@	14
DH@@	14
6-7	14
center	14
convincing	14
bore	14
Get	14
Consolid@@	14
lump	14
Increasing	14
stakeholders	14
Produc@@	14
CLO@@	14
justed	14
triangular	14
wallet	14
wrap@@	14
523	14
fulness	14
rotation	14
prevalent	14
surgeons	14
SON@@	14
calibration	14
Fernando	14
714	14
chim@@	14
SR	14
donor	14
HAC@@	14
chemicals	14
virtually	14
air-@@	14
DJ	14
ograph@@	14
OK@@	14
Pop@@	14
Whether	14
IRA	14
224@@	14
correspon@@	14
Agriculture	14
SHAK@@	14
388	14
ет@@	14
.3	14
3.00	14
tered	14
Fif@@	14
observers	14
Device	14
ORD	14
437	14
Mobil@@	14
leukemia	14
Easy@@	14
doub@@	14
Χ@@	14
hur@@	14
SIZE	14
toilet	14
holds	14
ographically	14
Barbara	14
orities	14
jek@@	14
deliver@@	14
Prague	14
40.@@	14
accept	14
118@@	14
plaster	14
Ray@@	14
778	14
GV@@	14
Esp@@	14
downward	14
mented	14
ener	14
559	14
differentiated	14
stabilized	14
mobil@@	14
18.5	14
regulated	14
Vit@@	14
unavailable	14
repeti@@	14
4.	14
Amb@@	14
Requests	14
Korn@@	14
548	14
Squ@@	14
records	14
remind	14
Behavi@@	14
antioxidant	14
stimuli	14
595	14
Sed@@	14
Lew@@	14
Ø	14
Off@@	14
Eric	14
integration	14
presses	14
jo	14
Roy@@	14
aum@@	14
Under@@	14
presently	14
Cour@@	14
Standards	14
saturated	14
termin@@	14
chains	14
466	14
Experimental	14
oned	14
elation	14
His@@	14
680	14
Danish	14
Wisconsin	14
metallic	14
Nutrition	14
realise	14
Stock@@	14
wai@@	14
Fo@@	14
IONAL	14
two@@	14
effec@@	14
mistaken	14
vacuum	14
aj@@	14
cheek	14
106@@	14
branch	14
assume	14
has@@	14
tel-@@	14
rou@@	14
well-known	14
TAS@@	14
gross	14
Rules	14
Budget	14
metering	14
417	14
Reserve	14
clock	14
vice	14
versa	14
impair@@	14
Different	14
	14
1975	14
Sens@@	14
är	14
sized	14
self@@	14
ups	14
reminded	14
enables	14
alternatively	14
OU@@	14
library	14
locations	14
ayed	14
spreads	14
Baltic	14
Sl@@	14
Sec@@	14
Kor@@	14
glasses	14
Pink	14
relationships	14
thon	14
quicker	14
umann	14
UND	14
convened	14
logy	14
weighted	14
yrs	14
ative-@@	14
rationale	14
reddish	14
determines	14
60,000	14
2008-@@	14
malnutrition	14
Cross	14
trade	14
Gou@@	14
Telem@@	14
fighting	14
tope	14
certificate	14
pencil	14
562	14
Tig@@	14
annex	14
E.@@	14
Da	14
stock	14
ther	14
roc@@	14
accelerate	14
pped	14
rating	14
VM@@	14
Scienti@@	14
worth	14
Smoking	14
emaker	14
än@@	14
708@@	14
sturb@@	14
BH	14
aud@@	14
appreci@@	14
mini-@@	14
stone	14
sm@@	14
licensing	14
ffs	14
isms	14
Amin@@	14
Alber@@	14
prefer@@	14
Ca	14
Sunday	14
EE@@	14
Direc@@	14
Cap	14
Recommendation	14
ryl@@	14
Expert	14
ari	14
Various	14
Dental	14
655	14
618	14
differ@@	14
crushing	14
VAC	14
Berlin-@@	13
Chemie	13
TIT@@	13
S.L.	13
opho@@	13
tooth@@	13
platform	13
ule	13
279@@	13
expansion	13
indirectly	13
Apr@@	13
wing	13
-10	13
orgasm	13
Gre@@	13
ems	13
686	13
ci	13
whatever	13
invented	13
Half-@@	13
539	13
oxides	13
drecht	13
subsi@@	13
lad@@	13
831	13
521	13
Don@@	13
150-@@	13
863	13
Utrecht	13
Restric@@	13
aker	13
East@@	13
suc@@	13
Proc@@	13
amb@@	13
DAT@@	13
ч@@	13
itals	13
ner@@	13
dinner	13
week@@	13
aked	13
inver@@	13
grab	13
ен@@	13
д	13
676	13
spite	13
Consultation	13
assuring	13
language	13
547	13
374	13
Bai@@	13
549	13
vel@@	13
regulators	13
PORT	13
heading	13
Accel@@	13
claims	13
pt	13
driven	13
erted	13
super-@@	13
rub	13
totally	13
10-15	13
spaces	13
Market	13
bac@@	13
curves	13
Accordingly	13
forced	13
3.	13
furniture	13
strategies	13
Alfred	13
546	13
annex@@	13
weight@@	13
-40	13
branded	13
-7	13
graphics	13
taught	13
EPS	13
ή	13
standardisation	13
ación	13
34.@@	13
well-established	13
baum@@	13
Kör@@	13
aur@@	13
ressed	13
474	13
strange	13
abo	13
Ed@@	13
named	13
513	13
imentary	13
Zon@@	13
distant	13
seriously	13
iv	13
Copenhagen	13
thalm@@	13
enne	13
connects	13
ideas	13
raw	13
669	13
ruption	13
misuse	13
BAR@@	13
offers	13
asp@@	13
pressures	13
HEL@@	13
7-8	13
pay	13
module	13
satisfied	13
defining	13
Carbon	13
Confir@@	13
triangle	13
641	13
822	13
kat@@	13
illumination	13
ICK@@	13
rock	13
п	13
Little	13
870	13
ged	13
positional	13
Buck@@	13
649	13
WEI@@	13
MC@@	13
dense	13
destroys	13
massage	13
tranquill@@	13
pick	13
710	13
subscription	13
cross@@	13
lever	13
Combining	13
THIS	13
ultimately	13
774	13
reset	13
leaf	13
hat@@	13
clip	13
Emergency	13
CO-@@	13
ANY	13
claim	13
unter@@	13
Documents	13
arom@@	13
engaging	13
big@@	13
Progress	13
ave	13
Tours	13
explored	13
reserved	13
selecting	13
defended	13
Б	13
Or	13
306	13
largest	13
Functional	13
ville	13
Sofia	13
ementary	13
quarterly	13
creams	13
usable	13
percentages	13
NEX@@	13
tigung	13
yoghurt	13
freely	13
fring@@	13
Bis@@	13
attain	13
Previously	13
terminology	13
Greater	13
manageable	13
twenty	13
loos@@	13
2C	13
Experts	13
45.@@	13
strategic	13
arization	13
hunger	13
wiped	13
vert	13
Kro@@	13
Seine	13
anatom@@	13
blur@@	13
constituent	13
dissoci@@	13
metric	13
ls@@	13
fications	13
Planc@@	13
sier@@	13
yielding	13
97-@@	13
ilt	13
Technique	13
Å@@	13
ų	13
Nem@@	13
teas@@	13
sleeve	13
zion@@	13
IRE	13
477	13
fus@@	13
Sugar	13
ST-@@	13
afternoon	13
Lib@@	13
Eight	13
Georges	13
excitement	13
eze	13
total@@	13
Contents	13
No.@@	13
Weekly	13
ago@@	13
Bill@@	13
476	13
91-@@	13
tist	13
questioned	13
mach@@	13
demands	13
Controller	13
durability	13
Bar	13
identifiable	13
ulent	13
BRO@@	13
pix	13
dating	13
protecting	13
Nat@@	13
azi@@	13
distribute	13
149@@	13
pupil	13
silic@@	13
actually	13
PROGR@@	13
tailored	13
Ctr@@	13
membran@@	13
markets	13
PF	13
fast@@	13
lower-@@	13
embryos	13
Colour	13
dev@@	13
ás	13
1.30	13
manifestation	13
1985	13
Starter	13
Tube	13
one-third	13
Wör@@	13
Ve@@	13
fi	13
solicited	13
653	13
810	13
evo@@	13
Thom@@	13
Schedule	13
down-@@	13
bibli@@	13
jointly	13
file	13
conception	13
dered	13
cerv@@	13
flakes	13
crossed	13
Dru@@	13
swimming	13
Whit@@	13
212@@	13
alternatives	13
posed	13
cloth	13
514	13
irregularities	13
spor@@	13
tability	13
lived	13
eps	13
bowl	13
lt	13
Stress	13
Interested	13
atica	13
drafting	13
Typical	13
Saf@@	13
Amen@@	13
148@@	13
ř	13
sec@@	13
Administrative	13
integrity	13
lick	13
Discussion	13
SME@@	13
Morning	13
employ	13
jav@@	13
664	12
order@@	12
integrate	12
Stephen	12
≈	12
appropri@@	12
biology	12
tom	12
15.5	12
QM	12
dressing	12
enting	12
Cum@@	12
Estim@@	12
697	12
Zealand	12
Chro@@	12
mob@@	12
902	12
LIFE	12
deeply	12
objec@@	12
cry@@	12
conservation	12
Louise	12
assured	12
edible	12
achievable	12
Bol@@	12
Ü@@	12
borg	12
diam@@	12
commenced	12
Nij@@	12
Emb@@	12
alled	12
236@@	12
582	12
STAR@@	12
Except	12
ní	12
1750	12
504	12
Big	12
629	12
wo	12
Conver@@	12
Resist@@	12
Opened	12
Sali@@	12
relatives	12
edi@@	12
1991	12
Ami@@	12
744	12
nightmare	12
1997-@@	12
Grad@@	12
864	12
Spi@@	12
9,000	12
LIM@@	12
stellung	12
shift	12
mann-@@	12
pon@@	12
authorization	12
vention	12
-0	12
vice-@@	12
Sensi@@	12
sely	12
Green	12
.07	12
Wall@@	12
Lack	12
cor	12
mg@@	12
Contribution	12
	12
lag@@	12
revise	12
Memory	12
RAD@@	12
Operational	12
Raymond	12
managing	12
equilibrium	12
gem	12
773	12
Ave	12
Persons	12
submitting	12
clearer	12
Communications	12
blades	12
ements	12
lia	12
fractions	12
sow	12
609	12
fores@@	12
gible	12
fail@@	12
matches	12
hates	12
781	12
ft-@@	12
749	12
1989	12
losses	12
resumption	12
Naf@@	12
ne-@@	12
Biog@@	12
Milan	12
94-@@	12
wasting	12
Tap@@	12
engineering	12
511	12
conceive	12
vet@@	12
Leiden	12
answered	12
feedback	12
bend	12
Pa	12
83@@	12
Keith	12
sheet	12
443	12
PhD	12
ack	12
Oblig@@	12
GAL@@	12
Berkeley	12
lean	12
shorten	12
573	12
Breda	12
ζ@@	12
produk@@	12
tio	12
remnants	12
2200	12
Provision	12
1.50	12
welcomed	12
prominent	12
Category	12
Variations	12
sticks	12
stronger	12
596	12
1983	12
stan@@	12
its@@	12
critically	12
ICO@@	12
Separate	12
tele@@	12
OFF	12
meets	12
s.r.@@	12
Lang@@	12
Without	12
796@@	12
hlen	12
000.00	12
HAL@@	12
confirms	12
timetable	12
tte	12
constitutional	12
Parts	12
wrong	12
paraly@@	12
assuming	12
Ful@@	12
infrared	12
roll@@	12
specialists	12
888	12
able@@	12
time@@	12
Mass	12
allocated	12
change@@	12
100.00	12
Proposal	12
supplier	12
kel@@	12
listing	12
struc@@	12
611	12
German@@	12
ressing	12
1150	12
phr@@	12
glit@@	12
lei@@	12
escape	12
Basic	12
't	12
51-@@	12
senior	12
Auditors	12
unilateral	12
bundle	12
cans	12
Typically	12
677	12
presumably	12
660	12
dream	12
SO	12
gaining	12
Pent@@	12
Transmission	12
Mary	12
loo@@	12
72@@	12
Paper	12
ín	12
aths	12
Phone	12
error	12
ethnic	12
signalling	12
tightening	12
England	12
Mum@@	12
pumping	12
dye	12
sively	12
Gb@@	12
Impro@@	12
vements	12
arrange	12
demographic	12
2-6	12
static@@	12
15,@@	12
ticle	12
	12
Kaw@@	12
asaki	12
c.	12
ν	12
unas	12
flex@@	12
fit	12
moist@@	12
blin@@	12
funding	12
925	12
Brussel@@	12
lands	12
trains	12
reimbursement	12
Blu@@	12
960	12
CM	12
Stir	12
deadlines	12
179@@	12
spreading	12
ease	12
INTERNATIONAL	12
agenci@@	12
particulars	12
Max@@	12
caught	12
hand@@	12
case-@@	12
ks@@	12
1111	12
strand	12
€	12
yields	12
gion	12
59-@@	12
energy-@@	12
tters	12
206@@	12
enses	12
font	12
gy-@@	12
interrup@@	12
Masters	12
diverse	12
buildings	12
lift	12
Third	12
ETA	12
enzy@@	12
sci@@	12
We	12
hair@@	12
Natural	12
forwarded	12
netic	12
517	12
1.6@@	12
cuts	12
Value	12
sung	12
542	12
judgment	12
Den@@	12
Track	12
scre@@	12
ön@@	12
cautious	12
neg@@	12
converts	12
owing	12
.2	12
RV	12
450@@	12
introducing	12
al-	12
disappearance	12
Relev@@	12
ª	12
commitments	12
Access	12
tapping	12
452	12
Dap@@	12
15,000	12
Stim@@	12
thing	12
BU@@	12
ump@@	12
inci@@	12
kop@@	12
ex-@@	12
Rout@@	12
620	12
continuity	12
D1	12
aven@@	12
calcul@@	12
SET	12
518	12
progresses	12
700@@	12
LEX@@	12
valuable	12
ground	12
lv	12
pooling	12
SZ@@	12
expectations	12
-G@@	12
M3	12
folded	12
238@@	12
science	12
Hamburg	12
And	12
computer	12
installation	12
argued	12
Fig	12
bitch	12
aba	12
112@@	12
DI	12
FT@@	12
Proto@@	12
Society	12
Evening	12
Goo@@	12
eer	12
vie	12
496	11
No.	11
Investigation	11
quad@@	11
cler@@	11
ary-@@	11
compensate	11
ANA	11
Marburg	11
grouped	11
rein@@	11
Tec@@	11
ico	11
fici@@	11
DEUT@@	11
740	11
arius	11
638	11
ulative	11
esa	11
hak@@	11
aided	11
storing	11
add@@	11
612	11
mistake	11
expiration	11
Sections	11
termed	11
Soft	11
reasonably	11
anto@@	11
Lanc@@	11
kun@@	11
commercially	11
Mental	11
magn@@	11
administr@@	11
cable	11
ee	11
pling	11
cy	11
regulates	11
Standing	11
Cu@@	11
1984	11
Fen@@	11
slo@@	11
.05	11
Ministers	11
Inclusion	11
concludes	11
Develop	11
check@@	11
book@@	11
Now@@	11
teller	11
day-@@	11
on-demand	11
fund	11
colleagues	11
Episo@@	11
604	11
kar@@	11
KA@@	11
Barn@@	11
Castle	11
einer	11
709	11
annexed	11
propag@@	11
stretch	11
VAT@@	11
219@@	11
illuminated	11
gary	11
grant	11
Drinking	11
Show	11
exi@@	11
palm	11
execution	11
ampli@@	11
anic	11
Either	11
deposited	11
Burk@@	11
git@@	11
forget@@	11
Ze@@	11
569	11
Radio@@	11
acted	11
cology	11
silent	11
PUBL@@	11
sky	11
emerged	11
023@@	11
INA	11
Hamilton	11
lodged	11
Setup	11
Prov@@	11
Romano	11
writing	11
resolving	11
Child@@	11
CY	11
native	11
ku	11
certi@@	11
Write	11
clarified	11
Director-General	11
ten-@@	11
Thor@@	11
...............	11
Comments	11
achievements	11
localized	11
interacting	11
aco	11
repro@@	11
supplemented	11
2,0@@	11
Vin@@	11
Wim@@	11
competi@@	11
idad	11
stol	11
tail	11
Lösung	11
aded	11
ago	11
portive	11
Serr@@	11
atia	11
sur	11
528	11
tization	11
36.@@	11
stit@@	11
Tier@@	11
si	11
networking	11
devoid	11
439	11
Guil@@	11
markings	11
visitors	11
SIT@@	11
put@@	11
curren@@	11
slide	11
advantages	11
favour@@	11
Maria	11
Lep@@	11
CONTRO@@	11
Deg@@	11
ends	11
oy@@	11
ω	11
Included	11
327@@	11
DD@@	11
Organization	11
incl	11
skim@@	11
favor	11
employing	11
forecasts	11
553	11
circum@@	11
Dear	11
authorized	11
viable	11
precurs@@	11
MANN	11
secured	11
User	11
Field	11
satisfying	11
TIME	11
intern@@	11
igen@@	11
owner	11
SPA	11
constitu@@	11
trunk	11
erson	11
UST@@	11
Plo@@	11
Paul@@	11
els@@	11
coffee	11
1000@@	11
ache@@	11
officer	11
ident	11
gradu@@	11
repl@@	11
hungry	11
15-20	11
stature	11
show@@	11
Bring	11
635	11
563	11
analogous	11
ells	11
fundamental	11
rings	11
Cast@@	11
ensity	11
constitutes	11
230@@	11
medium-sized	11
799	11
EW	11
ew@@	11
Published	11
Holland	11
Tech@@	11
underneath	11
impulse	11
ZAR	11
massive	11
til@@	11
ă	11
really	11
ety-@@	11
pages	11
707@@	11
organise	11
678	11
án@@	11
bab@@	11
pour	11
tible	11
.08	11
771	11
Turku	11
hole	11
Al-@@	11
25th	11
contag@@	11
Maxim@@	11
acquisition	11
Log@@	11
ã@@	11
lifer@@	11
Bry@@	11
PY@@	11
diminish	11
ZE@@	11
dre@@	11
PU	11
abrasion	11
Block	11
NES@@	11
multidisciplinary	11
recruit	11
473	11
hips	11
graph	11
Fes@@	11
umen	11
explains	11
Cra@@	11
clinics	11
Fees	11
recognized	11
15-minute	11
514@@	11
contracting	11
Sé@@	11
mom@@	11
etc.	11
Ask@@	11
awake	11
illustrated	11
fortified	11
SOP	11
lemagne	11
AAD	11
ECE	11
140@@	11
104@@	11
GM	11
ads	11
10th	11
lifestyle	11
expects	11
plo@@	11
Liechtenstein	11
Hom@@	11
Appe@@	11
arance	11
contracts	11
reproduce	11
Proz@@	11
eman@@	11
Genti@@	11
referenced	11
recor@@	11
rich@@	11
1,2	11
3,4	11
gr	11
Thursday	11
Whe@@	11
30,000	11
Sv@@	11
8-0@@	11
altering	11
happened	11
on-going	11
encourage	11
coefficient	11
Tran@@	11
junction	11
ining	11
INI	11
sof@@	11
2007-@@	11
CIR@@	11
additives	11
floating	11
Ecu@@	11
King@@	11
Twelve	11
Noc@@	11
wool	11
nam@@	11
DAR@@	11
Ix@@	11
column	11
Pack@@	11
Walk	11
bach	11
exp@@	11
à	11
analys@@	11
Jen@@	11
worried	11
britannien	11
ed.com	11
nic	11
Zone	11
Electronic	11
Dra@@	11
Middle	11
pian	11
tips	11
Export	11
earliest	11
XY@@	11
attend	11
Estimated	11
rite	11
POS	11
Vol@@	11
KER@@	11
Avel@@	11
gou@@	11
▪	11
German	11
qualit@@	11
REG@@	11
brochure	11
whol@@	11
scr@@	11
ost	11
destroyed	11
vocal	11
Compati@@	11
Syl@@	11
⏐	11
TRIP@@	10
liber@@	10
Silicon	10
stud@@	10
zu@@	10
W-@@	10
BET@@	10
ried	10
adhered	10
MEN@@	10
Cold	10
Few	10
posture	10
Water@@	10
Marino	10
vegetable	10
288@@	10
pover@@	10
fixation	10
diagnose	10
rum	10
532	10
adjacent	10
knew	10
eleven	10
965	10
requesting	10
electric	10
advances	10
ABLE	10
faces	10
ado	10
ores	10
consultant	10
Bev@@	10
vast	10
C1	10
clips	10
prognosis	10
Kob@@	10
certification	10
tolerant	10
inks	10
Min@@	10
CONT@@	10
Short-@@	10
sand@@	10
Ein@@	10
stein@@	10
overlap	10
stabilise	10
grading	10
COUNCIL	10
abandoned	10
ops	10
Trade	10
Around	10
suck	10
biscuits	10
hour@@	10
quin	10
successive	10
Н@@	10
ан@@	10
Chal@@	10
counted	10
715	10
Required	10
Carry	10
contraction	10
law	10
seated	10
alleviate	10
cow	10
chapter	10
Yel@@	10
Veli@@	10
restoration	10
Flo@@	10
Rech@@	10
Agreement	10
TAC	10
references	10
385	10
Die@@	10
personalities	10
SPS	10
questionnaires	10
replac@@	10
Scandinavia	10
remedy	10
Berg	10
218@@	10
airy	10
calm	10
MPs	10
Rin@@	10
Sap@@	10
854	10
TRAN@@	10
SAL@@	10
harmonized	10
Conclusions	10
ordinary	10
Hay@@	10
C2	10
wheat	10
150,000	10
akis	10
addresses	10
adolesc@@	10
kro@@	10
þ@@	10
Cox	10
stant	10
nd	10
tighten	10
.info	10
erve	10
triggers	10
HU	10
Fusion	10
typing	10
donations	10
labor@@	10
verified	10
semble	10
soy	10
steadily	10
Stra@@	10
accompany	10
membership	10
snap	10
var	10
itability	10
526	10
Reporting	10
melt	10
Fontana	10
915	10
hardened	10
m.@@	10
Jean	10
PAL	10
nutrients	10
atrice	10
nm	10
lacks	10
derive	10
sings	10
L.@@	10
BB	10
slip	10
ishes	10
479	10
bino	10
Jung@@	10
Arg@@	10
hosp@@	10
intentional	10
Ell@@	10
treats	10
satisfaction	10
014@@	10
Plac@@	10
outbreaks	10
hospitals	10
Notwithstanding	10
42.@@	10
facilitating	10
Fra@@	10
couple	10
SQ@@	10
capital	10
lifting	10
immersion	10
Highly	10
reliability	10
benefiting	10
ë@@	10
Mec@@	10
x-ray	10
reich	10
Newcastle	10
sold	10
Reyk@@	10
brings	10
abroad	10
-B@@	10
ann	10
Lock	10
Exclu@@	10
coarse	10
Cryp@@	10
Nec@@	10
Josef	10
providers	10
left-@@	10
eses	10
Connec@@	10
ego	10
installed	10
Pat@@	10
pled	10
mist	10
thin@@	10
logistical	10
relieved	10
Mc@@	10
Drink	10
Viet@@	10
believe	10
genous	10
DUC@@	10
solv@@	10
inspired	10
wart	10
designs	10
Half	10
229@@	10
Face	10
algorithm	10
transl@@	10
ints	10
761	10
corporate	10
rd@@	10
fulfil	10
hof	10
in-house	10
531	10
Nile	10
urs@@	10
170@@	10
KIT	10
corner	10
giant	10
xation	10
xn@@	10
MAR	10
Instead	10
SCH	10
plantation	10
Subsi@@	10
Watson	10
Subject	10
commit	10
ü@@	10
osy@@	10
revisions	10
timet@@	10
esz@@	10
220@@	10
PAL@@	10
arances	10
abundant	10
entia	10
screwed	10
.de	10
Ö@@	10
Bundes@@	10
confirming	10
raises	10
DB	10
Wiesbaden	10
arena	10
Formul@@	10
deteriorated	10
Oil	10
cooling	10
spiration	10
sg@@	10
NET	10
Leg	10
everyday	10
Sweet	10
unpleasant	10
798	10
translated	10
1981	10
axis	10
snor@@	10
Impl@@	10
2x	10
lus@@	10
sort	10
finish	10
non-smoking	10
use-@@	10
visiting	10
845	10
WAT@@	10
Long-@@	10
stead	10
jos@@	10
Amber	10
itch	10
508	10
pharmaceu@@	10
ror@@	10
Pharmaceu@@	10
04.@@	10
pit	10
Strong	10
F1	10
ati	10
corn	10
Zir@@	10
1999-@@	10
Wood@@	10
668	10
stria	10
restrict	10
Officer	10
Education	10
inen	10
premises	10
Setting	10
SL	10
liberated	10
Cos@@	10
vitam@@	10
flexibility	10
calls	10
gio	10
powered	10
faulty	10
Emo@@	10
quality-@@	10
37-@@	10
enquiries	10
encoded	10
POL@@	10
Measurement	10
Dev@@	10
500-@@	10
incorrect	10
Modification	10
regeneration	10
signature	10
ement@@	10
suspend	10
pulses	10
634	10
762	10
param@@	10
LD	10
li	10
intellectual	10
Sig@@	10
wri@@	10
Budgets	10
grip	10
ple	10
Concerning	10
Thomas	10
606	10
Director@@	10
elsewhere	10
scopy	10
mirror	10
Ass@@	10
ning@@	10
Dip@@	10
manager	10
Tuesday	10
ku@@	10
ander@@	10
modest@@	10
Are	10
967	10
eased	10
Designed	10
elong@@	10
creating	10
Older	10
reinforcing	10
19,@@	10
noise	10
ECB	10
stuck	10
Square	10
interpreters	10
rets	10
favoured	10
rib	10
26.5	10
boys	10
triggering	10
circular	10
research-@@	10
rection	10
Tend@@	10
manually	10
heterogeneous	10
Gabriel	10
Bucharest	10
ij@@	10
catch	10
bee	10
Regardless	10
feature	10
1010	10
Pf@@	10
programs	10
Room	10
accep@@	10
compartments	10
Franç@@	10
mark@@	10
inn@@	10
novel	10
filters	10
Whenever	10
precision	10
ented	10
gated	10
Pou@@	10
transitional	10
DY	10
Cur@@	10
ACH@@	10
nies	10
enig@@	10
Bd	10
Tubes	10
erotic	10
zy	10
estimation	10
Defin@@	10
74-@@	10
stabilization	10
693	10
178@@	10
Watch	10
49.@@	10
ingen	10
124@@	10
ità	10
inv@@	10
GEA	10
identi@@	10
helped	10
Personal	10
plastics	10
recognising	10
IT-@@	10
pleased	10
Wales	10
44.@@	10
uss	10
NT@@	10
tish	10
587	10
cigarette	10
Gram@@	10
Extension	10
bar-@@	10
agrees	10
allowance	10
ologie	9
658	9
ds@@	9
von-@@	9
atomic	9
Mart@@	9
api@@	9
enterprises	9
UP	9
TING	9
ash@@	9
len	9
lity	9
spirit	9
potence	9
admitted	9
lots	9
0049	9
644	9
restructuring	9
ORG@@	9
separ@@	9
Established	9
long-standing	9
recomm@@	9
Hans	9
Rol@@	9
Jo@@	9
Nova	9
ec	9
strenuous	9
Guide	9
bb@@	9
ration@@	9
require@@	9
plug	9
Cover@@	9
Provide	9
SMEs	9
vable	9
flashes	9
Diff@@	9
ß	9
adjustable	9
Inst@@	9
MU@@	9
reception	9
719	9
perspective	9
Surface	9
ICT@@	9
subjec@@	9
Birth	9
ά	9
Interpretation	9
09.@@	9
sweets	9
679	9
essen	9
Borgo	9
Michele	9
G20	9
vin	9
utilizing	9
tendencies	9
gravity	9
ativ@@	9
announced	9
Useful	9
583	9
idate	9
994	9
Private	9
pollen	9
estim@@	9
remote	9
Beta	9
EU-@@	9
replaces	9
pi	9
№	9
GE@@	9
lich	9
2007@@	9
Psy@@	9
ENCY	9
reper@@	9
Rai@@	9
eisen@@	9
Collect	9
pression	9
Hei@@	9
den-@@	9
FIS@@	9
recycling	9
Communication	9
Proceed	9
risen	9
Francisco	9
Sj@@	9
fiers	9
convert	9
achievement	9
malaria	9
hall	9
J-@@	9
powders	9
CF@@	9
high@@	9
KER	9
ise@@	9
Bureau	9
944	9
Successful	9
Jacques	9
Char@@	9
84-@@	9
Must	9
Representatives	9
terrorism	9
137@@	9
-D@@	9
desk	9
fies	9
mates	9
grand	9
itzer	9
Light@@	9
monitors	9
Bur@@	9
eons	9
motivated	9
DM@@	9
inar	9
diction	9
ASH@@	9
tril@@	9
dres@@	9
icia	9
chart	9
1234@@	9
Weg@@	9
706@@	9
pp	9
Likewise	9
vapour	9
Technologi@@	9
Young	9
win	9
PCs	9
Transparent	9
delegations	9
umen@@	9
Versailles	9
outdoors	9
facilitates	9
Aval@@	9
598	9
Ronda	9
murm@@	9
appointments	9
silver	9
gases	9
erce	9
vil	9
Wür@@	9
salv@@	9
628	9
boiling	9
consumers	9
1700	9
Loh@@	9
threats	9
Rates	9
ethical	9
corporation	9
roughly	9
ing.	9
advising	9
Find@@	9
Unlike	9
dol@@	9
restricting	9
Ш@@	9
м	9
MOD@@	9
liability	9
SK	9
Neuss	9
tizing	9
Changing	9
mere	9
ush@@	9
reused	9
ZEN@@	9
concer@@	9
Quark	9
absorb	9
314@@	9
ety@@	9
sauce	9
mos	9
ε	9
fro@@	9
Indeed	9
lamp	9
Particularly	9
electronically	9
ski@@	9
777	9
recording	9
aper	9
107@@	9
alogue	9
Tat@@	9
pois@@	9
Cac@@	9
brevi@@	9
ä	9
Hannes	9
WA@@	9
fis@@	9
shells	9
penetrated	9
dail@@	9
XL	9
alongside	9
7-14	9
ren-@@	9
positioned	9
Flem@@	9
neural	9
iny	9
Gesellschaft	9
Weg	9
bathing	9
Cat	9
coherent	9
phop@@	9
sign@@	9
shower	9
Move	9
927	9
240@@	9
geographical	9
Girona	9
AIN	9
itment	9
rio	9
comple@@	9
preferential	9
presidency	9
EUROPA	9
widen	9
waist	9
1976	9
Revenue	9
class@@	9
black@@	9
-8	9
copic	9
há@@	9
Isab@@	9
Asi@@	9
heat-@@	9
Licht@@	9
shopping	9
sprayed	9
corrective	9
everyone	9
Mau@@	9
Nin@@	9
viewed	9
Past@@	9
exagger@@	9
Rhin@@	9
Karel	9
Advis@@	9
withhold	9
verification	9
deno@@	9
C3	9
resul@@	9
conferred	9
STER@@	9
Availability	9
144@@	9
ention	9
COUR@@	9
periph@@	9
ovo	9
joining	9
uz	9
Security	9
eine	9
è@@	9
11.00	9
pointed	9
idae	9
hero@@	9
inus	9
Types	9
ULT	9
fix	9
graphic	9
vertical	9
filtered	9
Tul@@	9
unity	9
imper@@	9
anks	9
MANAG@@	9
839	9
reorganisation	9
approached	9
190@@	9
banana	9
51@@	9
70,000	9
Peru	9
2,500	9
21.06.@@	9
lunch	9
0100	9
Ξ	9
349@@	9
extending	9
wears	9
Hospit@@	9
strands	9
pertaining	9
transit	9
Intermediate	9
challenging	9
omitted	9
detached	9
746	9
Zero	9
early-@@	9
tras@@	9
Agent	9
coinc@@	9
823	9
save	9
Outstanding	9
casing	9
Alter@@	9
Secretary	9
05-@@	9
hesitation	9
DP	9
interpret	9
exerted	9
minus	9
Specifically	9
connecting	9
Balance	9
ei	9
isse	9
installations	9
äl@@	9
NG	9
complies	9
accepts	9
749@@	9
ingham	9
supplying	9
gov.@@	9
teaching	9
unpredictable	9
remarkable	9
Text	9
Miscellaneous	9
6.	9
abo@@	9
Os@@	9
Project	9
rer	9
ama	9
alas	9
ometry	9
Poor	9
izers	9
ernal	9
emph@@	9
matching	9
t-	9
White@@	9
articles	9
Success	9
Mack@@	9
1979	9
Out	9
zable	9
Ä@@	9
scalp	9
Fay@@	9
director	9
Accep@@	9
ativity	9
-site	9
on.@@	9
zation	9
servers	9
SB	9
arranged	9
produc@@	9
muti@@	9
instruments	9
mou@@	9
lex@@	9
dog@@	9
assure	9
delegate	9
weather	9
skilled	9
SAINT	9
tracing	9
360@@	9
586	9
Dipl@@	9
osen	9
Approxim@@	9
soc@@	9
617	9
5.0@@	9
wards	9
unting	9
Hil@@	9
Manuel	9
Fili@@	9
hol	9
influencing	9
LAN	9
Answers	9
Windsor	9
Last	9
pus	9
Ba@@	9
reco@@	9
Life@@	9
Present	9
Aut@@	9
35,@@	9
227@@	9
damp	9
renew@@	9
erium	9
ter-@@	9
wear@@	9
SON	9
Measures	9
Pour	9
brook	9
cip@@	9
Kat@@	9
albeit	9
iras	9
bra	9
Saturday	9
ITED	9
µ	9
ð	9
iding	9
anywhere	9
T.	9
B.@@	9
10-minute	9
stamped	9
Have	9
05.@@	9
multi	9
oriented	9
Complex	9
inst@@	9
period@@	9
imbalances	9
Manufacturers	9
aters	9
guaranteed	9
Ved@@	9
TZ@@	9
Darmstadt	9
Depend@@	9
1978	9
Clock	9
B6	9
deprivation	9
MV@@	9
anta	9
eity	9
alen	9
Receiving	9
timeframe	9
thinner	9
Eating	9
optimising	9
tense	9
chocolate	9
825	9
cli@@	9
multiplicity	9
boost	9
Helsin@@	9
sticking	9
Claus	9
470@@	9
crude	9
uris@@	9
iter@@	9
microorganisms	9
waves	9
ant-@@	9
whi@@	9
lb	9
formative	9
ju	9
inser@@	9
Body@@	9
suffers	9
right@@	9
iii	9
34,@@	9
tit	9
Bott@@	9
inherent	8
Loading	8
Pes@@	8
Nutri@@	8
stranded	8
veterin@@	8
.es	8
Brux@@	8
ensis	8
Brief	8
signed	8
KM	8
743	8
exag@@	8
chair	8
custom@@	8
Presidency	8
Hop@@	8
Extra	8
gg	8
zen@@	8
natur@@	8
Assistant	8
projected	8
agon@@	8
SYSTEM	8
shaded	8
Import@@	8
Hands	8
Bau@@	8
deepening	8
cog@@	8
Sub-@@	8
PLC	8
1,600	8
Premier	8
vector	8
simplified	8
scientific@@	8
VO	8
discer@@	8
evolving	8
intensify	8
41@@	8
Hamp@@	8
Lif@@	8
Travel	8
drop@@	8
DT	8
inclusive	8
streamline	8
threat	8
Iber@@	8
equation	8
Famili@@	8
eil	8
Bad@@	8
TEC	8
Well	8
gra	8
Mrs	8
Christian	8
daylight	8
Safe	8
Shield	8
Proposals	8
ined	8
CLU@@	8
ETS	8
Broad@@	8
assembled	8
SAM@@	8
Joan	8
sharing	8
ро@@	8
Τ	8
wind@@	8
today	8
sponsor	8
12,000	8
red-@@	8
9.99	8
430@@	8
situ	8
aggreg@@	8
transp@@	8
correcting	8
mediator	8
Č@@	8
expired	8
Pearl	8
Contracts	8
MF@@	8
Plas@@	8
competing	8
Robert	8
ECH@@	8
tour@@	8
org.	8
Coc@@	8
Frequently	8
cease	8
oils	8
perpend@@	8
ometer	8
ships	8
86-@@	8
expelled	8
u.@@	8
Ι	8
insurance	8
srl	8
mans	8
Infrastructure	8
18th	8
Franco	8
video	8
689	8
99-@@	8
Cen@@	8
Bour@@	8
validity	8
KB@@	8
declaration	8
adaptive	8
ning	8
Heinrich	8
pend@@	8
ster-@@	8
differing	8
Este@@	8
harder	8
Us@@	8
informing	8
Burning	8
woven	8
ded-@@	8
sors	8
Lite	8
buy	8
NOTE	8
755	8
Enlarged	8
heit	8
Raj@@	8
byl	8
756@@	8
surveys	8
1868	8
sedi@@	8
rain	8
2-0	8
Andreas	8
Kel@@	8
Reci@@	8
OMS	8
04-@@	8
surrounds	8
restoring	8
adopt	8
shaft	8
clou@@	8
init@@	8
ewer	8
experim@@	8
tape	8
LUC@@	8
orum	8
simulations	8
lio	8
И@@	8
unlike	8
Bristol	8
rough	8
704	8
icating	8
Spor@@	8
IMA	8
esters	8
Gaulle	8
ENA	8
tained	8
216@@	8
dk	8
ascending	8
discrepancy	8
Su	8
dei	8
Davis	8
grow@@	8
	8
THER	8
similarities	8
Sha@@	8
Les@@	8
EVA	8
Independent	8
English	8
circulated	8
Kr@@	8
Lambert	8
Normally	8
in-depth	8
anatomy	8
ners	8
entative	8
29,@@	8
torate	8
Pol	8
raising	8
Instruc@@	8
stir	8
chin	8
ail@@	8
thri@@	8
fora	8
46.@@	8
fine-@@	8
Et@@	8
powerful	8
rows	8
manipulation	8
Yes	8
influx	8
consultants	8
Example	8
codes	8
thers	8
Spa	8
technology-@@	8
amy	8
Gust@@	8
Daniel	8
safety-@@	8
Amo@@	8
pockets	8
mid	8
Hudson	8
Run@@	8
highlight	8
886	8
confidentiality	8
isters	8
feasibility	8
quired	8
Mare@@	8
613@@	8
Formation	8
theses	8
Improved	8
Colog@@	8
chia	8
sub	8
talked	8
1x	8
Eat	8
ASC@@	8
Left	8
fragment	8
CVS	8
UM@@	8
modes	8
surviving	8
gv@@	8
sche	8
shortage	8
resins	8
checks	8
prev@@	8
Nav@@	8
v.@@	8
forec@@	8
asted	8
Observation	8
Especially	8
PAP@@	8
Té@@	8
coordinating	8
Asked	8
Until	8
ared	8
integral	8
XII	8
shot	8
Isch@@	8
Objectives	8
ging	8
PM@@	8
human-@@	8
genetics	8
plets	8
carp@@	8
tunnel	8
ATI	8
vity	8
René	8
fj@@	8
Ped@@	8
Request	8
www	8
Vs	8
mobile	8
managers	8
resses	8
curved	8
Sebastian	8
auxiliary	8
SV	8
poon	8
ingly	8
agricultural	8
lacqu@@	8
TABLE	8
luminous	8
12,@@	8
Alp@@	8
Parma	8
opou@@	8
forthcoming	8
market@@	8
indic@@	8
3500	8
6x@@	8
Seen	8
UTH	8
ESP	8
slaughter	8
serve	8
experiment	8
cord@@	8
updating	8
vitality	8
bows	8
705	8
es.org	8
Meals	8
cratic	8
751	8
536	8
ologists	8
Glaci@@	8
lar	8
10.000	8
ascertain	8
scars	8
Gate	8
unlock	8
bam@@	8
Lem@@	8
indeed	8
n.@@	8
ible	8
ward	8
Rolf	8
excited	8
Deri@@	8
Too	8
rations	8
g.@@	8
ogi@@	8
earmarked	8
conscious	8
ved@@	8
VID@@	8
vio	8
oura	8
tonic	8
elem@@	8
EK@@	8
IJ@@	8
BD	8
Boc@@	8
fru@@	8
Stu@@	8
scoring	8
642	8
factual	8
parti@@	8
African	8
DR	8
Laur@@	8
Nur@@	8
proves	8
Ref	8
Mechan@@	8
Poc@@	8
Instruction	8
wife	8
ök@@	8
linguistic	8
occupied	8
proportionately	8
explaining	8
aben	8
Vittorio	8
ANO	8
strang@@	8
volatile	8
DEL@@	8
describing	8
amounting	8
Š@@	8
max@@	8
noting	8
surfac@@	8
53-@@	8
town	8
O.@@	8
.e@@	8
ection@@	8
Vereinig@@	8
König@@	8
appa	8
Version	8
coding	8
Minimal	8
instruc@@	8
aging	8
Rath@@	8
289@@	8
stati@@	8
sten	8
conceived	8
Hul@@	8
Names	8
delle	8
nutrient	8
aceous	8
hearts	8
CTION	8
910@@	8
Motor	8
-of-@@	8
anda	8
Latin	8
QA	8
freedom	8
provoke	8
irrigation	8
Legal	8
metaph@@	8
Design@@	8
Dresden	8
incurred	8
Infl@@	8
7.00	8
mers	8
Grand	8
Willi	8
semi@@	8
vesti@@	8
reinforce	8
highlighting	8
spective	8
chen	8
-10@@	8
tem	8
soak	8
Goals	8
ITAL@@	8
paradoxical	8
pharmacies	8
suggestion	8
cription	8
Victor	8
neys	8
LIV@@	8
590	8
was@@	8
457@@	8
owners	8
PRESS	8
circulate	8
Certificates	8
perfect	8
tracts	8
rejected	8
Record	8
Examination	8
XI	8
camera	8
1900	8
devi@@	8
noticeably	8
Bo	8
communicate	8
dat@@	8
plates	8
06-@@	8
MAS@@	8
humid	8
uli	8
Hart@@	8
510	8
Us	8
peaks	8
Approval	8
Size	8
835	8
fice	8
830	8
819	8
Owing	8
õ@@	8
drafted	8
preference	8
3-1	8
Fal@@	8
full-time	8
road	8
coupled	8
relaxing	8
believes	8
duties	8
banking	8
ference	8
send	8
Afterwards	8
gers	8
sad	8
reimbursed	8
5.00	8
insic	8
968	8
addic@@	8
Holger	8
alan@@	8
66-@@	8
lak@@	8
ings@@	8
advancing	8
1,3	8
bending	8
Ten	8
recover@@	8
789	8
Info@@	8
813	8
enthusiasm	8
street	8
Tris@@	8
clarity	8
undertook	8
12-0@@	8
688	8
factory	8
serving	8
DU	8
ting-@@	8
ett	8
217@@	8
Turkey	8
Fé@@	8
verify	8
contempl@@	8
bulk	8
operator	8
soft-@@	8
sap@@	8
vely	8
ml@@	8
920	8
concluding	8
liter	8
cols	8
mechan@@	8
Trinity	8
root	8
Compan@@	8
Healthy	8
Puerto	8
Rico	8
jel@@	8
euro	8
lbs	8
stressed	7
Brain	7
counteract	7
IRS	7
lec@@	7
touched	7
Measure	7
GERMANY	7
Fair@@	7
ont@@	7
iger	7
ua	7
DATA	7
counter-@@	7
vious	7
Passing	7
correc@@	7
Campo	7
industrial	7
purification	7
clearing	7
SA-@@	7
strengthening	7
A-0@@	7
objection	7
standardized	7
binder	7
reinforcement	7
Andro@@	7
nition	7
'E@@	7
1200@@	7
IME	7
592	7
jac@@	7
Choosing	7
stro	7
Conversion	7
69-@@	7
dead	7
ough@@	7
sett@@	7
appro@@	7
Sites	7
Druck@@	7
resem@@	7
engra@@	7
Manage	7
anticipate	7
ύ	7
Nether@@	7
contain@@	7
Extensive	7
inaccurate	7
reviewing	7
TECH@@	7
Calculation	7
anyway	7
eliminating	7
thorn	7
wavelength	7
oscope	7
Chi	7
enders	7
Lon@@	7
Much	7
disseminate	7
Courtyard	7
analyse	7
COME@@	7
functionality	7
dwelling	7
Nes@@	7
probe	7
ather	7
Deb@@	7
orous	7
fights	7
mini@@	7
identifying	7
ISS@@	7
har	7
Ero@@	7
1001	7
Spec@@	7
metals	7
thank	7
767	7
eye@@	7
GET	7
Collaboration	7
pipe	7
FRE@@	7
666	7
rique	7
hybri@@	7
gov@@	7
clears	7
dark-@@	7
Throughout	7
Valley	7
578	7
auditing	7
sl	7
6.00	7
ult	7
evolved	7
cited	7
persi@@	7
proceedings	7
176@@	7
dk@@	7
KU@@	7
Δ	7
921	7
Bris@@	7
aside	7
aj	7
arro@@	7
MPEG@@	7
JA	7
gluten	7
Pressure	7
avoidance	7
Va@@	7
unite	7
806	7
Inside	7
Munich	7
erio	7
737	7
527@@	7
der-@@	7
deferred	7
inia	7
categorized	7
ligh@@	7
iture	7
Sons	7
win@@	7
mitigate	7
ł@@	7
E-Mail	7
DIO	7
Experienced	7
Equipment	7
Umberto	7
Gebäu@@	7
vacant	7
dimin@@	7
perceived	7
lamp@@	7
shrink	7
Flav@@	7
stirred	7
full-@@	7
Sho@@	7
Du	7
postpone	7
Knowledge	7
Western	7
bear	7
TR	7
Terminal	7
50,@@	7
amend	7
Rho@@	7
57-@@	7
remnant	7
Africa	7
Lekker@@	7
administrators	7
ør@@	7
haven	7
Cleaning	7
vey	7
IHC	7
serial	7
foot@@	7
zar@@	7
Break	7
Coating	7
reality	7
interface	7
31,@@	7
900@@	7
visited	7
survive	7
upgraded	7
Roo@@	7
wood	7
uation	7
specify	7
operates	7
xx@@	7
Agre@@	7
ava	7
Carlos	7
788	7
Renew@@	7
event@@	7
entary	7
Burg@@	7
tanning	7
conserv@@	7
blue-@@	7
Manual	7
dirt	7
purities	7
tigen	7
distributing	7
Torre	7
olin	7
ATA	7
five-@@	7
robustness	7
Numbers	7
Ž	7
suspen@@	7
sie	7
va@@	7
yle	7
436@@	7
author@@	7
747	7
jo@@	7
ket	7
satisfies	7
FE@@	7
e2	7
Heil@@	7
Fee	7
fting	7
ORS	7
BT	7
vel	7
scarce	7
whereby	7
voor@@	7
lengths	7
played	7
Eiffel	7
ft@@	7
klin@@	7
approximation	7
max.	7
Unter@@	7
Flanders	7
South@@	7
donated	7
governance	7
vague	7
junior	7
ping@@	7
Vul@@	7
unresolved	7
logistic	7
implies	7
visi@@	7
290@@	7
Alexand@@	7
armed	7
Brand	7
assumption	7
Impact	7
Warsaw	7
Alexander	7
Remov@@	7
Wall	7
44,@@	7
prim@@	7
tears	7
lichen	7
ALE	7
detailing	7
sc	7
crystal	7
rely	7
3461	7
1926	7
rt	7
961	7
eb	7
lini	7
öll@@	7
cs@@	7
after@@	7
side@@	7
CHAN@@	7
girl	7
arians	7
169@@	7
S.R.@@	7
Survey	7
classi@@	7
handed	7
right-@@	7
gaps	7
ether	7
Bran@@	7
O-S@@	7
1040	7
ws	7
ounds	7
Biological	7
color	7
formity	7
ards	7
suited	7
molec@@	7
urgently	7
occur@@	7
axial	7
566	7
telli	7
10.0@@	7
Log	7
13th	7
anska	7
fitting	7
connections	7
zione	7
vian	7
venti@@	7
ghs	7
FF@@	7
hardness	7
enstein	7
deformation	7
onie	7
creates	7
maximise	7
mnt	7
Nation@@	7
cra@@	7
deficit	7
tops	7
cavities	7
motivation	7
LIN	7
por	7
vigilant	7
knife	7
Ink	7
anj@@	7
excludes	7
discrimin@@	7
eligibility	7
hi	7
440@@	7
unnecessary	7
yad@@	7
incorporate	7
1.000	7
Firm@@	7
brightness	7
tall	7
Magnetic	7
Yas@@	7
dio	7
king@@	7
preservation	7
ran	7
159@@	7
5.	7
utz@@	7
esting	7
suspicious	7
Arbit@@	7
842	7
stressful	7
Ú@@	7
A7	7
List@@	7
notch	7
laws	7
piles	7
food@@	7
classify	7
DAY	7
Orig@@	7
Governing	7
922	7
collecting	7
1950	7
screens	7
besides	7
aved	7
tions@@	7
continually	7
fier	7
425@@	7
hen	7
Jel@@	7
Future	7
Astra	7
strong@@	7
template	7
numerical	7
orgas@@	7
intolerable	7
ladder	7
hoped	7
zel@@	7
blank	7
det	7
rebuild	7
surroundings	7
Neil	7
591	7
Mode	7
bay	7
Smar@@	7
stand@@	7
Group@@	7
mother@@	7
regulating	7
five-year	7
visualization	7
991	7
goats	7
aires	7
735	7
counting	7
Addi@@	7
uting	7
tering	7
TEL	7
56-@@	7
ries	7
Reykjavík	7
ken@@	7
446@@	7
727	7
Toulouse	7
Nep@@	7
brochures	7
force@@	7
zon	7
Objective	7
vivid	7
pair	7
ú	7
sland@@	7
ismus	7
heav@@	7
seed	7
restored	7
overcome	7
Mad@@	7
here@@	7
aves	7
stirring	7
School	7
computed	7
Ear@@	7
ABS	7
ultras@@	7
liters	7
margin@@	7
synchron@@	7
Pisa	7
publicly	7
salaries	7
asym@@	7
	7
ia-@@	7
875	7
EB	7
Pont	7
owa	7
588	7
evid@@	7
aal	7
CUR@@	7
Swiss	7
scop@@	7
inspec@@	7
accessible	7
657	7
Environment	7
Book@@	7
κ	7
Temperature	7
issuing	7
--@@	7
shr@@	7
s-	7
POP@@	7
moment	7
easing	7
tal-@@	7
Genesis	7
′	7
shaving	7
Night	7
Gs	7
ais@@	7
innov@@	7
Master	7
dish@@	7
mo-@@	7
sequences	7
occupancy	7
terrestrial	7
reveals	7
ité	7
1965	7
existent	7
pe-@@	7
Slo@@	7
fr	7
Rubber	7
alerts	7
art-@@	7
bringing	7
logically	7
consultations	7
frank	7
altern@@	7
Condi@@	7
Decisions	7
brackets	7
acknowledges	7
Á@@	7
fear	7
-F@@	7
chi	7
A3	7
1982	7
30,@@	7
Erasmus	7
Marie	7
oes	7
1974	7
compensation	7
Contacts	7
NER	7
ian@@	7
furthermore	7
suitably	7
02.@@	7
glaze	7
ERY	7
Prime	7
Occup@@	7
manure	7
dre	7
matri@@	7
arises	7
mt	7
PCT	7
Exam@@	7
Inter-@@	7
ří@@	7
UT	7
expanding	7
Frank@@	7
Definition	7
geographically	7
sic@@	7
elet	7
xx	7
Parallel	7
EY	7
Rö@@	7
ka@@	7
17,@@	7
HF	7
accountability	7
î@@	7
George	7
Give	7
edic@@	7
epidemic	7
void	7
portable	7
Formula	7
firm@@	7
Portugu@@	7
Diseases	7
locks	7
mak@@	7
SAP	7
MK@@	7
flexi@@	7
action@@	7
Years	7
А	7
ship	7
networks	7
Anal@@	7
-L@@	7
High@@	7
SUN@@	7
Cork	7
collects	7
Bé@@	7
iden	7
dots	7
border	7
anie	7
.03	7
ances	7
avail@@	7
meaningfully	7
mandated	7
745	7
21.05.@@	7
Ingredients	7
honey	7
prints	7
O-	7
trout	7
Giving	7
Ν	7
year@@	7
558@@	7
jum@@	7
subscriptions	7
inserts	7
skie	7
tranqu@@	7
.......	7
declarations	7
ę	7
enta@@	7
hybrid	7
spher@@	7
rons	7
Satis@@	7
RX@@	7
bird	6
s1	6
typed	6
servants	6
Cho@@	6
deviations	6
func@@	6
e.@@	6
elo	6
Spl@@	6
terre@@	6
dub@@	6
conspic@@	6
Kiel	6
supervise	6
tina	6
319@@	6
On-@@	6
hourly	6
outdoor	6
493	6
wald	6
Riva	6
GF@@	6
pairs	6
disinfection	6
happiness	6
Cog@@	6
nitive	6
Nonetheless	6
Wes@@	6
thought@@	6
dung	6
VIL@@	6
ett@@	6
tempor@@	6
gging	6
large-scale	6
527	6
1980s	6
158@@	6
outline	6
aken	6
Christ@@	6
conventions	6
OW	6
solarium	6
Regi@@	6
households	6
incidental	6
Wood	6
sie@@	6
Properties	6
academia	6
tribute	6
TC@@	6
748	6
frei	6
capability	6
timate	6
simplify	6
881	6
ematology	6
887	6
built	6
angles	6
Certificate	6
Modul@@	6
Kings	6
869	6
Susan	6
WO@@	6
isten	6
tains	6
ided	6
687	6
ogs	6
492	6
Delete	6
Week@@	6
ск@@	6
York@@	6
kova	6
flame	6
enormous	6
Alb@@	6
kilograms	6
lou	6
intentionally	6
propri@@	6
.09	6
governed	6
Eagle	6
Gamma	6
En	6
stor@@	6
Brun@@	6
ц@@	6
Kou@@	6
heavier	6
stur@@	6
Same	6
collector	6
intelligence	6
61-@@	6
wis@@	6
skel@@	6
River@@	6
contribu@@	6
Actual	6
268@@	6
Hey@@	6
940@@	6
ist-@@	6
Prin@@	6
fluorescent	6
ő	6
Alk@@	6
discrepancies	6
Type@@	6
534	6
Donau	6
lieb@@	6
ney@@	6
tables@@	6
puts	6
ξ	6
Silva	6
noteworthy	6
423@@	6
attainment	6
Fellow	6
tants	6
embr@@	6
ede	6
demarc@@	6
best-@@	6
eno	6
complaint	6
flowing	6
Career	6
Catania	6
washing	6
mineral@@	6
permitting	6
Cus@@	6
Allen	6
880	6
flat-@@	6
585	6
sexes	6
RED	6
Appendix	6
WI@@	6
Corn@@	6
sm	6
attitude	6
seven-@@	6
bias	6
enth@@	6
es.@@	6
possibilities	6
Euro	6
assem@@	6
637	6
oder	6
onlin@@	6
Height	6
incentives	6
Boot	6
illicit	6
continent	6
itter	6
safer	6
specifying	6
twenty-@@	6
endor@@	6
Psycho@@	6
internally	6
China	6
exemptions	6
taining	6
preparatory	6
traditional	6
71@@	6
walked	6
ün@@	6
electrode	6
conductive	6
stream@@	6
odd	6
sustain@@	6
campaigns	6
gs	6
∼	6
YE@@	6
hu@@	6
Classes	6
stripes	6
colon@@	6
·	6
Blanc	6
Kirch@@	6
sphere	6
dot	6
senses	6
Smo@@	6
Web	6
lex	6
posing	6
unexpectedly	6
gment	6
fairly	6
101@@	6
roles	6
locking	6
opportunities	6
Intro@@	6
Triangle	6
ERG@@	6
ced	6
uctu@@	6
slugg@@	6
definitively	6
laughing	6
CAD	6
knowledgeable	6
Maastricht	6
aton	6
anniversary	6
Poin@@	6
favourably	6
welcome	6
valid@@	6
set-up	6
Subscri@@	6
Pic@@	6
1973	6
thrown	6
liter@@	6
continual	6
pered	6
187@@	6
acceleration	6
14,@@	6
Reducing	6
Honey	6
Aqu@@	6
Nieu@@	6
diagram	6
Shi@@	6
AW@@	6
bull	6
Mannheim	6
au-@@	6
grows	6
smoker	6
Spezial@@	6
prä@@	6
CAM	6
accessory	6
carbon@@	6
Ian	6
subjected	6
snap@@	6
Initially	6
administrator	6
Million	6
ooth	6
dan	6
paral@@	6
Dog	6
Homburg	6
HS	6
Optimal	6
200,000	6
simplifies	6
537@@	6
Ale@@	6
pass@@	6
Sex	6
iller@@	6
Integr@@	6
ador	6
418@@	6
Fall	6
eration	6
distributions	6
A8	6
discriminate	6
DAS	6
ble-@@	6
wel@@	6
threaded	6
iss	6
cub@@	6
appraisal	6
189@@	6
entally	6
Chicken	6
208@@	6
Monitor	6
pf@@	6
PN	6
chlorine	6
historically	6
GO	6
ös@@	6
liche	6
catch@@	6
Participation	6
repeating	6
voluntary	6
contro@@	6
ong	6
British	6
Haf@@	6
662	6
1959	6
displaying	6
control@@	6
mail@@	6
2.20	6
hate@@	6
48.@@	6
popul@@	6
Sci@@	6
flavours	6
Brow@@	6
DIN	6
rear	6
Wed	6
Mon	6
Fri	6
mediate	6
explicitly	6
Oak@@	6
North@@	6
mex@@	6
Karl	6
Fe	6
alogu@@	6
fra@@	6
adviser	6
Sugg@@	6
610@@	6
thresholds	6
diaphrag@@	6
Mar	6
turquoise	6
cum	6
Tart@@	6
orientated	6
competitions	6
Pompidou	6
Margar@@	6
port@@	6
wants	6
Structural	6
urges	6
psal@@	6
Nürnberg	6
LAM@@	6
10.00	6
urely	6
Mang@@	6
rush	6
impulses	6
Thereby	6
gels	6
licence	6
dying	6
sh	6
Forest	6
Wellington	6
Professionals	6
personally	6
1,5	6
af	6
goat	6
7-11	6
Karlsruhe	6
624	6
Quick	6
Bass	6
emotion	6
wrist	6
∅	6
hap@@	6
80,000	6
engaged	6
Composition	6
dare	6
ian	6
rus@@	6
Seas@@	6
quit	6
brun@@	6
María	6
exten@@	6
717	6
IP-@@	6
prerequisite	6
é-@@	6
anded	6
Sö@@	6
isons	6
System@@	6
tilled	6
336@@	6
	6
tenth	6
1932	6
interruptions	6
cocktail	6
Є	6
Host	6
Art	6
809	6
Emer@@	6
alp	6
pseudo-@@	6
crete	6
detox@@	6
Hir@@	6
dies	6
Bull@@	6
Г	6
^	6
transformations	6
non-commercial	6
ACH	6
cha@@	6
vehic@@	6
schemes	6
Pennsylvania	6
	6
08-@@	6
608	6
Rad@@	6
eder	6
Manfred	6
scanning	6
-14	6
revoked	6
fri@@	6
conclu@@	6
depl@@	6
Sid@@	6
page	6
Basin	6
537	6
BNP	6
Sample	6
BUS@@	6
Brochure	6
ra-@@	6
769	6
analy@@	6
412@@	6
Oper@@	6
eners	6
inevitable	6
Fore@@	6
FL	6
nothing	6
comprise	6
executed	6
decades	6
balls	6
jung@@	6
structured	6
SAT	6
accommodate	6
cherry	6
mis	6
cen@@	6
Cycl@@	6
bite	6
di-@@	6
ISDN	6
leaks	6
sorts	6
choc@@	6
ecko	6
emics	6
sist@@	6
eventual	6
D-0@@	6
script@@	6
lime	6
a.it	6
pness	6
jos	6
zoom	6
07.@@	6
Dassault	6
Farm	6
fifty	6
symmetrical	6
Values	6
tened	6
448	6
forth	6
Specialist	6
confident	6
attacking	6
Ital@@	6
lett	6
beef	6
justifiable	6
vulnerable	6
12.2008	6
arrows	6
Theore@@	6
un-@@	6
DG@@	6
COD	6
lik@@	6
asy	6
Thirty	6
cage	6
Acting	6
	6
connector	6
Input	6
cameras	6
incoming	6
Extensions	6
.no	6
arguments	6
STU@@	6
Roll	6
transfers	6
nd@@	6
Vari@@	6
waterproof	6
mitigation	6
Aman@@	6
insec@@	6
conducting	6
soci@@	6
anymore	6
qualitative	6
feed@@	6
east	6
fixes	6
journals	6
registri@@	6
feeds	6
Tokyo	6
Jan	6
wijk	6
647	6
stimulus	6
270@@	6
sixteen	6
cripts	6
Servi@@	6
Pho@@	6
Nai@@	6
itaire	6
property	6
domestic	6
capac@@	6
eo@@	6
703	6
definitions	6
segments	6
One-@@	6
describes	6
ELE@@	6
beside	6
Shakespeare	6
z.@@	6
pl	6
Alle@@	6
eloqu@@	6
e-based	6
inder	6
Dies@@	6
join	6
izes	6
conformity	6
266@@	6
Bud@@	6
Key@@	6
scrap@@	6
amplitude	6
settled	6
voltage	6
bu	6
UAE	6
FIN	6
staying	6
vals	6
ories	6
destination	6
Problem	6
methodologies	6
deals	6
ure-@@	6
928	6
inca	6
Free@@	6
Eras@@	6
extends	6
message	6
ça	6
doping	6
bert	6
beneath	6
aus	6
oultry	6
expectancy	6
damages	6
astin	6
analysing	6
ár@@	6
calibr@@	6
Wolf@@	6
scap@@	6
currents	6
ubi@@	6
quit@@	6
nie	6
Later	6
clarify	6
Thames	6
Kam@@	6
issi@@	6
1972	6
uca	6
bare	6
BIL@@	6
dictionary	6
Processing	6
consolidate	6
Line@@	6
Bla@@	6
Mark	6
anya	6
40.00	6
575	6
kits	6
Freiburg	6
erie	6
Civil@@	6
Romana	6
Freder@@	6
108@@	6
numeric	6
Steve	6
Alt@@	6
complimentary	6
isolate	6
Inser@@	6
representation	6
hereafter	6
distingu@@	6
ishable	6
eighth	6
ţ@@	6
scenario	6
739	6
clicking	6
aromatic	6
attachment	6
223@@	6
SAP@@	6
leader	6
otte	6
Agricultural	6
Il@@	6
vigilance	6
automate	6
moon	6
Oran@@	6
configuration	6
quer@@	6
locomo@@	6
illustration	6
Mall@@	6
tonne	6
precisely	6
Singapore	6
Schwarz	6
actor	6
anges	6
sixth	6
lingen	6
Paul	6
master	6
593	6
lé@@	6
inet	6
Gor@@	6
at.	6
analyzed	6
fifteen	6
Nik@@	6
Jersey	6
Cont@@	6
Micro	6
asse@@	6
Nr.	6
han@@	6
Malmö	6
Resources	6
parental	6
Comprehensive	6
calculating	6
Wend@@	6
inj@@	6
stem@@	6
auspices	6
ip	6
displaced	6
dus@@	6
Energy	6
strata	6
eij@@	6
1.4@@	6
aggregate	6
Pati@@	6
aso	6
AGR@@	6
Against	6
collectively	6
practitioner	6
Stan@@	6
worst	6
Entry	6
opens	6
for-@@	6
gilt	6
lubric@@	6
lek@@	6
538	6
scissors	6
equivalents	6
fermentation	6
Attention	6
complexity	6
integrating	6
pud@@	6
Federal	6
backwards	6
nourished	6
OC	6
Waste	6
comment	6
cutting	6
ideal	6
AB-@@	6
essed	6
Boxes	6
approaching	6
об@@	5
appoint	5
allocation	5
GRA@@	5
friends	5
ad-@@	5
Dou@@	5
ven	5
drift	5
rell	5
collaborate	5
Our	5
Ο	5
noti@@	5
Besides	5
Quantity	5
Jar@@	5
admin@@	5
drained	5
Pon@@	5
apor@@	5
808	5
istically	5
Vic@@	5
pu	5
presid@@	5
retri@@	5
comb@@	5
transporting	5
deriving	5
01.08.@@	5
Explanation	5
leaders	5
674	5
waters	5
ţ	5
drum@@	5
Movement	5
worth@@	5
proximity	5
italia	5
8.00	5
Facilities	5
ministr@@	5
sauna	5
baths	5
racial	5
Draft	5
openness	5
incident	5
dies@@	5
Drawing	5
zi	5
sheds	5
ARM	5
creeping	5
Gonz@@	5
distances	5
bled	5
675	5
79-@@	5
lä@@	5
889	5
725	5
Lamy	5
Mini@@	5
zum	5
nehmen	5
inner@@	5
consent	5
QUE	5
Quanti@@	5
Extre@@	5
maison	5
PART@@	5
Round@@	5
bre-@@	5
645	5
685	5
rena	5
expir@@	5
insi@@	5
GL	5
sex-@@	5
648	5
authoritative	5
statutory	5
cana	5
bery	5
Ann	5
brid@@	5
sucking	5
sud@@	5
alex@@	5
funds	5
Accounts	5
bits	5
Solv@@	5
01.06.@@	5
acquiring	5
antioxidants	5
HN@@	5
be-@@	5
boo@@	5
www.e@@	5
map@@	5
GB	5
maybe	5
bleshooting	5
CON	5
Ná@@	5
render	5
said	5
606@@	5
CIT@@	5
successively	5
GC@@	5
ured	5
Towers	5
elli	5
Spray	5
Streng@@	5
Gott@@	5
ls	5
398@@	5
1855	5
е	5
DEB@@	5
entail	5
hydrocarbons	5
bran@@	5
construction	5
dire@@	5
shares	5
fed@@	5
Energi@@	5
deeper	5
GN@@	5
597	5
Evolution	5
15th	5
fulfilment	5
readings	5
etti	5
776	5
Interim	5
Culture	5
ARC	5
oved	5
EEG	5
JS	5
NAS@@	5
	5
Self	5
tance	5
632	5
briefly	5
bites	5
arous@@	5
scor@@	5
contracted	5
Process	5
studying	5
488@@	5
ematic	5
hypothesis	5
sunglasses	5
audi@@	5
viewpoint	5
And@@	5
Γ	5
71-@@	5
acceler@@	5
vegetables	5
519	5
54.@@	5
Brasil	5
week-@@	5
afraid	5
adv@@	5
ice@@	5
norm@@	5
Johannes	5
shaved	5
retains	5
fourteen	5
Vier@@	5
entity	5
ater@@	5
1849	5
Roc@@	5
Lit@@	5
pop	5
ailing	5
BIN@@	5
Trav@@	5
settling	5
programmed	5
elaboration	5
applicability	5
sty@@	5
4,5	5
REG	5
ía	5
axy	5
Raf@@	5
-P@@	5
aw	5
remuneration	5
pros@@	5
Pro-@@	5
Eyes	5
ass	5
Window	5
LI	5
internationally	5
traveller	5
frames	5
LOG@@	5
Gian@@	5
tino	5
Sne@@	5
zes	5
Legis@@	5
Ron@@	5
cht	5
Za@@	5
encompass	5
achi@@	5
diac	5
Ehr@@	5
aja	5
cash	5
detergent	5
oning	5
surround	5
compelling	5
breed	5
028@@	5
priori@@	5
supposed	5
vend@@	5
till	5
Zam@@	5
Di	5
Tracking	5
607	5
illustrations	5
4-7	5
Ov@@	5
Af@@	5
Bes@@	5
BG@@	5
131@@	5
smoked	5
Astri@@	5
390@@	5
130@@	5
preset	5
4S	5
agreeing	5
Lus@@	5
Rein@@	5
forcing	5
aç@@	5
lacked	5
travellers	5
Tower	5
fl	5
emis@@	5
satisfy	5
RS-@@	5
Classics	5
President	5
1.1.@@	5
Customer	5
Han@@	5
M.@@	5
markt	5
Rog@@	5
ru	5
t.@@	5
rotating	5
pumped	5
eways	5
issu@@	5
resemble	5
vol	5
Ky@@	5
procurement	5
2004-@@	5
collections	5
expires	5
favours	5
moder@@	5
plausible	5
Dictionary	5
nause@@	5
Wie@@	5
prepares	5
Fit	5
compliant	5
enk@@	5
occupies	5
benefited	5
.p@@	5
extracts	5
Sa	5
telecommunications	5
PHOT@@	5
Alter	5
spells	5
Julia	5
22,@@	5
tasting	5
colours	5
freshly	5
choosing	5
feld@@	5
lich@@	5
16th	5
shoes	5
971	5
Torre@@	5
glob@@	5
uncertainty	5
suits	5
aterally	5
Split	5
exposition	5
621	5
isc@@	5
Ê@@	5
Konstan@@	5
Keller	5
bathroom	5
Tom@@	5
foc@@	5
820	5
forums	5
numbered	5
practicable	5
639	5
andel@@	5
Grup@@	5
onn@@	5
lab	5
3M	5
Ank@@	5
cultural	5
suitability	5
thermal	5
Kau@@	5
DAN@@	5
0.009@@	5
stained	5
Rescue	5
Tip	5
idea	5
newer	5
steri@@	5
Kerry	5
31.01.@@	5
Palermo	5
nin@@	5
coordinator	5
distinction	5
tle-@@	5
cab@@	5
Commit@@	5
JU@@	5
HK@@	5
LINE	5
Countries	5
remembered	5
Vé@@	5
co-ordinated	5
bands	5
Bisch@@	5
IGN@@	5
warn	5
ala	5
Cant@@	5
abria	5
bott@@	5
radio-@@	5
Faculty	5
apparatus	5
Kj@@	5
west@@	5
Relations	5
wanted	5
Abel	5
Improving	5
digit@@	5
organising	5
mont	5
lingu@@	5
istics	5
Inner	5
machin@@	5
Island	5
rr@@	5
vanilla	5
ň	5
openhagen	5
753	5
616	5
ELS	5
Innovation	5
abel	5
Managing	5
sens@@	5
unequi@@	5
vocally	5
ANG@@	5
bst@@	5
effected	5
m3	5
thum@@	5
Excep@@	5
ict	5
enes	5
lifts	5
seventy	5
circumference	5
fox@@	5
kan@@	5
SERVICES	5
Air	5
condition@@	5
BSE	5
Advisory	5
Grand-@@	5
exams	5
Cock@@	5
Ц@@	5
Oy@@	5
tick@@	5
BOR@@	5
UX	5
mutually	5
Again	5
ná@@	5
inevitably	5
emulsi@@	5
rotary	5
translate	5
Cob@@	5
Amount	5
db@@	5
sciences	5
qualification	5
Kay	5
Anth@@	5
Fourth	5
icious	5
unted	5
resum@@	5
W.	5
Vand@@	5
Bras@@	5
millimet@@	5
evacuation	5
descending	5
flashing	5
248@@	5
stemming	5
1899	5
IAS	5
ech	5
auti@@	5
step-by-step	5
mann@@	5
reject	5
opol	5
descriptive	5
oun@@	5
imply	5
BS	5
vern	5
EZ@@	5
ordered	5
approvals	5
inertia	5
Recru@@	5
BAL@@	5
INO	5
ectic	5
NW	5
Μ	5
Classification	5
seeks	5
MBA	5
Notification	5
nip@@	5
Moulin	5
Vou@@	5
northern	5
hemisphere	5
roses	5
bek	5
NAV@@	5
V.@@	5
longstanding	5
Damage	5
stayed	5
inte@@	5
Technologies	5
reland	5
downwards	5
retrieval	5
influences	5
bean	5
Bangladesh	5
Assess@@	5
Had@@	5
suff@@	5
encoding	5
after-@@	5
agenda	5
ods	5
sooner	5
seri@@	5
pet	5
Hire	5
Conclusion	5
relies	5
solution@@	5
plastic@@	5
Diet	5
Laser	5
transmit	5
Discussions	5
Braunschweig	5
opar@@	5
uno	5
782	5
subsistence	5
Minim@@	5
849	5
lifted	5
says	5
defa@@	5
hay@@	5
indispensable	5
Comparative	5
phrases	5
trays	5
Cover	5
tanks	5
tov@@	5
provoked	5
Mom@@	5
Corso	5
○	5
troubles	5
thos	5
929	5
kid@@	5
poured	5
Müll@@	5
PATH	5
boc@@	5
fruity	5
solids	5
909@@	5
ey	5
amounted	5
bucket	5
six@@	5
tlements	5
energetic	5
Sic@@	5
sham@@	5
Flexi@@	5
cheng@@	5
Direction	5
Kre@@	5
ing-up	5
Correct	5
Hammer@@	5
bak@@	5
undertaking	5
e-to-@@	5
SG	5
performs	5
ов@@	5
cellaneous	5
Hugo	5
resid@@	5
Athle@@	5
ungs	5
harvested	5
insect	5
429	5
1.8@@	5
semin@@	5
---@@	5
Exercise	5
147@@	5
pp@@	5
hind@@	5
iten	5
illo	5
Steps	5
Button	5
Miguel	5
ER-@@	5
Q3	5
isch	5
Falcon	5
high-level	5
certainty	5
huis	5
rescu@@	5
Dick@@	5
inson	5
refused	5
Mail@@	5
curing	5
Henning	5
Chec@@	5
cigarettes	5
fuse	5
Including	5
qualifications	5
Arts	5
φ	5
subjective	5
36,@@	5
Bio	5
bd	5
Certification	5
31.05.@@	5
closes	5
dar	5
Ober@@	5
Enterprise	5
on-site	5
utilis@@	5
25,@@	5
refurbishment	5
337@@	5
NATIONAL	5
Bun@@	5
scho@@	5
Brother	5
RAN@@	5
ifying	5
77-@@	5
197@@	5
reporter	5
professions	5
WE	5
won	5
reflection	5
inflam@@	5
Amendments	5
awakening	5
795	5
asking	5
well-being	5
ze-@@	5
citizens	5
Northern	5
Case	5
mosquit@@	5
COM	5
ais	5
accent@@	5
Short@@	5
atable	5
preserve	5
Chef	5
irrig@@	5
Ø@@	5
Ferr@@	5
AUS@@	5
Cle@@	5
bon	5
1980	5
Chemistry	5
Chris@@	5
dy	5
CAT@@	5
TY	5
Observ@@	5
1.9@@	5
originating	5
ake@@	5
Episode	5
increment	5
stickers	5
recommend@@	5
rylic	5
437@@	5
projections	5
Gilles	5
386@@	5
families	5
Neum@@	5
ark@@	5
47.@@	5
Brno	5
Pursuant	5
855	5
Stret@@	5
STE@@	5
weakening	5
316@@	5
forc@@	5
Calendar	5
data-@@	5
Physi@@	5
ener@@	5
achable	5
añ@@	5
KO	5
match	5
totalling	5
-on	5
print	5
Still	5
ordin@@	5
backed	5
Jun@@	5
crest	5
3,500	5
Dates	5
are-@@	5
mount	5
ographical	5
mounts	5
first@@	5
fte	5
dit@@	5
beforehand	5
prin@@	5
span	5
addicted	5
Sem@@	5
statistics	5
GG	5
fted	5
filler	5
DIS	5
Statistical	5
ander	5
marginal	5
752	5
ical-@@	5
73-@@	5
Ling@@	5
Club	5
discrimination	5
Tor	5
bond	5
ю@@	5
jon	5
gence	5
twisted	5
wer@@	5
near-@@	5
SIM@@	5
PIN@@	5
lockers	5
drop-@@	5
licences	5
alig@@	5
seemed	5
Clean@@	5
handicapped	5
1908	5
nobody	5
Space	5
declining	5
tico	5
switch@@	5
restaurant	5
throwing	5
whitening	5
Calle	5
unreasonable	5
Inventory	5
Sen@@	5
Bachelor	5
WEL@@	5
asia	5
cc	5
815	5
2000@@	5
amedic	5
onna	5
Continuing	5
eni	5
burg	5
JP	5
Kur@@	5
knots	5
echan@@	5
emergencies	5
Wis@@	5
perhaps	5
Qual@@	5
removes	5
Asc@@	5
fit@@	5
arz@@	5
minerals	5
S1	5
existed	5
Stain@@	5
Vehicle	5
disproportionate	5
izer	5
asi	5
live-@@	5
bet	5
staple	5
emann	5
tably	5
awaiting	5
Law@@	5
Refriger@@	5
remo@@	5
ogical	5
64-@@	5
Technological	5
perspectives	5
WIL@@	5
ICK	5
television	5
conflicting	5
pic	5
que@@	5
ticism	5
INGS	5
viol@@	5
pa	5
-33	5
conceptions	5
PHARE	5
Lö@@	5
irre@@	5
irregul@@	5
diets	5
ison@@	5
Mare	5
abused	5
partnerships	5
tham	5
yogurt	5
Row@@	5
harmony	5
delay@@	5
suspects	5
hopeless	5
staging	5
heater	5
customers	5
Towards	5
environment@@	5
T20	5
Montg@@	5
Contin@@	5
characterise	5
Deleg@@	5
reproducible	5
Am	5
ów	5
Removal	5
contrary	5
Twenty	5
400,000	5
compressed	5
Satur@@	5
intensification	5
tiveness	5
Ae@@	5
Printed	5
æ	5
www.h@@	5
APPROV@@	5
wav@@	5
tobacco	5
radius	5
Oxford	5
conting@@	5
races	5
prediction	5
economics	5
encompassing	5
expand	5
Anglo@@	5
1450	5
Katr@@	5
Solomon	5
Islands	5
lifelong	5
suppliers	5
Cut	5
Joh@@	5
rology	5
audible	5
rud@@	5
Origin	5
reuse	5
6th	5
apark	5
Vie@@	5
TAP	5
CONS@@	5
nan@@	5
periodic@@	5
ceased	5
pitched	5
Mog@@	5
sprink@@	5
Summer	5
Tut@@	5
993	5
endanger	5
independence	5
Critical	5
counsel@@	4
circumstance	4
Med	4
hurt	4
este@@	4
Princes	4
681	4
Wit@@	4
Fam@@	4
aints	4
Omni@@	4
detects	4
‚	4
tens	4
till@@	4
185@@	4
Costa	4
FEL@@	4
sword	4
fron@@	4
elaborated	4
vá@@	4
ier	4
excl.	4
IQ	4
sea	4
Relationship	4
540@@	4
Lei@@	4
icon	4
obstructed	4
Front	4
Kong@@	4
dens@@	4
Tier	4
fauna	4
bulbs	4
assisting	4
ever-@@	4
sé@@	4
Foundation	4
gastr@@	4
923@@	4
05-0@@	4
decision-@@	4
ump	4
ight@@	4
Walter	4
Link	4
772	4
35.@@	4
neu@@	4
abbreviated	4
ferences	4
860	4
analogy	4
genome	4
query	4
modern	4
brush	4
öl@@	4
cold-@@	4
professor	4
harmon@@	4
1895	4
bre	4
Activation	4
574	4
8.30	4
605	4
Castel@@	4
Loop	4
Publication	4
Lid@@	4
tually	4
disabled	4
Thou@@	4
ghts	4
Ark@@	4
723	4
Plastic	4
Diploma	4
kon@@	4
trolle	4
mit	4
ieu	4
guards	4
щ@@	4
Beck	4
ames	4
kle@@	4
prototype	4
naked	4
Chim@@	4
bor	4
tank	4
smallest	4
books	4
impacted	4
543	4
founding	4
upper@@	4
Plain	4
aky	4
Dul@@	4
behavioral	4
suggestions	4
ко@@	4
-K@@	4
tedness	4
suite	4
ph	4
visu@@	4
jam@@	4
Kaiser	4
Perman@@	4
Sag@@	4
Heiz@@	4
ř@@	4
ovice	4
1.86	4
ded@@	4
1958	4
wom@@	4
806@@	4
7.0@@	4
808@@	4
cluster	4
backward	4
voting	4
Amar@@	4
mio	4
teren	4
8,3	4
Jes@@	4
stra	4
Mel	4
Two-@@	4
purchases	4
Day@@	4
ă@@	4
asa	4
thermo@@	4
2N	4
disappointing	4
HS@@	4
reciprocal	4
SF@@	4
	4
dataset	4
950@@	4
uci@@	4
DOS	4
background@@	4
modular	4
ton-@@	4
travelled	4
emphasised	4
polyurethane	4
Shuttle	4
breakfast@@	4
anum	4
010@@	4
gig@@	4
Cinema	4
committing	4
Nol@@	4
pace	4
kos@@	4
Resolution	4
Ohio	4
amphi@@	4
reserv@@	4
WC	4
eur	4
24,@@	4
Commun@@	4
rist@@	4
sorted	4
trau@@	4
universally	4
terminate	4
fox	4
medium-term	4
NAT@@	4
spoken	4
igi@@	4
ver-@@	4
accomplishment	4
electrically	4
axi@@	4
stiff@@	4
KY@@	4
thirty	4
49,@@	4
Presid@@	4
sley	4
Initiatives	4
aphrag@@	4
26,@@	4
vote	4
tter	4
boy@@	4
virtue	4
regimes	4
Dame	4
inde	4
Molecular	4
participates	4
990	4
globe	4
ounded	4
798@@	4
historic	4
Ziel@@	4
statt@@	4
health-@@	4
tr	4
gged	4
278@@	4
Als@@	4
Carolina	4
potatoes	4
Next	4
grad@@	4
grants	4
Transformation	4
Visit	4
green-@@	4
cloud@@	4
Speci@@	4
instrument	4
sid	4
Santa	4
zk@@	4
eller	4
noc@@	4
analog	4
translating	4
LNG	4
bathe	4
Gas	4
educate	4
pointer	4
saf@@	4
Commer@@	4
350,000	4
Impulse	4
sponsored	4
417@@	4
propagation	4
Scandinavian	4
Zo@@	4
Giorgio	4
Sign@@	4
Wash@@	4
tension@@	4
almonds	4
sixty	4
inclu@@	4
pan-European	4
micro	4
exempted	4
Telecom	4
Verona	4
finger@@	4
complemented	4
blow	4
Tub@@	4
practise	4
Apart@@	4
school	4
verb@@	4
fullness	4
.ro	4
207@@	4
fund@@	4
Peter@@	4
sbr@@	4
aster@@	4
know@@	4
ono@@	4
other@@	4
byp@@	4
ement-@@	4
moistur@@	4
gla@@	4
recip@@	4
MOR@@	4
Selected	4
favorable	4
33,@@	4
Bell	4
invasion	4
706	4
nylon	4
139@@	4
.at	4
How@@	4
506@@	4
Administr@@	4
acquis	4
finds	4
786	4
appreciated	4
Cul@@	4
Infra@@	4
disclose	4
646	4
Stefano	4
birth@@	4
Feed	4
Basel	4
resort	4
aero@@	4
awak@@	4
Ş	4
ose@@	4
compilation	4
765	4
spear	4
nationalities	4
fulfils	4
abov@@	4
816	4
ickness	4
uck	4
resides	4
companion	4
fulfilling	4
Home@@	4
Model	4
frequ@@	4
entl@@	4
Zak@@	4
Gul@@	4
wherever	4
Kri@@	4
taries	4
Literature	4
sat@@	4
strö@@	4
Martino	4
sibly	4
Less@@	4
offset	4
11.2008	4
kur@@	4
ets	4
gling	4
catching	4
973	4
vious@@	4
edly	4
Techni@@	4
.c@@	4
signific@@	4
incorporates	4
St-@@	4
emitted	4
heard	4
18,@@	4
leis@@	4
È@@	4
alarm	4
Marina	4
inlet	4
random	4
workflow	4
sos	4
Derby	4
Sun	4
Tue	4
Sat	4
mop@@	4
1112	4
convinc@@	4
hey	4
aned	4
spend	4
dictated	4
Beginning	4
Tu@@	4
mitig@@	4
Sep	4
achten@@	4
Aug@@	4
Anne	4
LCD	4
balancing	4
hiring	4
Purple	4
purely	4
nu	4
embedded	4
underlined	4
echo	4
2o@@	4
yy@@	4
pcs	4
cylindrical	4
w.	4
nine@@	4
confuse	4
Se	4
disco@@	4
Liverpool	4
Block@@	4
schem@@	4
kt@@	4
Süd@@	4
websites	4
Commissioner	4
г	4
tranet	4
wr@@	4
Assum@@	4
IW@@	4
conver@@	4
ajo	4
Ei@@	4
1054	4
candy	4
1930	4
ague	4
LP	4
ke-@@	4
RAK@@	4
Pie@@	4
automated	4
finishes	4
dropping	4
Kevin	4
COL@@	4
urged	4
Conveni@@	4
Jacob	4
visualisation	4
Reasons	4
multifaceted	4
Solid	4
Schwarzen@@	4
aura	4
runs	4
Though	4
Mete@@	4
mentioning	4
Hours	4
nova	4
consultancy	4
illy	4
Distribu@@	4
separating	4
С	4
MENTS	4
introductory	4
Computer@@	4
station	4
revising	4
seminars	4
licenses	4
kä@@	4
vicinity	4
adhesi@@	4
undisturbed	4
hites	4
identity	4
enced	4
nl	4
worrying	4
seventh	4
54-@@	4
Hip	4
code@@	4
Logo	4
clone	4
1964	4
Fifth	4
376@@	4
Diego	4
.01.2007	4
Down	4
meantime	4
Profile	4
practi@@	4
mercury	4
Seven@@	4
804	4
industri@@	4
enburg	4
facto	4
berto	4
526@@	4
Kir@@	4
gos	4
rigorous	4
corners	4
324@@	4
12.2007	4
919	4
Bielefeld	4
sewage	4
Austri@@	4
ange	4
owes	4
floors	4
Identi@@	4
Christopher	4
Go@@	4
colored	4
812	4
Luis	4
accomplishments	4
Meri@@	4
Tou@@	4
meaningless	4
318@@	4
entionally	4
Johann@@	4
äs@@	4
flocks	4
detecting	4
irrelevant	4
DX@@	4
Rise	4
Gew@@	4
acidi@@	4
Telef@@	4
shoulders	4
reservoirs	4
promised	4
calculator	4
Kill@@	4
votes	4
ellant	4
spra@@	4
stel@@	4
Missing	4
deren	4
883	4
975	4
deliberations	4
1970s	4
cloud	4
regain	4
BK@@	4
sends	4
consider@@	4
ocation	4
dings	4
encounters	4
differenti@@	4
ed.@@	4
766	4
pable	4
Unions	4
omm@@	4
ateurs	4
acking	4
Heavy	4
sored	4
belt	4
Alicante	4
Manor	4
024@@	4
Help	4
J.@@	4
elimin@@	4
glass@@	4
dor	4
Media	4
programming	4
interven@@	4
Arm@@	4
extract	4
increas@@	4
″	4
111,@@	4
manifests	4
special@@	4
moulds	4
vegetarian	4
cracking	4
argues	4
slope	4
Dub@@	4
retaining	4
Firenze	4
UNIC@@	4
pleasure	4
detectors	4
nearby	4
advancement	4
WER@@	4
assumptions	4
avoidable	4
reads	4
qualifying	4
Ljub@@	4
nu@@	4
d4@@	4
Korean	4
faceted	4
shipping	4
Ready	4
insk@@	4
Taur@@	4
skon@@	4
flour	4
satellite	4
cosmetic	4
Schi@@	4
Alone	4
dam	4
cav@@	4
Declaration	4
wanting	4
envisaged	4
X.	4
retail	4
Eindhoven	4
counterparts	4
bigger	4
Jacqu@@	4
Organic	4
endang@@	4
GOL@@	4
thirty-@@	4
iry	4
hesive	4
favourite	4
ignition	4
Intern@@	4
eighteen	4
Extra@@	4
614	4
enberg	4
con-@@	4
cooperate	4
Plaza	4
Stic@@	4
hits	4
AVE	4
backup	4
dimensions	4
torn	4
complaining	4
yk@@	4
seeking	4
pris@@	4
risti@@	4
Analy@@	4
fibers	4
Termin@@	4
endable	4
7,5	4
collaborative	4
Arbeit	4
Gesundheit	4
Sozi@@	4
shellfish	4
belgi@@	4
Add-@@	4
3D	4
pid	4
Specifications	4
EXPO	4
atedly	4
go-@@	4
dynamics	4
acquire	4
bij@@	4
extra@@	4
shifting	4
930	4
stuffs	4
eage	4
ification	4
consum@@	4
warmed	4
100g	4
KT@@	4
warrants	4
utions	4
Ю@@	4
amen	4
12.2006	4
intends	4
chore@@	4
109@@	4
Philippe	4
Anat@@	4
1990s	4
spraying	4
hearings	4
Engel@@	4
16,@@	4
ICOR	4
Mini-@@	4
formulate	4
ampl@@	4
stein-@@	4
Tested	4
Dav@@	4
fix@@	4
lle	4
2012	4
BMP	4
dez	4
backbone	4
productivity	4
LB	4
IFT	4
Zim@@	4
periphery	4
highlights	4
waning	4
syste@@	4
Correc@@	4
Strasbourg	4
Ethn@@	4
cb@@	4
coherence	4
isk	4
Vá@@	4
Valencia	4
Trends	4
stringent	4
acs	4
OPER@@	4
unpublished	4
Initiative	4
amar@@	4
Ler@@	4
Brown	4
AAC	4
exhaustive	4
anytime	4
squeezed	4
stepped	4
duce	4
nick@@	4
anx@@	4
Lift	4
Web@@	4
Luigi	4
fic	4
listings	4
HG@@	4
Secon@@	4
meet@@	4
docum@@	4
Info	4
on-line	4
Workshop	4
Lé@@	4
puls@@	4
Vac@@	4
Melanie	4
ö	4
free-@@	4
chic@@	4
SIS	4
harsh	4
starter	4
Ernst	4
cages	4
Flam@@	4
capture	4
gang@@	4
ard-@@	4
cycling	4
consequential	4
50s	4
-the-@@	4
distinguished	4
inspir@@	4
up-to-date	4
political	4
high-quality	4
1-8@@	4
bable	4
Improve	4
anticipation	4
Speech	4
Users	4
reluctant	4
qual@@	4
isolation	4
dang@@	4
by@@	4
brilliant	4
Unified	4
suit	4
ok	4
Hr@@	4
government	4
Cristina	4
KI	4
WAL@@	4
geographic	4
Fund@@	4
G.@@	4
pant@@	4
Letter	4
kets	4
Aes@@	4
heterogen@@	4
Dres@@	4
decke	4
wald@@	4
tany	4
599@@	4
má@@	4
Lik@@	4
exit	4
Ombudsman	4
Tom	4
579	4
totality	4
Queen	4
edu	4
secondly	4
ques@@	4
visional	4
Tä@@	4
Of@@	4
Cal	4
cosmetics	4
Lup@@	4
lef@@	4
rapporte@@	4
dise	4
yen	4
exceptions	4
jn@@	4
.06.2008	4
disintegration	4
contacted	4
fluence	4
1970	4
mistakenly	4
370@@	4
Salamanca	4
ingu@@	4
toll	4
liv@@	4
cialis	4
grou@@	4
link@@	4
mesh	4
lite	4
buzz@@	4
object	4
Societies	4
folds	4
ères	4
discharged	4
Late	4
Inform@@	4
endorsement	4
heated	4
Spe@@	4
Economics	4
Port@@	4
038@@	4
av	4
exchanges	4
-ups	4
Nuremberg	4
Esc@@	4
get@@	4
asterisk	4
contributor	4
summer	4
AAA	4
Hon@@	4
intensely	4
dt	4
upgrades	4
Doing	4
distorted	4
791	4
Hermann	4
SCO@@	4
yo	4
659	4
х	4
realistic	4
chir@@	4
small@@	4
8x@@	4
itable	4
Cardiff	4
compares	4
skip@@	4
cus	4
Nations	4
capit@@	4
879	4
tang@@	4
interchange	4
01.@@	4
VP	4
Fro@@	4
T15	4
857	4
5mm	4
inches	4
medizin	4
KNOW	4
acco	4
difficul@@	4
615@@	4
compulsory	4
asp	4
encourages	4
DEM@@	4
cour@@	4
gathered	4
stagg@@	4
Canyon	4
owed	4
te.@@	4
196@@	4
milestones	4
Amer@@	4
integrates	4
shooting	4
pliers	4
Strengthening	4
Hear@@	4
Adapter	4
pierc@@	4
Paris-@@	4
Listed	4
barbar@@	4
replic@@	4
feels	4
Tall@@	4
Pris@@	4
UL	4
rolled	4
face@@	4
601	4
mentally	4
Plant	4
Partner	4
esto	4
Bang@@	4
waking	4
fire	4
foreseeable	4
27,@@	4
ж	4
airspace	4
	4
habit	4
Modu@@	4
Bari	4
discar@@	4
Kut@@	4
Bishop	4
esen	4
Alpha	4
plantations	4
rainbow	4
omen@@	4
tti	4
Wid@@	4
almond	4
digit	4
rectangular	4
certainly	4
sson	4
umbent	4
atmosphere	4
specialized	4
uncertainties	4
cm@@	4
ela	4
Ex	4
0.015@@	4
predecessor	4
lein	4
346@@	4
Address	4
OJ@@	4
Hannover	4
passi@@	4
modulation	4
tas	4
Motion	4
cheese	4
995	4
Veri@@	4
adds	4
Principal	4
holes	4
exemption	4
mixer	4
adopting	4
Cry@@	4
Bul@@	4
.si	4
ished	4
Dean	4
tionary	4
circle	4
appealed	4
Wou@@	4
Strat@@	4
psychiat@@	4
Ş@@	4
inous	4
ρ	4
generating	4
Des	4
centred	4
Warm	4
dl@@	4
Tempor@@	4
werk	4
tage	4
down@@	4
¹	4
fade	4
MART@@	4
of-@@	4
Fuj@@	4
Nearly	4
Delegation	4
yrinth	4
remembering	4
arte@@	4
smo@@	4
21,@@	4
MID@@	4
assurances	4
702	4
survi@@	4
imminent	4
Topics	4
olo	4
array	4
Top	4
Sabine	4
twins	4
Slow	4
1966	4
39,@@	4
Terms	4
Emp@@	4
EU-wide	4
millions	4
degrad@@	4
Organis@@	4
uals	4
restrictive	4
motions	4
assignment	4
negotiations	4
ites	4
pla@@	4
56,@@	4
proceeding	4
preparedness	4
Augsburg	4
Shell	4
elop@@	4
betab@@	4
advisory	4
dip	4
WF	4
Agri@@	4
ope	4
tioning	4
bal@@	4
siehe	4
Service-@@	4
backgrounds	4
ains	4
controll@@	4
crystal@@	4
Descri@@	4
pension@@	4
mass@@	4
901	4
likewise	4
Anyone	4
gain@@	4
ultrasonic	4
deriv@@	4
stands	4
lique	4
environ@@	4
ali	4
packing	4
Americans	4
Session	4
Posts	4
INS	4
freelance	4
Kö@@	4
415@@	4
622	4
ug	4
proceeded	4
curriculum	4
Situ@@	4
kol@@	4
defend	4
Mixed	4
Feli@@	4
-18	4
Dialogue	4
Afric@@	4
thou	4
Superior	4
spin-@@	4
Outside	4
operators	4
bank	4
Representation	4
bio-@@	4
Graphic	4
outlet	4
Cuba	4
Dag@@	4
Vinc@@	4
formulating	4
Year@@	4
138@@	4
watering	4
Sak@@	4
Stay	4
h.	4
Collabor@@	4
Dimit@@	4
603	4
WILL	4
Travelling	4
wedge	4
Ces@@	3
att@@	3
comprehensively	3
Oct	3
Sn@@	3
wide-@@	3
Choice	3
ultra-@@	3
Opening	3
whip@@	3
dispers@@	3
Condition	3
relia	3
burg@@	3
tà	3
pv@@	3
isch-@@	3
ensuing	3
insects	3
Stand	3
Experim@@	3
moreover	3
-08	3
Fully	3
spiel	3
Heidelberg	3
proceeds	3
Graduate	3
Priority	3
proportionate	3
trapped	3
cleansed	3
lette	3
Antoine	3
lier	3
wad@@	3
aren	3
logistics	3
cam	3
traum@@	3
aeg@@	3
Detection	3
associ@@	3
coil	3
hot-@@	3
Aro@@	3
midday	3
287@@	3
theory	3
exclusivity	3
esch@@	3
boundary	3
adopts	3
Bros@@	3
Mayor	3
Meat	3
gri@@	3
itinerary	3
distortion	3
anz	3
Eu@@	3
HOUT	3
itions	3
anten@@	3
tative	3
bei	3
Ric@@	3
1960	3
pasta	3
par	3
adrenal@@	3
по@@	3
Output	3
Beyond	3
rement	3
expec@@	3
assumes	3
Oster@@	3
Library	3
ern	3
.00@@	3
Courses	3
Contrary	3
Basics	3
Strip	3
5-1	3
Mess@@	3
Gilbert	3
Num@@	3
1350	3
oc	3
cities	3
acing	3
sr@@	3
Á	3
SOR@@	3
1,300	3
transluc@@	3
mammals	3
inventory	3
hood	3
vill@@	3
Chamber	3
Dum@@	3
registr@@	3
atie	3
Forestry	3
Monte	3
Η	3
dier	3
Blau@@	3
uren	3
Accoun@@	3
dimension	3
tive-@@	3
Help@@	3
egel@@	3
dv@@	3
Agen@@	3
Itali@@	3
Enhanced	3
aces	3
Agricul@@	3
tura	3
Jud@@	3
spread@@	3
Avi@@	3
escence	3
special-@@	3
1,4	3
fabric	3
-16	3
Simply	3
ż@@	3
obli@@	3
charts	3
Vu@@	3
onel	3
ray	3
essa	3
lor	3
finance	3
41.@@	3
Thr@@	3
Operating	3
indefinitely	3
plaza	3
Richard	3
Zel@@	3
div@@	3
lease	3
photocopying	3
aga	3
spe@@	3
refined	3
Fail@@	3
882	3
NB	3
broader	3
indexes	3
Massachusetts	3
eres	3
disrupt	3
resembles	3
slipped	3
Expan@@	3
where@@	3
828	3
stretched	3
H3	3
Bell@@	3
530@@	3
528@@	3
son-@@	3
diment	3
Living	3
defines	3
church	3
bian	3
reacted	3
ading	3
Nm	3
Clu@@	3
holt	3
Developing	3
ví@@	3
Frankfurter	3
scri@@	3
rests	3
Sieg@@	3
chen@@	3
x.@@	3
xxx	3
rig	3
supervising	3
Geor@@	3
rier	3
legi@@	3
squares	3
abundance	3
permits	3
felder	3
277@@	3
ess-@@	3
facts	3
formulas	3
Dutch	3
beds	3
sli@@	3
power@@	3
drank	3
f.@@	3
║	3
smeralda	3
inauguration	3
Guarantee	3
driver	3
568	3
Thu	3
idents	3
rom	3
unwilling	3
Carr@@	3
Native	3
bread	3
unrestricted	3
vi	3
Operators	3
eper	3
Sequ@@	3
Elias	3
opy	3
ove	3
Po	3
Recog@@	3
Grounds	3
acher	3
prompted	3
Rev.	3
Confirmation	3
Components	3
hide	3
copes	3
arios	3
Consum@@	3
Prado	3
www.g@@	3
Directives	3
photography	3
chemist	3
pause	3
Lub@@	3
promotional	3
hat	3
524@@	3
utes	3
asses	3
Efficiency	3
Lisbon	3
falsi@@	3
Selva	3
Will	3
Hé@@	3
Cla@@	3
AES	3
admission	3
auc@@	3
beings	3
darker	3
colos@@	3
aide	3
äd@@	3
Syst@@	3
pigments	3
delete	3
msg@@	3
Leiter	3
Gruppe	3
Angel@@	3
-13	3
mant	3
email	3
beard	3
899	3
thousands	3
atism	3
Rock@@	3
Iowa	3
importantly	3
Family	3
Trace	3
endurance	3
.be	3
trans-@@	3
porter	3
Scottish	3
attractiveness	3
postage	3
dire	3
Directly	3
UV-@@	3
047@@	3
generous	3
Tob@@	3
proposing	3
pping	3
37,@@	3
towel	3
01.03.@@	3
there@@	3
Newly	3
notices	3
osted	3
forgot	3
www.b@@	3
Kom@@	3
RES	3
out-@@	3
guilty	3
BLO@@	3
RAW	3
Lom@@	3
zn@@	3
но@@	3
59,@@	3
Task	3
Force	3
pis@@	3
COS	3
ende@@	3
XIX	3
AJ@@	3
Reykjav@@	3
gur@@	3
359@@	3
whel@@	3
Arms	3
forces	3
eping	3
aca	3
ancillary	3
ated@@	3
mirrors	3
att	3
outw@@	3
wake	3
pertinent	3
reconstruction	3
sag@@	3
socket	3
nomination	3
thrive	3
spectac@@	3
Mex@@	3
glove	3
less-@@	3
Scar@@	3
lol@@	3
electron	3
advis@@	3
solu@@	3
uniquely	3
moods	3
float	3
optimally	3
amor@@	3
Must@@	3
1260	3
pendix	3
lee	3
osci@@	3
12th	3
haz@@	3
web-site	3
een	3
lun@@	3
isions	3
impregn@@	3
feder@@	3
sand	3
895	3
Stick	3
aped	3
entails	3
bodily	3
orientations	3
edic	3
885	3
locate	3
ör	3
Hus@@	3
uncle	3
Montpellier	3
neighbouring	3
irt	3
liqu@@	3
З@@	3
Atom@@	3
Minute	3
not-@@	3
totalled	3
uch@@	3
graduates	3
Iz@@	3
psychotherapy	3
patch@@	3
victims	3
Centers	3
pack@@	3
rasp@@	3
SHIP@@	3
Birds	3
Areas	3
distor@@	3
jar@@	3
obsolete	3
198@@	3
XT	3
Kod@@	3
lone	3
incidents	3
CD-ROM	3
computing	3
tice	3
prene@@	3
lington	3
BRI@@	3
2011	3
Viol@@	3
promoted	3
outlines	3
Köln	3
Geschäfts@@	3
bereich	3
Will@@	3
YA	3
obligation	3
Seed	3
mass-@@	3
QN@@	3
Mann	3
repairs	3
assesses	3
790	3
ń	3
Instrum@@	3
full-length	3
Often	3
copyright	3
ween	3
Down@@	3
scratch	3
1911	3
ę@@	3
specific@@	3
-04	3
Arti@@	3
economical	3
Victoria	3
Pit@@	3
forts	3
scrutiny	3
iced	3
seg@@	3
constraints	3
contractual	3
diversion	3
one-sided	3
.0.@@	3
0.016@@	3
Nylon	3
aforementioned	3
Firstly	3
world-wide	3
Visiting	3
splitting	3
Fraud	3
OLAF	3
Catalogue	3
Measurements	3
Kn@@	3
Tec	3
1870	3
abs@@	3
subscribers	3
.g@@	3
pick-up	3
0-7	3
1011	3
usefulness	3
tightened	3
pot	3
beha@@	3
foster	3
Mi	3
Aim	3
ch.	3
Madeira	3
Bank	3
nig@@	3
scrat@@	3
949	3
zip	3
descriptions	3
R2	3
Transition	3
338@@	3
serves	3
Immer@@	3
craw@@	3
Soc@@	3
434@@	3
manif@@	3
520@@	3
Identification	3
hidden	3
1920	3
enc	3
2013	3
ofen	3
contacting	3
fif@@	3
roy	3
targeting	3
732	3
ongh@@	3
Ukraine	3
agent@@	3
Gd@@	3
Rus@@	3
Tim	3
oil@@	3
sunshine	3
flock	3
Perf@@	3
Grou@@	3
ascertained	3
237@@	3
disturb	3
superse@@	3
Manufacture	3
Planning	3
exe	3
rent-@@	3
executive	3
Ana	3
igan	3
yer	3
veen	3
310@@	3
Sleeping	3
Requ@@	3
iring	3
codi@@	3
.dk	3
Renault	3
fragmentation	3
Tartu	3
Chair	3
twel@@	3
analyst	3
genom@@	3
Highlights	3
Traditional	3
reliance	3
anza	3
wishing	3
shipment	3
Vo@@	3
Linz	3
Updated	3
ensu@@	3
Instruments	3
Polyester	3
Daim@@	3
ler-@@	3
traine@@	3
eship	3
WORK	3
breeder	3
Mur@@	3
Dob@@	3
ski	3
Ġ@@	3
0.014@@	3
incorporating	3
finances	3
sparkling	3
tot@@	3
Bench@@	3
width	3
CN	3
swim	3
lemon	3
aced	3
Radical	3
execute	3
voc@@	3
grass	3
trees	3
Terrace	3
sil	3
crack@@	3
whist@@	3
IRC	3
Gan@@	3
harb@@	3
shields	3
fry	3
etto	3
Croce	3
Pilot	3
▲	3
autop@@	3
barrels	3
Corp.	3
jan@@	3
Tai@@	3
anese	3
ė@@	3
Apache	3
Reading	3
radicals	3
parag@@	3
protec@@	3
aviation	3
jon@@	3
sent@@	3
Son	3
roots	3
group@@	3
.00	3
sati@@	3
lan	3
11.2006	3
spotted	3
Highest	3
gir@@	3
dle	3
AY@@	3
Airport	3
oulder	3
igned	3
alize	3
0000@@	3
tifications	3
Ani@@	3
46,@@	3
Carlo	3
atic-@@	3
cott@@	3
ired	3
enrichment	3
Collins	3
disadvantages	3
dorf	3
NS@@	3
traction	3
Academ@@	3
2406@@	3
Updates	3
609@@	3
Genetics	3
559@@	3
Stabilisation	3
¼	3
586@@	3
738	3
just@@	3
Paraff@@	3
Silk	3
wheelchair	3
ind	3
reconsider	3
Lead	3
Sir@@	3
theon	3
antibio@@	3
dial-@@	3
7th	3
cars	3
bridges	3
-06	3
metics	3
Lab	3
Pant@@	3
culmin@@	3
gi	3
BI	3
bloo@@	3
day-to-day	3
coincide	3
Gabri@@	3
fid@@	3
youngest	3
linking	3
07-@@	3
Recently	3
cooler	3
promising	3
connectors	3
Drop	3
Ou@@	3
anger@@	3
File	3
iano	3
business-@@	3
originates	3
hies	3
Langen@@	3
feld	3
pasture	3
Hä@@	3
Valle	3
omni@@	3
dimen@@	3
Brothers	3
.13	3
Denis	3
sistence	3
saunas	3
jam	3
tapped	3
pulp	3
sers	3
objects	3
flight	3
Messina	3
arte	3
climatic	3
led@@	3
you@@	3
third-@@	3
nex@@	3
Nikol@@	3
aos	3
fair@@	3
Publishing	3
Bart@@	3
switches	3
phon@@	3
Act	3
Halle	3
optimized	3
246@@	3
California	3
telecommunication	3
abbreviation	3
Bus	3
11-14	3
bü@@	3
step-@@	3
thumb@@	3
Frankreich	3
Ã@@	3
Reason	3
leaves	3
.com.@@	3
sum@@	3
thom@@	3
line-@@	3
dispute	3
flow@@	3
Anthony	3
Pick@@	3
medium-@@	3
Aug	3
socks	3
rying	3
mr@@	3
Directions	3
ADS	3
separates	3
ails	3
commit@@	3
Installation	3
aland	3
och	3
1971	3
Kennedy	3
ż	3
Generic	3
quadru@@	3
Colorado	3
deep-@@	3
narr@@	3
Set@@	3
Objec@@	3
indoors	3
eradicate	3
Comple@@	3
CB	3
poison	3
stripe	3
Back@@	3
ICO	3
mins	3
Sex@@	3
Enlargement	3
genus	3
americ@@	3
Villa	3
gas-@@	3
Expl@@	3
akes	3
320@@	3
Are@@	3
Better	3
comparatively	3
entries	3
ence@@	3
Cab@@	3
dissip@@	3
ailed	3
Flex	3
Mead@@	3
en-free	3
Intensive	3
ultimate	3
eck@@	3
Eph@@	3
synergy	3
Birgit	3
eren	3
Sec	3
IA@@	3
roz@@	3
mustard	3
onic@@	3
js@@	3
steller	3
Forsch@@	3
atom	3
paci@@	3
Scotland	3
Pascal	3
widened	3
leng@@	3
AIN@@	3
Mich@@	3
Nederlands	3
kka	3
VIC@@	3
Prob@@	3
Roy	3
enlarge	3
Projects	3
267@@	3
Tan@@	3
video-@@	3
Drum@@	3
exciting	3
identally	3
dner	3
WHERE	3
wild@@	3
Contributions	3
Chan@@	3
Carri@@	3
Insurance	3
occupational	3
rights	3
cryp@@	3
mines	3
chronological	3
Enterprises	3
appe@@	3
fav@@	3
Thermo@@	3
expire	3
shortcomings	3
archive	3
unequal	3
thm	3
adium	3
bathed	3
ré@@	3
Wat@@	3
pli@@	3
impe@@	3
chilled	3
Cass@@	3
Ideally	3
enius	3
bold	3
TIR	3
infinity	3
semi	3
Dog@@	3
Arn@@	3
hem	3
number@@	3
ziale	3
Sicherheit	3
ationen	3
2.8@@	3
tun@@	3
fs	3
Montal@@	3
ob	3
edo	3
loss@@	3
`	3
Giuseppe	3
collar	3
eye-@@	3
hung@@	3
generates	3
Amber@@	3
VERY	3
danger	3
deliveries	3
420@@	3
Sop@@	3
Fou@@	3
Gare	3
fixing	3
a.html	3
olution	3
adequ@@	3
cial	3
Mod@@	3
argon	3
oon	3
Quay	3
enabled	3
Hartmann	3
telec@@	3
streaming	3
store@@	3
atic@@	3
lifecycle	3
characterize	3
Л	3
ool	3
aciones	3
Appoin@@	3
tment	3
specialising	3
Biom@@	3
mains	3
hotels	3
obviously	3
adri@@	3
ry-@@	3
Kay@@	3
stairs	3
fing@@	3
981	3
partition	3
Accession	3
collaborated	3
setup	3
white-@@	3
Chemicals	3
168@@	3
adic@@	3
Relax@@	3
crit@@	3
educated	3
fati@@	3
observer	3
handles	3
lande	3
inter	3
libr@@	3
gesellschaft	3
brated	3
JP@@	3
Syrian	3
Comment	3
.01.2008	3
0043	3
Ъ@@	3
Я	3
ITZ	3
à-@@	3
harbours	3
stain	3
leather	3
fabrics	3
ophobia	3
tici@@	3
ous-@@	3
EURO	3
550@@	3
952	3
onne	3
ellip@@	3
web@@	3
cosity	3
trans	3
ento	3
Pub@@	3
GW	3
Lic@@	3
private	3
stern@@	3
570@@	3
FAO	3
itas	3
Christi@@	3
ansen	3
Video-@@	3
aea	3
opus	3
connectivity	3
quoted	3
characters	3
TOP	3
shut	3
specialises	3
snacks	3
man-made	3
arrangement	3
establish@@	3
utilization	3
Commercial	3
strongest	3
-for-@@	3
ien@@	3
journey	3
faculties	3
Pust@@	3
ns@@	3
2006@@	3
worker	3
stud	3
audio	3
forehead	3
doubts	3
neo-@@	3
Tour	3
Wagner	3
XIII	3
Broken	3
21st	3
Moroc@@	3
ree	3
viewing	3
firms	3
Aquila	3
rike	3
expresses	3
proportion@@	3
restrained	3
OFF@@	3
preserves	3
peter@@	3
cock	3
.07.2008	3
harmonization	3
Payments	3
laps	3
HK	3
watched	3
Brigitte	3
Jac@@	3
obs@@	3
Ed	3
emitting	3
able-@@	3
proactive	3
ook@@	3
Höchst	3
eto	3
Forward	3
stin	3
underestimated	3
Alfon@@	3
Wherever	3
mailing	3
Abstract	3
mer-@@	3
631	3
ht	3
Simp@@	3
dun@@	3
.hu	3
Integrated	3
igh	3
zza	3
squared	3
Tirol	3
unsuccessful	3
kB	3
stad	3
suit@@	3
ply	3
turb@@	3
Florence	3
cill@@	3
burst	3
ġ	3
ater	3
Payment	3
stry	3
garlic	3
oog	3
Harald	3
258@@	3
remedi@@	3
discouraged	3
unsatisfactory	3
ak	3
fires	3
y.@@	3
dentists	3
prepar@@	3
Arctic	3
recru@@	3
718	3
ste	3
Length	3
eus	3
Hau@@	3
bars	3
eld	3
toe	3
Pé@@	3
416@@	3
understandable	3
large-@@	3
rational	3
centric	3
NH	3
stressing	3
centrifu@@	3
Meet	3
Schön@@	3
2770@@	3
pouring	3
dessert	3
Scal@@	3
formul@@	3
SKI	3
revealing	3
lecturer	3
university	3
juices	3
gom@@	3
misleading	3
wy@@	3
consistencies	3
simulate	3
savings	3
po-@@	3
episo@@	3
ISO	3
Cam	3
After@@	3
noon	3
drum	3
1007@@	3
pre-accession	3
thane	3
.x@@	3
som	3
eved	3
Delta	3
validate	3
perver@@	3
Bund@@	3
ung-@@	3
Cher@@	3
suka	3
underway	3
lame	3
igo	3
subject-@@	3
09-@@	3
Feb	3
cup@@	3
998	3
inquiry	3
EMP@@	3
investment	3
997	3
tainer	3
MPEG	3
intensively	3
set-@@	3
Hong	3
Kong	3
1950s	3
urable	3
NB@@	3
so-@@	3
alls	3
seminar	3
0,2	3
ribbon	3
corro@@	3
2.50	3
sf@@	3
realised	3
ber-@@	3
alles	3
meticul@@	3
ys-@@	3
entitled	3
ext@@	3
bub@@	3
work-@@	3
U.@@	3
759	3
ffed	3
marg@@	3
conserve	3
sister	3
arily	3
directing	3
terly	3
Presidents	3
stren@@	3
punctu@@	3
polishing	3
pursue	3
Matt@@	3
Racing	3
nonetheless	3
Pav@@	3
hosts	3
EAG@@	3
Were	3
translates	3
lei	3
teborg	3
centimet@@	3
toast	3
consol@@	3
Liber@@	3
gie	3
340@@	3
Rev	3
acional	3
fills	3
FB	3
travels	3
Windows	3
onis	3
denti@@	3
wheel@@	3
South-@@	3
194@@	3
underestimate	3
Þ@@	3
capabilities	3
Grey	3
Grun@@	3
dz@@	3
Dual	3
isec@@	3
onds	3
teries	3
dentistry	3
4.20	3
Domen@@	3
arri@@	3
scheduling	3
bs@@	3
ktor	3
Zoeter@@	3
frustrated	3
mascul@@	3
mosquito	3
optical	3
456@@	3
Matthew	3
That@@	3
hesit@@	3
460@@	3
mu	3
ance@@	3
supervisory	3
not@@	3
7.	3
entities	3
pron@@	3
firing	3
fragmented	3
spr@@	3
kl@@	3
constell@@	3
oro	3
lacquer	3
tes-@@	3
discovered	3
situated	3
briefing	3
WAY	3
iller	3
Volks@@	3
spek@@	3
Healing	3
Buildings	3
saint	3
flap	3
EZ	3
7.57	3
Enh@@	3
ancement	3
dijk	3
DN	3
equival@@	3
MEDIA	3
Metal@@	3
Nelson	3
Mouse	3
Lef@@	3
optimize	3
Ś	3
Cooperative	3
Networking	3
Mont@@	3
zz@@	3
Rodri@@	3
guez	3
fitness	3
bug	3
thering	3
spiral	3
Agios	3
tela	3
tot	3
413@@	3
guardian	3
stern	3
reminding	3
tus@@	3
faction	3
Figures	3
renewable	3
Siena	3
.04.2008	3
overflow	3
led-@@	3
admin	3
erous	3
ulous	3
observing	3
tainable	3
12.00	3
colder	3
Providing	3
barely	3
newspapers	3
Rou@@	3
electronics	3
condensation	3
afar	3
tar	3
views	3
tainment	3
[...]
