"	21843644
,	18701442
the	16768745
.	15885322
of	12000843
/	9357734
and	9162525
in	7706170
to	7542577
)	6544707
(	6441968
:	6358342
a	5580423
is	4596872
with	4034098
for	3800383
or	2837984
The	2831040
be	2723657
on	2546534
1	2092882
-	2040777
as	1961314
that	1960136
are	1946268
not	1862636
you	1787331
at	1583747
by	1545036
mg	1530845
patients	1402574
%	1385674
an	1385186
was	1351873
from	1269527
have	1255865
it	1179237
20@@	1141269
your	1123065
should	1117449
s	1069551
this	1059942
2	997824
has	969457
s@@	888308
will	875815
In	856769
been	832774
.@@	831451
10	828860
can	824280
dose	819391
which	807818
may	805120
use	803841
t	783492
+	765588
I	744455
treatment	733947
•	733347
other	727026
?	717989
3	704676
-@@	699317
were	690441
EU	690001
w@@	686842
;	686785
all	685696
t@@	676064
16	672611
ml	671734
used	663694
M@@	642834
b@@	641480
’	639441
one	624330
http	623688
S@@	615527
4	594237
12	590367
also	580540
if	578999
15	573405
c@@	563637
h@@	561738
er	561001
_	558779
ts	556243
o	555809
more	554403
in@@	549250
5	547279
y	546011
k@@	545127
m	544626
If	537884
see	537061
es	534366
than	523066
after	515083
f@@	513735
e	511235
It	509782
This	508394
e@@	506682
a@@	506056
i	501012
who	493012
11	491633
00	488858
any	488018
g	487981
=	486320
re@@	481878
we	479290
7	475821
day	472291
tablets	462839
en@@	461718
p@@	461428
20	461260
no	459568
A	457966
g@@	457200
its	453965
en	453700
B@@	451875
injection	451822
d@@	447460
blood	445563
st@@	444966
G@@	442587
age	441044
our	439361
time	436069
30	433675
F@@	427364
*	425805
H@@	421686
n@@	418304
14	411414
6	407335
T@@	405332
p	405018
when	402196
their	400471
n	400403
ar@@	399714
A@@	397637
up	397389
E@@	395206
>	393808
ing	393380
doctor	391965
effects	390460
100	383111
solution	381673
but	379432
C@@	379253
studies	377301
]	375007
only	373888
–	373305
€	371226
during	370188
K@@	367123
m@@	365176
these	365173
0	364978
un@@	364153
13	362247
about	361786
years	360080
l@@	357708
www.@@	356936
D@@	355478
's	355147
!	355123
W@@	350456
i@@	349623
[	349115
an@@	348342
into	346555
L@@	342806
ers	342664
be@@	342389
50	342301
new	339681
z@@	339219
it@@	337349
17	336125
take	333873
section	333081
de	332598
they	331357
European	330119
had	329614
on@@	329435
R@@	326933
8	325748
“	325566
18	323775
clinical	323076
such	322825
y@@	322714
.com	321741
d	321351
side	320349
B	318109
&	316455
ti@@	314700
recommended	314555
first	313188
<	312546
x	311269
o@@	310712
de@@	310712
l	307485
P@@	306766
must	306521
”	305348
there	304874
us	304101
ed	302173
following	300865
information	300679
C	298847
contains	296890
25	296796
u@@	295541
out	294981
risk	292123
two	290811
'	290296
er@@	289705
...	289518
data	287480
ch@@	286730
j@@	286143
v@@	284659
se@@	284654
given	284098
di@@	283414
You	281794
al@@	280094
very	277268
days	277080
between	276581
before	274731
For	273883
products	270893
study	269426
What	269368
24	268875
O@@	266478
V@@	266340
do	265620
07	265074
therapy	264026
increased	263969
available	263248
r@@	262296
at@@	261424
ur@@	260583
b	259051
including	257652
as@@	257233
he	256411
J@@	255839
th	254664
ar	254650
over	252725
system	250018
some	249512
h	249293
administration	248901
U@@	248717
product	248212
daily	246661
kg	246100
21	245334
01	245305
06	244568
disease	243723
le@@	243486
#	241415
ation	240328
his	239204
k	238675
most	236911
medicines	236623
9	235727
N@@	235136
per	234908
08	234844
We	234571
ly	233001
active	232019
them	231801
is@@	231408
ho@@	230631
z	230492
taking	230125
Tel	228775
am	228448
02	228225
19	228060
people	228036
weeks	227737
well	227296
w	227115
ch	227097
reported	226706
or@@	225918
22	225661
so	224505
ad@@	224181
am@@	223618
ent	223391
treated	222160
oral	221789
site	221589
reactions	220904
sh@@	220260
to@@	220007
hours	219889
al	218379
vial	216608
like	215830
children	215644
tel	215204
19@@	214705
li@@	213358
au@@	211577
I@@	210195
number	209977
»	209954
pain	208942
ri@@	208894
without	208622
within	208546
levels	207864
es@@	207822
28	206635
associated	206314
skin	205035
40	205022
04	204900
There	204900
body	204626
under	204565
L	204510
co@@	203567
administered	202755
tr@@	202583
medicinal	201813
lo@@	201753
severe	201315
taken	199371
con@@	198904
ment	198695
would	197867
03	197569
able	197388
work	197173
combination	196475
ic@@	196258
5@@	196086
si@@	195569
increase	195270
3@@	193812
23	192897
months	192588
each	192282
u	192272
°	192054
using	191976
renal	191415
doses	190504
nigh@@	189552
those	189397
05	189385
less	188729
ate	188534
observed	188115
where	186576
high	186424
us@@	186245
need	185543
patient	185289
times	185231
tablet	184611
human	182476
symptoms	182099
year	182043
ph@@	181693
ws	181468
Do	181124
8@@	181043
ag@@	180795
ol@@	180751
effect	180281
safety	180135
insulin	179069
6@@	178379
9@@	178148
now	177601
el@@	177579
way	177437
found	177061
Ho@@	176906
EMEA	176078
ro@@	174390
7@@	173442
infusion	173059
th@@	170590
what	170270
same	169704
syringe	169477
water	169251
f	168861
compared	168428
liver	167854
through	167750
im@@	167587
made	167409
No	167220
ht@@	166831
ne@@	166821
09	166660
group	166417
many	166037
both	165281
once	164874
Commission	164422
order	164222
der	164164
ac@@	164141
ks	163918
medicine	163727
Po@@	163650
type	163405
ter	162429
ill@@	162349
how	161721
2@@	161514
om@@	161115
c	161069
make	160417
common	160416
ab@@	159772
60	159761
ations	159261
ra@@	159040
id@@	158960
being	158601
area	157927
my	157571
king	157456
adverse	157320
Ar@@	157278
every	157268
mo@@	156836
te	156100
el	155953
As	155912
ice	155441
heart	155302
does	154849
ec@@	154809
PM	154608
because	154534
plasma	154264
IU	153895
ve	153799
ity	153766
here	153673
id	153646
three	153586
containing	153517
line	153182
st	153026
end	152707
ine	152136
4@@	151825
possible	151234
le	150708
then	150690
experience	149680
sa@@	149082
ver	148765
TO	148449
low	148154
26	148079
against	147938
ma@@	147895
pl@@	147802
disorders	146891
placebo	146511
ta@@	146082
place	146060
room	146051
single	145310
How	144322
ex@@	143325
least	142505
me	142483
27	141986
known	141592
ci@@	141429
development	141036
ated	140320
ir@@	139678
Patients	139647
due	139647
2008	139623
ser@@	139182
could	138787
um	138599
em@@	138511
ay	137819
r	137284
considered	137259
se	136953
based	136810
events	136662
impairment	136450
film-coated	136167
important	135613
infection	135331
pe@@	135152
back	134405
cause	132961
Al@@	132343
est@@	132272
2009	132258
2010	132149
km	132075
different	132029
ap@@	131997
part	131590
function	131467
80	131371
case	131262
In@@	131207
Germany	131034
Z@@	131025
ds	130818
oun@@	130492
te@@	130074
31	130070
ent@@	129884
level	129857
29	129702
‘	129606
And	129305
week	129183
pre-filled	129167
An@@	128967
il@@	128846
May	128672
Each	128151
weight	128025
shown	127652
even	127648
45	127633
ant	127617
women	127065
These	126899
x@@	126845
et	126682
D	126240
However	126110
right	126102
bo@@	125996
below	125926
2007	125868
pressure	125609
Europe	125491
≥	125328
do@@	125265
me@@	125151
sp@@	125041
just	125006
After	124788
powder	124486
response	124239
efficacy	124225
results	124127
until	123701
den	123570
0@@	123388
els	123160
necessary	122778
approximately	122707
sted	122561
49	122506
receiving	122449
free	122434
special	122398
ge@@	122340
48	122296
total	122195
When	122070
get	121586
trials	121240
since	121232
ver@@	121110
vi@@	120158
S	120098
cases	120055
Re@@	119829
Ch@@	119684
dis@@	119503
To	118916
vaccine	118875
jo@@	118798
200	118716
world	118541
pr@@	118261
while	117867
no@@	117556
needle	117534
sodium	117335
red	117204
acid	116986
2006	116800
Y@@	116504
ou@@	116245
ed@@	116178
32	116138
la@@	116133
provided	116124
food	116115
for@@	115596
full	115438
small	115054
ic	114924
90	114502
last	114485
further	114432
sk@@	114396
pm	114142
ty	113916
e.	113750
4.4	113502
currently	113476
view	113410
hepatic	113304
1@@	113297
cells	113197
problems	113174
net	113058
potential	113016
ut@@	112999
inter@@	112428
therefore	112390
did	111898
ted	111788
support	111733
allergic	111732
ter@@	111486
period	111228
33	111169
control	111152
light	111089
«	110927
ous	110801
Your	110286
gu@@	110145
rate	109817
pre@@	109815
35	109480
substance	109173
10@@	109092
received	108944
own	108822
ren@@	108623
All	108569
oc@@	108552
conditions	108339
ce@@	108112
set	108038
concentrations	107874
change	107765
immediately	107694
long	107372
higher	107281
reduced	107209
seen	107152
we@@	106956
56	106875
s.@@	106565
come	106525
studied	106520
su@@	106447
good	106192
contact	106185
above	106134
capsules	106041
av@@	105602
Member	105550
quality	105488
ful	105247
UR@@	105159
infections	105117
exposure	105014
ig@@	104983
THE	104919
pack	104842
occur	104817
Au@@	104804
white	104690
life	104547
her	104313
ance	104134
States	103837
12@@	103593
ur	103550
per@@	103283
twice	103223
find	103040
ach@@	103040
'@@	102738
sch@@	102589
ting	102481
At	102077
Se@@	102060
ul@@	102003
ies	101596
similar	101461
significant	101120
ite	101001
300	100841
range	100665
result	100556
hr	100550
par@@	100423
ings	100124
44	99938
V	99262
v	99232
pro@@	98798
main	98513
0.5	98506
marketing	98428
500	97603
Union	97444
via	97375
str@@	97171
benefit	97166
75	97096
activity	97000
led	96810
boo@@	96801
od	96729
company	96721
98	96678
subjects	96659
failure	96403
ments	96353
lower	96284
suspension	96134
ans	96084
ON	96053
pri@@	95989
service	95687
required	95577
minutes	95537
much	95404
op@@	95319
include	95297
und	95293
mu@@	95263
est	95195
go	94713
rare	94700
too	94645
pregnancy	94472
end@@	94350
39	94329
X@@	94269
cancer	94267
är@@	94264
another	94226
the@@	94197
reduction	94092
pregnant	94028
ritonavir	94010
34	93980
AM	93929
N	93888
care	93762
effective	93654
ü@@	93565
air	93515
either	93502
adults	93272
treat	93258
Th@@	92875
M	92869
cell	92469
ingredients	92387
2005	92367
ay@@	92367
micrograms	92314
help	92194
him	91983
hard	91703
De@@	91693
36	91661
T	91448
blister	91437
TC	91307
tion	91145
ve@@	91143
ad	91038
he@@	91031
still	91028
name	90909
go@@	90784
called	90706
pg	90696
70	90682
pa@@	90677
second	90528
150	90510
18@@	90370
August	90366
serious	90291
related	90267
France	90212
cannot	90124
ia	90033
best	90014
He	89989
market	89814
mean	89577
ast	89571
P	89423
ist	89219
countries	89107
old	89092
form	89074
date	88761
already	88610
September	88606
changes	88590
down	88507
course	88466
00@@	88319
Di@@	88135
En@@	87703
solvent	87654
mon@@	87635
um@@	87629
around	87569
requested	87485
400	87384
specific	87375
43	87324
normal	87228
Council	87138
November	86998
ce	86940
start	86874
together	86843
als	86830
ha@@	86805
shall	86743
large	86742
clearance	86731
F	86694
O	86672
prior	86608
services	86470
CHMP	86435
42	86365
They	86363
Committee	86199
1.@@	85676
bleeding	85438
United	85383
We@@	85337
On	85310
rooms	85200
up@@	85051
But	84912
GmbH	84797
41	84719
loss	84702
Therefore	84680
become	84652
One	84522
ability	84498
ge	84248
appropriate	84071
management	84035
ob@@	83950
authorisation	83822
addition	83642
bu@@	83288
custom@@	83203
95	83192
sure	83143
next	83122
With	83070
moderate	82917
example	82809
great	82802
offers	82777
inhibitors	82744
sion	82727
ating	82669
local	82635
et@@	82574
-2@@	82574
min	82566
provide	82298
ants	82137
know	82115
br@@	81839
maximum	81807
expected	81548
want	81316
action	81269
ke	81160
pen	81065
man	81041
ing@@	81034
October	81023
ug@@	80905
men	80635
serum	80563
point	80493
46	80479
Other	80471
clear	80423
14@@	80163
lu@@	80107
toxicity	79966
E	79921
production	79778
fi@@	79514
ents	79511
our@@	79505
house	79309
2004	79240
international	79139
million	79071
ä@@	78923
qu@@	78915
cre@@	78804
process	78731
tell	78571
included	78551
April	78395
html	78349
ons	78270
stop	78234
,@@	78168
Su@@	78162
reaction	78121
signs	78108
land	78017
whether	77902
Mar@@	77856
tions	77809
Lo@@	77790
S.	77705
German	77660
Ex@@	77446
additional	77357
Presid@@	77356
activities	77324
Use	77232
Treatment	77168
intravenous	77041
ame	77025
test	76913
history	76793
Mr	76607
ank	76598
15@@	76575
give	76511
tic@@	76450
sc@@	76444
June	76288
she	76262
respectively	76152
four	76148
please	76127
mm	76068
according	75912
hepatitis	75795
Co@@	75735
tic	75701
vie@@	75700
tu@@	75656
limited	75585
ster	75548
comm@@	75422
list	75387
so@@	75180
means	75124
16@@	75031
especially	75030
glass	75004
dosage	74774
ip@@	74743
car@@	74687
der@@	74608
New	74594
controlled	74558
Con@@	74539
ak@@	74337
working	74285
Be@@	74234
decreased	74233
growth	74146
ors	74069
Le@@	74044
particular	74007
47	73977
PARTICULARS	73970
alone	73901
ang@@	73875
individual	73817
po@@	73808
52	73777
application	73764
public	73730
again	73723
APPEAR	73467
cl@@	73459
@	73420
show	73366
II	73347
AUC	73325
97	73322
open	73274
…	73274
always	73207
2000	73142
July	73117
37	73109
ere	73056
port	73044
55	73002
g.	72986
present	72934
March	72816
2.@@	72807
mar@@	72741
few	72658
gen@@	72420
bone	72413
reduce	72378
38	72327
ina	72318
ensure	72303
²	72248
ell@@	72047
rash	72011
ati@@	71957
ates	71908
car	71768
IS	71707
ary	71660
St@@	71651
000	71543
µg	71485
bi@@	71184
away	71122
load	71109
por@@	71007
HIV	70892
access	70851
du@@	70695
....	70549
PVC	70545
om	70487
ach	70457
Mo@@	70431
Pro@@	70408
sen@@	70301
84	70215
13@@	70176
report	70133
groups	70114
m2	69980
17@@	69914
apar@@	69880
ect	69865
concentration	69805
offer	69738
greater	69731
OF	69592
business	69468
Rep@@	69453
Very	69441
FOR	69355
continue	69347
population	69269
state	69185
file	69036
eye	68987
major	68816
dogs	68814
99	68769
decrease	68711
current	68676
established	68665
incidence	68640
e-@@	68579
AND	68483
receive	68423
agents	68306
caused	68256
s-@@	68193
sh	68160
national	68106
ris@@	68064
ö@@	68035
general	67818
't	67701
several	67681
child	67672
UR	67504
kidney	67331
indicated	67315
certain	67300
Common	67264
tra@@	67199
person	67148
cm	67129
tre@@	67126
vomiting	67119
content	67031
ars	66788
To@@	66726
ste@@	66538
measures	66491
non-@@	66479
muscle	66448
com@@	66399
medical	66375
gr@@	66282
t-@@	66066
areas	66048
vials	66034
re	65917
baseline	65888
International	65872
á@@	65799
table	65759
duration	65669
amount	65514
ich	65456
dosing	65443
U	65391
il	65292
ten	65279
located	65266
January	65260
wn	65237
Ver@@	65227
les	65159
sho@@	65086
over@@	65076
fl@@	65060
drug	65057
51	65050
starting	64999
might	64988
H	64934
mild	64809
event	64760
poli@@	64710
da@@	64695
nausea	64655
Please	64611
position	64468
gi@@	64456
pi@@	64216
art	64151
face	63997
die	63958
ba@@	63949
month	63846
54	63821
2.5	63797
standard	63714
ury	63599
From	63524
injections	63473
tical	63467
substances	63386
usually	63166
ties	63066
Oral	63043
and@@	63010
left	62997
virus	62955
healthy	62826
dr@@	62782
country	62719
particularly	62691
frequency	62609
$	62547
drive	62483
whole	62337
systems	62294
ud@@	62285
65	62245
ps	62210
Ac@@	62185
fully	61990
Take	61943
December	61904
off	61724
af@@	61704
presented	61601
59	61554
He@@	61510
iz@@	61366
ens	61321
performed	61296
vo@@	61230
2001	61213
R	61187
ub@@	61187
better	61171
ÿ@@	61167
W	61157
tri@@	61124
acute	61053
syndrome	61032
rats	60960
hol@@	60893
58	60888
{	60871
Win@@	60849
complete	60798
pharmacokinetics	60736
Fax	60689
however	60681
1000	60669
2003	60628
monitored	60601
real	60578
adolescents	60468
ni@@	60460
bed	60450
monitoring	60348
Marketing	60284
PACKAGING	60186
Ne@@	60183
Number	60136
contents	59884
basis	59881
tt@@	59876
Human	59870
vate	59830
affect	59767
Me@@	59759
machines	59633
alfa	59562
experienced	59552
inflammation	59460
field	59420
chronic	59322
analysis	59286
250	59229
release	59116
put	59115
diabetes	59058
den@@	58999
energy	58908
size	58893
bottle	58831
ally	58807
cap@@	58799
feeling	58743
social	58672
Is@@	58632
57	58627
project	58509
2002	58482
200@@	58474
ding	58369
key	58358
hand	58356
Pl@@	58328
sil@@	58325
February	58197
Je@@	58134
primary	58125
}	58107
animals	58069
all@@	58062
ber	58052
Annex	58046
procedure	58010
chloride	58008
onomic	58004
fo@@	57930
future	57928
health	57870
53	57836
throughout	57755
significantly	57687
HOW	57676
os@@	57633
righ@@	57579
ery	57564
works	57513
power	57501
volume	57399
demonstrated	57327
caution	57310
Sch@@	57275
Un@@	57207
ir	57202
che@@	57132
az@@	57125
trial	57038
Ç@@	56958
mouth	56954
protein	56950
fe@@	56937
74	56902
close	56887
Do@@	56870
prevent	56852
phase	56843
tw@@	56816
adjustment	56807
temperature	56775
Jo@@	56677
relevant	56628
dec@@	56580
various	56559
Com@@	56481
tests	56438
ie	56390
fa@@	56351
lead	56332
approved	56332
ence	56293
arm@@	56286
top	56263
Cmax	56172
25@@	56163
600	56109
Ro@@	56010
Winthrop	55999
effectiveness	55901
ide@@	55824
technology	55791
mag@@	55686
swelling	55661
fever	55654
upon	55635
evidence	55596
a-@@	55552
urine	55487
An	55431
ca@@	55356
A.	55326
developed	55290
ard	55284
igh@@	55225
adult	55195
001	55139
IT	55075
develop	54984
96	54957
4.2	54956
although	54871
photo@@	54846
ten@@	54807
breast	54794
WHAT	54781
Pr@@	54773
ded	54770
fri@@	54722
milk	54612
package	54520
col@@	54407
ung	54392
ator	54355
alu	54295
version	54273
among	54261
often	54182
III	54168
cap	54165
Fre@@	54004
fast	53978
ness	53955
distribution	53934
protection	53927
policy	53924
CPMP	53901
needs	53838
ann@@	53832
value	53737
thing	53725
Ma@@	53699
design	53674
dry	53660
3.@@	53651
creatinine	53595
concomitant	53499
See	53496
family	53415
1,000	53312
4.5	53304
leaflet	53257
clinically	53253
diarrhoea	53247
disorder	53218
having	53175
systemic	53162
if@@	53044
longer	53024
aged	52928
sts	52883
4.8	52856
sions	52854
Vi@@	52829
subject	52808
think	52686
Gu@@	52680
4.@@	52578
surface	52566
−	52544
fin@@	52537
air@@	52464
class	52438
surgery	52387
son	52352
factor	52331
That	52273
ain	52271
centre	52256
rest@@	52158
ory	52131
count	52092
alcohol	52077
Fr@@	52064
reports	52025
pharmacokinetic	52009
soon	51998
Uncommon	51973
Pre@@	51876
Engli@@	51794
condition	51784
120	51780
During	51767
little	51749
anti@@	51742
Parliament	51718
names	51717
look	51685
ality	51676
produced	51652
ins	51608
followed	51566
vaccination	51555
tural	51550
early	51540
showed	51528
stri@@	51505
gl@@	51501
von	51366
spor@@	51329
dic@@	51262
ik@@	51236
advice	51217
ome	51146
ping	51119
wer	50970
gar@@	50965
Since	50945
1,@@	50916
sections	50897
increases	50880
breast-feeding	50777
ID	50735
min@@	50685
third	50654
man@@	50642
od@@	50607
Group	50556
vitro	50533
30@@	50531
let	50443
General	50421
applications	50418
ices	50382
OUTER	50377
short	50211
By	50200
Kingdom	50182
G	50124
hour	50101
needed	50075
CYP3A4	50074
tissue	50011
hi@@	49908
Italy	49863
are@@	49844
yp@@	49761
occurred	49734
lim@@	49723
natural	49674
ying	49641
building	49636
mobil@@	49570
makes	49568
ber@@	49390
.org	49386
dizziness	49355
thro@@	49311
d-@@	49282
home	49279
sia	49263
values	49075
guide	48945
govern@@	48897
previous	48866
State	48854
requirements	48831
continued	48743
1.5	48676
dem@@	48615
Ltd	48614
overall	48576
0.0@@	48497
fact	48482
research	48478
rest	48404
US	48400
Ap@@	48380
inhibitor	48351
achieved	48301
glucose	48229
ace	48227
ast@@	48203
added	48127
multiple	48106
subcutaneous	48052
Fe@@	48039
Authorisation	48036
young	48023
therapeutic	48012
visit	47988
industry	47977
financial	47943
abnormal	47916
death	47883
website	47883
down@@	47853
ago	47843
far	47768
Bo@@	47748
account	47748
fre@@	47705
initial	47574
positive	47538
started	47532
ov@@	47479
calcium	47471
ner@@	47426
ini@@	47312
ff@@	47296
ked	47270
sugar	47228
problem	47185
K	47154
cover	47124
ire	47084
moder@@	46989
Pharma	46939
headache	46934
Berlin	46933
ering	46878
companies	46803
Par@@	46788
interferon	46787
ines	46668
arm	46661
im	46659
syringes	46623
yellow	46622
points	46578
tal	46532
antibodies	46408
feel	46379
rates	46365
bro@@	46341
Table	46326
night	46292
la	46265
ine@@	46264
So	46249
seconds	46193
performance	46184
usual	46149
maintenance	45987
box	45891
ical	45844
Internet	45843
stay	45819
Management	45806
types	45788
six	45703
X	45698
designed	45688
ue	45635
near	45632
live	45590
elderly	45555
5.2	45494
ib@@	45418
dro@@	45411
things	45376
4.3	45264
avoid	45202
vision	45162
Mon@@	45158
11.@@	45155
region	45152
y-@@	45121
ats	45083
hypersensitive	45080
play	45078
listed	45051
q@@	45032
programme	45029
wel@@	44925
plus	44883
Some	44847
No@@	44840
ng	44736
10,000	44681
sur@@	44573
Before	44532
race	44495
animal	44477
sites	44472
ays	44461
ss	44449
cul@@	44442
supplied	44402
Satur@@	44302
five	44277
ep@@	44261
meeting	44225
directly	44209
humans	44201
ship	44194
material	44155
done	44138
gets	44121
os	44103
res	44079
Products	44047
tics	44028
\	43957
Agency	43907
pharmacist	43789
sol@@	43761
lot	43698
ke@@	43671
chemotherapy	43588
check	43585
likely	43577
5.@@	43558
Ad@@	43553
metformin	43547
002	43518
conducted	43497
keep	43483
authorised	43482
user	43473
request	43445
discontinued	43383
capsule	43360
Li@@	43338
delivery	43330
resistance	43311
users	43231
location	43219
dia	43039
interaction	42993
comes	42968
Friday	42961
reach	42896
a.@@	42884
mail	42868
evaluated	42851
fr@@	42835
perf@@	42819
carefully	42810
Pol@@	42790
organ@@	42730
blo@@	42715
issues	42612
space	42598
ster@@	42556
making	42526
profile	42513
08@@	42489
mil@@	42482
took	42472
Per@@	42465
Spain	42458
agreed	42424
ask	42407
tor@@	42396
hypersensitivity	42393
hypertension	42392
cho@@	42383
solutions	42373
1-@@	42347
ism	42313
UK	42302
gen	42252
provides	42249
e.@@	42245
ages	42234
tor	42232
5.1	42209
double	42203
dre@@	42188
12.@@	42183
Man@@	42154
CI	42133
aff@@	42129
long-term	42126
27@@	42108
upper	42103
bre@@	42058
24@@	42042
Package	42010
assessment	42004
software	41979
anaemia	41922
64	41895
looks	41832
Or@@	41784
des	41705
text	41699
cr@@	41669
del@@	41635
ev@@	41621
others	41587
800	41555
pen@@	41540
tract	41536
ref@@	41531
oedema	41524
Hol@@	41477
Why	41418
ich@@	41404
stomach	41400
projects	41392
ll	41363
training	41357
itself	41312
Qu@@	41285
app@@	41219
half	41216
clo@@	41205
veterinary	41189
cur@@	41189
Product	41155
reconstituted	41113
ize	41091
read	41086
yet	41060
looking	41030
allow	41023
involved	41019
central	41008
au	40992
é@@	40957
aying	40954
ends	40926
alfa-2b	40917
Insulin	40852
updated	40851
vide@@	40840
reconstitution	40837
costs	40821
Loc@@	40812
cartridge	40789
press	40776
ters	40753
ves	40740
Date	40727
metabolism	40704
unless	40683
ker	40658
terms	40588
aluminium	40556
More	40543
wide	40536
Board	40525
inf@@	40515
Sh@@	40508
ea	40499
generally	40490
erg@@	40441
really	40382
damage	40347
breakfast	40334
für	40324
ta	40311
situation	40291
decision	40285
1998	40274
benefits	40253
board	40252
stre@@	40217
average	40212
matter	40199
Article	40158
forms	40105
©	40098
respiratory	40095
questions	40068
target	40049
members	40042
Medicinal	39966
generated	39966
mer	39961
cam@@	39939
contain	39906
whose	39898
living	39890
later	39890
ics	39889
defined	39888
in-@@	39855
excreted	39844
72	39819
Comm@@	39803
paediatric	39793
depression	39782
hormone	39773
instructions	39757
—	39723
28@@	39721
scientific	39711
overdose	39705
ture	39681
parts	39680
61	39631
nature	39611
Special	39565
4-@@	39559
combined	39527
ner	39508
ze	39464
told	39439
loads	39408
76	39391
eyes	39386
9-@@	39366
staff	39357
ined	39324
ass@@	39301
10.@@	39299
immune	39288
code	39277
World	39268
carton	39265
ative	39258
6-@@	39222
oms	39176
opinion	39141
na	39119
Following	39109
pol@@	39106
ish	39095
original	39048
cri@@	39042
sic	39037
ul	39003
along	38979
Car@@	38926
valid	38924
Then	38917
gam@@	38911
regimen	38886
address	38851
MAH	38844
abdominal	38809
program	38725
media	38723
units	38703
ica	38671
ess@@	38662
wish	38628
ady@@	38614
security	38606
sub@@	38584
003	38548
carried	38525
ot@@	38421
cont@@	38416
ye@@	38416
Gr@@	38358
Ge@@	38311
ele@@	38284
risks	38283
oo@@	38262
soci@@	38236
®	38234
tional	38232
easy	38209
create	38203
itch@@	38183
thus	38174
described	38145
direct	38052
cardiac	38047
obtained	38017
indication	38015
regarding	37952
hab@@	37928
actually	37909
don	37905
CVMP	37896
mainly	37867
info	37856
leading	37827
role	37778
technical	37753
transport	37747
ches	37744
struction	37743
existing	37733
intended	37720
shop@@	37715
Thursday	37674
going	37658
completely	37599
Pri@@	37576
past	37559
Limited	37546
drink	37538
1997	37531
under@@	37526
pu@@	37518
lack	37516
Phone	37511
Q@@	37476
aps	37473
try	37436
Ab@@	37430
lic@@	37414
Bayer	37411
difference	37389
reached	37324
enzyme	37304
i.	37271
ands	37259
granted	37238
ther	37233
needles	37219
gel@@	37217
final	37215
amp	37203
±	37178
ities	37156
responsible	37152
almost	37125
link	37071
procedures	37068
sum@@	37052
require	37043
word	37037
something	37025
respect	36991
Name	36941
South	36916
legal	36912
men@@	36906
tou@@	36894
environment	36845
prescribed	36843
Day	36831
etc	36818
authorities	36775
ited	36769
came	36743
amp@@	36741
Because	36731
question	36724
discontinuation	36716
patch	36684
atic	36681
off@@	36675
suitable	36669
strong	36647
conf@@	36638
presence	36628
improvement	36599
mit	36560
10-@@	36542
sector	36507
stated	36500
half-life	36498
round	36440
ever	36437
drugs	36408
que	36398
files	36369
professional	36361
com	36353
enough	36350
unit	36310
85	36291
prolonged	36260
why	36244
equipment	36242
cor@@	36207
sion@@	36189
ular	36189
bl@@	36182
chool	36146
ill	36117
University	36064
35@@	36051
tion@@	36019
Austria	36005
ms	35991
beginning	35990
produce	35922
packs	35901
econom@@	35895
includes	35880
towards	35866
term	35852
66	35848
ung@@	35830
issue	35808
factors	35805
counts	35780
never	35773
ition	35768
highly	35766
ile	35707
rubber	35670
Tr@@	35663
film	35619
iv@@	35614
indu@@	35569
personal	35564
DNA	35558
AG	35527
12-@@	35518
ani@@	35509
forget	35496
ys	35384
004	35356
acy	35356
iron	35341
measured	35331
coming	35293
adequate	35293
return	35292
8.@@	35289
notice	35278
wa@@	35235
wn@@	35219
turn	35208
ail@@	35197
joint	35177
regular	35137
injected	35054
68	35052
label	35037
pool	35037
C.	35030
images	34996
ation@@	34988
older	34966
Like	34956
follow	34956
ribavirin	34940
speed	34937
storage	34932
ement	34923
soft	34900
Chri@@	34863
trade	34849
buil@@	34829
fu@@	34820
binding	34819
tax@@	34816
meal	34806
road	34805
Ju@@	34804
potassium	34798
Community	34790
Sam@@	34737
document	34729
kind	34720
ari@@	34719
La	34714
affected	34705
67	34692
ders	34685
0.@@	34683
elimination	34663
head	34661
persons	34655
advanced	34584
measure	34579
ana	34579
facilities	34558
ss@@	34558
arch@@	34556
Te@@	34545
ern@@	34520
recombinant	34476
RE@@	34454
def@@	34447
button	34439
enc@@	34434
ef@@	34367
submitted	34342
bar	34311
73	34306
transfer	34297
morning	34265
USE	34255
Humalog	34248
Pal@@	34246
status	34242
absorption	34229
diseases	34182
held	34161
increasing	34138
Sp@@	34134
USA	34129
device	34123
San	34120
member	34100
sto@@	34099
difficulty	34094
eu	34086
50@@	34073
pulmonary	34069
developing	34051
equivalent	34044
entire	34027
Rare	34007
initiated	33982
blisters	33947
ano	33935
network	33882
hands	33876
attention	33868
ple@@	33867
LO@@	33866
agreement	33847
method	33812
6.@@	33798
tain	33794
language	33772
Ter@@	33771
mixed	33757
62	33744
viral	33735
her@@	33734
exactly	33706
VA@@	33702
London	33697
majority	33695
closely	33680
dom	33676
Val@@	33635
pat@@	33631
versus	33627
Leaflet	33626
da	33602
shows	33598
har@@	33583
out@@	33581
urinary	33577
evaluation	33553
ise	33549
ong@@	33523
40@@	33491
ane@@	33474
Lor@@	33471
ous@@	33422
interest	33420
ious	33416
2,@@	33391
inc@@	33387
center	33378
ized	33375
burg	33366
visits	33363
fac@@	33355
median	33321
plan	33313
Sunday	33311
click	33311
improve	33303
sci@@	33288
image	33279
dex@@	33268
impaired	33259
across	33255
tive	33254
ol	33236
Col@@	33209
accordance	33207
ath@@	33204
3-@@	33200
Y	33174
takes	33172
ne	33162
separate	33134
Not	33132
ass	33125
ban@@	33121
7.@@	33094
adopted	33085
enti@@	33083
71	33069
parties	33054
front	33037
sor@@	33025
89	33022
style	33014
ade	33009
created	33005
93	33004
arthritis	32989
ratio	32989
apply	32978
vaccines	32936
operation	32915
monotherapy	32907
pres@@	32901
oxide	32895
materials	32893
agent	32890
phosphate	32877
previously	32857
team	32797
Sodium	32796
ial	32792
ell	32775
Ireland	32758
stored	32717
advised	32712
ger	32696
frequently	32695
peripheral	32686
published	32686
pop@@	32680
requests	32638
Netherlands	32633
Tur@@	32611
comp@@	32607
lin@@	32591
completed	32564
re-@@	32530
cooperation	32528
yl@@	32516
p-@@	32513
lamivudine	32512
words	32505
ones	32503
species	32497
corresponding	32470
reason	32470
5-@@	32459
allows	32430
resulting	32352
ear@@	32338
sw@@	32336
co-administered	32323
log@@	32309
House	32307
PACKAGE	32275
emea.	32273
occurs	32244
180	32236
ning	32209
stage	32201
concentrate	32188
insufficiency	32186
reference	32177
self	32171
37@@	32157
hypotension	32113
La@@	32084
physical	32082
applied	32041
2-@@	32006
accommodation	31998
Irbesartan	31997
randomised	31955
sun	31952
Film-coated	31930
mi@@	31926
Time	31920
adjusted	31893
ther@@	31880
interval	31874
card	31860
On@@	31859
ses	31855
Clinical	31842
rise	31823
Liprolog	31817
gastrointestinal	31812
floor	31810
safe	31783
Er@@	31782
82	31757
ey@@	31755
meet	31740
Sec@@	31739
computer	31733
eng@@	31730
indicate	31721
ck@@	31708
black	31692
wor@@	31692
IMMEDIATE	31682
components	31674
shed	31670
neutropenia	31658
ground	31652
0.9	31652
haemoglobin	31643
ash	31603
	31592
int@@	31587
nor@@	31568
45@@	31553
sti@@	31543
features	31542
7.5	31511
anc@@	31456
big	31456
69	31424
Free	31379
Belgium	31378
ours	31370
lines	31357
prevention	31332
uc@@	31330
er-@@	31326
e.g.	31284
ned	31267
step	31263
recent	31248
MINIMUM	31248
believe	31244
Information	31220
protect	31214
form@@	31200
brain	31196
land@@	31167
City	31167
ft	31127
whom	31125
supply	31102
uses	31102
physician	31095
1st	31091
Break@@	31083
al-@@	31080
vic@@	31070
interactions	31049
7-@@	31025
lung	31005
Total	30989
series	30967
marked	30958
Always	30958
properties	30938
tim@@	30932
bil@@	30922
refrigerator	30919
aut@@	30913
commercial	30912
sus	30867
36@@	30848
Children	30780
infected	30776
rapid	30720
unknown	30681
1.0	30674
assessed	30655
77	30653
repeated	30640
influence	30566
cer@@	30539
ure	30529
correct	30525
monohydrate	30518
French	30510
machine	30499
fat	30492
identified	30489
trans@@	30466
23@@	30454
vol@@	30436
63	30431
illa	30427
lactose	30398
Cal@@	30378
global	30373
Tuesday	30368
Don@@	30337
ori@@	30333
differences	30315
9.@@	30311
can@@	30301
26@@	30298
anti-@@	30252
survival	30250
essential	30246
79	30234
Cor@@	30223
B.	30209
Teva	30191
160	30164
recently	30163
Pregnancy	30146
operating	30134
store	30134
Monday	30130
practice	30118
post@@	30115
male	30114
impact	30103
22@@	30097
Ã	30093
ads	30081
call	30056
Afr@@	30036
exhib@@	30032
91	30023
rich	30005
hop@@	29996
implementation	29980
chest	29980
tun@@	29970
details	29966
wer@@	29954
ute	29946
YOU	29934
clearly	29923
IV	29919
inject	29914
ra	29898
ru@@	29897
testing	29883
on-@@	29876
ore	29870
ven@@	29863
Park	29853
oil	29816
ong	29804
scre@@	29793
Based	29777
of@@	29743
val@@	29727
Although	29720
preparation	29716
Ta@@	29713
breathing	29712
liquid	29712
86	29684
125	29676
dri@@	29659
weakness	29623
usi@@	29620
ert	29618
Wednesday	29595
sign	29594
walk	29587
everybody	29574
outside	29565
fil@@	29564
expiry	29543
search	29529
themselves	29520
ites	29513
enzymes	29505
Read	29494
proposed	29470
recommend	29451
laboratory	29448
direc@@	29420
chi@@	29402
..	29392
difficult	29389
use@@	29367
ka	29365
Now	29360
SPC	29358
hydrochlorothiazide	29356
cour@@	29322
regard	29321
cycle	29306
review	29270
John	29256
equipped	29254
ler	29236
true	29222
female	29212
limit	29208
remove	29206
gh@@	29162
0.3	29154
del	29147
National	29141
cu@@	29134
Health	29110
determined	29100
prof@@	29069
mmol	29061
causes	29051
005	29040
everything	29023
stopper	29005
44-20	29003
imm@@	29000
tal@@	28991
remain	28989
possibility	28983
ick@@	28979
emplo@@	28950
subsequent	28947
AL@@	28937
CARTON	28913
yourself	28912
US@@	28897
Her@@	28889
knowledge	28871
tain@@	28870
Pe@@	28847
efavirenz	28821
tors	28788
92	28780
act	28780
Inter@@	28779
vein	28778
onset	28774
78	28767
documents	28761
struc@@	28749
hold	28710
88	28701
tested	28700
83	28691
wit@@	28681
81	28674
BEFORE	28666
evening	28660
ved	28657
born	28654
Ber@@	28649
Sw@@	28644
rarely	28642
models	28592
source	28574
commonly	28573
rec@@	28569
ase	28563
Portugal	28563
dy	28538
Ha@@	28516
nic@@	28500
io@@	28488
ale	28478
rules	28470
sometimes	28445
ley	28440
withdrawal	28424
sal@@	28421
Once	28396
allowed	28394
metabolite	28373
Of	28354
enter@@	28348
ink	28342
era	28339
gas	28319
contraindicated	28269
fluid	28223
route	28208
achieve	28201
ready	28171
recommendations	28152
Ste@@	28135
bur@@	28100
rather	28100
slightly	28088
bring	28074
unique	28064
reser@@	28029
CO@@	28023
008	28021
dioxide	28019
decided	28017
tumour	28012
stain@@	27993
du	27973
eri@@	27958
visual	27935
fam@@	27926
ending	27926
run	27883
ization	27880
parameters	27868
precautions	27865
connection	27857
USED	27849
involving	27844
11@@	27839
lead@@	27826
pe	27733
talk	27708
Republic	27700
≤	27668
extent	27643
station	27632
Safety	27624
Br@@	27622
select	27617
ow@@	27617
capacity	27613
proper@@	27609
TAKE	27607
primarily	27594
dl	27579
Type	27562
Only	27549
ators	27549
Dose	27528
-1@@	27519
web	27478
Tell	27476
0.1	27448
ging	27444
post	27424
Paris	27421
platelet	27413
DL@@	27409
ners	27374
ling	27364
detailed	27343
cardiovascular	27328
ma	27319
vil	27318
remains	27313
consider	27311
90@@	27293
des@@	27290
Due	27277
itching	27270
ist@@	27260
infants	27258
Also	27240
Str@@	27237
negative	27228
int	27198
maintained	27179
model	27177
actions	27161
ap	27159
IN@@	27143
quickly	27134
Study	27134
Ser@@	27132
Renal	27129
ren	27126
ayer	27064
sick	27051
sent	27038
29@@	27025
Ko@@	27021
stable	27013
12.5	27012
bar@@	27001
nor	26970
bal@@	26962
Adverse	26946
Boo@@	26935
base	26923
office	26921
organ	26917
inst@@	26905
guidelines	26899
1999	26897
mis@@	26891
Blister	26889
volunteers	26883
OR	26873
ways	26838
complex	26830
easily	26824
Directive	26781
bile	26762
Deut@@	26761
Ba@@	26758
aved	26752
weekly	26742
Page	26742
uni@@	26739
Sal@@	26738
appear	26727
hot	26710
rapidly	26693
eral	26668
1996	26665
dependent	26658
ado@@	26657
ety	26637
Most	26630
ble	26616
outh	26611
resources	26610
approach	26604
AT@@	26597
obj@@	26586
Taking	26573
·	26567
metabolites	26554
di	26502
cholesterol	26489
007	26463
Post	26441
Nor@@	26429
Enbrel	26424
prepared	26417
spe@@	26408
internal	26398
ged	26384
inside	26369
proposal	26367
structure	26337
cha@@	26335
proteins	26322
antiretroviral	26315
tro@@	26313
colourless	26311
initiation	26302
sterile	26288
gre@@	26241
STORE	26231
sin@@	26224
dysfunction	26217
went	26206
monitor	26192
sale	26185
aid	26160
uncommon	26159
bit	26144
one@@	26143
share	26136
opening	26117
steps	26104
fall	26104
ects	26096
ight	26087
006	26065
berg	26038
eu@@	26037
ro	26022
Gam@@	26019
5.3	26014
08.@@	25992
concerning	25982
Switzerland	25976
Al	25965
success	25964
decide	25963
´	25960
For@@	25950
ALT	25949
receptor	25934
instr@@	25928
new@@	25920
Holder	25908
cat@@	25900
Lu@@	25895
pho@@	25878
oper@@	25867
fatigue	25840
hypoglycaemia	25804
ns	25798
excellent	25797
San@@	25784
covered	25756
Data	25748
meetings	25736
quite	25735
carry	25732
sec@@	25721
Dr.	25713
hair	25704
VI@@	25698
So@@	25671
resulted	25652
latest	25631
sed	25626
Click	25618
removed	25617
progress	25605
D-@@	25545
04@@	25523
ant@@	25476
war@@	25455
ide	25448
sufficient	25445
calendar	25427
confirmed	25424
estimated	25424
breath	25422
cats	25392
party	25385
antibody	25373
PD@@	25366
length	25354
charge	25335
09.@@	25335
ood	25331
forward	25301
sleep	25294
cost	25273
gol@@	25263
Plan	25257
ili@@	25254
plastic	25245
Finland	25242
rit	25240
s.	25224
simple	25213
culture	25212
ane	25193
highest	25188
Section	25183
friend	25182
uments	25177
force	25174
↓	25174
sides	25160
Centre	25159
ign	25147
choice	25135
metabolised	25112
11-@@	25095
Summary	25093
Bar@@	25086
ment@@	25085
successful	25054
zi@@	25047
simply	25043
shing	25041
met	25033
Go@@	25011
avi@@	25009
mentioned	24999
copies	24996
hand@@	24993
closed	24967
forum	24959
travel	24956
alternative	24936
undesirable	24935
ry	24934
lam@@	24931
wall	24926
partners	24920
0,@@	24918
ga@@	24904
fatal	24902
ections	24902
Em@@	24885
Bu@@	24881
sa	24875
stopped	24874
Bro@@	24871
suggest	24870
wind	24808
Insuman	24804
picture	24788
capital	24786
budget	24761
responsibility	24760
ko@@	24755
choose	24754
-20	24743
appetite	24736
items	24735
produc@@	24725
improved	24722
spec@@	24709
places	24696
variety	24690
Bi@@	24678
balance	24673
concluded	24670
clean	24667
030	24647
opportunity	24629
St	24623
sive	24611
Nex@@	24600
paper	24597
ude	24567
32@@	24559
pharmacovigilance	24550
changed	24544
Co	24538
inhibition	24476
hydrochloride	24470
ances	24464
strength	24456
pass	24448
diet	24447
part@@	24418
Am@@	24397
8-@@	24381
wh@@	24373
noted	24360
blue	24357
Invented	24353
Two	24345
EPAR	24340
Mit@@	24333
tionary	24319
setting	24302
environmental	24278
minute	24261
opened	24259
44@@	24254
treatments	24245
protease	24234
progression	24228
Son@@	24225
TE@@	24218
E-mail	24212
tur@@	24209
movement	24193
flow	24183
EC	24179
standards	24171
comfortable	24162
shop	24141
grade	24115
ton	24102
situ@@	24099
BE@@	24093
rac@@	24085
component	24083
entr@@	24080
94	24079
She	24062
Bri@@	24056
Im@@	24003
relationship	24001
concomitantly	23989
ges	23986
010	23985
bioavailability	23980
Oc@@	23970
reasons	23957
except	23954
deficiency	23946
thre@@	23940
tenofovir	23940
follows	23936
Working	23930
concerned	23929
tho@@	23926
tory	23905
America	23877
pan@@	23866
non	23864
ww@@	23862
o-@@	23843
written	23839
influenza	23812
sound	23798
work@@	23791
lands	23789
independent	23779
association	23776
V.	23773
crisis	23761
methods	23758
gn@@	23738
container	23726
Si@@	23705
Medicines	23685
tem@@	23678
purposes	23668
became	23664
ust	23636
stud@@	23631
Lilly	23619
appears	23606
arms	23602
formation	23595
planning	23592
reducing	23590
partment	23589
zz@@	23566
Rom@@	23559
dialysis	23555
60@@	23554
communication	23550
focus	23545
System	23543
sexual	23537
ive	23528
First	23523
gives	23515
33@@	23510
comparable	23501
brought	23497
anz@@	23487
é	23485
particles	23484
affects	23483
Mini@@	23470
illness	23457
bus	23451
foreign	23445
Characteristics	23439
Dis@@	23439
gener@@	23431
Main	23430
ino	23428
i-@@	23426
York	23416
Office	23403
Olanzapine	23380
reli@@	23379
tools	23367
sales	23367
lies	23364
ure@@	23361
ces	23358
arian	23357
add	23354
iting	23339
ech@@	23332
exchange	23331
beta	23311
Tél	23285
onom@@	23267
seizures	23245
tacrolimus	23242
institutions	23241
ving	23235
processes	23223
arg@@	23213
Comb	23201
education	23196
Animal	23192
El@@	23190
spo@@	23175
AR@@	23174
r.	23161
external	23131
methotrexate	23130
PVDC	23123
pages	23122
Unit	23120
thern	23117
follow-up	23117
asthma	23103
woman	23095
green	23091
15-@@	23087
na@@	23086
degree	23083
top@@	23079
taste	23069
equal	23064
cartridges	23062
Cap@@	23056
mor@@	23038
depending	23026
vers	23019
Sa@@	23015
Water	23011
selected	23003
coll@@	23003
regularly	23000
minimum	22995
St.	22994
importance	22993
38@@	22980
vis@@	22979
hydroxide	22959
01.@@	22955
American	22953
Pi@@	22953
exc@@	22950
schedule	22947
Deutschland	22939
Res@@	22935
CD	22933
coun@@	22921
exposed	22917
Party	22914
ash@@	22898
avoided	22898
title	22874
commun@@	22874
fold	22862
cal@@	22858
Chris@@	22856
though	22853
high-@@	22843
indications	22828
Luxembourg	22818
transient	22801
sing	22799
Business	22780
iss	22780
got	22777
sun@@	22774
plunger	22768
strict	22760
employment	22751
stand	22739
3,@@	22737
park	22706
normally	22689
LEAFLET	22675
Fac@@	22674
Studies	22662
excretion	22644
Pen	22631
inform	22629
87	22628
note	22620
official	22618
til@@	22602
ger@@	22599
raised	22565
handling	22564
strategy	22539
wine	22529
iver@@	22520
acces@@	22505
giving	22474
Development	22474
pay	22462
ching	22430
Mat@@	22412
europa.	22402
leg@@	22401
marrow	22372
partner	22371
placebo-controlled	22369
thought	22363
secondary	22351
k-@@	22325
fir@@	22315
Greece	22315
elevated	22313
Caution	22299
concerns	22286
Contact	22280
Road	22248
μ	22228
Pfizer	22226
peak	22219
HBV	22218
While	22217
-10	22214
maintain	22193
ju@@	22176
ken	22175
Administration	22171
placed	22151
pre-@@	22128
SE@@	22121
coated	22120
ca	22115
induction	22096
ely	22090
pas@@	22084
02@@	22079
Sol@@	22058
ut	22054
ME@@	22053
colour	22030
che	22024
relative	22018
rent	22017
extension	22016
len	22000
Service	21996
Research	21993
stern	21991
nov@@	21978
sid@@	21949
markets	21947
sizes	21940
experts	21939
Week	21932
ution	21919
sign@@	21911
transplant	21911
multi@@	21903
ST	21895
mess@@	21892
myocardial	21855
shes	21855
levodopa	21853
states	21849
consistent	21847
attack	21826
ination	21810
move	21806
05.@@	21803
Cro@@	21803
clusive	21801
strial	21795
medi@@	21792
scale	21792
score	21782
05@@	21778
tis@@	21772
Fin@@	21767
AC@@	21753
outer	21753
vitamin	21745
radi@@	21740
occurring	21724
self-@@	21724
protective	21716
Cu@@	21705
getting	21701
Len@@	21678
Medi@@	21672
wing	21665
uth	21659
orodispersible	21652
wi@@	21644
Gre@@	21641
inner	21641
selection	21599
ection	21591
012	21588
Ze@@	21588
LE@@	21583
tains	21573
Tablet	21556
onto	21553
aw@@	21549
í@@	21542
tian	21517
Blood	21512
cal	21506
char@@	21496
transdermal	21483
Kar@@	21478
audi@@	21476
Spi@@	21475
Keep	21473
enter	21471
ental	21468
helps	21467
0.4	21461
possibly	21461
excluded	21458
48@@	21455
port@@	21443
flat	21438
DE@@	21409
q	21401
Press	21396
community	21384
purpose	21383
regional	21375
tly	21372
lo	21365
tos	21353
frequent	21332
throat	21330
statistically	21327
ate@@	21322
inte@@	21317
mind	21312
Italian	21312
web@@	21310
Euro@@	21298
ately	21280
PC	21268
......	21266
redness	21250
fur@@	21245
de-@@	21241
0.6	21239
former	21239
vessels	21237
aware	21236
leave	21236
basic	21234
ols	21223
cro@@	21215
Regi@@	21197
co	21196
39@@	21193
ency	21191
sphere	21190
Cat@@	21177
ja	21176
zidovudine	21165
exercise	21160
009	21134
ign@@	21130
Phase	21111
East	21107
infarction	21102
every@@	21102
continuous	21100
reg@@	21092
qui@@	21089
bound	21087
determine	21084
competition	21080
mechanism	21069
inal	21068
extra	21066
fol@@	21058
interested	21054
Merck	21029
sm@@	21028
4.6	21023
wat@@	21021
trac@@	21011
ists	20980
Note	20977
understand	20960
ining	20935
ek	20933
treating	20927
p.@@	20907
Thus	20903
49@@	20902
67@@	20896
sy@@	20896
ser	20890
fer@@	20881
RD	20878
bio@@	20877
rs	20876
resistant	20867
0-@@	20864
episodes	20862
an-@@	20845
RO@@	20819
immediate	20812
height	20807
diabetic	20801
deep	20799
AS	20790
phone	20788
double-blind	20784
late	20772
bottles	20769
pac@@	20750
m.	20749
workers	20734
open@@	20734
Ca@@	20710
Any	20705
100@@	20704
framework	20696
elements	20694
bor@@	20687
percent	20671
beyond	20647
AS@@	20641
distance	20637
absolute	20603
asked	20601
severity	20588
vation	20588
jour@@	20578
UN@@	20576
context	20573
back@@	20552
insufficient	20544
j	20540
birth	20531
cough	20525
ord@@	20513
waste	20510
Por@@	20509
368	20492
plant	20482
Head	20476
ly@@	20474
constipation	20471
operate	20471
absorbed	20459
ids	20445
feed	20442
resting	20439
ain@@	20418
poor	20409
mb@@	20400
BMS	20385
att@@	20374
ale@@	20357
polyethylene	20350
eh@@	20349
AN@@	20346
cold	20331
subcutaneously	20320
providing	20306
extensive	20295
functions	20291
ä	20285
sense	20281
guidance	20262
hospital	20261
my@@	20252
CH@@	20245
criteria	20238
undergoing	20235
pictures	20232
numbers	20224
article	20222
haemorrhage	20219
dog	20219
mann	20211
Cre@@	20211
Frankfurt	20202
wid@@	20199
75@@	20191
0.2	20191
abnormalities	20186
visitors	20180
instead	20115
ath	20106
ather	20105
option	20104
acc@@	20098
99@@	20098
bate	20096
Court	20087
ple	20074
↑	20064
lesions	20062
consists	20062
wed	20036
Furthermore	20023
any@@	20023
heat	20016
mini@@	20011
pt@@	20011
potentially	20007
Company	20005
North	20001
UNITS	20001
ak	19984
ual	19983
Sta@@	19981
Important	19974
edi@@	19970
Barcelona	19968
run@@	19967
Using	19964
ayed	19963
recognition	19952
historical	19946
corticosteroids	19943
incl	19943
respond	19940
kidneys	19936
seek	19927
ac	19926
slow	19923
ray	19919
ith	19917
Mal@@	19914
kept	19908
011	19908
them@@	19906
Skin	19896
mission	19883
mental	19871
discussion	19861
110	19860
SMALL	19858
Services	19857
Store	19851
Ger@@	19850
ran@@	19848
outcome	19846
Sweden	19840
80@@	19839
o.@@	19825
bas@@	19804
AB	19802
hor@@	19800
ico	19799
exp@@	19798
stability	19793
res@@	19789
The@@	19782
anxiety	19779
013	19776
metres	19774
Med@@	19770
urticaria	19768
probably	19767
White	19765
Further	19759
conventional	19752
neck	19750
gain	19740
behind	19733
65@@	19731
NSAIDs	19723
legislation	19722
irbesartan	19719
Box	19709
03.@@	19692
stroke	19690
tit@@	19685
dom@@	19684
surance	19675
Ó@@	19669
Report	19663
aries	19657
pump	19656
conference	19656
West	19650
extremely	19647
2.0	19647
S-@@	19623
ward	19609
mal@@	19605
ets	19594
ok@@	19588
MS	19580
raz@@	19574
tumours	19573
1.2	19568
medication	19559
careful	19550
logical	19547
High	19545
power@@	19532
vivo	19529
window	19527
to-@@	19527
learn	19522
relation	19517
thous@@	19508
É	19504
en-@@	19499
„	19488
sl@@	19483
gs	19480
characteristics	19467
exercised	19463
unlikely	19461
assistance	19461
links	19448
drop	19448
advantage	19447
excessive	19446
Wor@@	19439
smoking	19436
nurse	19424
belongs	19422
AN	19414
resolution	19405
intervals	19400
Regulation	19397
ney	19396
symptomatic	19378
Fo@@	19367
Gen@@	19364
ond@@	19364
contrast	19363
demand	19357
Viraferon	19346
HIV-1	19339
orally	19325
sat@@	19313
consideration	19310
investigated	19306
findings	19303
doing	19301
ana@@	19299
Humira	19279
Ri@@	19275
Eur@@	19273
collection	19267
largest	19263
pers	19261
sters	19252
supported	19251
becomes	19244
mother	19234
low@@	19234
divided	19210
database	19208
ax@@	19205
sity	19205
Vienna	19199
olanzapine	19198
34@@	19197
meters	19193
ences	19193
tival	19190
SA	19184
co-administration	19167
109	19152
gave	19152
band	19149
fixed	19144
ing-@@	19140
Check	19136
tac@@	19131
mortality	19123
decreases	19115
ton@@	19109
ball	19108
Remove	19091
AD@@	19085
ian	19078
ür@@	19075
feet	19075
abacavir	19071
season	19070
55@@	19066
kets	19065
cream	19064
super@@	19061
Picture	19051
touch	19043
una	19029
terminal	19026
mer@@	19025
Ven@@	19023
tiv@@	19023
A-@@	19022
supervision	19021
creation	19012
Reproduction	18995
integrated	18986
growing	18984
Wh@@	18972
baby	18972
bacteria	18972
exceed	18972
ViraferonPeg	18970
Pu@@	18962
adequately	18952
visible	18931
--	18923
driving	18915
Kaletra	18901
minor	18883
PegIntron	18878
Fl@@	18867
requires	18867
individuals	18866
patches	18856
recovery	18852
fore@@	18848
Fa@@	18847
13.@@	18842
entry	18831
1995	18828
Risk	18827
itary	18826
amounts	18826
-1	18825
circumstances	18824
contraception	18820
processing	18812
options	18802
asse@@	18794
kers	18772
aim	18770
guarantee	18768
proportion	18742
ically	18727
EN@@	18725
mice	18722
seven	18718
1.3	18717
spi@@	18716
Pack	18705
ard@@	18701
relating	18681
activated	18678
04.@@	18671
delivered	18667
policies	18663
Sector	18660
Hamburg	18642
cut	18640
pigs	18640
annual	18604
pt	18584
conver@@	18579
Center	18571
ben@@	18571
amlodipine	18567
fields	18565
Room	18562
,000	18558
build	18547
potent	18531
irritation	18529
tool	18528
Czech	18525
Rest@@	18523
protected	18510
direction	18509
tel@@	18505
Z	18504
referral	18502
fle@@	18497
absence	18493
objective	18486
excipients	18466
ef	18463
Part	18458
Central	18451
antibiotics	18449
digital	18447
Both	18446
Via	18439
6.6	18432
regions	18431
update	18421
Spanish	18417
slowly	18416
arr@@	18409
refer	18404
ene	18403
va	18396
aspects	18389
mat@@	18383
Ti@@	18373
temporary	18371
topic	18369
Many	18331
.g@@	18323
gro@@	18322
deed	18320
fertility	18319
ire@@	18301
Pa@@	18290
val	18283
IN	18280
ess	18271
anhydrous	18270
aster	18268
ening	18259
rheumatoid	18256
offered	18239
alo@@	18239
At@@	18236
gall@@	18235
VIII	18218
Mun@@	18214
Gar@@	18213
competent	18203
ls	18200
ciprofloxacin	18195
dies	18185
diluted	18180
eg@@	18175
Ú@@	18169
famil@@	18161
remaining	18160
courses	18148
core	18146
org	18145
formulation	18144
nationally	18128
19.@@	18124
fight	18115
chemical	18114
Its	18110
numerous	18108
Can@@	18104
pens	18104
Wel@@	18103
Nespo	18100
vs.	18099
replacement	18093
induced	18092
fish	18088
deal	18087
otherwise	18081
contr@@	18064
As@@	18059
ched	18058
approx	18051
Non-@@	18045
surroun@@	18011
drops	18011
contribution	18008
looked	17996
www.	17989
Powder	17989
02.@@	17973
Concomitant	17964
Even	17957
appearance	17957
46@@	17943
rabbits	17940
west	17928
dur@@	17923
Institute	17919
prescription	17919
nervous	17910
specifically	17893
discuss	17887
EN	17886
machinery	17884
comparison	17873
DE	17854
Ra@@	17851
post-marketing	17844
Application	17833
reduces	17830
origin	17827
pruritus	17822
agricul@@	17818
Fri@@	17816
accomm@@	17815
index	17812
PRODUCT	17798
concept	17791
Min@@	17788
CD@@	17785
installation	17785
eliminated	17777
efficiency	17774
suffering	17773
mass	17773
dly	17757
co-@@	17746
electronic	17744
gel	17738
GMT	17738
docetaxel	17733
DI@@	17733
spir@@	17711
straight	17710
hum@@	17705
availability	17704
Ciprofloxacin	17698
Â@@	17684
micro@@	17657
pH	17655
E172	17655
rit@@	17644
thrombocytopenia	17640
father	17637
RI@@	17635
worked	17634
remember	17632
06.@@	17623
lost	17621
salt	17619
Poland	17617
toxic	17606
ffe@@	17601
mark	17596
07.@@	17587
intramuscular	17583
aches	17579
ank@@	17576
EXP	17567
efforts	17567
Hel@@	17566
somnolence	17565
pra@@	17561
eb@@	17552
Fi@@	17540
acting	17539
ble@@	17531
contained	17528
Hypersensitivity	17523
lives	17512
anted	17505
dation	17500
Ru@@	17500
ym@@	17496
chance	17496
Bal@@	17487
Ir@@	17484
ACE	17481
4,@@	17474
tes	17471
sting	17465
dedicated	17457
ples	17451
programmes	17435
introduced	17426
format	17422
sof@@	17421
depends	17414
devices	17406
pur@@	17400
ily	17393
unchanged	17393
e-mail	17391
wipe	17381
plants	17361
posts	17358
76@@	17334
intravenously	17326
About	17325
ater	17320
Pharmaceuticals	17317
strain	17311
payment	17311
receptors	17309
seems	17305
ades	17299
RA@@	17291
efficient	17289
endpoint	17283
behaviour	17281
Tra@@	17280
complications	17273
Eg@@	17271
sight	17265
CE@@	17260
mal	17253
thyroid	17249
IM@@	17247
dra@@	17245
Gal@@	17231
nose	17225
015	17224
sensitivity	17205
eds	17200
69@@	17199
Studi@@	17196
item	17194
antiviral	17187
principle	17179
AP@@	17174
tolerated	17160
Grade	17157
tip	17155
Pharmacovigilance	17154
0.8	17149
88@@	17149
modified	17147
sar@@	17133
MB	17130
cher	17130
agree	17125
tiredness	17114
inv@@	17082
Bre@@	17080
ye	17076
Back	17053
guarante@@	17051
equ@@	17044
ption	17037
OJ	17006
Dr@@	17003
voice	16995
dings	16991
Director	16975
According	16973
Wi@@	16970
trav@@	16969
sen	16968
doc@@	16961
secure	16961
speak	16961
Bel@@	16959
ovarian	16955
rep@@	16954
standing	16952
cards	16950
gently	16939
paid	16934
fumarate	16933
steady	16928
ational	16927
regulation	16924
ancing	16915
sta	16908
intake	16904
lactation	16903
47@@	16903
ilities	16897
released	16894
display	16876
saquinavir	16873
Proj@@	16873
anything	16867
persistent	16853
Q	16851
delay	16836
useful	16830
maz@@	16829
NE@@	16829
acknowledged	16822
B-@@	16804
13-@@	16800
whilst	16798
began	16795
sky	16792
hy@@	16785
ANNEX	16784
IS@@	16781
languages	16781
suffer	16773
disoproxil	16767
Denmark	16766
Let	16763
sensitive	16759
SS	16758
3.5	16747
metastatic	16743
AL	16738
em	16718
Ben@@	16713
rel@@	16712
Efficacy	16697
hom@@	16693
coffee	16689
ek@@	16673
amended	16662
gth	16661
gli@@	16660
LI@@	16658
memory	16654
foetal	16653
prolonged-release	16650
Sof@@	16640
le-@@	16638
swimming	16629
1.1	16619
row	16617
ring	16611
measuring	16606
apparent	16604
16.@@	16599
eight	16592
warm	16588
ships	16582
oul@@	16571
Parkinson	16569
disposal	16552
connected	16551
014	16547
è@@	16542
tage	16539
rely	16537
properly	16537
ali@@	16531
bacterial	16528
Severe	16524
70@@	16524
steel	16520
innovative	16510
Hydrochlorothiazide	16507
consumption	16501
ki	16499
Chinese	16489
EC@@	16486
Bed@@	16482
aft	16481
hous@@	16474
Is	16471
manner	16464
stone	16460
hap@@	16456
SC	16455
ium	16453
preparations	16451
logy	16451
diagnosis	16448
ki@@	16440
consul@@	16435
begin	16434
Where	16421
Trudexa	16417
feature	16403
monthly	16384
pic@@	16379
IntronA	16368
detected	16363
contract	16357
tube	16348
stearate	16343
inu@@	16341
370	16337
fine	16334
square	16333
unds	16329
Aranesp	16321
inhibit	16307
empty	16298
ases	16286
Cl@@	16285
ink@@	16285
wal@@	16277
summary	16267
ER	16264
responses	16258
erythema	16256
comprehensive	16253
Tri@@	16252
org@@	16250
vit@@	16250
presentation	16247
stock	16242
dor@@	16240
disturbances	16234
ck	16231
dic	16230
worsening	16229
vehicle	16228
hl@@	16228
ano@@	16225
transmission	16221
solid	16219
SA@@	16216
E171	16215
aching	16214
Women	16187
SD	16181
17.@@	16178
representative	16175
flushing	16175
sensation	16174
obtain	16171
list@@	16164
ums	16159
ampoule	16155
returned	16155
sis	16153
Ag@@	16151
dat@@	16150
resor@@	16150
PE@@	16147
Red	16145
answer	16143
record	16126
Just	16124
sible	16120
Quality	16116
27.@@	16112
sle@@	16106
big@@	16097
err@@	16096
amprenavir	16070
pos@@	16069
mellitus	16060
spread	16037
track	16037
P450	16036
derived	16024
uc	16024
va@@	16023
IX	16021
ny	16017
muscles	16015
tissues	16011
alk@@	16009
break	16005
error	16004
alt	16000
tele@@	15998
NovoMix	15994
worldwide	15976
Lin@@	15976
Pho@@	15973
flo@@	15960
log	15960
voriconazole	15952
tongue	15952
fentanyl	15941
regulatory	15937
confusion	15929
Mer@@	15921
Mag@@	15917
mouse	15909
republika	15892
swabs	15883
leads	15872
adjustments	15868
rod	15865
Liv@@	15855
piece	15852
sit	15846
discomfort	15835
rer	15817
prise	15816
duc@@	15806
RNA	15805
confidence	15801
actual	15801
metabolic	15795
mid@@	15782
lik@@	15780
Dem@@	15763
st-@@	15750
cellulose	15748
disp@@	15747
Solution	15747
mutual	15744
spac@@	15742
haemodialysis	15739
induce	15738
transplantation	15737
head@@	15737
neuropathy	15735
middle	15730
healthcare	15729
ories	15727
AST	15725
TE	15725
adjust	15725
packaging	15725
Dr	15704
Han@@	15700
goes	15699
MA@@	15697
ker@@	15692
experiences	15689
fungal	15681
gastric	15681
concern	15680
bag	15680
un	15679
ER@@	15678
tables	15674
Description	15667
Har@@	15666
categories	15664
ann	15663
Ja@@	15660
angina	15656
peginterferon	15652
istic	15647
New@@	15645
Coun@@	15639
Sim@@	15639
dimen@@	15631
ile@@	15631
Additional	15623
Ur@@	15620
People	15615
ia@@	15615
14-@@	15606
371	15595
pain@@	15594
Gro@@	15592
interests	15587
Bio@@	15579
reproductive	15574
ST@@	15572
Basal	15569
adv@@	15567
platelets	15566
causing	15563
age@@	15556
ising	15552
print	15542
reversible	15538
wards	15537
proposals	15537
ges@@	15527
indinavir	15520
Pan@@	15518
Conference	15514
optim@@	15500
ATC	15495
discussed	15490
ket@@	15489
myself	15489
TI@@	15487
140	15479
ongoing	15478
Del@@	15473
partial	15468
130	15466
adver@@	15462
let@@	15462
ticles	15453
attached	15452
ulcers	15448
MP@@	15448
dates	15445
Cozaar	15428
Veterinary	15409
watch	15408
ty@@	15408
tasks	15404
draw	15403
reliable	15397
category	15370
opportun@@	15366
acts	15356
retention	15354
sett@@	15350
typical	15350
06@@	15348
210	15326
larger	15321
delayed	15316
ected	15306
tation	15306
diuretics	15299
Madrid	15296
requiring	15284
lif@@	15283
posed	15269
generation	15264
pal@@	15261
professionals	15254
buildings	15254
max	15253
Paediatric	15249
Ren@@	15249
statement	15245
AA@@	15244
eter@@	15240
gene	15237
ero@@	15235
ented	15220
occurrence	15215
excess	15213
rat	15208
accompanied	15206
RISPERDAL	15204
PE	15197
85@@	15194
700	15192
NovoLet	15191
contribute	15180
accumulation	15178
tish	15175
ada	15175
0.25	15170
meals	15170
900	15164
prepare	15161
sing@@	15159
ils	15156
kinds	15141
less@@	15139
malignant	15131
lansoprazole	15128
E-@@	15126
hal@@	15121
dark	15118
consequences	15114
consultation	15112
Gi@@	15102
serve	15097
walking	15082
Mix25	15078
accepted	15076
microgram	15072
mix	15067
peri@@	15054
Effects	15053
reviews	15039
faeces	15035
HO@@	15033
ino@@	15021
016	15014
sudden	15011
consult	15007
failed	15006
28.@@	15003
Area	15001
injury	14998
else	14996
magnesium	14994
Cmin	14993
ideas	14990
lights	14985
vention	14982
ya	14982
referred	14979
ards	14979
specified	14978
background	14975
valsartan	14974
udi@@	14973
th-@@	14971
relations	14957
ring@@	14948
implemented	14946
goal	14943
asc@@	14943
FI@@	14942
histor@@	14935
1.4	14931
Betaferon	14930
ument	14920
Street	14917
fan@@	14903
planned	14896
oll@@	14896
Mix50	14896
E.	14894
technologies	14891
bad	14886
eat	14874
Hungary	14872
itation	14871
cycles	14864
240	14859
Tlf	14859
lispro	14855
Wil@@	14849
Rome	14846
gradually	14841
RA	14839
running	14836
ican	14832
rich@@	14820
Rebetol	14820
AG@@	14819
Peter	14816
linked	14805
sweating	14794
yo@@	14793
objectives	14793
uri@@	14792
lopinavir	14785
periods	14782
Me	14781
intolerance	14772
GlaxoSmithKline	14768
Cul@@	14766
worse	14762
ises	14761
sildenafil	14758
chosen	14757
allergy	14756
ife	14751
instructed	14745
ES	14742
SP	14737
alities	14730
integration	14718
extended	14711
tom@@	14700
session	14699
Social	14690
informed	14688
decisions	14671
sac@@	14671
conditioning	14660
despite	14658
Anti@@	14647
Italia	14645
Dosage	14641
layer	14627
loading	14623
block	14611
calculated	14611
warfarin	14610
Results	14608
fractures	14607
orange	14600
pieces	14597
examination	14594
managed	14592
writing	14587
Sub@@	14576
underlying	14570
someone	14568
ergy	14559
fun@@	14555
get@@	14554
assay	14554
emtricitabine	14552
Great	14548
ga	14546
Open	14546
bel@@	14546
sup@@	14545
rosiglitazone	14535
stom@@	14528
ato@@	14527
Mad@@	14526
documentation	14521
alog	14520
cep@@	14515
concer@@	14513
cast@@	14503
kes	14501
served	14499
pneumonia	14497
RMP	14497
ai	14489
spen@@	14488
difficulties	14486
Tran@@	14480
David	14472
APTIVUS	14470
ab	14465
Association	14461
und@@	14460
bs	14456
cytochrome	14454
diver@@	14454
Hepatic	14453
operations	14435
practical	14432
tives	14432
ax	14431
ures	14430
za	14417
Tro@@	14414
orm@@	14402
C-@@	14398
otes	14390
applies	14385
tle	14381
initiative	14376
ear	14367
fresh	14364
ß@@	14358
15.@@	14358
EEC	14349
dated	14344
Agenerase	14342
ULN	14342
Co-administration	14341
Rasilez	14338
reporting	14337
fied	14334
5,@@	14322
i.e.	14321
cle	14318
changing	14317
description	14316
automatically	14310
gender	14309
PA	14294
sets	14290
sitagliptin	14284
77@@	14281
ick	14277
regimens	14277
leukaemia	14271
situations	14271
ON@@	14270
revealed	14267
life-threatening	14260
proce@@	14257
ff	14253
25.@@	14251
shock	14243
cisplatin	14238
foil	14231
ML	14230
technique	14224
02-@@	14217
dilution	14215
ona	14209
Bas@@	14207
read@@	14206
3.0	14206
blocking	14204
cin@@	14203
ault	14202
structures	14201
Treat@@	14200
promote	14198
osteoporosis	14197
0.001	14191
passed	14189
output	14188
suspected	14187
AB@@	14179
simvastatin	14177
consum@@	14176
ion	14173
mostly	14168
proper	14166
ont	14163
VIRAMUNE	14159
reverse	14157
manufacturer	14155
relevance	14151
lowering	14150
see@@	14148
feeding	14144
becoming	14143
OS	14137
aria	14134
roo@@	14132
je@@	14119
angiotensin	14118
J	14115
hip	14115
isolated	14111
21.@@	14104
inhibits	14104
det@@	14102
Economic	14094
assess	14087
01-@@	14086
son@@	14084
dep@@	14082
Micro@@	14071
finally	14068
Photo	14066
oring	14064
pati@@	14048
ix	14047
programs	14044
ised	14038
whe@@	14038
lop@@	14034
alized	14034
installed	14027
epilepsy	14022
replace	14021
design@@	14013
bottom	14006
analy@@	14004
LABEL	14001
weak	14001
Japan	13997
59@@	13996
Content	13994
MabThera	13992
Station	13988
manufacturing	13988
Sy@@	13986
glycol	13978
io	13976
Vol@@	13968
112	13959
host	13956
hyper@@	13955
urity	13952
medium	13949
eries	13948
Code	13945
filled	13940
fast@@	13940
azine	13939
well-@@	13937
smaller	13925
CI@@	13921
unable	13920
she@@	13920
pharmaceutical	13917
Tre@@	13904
lake	13900
stat@@	13898
starts	13896
perform	13895
ligh@@	13892
accept	13892
participants	13885
w.@@	13883
Elderly	13881
fee	13879
arb@@	13861
doesn	13858
joints	13856
euro@@	13856
Lake	13856
reading	13852
motor	13850
representatives	13849
0.7	13847
percentage	13844
radiation	13835
Affairs	13833
formed	13831
ped	13825
tran@@	13823
Sen@@	13823
coagulation	13809
functioning	13807
ø	13801
autom@@	13798
fondaparinux	13793
750@@	13791
cable	13784
alisation	13782
samples	13781
Pegasys	13780
hel@@	13770
184	13767
acetate	13763
plan@@	13758
alter	13756
rule	13754
Driving	13752
expressed	13749
establish	13748
scope	13747
gra@@	13747
Brussels	13739
IT@@	13736
thinking	13735
reductions	13731
ssed	13731
thers	13724
M.	13721
remained	13712
Atripla	13709
Le	13704
cross	13698
selective	13698
07@@	13692
wait	13690
vac@@	13690
18.@@	13689
►	13688
tures	13687
positions	13687
KG	13684
updates	13678
contraceptive	13669
toc@@	13666
affecting	13666
line@@	13661
185	13655
fill	13653
graphy	13650
serv@@	13643
tial	13637
challenges	13626
05-@@	13625
Azomyr	13620
cleaning	13611
ranging	13599
Edi@@	13596
comfort	13594
drawn	13591
Class	13580
Cy@@	13576
sex	13575
750	13571
optimal	13570
understanding	13569
priority	13560
telephone	13559
CE	13555
lan@@	13553
lamotrigine	13553
inactivated	13550
icity	13543
albumin	13543
sation	13541
plans	13528
26.@@	13517
kin@@	13514
Injection	13510
epoetin	13509
6,@@	13506
ó@@	13505
died	13500
ulcer	13498
ciclosporin	13494
f-@@	13493
legs	13491
neither	13490
Place	13488
brand	13485
push	13483
respective	13483
registered	13475
14.@@	13474
ological	13471
syn@@	13457
Mari@@	13457
Puregon	13446
dissolved	13441
Belgique	13439
enlargement	13438
horses	13438
turned	13437
Forum	13434
än@@	13433
advise	13432
movements	13431
comments	13428
Overall	13427
selves	13425
cut@@	13421
mm3	13407
ez@@	13407
advance	13406
finished	13404
ital	13404
grounds	13396
mm@@	13393
continues	13392
purchase	13383
ris	13380
eth	13379
mar	13377
89@@	13371
therapies	13369
SI@@	13368
¼	13368
dermatitis	13365
Weight	13363
à	13362
altered	13359
ese	13352
ria	13350
relatively	13347
stopping	13345
introduction	13345
spl@@	13342
desired	13334
Cham@@	13331
vaccinated	13326
Add	13319
vehicles	13312
enable	13311
juice	13301
rhinitis	13297
450	13296
tware	13293
Global	13286
bir@@	13283
adding	13272
mul@@	13267
applicant	13267
behalf	13265
orphan	13259
antibiotic	13246
03-@@	13227
360	13227
adapter	13223
Moreover	13219
sleeping	13218
fas@@	13210
Ci@@	13209
regulations	13208
ome@@	13207
04-@@	13196
pul@@	13192
entary	13189
ole	13189
372	13187
commitment	13186
harm	13181
insomnia	13178
limits	13173
Such	13170
organisation	13169
ural	13167
tex@@	13164
ales	13162
09@@	13157
task	13153
foot	13149
NAME	13148
idity	13147
ud	13145
remo@@	13144
resolved	13143
0.00@@	13136
write	13131
nasal	13131
sel@@	13129
san@@	13127
program@@	13126
transparent	13125
Avastin	13123
2.4	13122
ret@@	13113
Gastrointestinal	13110
controls	13109
seal	13108
lab@@	13103
16-@@	13101
ently	13099
Mi@@	13097
Jer@@	13086
permanent	13085
Finally	13085
tab@@	13081
22.@@	13077
sten	13073
yed	13073
acidosis	13072
thrombosis	13065
GONAL-f	13058
was@@	13054
dered	13051
vascular	13045
127	13041
Eesti	13038
ras@@	13035
Black	13031
Within	13030
ha	13028
producing	13023
alization	13020
elevations	13016
earlier	13013
explo@@	13010
covers	13003
PS	13002
Increased	13001
patent	13000
pioglitazone	12999
fundamental	12999
tries	12997
channel	12995
populations	12990
damaged	12978
claim	12970
es-@@	12963
fy	12957
outdo@@	12954
420	12953
Active	12951
character	12946
AU@@	12943
missed	12943
tan@@	12937
cleansing	12933
sulphonylurea	12931
HDPE	12930
emergency	12928
29.@@	12927
participation	12926
metal	12924
psoriasis	12916
Every	12916
mode	12914
surgical	12905
angioedema	12903
Dec@@	12902
arity	12900
supportive	12897
consciousness	12874
pivotal	12861
sit@@	12859
BO@@	12854
Don	12843
antihypertensive	12843
ste	12843
challenge	12841
appointed	12834
titanium	12833
022	12832
warnings	12829
acceptable	12827
hear	12825
demonstrate	12823
fer	12823
Du@@	12822
ously	12813
ams	12812
van	12809
competi@@	12808
Comments	12805
coronary	12802
provider	12800
ette	12800
Bl@@	12798
broad@@	12793
applicable	12786
principles	12780
SO@@	12778
Trac@@	12775
lun@@	12775
Met@@	12774
viruses	12770
QT	12756
exist	12753
ound@@	12751
warning	12749
CellCept	12748
omep@@	12745
seeing	12744
56@@	12737
Bur@@	12733
broken	12732
unusual	12727
electric	12709
elle	12708
contraceptives	12701
ine-@@	12698
ketoconazole	12698
mel@@	12697
Malta	12695
zo@@	12688
Rec@@	12684
one-@@	12684
hun@@	12682
gir@@	12680
signed	12674
Up@@	12674
Adults	12674
dam	12671
thoughts	12670
predominantly	12668
Belgien	12668
ingen	12665
MI@@	12663
human@@	12657
labour	12654
artery	12653
dialogue	12653
Form@@	12650
AD	12650
cattle	12649
imp@@	12647
Kon@@	12637
functional	12636
Make	12634
techniques	12633
supports	12617
bilirubin	12616
Food	12612
SP@@	12604
constant	12600
holder	12596
bath	12590
los	12585
star@@	12583
Canada	12580
lon	12576
clotting	12576
tin@@	12573
AUTHORISATION	12570
Op@@	12567
KwikPen	12565
recorded	12561
authority	12555
creating	12552
sustained	12551
42@@	12546
Actraphane	12543
bodyweight	12541
discontinue	12538
electr@@	12537
Sur@@	12537
responded	12533
younger	12529
shape	12524
antagonists	12524
weighing	12516
Rob@@	12513
detail	12502
high@@	12496
Bor@@	12495
harmful	12494
Camp@@	12494
Sharp	12493
4.1	12487
ues	12484
surrounding	12480
adi@@	12479
happen	12477
tas@@	12474
literature	12465
infrastructure	12464
translation	12459
TA@@	12452
cell@@	12444
Pen@@	12442
locations	12436
paclitaxel	12431
hazard	12429
Τηλ	12423
Hor@@	12420
special@@	12417
Mean	12416
closure	12415
OR@@	12406
eld	12403
distributed	12402
ING	12402
sy	12399
FSH	12395
deliver	12393
oro@@	12387
ugh@@	12387
Public	12384
ache	12383
lactic	12381
bra@@	12371
shortness	12370
fruit	12370
sour@@	12369
Members	12369
platform	12364
Rel@@	12364
relax@@	12361
ini	12359
provision	12346
relief	12345
innovation	12341
favour	12340
worth	12339
Mixtard	12335
iness	12323
Xeloda	12322
ava	12321
chain	12320
appeal	12319
consecutive	12318
pub@@	12316
progressive	12310
cen@@	12310
nelfinavir	12301
rifampicin	12301
isation	12286
Danmark	12283
poly@@	12282
ably	12282
claims	12274
biological	12258
vs	12254
dy@@	12252
Year	12250
resi@@	12250
sal	12249
calls	12246
gram@@	12246
learning	12241
represents	12240
monkeys	12238
ares	12236
Bon@@	12231
topical	12228
tuberculosis	12228
Latvija	12223
ham@@	12222
plic@@	12222
ky	12218
Good	12215
establishment	12211
tail	12206
clots	12204
Can	12201
350	12200
wear	12197
rom@@	12197
practices	12193
6.1	12193
apart	12192
surveillance	12187
hu@@	12187
investigation	12178
prolongation	12178
De	12176
ulation	12173
conclusion	12170
printed	12163
secretion	12162
ox@@	12147
enables	12145
unused	12143
Eli	12135
bility	12134
experimental	12130
Ribavirin	12130
atory	12123
ths	12123
Life	12116
NOT	12113
MO@@	12112
edge	12110
020	12104
removal	12101
Herceptin	12099
thi@@	12097
aring	12096
Out@@	12092
die@@	12091
Work	12087
care@@	12083
Rue	12083
attacks	12083
sitting	12083
organs	12074
Neoclarityn	12074
My@@	12073
substrate	12073
olic	12071
alogue	12065
effectively	12063
bul@@	12059
entered	12058
occup@@	12058
directive	12056
medications	12053
provisions	12052
automatic	12043
d.	12042
ör@@	12026
ratiopharm	12025
coli	12024
lymphoma	12018
burning	12016
studi@@	12014
о@@	12009
accidental	12007
Norway	12004
Hi@@	12003
invasive	12001
fen	11999
List	11997
Michael	11995
Module	11995
Ed@@	11992
cou@@	11989
healing	11980
hear@@	11976
AM@@	11974
H.	11965
department	11961
fracture	11951
lar@@	11949
uk@@	11945
tons	11940
reproduction	11940
exposures	11936
haematological	11936
Ph@@	11924
anaphylactic	11924
amb@@	11918
inks	11914
gold	11913
sources	11913
limb	11911
blurred	11910
bodies	11910
letter	11905
heating	11905
expert	11903
anti-inflammatory	11902
missing	11901
aprepitant	11899
lowers	11897
Fil@@	11895
EPC	11892
carcinoma	11891
clopidogrel	11890
atur@@	11889
Sou@@	11882
nearly	11880
steady-state	11877
tin	11875
regards	11875
atazanavir	11875
stages	11874
PO@@	11873
Caelyx	11868
Sil@@	11868
chen	11865
F-@@	11858
nia	11853
nel	11852
Instructions	11851
lips	11847
quarter	11846
but@@	11841
recovered	11841
ti	11838
effort	11836
happens	11831
elling	11831
printing	11831
rid	11830
Extavia	11826
titration	11821
2.1	11820
sectors	11819
wo@@	11814
α	11810
drinking	11808
Sum@@	11808
hen	11807
ema	11805
Docetaxel	11804
2.6	11792
Penfill	11792
Tablets	11791
recommendation	11788
repeat	11787
2nd	11782
Novartis	11773
inflammatory	11770
administering	11769
31.@@	11769
filter	11767
Three	11763
Die@@	11763
motion	11762
ate-@@	11755
Metabolism	11754
improving	11754
bec@@	11747
engineering	11746
sucrose	11743
appeared	11743
slight	11742
g.@@	11742
examined	11738
104	11738
sample	11736
acquired	11730
agreements	11726
pet@@	11721
ames	11720
VE@@	11715
trough	11712
loaded	11707
IB	11706
matters	11704
AT	11701
BLISTERS	11700
Aerius	11691
blocks	11689
loc@@	11687
eli@@	11684
showing	11683
pow@@	11683
izing	11682
supporting	11676
l-@@	11676
prescribe	11675
measurement	11674
g-@@	11667
May@@	11666
Dohme	11662
mofetil	11662
aminotransferase	11660
finding	11656
suicidal	11656
antigen	11656
strains	11656
Find	11653
atorvastatin	11652
qualified	11652
Applicant	11650
Franc@@	11646
Body	11646
lose	11643
integr@@	11638
ella	11635
Technology	11634
Shi@@	11632
111	11630
opinions	11629
acqu@@	11629
manual	11629
preferably	11626
Spe@@	11622
bought	11621
Executive	11599
transpor@@	11583
mmHg	11582
instance	11579
polypropylene	11575
inhaled	11574
signal	11573
vildagliptin	11573
ended	11572
358	11571
rati@@	11567
sic@@	11563
Cam@@	11556
CHF	11546
zen	11538
angu@@	11533
REYATAZ	11531
compliance	11523
antagonist	11523
hearing	11522
Österreich	11522
len@@	11520
01@@	11514
figure	11507
gest	11505
Wien	11499
87@@	11491
advantages	11490
continuing	11490
copy	11484
conjunction	11480
furniture	11479
childbearing	11476
VIAL	11476
abdomen	11476
atin	11473
Bra@@	11472
skills	11471
onia	11467
ounced	11465
science	11463
booster	11461
Inf@@	11460
386	11459
Subcutaneous	11457
administer	11456
RE	11454
sn@@	11450
represent	11450
encoun@@	11449
miss	11447
Filgrastim	11446
well@@	11442
mL	11438
meaning	11435
sel	11430
esses	11429
speaking	11428
TEXT	11427
susceptible	11426
gal@@	11418
ingredient	11416
easier	11416
submit	11414
scheduled	11411
Single	11411
prom@@	11410
chills	11407
regi@@	11406
implement	11406
Units	11405
directed	11404
architecture	11402
Remicade	11401
enda	11400
edings	11399
heavy	11398
Aluminium	11398
conclusions	11394
replaced	11393
emb@@	11391
rapporteur	11391
Over	11389
condi@@	11386
comparator	11383
multi-@@	11382
characterised	11380
Epoetin	11377
critical	11375
aving	11373
phenytoin	11371
committed	11371
classes	11371
2.2	11367
eller	11365
Tele@@	11364
Sha@@	11360
24.@@	11356
physicians	11353
Sverige	11353
alling	11344
IP	11344
amendments	11339
breast-feed	11337
Fore@@	11335
Test	11332
reform	11331
approval	11330
stress	11328
subsi@@	11325
beat	11325
ie@@	11324
Lit@@	11323
digoxin	11323
organisations	11318
walls	11315
completion	11313
etz@@	11310
018	11305
starch	11302
lungs	11301
Evaluation	11300
L-@@	11298
consumer	11291
IC@@	11288
eur@@	11288
lp	11287
appreci@@	11286
ouse	11283
performing	11283
proc@@	11278
tells	11274
itor	11272
analyses	11268
bruising	11268
lasting	11265
tainment	11263
bri@@	11262
Tor@@	11261
Telzir	11256
TH@@	11255
book@@	11250
ts@@	11248
België	11246
ent-@@	11241
consequence	11240
assi@@	11239
131	11237
coloured	11236
funding	11235
I.	11229
ambi@@	11229
ush	11219
conversion	11217
proof	11216
ills	11213
395	11213
thereby	11212
1.6	11210
successfully	11207
sers	11200
-up	11199
017	11196
Dom@@	11193
mothers	11188
withdrawn	11185
guard	11184
post-@@	11181
Capsule	11178
106	11175
ming	11173
fel@@	11173
Under	11171
gence	11171
Commun@@	11170
Lis@@	11169
Among	11167
saf@@	11163
ania	11162
risperidone	11161
Orphan	11157
writ@@	11154
arterial	11152
PRE-FILLED	11149
itr@@	11145
cloudy	11142
etoricoxib	11142
and-@@	11140
Another	11130
Email	11128
400@@	11128
8,@@	11127
lied	11126
Mac@@	11121
doxorubicin	11119
dele@@	11118
developments	11115
abilities	11110
132	11110
filgrastim	11102
wrong	11100
Char@@	11096
War@@	11096
Days	11091
No.	11087
ron@@	11086
allowing	11086
ll@@	11086
whereas	11085
cross-@@	11085
30-@@	11083
58@@	11081
attempt	11074
preventing	11068
foetus	11065
identify	11065
educational	11055
cc@@	11052
modification	11052
nation@@	11051
PREZISTA	11051
P.	11042
randomized	11038
sealed	11036
Bar	11035
competitive	11035
mun@@	11032
Mu@@	11031
evaluate	11030
ific@@	11026
nine	11023
mediated	11018
Mil@@	11016
ateg@@	11011
expertise	11010
firm	11007
Review	11005
illed	11001
HEXAL	10999
nam@@	10998
diagnosed	10997
tachycardia	10994
farm	10993
oned	10986
registration	10984
alpha	10982
66@@	10979
fewer	10975
All@@	10962
reveal	10961
HPV	10958
ased	10955
teratogenic	10953
comb@@	10951
Ges@@	10950
open-label	10949
hundred	10944
Standard	10944
Sup@@	10943
broad	10941
install@@	10940
Up	10940
networ@@	10940
dge	10939
harmon@@	10937
Sk@@	10937
SE	10936
gland	10936
Events	10934
mutations	10931
spine	10927
circulation	10926
bubbles	10923
CD4	10919
Rapid	10913
pattern	10912
tingling	10908
Exelon	10906
lets	10905
Science	10904
ective	10900
initiatives	10898
susceptibility	10897
deposit	10896
arrang@@	10894
Nederland	10891
clock	10880
alls	10878
flexible	10878
graph@@	10877
Rebif	10877
rings	10871
Be	10871
shared	10869
females	10866
grow	10861
MIU	10859
lowest	10858
strongly	10858
mixture	10855
ñ@@	10855
expression	10854
102	10850
Programme	10850
proven	10849
transparency	10846
Mor@@	10843
CYP2C9	10835
ventricular	10824
possib@@	10823
identi@@	10823
density	10822
anim@@	10817
secre@@	10817
cip@@	10816
101	10812
Sun@@	10811
inning	10810
Polska	10810
DO@@	10808
Ni@@	10804
ok	10798
ouri@@	10789
drowsiness	10785
joined	10784
NO@@	10784
Cour@@	10781
analogues	10777
lish	10774
AC	10768
relax	10768
anorexia	10760
ere@@	10760
Tracleer	10755
draft	10755
tremor	10755
Gall@@	10751
ba	10746
committee	10744
ith@@	10744
nt	10739
KOGENATE	10737
prises	10736
ID@@	10734
--@@	10734
onic	10730
renewal	10730
Best	10729
parents	10729
CT	10725
omet@@	10722
ond	10720
spare	10717
fit	10716
Sit@@	10710
Bil@@	10707
displayed	10704
rue	10702
tes@@	10702
polysorbate	10702
substantial	10701
Riv@@	10700
Rapamune	10696
uk	10694
yl	10693
vin@@	10693
asing	10690
8000	10689
ilo@@	10689
-related	10686
uration	10686
Phil@@	10685
painful	10685
351	10683
ani	10677
WITH	10676
topics	10674
tail@@	10667
produces	10666
rene@@	10665
disturbance	10665
swallowing	10662
tivity	10662
numbness	10661
demands	10660
agitation	10658
manage	10658
erv@@	10654
experiencing	10649
figures	10648
ampoules	10646
enrolled	10638
Technical	10635
compatible	10634
frame	10633
Pas@@	10631
lock	10628
faster	10627
lac@@	10622
STE@@	10621
raine	10617
losartan	10614
asthenia	10613
prophylaxis	10601
register	10599
23.@@	10595
Volibris	10594
isch@@	10590
1.8	10588
strategic	10587
ZYPREXA	10583
ful@@	10582
existence	10573
trying	10571
tising	10570
centralised	10560
SC@@	10548
stands	10548
significance	10547
oxygen	10546
ello	10545
utes	10544
scha@@	10540
Decision	10540
entation	10538
compound	10537
zed	10533
VFEND	10533
fru@@	10529
mage	10527
sland	10526
ð@@	10526
offices	10525
3.3	10523
switch	10520
speech	10518
inadequate	10518
element	10517
Vimpat	10515
ou	10511
EX@@	10507
ocular	10505
initiating	10504
heparin	10503
MIRCERA	10498
2.3	10498
acti@@	10496
accidentally	10495
supplements	10489
vely	10489
tte	10487
Experience	10486
income	10486
ointment	10482
telmisartan	10482
waiting	10481
mon	10476
ringing	10470
orr@@	10464
Direc@@	10463
Saint	10463
rece@@	10462
280	10461
suc@@	10460
seem	10456
expen@@	10440
Lietuva	10439
pleased	10439
ena	10437
CYP2D6	10432
Side	10430
myalgia	10427
Vir@@	10425
diameter	10419
classic	10416
Median	10409
og@@	10408
erythropoietin	10406
Bir@@	10404
cy@@	10403
Novo	10402
nerve	10398
depend	10395
plate	10393
ordinary	10391
mechanisms	10390
AIDS	10390
prescribing	10390
enhanced	10389
defects	10388
Keppra	10380
thousand	10378
ancy	10378
Avenue	10374
stick	10371
vary	10367
BI@@	10367
Wo@@	10365
dummy	10364
Start	10358
Distribution	10358
Sar@@	10357
bolus	10355
BYETTA	10351
expect	10351
hood	10349
corporate	10346
pre-existing	10345
tioned	10342
so-called	10340
open-@@	10337
participate	10336
converted	10336
intensity	10332
avel	10331
79@@	10331
Hepatitis	10329
foot@@	10329
d.@@	10328
substrates	10324
named	10317
malignancies	10314
inary	10314
biconvex	10312
passing	10311
oma	10308
midazolam	10308
105	10305
formal	10303
T-@@	10302
comparing	10302
birds	10294
atin@@	10290
omo@@	10285
oval	10282
Martin	10281
inform@@	10279
Headache	10274
diagnostic	10272
ven	10272
ides	10269
Gl@@	10268
iling	10266
3rd	10262
ingly	10257
MG	10256
sell	10256
fasting	10256
specially	10256
dependence	10255
repair	10254
itraconazole	10246
019	10242
exact	10238
§	10234
Agre@@	10232
rising	10230
nucleoside	10230
MEDICINAL	10228
emp@@	10228
QU@@	10225
Chapter	10223
rib@@	10223
ibandronic	10217
specialist	10216
asi@@	10215
fication	10214
427	10209
03@@	10207
pharmacology	10203
onal	10203
angle	10202
ady	10196
MA	10194
hyperglycaemia	10192
ix@@	10192
astern	10191
bladder	10187
mood	10184
covering	10180
CELSENTRI	10180
gemcitabine	10177
spp	10177
STRIPS	10176
Response	10171
Meeting	10170
Neupro	10169
moving	10169
sachet	10169
administrative	10169
owner	10168
marks	10161
agen	10160
une	10158
Additionally	10157
357	10155
Rapinyl	10146
labelling	10146
rejection	10145
sim@@	10137
w-@@	10134
PRO@@	10133
cytotoxic	10132
dihydrate	10132
LE	10129
manufacturers	10129
Comp@@	10126
off-white	10126
individually	10121
Show	10119
Fer@@	10117
å@@	10116
deci@@	10113
ari	10112
prov@@	10107
HCV	10103
develops	10098
holding	10097
soluble	10095
ReFacto	10093
ital@@	10091
128	10088
146	10087
Market	10085
Category	10084
Zevalin	10084
MI	10083
6.2	10079
Bab@@	10073
Glivec	10072
qual@@	10071
Clopidogrel	10069
conduct	10068
AF	10065
Romania	10062
Australia	10058
py@@	10056
Financial	10052
1994	10050
ible	10049
Off@@	10047
Mus@@	10046
doctors	10041
eth@@	10037
irregular	10035
hypertensive	10032
thereafter	10032
cle@@	10031
Prof.	10030
Medical	10029
sirolimus	10025
Change	10025
opaque	10015
o.	10014
synthesis	10013
|	10012
dynamic	10009
LA@@	10009
jaundice	10008
BOX	10007
Temodal	9996
Men@@	9994
connec@@	9993
bac@@	9993
Middle	9991
ola	9991
pose	9990
Xolair	9986
chewable	9982
graphic	9979
ened	9978
dyspepsia	9977
indicating	9977
Ingelheim	9975
hormonal	9971
BID	9969
males	9967
115	9967
explain	9966
logn@@	9964
fluticasone	9961
anyone	9955
Da@@	9947
pink	9946
checked	9946
improvements	9945
Roche	9943
Zometa	9942
España	9940
protocol	9936
spent	9935
anda	9931
Duration	9928
Ministry	9927
1.7	9926
squ@@	9925
Healthcare	9924
bones	9923
overview	9916
loo@@	9914
swallowed	9912
Several	9911
flu	9910
sper@@	9908
78@@	9908
membrane	9905
Inc	9904
bru@@	9895
triglycerides	9895
presents	9894
exists	9890
renewed	9886
examples	9884
Sel@@	9883
230	9880
pancreas	9879
Prometax	9873
flexi@@	9869
ake	9867
coordination	9867
fourth	9865
outstanding	9864
103	9862
Pain	9862
tra	9861
reflect	9859
desire	9857
discarded	9853
Manufacturer	9847
orig@@	9847
minimal	9841
↔	9834
considering	9832
pharmacological	9832
Ak@@	9831
recor@@	9829
rap@@	9829
wording	9828
erb@@	9828
se-@@	9826
celecoxib	9825
non@@	9823
Nervous	9821
tak@@	9819
antly	9810
aimed	9809
4.0	9808
TABLETS	9806
glob@@	9801
AR	9801
Serious	9800
character@@	9797
Systems	9796
fees	9796
mit@@	9796
represented	9795
maternal	9794
bon@@	9791
territory	9786
fix@@	9786
keeping	9784
5.0	9784
sulphate	9784
jud@@	9776
`@@	9768
insul@@	9767
collaboration	9767
intervention	9766
organic	9766
sold	9766
Ol@@	9766
counter@@	9765
goals	9764
Care	9764
i.@@	9763
hn	9762
stream	9759
low-@@	9759
Liver	9757
aven@@	9756
channels	9755
anticipated	9751
Alu	9751
lea@@	9749
Heart	9745
Syndrome	9742
partnership	9742
ham	9741
paroxetine	9739
sear@@	9735
6.5	9734
Tyrol	9732
225	9731
uck	9731
quick	9730
TO@@	9729
clarithromycin	9728
moved	9725
elevation	9724
Titanium	9722
wort	9721
corner	9720
ague	9718
swab	9718
fluoxetine	9717
ura	9715
issued	9713
Enter@@	9711
TR@@	9708
worl@@	9707
ara	9706
rain	9703
immunisation	9702
ç@@	9701
ata	9701
ony	9699
ita	9696
aging	9695
dyspnoea	9694
herbal	9693
empha@@	9690
Gener@@	9687
versions	9686
Kun@@	9684
quo@@	9680
tar@@	9678
bright	9671
water@@	9670
perform@@	9667
EL@@	9667
pharmacodynamic	9666
Coll@@	9662
flu@@	9660
Film	9659
m-@@	9658
Dig@@	9658
collected	9656
Effentora	9645
L.	9642
aci@@	9641
spring	9636
olence	9634
citrate	9633
errors	9632
suppression	9629
detection	9628
Cr@@	9626
clou@@	9625
Patient	9624
Their	9624
wash@@	9619
ature	9619
correctly	9619
2.7	9618
Leg@@	9616
850	9614
135	9613
messages	9611
Kr@@	9608
congenital	9607
yn@@	9606
in-use	9602
lyophilisate	9601
atis@@	9598
ko	9595
9,@@	9592
topotecan	9590
Plasma	9590
vital	9586
liber@@	9583
aims	9582
sens@@	9572
Trade	9572
neutrophil	9567
-treated	9566
subsequently	9564
България	9563
021	9563
ator@@	9559
regardless	9557
tol@@	9556
justi@@	9556
WE@@	9553
à@@	9552
ct	9550
harmonisation	9549
eva	9546
UL@@	9545
fav@@	9537
Old	9537
capable	9536
reserve	9534
Budapest	9534
verse	9533
ja@@	9531
dementia	9523
false	9519
0.0001	9519
discharge	9518
lit@@	9517
dar@@	9516
dangerous	9515
MARKETING	9515
57@@	9513
3000	9511
Calcium	9511
te-@@	9510
coma	9508
hives	9502
king@@	9501
statements	9499
spot@@	9497
Cha@@	9497
firmly	9496
tured	9495
itors	9494
rhabdomyolysis	9493
Prolonged	9492
Remeron	9490
discussions	9488
virtu@@	9481
assembly	9480
cere@@	9476
placebo-treated	9472
atic@@	9471
trend	9470
Norge	9463
rhythm	9460
Department	9460
lactating	9458
N-@@	9456
Or	9456
greatest	9452
complicated	9451
Fertavid	9449
talking	9449
combinations	9447
Ziagen	9446
049	9443
amm@@	9442
Absorption	9441
microcrystalline	9439
Garden	9439
antidepressants	9438
immunosuppressive	9434
express	9430
Fran@@	9429
2.8	9424
History	9423
Ü@@	9423
yr@@	9420
×	9419
Flo@@	9419
routine	9417
felt	9413
extreme	9413
belong	9413
ier	9412
bid	9410
5.5	9406
ensuring	9405
newly	9402
1992	9400
employed	9398
Rash	9397
withdraw	9397
ured	9397
lay	9391
EXUBERA	9387
undertaken	9384
structural	9384
Retacrit	9384
9.5	9380
observation	9379
Pharmacokinetic	9377
Ul@@	9373
swallow	9371
spontaneous	9370
ahead	9370
Justi@@	9369
settings	9369
warded	9365
knows	9364
aks	9359
stimulation	9357
uric	9357
adefovir	9354
pursu@@	9351
Suspension	9348
duloxetine	9348
requirement	9345
art@@	9342
Pac@@	9341
forming	9339
ind@@	9338
~	9338
gri@@	9338
tetanus	9336
gut	9334
FA@@	9330
essentially	9329
Adult	9329
variable	9327
ling@@	9327
1993	9322
pap@@	9322
week@@	9321
Vis@@	9320
nuclear	9319
increasingly	9318
ull	9317
El	9317
packages	9316
aza	9316
terfenadine	9315
ector	9311
routes	9307
User	9307
126	9306
Ceplene	9305
ify	9304
Mail	9300
Dan@@	9296
NovoRapid	9296
rock	9295
particulate	9294
thoroughly	9292
ears	9288
carcinogenic	9282
radioactivity	9279
laid	9278
7,@@	9277
Oper@@	9277
lists	9276
absolutely	9274
lei@@	9271
Control	9270
●	9268
R.	9265
NexGen	9264
Industrial	9260
108	9259
leg	9259
ADRs	9255
FlexPen	9254
HbA1c	9254
none	9254
publication	9249
™	9244
pass@@	9243
54@@	9241
lowing	9237
conc@@	9236
G3	9234
sex@@	9231
explained	9230
operational	9230
Silapo	9225
Live	9224
TAXOTERE	9223
grey	9221
hoc	9216
Helixate	9211
orders	9210
cement	9210
hair@@	9206
tried	9205
aripiprazole	9201
forgotten	9200
1990	9191
Dor@@	9190
heim	9190
falls	9190
175	9189
depth	9188
3.2	9186
proj@@	9186
Hold	9183
ech	9174
carcinogenicity	9173
BeneFIX	9173
Chi@@	9169
nicotinic	9166
carbon	9166
Update	9164
lic	9162
hypo@@	9161
decline	9157
wise	9156
rency	9156
Super@@	9154
Invirase	9153
359	9152
cup	9152
formulations	9151
handle	9151
division	9151
considerable	9149
Rol@@	9147
entacapone	9144
Advagraf	9143
Che@@	9139
gone	9139
Combination	9135
Eye	9130
je	9129
3.1	9129
carbamazepine	9129
97@@	9128
author@@	9126
1200	9119
Tem@@	9115
260	9110
oration	9109
spot	9105
exceptional	9099
Cases	9099
naïve	9097
InductOs	9097
naturally	9096
pale	9095
techno@@	9091
Bud@@	9090
fosamprenavir	9090
windows	9090
Tarceva	9089
Tasmar	9087
indicates	9086
appro@@	9085
Child-Pugh	9081
bit@@	9081
lift	9078
mas@@	9077
teen	9073
Respiratory	9072
bed@@	9072
sleepiness	9072
amino	9066
I-@@	9064
organised	9064
PG	9061
ranged	9060
IONSYS	9060
oric@@	9059
Lab@@	9059
SU@@	9058
lie	9056
421	9055
si	9055
isolates	9054
contacts	9054
lish@@	9052
NovoSeven	9049
blockers	9043
lay@@	9041
Those	9041
corticosteroid	9039
ALL	9038
Available	9037
raise	9036
agency	9034
123	9033
restricted	9031
scheme	9027
Suomi	9024
sibility	9023
dan@@	9021
sk	9015
stimulating	9014
somatropin	9014
holders	9012
Ob@@	9011
wound	9004
Acute	9002
Boehringer	8999
rDNA	8998
eze	8996
lev@@	8995
Possible	8993
î@@	8992
Pop@@	8991
smo@@	8989
addressed	8988
Prevention	8988
fax	8986
circulating	8983
Wal@@	8980
anticoagulants	8979
Nov@@	8976
opioid	8973
stops	8972
favourable	8971
nes	8969
Thomas	8968
suggested	8965
Light	8964
foli@@	8962
pure	8961
MB@@	8960
Part@@	8959
tadalafil	8958
Which	8956
331	8954
Joint	8954
stones	8951
Ga@@	8950
infliximab	8949
ij@@	8948
MAR@@	8940
sin	8940
agencies	8940
couple	8939
odation	8938
EP@@	8933
inhalation	8933
comprising	8930
tically	8927
20-@@	8926
shortly	8926
cru@@	8920
t.	8917
idiopathic	8916
sunlight	8916
Prior	8916
353	8910
accordingly	8899
sclerosis	8898
Bondenza	8897
UN	8897
oses	8896
narrow	8894
vor@@	8894
MabCampath	8892
abroad	8878
spective	8875
Rev@@	8875
Bad	8875
know@@	8862
vardenafil	8858
Lamictal	8857
rej@@	8856
pancreatitis	8856
Karvezide	8856
fraction	8856
Prague	8855
HI@@	8853
Undesirable	8851
launch	8848
CV	8845
CML	8843
Ritonavir	8841
fits	8840
Stalevo	8837
magnetic	8837
paraesthesia	8836
fibrosis	8836
conn@@	8835
enhance	8833
Purevax	8830
strengthen	8829
ification	8821
reviewed	8821
ication	8817
mixing	8813
confirm	8813
ride	8810
ulate	8807
happened	8805
0.75	8804
personnel	8803
Aclasta	8802
activation	8800
enth@@	8797
definition	8795
spaces	8794
Raptiva	8792
expenditure	8788
Myocet	8787
dexamethasone	8787
mir@@	8786
4.9	8785
reaching	8785
J.	8783
România	8781
initially	8780
meat	8778
safely	8775
gin	8772
Indi@@	8771
pull	8771
immunity	8770
suicide	8769
shaped	8767
confirmation	8767
eu.	8767
zer	8764
Diarrhoea	8762
Infections	8759
Af@@	8757
ulceration	8756
segment	8754
Background	8750
ires	8747
Cri@@	8744
220	8743
Nat@@	8743
bridge	8741
300@@	8738
4.7	8737
D.	8737
scores	8737
ensures	8736
practi@@	8736
pine	8732
cow	8730
ira	8729
interfere	8728
venous	8728
SUMMARY	8726
Nausea	8721
CNS	8720
batch	8718
unstable	8717
ien	8717
Amsterdam	8716
ements	8716
lat@@	8715
ore@@	8714
boxes	8713
alle@@	8712
tolerance	8712
dinner	8711
Nevertheless	8706
P-@@	8700
Japanese	8700
Rh@@	8697
psychiatric	8695
rating	8693
á	8692
Infanrix	8690
Details	8688
rif@@	8687
Des@@	8686
simultaneously	8685
variation	8682
stations	8681
и@@	8681
hid@@	8678
RU@@	8676
bic@@	8676
constantly	8676
atr@@	8675
stavudine	8673
mechanical	8671
dul@@	8669
split	8668
MSD	8668
mineral	8664
tan	8664
chamber	8658
killed	8655
eder@@	8655
alu@@	8655
yar@@	8653
catalogue	8650
HR	8647
231	8646
vid@@	8645
variability	8643
interact	8643
pumps	8643
ug	8642
Dizziness	8642
bel	8638
Equ@@	8630
Intravenous	8624
Alex@@	8623
HCT	8612
Maria	8612
Luxemburg	8605
involvement	8605
lining	8605
brings	8603
0.0	8601
ische	8601
transcriptase	8600
infant	8597
intensive	8596
Trizivir	8596
Green	8595
Norvir	8595
68@@	8595
library	8594
stein	8594
brown	8590
InnoLet	8587
ES@@	8586
neurological	8584
two-@@	8583
vo	8581
ade@@	8581
episode	8580
205	8579
superior	8579
ric	8578
sco@@	8576
quantity	8573
172	8569
recognised	8564
milli@@	8563
Environ@@	8563
dopamine	8559
pramipexole	8556
Joh@@	8556
udent	8555
notes	8555
24-hour	8554
generalised	8553
Local	8552
Cle@@	8549
6.3	8548
swollen	8547
Protopy	8547
rivastigmine	8546
sum	8545
Society	8543
single-dose	8541
ology	8541
log10	8539
nal@@	8539
53@@	8538
forecast	8535
95@@	8535
attle	8532
parenteral	8531
connect	8527
Tit@@	8525
ives	8524
impossible	8523
intestinal	8523
stry	8519
disposed	8519
convulsions	8515
ount	8509
fic@@	8498
disposable	8497
pressive	8495
invited	8494
diuretic	8492
originally	8491
,5	8485
shell	8484
Seretide	8483
commits	8480
Abseamed	8479
ock@@	8479
sub-@@	8479
dreams	8478
Inve@@	8478
magn@@	8478
161	8477
Pharmaceutical	8476
fü@@	8473
Reference	8472
mine	8472
parent	8472
manager	8471
sepsis	8469
darunavir	8469
charged	8468
smooth	8460
toward	8458
canc@@	8456
Second	8455
doubt	8454
Soci@@	8453
ducation	8453
residence	8452
where@@	8451
ried	8450
ough	8443
licen@@	8443
tig@@	8443
NeoRecormon	8441
typically	8439
kit	8439
tired	8437
201	8437
Elimination	8435
achieving	8435
157	8435
Small	8434
eggs	8433
Detailed	8430
facing	8429
flu-like	8427
elled	8427
Therapy	8426
ains	8424
Get	8424
Ban@@	8423
aseptic	8422
ora	8420
Bonviva	8420
debossed	8419
Rot@@	8418
bags	8418
1.25	8416
vie	8415
presentations	8411
320	8410
forced	8406
1.9	8406
febrile	8405
Conditions	8401
uro@@	8400
wishes	8399
strengths	8397
packed	8397
venlafaxine	8397
lithium	8396
Pic@@	8396
Bulgaria	8395
minimise	8394
contamination	8393
haemophilia	8393
sore	8390
pertussis	8389
lor@@	8388
immunoglobulin	8387
sort	8386
degrees	8384
pover@@	8383
adoption	8377
lip@@	8376
375	8374
CR	8368
3.4	8364
Ka@@	8359
coating	8357
Disorders	8356
inated	8356
anticancer	8356
Prin@@	8349
ME	8347
urea	8345
Laboratories	8343
scrip@@	8343
tered	8342
consisting	8342
main@@	8340
para@@	8340
Support	8338
PACK	8337
arthralgia	8336
Twinrix	8335
hou@@	8334
mes	8334
Low	8333
ound	8332
hydrochloric	8331
fashion	8330
Bol@@	8330
151	8330
reserved	8326
diluent	8325
ille	8323
CYP	8320
time@@	8319
input	8319
CT@@	8318
sought	8317
Karvea	8315
binds	8311
compounds	8310
workshop	8309
Mutual	8301
WHO	8301
168	8299
INFORMATION	8296
launched	8295
eno@@	8295
thigh	8292
iry	8290
red@@	8289
Abbott	8287
Indinavir	8283
ild@@	8282
sep@@	8282
Elec@@	8281
SYRINGE	8279
DA@@	8278
relapse	8278
Access	8276
Helicobacter	8276
ock	8275
holds	8274
export	8271
entirely	8271
turning	8268
Slovenija	8266
bowel	8266
break@@	8265
sorbitol	8264
†	8263
Annual	8262
aud@@	8259
cirrhosis	8256
separately	8255
Through	8254
Slovenia	8254
band@@	8254
Ram@@	8254
tipranavir	8248
thir@@	8246
assist	8242
3.6	8242
107	8241
Age	8239
heav@@	8237
-based	8236
parallel	8234
facility	8230
ABILIFY	8230
Site	8226
Κύπρος	8226
exclusively	8225
rence	8225
Moder@@	8224
dream	8223
AV@@	8222
142	8221
NA@@	8219
battery	8219
onally	8217
Tamiflu	8214
Vic@@	8214
acetylsalicylic	8213
infusions	8206
postmenopausal	8205
Card	8204
500@@	8200
severely	8200
fitted	8195
logic	8194
OptiSet	8194
butyl	8191
claimed	8191
func@@	8189
eder	8188
84@@	8188
152	8187
facilitate	8186
pooled	8183
Ke@@	8183
wable	8182
HD	8181
ET@@	8179
116	8178
Cer@@	8175
Luc@@	8174
CH	8174
trained	8172
2007-@@	8169
š@@	8168
collect	8167
Trans@@	8167
targets	8167
expres@@	8166
insert	8166
anger	8164
cht	8161
linear	8157
prevents	8156
sug@@	8154
ICH	8153
latter	8153
SM@@	8151
n-@@	8151
Puh	8146
etary	8145
Approximately	8143
glimepiride	8139
alkaline	8136
hib@@	8134
Omnitrope	8133
exception	8131
indi@@	8131
183	8131
Cardiac	8130
Soliris	8129
concurrently	8128
tam@@	8128
alised	8121
begins	8118
extensively	8118
18-@@	8118
benign	8116
necrosis	8114
precise	8113
ed-@@	8113
environ@@	8112
München	8110
Set	8110
co-infected	8107
Comp	8105
awa@@	8104
Disease	8104
Obj@@	8103
locally	8100
cat	8100
Consequently	8098
Magnesium	8097
Zalasta	8097
Should	8095
Bottle	8094
met@@	8093
lig@@	8093
Lat@@	8092
blind	8087
uncontrolled	8086
CA	8081
Administr@@	8079
ived	8078
recurrent	8076
TORISEL	8075
occ@@	8075
Transfer	8072
providers	8071
EMEND	8069
module	8069
β	8067
enz@@	8066
Latvia	8066
opposite	8065
219	8062
dules	8062
stric@@	8059
ge-@@	8058
closer	8056
Emtriva	8055
rea	8054
N.	8052
chickens	8051
falling	8050
ied	8049
jac@@	8047
awareness	8045
malaise	8042
NutropinAq	8041
nit@@	8039
thin	8039
all-@@	8037
oli@@	8037
tech@@	8036
occasion	8035
pre-	8034
Dim@@	8034
Sciences	8034
â	8033
ista	8033
Str	8033
SUSTIVA	8032
ori	8031
satisfaction	8030
electrical	8030
Cyprus	8029
stly	8027
Efavirenz	8026
pes	8022
corrected	8022
occasionally	8021
Brit@@	8020
sufficiently	8018
4th	8017
analogue	8017
spinal	8014
obligations	8014
ility	8013
20.@@	8011
chair@@	8008
ack	8007
Orig@@	8006
oblig@@	8006
trimester	8005
raw	8003
subj@@	8000
118	7997
Post@@	7995
98@@	7994
scan	7993
Lan@@	7990
INTELENCE	7990
Mel@@	7989
Star	7985
granules	7980
Posology	7980
prostate	7980
composition	7979
convenient	7976
Bondronat	7976
00-@@	7974
spots	7970
icate	7967
Mas@@	7966
crucial	7962
fridge	7959
5000	7956
Canary	7956
genetic	7955
354	7952
engraved	7950
dizzy	7950
imaging	7947
switched	7946
genotoxicity	7945
Efexor	7945
cis@@	7944
Dublin	7941
Ελλάδα	7941
erm@@	7938
lived	7934
cool	7933
Blue	7931
maintaining	7930
sheet	7926
drip	7925
drinks	7924
Januvia	7922
Ham@@	7920
Pelzont	7917
import	7916
Def@@	7914
harmonised	7914
Protopic	7912
CoAprovel	7911
	7911
Solvent	7911
injecting	7910
Zonegran	7910
impression	7908
Hen@@	7906
Lam@@	7906
134	7905
nearest	7901
union	7901
texts	7900
aliskiren	7899
Dogs	7894
Tim@@	7893
explore	7892
pping	7891
mention	7891
elev@@	7890
Dry	7888
rests	7887
emic	7887
measles	7883
ting@@	7882
containers	7882
143	7881
dehydration	7877
ae	7876
valuable	7876
inspection	7873
faces	7873
0.05	7873
Inst@@	7872
elec@@	7868
plays	7865
eating	7864
pressed	7863
supplies	7861
vessel	7857
helpful	7855
hof	7855
ries	7855
Av@@	7854
mark@@	7853
Iron	7853
ric@@	7851
la-@@	7851
aqu@@	7850
STOCRIN	7848
ho	7847
inducers	7841
bo	7841
utili@@	7840
don@@	7835
PL@@	7832
Ve@@	7830
anaesthesia	7829
accounts	7828
tres	7828
aspect	7825
itting	7824
skeletal	7823
Step	7822
desloratadine	7822
ED	7821
hereditary	7819
phenylalanine	7816
variations	7816
worth@@	7814
Hu@@	7814
spray	7814
Release	7813
clar@@	7812
ado	7810
stiffness	7808
auto@@	7806
England	7806
cel@@	7803
beg@@	7803
ios	7799
ply	7799
symptom	7797
Official	7795
stand@@	7794
transferred	7794
Symptoms	7794
heads	7791
Neu@@	7789
priorities	7789
cel	7789
congestive	7787
reasonable	7784
documented	7784
domain	7784
accurate	7783
OPA	7783
nec@@	7782
GI@@	7778
kun@@	7776
Na@@	7774
tina	7773
amendment	7772
Monitoring	7770
Despite	7768
discolouration	7767
arium	7765
volu@@	7761
wash	7758
Johnson	7756
organisms	7755
SCIENTIFIC	7751
CYP1A2	7751
institution	7751
con	7747
concurrent	7745
transl@@	7743
anded	7742
stools	7742
-C@@	7742
acids	7741
Double	7741
sses	7739
yes	7737
herpes	7734
indigestion	7732
Cholestagel	7731
ark	7730
path@@	7729
hour@@	7722
loratadine	7719
Binocrit	7718
panel	7715
harb@@	7715
uted	7713
SS@@	7712
â@@	7711
discri@@	7709
Sandoz	7709
171	7707
nutrition	7706
guid@@	7698
Thalidomide	7695
erce	7688
rand@@	7681
Tar@@	7679
stimulate	7678
119	7677
visually	7677
pick	7676
suddenly	7671
114	7671
wild	7669
syrup	7668
Inject	7668
OP@@	7667
chair	7667
Talk	7666
ORENCIA	7665
didanosine	7664
63@@	7661
Mary	7660
dang@@	7660
housing	7660
centrally	7659
hydro@@	7657
membranes	7654
deep@@	7653
174	7649
Net@@	7648
hat@@	7648
max@@	7647
Mul@@	7644
depressive	7643
bing	7641
tric@@	7640
elected	7638
Lactose	7636
focused	7636
BMD	7636
promotion	7636
promo@@	7636
sus@@	7634
permitted	7630
nevirapine	7630
Cla@@	7628
switching	7628
affinity	7627
connective	7624
scri@@	7623
Magyarország	7621
373	7617
Kivexa	7616
Drug	7616
yment	7615
spoon	7611
amen@@	7606
phosphatase	7605
horse	7604
arc@@	7603
extend	7602
PI@@	7602
Nature	7601
short-term	7597
trading	7594
ô@@	7593
frag@@	7590
Current	7588
133	7586
Sco@@	7584
tolerability	7582
ration	7581
helping	7575
BASAL	7575
Slovenská	7572
Sanofi	7564
flatulence	7559
pylori	7555
024	7554
at-@@	7554
psycho@@	7554
logo	7553
drawing	7551
beli@@	7550
regime	7548
dental	7547
vertebral	7543
stra@@	7532
fr	7531
ARICLAIM	7530
afternoon	7529
ici@@	7526
decreasing	7524
Â	7522
capecitabine	7522
logis@@	7520
tubular	7520
quarters	7519
dosed	7518
Dynepo	7514
composed	7514
Truvada	7513
046	7510
Follow	7509
iring	7508
accession	7506
facial	7506
Pur@@	7504
MIRAPEXIN	7504
considers	7503
deterioration	7499
-2	7497
Star@@	7494
congestion	7491
destruction	7483
virological	7481
Tredaptive	7480
INCRELEX	7476
2.9	7474
definitely	7474
sz@@	7472
→	7471
206	7471
hardware	7469
DepoCyte	7468
Ret@@	7465
discipl@@	7465
Changes	7464
cir@@	7463
sty@@	7463
balanced	7462
measurements	7461
suppli@@	7460
SQ@@	7459
Exp@@	7458
ford	7458
add-on	7455
preparing	7454
visiting	7453
sounds	7452
profiles	7451
illi@@	7450
CHAMPIX	7448
parti@@	7445
fell	7440
sor	7440
anni@@	7440
designated	7438
eastern	7436
tiveness	7434
Placebo	7430
spon@@	7428
microwave	7428
Opinion	7419
Psycho@@	7419
Ranexa	7418
influenced	7418
finish	7414
corresponds	7414
hypromellose	7411
erythromycin	7410
laser	7409
expansion	7409
pit@@	7405
ender	7400
Insulatard	7400
trouble	7399
PRE@@	7398
Econ@@	7398
genic	7397
Upper	7397
recogn@@	7397
RoActemra	7391
Royal	7391
untreated	7391
mur@@	7390
Thymanax	7390
irritability	7390
manufactured	7383
ells	7382
some@@	7382
check-@@	7380
Carton	7379
knew	7376
las@@	7374
arth@@	7374
toilet	7372
aro@@	7371
inz@@	7371
manufacture	7369
Vomiting	7367
interrupted	7366
Program	7365
Chairman	7364
mobility	7362
Dar@@	7360
Action	7360
1-2	7359
Laboratory	7359
barrier	7359
thr@@	7358
schizophrenia	7356
Mol@@	7356
TS	7355
phy	7354
presenting	7349
identical	7348
027	7347
long@@	7344
170	7344
Depending	7343
LU@@	7342
144	7341
pointing	7341
Revlimid	7340
Musculoskeletal	7338
determination	7338
totally	7336
refers	7330
assigned	7329
bin	7328
colitis	7325
anaphylaxis	7322
ri	7321
helped	7319
symbol	7316
13,@@	7316
Diacomit	7315
pregnancies	7314
Diovan	7314
Trevaclyn	7314
charges	7313
widely	7312
ente	7311
ecting	7311
emo@@	7309
evident	7308
med@@	7307
temporarily	7307
Land@@	7302
izes	7302
passes	7301
Xeomin	7301
atives	7298
inj@@	7297
Thelin	7296
121	7295
ele	7293
Mis@@	7293
ono@@	7292
anta@@	7292
derivatives	7291
DA	7288
O.	7284
113	7284
229	7283
understood	7282
Paxene	7280
Network	7280
Procedure	7275
perforated	7274
Viani	7272
residue	7270
inclusion	7269
Az@@	7267
mycophenolate	7267
namely	7266
compact	7266
Dynastat	7264
clothing	7263
lP	7262
frequencies	7261
declar@@	7259
classified	7256
marketed	7256
Dist@@	7252
031	7250
exec@@	7248
restlessness	7246
aker	7244
purified	7242
Unknown	7241
as-@@	7240
comple@@	7239
pathway	7238
Hy@@	7237
1991	7237
continuously	7236
leaving	7235
varied	7233
PI	7232
1989	7227
199@@	7227
publications	7226
Whether	7223
SUTENT	7222
Copalia	7220
interpretation	7218
thromboembolic	7214
Fuzeon	7213
Ang@@	7211
immunogenicity	7210
Pramipexole	7206
undergo	7206
bol@@	7204
Aprovel	7204
removing	7203
Scientific	7199
letters	7198
Turn	7197
glaucoma	7192
tum@@	7190
Busilvex	7190
Slovakia	7189
CONSTA	7188
Registration	7188
disodium	7187
Cartons	7187
Ten@@	7186
colleagues	7186
Bet@@	7185
conduc@@	7185
Wa@@	7184
erci@@	7183
Method	7183
temperatures	7179
HBeAg	7174
Rating	7173
carrying	7173
vel@@	7172
Enviage	7170
Close	7166
CIALIS	7164
Hum@@	7161
023	7160
encourage	7160
inspections	7159
imatinib	7155
Select	7153
ables	7153
Cast@@	7152
cent	7152
inity	7151
portion	7151
270	7150
inger	7148
Fel@@	7146
½	7144
serotonin	7144
accident	7141
posi@@	7140
Immune	7138
releases	7138
Protaphane	7137
196	7135
believ@@	7132
Valtropin	7132
payments	7131
Kineret	7129
motiv@@	7127
Mc@@	7123
eg	7123
-like	7122
reflected	7122
Swedish	7121
calcitonin	7118
toxicities	7110
Anti-@@	7108
centres	7106
She@@	7105
putting	7104
Tritace	7104
triple	7101
5.6	7101
myopathy	7099
10,@@	7098
premature	7096
Lag@@	7096
LAN@@	7096
ni	7094
semb@@	7090
encia	7089
sized	7089
turns	7087
beneficial	7087
reductase	7085
stenosis	7084
0.01	7084
lod@@	7083
cervical	7082
ouring	7082
8.5	7080
thrombotic	7079
posaconazole	7077
applying	7076
declared	7074
zinc	7073
SOMAVERT	7071
supplier	7071
Ebixa	7069
familiar	7067
Pasteur	7066
define	7066
laun@@	7061
Neulasta	7059
stadt	7059
ramipril	7058
dium	7056
Tasigna	7055
ischaemic	7053
curve	7053
essor	7053
radiotherapy	7052
peti@@	7052
prin@@	7050
Serum	7048
bradycardia	7048
н@@	7048
comparative	7045
PritorPlus	7045
relaxation	7044
Lda	7044
ms@@	7043
Month	7043
resolve	7042
pers@@	7031
etr@@	7031
Ku@@	7031
NRTIs	7029
or-@@	7029
HT@@	7027
ever@@	7027
218	7026
190	7026
86@@	7025
94@@	7024
gate	7024
weet	7022
IB@@	7020
cessation	7019
authorisations	7018
myeloma	7015
Ísland	7014
ā@@	7013
lag	7012
vir@@	7012
fainting	7010
pravastatin	7007
Levemir	7006
Zavesca	7006
Protection	7005
transition	7004
interruption	7001
electro@@	7000
Zerit	7000
1x@@	7000
arrhythmias	6997
EVRA	6995
ached	6994
tionally	6993
everyday	6989
Piroxicam	6988
Aug@@	6988
5.4	6988
-B@@	6986
stic	6986
girls	6984
stro@@	6982
strategies	6977
usage	6977
Avoid	6976
guided	6976
hallucinations	6972
Que@@	6970
mo	6968
tery	6968
plenty	6968
Professor	6967
PhotoBarr	6967
hyperplasia	6966
High@@	6966
telithromycin	6965
195	6963
sten@@	6963
MRLs	6962
solve	6962
cutaneous	6954
VIRACEPT	6954
additive	6953
equally	6951
depressed	6949
largely	6948
025	6947
ership	6943
ANC	6942
ission	6940
dig@@	6940
restrictions	6939
occasions	6939
co-	6938
lymphocytes	6937
bearing	6937
introduce	6937
-22	6937
Points	6937
Daily	6934
atures	6934
testosterone	6933
substantially	6932
timolol	6932
imprinted	6931
Pap@@	6931
TESAVEL	6928
survey	6928
answered	6925
extra@@	6924
Interaction	6920
acted	6919
transaminases	6916
seizure	6916
inations	6916
BOEHRINGER	6913
urg@@	6912
DULOXETINE	6911
INGELHEIM	6911
dipivoxil	6909
COX-2	6906
resid@@	6904
Actrapid	6904
mannitol	6902
IP@@	6901
granting	6901
precipitation	6899
TRISENOX	6897
Gardasil	6896
feline	6894
adalimumab	6892
Abdominal	6892
214	6891
obvious	6888
protamine	6888
urgent	6886
ida	6886
Telephone	6883
rig@@	6882
3.9	6882
visit@@	6879
lying	6878
Choose	6878
vaginal	6877
bab@@	6872
accounting	6872
Tu@@	6872
doub@@	6871
Muscle	6871
Ara@@	6866
Journal	6865
BC	6865
ems	6863
expl@@	6861
plain	6861
believed	6859
Eucreas	6858
film@@	6858
INVEGA	6856
umn	6856
Ask	6855
ranges	6855
Suboxone	6855
Č	6851
Filmtabletten	6850
Sprimeo	6848
maximal	6848
blu@@	6845
advi@@	6844
ints	6842
actively	6842
Darbepoetin	6839
PSURs	6838
A.@@	6834
recognized	6834
028	6833
Haemophilus	6833
Wyeth	6830
155	6829
Square	6828
roll	6827
dealing	6826
Doxazosin	6823
candidiasis	6822
suggests	6820
glo@@	6820
ading	6819
intense	6818
е@@	6817
Glustin	6817
Valdoxan	6816
ly-@@	6814
incontinence	6814
responding	6813
CR@@	6813
strength@@	6812
tho	6812
Axura	6811
parahydroxybenzoate	6805
bat@@	6804
mutagenic	6803
workshops	6802
lin	6801
meant	6800
MRI	6797
grav@@	6797
throw	6797
noise	6795
lymphatic	6793
Efient	6789
person@@	6787
hill	6786
ECG	6784
Lucentis	6782
inactive	6781
Allergic	6779
zur	6778
preferred	6778
match	6777
arrangements	6776
chan@@	6776
6.0	6770
breastfeeding	6769
MicardisPlus	6767
lym@@	6763
domin@@	6763
ssen	6763
etravirine	6762
96@@	6760
PT	6760
Feeling	6760
surfaces	6758
contributions	6758
promoting	6758
Castle	6754
Vial	6752
Fir@@	6751
Xigris	6749
cure	6748
unk	6744
clot	6741
sion-@@	6740
cross@@	6740
quet	6739
uz@@	6738
arise	6736
dihydrogen	6735
contracts	6733
babies	6732
cramps	6728
Ms	6725
whatever	6721
neu@@	6720
Thyrogen	6718
FeLV	6715
HE@@	6715
gy@@	6713
Radi@@	6713
desc@@	6712
Riprazo	6711
Professional	6709
immuno@@	6707
029	6706
implementing	6704
local@@	6703
ington	6700
involves	6700
üssel@@	6699
thalidomide	6697
rose	6695
FORSTEO	6694
sche@@	6691
³	6691
revision	6688
M-@@	6688
Ori@@	6687
BV	6685
Grap@@	6684
pipettes	6683
differ	6681
astic	6680
82@@	6680
affairs	6677
radiolabelled	6668
Ou@@	6667
PRODUCTS	6666
destroyed	6665
1500	6665
122	6664
Oy	6662
warm@@	6661
aded	6660
ø@@	6659
147	6657
Abraxane	6656
resource	6655
Plus	6653
Mylan	6653
BA	6649
Mg	6648
EXJADE	6646
Orodispersible	6646
regarded	6644
rashes	6640
phe@@	6639
submission	6639
li	6636
nitric	6636
Dub@@	6634
who@@	6628
End	6627
Dafiro	6627
ig	6626
MU	6626
legislative	6624
crim@@	6623
ve-@@	6621
spectrum	6619
clean@@	6618
certi@@	6613
inserted	6610
propionate	6609
Assessment	6608
Celgene	6608
Hand@@	6607
ails	6604
converting	6603
statistical	6599
bipolar	6599
Europe@@	6598
Iceland	6594
ould	6593
Tw@@	6590
Galvus	6589
bromobutyl	6589
filling	6588
budgetary	6587
ú@@	6584
ß	6580
radioactive	6579
mutation	6578
mic@@	6577
wheezing	6576
partly	6575
alth	6574
Lim@@	6571
203	6571
sessions	6569
129	6568
van@@	6568
AF@@	6568
Four	6565
agonist	6562
gastro-resistant	6559
finger	6559
Bun@@	6558
principal	6557
Pradaxa	6557
directions	6557
revised	6556
Vectibix	6555
nifedipine	6555
implant	6554
institutional	6552
5.7	6551
Recognition	6551
Frequency	6550
Regional	6550
keys	6550
appe@@	6548
teams	6548
West@@	6546
6.4	6542
copper	6542
adapted	6540
Silgard	6539
proved	6538
Fol@@	6535
ula	6535
bibli@@	6534
TION	6531
examine	6531
Velmetia	6529
DC	6527
doxazosin	6524
Line	6524
ch-@@	6522
endometrial	6519
itec@@	6519
shorter	6519
reno@@	6517
tn	6514
conce@@	6514
aint	6510
ls@@	6507
prove	6504
amongst	6503
manag@@	6503
deaths	6502
eling	6502
tension	6498
tec@@	6498
insulins	6497
statin	6497
nervousness	6496
Ros@@	6496
PR@@	6496
isn	6494
D3	6494
Risperdal	6492
Yellow	6491
dal	6490
Organ	6489
prot@@	6489
Division	6489
mitted	6487
lenalidomide	6486
thumb	6485
non-	6485
sym@@	6484
rifabutin	6482
considerably	6481
soil	6480
lighting	6478
ADROVANCE	6473
eská	6472
gemfibrozil	6472
2-3	6471
Janumet	6469
25-@@	6468
ation-@@	6466
alli@@	6465
gentle	6464
sedation	6464
greatly	6464
refractory	6463
PH@@	6463
ness@@	6463
three-@@	6462
Sing@@	6462
279	6462
212	6457
iro	6457
separated	6455
VI	6455
3A4	6452
schaft	6450
ago@@	6447
pyrexia	6445
indoor	6445
1600	6443
ovulation	6442
221	6440
lob@@	6440
sachets	6439
moderately	6437
remission	6436
Efficib	6434
intend	6434
xi@@	6432
Corporation	6432
propylene	6431
guideline	6431
lumiracoxib	6430
BOTTLE	6429
zation	6429
Analysis	6427
exacerbation	6426
Consul@@	6423
GE	6422
teeth	6420
infused	6420
Icandra	6420
ston	6420
glycaemic	6417
CS@@	6416
periodically	6416
026	6416
MT@@	6415
estimate	6415
obstruction	6412
lethargy	6412
classical	6412
Combivir	6410
involve	6407
Oprymea	6407
dial	6405
ommun@@	6400
30.@@	6399
Imprida	6397
multiforme	6397
RotaTeq	6397
QTc	6397
Les	6397
CRIXIVAN	6395
kal@@	6395
aden@@	6393
diverse	6393
speci@@	6393
GO@@	6393
Preotact	6392
Zomarist	6392
b.@@	6391
lum@@	6389
VELCADE	6388
Big	6388
ED@@	6388
hypoglycaemic	6386
represent@@	6386
Authority	6385
Ventavis	6384
flip-off	6383
engine@@	6383
Invega	6383
Polysorbate	6380
justified	6380
Hypromellose	6380
immunodeficiency	6377
bin@@	6375
satisfied	6374
publishing	6368
specialised	6366
dian	6365
alopecia	6365
162	6364
Pra@@	6363
oestrogen	6362
Staphylococcus	6362
deve@@	6362
kinase	6362
nail	6360
bet@@	6359
detect	6356
gained	6355
colloidal	6353
tubes	6353
rubella	6353
Institut	6350
associations	6349
Pull	6349
Sonata	6348
influ@@	6348
afterwards	6348
R-@@	6345
postnatal	6344
Full	6343
0.03	6343
3.8	6343
follitropin	6342
Mimpara	6341
distrib@@	6340
BM@@	6336
inch	6335
XX@@	6334
expectations	6331
entecavir	6331
Den@@	6331
olab@@	6329
deleted	6328
retinal	6328
Way	6328
vity	6327
native	6324
relieve	6323
inten@@	6320
advisable	6319
258	6318
neuro@@	6318
tile	6318
ens@@	6317
ror	6311
exceeding	6311
shake	6311
137	6311
CSF	6308
Influenza	6307
nings	6307
bacterium	6305
ón	6305
Crohn	6301
hormones	6299
Nic@@	6298
Epivir	6293
las	6293
stores	6293
sures	6290
124	6287
screw	6287
tendency	6286
Currently	6285
grown	6285
Maintenance	6285
valu@@	6284
iel@@	6284
cing	6282
tightness	6281
Key	6279
Building	6277
O-@@	6277
learned	6276
trends	6275
travelling	6275
generate	6274
graphs	6274
uting	6273
Pres@@	6273
cleared	6272
avenue	6272
som@@	6271
dosages	6268
logie	6267
stem	6267
burden	6266
039	6266
abr@@	6263
emotional	6259
comply	6254
uries	6252
Activities	6250
alli	6250
Preclinical	6248
а@@	6247
fluconazole	6247
FABLYN	6246
adrenal	6245
cycl@@	6244
shar@@	6243
unwell	6241
consulting	6241
well-known	6237
Lithuania	6237
Vascular	6236
vertigo	6235
designs	6232
mus@@	6231
strip	6228
guar@@	6227
Sym@@	6224
ar-@@	6223
Produ@@	6221
appropriately	6221
threatening	6221
massage	6220
Organ@@	6220
communications	6220
modify	6219
208	6218
um-@@	6218
gram	6218
Athens	6217
Similar	6214
candidate	6213
rot@@	6212
disappear	6211
Over@@	6209
frozen	6209
foc@@	6209
poses	6209
compromise	6209
QD	6207
lit	6207
lipid	6207
follicular	6202
Recor@@	6202
erectile	6202
aling	6201
recurrence	6199
rin@@	6198
CYP2C19	6198
hydrogen	6194
ipment	6193
Primary	6193
defect	6191
X-@@	6191
erial	6190
Inovelon	6186
illustr@@	6186
Alzheimer	6186
clofarabine	6183
toxin	6182
EWP	6181
meaningful	6179
infestations	6179
Infusion	6179
Fle@@	6177
Reduction	6176
CO2	6175
fifth	6174
Renagel	6174
silica	6171
defence	6171
breaking	6170
vari@@	6170
spar@@	6169
4000	6169
stood	6168
reaches	6168
suffered	6161
ime@@	6161
fif@@	6161
opportunistic	6160
Hyper@@	6160
grams	6160
CON@@	6158
INFAI	6158
unexpected	6157
tations	6156
statins	6155
asses	6155
Industry	6153
epidermal	6150
Factor	6148
operated	6147
asymptomatic	6147
discard	6146
089	6146
ET	6145
entering	6143
hCG	6141
grant	6138
Training	6138
wil@@	6137
mono@@	6136
recipients	6135
IA	6135
graft	6134
Parareg	6132
234	6132
ember	6129
convention	6129
S.A.	6124
pemetrexed	6122
v.	6122
CM@@	6121
fund	6120
revenue	6118
Clear	6114
compatibility	6112
Ö@@	6111
representing	6110
dating	6109
describ@@	6107
specif@@	6106
24-@@	6105
coat	6103
flat@@	6102
arising	6101
Rem@@	6099
Chronic	6098
cultures	6098
macrogol	6097
Schwe@@	6097
HA@@	6095
fail	6092
Neupopeg	6092
wee@@	6091
SIFROL	6091
with@@	6090
Buil@@	6089
intestine	6086
vul@@	6086
LDL	6082
valproate	6080
gh	6079
Ty@@	6076
Nexavar	6074
papers	6072
ingestion	6067
alendronate	6067
276	6064
ered	6064
pectoris	6063
Reg@@	6063
itchy	6060
lesion	6059
disk	6057
alanine	6055
abo@@	6055
377	6055
graphics	6055
ret	6053
titrated	6053
ska	6051
Together	6051
188	6049
supervised	6049
records	6047
addresses	6046
handled	6045
wave	6045
acquisition	6045
returns	6045
pin@@	6044
Ketek	6043
7.2	6042
neur@@	6040
filtration	6039
Between	6039
branch	6037
ZYPADHERA	6037
intention	6036
electron@@	6035
150@@	6034
cerivastatin	6032
319	6032
transactions	6032
Nycomed	6031
EU-@@	6031
ò@@	6031
Mycophenolate	6030
Photo@@	6029
sole	6028
cartons	6028
processed	6027
Viread	6027
eness	6027
Nobilis	6024
ought	6024
S.@@	6022
offspring	6021
mach@@	6020
Urinary	6018
establishing	6015
buprenorphine	6014
volumes	6011
VA	6008
emphasis	6008
genital	6007
Mic@@	6007
six@@	6007
PR	6005
appointment	6002
tips	6002
3-4	5998
darbepoetin	5997
Zi@@	5996
justify	5995
PCI	5995
oni@@	5995
BE	5995
Lantus	5994
eta	5994
Dur@@	5994
ideation	5993
malformations	5990
competence	5989
SINGULAIR	5989
vast	5989
romiplostim	5989
aspart	5987
Ambirix	5987
moisture	5982
ZOSTAVAX	5981
convinc@@	5981
tab	5979
Abnormal	5979
inspected	5978
periodic	5978
lex	5972
full-@@	5972
acne	5972
Saf@@	5971
carbidopa	5971
feedback	5971
nursing	5970
incre@@	5969
Large	5968
Given	5967
membership	5966
E.@@	5965
ller	5964
emulsion	5962
3.7	5961
Blu@@	5960
system@@	5959
innov@@	5957
Figure	5956
driven	5956
Interactions	5956
cancers	5956
iner	5955
liter@@	5955
356	5953
endor@@	5953
415	5952
depletion	5951
answers	5951
nd	5950
distinc@@	5949
č@@	5948
uniformly	5947
dispersible	5947
viously	5946
orlistat	5945
colle@@	5945
Visual	5944
managing	5941
attenuated	5939
parecoxib	5938
Replagal	5937
ë@@	5936
loose	5934
lisinopril	5934
syncope	5933
erc@@	5933
CP	5931
patterns	5931
controlling	5930
posology	5930
characterized	5929
mumps	5929
artificial	5929
breakdown	5929
Flu@@	5928
m.@@	5927
SoloStar	5926
0.00	5925
Tabletten	5922
outcomes	5921
ounding	5920
aspirin	5915
basi@@	5915
reliability	5910
breeding	5907
combine	5907
fighting	5906
Aldurazyme	5905
ect@@	5905
Hung@@	5904
b.	5902
up-@@	5901
Upon	5899
infectious	5899
64@@	5897
Streptococcus	5897
dasatinib	5894
ired	5893
Som@@	5892
nn@@	5892
mist@@	5891
pathways	5891
Porto	5890
preservative	5889
dissolve	5888
meter	5887
LA	5885
esc@@	5885
cles	5883
palpitations	5882
RS	5882
characteristic	5879
accuracy	5876
half-@@	5876
Federation	5875
Level	5875
ii	5874
HBVAXPRO	5874
exceeded	5870
genotoxic	5869
aked	5869
mination	5868
anticoagulant	5868
Doses	5867
Interferon	5866
SPRYCEL	5865
dia@@	5863
Volume	5857
proportional	5857
endogenous	5856
eczema	5855
PAR@@	5854
GU@@	5853
Baxter	5853
fed	5852
DO	5850
Conver@@	5848
officials	5847
plat@@	5846
Portug@@	5846
icking	5841
G-@@	5841
suggesting	5840
£	5840
eyelid	5839
beer	5839
bioequivalence	5839
ance@@	5838
Lactation	5838
upright	5837
ik	5837
committees	5837
physi@@	5837
muscular	5836
double-@@	5835
react	5834
43@@	5833
Dal@@	5833
ACR	5831
VTE	5831
enh@@	5829
ville	5828
Pro	5828
thum@@	5828
proteinuria	5828
1988	5827
permanently	5824
repa@@	5823
household	5823
bli@@	5823
nitrogen	5823
quinidine	5821
Posaconazole	5820
sh-@@	5819
PA@@	5816
207	5815
attempts	5813
explains	5812
til	5810
ruled	5808
inhaler	5808
signals	5808
Estate	5807
highligh@@	5807
abuse	5807
Point	5807
tioning	5806
10th	5806
stomatitis	5806
antimicrobial	5806
Ev@@	5805
behavi@@	5805
IgG	5805
us-@@	5803
CYMBALTA	5803
expenses	5801
laying	5801
Poly@@	5799
FO@@	5799
TA	5797
kilogram	5796
Stockholm	5796
subgroup	5794
066	5792
Sebivo	5792
refl@@	5792
gran@@	5791
cotton	5791
Xyrem	5791
Zerene	5790
tend	5788
comfor@@	5788
patient-years	5788
stainless	5786
INOmax	5784
brief	5783
Without	5781
Growth	5779
shaking	5777
oph@@	5776
RT	5775
onds	5774
anu@@	5774
pandemic	5773
cord	5773
Mir@@	5770
reflux	5770
ProQuad	5769
Biograstim	5769
aqueous	5767
is-@@	5765
DU@@	5764
TYSABRI	5764
aming	5763
Erbitux	5761
Fort	5759
Specific	5759
flavour	5759
117	5758
CP@@	5757
modified-release	5756
straße	5754
301	5754
INR	5754
COM@@	5752
V-@@	5752
thereof	5750
6000	5750
DF	5746
juvenile	5744
negligible	5744
LED	5744
Effect	5743
modul@@	5743
412	5742
Tadalafil	5742
hypokalaemia	5741
mig@@	5738
thickness	5737
Ide@@	5735
Instead	5735
Tekturna	5734
TID	5732
survi@@	5730
Quixidar	5728
Signs	5727
str	5726
ause	5726
Dres@@	5726
Route	5725
CN@@	5724
persist	5723
HepB	5720
intracranial	5720
instruction	5719
pathy	5719
attributed	5716
evol@@	5714
inability	5714
rimonabant	5714
erection	5713
eff@@	5711
Kuvan	5710
nat@@	5709
Direct	5705
adjuvant	5705
total@@	5705
chemistry	5704
21@@	5703
Contains	5702
ep	5701
CONDITIONS	5700
Ib@@	5700
cellular	5696
graph	5695
tends	5694
Cedex	5692
orm	5690
ketoacidosis	5689
202	5689
optic	5689
136	5688
glands	5687
Micardis	5686
Bruxelles	5686
Saint-@@	5685
seroconversion	5683
0.15	5683
Long-term	5683
8.8	5682
pronounced	5682
ASA	5680
limbs	5679
iser	5679
responsibilities	5676
ext	5676
lak@@	5675
Techno@@	5675
oney	5674
gest@@	5673
mucous	5672
neutralising	5672
086	5671
logies	5670
Actos	5668
consol@@	5667
Rotarix	5667
utation	5667
DS	5667
Panretin	5666
Infusat	5664
furoate	5663
displays	5662
Kinzalkomb	5662
medic@@	5659
reven@@	5659
unc@@	5653
heartburn	5653
Test@@	5653
doxycycline	5652
kill	5648
Dri@@	5648
phenobarbital	5645
EF@@	5643
destroy	5642
Cubicin	5641
indirect	5641
reich	5640
MM	5639
antipsychotic	5639
elli@@	5639
upwards	5636
192	5635
Aqu@@	5635
650	5634
PROCOMVAX	5634
NAMES	5634
Starlix	5632
alert	5632
dust	5632
Diskus	5631
lip	5629
Prevenar	5627
Adv@@	5627
FR	5625
aster@@	5625
psoriatic	5623
245	5622
freezer	5620
Xiliarx	5620
Flor@@	5620
potency	5619
5.8	5619
modifications	5618
Preparation	5616
a.	5616
compet@@	5615
migration	5614
transfer@@	5614
PL	5613
quantities	5613
satisfactory	5612
classification	5611
Multi@@	5611
Less	5610
tenderness	5607
registry	5606
aints	5605
rt	5603
Sau@@	5602
emia	5601
dness	5600
optional	5600
strasse	5599
Peripheral	5599
amine	5598
Well@@	5598
ova	5598
ups	5597
pilot	5596
constitute	5595
ssing	5594
Looking	5594
BY	5593
stimulates	5593
aver@@	5592
Population	5591
uptake	5590
column	5587
incl.	5587
CA@@	5587
tray	5586
ethanol	5584
bronchitis	5582
monoclonal	5582
Jalra	5582
ADMINISTRATION	5581
am-@@	5581
preci@@	5580
transfusion	5580
serving	5579
Irish	5577
methoxy	5576
BR@@	5576
213	5575
Fabrazyme	5574
BA@@	5571
notified	5571
redi@@	5567
pressing	5567
Ceftriaxone	5564
casi@@	5562
Plavix	5561
continu@@	5560
166	5560
excl@@	5555
INE	5554
ventilation	5554
153	5554
radio@@	5552
Dosing	5551
Count	5551
oting	5549
belonging	5547
participated	5546
Savene	5544
genotype	5544
rh@@	5544
dos@@	5543
Sp.	5542
6.7	5541
za@@	5541
Hal@@	5539
stuff	5536
preclinical	5535
ier@@	5534
085	5534
twelve	5532
Ki@@	5532
faced	5531
ole@@	5531
Kor@@	5531
37.5	5530
seasonal	5530
Fra@@	5529
biliary	5529
carrier	5529
research@@	5529
Doribax	5529
discoloration	5528
Gran@@	5528
Myozyme	5527
141	5526
allo@@	5526
methadone	5526
oxidase	5525
Major	5524
tress	5524
Drive	5521
diary	5518
multidose	5517
responders	5517
bioequivalent	5517
hem@@	5517
TP	5515
pot	5515
fatty	5514
breakthrough	5514
necessarily	5514
newborn	5513
ISENTRESS	5509
alive	5509
deemed	5508
cumulative	5508
és	5508
hospit@@	5507
freeze	5507
Iscover	5505
Pritor	5503
Takeda	5502
hypertrophy	5500
tution	5498
seriously	5497
-0.@@	5497
somewhat	5497
cerebrovascular	5495
Title	5494
delivers	5494
photosensitivity	5493
enb@@	5493
modest	5490
PT@@	5488
145	5488
215	5486
90Y	5485
Youn@@	5484
Vil@@	5484
ulated	5482
var@@	5482
app	5480
Clo@@	5479
conclude	5479
rol@@	5477
certificate	5477
bind	5477
cop@@	5475
sert	5475
contributed	5473
Starting	5472
H5N1	5472
UAB	5472
NeuroBloc	5470
disability	5470
Work@@	5470
conjunctivitis	5470
judgment	5469
arrest	5468
XERISTAR	5468
maraviroc	5468
leflunomide	5468
PP	5467
Fever	5466
relationships	5465
Km	5463
interim	5461
114@@	5461
Roma	5460
AI@@	5460
carb@@	5458
Previous	5456
Milano	5455
estradiol	5455
Orgalutran	5455
zero	5450
G.	5447
operative	5447
zing	5445
eventually	5444
EPO	5443
Europa	5441
embolism	5441
escal@@	5441
17-@@	5440
shift	5438
ample	5435
parathyroid	5435
Form	5435
smoke	5433
Integr@@	5433
spondylitis	5432
trace	5432
Concer@@	5431
assays	5428
ziconotide	5428
Siklos	5427
taining	5427
feelings	5426
STELARA	5426
OS@@	5425
led@@	5425
Visudyne	5423
controller	5418
PCTFE	5418
identification	5418
consistency	5417
investigate	5417
Complete	5417
vigabatrin	5416
molecular	5413
compare	5413
paragraph	5411
calculation	5411
Vaccine	5410
pegylated	5409
fort	5408
breath@@	5407
0.5@@	5403
jk	5400
musculoskeletal	5399
Gra@@	5399
20.0@@	5399
Estonia	5397
seg@@	5397
manic	5397
Net	5397
participating	5396
Kal@@	5396
metr@@	5395
flav@@	5395
hole	5395
Adopted	5395
approaches	5394
Hein@@	5394
Milan	5392
285	5390
overdosage	5388
LH	5388
032	5388
Bone	5387
ultrasound	5386
lacosamide	5385
310	5385
Questions	5381
330	5380
Mild	5380
Chemical	5379
1987	5378
bortezomib	5375
headaches	5375
Metacam	5375
hence	5374
8.3	5373
correction	5373
swe@@	5373
Activelle	5366
uterine	5366
Yondelis	5365
glucuronidation	5362
Cell	5362
Paper	5361
tone	5356
Asian	5353
pointed	5353
labels	5352
blocked	5350
grow@@	5349
Stre@@	5346
yc@@	5345
assessments	5345
reflects	5345
VICH	5340
-23	5340
attended	5340
urs	5339
Tandemact	5338
non-steroidal	5338
recover	5338
portal	5338
405	5338
sheep	5338
gloves	5337
-29	5337
emed	5337
rises	5336
tolerate	5336
endpoints	5335
suggestive	5335
Catal@@	5335
FI	5335
Having	5334
HOLDER	5333
combines	5333
annes	5333
abatacept	5332
Anaemia	5330
vine	5330
CK	5327
eration	5326
Kinzalmono	5326
collabor@@	5326
test@@	5324
Cervarix	5323
cidofovir	5323
Janu@@	5322
Baraclude	5322
consist	5322
100,000	5321
imprint	5321
encephalopathy	5319
Arixtra	5319
anced	5318
167	5317
.....	5317
LD@@	5316
Hycamtin	5314
165	5313
assume	5313
Krka	5312
OSSEOR	5312
Nordisk	5311
applicants	5311
Avonex	5307
einer	5307
tual	5307
Put	5303
í	5301
designation	5300
formula	5300
heartbeat	5298
public@@	5297
Pharmacotherapeutic	5297
Continue	5297
inspired	5295
antidote	5293
liner	5293
Cancer	5291
Index	5291
argu@@	5290
investigations	5288
arrhythmia	5287
antipsychotics	5287
SCH@@	5286
labelled	5284
AME	5284
intermediate	5283
meningitis	5283
eter	5283
Kir@@	5283
Outer	5281
Hexal	5281
partially	5281
211	5281
Glaxo	5279
rituximab	5278
synthetic	5278
matic	5278
saline	5277
Event	5276
purpura	5274
acu@@	5273
Amer@@	5273
Maximum	5272
repaglinide	5272
lation	5272
Simulect	5269
Zeffix	5269
dual	5269
p-value	5269
ê@@	5268
Sunset	5267
Cetrotide	5267
Apidra	5267
NV	5267
co-operation	5266
keeps	5261
gradual	5261
readily	5260
1,200	5258
fal@@	5258
CYP3A	5258
pseudoephedrine	5258
Natural	5257
validated	5256
zer@@	5255
Tevagrastim	5255
DuoTrav	5254
thirst	5254
amed	5253
Zo@@	5253
generic	5251
turnover	5251
bert	5250
concentrated	5250
glycerol	5250
Ot@@	5248
Dicural	5248
SK@@	5244
wa	5243
rid@@	5242
alia	5241
age-@@	5240
targeted	5239
т@@	5236
inates	5235
ZI@@	5234
HD@@	5232
metastases	5231
arrow	5230
lined	5230
MP	5229
relate	5229
antifungal	5229
assumed	5228
fingers	5227
recognise	5227
NA	5226
ery@@	5225
Chief	5225
Naglazyme	5225
Fendrix	5225
hes@@	5225
5-FU	5224
leakage	5223
OPTISON	5223
15,@@	5222
NovoFine	5222
describe	5222
antidiabetic	5221
sinus	5221
anaphylactoid	5220
Myfenax	5220
Agriculture	5218
Mü@@	5217
mcg	5217
EL	5215
Environmental	5215
176	5214
Arava	5213
consistently	5213
PROTELOS	5212
aug@@	5211
acuity	5211
-5	5210
GE@@	5210
propose	5210
tness	5209
dw@@	5207
eck	5207
BP	5204
sanofi-aventis	5204
lenses	5204
Menitorix	5203
roc@@	5201
Ratiograstim	5201
rena	5199
dietary	5198
CL	5197
acceptance	5196
counter	5195
tooth	5195
EVALUATION	5194
Long	5193
Candida	5193
weights	5193
enes	5189
meets	5189
respec@@	5189
cept@@	5189
intolerant	5188
ère	5188
continuation	5188
Authorisations	5187
Manu@@	5186
464	5186
bach	5186
Set@@	5184
PAH	5182
inating	5182
abb@@	5181
oxybate	5180
NI@@	5177
TMZ	5176
diction	5174
lymph	5172
layers	5172
Consumer	5171
iler	5170
structuring	5169
Syn@@	5169
299	5169
YENTREVE	5168
prefilled	5168
og	5167
x-@@	5166
emerging	5165
PEN	5163
workload	5163
Tygacil	5163
Increase	5162
missions	5162
hist@@	5160
isotretinoin	5160
inhibiting	5159
precision	5159
bid@@	5158
favour@@	5153
ORACEA	5153
Dire@@	5152
manu@@	5151
malignancy	5151
arry	5150
preserved	5150
Baseline	5149
ind	5148
IL@@	5148
telbivudine	5148
pic	5147
itor@@	5147
mod@@	5145
mac@@	5145
mid-@@	5141
Gender	5140
docum@@	5139
explanation	5139
agonists	5138
stronger	5138
chapter	5137
tica	5136
Ari@@	5133
toco@@	5133
H-@@	5133
dist@@	5132
time-@@	5131
expanded	5130
Eli@@	5130
410	5128
GANFORT	5126
far@@	5123
caps	5123
happening	5123
urt	5122
Econor	5119
Cs	5119
eti@@	5118
Ministers	5117
thiazide	5117
VISTIDE	5117
bered	5116
amin@@	5116
ivabradine	5114
Trazec	5114
specialists	5113
cyclophosphamide	5113
strictly	5111
Manufacturing	5111
hypercalcaemia	5110
disc	5110
shoulder	5109
margin	5106
1.8.2.	5106
officially	5105
comprises	5104
Excipients	5104
accompanying	5103
Escherichia	5103
Hot	5102
ule	5101
shap@@	5099
ult	5098
SME@@	5097
thrombin	5094
Apart	5093
mania	5092
recycl@@	5092
therap@@	5090
intellectual	5090
professi@@	5087
Competact	5087
developmental	5083
p.	5082
residues	5082
bou@@	5081
Nplate	5081
lack@@	5080
233	5080
Bec@@	5079
CO	5078
mask	5077
033	5077
Charles	5076
whenever	5074
dose-dependent	5074
weigh	5074
College	5071
welcomed	5071
contra@@	5069
Under@@	5069
experim@@	5068
sul@@	5068
dle	5068
Trav@@	5068
cos@@	5067
Generally	5066
osing	5066
8.0	5066
Cross	5066
dose-related	5065
Acc@@	5064
minimisation	5064
day@@	5061
Pulmonary	5060
7.0	5060
LITAK	5060
permit	5059
eded	5059
Fas@@	5057
Osigraft	5056
mini	5056
Organisation	5056
distress	5056
431	5056
pad	5055
v.@@	5053
long-acting	5052
lef@@	5052
HMG-CoA	5051
arbitration	5051
autoimmune	5050
analysed	5048
eco@@	5044
Lev@@	5044
pel@@	5043
influenzae	5042
steroids	5042
Kno@@	5041
bilateral	5041
endar	5036
›	5036
lot@@	5034
paralysis	5033
BB@@	5033
Baltic	5031
Regarding	5030
telec@@	5029
nel@@	5027
tummy	5027
PO	5026
menstrual	5024
Hydrochloric	5023
plates	5021
itate	5021
tender	5021
fro@@	5020
Optisulin	5019
visi@@	5018
Nifedipine	5018
156	5018
agon	5017
correc@@	5017
8.2	5016
ALIMTA	5016
vent	5012
bronchospasm	5012
6.8	5011
urination	5010
emergence	5009
nesses	5008
erlotinib	5008
0.87	5008
manifestations	5007
Non-clinical	5007
1985	5007
enlarged	5005
pathogens	5005
alit@@	5003
Glubrava	5003
Deputy	5002
JANSSEN-CILAG	5002
Therapeutic	5000
369	5000
60-@@	4999
Profender	4999
Mycamine	4997
rated	4996
Smar@@	4994
M-M-RVAXPRO	4994
ibuprofen	4993
duodenal	4993
Guidelines	4993
antigens	4993
egg	4992
damag@@	4992
oured	4992
conferences	4990
antihistamines	4987
Discard	4987
massive	4987
sist@@	4986
diastolic	4984
50,000	4983
ceftriaxone	4983
asp@@	4982
adapt	4982
eradication	4982
demonstration	4981
certificates	4980
adsorbed	4979
139	4977
NL	4977
hypercholesterolaemia	4977
Tech@@	4977
LeukoScan	4976
QUADRAMET	4975
administr@@	4974
isa	4973
PK	4973
036	4973
2,000	4972
Revatio	4971
Appropriate	4969
Intrinsa	4969
remark@@	4968
Ce@@	4968
que@@	4967
parameter	4966
unexplained	4966
selling	4965
pains	4963
predicted	4963
levetiracetam	4963
preliminary	4962
raltegravir	4962
phases	4962
creatine	4961
VE	4961
Hib	4959
lasts	4959
1986	4958
depot	4958
Ker@@	4957
Final	4957
HA	4956
taught	4955
kn@@	4955
EVISTA	4955
glycol-epoetin	4954
escape	4953
Reports	4953
cally	4952
158	4952
TachoSil	4951
pening	4950
Initial	4949
intact	4949
sperm	4948
eline	4947
UCB	4946
Vel@@	4945
noticed	4945
Sev@@	4945
chron@@	4944
restore	4943
varying	4942
163	4941
IM	4939
firms	4938
digestive	4938
estimates	4936
sp	4933
montelukast	4932
bexarotene	4931
mber@@	4931
Staff	4931
preser@@	4930
ky@@	4929
embr@@	4929
dal@@	4928
productive	4927
commitments	4927
observe	4925
inhibitory	4924
Virus	4923
overweight	4923
�	4923
timing	4923
294	4922
INN	4921
indicators	4921
exhibits	4921
Breast-feeding	4920
PET	4918
ourg	4917
182	4914
ankylosing	4912
Chem@@	4912
electrolyte	4912
Packs	4912
macro@@	4910
multicentre	4910
tant	4910
Mannitol	4909
pneumoniae	4909
149	4908
CYSTAGON	4908
Lyon	4908
inducer	4907
pregabalin	4906
thoracic	4903
satis@@	4901
Cho@@	4900
gue	4900
lapatinib	4900
breaks	4900
STAMARIL	4898
Ovitrelle	4897
340	4897
Xarelto	4897
C.@@	4896
circuit	4896
improves	4892
cess@@	4890
469	4889
Production	4889
CC	4888
aning	4887
ongside	4886
177	4885
PD	4885
8.1	4885
assemb@@	4885
long-@@	4882
fibrillation	4881
к@@	4880
compartment	4879
¬	4877
carries	4876
iw@@	4872
dyskinesia	4870
pins	4870
Foscan	4870
asse	4869
soap	4868
vasculitis	4868
mitotane	4868
tigecycline	4867
outweighs	4866
Hist@@	4864
Diagram	4863
orthostatic	4863
Child	4861
Lansoprazol	4858
gauge	4857
LL@@	4857
agg@@	4857
gues	4856
Fluticasone	4856
800@@	4856
Zyrtec	4855
malabsorption	4853
haemolytic	4853
cess	4852
necrolysis	4852
Stevens-Johnson	4851
execution	4851
compu@@	4850
assum@@	4850
dealt	4849
MAN@@	4849
ific	4848
stal@@	4847
Sometimes	4847
Articles	4845
nevertheless	4845
Amb@@	4844
transmitted	4842
effusion	4840
oseltamivir	4840
enabling	4839
Arzneimittel	4838
cardboard	4837
TRITACE	4836
р@@	4833
supplement	4832
Depression	4831
sung	4830
ema@@	4829
experiments	4828
alterations	4826
NT	4824
Internal	4824
Universit@@	4823
Try	4822
tren@@	4821
titres	4820
Call	4819
wet	4816
interstitial	4815
TRI@@	4815
Protocol	4813
enta@@	4813
Bay@@	4812
shel@@	4812
ã@@	4811
rescue	4811
enfuvirtide	4810
MPA	4810
composite	4809
perforatum	4809
1.8.1.	4808
Rapilysin	4808
Cooperation	4807
EE@@	4807
TNF	4805
les@@	4802
aten	4801
chil@@	4800
Bou@@	4795
Ljubljana	4793
Alternatively	4792
gap	4792
Exforge	4791
prednisone	4791
derivative	4790
600@@	4790
CEPROTIN	4790
powered	4790
Univer@@	4789
Psychiatric	4789
ques	4788
it-@@	4788
fies	4788
stays	4788
sequence	4787
phen@@	4787
Gran	4787
Macrogol	4786
Look	4784
fallen	4783
ce-@@	4782
Advocate	4782
coord@@	4782
159	4780
seven@@	4780
Plan@@	4779
Hypertension	4777
Exceptional	4774
enic	4774
tocilizumab	4773
pulse	4773
consequently	4772
K.	4771
Es@@	4770
neuropathic	4770
compres@@	4767
strange	4767
Basic	4767
eligible	4766
corpor@@	4765
receives	4765
ae@@	4765
itis	4765
lens	4765
Guidance	4765
035	4765
Pub@@	4765
hen@@	4765
asy	4764
sty	4764
considerations	4764
Microcrystalline	4763
pts	4761
foods	4760
litres	4759
sugammadex	4759
impair	4759
oesophageal	4757
scr@@	4755
CANCIDAS	4755
TRAVATAN	4755
iber@@	4754
Ann@@	4754
encies	4753
adjuvanted	4753
cake	4752
appropriation	4752
promptly	4752
169	4751
bivalirudin	4750
prothrombin	4750
overnight	4749
SonoVue	4748
Equilis	4747
markers	4747
Packaging	4742
explanations	4742
blockade	4742
ertapenem	4742
Hence	4740
rd	4740
Gaucher	4740
corneal	4740
proceed	4736
ellschaft	4735
FA	4735
optimum	4734
Genzyme	4733
COMP	4729
grap@@	4729
138	4728
transformation	4727
Cli@@	4727
164	4724
assessing	4723
inate	4723
screening	4723
bosentan	4722
Solutions	4721
prevented	4721
tability	4720
induces	4719
obese	4718
OVERALL	4717
behavioural	4716
morbidity	4715
translated	4715
NSAID	4714
Immuno@@	4714
intr@@	4713
oni	4713
procedural	4713
bad@@	4713
colon	4712
PFS	4712
INVANZ	4711
KRKA	4710
Zarzio	4710
residual	4709
Hypericum	4708
Levviax	4708
Lau@@	4708
Sor@@	4708
focal	4706
transfusions	4706
flea	4706
GSK	4705
distingui@@	4702
robust	4701
consulted	4699
receipt	4698
threshold	4697
40-@@	4697
fluids	4696
Lower	4696
Privigen	4696
mut@@	4695
Basi@@	4695
7.4	4694
338	4694
op	4694
EV@@	4691
runny	4690
cit@@	4689
sb@@	4689
dish	4687
forget@@	4687
DaTSCAN	4686
freely	4684
nal	4684
candidates	4683
kno@@	4681
Constipation	4679
EEA	4678
lumbar	4678
MR@@	4677
specifications	4676
5.9	4675
Wash	4674
ison	4673
Danish	4673
Avandamet	4673
delegation	4671
Wharf	4669
chem@@	4669
550	4668
dossier	4668
glycoprotein	4668
9.4	4668
Applications	4668
hepatocellular	4667
jo	4667
neonates	4667
tee	4666
gover@@	4666
255	4665
outweigh	4662
Men	4662
Scre@@	4662
moxifloxacin	4661
7.1	4661
ó	4661
rotavirus	4660
virologic	4660
lyophilised	4658
stad@@	4656
amphotericin	4656
warr@@	4655
Need	4655
5-fluorouracil	4654
beta-@@	4653
certification	4653
Bleeding	4653
Macugen	4652
NO	4652
Similarly	4651
Works	4650
pending	4649
compl@@	4649
antibacterial	4649
acknowled@@	4646
atically	4646
Aerinaze	4645
0,000	4645
adhesive	4643
upset	4642
ambrisentan	4642
premises	4639
mented	4638
5,000	4637
Mont@@	4637
SARL	4636
NEVANAC	4635
rame@@	4633
Mark@@	4633
8.6	4631
Ful@@	4630
wounds	4630
VII	4629
465	4627
basal	4626
id-@@	4626
indicator	4624
sugars	4624
1,500	4622
0.18	4621
solely	4620
stered	4619
stabilised	4619
sores	4615
exist@@	4614
ido@@	4612
Decreased	4612
FOSAVANCE	4611
0.9@@	4611
Livensa	4610
Circadin	4610
theoretical	4610
cam	4610
Kepivance	4610
phenomenon	4610
carbonate	4609
cetuximab	4608
nerves	4608
Orion	4608
Botulinum	4606
interferons	4605
variant	4604
Systemic	4604
ProMeris	4603
encouraged	4601
Auto@@	4599
LUMIGAN	4599
sentence	4599
Investigations	4598
mus	4597
inappropriate	4597
cyto@@	4596
ão	4596
pro-@@	4595
ITT	4595
attend	4594
Luveris	4594
extensions	4592
aureus	4592
reve@@	4591
KS	4589
dos	4589
Emselex	4586
agr@@	4586
Never	4585
ning@@	4585
stret@@	4585
gout	4584
spasms	4583
moves	4582
Stat@@	4582
attri@@	4582
amiodarone	4581
tightly	4581
migraine	4580
territ@@	4578
MON@@	4578
glomerular	4576
ph	4574
sublingual	4574
side-effects	4574
aesthe@@	4573
E110	4572
graf@@	4572
LY	4571
ced	4570
Ther@@	4569
FE@@	4568
pools	4568
delays	4567
Gadovist	4567
aggressive	4565
chec@@	4565
bitches	4564
21-@@	4564
Being	4561
Luminity	4558
ater@@	4558
ZIMULTI	4558
Sími	4557
Schering	4556
prasugrel	4556
E132	4556
valve	4555
Cerezyme	4554
exhibited	4554
weg	4554
Kft	4553
unborn	4551
199	4550
uniform	4549
535	4548
ž@@	4546
semble	4545
Mig@@	4545
interpre@@	4543
market@@	4543
mature	4543
Document	4542
0.088	4541
requ@@	4541
scored	4540
8.7	4540
321	4540
9.3	4536
veins	4536
31-@@	4535
biotechnology	4535
aux	4534
cuts	4534
closing	4533
vege@@	4532
Gri@@	4531
Levitra	4530
Overdose	4529
denti@@	4528
protecting	4527
054	4527
catch	4526
relapsed	4526
energ@@	4525
fusion	4525
your@@	4524
Conf@@	4522
assisted	4520
poisoning	4519
compensated	4518
essi@@	4517
Significant	4517
Gir@@	4517
medium-sized	4516
lesser	4515
Circus	4514
Zenapax	4514
316	4514
beta-blockers	4513
PSUR	4513
anti-HIV	4513
genous	4512
agli@@	4511
vet	4511
exacerbations	4511
RC	4510
tmax	4510
leb@@	4510
Od@@	4510
racing	4509
hyperkalaemia	4509
0.35	4508
IL-2	4508
perfusion	4508
Fatigue	4507
ulating	4507
Anxiety	4506
Classi@@	4506
povidone	4505
stic@@	4504
trigger	4504
P-gp	4504
Beau@@	4503
enhancement	4502
ousness	4501
increments	4501
ared	4501
antithrombin	4501
-3@@	4500
0.7@@	4500
25th	4500
Tyverb	4500
orthopaedic	4500
agement	4500
Wilzin	4500
titre	4499
first-line	4499
1984	4499
OPINION	4498
tech	4497
dd@@	4496
MIC	4495
Rap@@	4495
posing	4495
Sant	4493
isoenzymes	4492
Etoricoxib	4490
glulisine	4490
c-@@	4489
obstructive	4489
sph@@	4487
avian	4487
CV@@	4487
varies	4486
AVONEX	4486
gestation	4486
chairman	4483
judged	4483
systolic	4482
PIs	4481
070	4481
IF@@	4480
ARTICLE	4479
Corlentor	4477
044	4477
lasted	4476
ally-@@	4475
ferences	4475
CHARACTERISTICS	4469
consensus	4468
evolution	4467
treatment-related	4466
tap	4466
merc@@	4465
Operations	4464
referrals	4461
Hou@@	4461
stration	4461
52@@	4460
weakened	4460
pre-treatment	4460
methyl	4458
agen@@	4458
aggregation	4458
Frequencies	4457
а	4456
Bul@@	4456
cooling	4456
myeloid	4456
Noxafil	4456
neg@@	4455
attach	4455
ischaemia	4455
Preparing	4455
lick	4454
CET	4453
gio	4452
Zer@@	4452
rem@@	4452
passage	4452
hyperstimulation	4452
CL@@	4451
thick	4450
mediastinal	4450
obe@@	4450
rt@@	4449
IR@@	4448
227	4447
Long@@	4447
ARCOXIA	4447
Inhibitors	4445
Quintanrix	4445
AZARGA	4445
aths	4444
3x@@	4443
tism	4443
INTEGRILIN	4442
ree	4442
calm	4442
pipette	4442
dihydrochloride	4442
rolling	4441
veterinarian	4441
nails	4440
Max@@	4439
crushed	4439
Swelling	4439
RELEASE	4438
yst@@	4438
Sin@@	4436
ECALTA	4436
trop@@	4432
killing	4432
talc	4432
stu@@	4431
ONE	4431
YYYY	4430
2-4	4427
OPTRUMA	4427
30.0@@	4427
Peak	4423
miner@@	4423
0.6@@	4422
wax	4422
Dodge	4421
eties	4421
Evoltra	4419
Zyprexa	4419
cisapride	4417
BLISTER	4413
366	4413
ito	4413
20,@@	4412
50-@@	4411
dose-@@	4411
3,000	4411
atopic	4410
termination	4407
173	4406
dark@@	4405
Mid@@	4403
twenty	4403
Hypo@@	4402
Zestril	4401
strong@@	4400
simultaneous	4398
accomp@@	4397
cytarabine	4396
sickness	4395
USER	4395
Ferriprox	4395
pr	4394
ATryn	4394
transformed	4394
Push	4394
fulfilled	4394
Stil@@	4390
worry	4388
Á@@	4388
Dark	4388
ée	4387
dysphagia	4387
Early	4386
Vietnam	4386
demonstrates	4383
eigh@@	4381
matrix	4378
begun	4378
352	4377
HRT	4377
beit	4375
440	4375
Ñ@@	4374
FC	4374
Neuro@@	4373
enters	4373
rim@@	4373
411	4373
novel	4372
jection	4372
Hard	4372
clin@@	4372
Secretariat	4371
arteries	4371
urge	4369
NovoNorm	4368
eve	4368
house@@	4366
AE	4366
tis	4366
waves	4365
substitution	4364
contraindication	4363
228	4363
20mg	4363
mass@@	4363
034	4363
aspartate	4362
235	4362
Dispose	4362
bedtime	4358
µM	4357
Hepsera	4356
U.	4355
prime	4354
anti	4354
wider	4354
second@@	4354
systematic	4354
sively	4353
Hill	4352
′	4351
nM	4350
accelerated	4349
ruption	4347
sti	4347
AU	4346
reinfor@@	4346
caspofungin	4345
remainder	4344
by-@@	4343
intern@@	4343
e-	4343
Gö@@	4342
quar@@	4341
MTX	4341
uture	4341
VO@@	4341
Vidaza	4340
otitis	4340
But@@	4338
191	4337
airs	4335
rotigotine	4334
melphalan	4334
asleep	4332
189	4330
-free	4328
implantation	4327
8.4	4326
escalation	4325
ocolate	4324
immunosuppression	4324
288	4323
aiming	4323
donors	4322
7.7	4321
fen@@	4320
collapse	4320
tric	4319
peritoneal	4318
accurately	4318
drowsy	4318
MAOI	4317
457	4316
179	4315
dL	4313
ffic@@	4312
Tmax	4311
Rules	4310
Chest	4309
returning	4309
diphtheria	4308
Prandin	4305
suspended	4304
ADVATE	4303
Norm@@	4302
inet	4301
Suc@@	4299
LS	4299
atrial	4299
folinate	4299
TOVIAZ	4299
Advanced	4299
reas@@	4297
WI@@	4297
327	4296
IVEMEND	4295
TEVA	4294
distor@@	4294
Circumstances	4293
references	4293
notably	4293
consolidation	4291
sher	4290
363	4290
extremities	4290
point@@	4289
Ds	4289
instances	4288
separation	4286
Rapporteur	4284
antiepileptic	4284
unwanted	4284
mol@@	4282
axis	4281
bevacizumab	4281
-1.@@	4279
incorporated	4277
7.9	4275
Protein	4275
counted	4274
Avandia	4274
Regulatory	4273
Wat@@	4273
Appro@@	4273
complication	4272
ía	4271
F.	4269
visu@@	4268
Ox@@	4268
HIV-infected	4268
amide	4268
Speci@@	4267
lt	4267
Published	4267
CAR@@	4266
341	4265
shaken	4263
coordinated	4261
geometric	4260
154	4260
omeprazole	4257
zones	4256
Sucrose	4256
methyl@@	4254
licensed	4253
dys@@	4253
dropped	4253
Clar@@	4252
232	4251
Mechanism	4249
fast-acting	4249
GMP	4247
nom@@	4246
spontaneously	4246
345	4245
initiate	4245
Angiox	4245
atch	4245
tracking	4245
425	4244
adap@@	4244
PDT	4243
spite	4243
1-2@@	4243
efficiently	4242
TTP	4242
deeply	4242
astro@@	4241
schem@@	4241
aspartame	4239
penis	4239
222	4239
traces	4238
centr@@	4238
RP	4237
Pul@@	4237
Neutropenia	4237
HCl	4236
onate	4235
societies	4234
Tal@@	4233
yro@@	4233
losses	4232
sinusitis	4232
337	4232
12,5	4232
ves@@	4232
alf@@	4230
Performance	4229
Tenofovir	4229
Nordic	4229
coverage	4229
yearly	4228
IF	4228
edges	4228
CYP450	4228
Fab@@	4226
9.0	4226
Personal	4225
Little	4225
Bratislava	4224
static	4224
Representative	4223
after@@	4223
Ps	4222
224	4222
box@@	4222
Bath	4220
tight	4217
RG@@	4217
yeast	4213
Usually	4212
table@@	4212
ified	4209
eding	4209
trastuzumab	4207
pro	4207
Holders	4207
LABELLING	4206
enting	4206
variables	4206
Hypotension	4205
Cir@@	4205
figh@@	4202
neutral	4201
glucuronide	4201
Genotype	4200
exhibit	4200
arrange	4200
9.6	4199
gon@@	4198
attained	4197
UT@@	4197
relapses	4197
implications	4196
cognitive	4196
ACOMPLIA	4196
Aldara	4195
grapefruit	4195
gabapentin	4195
libido	4193
childhood	4193
calculate	4193
7.6	4192
Firazyr	4191
spiration	4191
threat@@	4190
radical	4189
REFERRAL	4187
Ciproxin	4187
Aud@@	4186
extr@@	4186
32-@@	4185
Fasturtec	4185
mi	4183
ADENURIC	4183
Indonesia	4183
wearing	4183
perception	4182
combining	4182
406	4180
0.8@@	4179
470	4178
evaluating	4177
Dou@@	4175
GI	4174
varicella	4173
Sud@@	4173
Breast	4173
check@@	4172
upside	4172
096	4171
chemicals	4169
Strasse	4169
sam@@	4168
Ital@@	4167
cryst@@	4164
neutrophils	4163
benef@@	4163
pted	4163
ty-@@	4162
Main@@	4162
mandate	4161
pimozide	4161
convenience	4160
209	4160
anti-	4160
398	4158
Vit@@	4157
virtually	4156
bisphosphonates	4156
illnesses	4156
407	4156
caught	4155
gelatin	4154
VIAGRA	4153
Tacrolimus	4152
Agopton	4150
aggression	4150
intracellular	4149
isol@@	4149
HP@@	4146
platz	4145
lean	4145
216	4143
Cyanokit	4142
deadline	4141
geograph@@	4141
vacuum	4140
zoledronic	4140
sequ@@	4139
anes	4139
Released	4138
Lar@@	4138
Onsenal	4138
Procoralan	4138
imiquimod	4137
Pharmacodynamic	4137
Pre-@@	4137
Povidone	4137
pathological	4136
fasted	4134
simp@@	4133
Gadograf	4131
1250	4131
Köl@@	4130
cerebral	4127
rabbit	4124
Elaprase	4123
iti@@	4122
090	4122
paste	4121
xx@@	4121
warranted	4118
vitamins	4118
apped	4117
incorpor@@	4117
Multiple	4117
semi-@@	4117
069	4117
Vitamin	4116
probenecid	4115
Blo@@	4115
tend@@	4115
causal	4115
Swallow	4114
45-@@	4114
Overview	4113
ultim@@	4113
Cel@@	4112
1400	4112
Cin@@	4111
magnitude	4111
SW@@	4110
resumed	4110
irreversible	4109
3-fold	4109
airway	4108
summarised	4108
conjugated	4106
GA	4103
amylase	4103
Proble@@	4103
nelarabine	4102
Storage	4102
2-fold	4102
observations	4102
disci@@	4100
prolong	4099
authorized	4098
leucopenia	4098
laropiprant	4098
455	4097
19-@@	4096
attac@@	4096
adolescent	4096
pituitary	4095
horizontal	4094
glu@@	4094
-P@@	4093
rol	4093
sevoflurane	4092
Gently	4092
valdecoxib	4092
hypocalcaemia	4091
cefuroxime	4091
challen@@	4090
prompt	4089
MedDRA	4088
mages	4088
foam	4087
varenicline	4087
Saquinavir	4087
aining	4085
Refludan	4084
detectable	4084
compromised	4082
Black@@	4082
etanercept	4081
MRL	4081
supplementary	4078
tiny	4077
Dear	4077
unacceptable	4076
structive	4076
diminished	4075
replication	4075
impac@@	4074
Apply	4074
brigh@@	4073
scal@@	4073
toxoid	4073
atus	4072
UV	4070
uss	4070
2-	4070
Strength	4068
MS@@	4067
rasagiline	4067
cope	4066
unclear	4065
yield	4065
Sti@@	4063
q.	4062
Person@@	4062
pushing	4061
EU@@	4060
Eu@@	4060
peptide	4059
Holding	4057
astemizole	4054
pack@@	4053
186	4053
anagrelide	4053
opioids	4052
antacids	4051
benzodiazepines	4051
sunset	4051
interference	4049
vice	4049
Monotard	4049
passive	4049
sleepy	4047
Round	4046
boosted	4046
Discontinuation	4046
day-@@	4046
rivaroxaban	4045
iso@@	4044
accel@@	4044
Wort	4043
Subjects	4043
Third	4043
Ä@@	4043
Five	4043
ultimately	4043
weighed	4042
Copenhagen	4040
mandatory	4040
nover	4039
biopsy	4039
Hellas	4039
endo@@	4038
atro@@	4037
PASI	4037
Vivanza	4037
Penta	4036
atrophy	4036
Neurontin	4035
citric	4034
excluding	4033
mirror	4032
Insert	4031
separ@@	4030
480	4030
Thrombocytopenia	4030
376	4029
Reactions	4028
color@@	4026
Shake	4024
menopause	4024
equine	4023
Det@@	4023
eri	4022
Diabetes	4020
hamster	4020
knee	4019
aph@@	4017
widespread	4016
prostaglandin	4016
independently	4016
rub@@	4015
297	4015
Att@@	4014
calves	4014
Squibb	4013
Spec@@	4012
psychological	4010
alfa-2a	4010
tary	4009
Stop	4009
eliminate	4009
ume	4007
Helsinki	4007
Sc@@	4006
580	4005
æ@@	4003
Fentanyl	4001
r-@@	4001
1983	3999
aluminum	3999
eye@@	3998
Gilead	3998
conjugate	3996
Kidney	3995
contraindications	3994
Pharmacokinetics	3994
Kö@@	3992
consci@@	3991
sponge	3991
augh@@	3990
restriction	3990
Produc@@	3990
ATE	3990
ECU	3989
norm@@	3988
sv@@	3988
⋅	3988
proliferation	3987
colo@@	3987
Vaniqa	3987
OTHER	3987
epidemiological	3987
sto	3987
complement	3986
neutropenic	3985
pol	3985
hur@@	3985
Prialt	3982
personality	3982
ptions	3982
circum@@	3979
E14	3978
223	3978
Race	3978
spasm	3977
flushes	3977
first-@@	3976
responsive	3975
num@@	3974
engage	3970
there@@	3970
benzyl	3969
offic@@	3969
r.@@	3969
jaw	3968
Dy@@	3966
flush	3965
^	3965
249	3965
198	3963
pair@@	3961
380	3960
urg	3960
Lef@@	3960
success@@	3959
5mg	3959
compete	3957
liqu@@	3956
323	3953
70-@@	3953
NY@@	3952
GROUNDS	3952
237	3952
placing	3952
Zealand	3949
ex	3948
cinacalcet	3948
ideally	3948
OptiClik	3948
tranqu@@	3946
conservation	3946
investigator	3946
tent	3945
Losartan	3944
remind	3944
SH	3944
BLUE	3944
previ@@	3944
VELOTAB	3943
ange	3943
317	3943
intraocular	3942
blistering	3940
None	3940
parturition	3939
Van	3939
colorectal	3938
limiting	3938
7.8	3937
atri@@	3937
pneumonitis	3936
substitute	3936
。	3936
cows	3935
minority	3934
Westferry	3934
Infection	3934
raloxifene	3934
Initi@@	3932
low-dose	3932
sition	3931
Dra@@	3930
LYRICA	3929
clockwise	3929
Below	3929
molecules	3929
Far@@	3928
atics	3928
Geno@@	3928
....@@	3927
275	3922
me-@@	3922
contributing	3922
Requ@@	3920
elim@@	3920
FOLLOWING	3920
Scale	3919
databases	3918
MO	3918
Compared	3916
yellowing	3915
gem@@	3915
TH	3912
enhancer	3912
yours	3911
maturation	3907
suit@@	3906
necessity	3906
repeatedly	3905
shif@@	3904
27-@@	3903
focusing	3903
lupus	3903
sharp	3902
hydroxycarbamide	3900
rounded	3899
NeoSpect	3898
pha@@	3898
383	3897
oesophagitis	3895
IC	3895
Rech@@	3894
zoster	3893
memantine	3893
illu@@	3892
050	3892
pancreatic	3891
ions	3891
540	3891
adjunctive	3890
	3889
rant	3888
farms	3888
ensured	3887
abnormality	3887
adjust@@	3887
ecutive	3886
TRITAZIDE	3886
FT	3885
intramuscularly	3885
analgesic	3885
Talc	3884
tili@@	3884
Ibaflin	3884
Death	3884
equip@@	3883
consisted	3883
nodes	3882
macular	3882
tion-@@	3880
Syst@@	3879
beta-1a	3879
chaired	3876
Ab	3875
Ultratard	3874
ity-@@	3874
SIA	3874
418	3873
temsirolimus	3871
milky	3871
backing	3871
produk@@	3871
148	3867
Ble@@	3867
GIST	3867
Eisai	3867
в@@	3867
Comtan	3867
Praha	3866
Clinically	3866
year-old	3866
tably	3865
Hertfordshire	3865
Nonafact	3864
ethnic	3863
suff@@	3861
Whe@@	3861
cimetidine	3860
maize	3860
Ratio	3859
Inflammation	3859
pin	3859
uncomplicated	3857
leng@@	3857
shor@@	3857
Ph	3857
290	3856
strips	3855
microbiological	3853
iden@@	3853
Top@@	3853
tailored	3851
piroxicam	3851
exceeds	3850
Tube	3850
Floor	3849
respon@@	3849
activate	3849
tending	3848
fi	3848
2x@@	3846
dysgeusia	3846
nes@@	3844
strengthened	3844
Fon@@	3844
lipodystrophy	3842
polyester	3842
paliperidone	3842
ï@@	3842
deficient	3841
Ado@@	3840
Fal@@	3840
irrespective	3839
OG@@	3839
dio@@	3838
10000	3838
AVANDAMET	3838
Symptomatic	3836
deleg@@	3836
Xagrid	3836
ovaries	3836
glargine	3835
7.3	3835
delegates	3833
medicated	3833
OLANZAPINE	3833
dum	3833
busulfan	3833
dra	3832
194	3831
256	3831
DF@@	3831
с@@	3830
Botox	3829
rank	3828
409	3827
Clean	3827
Lysodren	3825
zzle	3824
naive	3823
Increases	3822
blin@@	3820
Intervet	3819
profound	3818
reservoir	3818
apple	3818
carmine	3818
AP	3818
9.7	3818
respected	3818
Vice-@@	3817
physiological	3817
TER	3816
ρ@@	3815
end-@@	3815
456	3815
ses@@	3814
lowered	3813
bw	3813
460	3813
217	3810
associ@@	3810
hazardous	3809
Medic@@	3809
325	3808
Reproductive	3808
premix	3807
332	3807
undergoes	3807
Produtos	3806
heading	3806
agre@@	3806
Ly@@	3805
meta@@	3805
logically	3804
azacitidine	3803
etc.	3803
II@@	3802
α@@	3801
RS@@	3801
finishing	3800
abor@@	3800
plaque	3799
precautionary	3799
Slo@@	3799
stop@@	3797
Mass	3796
Transient	3796
glucagon	3795
315	3795
IV@@	3793
acknowledged.	3791
cyclosporin	3789
sensory	3787
monoamine	3787
Withdraw	3787
y.	3786
basiliximab	3784
calcul@@	3784
gastritis	3783
Potassium	3783
grades	3781
theophylline	3781
Assist@@	3781
brinzolamide	3781
multipack	3780
proton	3780
ic-@@	3780
ati	3779
GnRH	3778
Parties	3778
Porcilis	3778
attributable	3777
Atriance	3774
evaluations	3773
č	3772
pa	3772
gastr@@	3770
PRI@@	3769
fulfil@@	3768
Serv@@	3766
selecting	3764
amoun@@	3764
County	3762
fulfil	3762
vas@@	3761
insti@@	3761
8.9	3761
span@@	3760
losing	3758
protects	3758
408	3757
injectable	3757
pact	3757
rodents	3753
Appe@@	3752
exclusion	3752
Shar@@	3751
logist	3751
lateral	3749
cyclosporine	3749
metre	3749
Astellas	3748
External	3748
432	3748
prece@@	3748
Fareston	3747
simplex	3747
Respon@@	3746
spleen	3745
Louis	3745
breeds	3744
AZOPT	3743
PHARMACEUTICAL	3742
croscarmellose	3742
erge@@	3742
spa@@	3741
rup@@	3741
resorption	3739
................................................................@@	3739
catheter	3738
atum	3738
Reconcile	3737
ference	3736
onwards	3736
Prograf	3736
transaminase	3736
20,000	3735
proto@@	3735
PML	3735
Tritanrix	3734
MBq	3734
040	3734
Fentanyl-ratiopharm	3733
short@@	3733
ONLY	3733
differently	3732
ila	3732
041	3731
K-@@	3731
sweats	3731
Belgian	3731
inducing	3730
predic@@	3730
assistant	3730
Ep@@	3728
mucosal	3728
CYP2C8	3728
Intern@@	3727
echo@@	3727
ram	3727
ough@@	3727
Fast	3725
cies	3724
G-CSF	3724
worsen	3724
warmth	3723
start@@	3722
è	3721
zo	3720
trabectedin	3720
Written	3719
coughing	3718
usion	3718
chicken	3718
perforation	3716
267	3716
tec	3716
stakeholders	3715
Fill	3715
asis	3715
Cont@@	3714
night@@	3713
Wall@@	3713
bathing	3712
judgement	3711
step@@	3711
colour@@	3710
burn	3710
Im	3709
borne	3709
Resistance	3709
metabolized	3708
pursuant	3707
Return	3707
045	3705
HU@@	3705
amer	3704
PDE5	3703
preserv@@	3702
complaints	3702
factor@@	3701
correspond	3700
expressing	3700
99.@@	3700
sedative	3700
secreted	3699
Bristol-Myers	3699
ENT	3697
Disorder	3697
ion@@	3697
prospective	3696
Rate	3696
Ear	3691
dried	3691
iloprost	3691
Optaflu	3690
XXX	3689
Oedema	3688
243	3685
prevalence	3683
Triatec	3683
adaptation	3683
49-@@	3683
dehydrogenase	3682
Vision	3682
contributes	3681
meloxicam	3679
Š@@	3679
manip@@	3678
IG@@	3678
bron@@	3676
ì@@	3676
pes@@	3676
RESTRICTIONS	3676
Pierre	3676
181	3675
rised	3675
inevit@@	3675
lid	3673
Analy@@	3673
Secondary	3672
shield	3672
419	3671
tened	3671
Duo	3670
fluctuations	3669
atosiban	3668
251	3668
ros	3667
seas@@	3665
cleaned	3665
gens	3665
arly	3665
tie	3664
homo@@	3664
ín	3663
simul@@	3659
transported	3657
fructose	3657
1800	3657
py	3657
intermittent	3655
Serono	3655
35-@@	3654
gastroenteritis	3653
graduated	3651
H2	3651
accoun@@	3651
glasses	3649
Optim@@	3648
Contraindications	3648
Aff@@	3647
coadministered	3646
atan	3646
Activity	3646
Sl@@	3645
gia	3644
elsewhere	3643
haematopoietic	3642
merck.	3640
Abra@@	3640
eptifibatide	3639
39.@@	3638
stance	3638
Communities	3636
ranolazine	3635
inherited	3635
estrogen	3633
♦	3632
296	3632
treatment-naïve	3631
0.45	3630
Kentera	3630
4HB	3629
immunological	3627
schedules	3627
absent	3626
Elevated	3626
Medium	3626
volun@@	3625
blast	3624
6-month	3624
agranulocytosis	3624
ually	3623
drotrecogin	3621
ounds	3621
scar@@	3621
jointly	3620
eve@@	3619
283	3619
Publications	3617
disturbed	3617
pion	3616
salmon	3616
immunoglobulins	3615
proxim@@	3612
SI	3612
Ran@@	3611
Drugs	3611
recruitment	3610
ometr@@	3609
antidepressant	3609
RC@@	3609
strontium	3608
SF	3607
preceding	3607
mentation	3606
itory	3606
washed	3606
msec	3605
τ@@	3605
faint	3602
inter-@@	3602
shi@@	3601
salts	3601
FOR@@	3601
SL@@	3600
trem@@	3599
MEMBER	3599
intra-@@	3598
nur@@	3597
exerc@@	3596
haemorrhagic	3595
cket	3595
delta	3595
Translation	3594
testicular	3594
over-@@	3593
pting	3593
Lä@@	3592
Mem@@	3591
rel	3590
markedly	3590
utility	3589
trauma	3589
senior	3589
Sebas@@	3588
enhancing	3586
197	3585
mucositis	3585
Rua	3584
determining	3584
discussing	3583
crying	3583
encouraging	3582
RILUTEK	3581
tear	3581
ige	3580
RELISTOR	3580
Question	3580
sensations	3579
elli	3579
pren@@	3578
Cerenia	3578
Yttriga	3577
assurance	3577
retard	3577
optimised	3576
6.9	3576
AMMONAPS	3575
initi@@	3575
tyrosine	3575
retro@@	3575
metabolisers	3574
Purified	3574
л@@	3573
pression	3573
foo@@	3573
IDflu	3573
Lyrica	3571
discre@@	3571
Doc@@	3570
KA	3570
Kabi	3570
della	3570
ace@@	3569
amber	3569
lactate	3567
gross	3567
Stra@@	3566
248	3565
seriousness	3565
vis	3563
administrations	3562
incid@@	3561
9.1	3561
sional	3561
Mix	3561
10mg	3560
annually	3558
justifies	3557
Oslo	3556
313	3555
numer@@	3555
ataxia	3553
les-@@	3552
audit	3552
desi@@	3552
four-@@	3551
examinations	3550
292	3549
oval-shaped	3549
Back@@	3549
restoration	3548
osteoarthritis	3548
abnormally	3547
child-bearing	3547
consolidated	3544
thorough	3544
Dro@@	3543
ec	3542
prohibited	3541
lovastatin	3541
mini-@@	3540
marker	3539
193	3538
incorrect	3538
teratogenicity	3537
molecule	3537
mea@@	3537
Biologicals	3536
STATES	3536
Core	3534
PLUS	3534
enalapril	3534
Bic@@	3534
postponed	3533
gend@@	3533
dominant	3532
Frank@@	3532
CONTAINING	3531
-4@@	3531
incidences	3531
178	3530
pointes	3530
Duloxetine	3530
ā	3528
dil@@	3528
Pedea	3527
survived	3527
Bridion	3526
osa	3525
REN@@	3524
Draw	3523
worn	3523
chlorobutyl	3523
isophane	3522
no-@@	3522
axetil	3520
Ramipril	3518
Comtess	3517
204	3517
tia	3516
271	3516
EB@@	3514
rotated	3513
28-@@	3513
PEG	3513
401	3513
Gemzar	3512
CB@@	3511
ÿ	3510
1975	3508
wr@@	3506
alise	3506
Alcohol	3505
333	3504
ks@@	3503
regulated	3502
palms	3502
Periodic	3500
Careful	3499
boys	3499
selector	3498
Port@@	3498
zia	3498
287	3498
mucosa	3497
µ@@	3497
achiev@@	3497
Label	3497
Heads	3497
364	3496
allergies	3495
Ale@@	3495
Subject	3495
ITP	3494
Physicians	3494
Albert	3494
vaccinations	3493
superficial	3492
conscious	3492
Otherwise	3491
Capsules	3490
end-stage	3490
single-@@	3489
neonatal	3489
degradation	3488
ovary	3488
Warszawa	3488
Straße	3488
aggravated	3487
anaesthetic	3486
344	3486
BATCH	3485
disappeared	3484
pharmaceuticals	3483
Lamivudine	3483
INSTRUCTIONS	3482
signature	3481
Í@@	3481
Repeat	3479
sarcoma	3479
sics	3478
Pharmamatch	3478
syl@@	3477
NPH	3477
dispose	3477
GFR	3476
KIOVIG	3476
ications	3476
shoul@@	3476
IIIa	3476
OPATANOL	3475
Immediately	3474
Wilson	3474
293	3473
event@@	3473
E4@@	3473
м@@	3472
Gliolan	3472
PRCA	3472
Asthenia	3471
crac@@	3471
verk@@	3470
interpreted	3470
autologous	3470
splen@@	3469
limitations	3468
correlation	3468
neuromuscular	3468
tants	3467
HP	3466
269	3466
091	3466
Plac@@	3465
translations	3465
uncommonly	3464
beam	3463
weak@@	3463
dairy	3462
highlighted	3462
mechan@@	3462
remin@@	3461
tern@@	3460
materi@@	3460
2800	3459
maxim@@	3457
hospitalisation	3455
É@@	3454
accounted	3454
alteration	3453
---	3452
litre	3451
likelihood	3448
113@@	3448
enclosed	3447
Pos@@	3446
incorporation	3446
compresse	3446
Polyethylene	3445
complex@@	3445
termin@@	3445
Agr@@	3445
embryo	3444
gambling	3444
cover@@	3443
pushed	3443
Merc@@	3442
phosph@@	3441
zaleplon	3440
Recombinant	3440
lingu@@	3439
instituted	3438
finalised	3438
CPK	3437
ACT	3437
tern	3437
pig@@	3435
Vaccination	3435
SPCs	3435
millilitre	3434
dabigatran	3433
Neisseria	3431
Disodium	3429
Watch	3429
9.2	3429
X-ray	3429
390	3429
drug-related	3428
snack	3428
integrity	3427
Pasteurella	3427
Ali@@	3426
undam@@	3426
Remember	3425
ethinyl	3425
cil	3424
specification	3424
SON	3424
allocated	3424
fying	3424
CAPSULES	3423
exclude	3423
dispersion	3423
Hypoglycaemia	3422
surgeon	3422
RO	3422
Fondaparinux	3421
Short	3421
post-	3420
infusion-related	3420
311	3420
257	3419
assist@@	3419
Flebogammadif	3419
sely	3418
constitutes	3418
mammalian	3418
salmeterol	3417
node	3417
notification	3417
collagen	3417
hygiene	3416
ament	3416
album@@	3415
vast@@	3415
092	3415
micro-organisms	3414
chances	3414
womb	3414
transplanted	3414
descri@@	3413
Ash@@	3413
arma	3413
∞	3413
brid@@	3412
NVR	3412
ice-@@	3412
ROUTE	3411
practically	3411
Ax@@	3411
Slovak	3410
ská	3409
mesto	3409
lear@@	3408
defic@@	3407
ASSOCIATED	3407
achievements	3406
aller@@	3405
sings	3405
institute	3404
overload	3403
milestone	3402
Kit	3402
Printing	3401
Servier	3400
ux	3399
asm	3398
EE	3398
hypothyroidism	3398
Lou@@	3395
zeta	3395
ingham	3394
4,000	3394
aments	3394
Higher	3394
checking	3394
demonstrating	3392
genes	3392
entally	3392
NL-@@	3391
VEN@@	3391
succ@@	3391
approximate	3391
loop	3390
formally	3389
follicle	3389
Farmacêuticos	3388
Orange	3386
galactose	3385
hypoaesthesia	3385
barrel	3385
poorly	3384
prostatic	3384
Cardiovascular	3383
comprised	3383
00.00	3382
micafungin	3382
medically	3382
disposition	3381
subgroups	3380
swit@@	3380
Dun@@	3380
vic	3379
pig	3378
Tours	3378
ès	3377
Orfadin	3375
stering	3375
wel	3374
Oil	3373
CONCLUSIONS	3372
UM	3372
Organization	3371
haematoma	3371
Chang@@	3371
EVICEL	3371
anakinra	3370
group@@	3370
silent	3370
Labelling	3369
Teл	3369
intrathecal	3369
febuxostat	3369
referring	3368
tention	3367
rectal	3366
dystonia	3366
adjunct	3366
treat@@	3365
Inactivated	3363
Inhal@@	3362
sampling	3362
º	3361
DL	3361
Spo@@	3361
Kent	3361
SL	3360
AZILECT	3360
stabil@@	3359
consumed	3359
P.@@	3358
reactivation	3358
Ig@@	3357
rigors	3356
cylinder	3356
steroid	3356
alis	3355
Plas@@	3355
uncertain	3354
jer@@	3353
allen@@	3353
polyps	3352
2377	3352
eo@@	3352
2309	3352
atively	3351
ase-@@	3351
62@@	3348
morphine	3348
32.@@	3348
Yttrium	3346
toxicology	3346
omas	3346
easi@@	3343
issu@@	3342
mistake	3342
Wo	3341
maj@@	3340
SEN	3338
governing	3338
questionnaire	3337
chang@@	3337
KIU	3337
commit	3336
hrs	3336
lamps	3335
indicative	3335
Notes	3334
307	3334
VIALS	3333
sable	3333
trimethoprim	3333
enoxaparin	3332
Lyme	3332
breathe	3331
mel	3331
Synagis	3330
fesoterodine	3329
tively	3329
oline	3329
José	3328
phosphokinase	3328
VER@@	3327
Tel@@	3326
Daronrix	3326
Aloxi	3325
CHO	3324
benzalkonium	3324
REGRANEX	3323
patho@@	3322
obesity	3322
277	3322
TT@@	3321
genesis	3320
smell	3320
265	3319
il-@@	3317
polyvinyl	3317
standar@@	3316
retain	3316
insertion	3315
slide	3315
Arthralgia	3314
Pure	3314
Provi@@	3313
predictive	3313
postmarketing	3313
dine	3311
Recommended	3311
rapporteurs	3311
Herpes	3310
histamine	3309
PER@@	3307
enia	3305
22-@@	3303
Jean-@@	3303
10.0	3303
marking	3301
buffer	3301
ppm	3301
lacking	3300
ergot	3300
vegetable	3299
propyl	3299
unaffected	3298
isk@@	3298
introducing	3297
decentralised	3296
organism	3295
DG	3295
Trading	3294
lifestyle	3293
renin	3293
sur	3293
Sign@@	3292
particip@@	3291
lex@@	3290
extraction	3290
Allow	3289
plastics	3289
Altargo	3288
locked	3288
ING@@	3288
reddening	3288
GA@@	3287
revi@@	3287
Chap@@	3287
Berkshire	3287
failures	3286
definite	3286
322	3286
CU@@	3285
ér@@	3285
IGF-1	3285
hydrolysis	3284
SPECIAL	3284
ł@@	3284
Faslodex	3282
pharyngitis	3282
placenta	3282
hypotensive	3282
Optimark	3282
oth	3279
aking	3279
jug@@	3278
Hazard	3277
VIRBAC	3277
Sto@@	3277
hypo	3277
atis	3277
biphasic	3277
1.73	3276
acity	3276
manually	3276
SOLVENT	3276
Conn@@	3276
logists	3275
Eth@@	3274
timely	3274
Survival	3274
mem@@	3273
8,000	3272
hasn	3272
embossed	3272
Avaglim	3271
supplementation	3271
bent	3271
Concurrent	3271
seri@@	3271
Hun@@	3270
prominent	3270
Trial	3270
reflecting	3270
Metalyse	3269
Concept	3269
cy	3267
packaged	3266
excell@@	3265
siz@@	3265
Paroxetine	3265
particle	3265
decides	3265
fails	3265
aric	3263
Value	3260
30-2@@	3259
26-@@	3259
omic	3258
glucose-galactose	3258
pit	3258
LDL-C	3257
crystalline	3256
7000	3256
Tam@@	3255
WITHOUT	3255
Glo@@	3255
clinic	3255
uncertain@@	3255
addressing	3255
imbalance	3253
ELISA	3253
Introduction	3252
heavily	3251
Hampshire	3251
familial	3251
-containing	3250
anterior	3250
347	3250
Propylene	3250
336	3249
С@@	3248
eph@@	3248
39-@@	3247
breathlessness	3245
coordinate	3245
264	3244
1A	3243
crush	3242
Imm@@	3241
haematocrit	3241
pharmacy	3240
diclofenac	3240
inhibited	3238
Targretin	3238
circ@@	3238
warts	3237
367	3237
Benelux	3236
2,5	3235
ý	3234
Jan@@	3234
Lang@@	3234
syndromes	3234
estab@@	3233
matched	3232
ave	3231
bromide	3231
alpha-@@	3230
ugh	3230
dopaminergic	3230
241	3230
Almost	3230
rebound	3228
mix@@	3227
secured	3227
definitive	3226
constitution	3226
AE@@	3226
ulations	3226
proportions	3226
warrant	3226
apparently	3225
roun@@	3225
Michel@@	3225
thor@@	3224
CO-@@	3222
octocog	3222
Xenical	3221
anal	3221
amin	3221
diltiazem	3221
blocker	3220
alternatives	3219
TESLASCAN	3217
thromboembolism	3217
BP@@	3217
emission	3217
beats	3216
OM	3216
EURO@@	3216
ox	3216
210@@	3215
libr@@	3215
oblong	3215
ential	3215
organise	3214
exo@@	3214
NNRTIs	3213
brac@@	3213
undertake	3212
ao	3212
constitutional	3211
filters	3211
uria	3210
onary	3209
Glass	3209
nitrates	3209
Impro@@	3209
414	3209
act@@	3209
Malaysia	3208
accomplished	3207
plenary	3207
Revasc	3207
Sm@@	3206
light-@@	3205
640	3204
cia	3204
SD@@	3204
Bag@@	3204
chol@@	3203
Rarely	3201
FORM	3201
Dev@@	3201
formulated	3200
red-@@	3199
ulcerative	3199
HER2	3199
rix	3198
Sul@@	3198
Las@@	3197
amoxicillin	3197
ci	3197
theless	3196
Var@@	3195
Cats	3195
glucocorticoids	3195
SN@@	3194
Biotechnology	3193
sec	3193
rim	3192
plex	3190
Injections	3189
accidents	3189
Stability	3189
Hop@@	3189
Regulations	3188
Der@@	3188
metic	3188
116@@	3187
restarted	3186
¤	3184
half-lives	3183
cytogenetic	3183
equivalence	3183
confused	3182
benefit-risk	3182
ia-@@	3182
bot@@	3182
Tab	3180
б@@	3179
completing	3179
reinforced	3177
networking	3177
Prepandrix	3176
272	3176
unconsciousness	3176
incomplete	3175
fosaprepitant	3174
MRFG	3174
1g	3174
Lisonorm	3174
Trocoxil	3174
042	3173
9.9	3173
By@@	3172
Hav@@	3172
Injecting	3171
Sitagliptin	3171
silicon	3171
Emtricitabine	3170
Certain	3170
stoppers	3169
bud@@	3168
cio	3168
cladribine	3168
injuries	3168
ny@@	3167
thesis	3167
Haematological	3166
92@@	3166
OHSS	3166
resume	3166
crises	3164
conven@@	3164
partner@@	3164
derm@@	3161
normalisation	3159
ι@@	3158
TIC@@	3157
ARD	3156
tens	3156
flora	3155
metric	3154
rinse	3154
bra	3153
23-@@	3153
prev@@	3152
Jean	3151
rupt	3151
AstraZeneca	3151
IL	3150
038	3150
037	3150
DK	3149
subset	3149
build-up	3149
degeneration	3149
realise	3148
tten	3148
prehen@@	3148
6,000	3148
simpli@@	3147
Green@@	3146
0.02	3146
retained	3146
matches	3145
fing@@	3145
Component	3144
investigating	3144
625	3143
idate	3142
abortion	3142
3.75	3141
minim@@	3140
declined	3140
Individual	3140
Per	3139
leukopenia	3139
ferry	3138
bleeds	3138
LIN@@	3137
34-@@	3137
moul@@	3136
3-5	3136
eme@@	3135
blend	3134
1.7@@	3134
gene@@	3133
¶	3133
ulty	3133
officer	3133
Holland	3132
lers	3132
Post-@@	3132
heit	3132
hosted	3130
pour	3130
pill	3130
arro@@	3129
mic	3128
BEROMUN	3128
Minimum	3127
pegfilgrastim	3127
355	3127
cyanide	3126
rak@@	3126
1-	3124
After@@	3124
accep@@	3124
P-glycoprotein	3124
multocida	3123
soya	3123
durable	3123
NE	3123
Summaries	3122
computer@@	3122
KRAS	3121
sorafenib	3121
475	3121
outlined	3120
yellowish	3120
rested	3120
slower	3119
objections	3119
Nevirapine	3119
awaited	3118
cholestasis	3118
Hospital	3118
daptomycin	3117
conveni@@	3116
metacresol	3116
stamp@@	3116
fats	3116
312	3115
Pergoveris	3115
analytical	3115
urely	3115
degarelix	3114
Unless	3114
measurable	3114
Alert	3114
scans	3114
once-daily	3114
plas@@	3113
ughly	3113
obser@@	3112
purple	3112
-2-@@	3110
machin@@	3110
Neither	3110
inher@@	3110
Shire	3110
analgesics	3110
999	3109
failing	3109
utions	3108
possess	3108
Vilnius	3108
266	3107
hex@@	3106
spot-on	3106
hydration	3106
pled	3105
NET	3105
techni@@	3105
kin	3104
BW	3104
impotence	3104
aste	3104
PTH	3103
Te	3102
era@@	3102
promotes	3101
Authorities	3101
fem@@	3100
altogether	3100
cautiously	3099
PP@@	3099
paraffin	3098
Start@@	3098
mol	3098
XX	3095
187	3095
urred	3095
Clearance	3094
referen@@	3094
lifetime	3093
interventions	3092
pre	3092
deliver@@	3091
withheld	3091
Measure@@	3091
stretch	3090
litter	3090
pelvic	3089
substitutes	3088
TSH	3087
tinnitus	3087
д@@	3086
ika	3086
EM	3084
Tax@@	3084
Α	3083
Middlesex	3081
follow@@	3081
33-@@	3081
verapamil	3080
instruc@@	3079
avoiding	3079
Rub@@	3077
triazolam	3077
Cough	3077
systematically	3076
Crixivan	3075
thal@@	3075
TRA@@	3075
Valsartan	3075
s-	3074
73@@	3074
persists	3073
Reconstitution	3073
tex	3072
305	3071
Lansoprazole	3071
gsk.com	3070
recommending	3070
eled	3069
sors	3069
usti@@	3069
Rifampicin	3069
Beromun	3068
anidulafungin	3067
Jen@@	3067
nau@@	3067
lymphadenopathy	3066
tolcapone	3066
sulph@@	3066
Target	3065
0.50	3064
nav@@	3064
limitation	3063
Groups	3063
Lane	3062
lutropin	3062
giant	3061
tik	3061
alising	3059
extrac@@	3059
Various	3059
10.5	3058
phenomena	3057
trihydrate	3057
Schwar@@	3057
gras@@	3057
haemo@@	3056
rey	3056
chains	3055
Clomicalm	3055
2.00	3055
ILP	3054
contro@@	3053
itude	3053
pleural	3053
semen	3052
Česká	3052
senten@@	3051
phy@@	3050
OL	3049
doubled	3048
sement	3047
castor	3046
clicks	3046
recommends	3046
shelf	3046
ram@@	3044
fur	3044
Sig@@	3043
499	3043
nig@@	3042
ds@@	3041
prophylactic	3041
high-dose	3040
knob	3040
238	3039
278	3039
puncture	3039
kinetics	3038
2500	3037
eaten	3037
decompensation	3036
29-@@	3036
EW	3035
Flushing	3034
pimecrolimus	3033
GIVEN	3033
Evohaler	3031
life@@	3031
Haarlem	3030
Competent	3030
rhinotracheitis	3029
charcoal	3028
Gelatin	3028
provo@@	3028
eosinophilia	3027
Riga	3027
Inte@@	3026
Male	3025
MD@@	3025
WS	3024
Statement	3024
545	3024
Reserve	3023
BAS@@	3023
262	3022
push-button	3022
HEXAVAC	3020
VASOVIST	3019
Hg	3019
MAHs	3019
progression-free	3019
retinopathy	3019
Rhe@@	3018
Janssen-Cilag	3018
extremity	3017
Ratiopharm	3017
illy	3017
lides	3016
Guideline	3016
252	3016
pep@@	3015
eps	3015
lipids	3014
-to-@@	3014
methylnaltrexone	3014
Thir@@	3014
aPTT	3013
EM@@	3013
Warning	3013
BD@@	3012
myelosuppression	3012
302	3012
immer@@	3011
9.8	3009
Resul@@	3008
Dyspnoea	3007
EME@@	3007
tabletten	3006
-term	3005
osteonecrosis	3005
polysaccharide	3004
WA@@	3004
mand@@	3004
Reduced	3004
Average	3003
4-6	3003
Relative	3003
postural	3003
physically	3002
Medicine	3001
ustin	3001
tutes	3001
favor	3001
peeling	3000
gains	3000
satisfactorily	2999
fini@@	2999
PCR	2999
fetal	2999
TM@@	2998
spra@@	2998
cohort	2997
obtaining	2996
ttle	2996
progenitor	2994
absor@@	2993
TY	2992
Ø	2992
rob@@	2991
abs	2991
child@@	2991
abandoned	2991
appearing	2988
IOP	2987
TIN	2986
formerly	2985
Santé	2985
NMS	2985
inet@@	2984
anthracycline	2983
polic@@	2982
panic	2982
nica	2982
notify	2982
KE@@	2980
touching	2979
connects	2979
Sildenafil	2979
HI	2978
suspicion	2978
correspon@@	2977
distinct	2975
embryonal	2975
t1	2974
tim	2973
manifested	2973
NG	2973
Post-marketing	2972
2C9	2972
Emil@@	2972
non-clinical	2971
Da	2970
rosuvastatin	2970
delivering	2969
289	2968
Recent	2968
rufinamide	2966
darifenacin	2966
282	2965
NYHA	2965
in-	2965
cloth	2964
WINTHROP	2964
HBsAg	2964
LV@@	2964
G1	2964
cystic	2963
Water@@	2963
Failure	2962
riluzole	2962
Ec@@	2961
refrigerated	2961
deferiprone	2960
emerged	2959
prone	2959
surve@@	2958
329	2958
È@@	2958
Gil@@	2956
placement	2956
Cephalon	2956
resonance	2956
batches	2956
295	2955
melatonin	2955
lled	2954
kyo	2954
stria	2954
adversely	2954
Communications	2953
pride	2953
3-	2952
agon@@	2951
shellac	2951
rapid@@	2951
rays	2950
olation	2949
palivizumab	2949
erate	2949
055	2949
faecal	2948
ORAL	2947
Industrie	2947
Ä	2947
itted	2944
adjacent	2944
387	2944
endorsed	2943
75-@@	2941
inflamed	2941
principally	2940
histo@@	2940
hospitals	2938
carriers	2938
utory	2938
Position	2938
-in	2938
Aclar	2937
neuritis	2937
analgesia	2937
Weeks	2937
Ster@@	2936
chromosome	2936
purity	2936
tha@@	2935
Infra@@	2935
Concerned	2935
UG@@	2935
texture	2934
Non@@	2934
Ple@@	2934
ratios	2932
dar	2930
Loss	2929
zy@@	2929
NS	2929
life-@@	2929
OÜ	2928
Lundbeck	2928
clumps	2928
gestion	2927
Amgen	2926
OD	2925
CMV	2924
cetirizine	2923
Focetria	2922
contra-indicated	2921
additionally	2921
BU@@	2921
potentiate	2920
Practice	2920
palm	2919
B12	2919
MAOIs	2918
Atorvastatin	2918
examining	2917
lasofoxifene	2917
0,5	2917
Pandemrix	2917
IgE	2916
gamma	2916
similarly	2915
receiv@@	2915
Somatropin	2915
ather@@	2915
Oxyglobin	2915
Myalgia	2915
ustekinumab	2915
thrombocytopenic	2914
eudra.	2914
mirtazapine	2913
epistaxis	2913
squamous	2913
051	2912
Velosulin	2912
Tallinn	2909
SPE@@	2909
enty-@@	2909
Ï@@	2909
Z-@@	2908
doripenem	2908
254	2907
oric	2907
kap@@	2907
Officer	2907
Pruritus	2907
formations	2906
reteplase	2906
Stocrin	2904
preservatives	2904
milligrams	2903
natalizumab	2903
undetectable	2903
EGFR	2902
superiority	2902
Notice	2902
genetically	2902
cluding	2900
451	2900
tendon	2898
Revision	2897
Status	2897
hydroxy@@	2897
differentiation	2895
behaviours	2895
Compan@@	2895
Ltd.	2895
Î@@	2893
assured	2892
digit@@	2892
chambers	2891
Fro@@	2891
restric@@	2891
post-operative	2890
essen@@	2890
aire	2889
Mün@@	2889
LIST	2889
Bru@@	2888
SureClick	2886
patch@@	2886
Presentation	2886
conservative	2886
Boulevard	2885
SSRIs	2885
GS@@	2884
drainage	2884
lipase	2883
335	2883
TU@@	2883
Organon	2883
mean@@	2882
GRE@@	2882
Rece@@	2882
ossification	2881
etro@@	2881
grouping	2881
ku	2880
icians	2879
Educational	2878
hexa	2878
feed@@	2877
484	2877
informal	2876
aspergillosis	2876
noc@@	2875
Personnel	2875
diff@@	2874
psy@@	2874
individu@@	2874
Croscarmellose	2872
itates	2872
folding	2871
subscription	2871
raz	2871
itte@@	2871
orb@@	2871
opalescent	2871
BMI	2871
TV@@	2871
bleed	2870
arities	2870
Aivlosin	2869
ten-@@	2869
Cystadane	2868
Weekly	2868
Angiotensin	2868
compassionate	2867
tta	2867
80-@@	2866
extravasation	2865
Intramuscular	2865
child-resistant	2863
501	2863
lifting	2863
encour@@	2863
NSCLC	2862
panitumumab	2861
Espoo	2861
expose	2861
hydroxocobalamin	2861
thinks	2860
Harmonisation	2859
ř@@	2859
MIN@@	2859
propag@@	2858
TEC	2858
AbZ	2858
ZO@@	2857
Num@@	2857
water-@@	2857
Absolute	2856
intoxication	2856
Prac-tic	2856
Shelf	2856
CAP	2856
haemolysis	2855
339	2855
Implementation	2854
-resistant	2854
Parts	2854
exterior	2854
sided	2853
3116	2853
wav@@	2853
confirms	2851
sneezing	2851
rupture	2850
oxidative	2850
Certific@@	2849
226	2849
displacement	2849
uterus	2848
suspect	2848
LD	2848
templates	2848
Particular	2847
alg@@	2847
eda	2846
ü	2845
tubing	2845
Whit@@	2844
ashes	2844
Normal	2843
giv@@	2843
cm2	2843
divide	2842
nutritional	2842
CYP@@	2842
inverted	2841
COUN@@	2840
AML	2840
apping	2839
sweet@@	2839
Caucasian	2838
Handling	2838
sil	2838
headed	2837
predictable	2837
mobilisation	2837
anxious	2836
naloxone	2835
chew	2834
246	2834
vigorously	2833
ographic	2832
nar@@	2832
cipation	2832
µmol	2831
442	2830
dus	2829
520	2829
reconstitute	2828
fluoro@@	2828
acetic	2828
Exposure	2828
sulfate	2827
Beh@@	2827
aero@@	2824
RCP	2824
vals	2823
adrenergic	2823
localised	2823
DK-2@@	2822
E464	2822
avia	2822
infra@@	2822
gment	2821
chlor@@	2821
ici	2821
prop@@	2820
.Ε.	2820
sunitinib	2820
chemically	2819
Bulg@@	2819
ules	2818
Pylobactell	2818
piglets	2817
divi@@	2816
Terfenadine	2816
marg@@	2815
discretion	2815
habits	2815
Va@@	2815
Pre-filled	2814
pulled	2814
STRONGHOLD	2814
Al-@@	2814
oesophagus	2814
Dep@@	2813
stiripentol	2813
spironolactone	2812
attempted	2812
organisational	2812
Cit@@	2811
Mann@@	2810
Alopecia	2810
Term	2810
Vien@@	2808
Neopharma	2807
distant	2805
recall	2804
244	2804
transferase	2804
adjusting	2804
Four@@	2804
Ã@@	2804
sium	2803
Meetings	2803
Deep	2802
inver@@	2800
Contro@@	2800
nominal	2800
solving	2800
Arrow	2798
MENT	2798
laboratories	2798
Kap@@	2798
Farma	2798
gum	2797
Sed@@	2797
Leave	2796
tick	2795
polyamide	2795
Six	2794
cardiomyopathy	2793
Sle@@	2792
anti-epileptic	2790
tended	2790
follicles	2790
Whilst	2788
365	2788
rial	2787
monkey	2787
4-fold	2785
Others	2784
compul@@	2784
defini@@	2784
healed	2784
bepridil	2784
Paget	2783
apest	2782
urgency	2781
hout	2780
─	2780
AA	2779
graduate	2778
Insti@@	2778
alternate	2778
ergotamine	2778
elles	2777
sleep@@	2776
Alcon	2776
lymphoid	2776
grading	2776
Potential	2776
fragile	2776
fulness	2776
HCV-RNA	2775
encomp@@	2775
-10@@	2775
edly	2774
demonstr@@	2774
Administer	2773
ma-@@	2772
conception	2771
terminals	2771
solved	2771
epithelial	2770
304	2770
п@@	2769
Тел	2768
Carbaglu	2768
europa@@	2768
0.12	2767
psychotic	2767
polymer	2766
Zone	2766
v-@@	2766
defining	2765
ì	2765
Electronic	2764
beta-1b	2764
pigment	2764
impro@@	2763
medinfo	2763
SYRINGES	2763
coadministration	2763
pups	2763
dibasic	2763
1,8@@	2763
sdor@@	2762
tricyclic	2762
pec@@	2761
AVAGLIM	2761
TRACTOCILE	2761
breast-	2760
Coordination	2759
tracts	2759
E421	2759
Anorexia	2759
conjunctival	2759
NNRTI	2759
exceptionally	2758
pupils	2758
placental	2758
virion	2758
399	2758
vice-@@	2757
differential	2757
SAS	2756
Examples	2755
calculations	2754
labyrinth	2754
agram	2754
PERF	2754
MRP	2753
vni@@	2753
actu@@	2751
Insomnia	2750
buccal	2748
Pharmac@@	2748
electrocardiogram	2747
epileptic	2746
303	2746
Α@@	2746
Pseudomonas	2745
locks	2745
reover	2745
peptic	2743
harmonise	2742
yl-@@	2742
Alternative	2740
Moderate	2739
Card@@	2737
Noti@@	2736
folic	2736
canal	2736
oping	2735
indigo	2735
IC50	2735
hlen	2733
repub@@	2732
ias	2731
meg@@	2731
Guid@@	2730
Nobivac	2729
glucosamine	2729
Vari@@	2729
triggered	2729
bott@@	2729
Barbara	2728
maintains	2728
Gel@@	2728
Colour	2727
macrolide	2727
fluvoxamine	2725
ße	2725
asth@@	2725
dynamics	2724
268	2724
esel@@	2724
xiliary	2723
pneumococcal	2723
AMD	2723
comprimidos	2723
bag@@	2723
lactase	2722
Edifício	2722
pulling	2722
interrupt	2722
achi@@	2721
foetuses	2721
non-small	2721
1.00	2720
health@@	2720
anti-HBs	2719
Mec@@	2719
crossover	2719
ork	2719
Patrick	2718
mutagenicity	2717
Hikma	2716
Disinfect	2716
281	2716
298	2715
ance-@@	2715
TOTAL	2715
inhe@@	2714
intranasal	2714
Different	2714
inic	2713
wild-type	2713
1A2	2713
borg	2713
abrupt	2713
Co-@@	2712
ando	2712
700@@	2712
076	2712
placebo-	2711
lus	2710
hunger	2709
lysis	2709
Sus@@	2709
343	2708
Repeated	2707
1-3	2707
vaccinees	2707
Amlodipine	2707
LT	2706
nas@@	2706
Meloxicam	2706
Gy@@	2706
B2	2706
foreseen	2705
pocket	2704
rocuronium	2703
UC@@	2702
beating	2702
pus@@	2701
Thi@@	2701
Accidental	2701
liament	2699
relates	2697
accompany	2697
donation	2697
hallucination	2697
Fluid	2697
angioneurotic	2696
energy-@@	2696
WBC	2695
TW@@	2694
Y-@@	2694
Coated	2694
passages	2693
253	2693
complementary	2693
igure	2693
512	2692
recipient	2691
oestrogens	2691
skull	2691
flare	2690
five-@@	2690
fos@@	2690
dryness	2690
RESPONSIBLE	2688
emerge	2688
distinguish	2687
530	2686
0.4@@	2686
psychosis	2686
bypass	2685
depri@@	2685
extracted	2685
Ris@@	2683
Sac@@	2683
ssen@@	2681
AZ@@	2680
inator	2680
Foc@@	2679
foaming	2679
PID	2679
CRI@@	2677
Doctor	2677
rigid	2677
kus	2677
711	2676
micronucleus	2675
063	2674
vag@@	2674
Radio@@	2673
dilute	2673
ip	2672
-mediated	2672
SPA	2671
462	2671
AUC@@	2671
Å@@	2670
Slowly	2670
nominated	2670
feren@@	2670
zonisamide	2669
ortho@@	2669
ained	2669
nozzle	2669
substitutions	2668
infiltrates	2668
amnesia	2668
ffee	2667
fluoroquinolones	2666
missible	2666
Sustiva	2666
ol-@@	2665
pha	2664
applicator	2664
serotype	2664
pyri@@	2663
deposits	2663
nateglinide	2662
correlated	2661
zk@@	2661
Registry	2661
azathioprine	2660
Paste	2659
evaluable	2659
INVENTED	2658
Cardoreg	2658
circulatory	2658
HDL	2658
narrowing	2658
и	2658
COR@@	2657
Lansoprazol-ratiopharm	2656
agalsidase	2656
aled	2656
A771726	2655
firm@@	2655
Life@@	2654
OM@@	2654
edetate	2654
probability	2653
iving	2653
routinely	2653
builds	2652
tting	2651
lacks	2650
Ask@@	2650
ACS	2649
TER@@	2649
Til@@	2648
Tas@@	2647
Lac@@	2646
straat	2645
Lot	2645
non-smoking	2645
ejaculation	2645
probable	2644
GL@@	2644
repor@@	2643
proportion@@	2642
troub@@	2642
Marath@@	2642
-28@@	2641
erous	2639
valves	2639
bis@@	2637
glut@@	2636
Oli@@	2636
COPD	2636
expects	2635
distribute	2634
oxidation	2634
interven@@	2634
anese	2634
1.	2633
Fixed	2633
brochure	2633
71@@	2633
lock@@	2632
Lactic	2631
Biogen	2631
Os@@	2630
budgets	2629
Emb@@	2629
determines	2628
eous	2628
tained	2627
amil@@	2627
rotation	2627
Bot@@	2627
hyperhidrosis	2627
UA	2626
у@@	2626
histological	2626
sheim	2626
PV@@	2625
RIX	2625
tabletter	2625
differs	2624
nephropathy	2623
435	2623
decompensated	2622
A2	2622
metronidazole	2622
fibrin	2622
14C-@@	2621
š	2621
RMS	2621
inn	2620
allopurinol	2620
simil@@	2620
Rou@@	2620
MANUFACTURING	2619
Fif@@	2619
Arg@@	2619
vec@@	2618
prednisolone	2618
49-	2618
EMADINE	2617
sealing	2617
penetration	2616
bow@@	2616
nilotinib	2615
comparisons	2615
bubble	2614
E218	2614
LVEF	2614
palonosetron	2613
hyponatraemia	2613
tenecteplase	2613
crosses	2612
intrinsic	2612
alcoholic	2612
anco	2611
EUROPEAN	2611
ival	2611
draf@@	2611
Shelf-life	2610
Cambridge	2609
disorientation	2609
E420	2609
intercourse	2608
Py@@	2608
haemagglutinin	2608
flushed	2607
resear@@	2607
HUMALOG	2606
fibre	2606
Hexavac	2606
Wellcome	2606
reversal	2606
Tol@@	2605
In-@@	2605
exenatide	2605
Darunavir	2604
chloro@@	2604
exfoliative	2604
Procedures	2604
laurilsulfate	2603
Industries	2603
567	2603
warned	2602
spreading	2601
skip	2601
Michel	2600
re-evaluated	2600
newborns	2599
eta@@	2599
post-dose	2598
MC	2597
body@@	2597
folate	2596
Prequenza	2595
rotate	2595
Dex@@	2595
stabilisation	2594
slowing	2594
monit@@	2594
criterion	2594
aut	2593
pads	2593
enhances	2593
228@@	2593
Whereas	2592
Cellulose	2592
B-1180	2592
recognises	2591
pathic	2591
Operation	2590
NR@@	2590
manifest	2589
endothelial	2589
lipoprotein	2588
frame@@	2587
unw@@	2586
s.r.o.	2586
Ny@@	2586
domains	2586
resin	2586
LES	2585
constituted	2585
coding	2584
turkeys	2584
Precautions	2583
10.1	2583
Pompe	2583
undergone	2582
refusal	2582
lecithin	2582
dive	2580
dex	2580
distension	2579
MR	2578
smokers	2578
36-@@	2578
2.	2577
334	2577
co-ordination	2577
33.@@	2576
revie@@	2574
suppress	2574
erythematosus	2574
meth@@	2573
TAR@@	2572
413	2572
Reconstitute	2571
youn@@	2571
Idec	2571
haloperidol	2570
plying	2570
glyco@@	2569
convincing	2569
crossed	2568
Sudden	2568
Cycle	2567
para	2566
hypomagnesaemia	2566
renally	2565
1.75	2564
Gram-negative	2564
deltoid	2564
high-risk	2562
Mycoplasma	2562
SQUIBB	2562
neurotoxin	2562
GAR@@	2561
Making	2561
Percent	2561
imer	2561
defective	2560
retrospective	2560
Withdrawal	2559
Hair	2559
MULTIPACKS	2559
fea@@	2558
spinning	2558
ss-@@	2558
gums	2557
Platelet	2557
leaf	2557
2D6	2556
tid	2556
conjugation	2556
compression	2555
post-authorisation	2555
pancytopenia	2554
import@@	2554
emesis	2554
SR	2554
μ@@	2553
beige	2553
ankles	2553
sole@@	2553
regulate	2552
pup@@	2552
desirudin	2551
eping	2550
Thereafter	2550
abund@@	2550
ecu@@	2550
proble@@	2550
Lansoprazol-CT	2550
326	2550
cardio@@	2549
retina	2549
E2	2548
laan	2548
Lip@@	2548
No.@@	2548
485	2548
haematologic	2548
orities	2547
pseudo@@	2547
ily@@	2546
persistence	2545
typ@@	2543
12.0	2542
efs	2541
ranked	2541
Sustained	2540
Bene@@	2539
Mea@@	2538
secretariat	2538
prim@@	2537
freez@@	2537
uncomfortable	2537
mating	2537
HUMAN	2536
apnoea	2536
implants	2536
Utrecht	2536
empirical	2536
sies	2535
haz@@	2534
restart	2534
effec@@	2534
581	2531
contractions	2531
BWP	2531
donate	2531
single-use	2530
Pugh	2530
olysis	2530
predominant	2529
scales	2529
Hydro@@	2529
PU@@	2529
cus@@	2529
wheat	2529
Laboratoires	2529
Trib@@	2529
DVT	2528
HDL-C	2528
kne@@	2527
redistribution	2527
noon	2527
heal	2526
291	2526
bovine	2524
CY	2524
Leu@@	2524
latex	2523
Nar@@	2523
retardation	2523
Enlar@@	2523
justification	2523
individualised	2522
RT@@	2522
thermo@@	2522
inous	2522
rier	2521
off-@@	2520
selectively	2519
OL@@	2519
resuspending	2517
haemostasis	2516
resist@@	2514
BOX@@	2514
alkaloids	2514
auce	2513
TIONS	2513
Excretion	2512
E216	2512
Consult	2512
DUKORAL	2511
Reyataz	2511
BRISTOL-MYERS	2511
ACTIVE	2510
Female	2510
WOR@@	2509
haematuria	2509
Anaphylactic	2509
BOTOX	2508
ularity	2508
accor@@	2508
ibr@@	2507
cesta	2507
013@@	2507
Metformin	2507
Tony	2507
CES	2506
043	2506
Spot-on	2506
mitig@@	2506
belly	2506
Gon@@	2505
agomelatine	2505
cysteamine	2505
Range	2504
hyperlipidaemia	2504
clastogenic	2504
ò	2504
Lapp	2503
SAFE	2503
Proce@@	2503
382	2502
preferable	2502
aze	2501
replac@@	2501
poc@@	2501
durability	2500
5-10	2500
ranelate	2499
gastro-intestinal	2499
Reconstituted	2499
396	2499
aggreg@@	2498
multiple-dose	2498
edema	2498
desirable	2497
blinded	2497
Fernando	2496
ATION	2495
Ket@@	2494
RCPCh	2492
viable	2492
610	2492
robenacoxib	2492
10.6	2492
Magn@@	2491
daytime	2491
toes	2490
Apo@@	2490
sweat	2489
glycolate	2488
arily	2488
г@@	2488
relatives	2488
minimize	2485
in-house	2485
potenti@@	2485
intent	2484
paracetamol	2484
FRANCE	2483
re-	2483
optimise	2482
validation	2482
entre	2482
379	2481
murine	2481
Pom@@	2481
oid	2480
361	2479
anthracyclines	2478
visceral	2478
Consideration	2478
Laboratoire	2477
BM	2477
Expert	2477
L1	2477
consume	2476
andro@@	2476
dip@@	2475
Viracept	2475
212@@	2475
Erythema	2474
BC@@	2472
pe-@@	2472
deciding	2471
microbial	2471
394	2471
az	2471
Sandwich	2470
D-8@@	2469
CrCl	2469
Fluoxetine	2468
ots@@	2467
oste@@	2467
yn	2467
MF	2466
ο@@	2466
risk-benefit	2466
Sofia	2465
stream@@	2465
anti-cancer	2465
sticky	2464
263	2464
Cardboard	2464
Proteus	2464
FIN@@	2463
Pag@@	2463
AX@@	2463
Bordetella	2463
LTD	2463
aris	2462
systemically	2462
plateau	2462
immunocompromised	2461
postoperative	2461
stimulated	2461
HT	2461
anticholinergic	2461
Occasionally	2461
b.i.d.	2461
hion	2460
44-@@	2460
phenylbutyrate	2460
LIPROLOG	2459
RAN@@	2459
bio	2459
Horses	2459
Dav@@	2459
Gram-positive	2458
Squ@@	2457
Crestor	2456
unbound	2456
fragments	2456
intermedi@@	2456
423	2455
Voriconazole	2455
Gabapentin	2455
065	2454
attending	2454
Phar@@	2454
radic@@	2454
Attach	2453
cynomolgus	2453
Infants	2453
EP	2452
Jones	2451
alled	2451
bitter	2451
irinotecan	2451
Documentation	2450
cysts	2450
5-	2449
INJECT	2449
deficiencies	2449
pneum@@	2448
spike	2448
Related	2448
arac@@	2448
Sifrol	2448
11.5	2448
Q-@@	2447
Improvement	2446
Wed@@	2446
travoprost	2446
reliably	2445
anion	2445
2C19	2444
small@@	2444
TRO@@	2444
ISBN	2444
evo	2444
bimatoprost	2444
ERS	2443
efalizumab	2443
bal	2443
ductus	2443
enza	2442
Concentrate	2442
icar@@	2442
immunosuppressants	2442
gress	2441
Behring	2440
SG	2440
ught	2440
gen-@@	2440
GP	2439
preventive	2439
Om@@	2439
sickle	2439
Jacqu@@	2438
enne	2438
Aer@@	2438
harve@@	2438
vaccinate	2437
Actelion	2436
elective	2436
seals	2435
ister	2434
001-@@	2434
Colonel	2433
ored	2433
Sep@@	2432
myasthenia	2432
DER	2431
3350	2430
prolactin	2430
GS	2430
444	2430
illustrated	2430
aeruginosa	2430
infor@@	2429
per-@@	2429
colouring	2429
intensified	2429
sows	2428
Smoking	2428
Canc@@	2428
erec@@	2427
Peri@@	2427
paren@@	2426
biochemical	2425
glioma	2423
tana	2423
Viral	2422
multinational	2422
Herbal	2421
Tab@@	2421
490	2421
encountered	2421
contaminated	2420
Occ@@	2420
Toxicity	2420
carboplatin	2420
ography	2420
ician	2420
ND	2419
scar	2418
ectively	2418
Aujeszky	2418
micro-@@	2418
andr@@	2417
259	2417
adrenaline	2417
BSA	2417
286	2417
0.65	2417
involuntary	2417
dihydroergotamine	2416
sequelae	2415
503	2415
12-week	2415
beverages	2415
nebuliser	2414
Score	2414
Lyophilisate	2414
CCID50	2414
chromosomal	2413
342	2413
Budget	2412
vable	2412
CY@@	2412
Generalised	2411
INTERMEDIATE	2411
Connect	2411
lymphocyte	2411
retar@@	2410
myelodysplastic	2410
Recovery	2410
CSL	2409
antihistamine	2409
Sab@@	2409
STA@@	2408
dis	2408
responsiveness	2408
.1	2407
Asi@@	2407
Exubera	2406
Josef	2406
CLcr	2405
Onsior	2405
Doxagamma	2403
cann@@	2403
posit	2403
dyslipidaemia	2403
Exjade	2402
FU@@	2402
071	2401
estim@@	2401
-off	2401
Dyspepsia	2401
Brüssel	2401
exam@@	2401
Omega	2400
difloxacin	2400
predict	2400
E-01	2400
itecture	2399
quinolones	2399
immunosuppressant	2398
dermal	2398
suppor@@	2398
A10@@	2398
encing	2396
RIS@@	2396
Known	2396
Condi@@	2396
Et@@	2395
PRILACTONE	2395
Replace	2395
tetracyclines	2394
regression	2394
carcinomas	2393
infect	2393
es.	2393
án@@	2393
fet@@	2393
Ulm	2392
benserazide	2392
Parc	2391
633	2391
restless	2391
Comple@@	2391
apathy	2390
quantitative	2390
DD	2389
ARE	2389
film-	2388
methodology	2388
circular	2387
Will@@	2387
MAO	2386
aan	2386
1-5	2384
236	2383
calories	2381
Considering	2380
471	2380
oria	2379
Alfa	2379
T-cell	2378
100-@@	2378
summaries	2378
RSV	2378
rever@@	2377
positively	2377
1,9@@	2377
stool	2377
RG	2376
Aspergillus	2376
colony	2376
aemia	2375
t-	2375
Generics	2375
328	2374
ranitidine	2374
9000	2374
1,6@@	2373
Palazzo	2373
Nut@@	2373
LY@@	2372
Thro@@	2371
Dir@@	2371
four@@	2371
hydroxy	2370
fibrinogen	2370
unsure	2370
lumps	2369
evenly	2368
10.4	2367
AMENDMENT	2367
excipient	2366
recovering	2366
kills	2366
GR-@@	2365
intra@@	2364
listing	2364
Positive	2363
omed	2363
thick@@	2363
362	2363
CC@@	2362
A-1@@	2362
spheres	2360
Techni@@	2360
algorithm	2360
Glycerol	2360
Liquid	2360
tch	2358
omalizumab	2357
hyperaemia	2357
å	2357
drop@@	2357
lar	2356
gaining	2356
01-EN-Final	2355
decre@@	2354
CIS	2354
graded	2353
variants	2353
dressing	2353
Seizures	2353
560	2352
abscess	2352
047	2351
Proprietary	2351
Cefuroximaxetil	2351
maleate	2351
airways	2351
Lum@@	2351
homogeneous	2350
sed@@	2350
replacing	2350
clomipramine	2350
fulvestrant	2350
tere@@	2349
Doc	2349
Getting	2349
submissions	2349
uma	2349
toremifene	2349
391	2349
Lopinavir	2348
phal@@	2347
ESRD	2347
bourne	2347
ournal	2347
YOUR	2346
thin@@	2346
IDE	2346
Excipient	2345
Alpes	2345
Klebsiella	2345
tially	2345
0.5ml	2344
Zen@@	2344
Bure@@	2344
mites	2344
Ath@@	2343
RI	2342
TY@@	2342
LL	2341
gravis	2341
314	2341
feasible	2341
remedies	2340
bowl	2340
releasing	2339
Advice	2339
belong@@	2338
understands	2338
desiccant	2338
treatment-experienced	2337
deletion	2337
epo@@	2336
Shor@@	2336
fleas	2334
053	2332
discoloured	2331
Clostridium	2331
prohib@@	2330
ulo@@	2330
THE@@	2329
triglyceride	2328
estr@@	2328
Van@@	2328
timetable	2327
Committees	2327
Write	2326
Fabry	2325
ary-@@	2325
TB	2325
Wait	2324
thrombo@@	2323
implanted	2322
multicenter	2322
rine	2322
damaging	2322
089@@	2321
uv@@	2321
chlo@@	2321
Typical	2320
247	2319
София	2319
SNC	2318
37.@@	2318
itive	2317
etic	2317
electrolytes	2317
Tremor	2316
Pel@@	2316
284	2315
myo@@	2314
630	2314
pharmacologically	2314
tif	2313
INTANZA	2313
Quinta	2313
Gerhard	2313
pouch	2313
ellung	2312
Creatinine	2312
273	2311
dibotermin	2311
GRA@@	2311
TI	2311
324	2311
anomalies	2310
Pneumonia	2310
495	2309
efflux	2309
active-controlled	2309
progamme	2309
hyperparathyroidism	2308
subtype	2308
TT	2307
NEOPHARMA	2307
fungi	2307
OBT	2306
242	2305
Haemoglobin	2305
diazepam	2305
grip	2305
sulphonylureas	2305
ART	2304
antithrombotic	2304
convex	2303
gonadotrophin	2303
430	2303
TRE@@	2303
orrhoea	2301
Coadministration	2301
new-@@	2300
embryo-foetal	2299
ingu@@	2299
accelerate	2298
Seven	2298
gsk.	2298
-associated	2297
Somnolence	2297
D2	2296
Develop@@	2296
µl	2296
escap@@	2296
portions	2296
Across	2296
biotransformation	2296
provisional	2296
pills	2295
Loratadine	2295
femoral	2295
Implanon	2294
Tap@@	2293
discontinuing	2293
dexmedetomidine	2293
asters	2293
straigh@@	2292
gn	2292
abscesses	2292
FIRMAGON	2291
Persons	2291
allow@@	2290
318	2289
Used	2289
uty	2289
usable	2288
thrombolytic	2288
intensi@@	2288
Induction	2288
Re-@@	2287
449	2287
leak	2287
atypical	2287
dysplasia	2287
Lov@@	2287
12.1	2286
expo@@	2286
reminded	2286
advanta@@	2286
Andr@@	2285
orph@@	2285
psychomotor	2285
convulsion	2284
invented	2283
kled	2283
IRU	2283
facil@@	2281
Bren@@	2280
Field	2280
SUPPLY	2279
regim@@	2277
Diabetic	2277
Prophylaxis	2277
beliefs	2276
incident	2276
progressed	2276
unavoidable	2275
ı@@	2275
diagno@@	2275
1.08	2275
hydrated	2274
remedy	2273
BSC	2273
emer@@	2273
cytes	2272
ε@@	2271
puppies	2271
Swine	2271
aligned	2270
LT@@	2270
Neo@@	2270
qualit@@	2270
Venous	2269
categor@@	2269
diplopia	2269
cephalosporins	2269
allogeneic	2268
instability	2268
FER@@	2268
anticoagulation	2268
tine	2268
404	2268
expi@@	2267
Brussel	2267
arteriosus	2267
505	2267
17.5	2265
KE	2262
Forte	2262
depleted	2261
macrolides	2260
den-@@	2259
15mg	2259
Incidence	2259
Sche@@	2259
ví@@	2258
freezing	2258
9NJ	2258
Masivet	2258
extrapyramidal	2258
sias	2257
PV	2257
pron@@	2257
12.3	2257
COMP@@	2257
arma@@	2256
resuspended	2256
stratified	2256
sure@@	2256
177@@	2255
Resuspend	2255
Pack@@	2255
Memory	2255
Arcoxia	2255
Difference	2254
kit@@	2253
10.2000	2253
panleucopenia	2253
margins	2253
resc@@	2253
fibres	2253
Abilify	2252
sso@@	2251
saturation	2251
Consta	2251
Rein@@	2251
hypertriglyceridaemia	2251
Hay@@	2250
Problems	2250
primed	2249
rasburicase	2249
M1	2248
microsomes	2248
blockage	2248
DT@@	2248
non-inferiority	2248
copolymer	2248
CELVAPAN	2248
raises	2248
bacteraemia	2248
dexrazoxane	2248
MenC	2248
720	2247
ammonia	2246
dehydrated	2246
detemir	2245
sitaxentan	2245
awa	2244
doubling	2244
ejection	2243
Glob@@	2243
sulphonamides	2242
fum@@	2242
-27@@	2241
HB@@	2241
PB	2241
sponsors	2240
mou@@	2240
TREATMENT	2240
pouches	2239
Allerg@@	2239
yable	2239
slip	2239
ach-@@	2238
INF@@	2238
inspect	2238
Difficulty	2237
glycine	2237
parasites	2236
2b	2236
Represent@@	2235
nightmares	2235
demo@@	2235
CMD	2235
conduction	2234
pup	2234
Xelevia	2234
SY@@	2234
natur@@	2234
achment	2233
indirectly	2233
MPS	2233
pigmentation	2232
Sanofi-Aventis	2232
onor@@	2231
2100	2231
MRA	2231
BEN@@	2231
agrees	2231
ZE@@	2231
Hem@@	2231
BIT@@	2231
straw	2230
chewed	2230
-24@@	2229
463	2229
cytokines	2228
Sloven@@	2228
amending	2227
bleedings	2226
Centr@@	2226
Lyn@@	2226
Box@@	2226
sur-@@	2225
Š	2225
disagreement	2225
Vials	2225
402	2224
cataract	2224
jar	2224
Surgery	2223
3A	2223
percentile	2223
TED	2222
vagina	2222
tremors	2221
hydrox@@	2221
ainst	2220
mouthpiece	2220
Testing	2220
Mé@@	2219
year-@@	2219
XE@@	2219
Urticaria	2219
48-@@	2218
hes	2218
narro@@	2218
nephritis	2218
haemorrhages	2217
Warnings	2217
Rit@@	2217
783	2217
argued	2217
yt@@	2217
platinum	2216
Č@@	2216
thly	2216
shiel@@	2216
donations	2216
scrib@@	2215
atenolol	2214
serotypes	2214
Bochum	2214
non-fatal	2214
non-specific	2213
Intr@@	2213
1,7@@	2212
Auditors	2212
Ring	2211
André	2211
BT@@	2211
Kab@@	2211
ALS	2210
lability	2210
FEV1	2210
PCV2	2210
Ê@@	2209
4mg	2209
liquids	2208
10.3	2208
459	2208
accumulate	2207
prescribers	2206
CT13	2206
evo@@	2206
CM	2205
10.7	2205
bronchiseptica	2205
Regular	2205
blasts	2205
exercising	2204
monobasic	2204
introduc@@	2204
lepirudin	2203
TIC	2203
cetrorelix	2203
2g	2203
Pioglitazone	2202
allergan.	2202
pharmacodynamics	2202
43-@@	2202
headings	2201
chy	2201
xim@@	2201
omen@@	2200
embryotoxicity	2200
426	2200
q12h	2200
deriv@@	2199
Quicklet	2199
hydrocortisone	2198
hay	2198
Accordingly	2198
fertili@@	2197
Forsteo	2197
Vall@@	2197
061	2196
licensing	2196
intravascular	2196
COZAAR	2196
ла@@	2196
thrombocytopaenia	2196
disappears	2195
Previcox	2194
lification	2194
38-@@	2194
064	2193
protocols	2193
Gemcitabine	2193
L.@@	2193
aba	2192
Rosiglitazone	2192
Sex@@	2191
eto@@	2191
agle	2191
grasp	2191
Prepandemic	2191
erythrocytes	2191
auto-@@	2190
evidenced	2190
Stage	2190
icks	2190
WARNING	2189
poultry	2189
261	2188
-3	2188
34.@@	2186
solvents	2186
menopausal	2186
Campus	2185
challenged	2185
aer@@	2184
43.@@	2183
Lisboa	2182
lessness	2182
397	2182
Postbus	2181
moist	2181
liposomal	2181
cramp	2180
0.36	2180
progressing	2180
alin	2180
effervescent	2180
Agricul@@	2179
temporal	2179
duct	2178
engineered	2178
omb	2178
itch	2178
Liechtenstein	2177
gun	2177
Degree	2177
oundary	2177
13.5	2177
Pharmacopoeia	2176
gestational	2175
aetiology	2175
wipes	2175
anza	2175
haematology	2175
STO@@	2174
Hoff@@	2174
erosion	2174
Sprycel	2174
intestines	2174
employ	2174
Combined	2173
uno@@	2173
biology	2172
Inc.	2172
crystals	2172
MDS	2171
Lich@@	2170
-induced	2170
multiply	2170
mentary	2170
LDH	2169
Commonly	2169
SAN@@	2169
legis@@	2168
Ames	2168
eleven	2167
ganciclovir	2167
Some@@	2166
ý@@	2166
Ferring	2166
DMARDs	2166
rench	2166
minate	2165
twist	2165
bury	2165
precaution	2165
Adjustment	2164
Isolated	2163
tub@@	2163
elz@@	2163
laminated	2163
BRI@@	2162
ºC	2162
-dose	2162
wool	2162
CZ@@	2160
WAR@@	2159
Six@@	2159
564	2158
5-ALA	2158
microspheres	2158
LV	2158
repe@@	2158
immature	2157
magne@@	2157
200mg	2157
refill	2156
y-	2156
Cartridges	2156
E460	2155
Pot@@	2155
599	2154
deferasirox	2154
bore	2154
monovalent	2154
transitional	2154
239	2154
myelosuppressive	2153
lavage	2153
CF	2153
Aliskiren	2153
cross-resistance	2153
Stephen	2152
gauze	2152
bas	2152
non-selective	2152
exhibiting	2151
phil@@	2151
Anim@@	2151
Progressive	2151
T4	2150
ondansetron	2150
Laboratorios	2150
Directorate	2150
quiries	2150
308	2150
ed.	2150
GCP	2149
1300	2148
M184V	2148
self-injection	2148
Biotransformation	2147
1050	2147
cial	2147
Carbamazepine	2147
hepatotoxicity	2147
dissemination	2146
Aprepitant	2145
ocyte	2145
13C-urea	2145
stim@@	2145
dispensed	2145
laminate	2145
Co-Rapporteur	2144
messenger	2144
amino@@	2143
Stalle	2143
AUC0-@@	2143
SRL	2143
Vig@@	2143
о	2142
24-week	2142
penicillin	2142
lethal	2142
iology	2141
Glucomed	2140
hostility	2140
appropriations	2140
align@@	2139
stuck	2139
454	2139
dividing	2139
occasional	2138
observ@@	2138
SR@@	2137
excitement	2137
Proc@@	2137
Gonazon	2137
2-year	2135
ICS	2134
Vertigo	2133
SUL@@	2133
JO@@	2133
Specification	2130
refrain	2130
dissolution	2129
gait	2129
aly@@	2129
lymphomas	2128
MD	2127
tied	2127
forecasts	2126
wri@@	2126
exaggerated	2126
vap@@	2126
ticks	2126
4-5	2125
Self-@@	2125
prote@@	2125
infertility	2125
bruise	2125
Alle@@	2124
Mono@@	2123
Injury	2123
aspiration	2122
6-	2122
349	2122
myco@@	2122
odds	2121
384	2121
sticks	2121
Decrease	2121
PHARMA	2121
needing	2120
Adequate	2120
comprimés	2120
inadequately	2118
95-@@	2118
betaine	2117
Ovarian	2117
shingles	2117
Administrative	2117
stating	2116
specificity	2115
4-week	2114
floating	2114
bend	2114
Fig	2113
irl	2113
deficits	2113
suppressed	2113
FAR@@	2113
grape	2113
pulses	2113
asal@@	2112
99mTc	2112
Partners	2112
pathies	2112
subunit	2111
Contents	2110
concentrating	2110
Novo@@	2110
avail@@	2110
378	2109
10.8	2109
bloody	2109
Bac@@	2108
approxim@@	2108
hyperthermia	2108
Fru@@	2108
rigidity	2107
osteomyelitis	2107
eruption	2107
cured	2106
oling	2106
hypertonia	2105
adenomas	2105
467	2105
Warfarin	2104
428	2104
Author@@	2104
950	2103
nasopharyngitis	2103
induration	2103
Keeping	2103
Pancreatitis	2103
Amprenavir	2103
Retard	2102
Zidovudine	2102
ticity	2102
Ytracis	2101
IGF-I	2101
Maraviroc	2101
840	2101
lipo@@	2101
Soft	2100
asy@@	2100
thiazolidinedione	2100
worms	2100
ultr@@	2099
attempting	2099
capsule-shaped	2099
verified	2099
422	2099
propos@@	2099
ide-@@	2098
paresthesia	2098
BL	2097
Ε@@	2097
346	2097
CTC	2096
4-91	2096
oxybutynin	2096
Steady	2096
ex-@@	2096
MERIAL	2094
CAN@@	2094
Angioedema	2093
Défense	2093
Mirtazapine	2093
pressures	2092
idal	2092
Reaction	2092
494	2091
calcium-@@	2091
addic@@	2091
Prezista	2091
Standards	2091
cavity	2090
diffuse	2090
348	2090
reco@@	2089
ć	2089
staining	2089
AGE	2089
vigorous	2088
Stevens	2087
fec@@	2087
slows	2086
resolves	2086
sibly	2086
tabs	2085
Pyrexia	2085
Inspect	2085
reminder	2085
POR@@	2083
rom	2083
bronchial	2082
Dic@@	2082
adhesion	2082
wk	2082
drunk	2081
tening	2080
biom@@	2080
recep@@	2079
1628	2079
Gel	2079
0.54	2079
knowled@@	2078
identif@@	2078
Prof@@	2078
thes@@	2078
angio@@	2078
sured	2078
irchen	2078
Nec@@	2077
Bron@@	2077
ito@@	2077
Masters	2076
endemic	2076
haem@@	2075
enced	2075
enty	2075
King@@	2075
dication	2075
necess@@	2074
077	2074
identiality	2074
MY@@	2074
emptying	2074
scl@@	2073
ophthalmic	2073
CIN	2073
imple@@	2073
sequential	2073
Wales	2072
UT	2072
sham	2072
S.p.A.	2072
phenyl@@	2071
extrem@@	2071
Inten@@	2070
Refer	2069
Arbitration	2069
Eric	2069
tus@@	2069
weaken	2068
4-	2068
implan@@	2068
Centro	2068
cartilage	2068
continuity	2068
389	2068
rect@@	2067
x1	2067
Astr@@	2067
urn	2066
acr@@	2066
nem@@	2066
ple-@@	2066
anth@@	2066
motility	2066
efficacious	2066
fat@@	2065
anaemic	2065
ZA	2065
VP@@	2065
kill@@	2064
consultant	2064
sist	2064
SEE	2064
Function	2063
canis	2063
Effective	2062
trimesters	2061
swings	2060
pharmaco@@	2060
TG	2060
manship	2060
eyelids	2059
clip	2059
1ml	2059
tium	2059
ADR	2058
392	2058
verte@@	2058
concludes	2058
Correc@@	2058
Fig@@	2057
contracting	2057
Nutrition	2057
HCTZ	2057
shivering	2057
velocity	2056
metoprolol	2056
lingual	2056
Myocardial	2056
0.06	2055
demographic	2055
palate	2055
HER@@	2055
483	2054
11.4	2054
retriev@@	2053
Classical	2053
carbox@@	2053
Suppor@@	2053
T2	2053
foodstuffs	2053
priming	2052
angles	2052
High-@@	2052
dispenser	2052
sever@@	2052
cholestatic	2052
glibenclamide	2051
Intelence	2051
aminoglycosides	2051
REACH	2051
herpesvirus	2051
thetic	2050
alth@@	2050
cups	2050
ono	2050
048	2050
Mirapexin	2050
classi@@	2049
L01@@	2049
HOLDERS	2049
bicalutamide	2049
Zypadhera	2049
drug-drug	2048
Doxastad	2048
ferritin	2048
INTER@@	2047
aminotransferases	2047
Stab@@	2047
ð	2047
MEDI@@	2046
quad@@	2046
payable	2046
GH	2046
Farmacêutica	2045
extracellular	2045
Greater	2045
Eras@@	2045
Tissue	2044
earliest	2044
Steady-state	2044
PBPC	2044
EudraVigilance	2043
last@@	2043
Care@@	2043
oing	2042
Immun@@	2042
062	2040
put@@	2040
Animals	2040
restrict	2040
GPIIb	2040
cum@@	2039
441	2039
Paroxetin	2039
confined	2039
ер@@	2038
Carcinogenicity	2038
possesses	2038
Stim@@	2038
Demo@@	2037
ambient	2037
Presentations	2037
Hart@@	2037
thiazides	2037
0.20	2036
outbreak	2036
pum@@	2036
Na	2036
AUCτ	2035
substituted	2035
pler	2035
BLISTERED	2035
differentiate	2034
contrib@@	2033
T1	2033
sei	2033
Export	2033
gil@@	2032
block@@	2032
too@@	2032
reads	2032
Clin@@	2032
D1	2032
Jung@@	2032
ast-@@	2032
2,3	2032
compli@@	2032
proprietary	2031
Leverkusen	2030
iris	2030
underwent	2029
solv@@	2029
REGARD	2028
withdrew	2028
isms	2028
NT@@	2027
-B	2026
ANTI@@	2025
Gmbh	2025
wich	2024
Fern@@	2024
proliferative	2024
calibrated	2024
cholera	2024
interfering	2023
yrs	2023
upward	2023
SER@@	2023
Accounting	2022
Asc@@	2022
erythematous	2021
sept@@	2020
novo	2020
degenerative	2020
secret@@	2020
incompatible	2019
H1	2019
gles	2019
LEN@@	2019
Psoriasis	2019
carbonic	2018
ison@@	2018
suring	2018
infrequently	2017
Κ@@	2017
berry	2017
intravitreal	2016
219@@	2016
urthermore	2016
IgA	2015
notable	2015
Gabriel	2015
world@@	2014
Co-ordination	2014
meaning@@	2013
stir@@	2013
irrit@@	2013
214@@	2012
eso@@	2012
dk	2012
polyarticular	2010
Transdermal	2010
stine	2010
acidity	2010
Saccharomyces	2010
Citric	2010
G2	2010
shortened	2009
spp.	2009
Sand@@	2009
oestradiol	2008
transporter	2008
Philadelphia	2008
advances	2007
revascularisation	2007
atever	2007
cardi@@	2007
crospovidone	2006
180@@	2006
EFFECTIVE	2006
rout@@	2005
F2	2005
quin@@	2005
vise	2004
depend@@	2004
509	2003
Multi-@@	2003
Vere@@	2003
histology	2003
381	2002
Inspections	2002
146@@	2002
responds	2002
Sci@@	2002
Chills	2001
retapamulin	2001
ö	2001
resuspend	2001
Holdings	2001
heim@@	2000
Abacavir	2000
cylinders	2000
dispensing	2000
bleomycin	1999
cyclic	1999
porfimer	1999
Kaposi	1999
tablete	1998
ación	1998
Observed	1998
izon@@	1998
Byetta	1998
Stomatitis	1998
diarrhea	1998
YTRACIS	1997
estro@@	1997
anhydrase	1996
neutropaenia	1996
hydrate	1996
Sorbitol	1996
fatalities	1996
trembling	1996
reasonably	1995
Thre@@	1995
explored	1995
Walk	1995
Tables	1995
maculopapular	1995
Immunogenicity	1995
Half	1994
ival@@	1994
beverage	1994
Electro@@	1993
Ketoconazole	1993
pharm	1993
wo	1993
quantification	1993
AX	1993
SUBSTANCE	1993
presently	1993
pegvisomant	1992
ancer	1992
normalised	1991
Remo@@	1991
Indigo	1990
angiotensin-II	1990
HAN@@	1990
preceded	1989
ORODISPERSIBLE	1989
glycosylated	1989
modelling	1988
short-@@	1988
nutrients	1988
compar@@	1988
Sutent	1988
accumulated	1987
vecuronium	1987
post-transplant	1987
Azopt	1986
11.1	1986
Grapefruit	1985
Pear@@	1985
966	1984
SI-1000	1984
nucle@@	1984
slaugh@@	1984
tropic	1984
Observ@@	1983
boosting	1983
STR@@	1982
DJ	1982
leuco@@	1982
displac@@	1982
Entacapone	1981
Europharm	1981
lyn	1980
It@@	1979
wast@@	1979
transferring	1979
commence	1978
volunteer	1978
Kil@@	1977
moist@@	1977
Sleep	1976
alpha@@	1976
coded	1976
azole	1976
precursor	1975
deviation	1975
Genti@@	1975
humour	1974
Colloidal	1974
odour	1973
dead@@	1973
calorie	1972
esi@@	1972
calibration	1972
tumor	1971
Viale	1971
Practi@@	1971
ethyl	1971
versa	1971
shallow	1971
avoid@@	1971
tide	1971
Nicotinic	1970
benz@@	1970
45.@@	1970
chemotherapeutic	1969
high-fat	1969
vid	1969
ambulatory	1969
cut-off	1968
ght	1968
reuptake	1968
unconscious	1968
Bin@@	1968
omer@@	1966
Recommendations	1966
optimisation	1965
furosemide	1965
Avenida	1965
780	1965
yle@@	1963
mammary	1963
Silica	1963
309	1963
owing	1962
Immeuble	1962
tom	1962
riger@@	1961
Lö@@	1961
Allergan	1960
627	1960
utilisation	1960
hazards	1960
etta	1960
-out	1959
1100	1959
attaches	1959
236@@	1959
sives	1959
amo@@	1959
0.43	1959
η	1958
non-EU	1958
Candi@@	1958
CK@@	1958
cornea	1957
ergon@@	1957
post-natal	1957
Excessive	1957
securely	1956
jav@@	1956
partic@@	1956
MUST	1955
hungry	1955
CHR	1953
lox@@	1953
metallic	1953
12.2000	1953
phosphorus	1953
Elevations	1953
thrombophlebitis	1953
overdoses	1953
isations	1952
neuroleptic	1951
Pregabalin	1951
hel	1951
nefazodone	1951
liposomes	1951
transplants	1950
dwelling	1950
anticonvulsant	1950
sine	1950
Carb@@	1949
follicle-stimulating	1949
round@@	1949
Hepatobiliary	1949
HIT	1949
Benzyl	1949
Cattle	1949
Celecoxib	1948
drafting	1948
venipuncture	1948
lj@@	1948
neomycin	1947
sparfloxacin	1947
YMDD	1946
vertically	1946
0.70	1946
fibro@@	1946
nephrotoxic	1946
pegaptanib	1946
Tachycardia	1945
attaching	1945
з@@	1945
Epistaxis	1945
GR	1945
ketoprofen	1945
sapropterin	1945
Doctors	1945
074	1945
213@@	1944
hydrogenated	1944
polymerase	1943
F-9@@	1943
MCyR	1943
virus@@	1943
sko	1943
Enterobacter	1942
maropitant	1941
longer-acting	1941
081	1941
pla@@	1941
booklet	1941
Neupogen	1940
lus@@	1940
attain	1940
inge	1939
GF@@	1939
reas	1938
rejecting	1938
OT	1938
ė	1937
Alfred	1937
ZDV	1937
Documents	1937
fibrates	1936
BH4	1936
epithelium	1935
cervix	1935
911	1934
UF@@	1934
41-@@	1934
vised	1933
Inhalation	1933
PPP	1933
rang@@	1933
Avamys	1933
ectomy	1932
Ringer	1932
itus	1932
Ensure	1932
inser@@	1932
LV-1004	1931
olate	1931
PhD	1930
Viagra	1930
Cefuroxime	1930
noticeable	1929
additives	1929
has@@	1928
ique	1927
36.@@	1927
eni	1927
blood-@@	1927
swine	1926
YS	1926
3-6	1925
ço@@	1925
Pink	1925
hf	1925
ester	1925
steadily	1924
botulinum	1924
Carbon	1923
concentrates	1923
arom@@	1922
50mg	1922
Effici@@	1922
Public@@	1921
disrup@@	1921
NHL	1921
proportionally	1921
Replacement	1921
serological	1920
progressively	1919
100.0	1919
deadlines	1918
Tap	1918
Prepare	1917
BIG	1917
Elev@@	1917
843	1916
670	1916
Criteria	1916
observers	1915
nadir	1915
Stand@@	1915
LAND	1914
Rib@@	1914
junction	1914
terminated	1914
5-6	1913
Circ@@	1912
sexually	1912
446	1912
intending	1911
B.V.	1910
lis@@	1910
Shellac	1910
rivestite	1910
Heat	1910
instruct	1909
palpitation	1909
MW@@	1909
groundwater	1909
Ast@@	1908
ribed	1908
puri@@	1908
voluntarily	1908
mode@@	1907
Tin@@	1907
Isotretinoin	1907
672	1907
Deve@@	1907
40,000	1907
ose	1906
12.4	1906
nmol	1906
worried	1905
glutamate	1904
24h	1904
serotonergic	1904
esp	1904
ittel@@	1904
edness	1903
GBq	1903
COMT	1903
tartrate	1902
dextrose	1902
adhere	1902
Fegersheim	1902
CABG	1902
UK@@	1902
abundant	1902
Haemorrhage	1901
447	1901
seroprotection	1901
flip	1901
Surrey	1901
fluorescence	1901
HAR@@	1901
stearyl	1900
traumatic	1900
isoforms	1900
lishing	1900
perindopril	1900
2.25	1899
Monotherapy	1899
mIU	1899
hydroxybenzoate	1899
J05@@	1898
BO	1898
aplastic	1897
felis	1897
TABLET	1897
CMS	1896
latent	1896
deposition	1896
Õ@@	1896
42-@@	1896
Repaglinide	1895
NUMBER	1895
epid@@	1895
FORCALTONIN	1895
hyperbilirubinaemia	1895
NRTI	1895
radiolabelling	1894
torsades	1894
Analytik	1894
gilts	1894
NSTEMI	1894
DRAXXIN	1894
Emend	1894
sibutramine	1893
541	1893
Rifabutin	1893
PNH	1893
icatibant	1893
nimesulide	1893
transmit@@	1893
a-treated	1893
Sirolimus	1893
663	1892
vian	1892
Virological	1892
wastewater	1892
CAM@@	1892
rin	1891
0.30	1891
meningitidis	1891
ept	1891
Atazanavir	1891
ECO	1890
POWER	1889
Dukoral	1889
Zubrin	1889
side-@@	1889
E9@@	1889
elen@@	1889
alyst@@	1888
ATS	1888
icul@@	1888
lide	1888
Zocord	1888
EC50	1887
Metho@@	1887
Ass@@	1887
Latvijā	1887
disseminated	1886
dose-	1886
Diphtheria	1885
ece	1885
amy	1885
menti@@	1884
weaker	1883
COX-1	1883
diamond	1883
BAR@@	1883
echocardiography	1883
SE-@@	1882
Controller	1882
arely	1882
KI@@	1882
age-related	1882
LAS	1882
6-fold	1882
Smo@@	1881
ation.	1880
inally	1879
glacial	1879
Disp@@	1878
Haupt@@	1877
summarized	1877
ischemic	1877
averaged	1876
carbohydrate	1876
62.5	1876
Kapseln	1875
Ca	1875
super-@@	1875
Whenever	1875
PF@@	1875
vities	1874
ammonium	1874
inactivation	1874
nocturnal	1874
25,000	1874
10.2	1873
IH@@	1873
mann-@@	1873
А@@	1872
486	1872
drain	1872
cyc@@	1872
Xa	1871
divergences	1871
soreness	1871
HARD	1870
mec@@	1870
gic	1870
δ@@	1870
552	1869
clearer	1869
SEN@@	1869
472	1869
414@@	1868
Opinions	1868
c.	1868
idation	1868
bactericidal	1868
prescribes	1867
Physician	1867
Acro@@	1867
Uxbridge	1867
storing	1866
caring	1866
responder	1866
facilitating	1865
illumination	1865
unspecified	1865
Nacional	1864
metry	1864
Controlled	1864
gradu@@	1864
Taste	1863
scientifically	1862
pharma	1862
µm	1862
opic	1862
shortest	1862
570	1861
Chil@@	1861
oids	1861
0.88	1860
OA	1860
FOIL	1859
randomly	1859
exert	1859
gab@@	1859
357@@	1858
π@@	1858
Inform	1858
nut@@	1858
Minor	1857
leuk@@	1857
1998-99	1857
5-fold	1857
phosphodiesterase	1856
Mechan@@	1856
LER	1856
endometrium	1856
UB@@	1856
radiopharmaceutical	1855
colostrum	1855
2-8	1855
aine	1855
274	1855
perversion	1855
Risperidone	1854
Discussion	1854
Batch	1854
[...]
