"	13408124
,	10518228
the	9828000
.	7946661
of	5455978
:	5082466
and	4875589
/	4856635
to	4061340
in	3615409
a	3249733
)	2451713
(	2422028
is	2302028
for	1725660
on	1615524
The	1488438
-	1471940
with	1289639
that	1194913
20@@	1127665
are	1059739
as	1042616
be	979251
at	907462
s	871438
you	869102
an	861414
it	859585
s@@	854517
or	849045
by	838385
from	819008
.@@	808224
this	740520
t	736218
1	732390
not	705860
w@@	675899
was	663841
t@@	654823
I	648001
b@@	618728
will	613469
M@@	608419
http	600982
16	594539
have	587190
-@@	578919
S@@	567709
h@@	546070
c@@	543904
ts	540852
er	535239
can	534988
y	525884
k@@	524063
m	517257
in@@	510081
es	507642
which	502804
?	498712
f@@	494587
a@@	489307
all	488429
e@@	484002
o	483145
we	477235
e	467645
your	467292
2	463143
i	462479
has	461003
_	459189
re@@	443497
en@@	440954
en	439472
g@@	437450
p@@	436339
our	435875
st@@	430141
d@@	429371
15	419934
+	417208
12	416864
B@@	411562
G@@	408292
11	406418
n@@	398924
H@@	391406
F@@	388614
10	383577
ar@@	381886
’	378581
T@@	372491
€	370614
ing	368154
00	365607
one	364930
A@@	360634
g	356149
www.@@	354734
also	354162
!	353644
;	347755
In	347446
E@@	347148
m@@	344463
7	344368
its	341300
l@@	338243
un@@	338129
's	336136
=	336082
K@@	336052
3	335348
C@@	334536
This	333640
W@@	333293
be@@	332045
p	331740
It	329829
ers	329412
i@@	328312
z@@	325461
%	324961
n	324230
an@@	323777
D@@	322714
it@@	322538
.com	320821
more	317624
on@@	311849
L@@	307529
y@@	307366
their	304656
ti@@	301177
13	299709
R@@	299330
14	296645
de@@	293259
]	290778
us	288401
de	287610
...	286050
age	285014
o@@	284329
u@@	282631
time	281846
d	281121
17	280810
&	279829
'	278045
4	277929
j@@	276134
ch@@	274261
*	272946
er@@	272854
se@@	271733
P@@	267939
v@@	267331
they	266825
but	266725
[	264981
new	262683
di@@	260610
al@@	260401
>	253447
ed	251387
ur@@	250263
r@@	246940
he	246758
ar	246151
at@@	245130
been	241402
as@@	241278
J@@	240963
other	240048
th	239950
V@@	238547
#	238299
O@@	238211
20	236292
his	235072
We	233960
up	233886
day	232846
U@@	232811
A	231715
about	231485
le@@	229036
ho@@	226432
k	226148
ly	224858
0	224280
B	224252
ch	223879
am	222938
5	221622
z	221133
“	219159
only	218656
ation	217969
is@@	217732
l	217270
ent	214506
tel	213465
ad@@	212357
or@@	211694
w	211576
am@@	211107
sh@@	209935
European	209747
»	209140
who	207119
to@@	207059
b	206939
–	206478
au@@	205564
N@@	205493
out	204578
there	203732
es@@	200603
li@@	199582
ri@@	199180
were	198983
19@@	198190
”	197163
h	196840
18	196361
tr@@	195348
x	193303
al	192971
ment	192717
6	191907
so	191810
lo@@	191366
con@@	191156
30	190479
do	189858
nigh@@	189501
co@@	188354
into	188097
You	186532
19	186391
07	186359
01	186359
very	185739
I@@	185431
si@@	183088
ic@@	182529
us@@	181387
08	179873
u	179814
ws	178396
them	178320
no	177738
people	175110
Ho@@	174257
L	174037
ph@@	173427
would	172880
21	172155
ag@@	169934
if	168331
now	168195
8	168185
able	167166
ol@@	166927
ht@@	166423
any	166084
had	165103
22	165021
use	165005
ate	164757
el@@	164568
first	164254
th@@	162366
03	161730
like	161442
f	160958
ro@@	160070
02	159854
Po@@	159569
der	159041
04	158685
ill@@	158669
09	158669
ks	158567
im@@	158120
well	157800
ne@@	157407
ter	155463
05	155422
C	154886
ra@@	154753
my	154153
PM	153848
way	153700
25	153469
these	153456
ice	152933
when	152148
ac@@	150985
om@@	150885
than	150527
king	150292
ab@@	150094
te	149648
el	149152
most	149018
id@@	148974
3@@	148728
Ar@@	148678
years	148111
06	148064
ations	147960
st	147934
ity	147585
ve	147507
ec@@	147251
sa@@	146818
mo@@	146683
many	146613
ver	146455
id	145808
23	145792
between	144387
information	143234
work	142846
pl@@	141558
le	141098
should	140668
9	140536
me	140340
ma@@	140119
ta@@	139424
5@@	138295
ine	138112
such	137210
over	137148
ci@@	135743
ay	135571
ser@@	135550
ex@@	135273
two	134134
If	133966
what	133754
For	133283
ir@@	132918
some	131982
found	131534
2010	131277
km	131208
24	131099
where	130177
em@@	130059
est@@	129612
oun@@	129210
And	128693
pe@@	128449
um	128243
here	127667
2009	127283
c	127139
ds	126721
line	126608
room	126198
se	125920
ated	125550
8@@	124585
ent@@	123838
2@@	123275
ap@@	122692
te@@	121901
els	121674
sted	121121
6@@	121110
den	120703
9@@	120610
system	120302
do@@	120191
bo@@	120160
et	120136
must	119896
7@@	119686
make	119469
ant	119335
ge@@	119170
il@@	118863
year	118286
made	118231
world	117722
Z@@	117529
place	117128
jo@@	116850
°	116780
Al@@	116741
May	116521
x@@	116037
pr@@	115950
sp@@	115895
order	115783
An@@	115676
In@@	115290
area	115064
used	114925
r	114583
Commission	114568
vi@@	114541
Ch@@	114516
ver@@	114398
how	114332
la@@	114093
pm	113986
2008	113931
through	113546
may	113317
just	113207
28	113101
right	113055
me@@	111837
27	111754
ou@@	111428
dis@@	110966
net	110758
for@@	110691
ed@@	110436
end	110342
«	110062
take	109829
26	109674
sk@@	109322
ty	109257
site	108966
after	108917
no@@	108824
per	108733
ut@@	107892
gu@@	107587
see	107509
Re@@	107476
Y@@	107310
0@@	106922
available	106028
inter@@	105989
ous	105789
s.@@	105186
ter@@	104540
ce@@	104127
Au@@	103681
ren@@	103412
number	103156
then	103021
ted	102932
oc@@	102725
ful	102580
UR@@	102499
we@@	102455
view	102347
50	101056
even	100902
ur	100893
times	100648
sch@@	100498
Germany	100241
need	100142
because	100112
4@@	99843
ig@@	99727
ach@@	99720
free	99620
su@@	99466
her	99408
ance	99275
part	99117
Europe	98987
29	98858
av@@	98808
pre@@	98805
come	98767
EU	98502
ies	98431
'@@	98059
Se@@	97307
back	96762
ite	96567
find	96046
ings	95833
good	95666
boo@@	95635
currently	95631
ic	95244
2007	94937
ul@@	94845
pri@@	94305
31	94154
mu@@	94090
par@@	94074
own	93464
är@@	93442
est	93264
products	92968
ments	92736
AM	92495
service	92471
ü@@	92285
ting	92096
und	92009
same	91968
per@@	91872
There	91730
ans	91680
str@@	91242
those	91103
him	91065
the@@	91023
being	90988
ay@@	90683
D	90637
od	90505
1@@	89524
under	89483
12@@	89387
get	89374
TC	89277
hr	89254
Th@@	89147
end@@	89039
important	89034
op@@	88782
10@@	88634
different	88562
pg	88505
ast	88028
go@@	87717
ve@@	87305
v	87160
since	87144
ist	86963
before	86623
each	86583
pro@@	86527
data	86337
led	86148
As	84952
tion	84486
2006	84430
ce	84330
De@@	84271
rooms	83971
49	83958
without	83686
But	83633
life	83590
He	83234
ha@@	83216
pa@@	83052
go	83036
40	82546
We@@	82432
custom@@	82329
um@@	82315
he@@	82129
mon@@	82115
offers	82106
set	81887
possible	81756
quality	81608
All	81412
ia	81389
X@@	81389
V	81241
States	81015
development	80938
great	80917
countries	80568
August	80497
ad	80294
within	80170
En@@	79993
als	79979
18@@	79924
high	79870
could	79767
up@@	79221
market	79179
ug@@	78498
support	78476
house	78288
ob@@	78112
sion	78091
br@@	77804
bu@@	77680
Di@@	77444
<	77436
shall	77396
html	77222
ke	77113
German	77098
best	77060
lu@@	76993
during	76758
our@@	76740
services	76610
requested	76603
fi@@	76603
company	76565
want	76512
cre@@	76498
Su@@	76364
Presid@@	76288
ants	76178
both	76023
ame	75849
following	75762
qu@@	75588
does	75302
ents	75162
land	75158
November	74894
S	74890
ank	74862
ing@@	74644
ä@@	74530
vie@@	74424
comm@@	74237
man	74153
September	73926
water	73884
ons	73882
et@@	73670
2005	73514
Mr	73388
Lo@@	73304
against	73100
know	73075
ster	72887
tu@@	72793
air	72715
O	72701
ip@@	72300
car@@	72170
via	72093
port	72024
ors	71821
case	71631
ere	71631
00@@	71605
less	71562
To	71553
tic@@	71533
tions	71469
sc@@	71423
32	71273
Council	71160
45	71157
mar@@	71106
Be@@	70966
ak@@	70908
F	70708
Co@@	70413
Mar@@	70357
much	70145
der@@	70068
every	69965
T	69817
last	69778
100	69769
car	69569
ang@@	69369
ating	69258
small	69249
so@@	69243
Rep@@	69194
apar@@	69169
side	69085
om	68956
On	68944
ach	68922
old	68905
still	68789
offer	68763
por@@	68658
St@@	68626
Ex@@	68499
,@@	68330
ge	68284
Con@@	68234
light	68196
file	68168
ell@@	68020
Le@@	67749
They	67742
ary	67680
bi@@	67551
With	67546
sen@@	67538
October	67444
ati@@	67260
P	67183
't	67085
ect	67001
sh	66936
business	66857
-2@@	66819
name	66735
Mo@@	66594
gen@@	66552
UR	66531
she	66450
M	66405
du@@	66249
....	66137
cl@@	65958
long	65823
po@@	65634
2004	65575
international	65549
Member	65443
tra@@	65357
tre@@	65289
Union	65192
33	65189
level	65003
April	64975
s-@@	64969
At	64850
around	64751
14@@	64636
ris@@	64490
three	64391
²	64389
New	64378
public	64262
poli@@	64197
15@@	64141
ina	64054
ars	64035
To@@	63907
ich	63819
16@@	63672
gr@@	63619
ury	63599
already	63551
ö@@	63546
point	63538
What	63510
located	63470
including	63375
35	63213
wn	63196
e-@@	63106
sho@@	63001
children	62956
process	62934
access	62893
help	62813
men	62789
ba@@	62724
tic	62712
die	62572
á@@	62424
gi@@	62413
Pro@@	62362
course	62352
mm	62215
Ver@@	62167
fl@@	62144
com@@	62000
art	61998
days	61741
tical	61727
ste@@	61631
example	61385
product	61376
il	61282
large	61201
ÿ@@	61167
les	61021
form	61011
load	61009
re	60918
da@@	60907
ps	60877
ates	60576
March	60544
June	60447
$	60400
ties	60261
open	60082
and@@	60046
43	60042
hol@@	59863
39	59809
country	59797
Win@@	59777
real	59712
again	59639
48	59579
while	59368
pi@@	59300
using	58989
17@@	58973
ud@@	58912
vate	58855
production	58708
always	58436
vo@@	58436
dr@@	58387
over@@	58263
ub@@	58221
down	58211
Je@@	58083
34	57963
af@@	57870
red	57861
July	57740
Ac@@	57646
onomic	57594
t-@@	57443
ten	57398
sil@@	57353
41	57332
Is@@	57208
ni@@	57196
Ç@@	56958
did	56878
iz@@	56817
ery	56695
ens	56644
righ@@	56614
power	56484
further	56423
bed	56411
based	56298
ber	56257
social	56167
Sch@@	55994
content	55986
che@@	55944
report	55904
W	55731
tt@@	55726
Pl@@	55720
next	55680
13@@	55656
ir	55613
Jo@@	55604
all@@	55544
Ne@@	55519
36	55455
energy	55380
million	55377
He@@	55375
mag@@	55328
cap@@	55278
fa@@	55231
project	55136
cm	54888
den@@	54811
fo@@	54773
Me@@	54649
too	54634
means	54610
When	54420
special	54418
Do@@	54406
give	54388
ding	54335
tw@@	54258
ung	54236
igh@@	54154
44	54077
fe@@	54076
tri@@	54018
ide@@	53989
fri@@	53957
away	53942
provide	53687
dec@@	53670
From	53387
arm@@	53325
change	53285
position	53144
ie	53012
thing	53010
Pr@@	52834
200@@	52763
ence	52717
…	52686
Ro@@	52632
ard	52624
January	52411
Fre@@	52318
az@@	52211
together	52166
future	51953
ded	51804
group	51781
42	51688
ann@@	51677
ten@@	51534
Ma@@	51345
rest@@	51338
Com@@	51312
photo@@	51274
results	51217
few	51090
Un@@	51081
a-@@	50991
os@@	50991
air@@	50983
Engli@@	50929
systems	50795
experience	50742
full	50651
sts	50651
main	50638
1.@@	50539
Number	50536
key	50533
working	50509
sure	50462
ome	50430
ca@@	50287
ness	50229
spor@@	50208
ain	50194
Vi@@	50170
fin@@	50130
policy	50082
tural	50066
gar@@	49996
result	49962
38	49930
col@@	49842
von	49834
person	49748
sions	49725
areas	49647
ices	49611
ory	49576
wer	49497
ator	49459
son	49446
if@@	49313
design	49278
Gu@@	49208
ID	49202
ality	49174
Fr@@	49006
These	48952
After	48934
od@@	48930
ping	48868
mobil@@	48853
ik@@	48794
ally	48742
December	48666
another	48620
gl@@	48587
therefore	48554
.org	48517
37	48364
stri@@	48350
govern@@	48289
hi@@	48229
hand	48172
dem@@	48110
55	48107
building	48051
control	47978
thro@@	47727
home	47646
put	47634
46	47626
Parliament	47612
dic@@	47592
lim@@	47474
yp@@	47456
25@@	47442
ago	47329
ber@@	47293
N	47239
down@@	47186
ace	47149
look	46976
United	46799
until	46787
ying	46735
France	46719
are@@	46717
fast	46714
No	46658
man@@	46655
local	46540
moder@@	46480
range	46369
conditions	46335
second	46261
centre	46069
ner@@	45890
show	45864
sia	45724
contact	45702
52	45651
above	45631
given	45627
59	45615
better	45578
ins	45568
body	45561
left	45553
fre@@	45545
min@@	45527
national	45476
family	45476
im	45428
Ap@@	45370
guide	45307
necessary	45302
ering	45302
February	45278
ff@@	45252
That	45134
Pre@@	45079
Fe@@	45072
become	44999
management	44974
action	44956
research	44947
So	44935
tal	44887
present	44847
let	44766
Bo@@	44723
fact	44646
Berlin	44620
54	44607
2.@@	44584
ire	44572
51	44535
ast@@	44407
d-@@	44358
wel@@	44257
current	44179
47	44079
ue	44051
bro@@	43997
60	43957
top	43916
\	43909
companies	43777
off	43687
Satur@@	43640
website	43636
R	43558
human	43536
date	43498
stay	43458
table	43447
ines	43446
sur@@	43349
ship	43277
Mon@@	43265
ini@@	43264
field	43212
ays	43186
56	43121
particular	43054
cul@@	43019
little	43002
2003	42970
ats	42943
ine@@	42850
58	42836
play	42626
type	42621
57	42612
visit	42573
However	42546
works	42521
Internet	42475
dia	42375
ib@@	42351
ability	42350
subject	42284
30@@	42218
things	42217
No@@	42194
several	42106
ked	42079
ov@@	42025
blo@@	41951
e.@@	41936
a.@@	41863
far	41860
industry	41847
Friday	41834
dro@@	41789
organ@@	41759
q@@	41540
lot	41502
state	41479
taken	41477
53	41429
perf@@	41379
US	41350
various	41327
rest	41324
financial	41296
fully	41289
ss	41279
os	41143
ical	41035
cannot	41000
near	40935
sol@@	40846
International	40841
ll	40701
whole	40647
aff@@	40644
application	40589
mil@@	40584
minutes	40574
ep@@	40536
total	40523
E	40521
start	40511
fr@@	40484
‘	40447
Par@@	40445
By	40394
dre@@	40393
technology	40363
needs	40362
ism	40313
ke@@	40303
res	40241
night	40190
aying	40186
vide@@	40128
among	40120
y-@@	40094
ich@@	40025
software	39928
G	39891
race	39852
really	39819
location	39796
One	39731
cr@@	39726
months	39714
Loc@@	39690
active	39681
Hol@@	39583
region	39581
think	39554
ends	39544
Or@@	39533
la	39516
ref@@	39491
activities	39460
board	39434
bre@@	39406
version	39402
tor@@	39393
period	39371
ize	39359
anti@@	39272
How	39255
list	39216
cho@@	39211
tics	39155
80	39125
Man@@	39090
oms	39074
called	39067
ves	39058
GmbH	38969
ea	38959
del@@	38936
cam@@	38907
ze	38905
value	38904
low	38832
Per@@	38830
single	38798
mer	38790
ster@@	38716
Your	38696
space	38609
Li@@	38591
Sh@@	38566
ev@@	38559
ker	38520
Comm@@	38477
gen	38466
app@@	38465
close	38454
ters	38414
ined	38406
please	38393
ady@@	38358
cur@@	38329
cri@@	38321
living	38298
gam@@	38297
Pol@@	38292
Please	38278
pen@@	38271
stre@@	38265
Ad@@	38238
sic	38216
food	38133
tor	38094
provided	38078
itch@@	38029
ner	37979
projects	37964
für	37954
Qu@@	37948
according	37925
clo@@	37851
breakfast	37835
11.@@	37784
soci@@	37777
•	37727
ture	37683
making	37667
include	37574
face	37539
K	37505
ass@@	37459
World	37425
hours	37418
hab@@	37316
generated	37255
shop@@	37250
actually	37244
oo@@	37139
struction	37132
Thursday	37113
protection	37100
security	37068
problem	37057
Group	37055
ish	37054
ages	36955
ye@@	36930
ele@@	36906
Phone	36897
3.@@	36825
ta	36737
erg@@	36711
seconds	36678
common	36606
ot@@	36576
clear	36559
sum@@	36543
create	36520
90	36475
ica	36429
tou@@	36381
week	36377
easy	36372
natural	36330
amp	36330
however	36315
aps	36302
ches	36269
gel@@	36251
ess@@	36212
ics	36205
costs	36130
individual	36113
cont@@	36104
word	36068
measures	36020
files	36010
Ge@@	36006
mit	35996
text	35991
specific	35959
heart	35938
tional	35892
ul	35879
especially	35876
upon	35815
08@@	35802
off@@	35753
loads	35723
Pri@@	35681
More	35680
often	35671
came	35582
ities	35572
4.@@	35554
chool	35478
des	35425
wish	35416
econom@@	35332
ition	35310
acy	35305
question	35294
ther	35285
legal	35280
ands	35260
Gr@@	35188
size	35182
pol@@	35175
é@@	35143
addition	35099
24@@	35099
link	35075
wn@@	35064
Car@@	35048
don	35047
inf@@	35044
program	35044
South	35024
conf@@	34955
pu@@	34904
indu@@	34899
looking	34842
general	34769
training	34701
known	34655
something	34622
ited	34524
buil@@	34523
men@@	34457
tax@@	34456
ung@@	34450
road	34396
took	34391
sion@@	34351
que	34342
fu@@	34310
Italy	34283
request	34254
points	34221
Sam@@	34221
situation	34198
atic	34176
{	34176
itself	34145
trade	34133
delivery	34124
lic@@	34104
arch@@	34097
amp@@	34092
personal	34082
Chri@@	34043
ensure	34034
12.@@	33975
due	33951
enc@@	33868
history	33846
Ju@@	33830
along	33816
ile	33814
ail@@	33811
Tel	33797
Fax	33747
health	33729
ys	33694
ative	33685
bl@@	33677
media	33658
pool	33652
Then	33643
live	33590
under@@	33579
tain	33539
why	33532
images	33518
four	33453
ms	33378
events	33343
tion@@	33302
speed	33302
once	33273
basis	33261
performance	33260
least	33249
members	33239
going	33213
press	33130
language	33105
info	33104
200	33068
Ab@@	33045
wa@@	33033
third	33026
try	32979
ern@@	32935
ular	32925
cover	32903
event	32885
dom	32862
Pal@@	32816
style	32814
iv@@	32794
kind	32731
whether	32728
increase	32705
complete	32703
center	32669
others	32660
ong@@	32654
provides	32638
VA@@	32632
problems	32621
bar	32617
Sunday	32597
certain	32579
done	32572
def@@	32562
ano	32562
ane@@	32558
wide	32499
pat@@	32454
environment	32394
ious	32393
young	32387
her@@	32353
address	32308
dex@@	32301
coming	32290
image	32259
burg	32231
makes	32179
might	32175
ill	32126
ban@@	32097
ef@@	32069
ana	32069
000	32048
pop@@	32015
cor@@	32012
comes	31992
material	31981
H	31975
ation@@	31974
transport	31972
70	31970
ass	31946
}	31919
ss@@	31901
Lor@@	31888
having	31887
Tr@@	31879
click	31869
ari@@	31848
required	31818
etc	31810
sci@@	31800
sto@@	31789
ders	31774
har@@	31702
min	31689
ani@@	31672
San	31669
9-@@	31636
ple@@	31621
standard	31611
pres@@	31568
12-@@	31532
words	31530
issue	31511
ement	31502
Te@@	31436
user	31430
women	31418
created	31377
University	31363
nature	31294
taking	31287
ous@@	31271
in-@@	31254
yet	31200
accommodation	31182
computer	31119
ath@@	31105
fac@@	31100
directly	31070
@	31067
ground	31044
decision	31026
Sp@@	31009
parts	30990
enti@@	30983
ear@@	30965
1,@@	30964
cooperation	30949
terms	30943
Tur@@	30922
out@@	30916
ck@@	30887
10.@@	30883
technical	30859
short	30853
sw@@	30850
believe	30737
Date	30730
team	30704
account	30699
ash	30680
ell	30662
aut@@	30656
land@@	30654
developed	30611
ger	30598
ade	30548
wor@@	30524
p-@@	30518
solutions	30517
ft	30514
sor@@	30474
X	30466
State	30448
La	30412
La@@	30394
front	30372
Ter@@	30302
ned	30293
ey@@	30269
—	30260
vic@@	30253
visits	30238
lin@@	30234
inc@@	30212
equipment	30202
bil@@	30151
Since	30134
Ã	30093
shed	30085
eng@@	30084
floor	30072
ized	30048
exhib@@	30032
sub@@	30027
updated	30014
agreement	30008
role	29996
growth	29975
issues	29962
ne	29931
read	29905
facilities	29904
ever	29892
network	29888
ial	29878
anc@@	29867
Tuesday	29857
never	29852
int@@	29844
Break@@	29798
towards	29734
ours	29731
self	29722
double	29718
machine	29685
requirements	29676
5.@@	29672
interest	29632
sus	29628
2000	29627
nor@@	29624
On@@	29613
major	29551
Sec@@	29541
features	29492
added	29488
hop@@	29485
City	29483
Col@@	29443
ads	29417
log@@	29393
comp@@	29386
mi@@	29372
continue	29350
sti@@	29342
Er@@	29320
users	29304
tun@@	29302
S.	29301
0.0@@	29285
10-@@	29275
Afr@@	29272
Don@@	29262
ther@@	29227
Free	29223
big	29205
illa	29201
wer@@	29197
Val@@	29072
requests	29061
27@@	29007
ore	28995
sun	28994
vol@@	28952
Q@@	28937
sites	28925
ning	28923
emplo@@	28899
scre@@	28877
ong	28780
cour@@	28760
tim@@	28734
4-@@	28730
Wednesday	28724
uc@@	28664
search	28658
rich	28623
non-@@	28614
Monday	28586
wit@@	28579
ones	28574
additional	28548
1st	28532
LO@@	28523
French	28518
ute	28511
usi@@	28500
cer@@	28495
ure	28485
dri@@	28478
direc@@	28455
form@@	28436
imm@@	28434
er-@@	28418
ise	28404
call	28320
gh@@	28288
6-@@	28283
sector	28277
ler	28267
original	28255
hard	28224
chi@@	28223
struc@@	28184
tive	28175
28@@	28171
An	28137
use@@	28137
equipped	28130
General	28081
forms	28061
Do	28057
past	28040
Spain	28038
ert	28035
particularly	28015
House	27959
thus	27954
everything	27947
reser@@	27925
ick@@	27902
ites	27878
USA	27877
can@@	27851
50@@	27831
Pe@@	27828
dy	27817
uses	27817
da	27812
mail	27791
ori@@	27785
ven@@	27752
true	27746
programme	27735
ru@@	27705
nic@@	27683
later	27659
U	27648
safety	27647
stain@@	27638
prof@@	27593
care	27569
Sw@@	27564
solution	27561
post@@	27552
al-@@	27551
tain@@	27542
changes	27518
Now	27513
meet	27501
keep	27422
matter	27413
of@@	27388
station	27374
au	27345
proper@@	27299
Time	27278
fam@@	27265
Cal@@	27257
na	27210
tors	27207
global	27199
cu@@	27197
2002	27170
lead@@	27162
member	27155
almost	27147
Ber@@	27111
45@@	27108
®	27085
Ha@@	27076
allows	27019
designed	27013
themselves	27007
takes	26984
groups	26970
meeting	26957
©	26912
below	26861
Ta@@	26847
cases	26843
ses	26802
500	26774
vil	26753
unique	26729
persons	26713
Deut@@	26710
40@@	26699
era	26696
1-@@	26687
knowledge	26675
lines	26651
ow@@	26643
test	26630
ayer	26604
held	26585
inst@@	26549
Her@@	26530
tal@@	26491
bar@@	26489
Boo@@	26474
outh	26458
turn	26457
fil@@	26447
ved	26414
ren	26404
35@@	26399
US@@	26388
questions	26375
ners	26352
Ste@@	26345
lower	26340
DL@@	26334
head	26291
rate	26278
ap	26246
seen	26238
Cor@@	26235
sal@@	26222
strong	26220
box	26185
trans@@	26182
select	26182
longer	26180
ety	26179
rec@@	26170
ol	26141
eri@@	26071
aved	26040
bring	26022
uni@@	26020
run	25985
rules	25975
obj@@	25975
film	25943
enter@@	25941
bal@@	25937
Ko@@	25900
del	25870
AG	25861
ging	25856
walk	25851
bur@@	25807
ask	25744
val@@	25679
spe@@	25637
bit	25629
effect	25569
cha@@	25566
ley	25564
includes	25556
materials	25492
return	25475
Ser@@	25441
soon	25385
series	25384
di	25377
Click	25364
included	25363
sin@@	25355
ight	25323
mis@@	25254
instr@@	25208
shows	25207
new@@	25200
76	25172
ending	25164
ka	25158
ist@@	25109
applications	25097
Inter@@	25092
excellent	25035
ale	24998
ign	24996
early	24982
feel	24973
ways	24960
beginning	24956
eral	24933
23@@	24928
ling	24923
reason	24899
temperature	24890
went	24879
gre@@	24854
professional	24854
ization	24853
26@@	24837
Community	24825
sign	24822
quite	24812
ma	24809
8.@@	24797
connection	24787
Switzerland	24748
rit	24728
ged	24698
war@@	24693
Y	24690
sent	24688
des@@	24678
receive	24678
pe	24665
office	24662
ili@@	24645
on-@@	24642
Board	24641
ns	24634
Ba@@	24609
ators	24587
gol@@	24548
oper@@	24477
shing	24474
com	24422
friend	24413
leading	24356
eu@@	24345
step	24314
Sal@@	24293
sec@@	24291
capital	24276
ble	24264
central	24253
Nex@@	24245
five	24228
rather	24214
Post	24193
uments	24152
Str@@	24127
Committee	24126
Son@@	24123
ood	24107
Lu@@	24107
ects	24106
charge	24105
recommend	24094
forum	24091
io@@	24090
Gam@@	24078
-20	24073
responsible	24022
ant@@	23996
one@@	23990
situ@@	23945
San@@	23941
simply	23922
ment@@	23912
37@@	23903
outside	23876
ado@@	23842
staff	23840
6.@@	23838
yl@@	23817
simple	23784
avi@@	23777
ections	23773
hand@@	23715
allow	23693
treatment	23691
22@@	23690
Go@@	23680
tionary	23656
produc@@	23648
shop	23634
share	23630
ko@@	23627
places	23622
berg	23580
drive	23576
respect	23554
part@@	23549
For@@	23543
entr@@	23519
Mit@@	23511
opportunity	23506
partment	23489
ww@@	23451
2001	23439
36@@	23439
amount	23410
reach	23394
calendar	23393
tory	23391
cat@@	23387
cost	23382
zi@@	23347
PD@@	23322
So@@	23312
ga@@	23267
related	23243
Br@@	23224
i-@@	23220
aid	23200
model	23189
ude	23186
spec@@	23180
Dr.	23160
Em@@	23145
onom@@	23111
either	23105
´	23086
anz@@	23081
7-@@	23076
arian	23048
class	23016
Rom@@	22992
button	22977
choose	22964
received	22959
act	22955
forward	22943
75	22939
ances	22932
ry	22890
plan	22876
ust	22869
stud@@	22866
11-@@	22842
wh@@	22826
limited	22804
America	22804
enough	22795
11@@	22782
proposal	22774
0,@@	22772
lands	22767
ges	22758
function	22753
bus	22735
gener@@	22712
zz@@	22700
II	22697
Republic	22691
lam@@	22688
card	22654
tho@@	22646
success	22643
Bar@@	22628
Bri@@	22626
web	22618
tem@@	22605
thern	22604
7.@@	22601
throughout	22588
entire	22582
tur@@	22570
National	22559
pages	22556
Nor@@	22547
gn@@	22517
reli@@	22506
effective	22478
hold	22477
force	22465
ces	22436
comfortable	22423
white	22423
09.@@	22423
na@@	22421
oil	22420
coun@@	22411
check	22390
items	22383
half	22378
Austria	22369
party	22369
born	22365
work@@	22359
ino	22356
study	22316
08.@@	22311
wind	22308
York	22303
Chris@@	22302
ase	22288
exc@@	22287
Bu@@	22275
sale	22253
9.@@	22234
higher	22229
ane	22223
iss	22215
details	22191
sound	22166
parties	22154
ash@@	22132
direct	22131
education	22116
pho@@	22081
Mini@@	22079
Oc@@	22079
actions	22044
commun@@	22044
ive	22043
round	22031
environmental	22029
covered	22021
acces@@	21997
supply	21997
90@@	21970
Si@@	21966
park	21942
arg@@	21934
pas@@	21930
resources	21914
ech@@	21905
Name	21905
needed	21892
tro@@	21841
travel	21836
Some	21833
sales	21831
existing	21825
completely	21818
Main	21804
approach	21802
pay	21800
latest	21798
vers	21789
04@@	21784
difficult	21778
easily	21769
iting	21759
Page	21732
She	21723
Bi@@	21718
title	21705
Res@@	21704
sed	21698
iver@@	21695
thre@@	21688
published	21669
American	21667
wine	21659
300	21653
vis@@	21649
across	21639
structure	21632
highly	21628
lies	21620
fir@@	21607
risk	21580
employment	21570
-10	21550
Sa@@	21545
top@@	21543
mess@@	21531
95	21524
Cap@@	21516
65	21505
choice	21497
spo@@	21494
29@@	21484
similar	21467
sa	21453
sive	21450
AT@@	21441
stern	21426
pan@@	21408
standards	21398
sid@@	21392
established	21379
ving	21341
capacity	21327
ger@@	21323
64	21322
became	21309
mor@@	21302
Fac@@	21292
markets	21281
Mat@@	21239
leg@@	21228
rac@@	21228
sun@@	21187
RE@@	21172
rise	21155
lead	21140
clusive	21137
started	21124
cal@@	21123
Len@@	21109
nov@@	21108
Bro@@	21090
month	21075
strial	21073
til@@	21060
operating	21038
ca	21038
Cro@@	21034
attention	21016
ju@@	20995
stage	20980
inte@@	20961
stop	20932
Ze@@	20924
tains	20913
shes	20884
ely	20863
ols	20863
Spi@@	20863
web@@	20852
·	20839
Regi@@	20838
port@@	20834
previous	20831
CD	20831
ection	20826
Pi@@	20812
presented	20794
allowed	20790
Gre@@	20772
coll@@	20754
ution	20739
brought	20727
tian	20708
......	20703
che	20694
ists	20673
culture	20655
every@@	20642
2,@@	20641
ken	20638
Cu@@	20630
99	20619
written	20614
audi@@	20608
fur@@	20586
St.	20581
cro@@	20548
rates	20544
El@@	20543
gas	20533
aw@@	20523
Service	20516
Italian	20495
daily	20487
ek	20475
ining	20473
wi@@	20466
ign@@	20459
Paris	20458
regional	20455
section	20454
ure@@	20454
operation	20441
cal	20436
variety	20436
ination	20428
de-@@	20426
é	20422
successful	20392
crisis	20387
During	20384
sign@@	20378
types	20373
Dis@@	20373
char@@	20371
tly	20352
ready	20351
p.@@	20343
400	20328
rent	20325
qui@@	20319
sphere	20318
improve	20281
high-@@	20280
suitable	20279
phone	20277
ching	20239
ental	20231
communication	20225
wat@@	20203
IT	20167
competition	20164
Sol@@	20164
implementation	20155
k-@@	20134
focus	20123
tos	20123
ide	20117
First	20115
vation	20080
jour@@	20067
follow	20064
got	20059
ately	20047
01.@@	20036
ser	20029
plus	20028
3-@@	20011
exchange	20001
plant	19970
institutions	19968
shown	19950
PC	19933
Medi@@	19927
workers	19912
bate	19891
authorities	19887
practice	19887
East	19877
final	19859
rs	19856
BE@@	19849
though	19835
e.g.	19834
ä	19828
London	19825
child	19822
ith	19813
sides	19803
sm@@	19793
dry	19776
ton	19746
medi@@	19746
ate@@	19734
í@@	19702
code	19669
Im@@	19662
ink	19657
q	19657
analysis	19655
ord@@	19642
mb@@	19632
fol@@	19623
visitors	19621
att@@	19612
open@@	19609
ale@@	19595
partners	19567
hor@@	19551
ets	19543
strict	19542
Day	19542
Am@@	19531
stand	19524
Fin@@	19521
Article	19520
potential	19513
community	19498
former	19495
ather	19491
-1@@	19490
Por@@	19488
CO@@	19487
Kar@@	19483
ple	19468
É	19453
RD	19443
pictures	19413
85	19411
reg@@	19403
incl	19384
Euro@@	19369
thous@@	19353
quickly	19350
tit@@	19332
death	19330
weight	19310
Of	19298
ayed	19291
Cre@@	19291
them@@	19290
ran@@	19288
target	19270
32@@	19247
North	19235
processes	19233
understand	19218
Therefore	19214
edi@@	19203
radi@@	19190
ney	19189
eh@@	19167
resting	19153
co	19148
levels	19144
05.@@	19136
Wor@@	19130
60@@	19106
re-@@	19105
bor@@	19102
oral	19099
recent	19088
len	19084
ak	19061
o.@@	19055
run@@	19044
source	19043
Med@@	19003
importance	19002
ain@@	18986
tival	18984
wid@@	18974
power@@	18966
ual	18965
sy@@	18954
essential	18949
surface	18946
note	18940
ra	18939
basic	18938
regard	18931
considered	18912
complex	18908
maximum	18906
self-@@	18903
sat@@	18901
ency	18885
bas@@	18884
ico	18876
Cat@@	18869
green	18849
mann	18833
..	18808
pers	18801
mind	18798
increased	18780
ian	18770
tis@@	18764
learn	18749
article	18742
add	18736
ray	18735
produced	18710
ath	18681
links	18679
responsibility	18674
develop	18667
Park	18666
res@@	18661
surance	18661
15-@@	18641
ana@@	18638
ward	18637
mini@@	18627
ing-@@	18627
itary	18624
involved	18621
pac@@	18614
gs	18609
wed	18604
wing	18603
largest	18602
Court	18595
44@@	18576
79	18567
enter	18562
Total	18554
back@@	18552
Sta@@	18542
aries	18534
transfer	18518
my@@	18511
Eur@@	18509
ard@@	18498
mission	18497
0.@@	18494
partner	18493
o-@@	18491
Other	18473
Rest@@	18472
Wh@@	18461
Ca@@	18457
storage	18452
framework	18451
positive	18448
doing	18434
38@@	18432
safe	18426
See	18424
„	18417
Management	18407
carried	18401
trac@@	18400
Press	18388
acc@@	18364
ok@@	18363
The@@	18357
int	18357
vision	18355
33@@	18355
effects	18350
Fo@@	18348
strategy	18342
m.	18341
progress	18341
Ó@@	18339
apply	18333
gives	18312
Information	18290
inside	18282
move	18269
una	18261
Office	18260
Ven@@	18255
IN@@	18251
fer@@	18233
leave	18222
ür@@	18212
whose	18210
low@@	18208
behind	18207
contains	18204
appropriate	18197
pressure	18193
commercial	18183
any@@	18175
purpose	18156
03.@@	18154
Pu@@	18139
distance	18133
band	18130
sity	18129
asse@@	18129
steps	18120
mer@@	18112
5-@@	18088
sters	18078
Fa@@	18077
length	18076
Room	18056
ire@@	18049
inal	18041
an-@@	18039
fle@@	18038
raz@@	18033
TE@@	18027
Hamburg	18027
device	18018
en-@@	18014
pt@@	18003
guarantee	17999
dom@@	17998
values	17960
Wel@@	17949
kets	17943
05@@	17943
conver@@	17914
bile	17892
demand	17880
UN@@	17869
m2	17867
expected	17849
dies	17828
picture	17826
Ú@@	17813
tools	17808
Gar@@	17802
adopted	17785
j	17782
west	17777
documents	17769
base	17761
famil@@	17750
sl@@	17745
ls	17740
metres	17730
VI@@	17725
foreign	17725
multi@@	17718
tool	17717
term	17711
greater	17708
aster	17705
Services	17705
ly@@	17702
option	17697
Â@@	17684
71	17676
regarding	17667
eg@@	17662
39@@	17654
fields	17648
cause	17625
sense	17615
dur@@	17615
St	17609
Frankfurt	17606
Mun@@	17601
ids	17578
ond@@	17570
Also	17568
internal	17548
kers	17547
tel@@	17537
tiv@@	17536
creation	17535
sing	17530
hot	17526
69	17522
gall@@	17521
Picture	17519
ton@@	17517
Vienna	17512
72	17506
meters	17504
nor	17493
Fl@@	17487
elements	17473
advantage	17466
states	17465
fore@@	17465
accomm@@	17459
dly	17452
Spanish	17449
deed	17446
Ger@@	17442
paper	17406
release	17400
exp@@	17388
decided	17387
movement	17382
soft	17362
models	17359
conference	17354
tac@@	17337
asked	17316
concerning	17307
agricul@@	17302
.g@@	17297
activity	17290
black	17289
ST	17288
Ri@@	17280
68	17266
pt	17261
selection	17254
relevant	17244
thought	17203
surroun@@	17193
numerous	17184
arr@@	17182
tell	17174
installation	17173
61	17168
ball	17165
ac	17163
significant	17162
offered	17162
AL@@	17153
spir@@	17152
Studi@@	17144
dation	17140
spi@@	17129
Center	17129
interested	17118
At@@	17115
Product	17112
achieve	17108
Fri@@	17102
components	17100
66	17092
gro@@	17091
ben@@	17086
arm	17060
anted	17047
2-@@	17044
ples	17040
extremely	17037
ank@@	17006
Business	17003
ut	16995
ffe@@	16988
Central	16983
val	16961
8-@@	16959
super@@	16955
context	16947
ess	16941
remain	16932
hour	16916
lives	16901
ences	16894
GMT	16864
immediately	16848
Min@@	16820
collection	16816
pra@@	16798
sky	16792
kg	16785
budget	16782
ily	16780
opinion	16774
cher	16771
Can@@	16770
options	16750
impact	16730
weeks	16719
to-@@	16716
policies	16715
clearly	16689
historical	16680
direction	16668
ME@@	16662
processing	16661
morning	16642
67	16642
regions	16640
inner	16631
3,@@	16620
Tra@@	16618
concept	16612
Pa@@	16604
Mal@@	16586
ef	16562
Read	16562
setting	16549
62	16548
mal@@	16540
contr@@	16527
hum@@	16527
inv@@	16522
Research	16516
100@@	16516
medical	16505
met	16501
population	16499
mat@@	16499
150	16494
Sof@@	16486
six	16480
eb@@	16473
49@@	16454
ater	16448
highest	16440
guarante@@	16435
dra@@	16433
SE@@	16433
integrated	16429
Development	16422
hous@@	16422
Only	16394
Hel@@	16392
ched	16374
aim	16371
Wi@@	16361
season	16360
deal	16354
sof@@	16351
payment	16340
73	16331
topic	16322
rit@@	16318
opened	16310
Let	16304
ax@@	16297
efficiency	16295
plants	16285
04.@@	16276
item	16272
77	16254
ancing	16248
Ti@@	16224
Bal@@	16209
ye	16206
extra	16197
reached	16195
Ru@@	16182
sting	16182
hom@@	16181
eds	16179
Proj@@	16156
gth	16147
coffee	16130
81	16115
sar@@	16113
89	16109
ja	16105
alo@@	16103
Eg@@	16095
starting	16088
rep@@	16086
late	16082
developing	16080
ilities	16071
Each	16065
As@@	16062
Ir@@	16048
build	16043
78	16039
pass	16015
99@@	16012
principle	16009
procedure	16008
DE@@	15997
ng	15992
possibility	15986
logical	15969
ades	15965
swimming	15965
concerned	15955
Fi@@	15955
unit	15945
stone	15943
father	15941
secure	15938
gave	15921
ships	15916
yourself	15913
err@@	15894
feature	15892
hap@@	15890
unds	15878
Pho@@	15871
mal	15870
hl@@	15870
display	15860
bio@@	15857
ically	15854
ption	15850
ble@@	15848
big@@	15841
Centre	15840
sta	15833
dedicated	15827
48@@	15822
Many	15819
closed	15814
remains	15812
dings	15811
list@@	15804
Ra@@	15801
ums	15801
74	15801
maz@@	15799
fish	15789
instead	15782
doc@@	15782
rely	15778
method	15774
aft	15769
1999	15762
pur@@	15761
76@@	15750
count	15737
digital	15734
independent	15731
external	15723
clean	15721
oul@@	15703
alt	15693
sen	15685
tes	15683
Gen@@	15683
67@@	15683
è@@	15679
ink@@	15677
West	15668
correct	15666
ck	15664
Bed@@	15660
LE@@	15650
efforts	15626
package	15625
format	15622
benefit	15593
82	15588
spac@@	15588
resor@@	15588
trav@@	15582
John	15578
skin	15576
selected	15574
Institute	15566
reasons	15558
80@@	15552
evening	15551
Liv@@	15550
UK	15547
condition	15539
Ben@@	15537
stock	15526
02.@@	15525
Bel@@	15521
Gal@@	15496
tage	15471
consul@@	15464
ali@@	15457
ny	15449
ening	15446
row	15438
functions	15435
ki@@	15415
post	15408
error	15395
sle@@	15387
fall	15371
cut	15369
voice	15355
equ@@	15351
innovative	15334
wal@@	15309
pic@@	15307
approx	15294
ational	15283
mg	15283
legislation	15277
--	15269
connected	15267
ories	15267
resolution	15267
glass	15258
adver@@	15257
flat	15249
Mag@@	15247
print	15236
disp@@	15234
machines	15229
dat@@	15225
Mer@@	15203
changed	15200
Ja@@	15199
produce	15194
e-mail	15192
efficient	15190
answer	15178
ile@@	15173
98	15161
rer	15150
providing	15149
Even	15146
63	15131
gli@@	15129
methods	15127
dimen@@	15122
un	15117
lik@@	15114
34@@	15101
prise	15099
Is	15086
mentioned	15085
Use	15083
planning	15066
posts	15063
opportun@@	15059
document	15050
Bre@@	15030
ene	15029
Coun@@	15024
Contact	15017
06.@@	15015
whom	15007
sible	14996
ticles	14996
steel	14995
A-@@	14985
ek@@	14984
vention	14982
status	14967
wall	14961
track	14960
ges@@	14957
ym@@	14952
va@@	14952
mean	14946
Just	14945
languages	14943
age@@	14942
Dem@@	14942
pain@@	14931
va	14913
ann	14898
uth	14877
65@@	14875
ki	14870
D-@@	14868
inu@@	14859
woman	14856
Ur@@	14850
pos@@	14841
st-@@	14830
tele@@	14824
placed	14821
93	14816
dor@@	14805
oll@@	14794
duc@@	14787
vit@@	14769
92	14757
Not	14747
usually	14747
opening	14735
udi@@	14717
aches	14715
02@@	14715
ument	14714
88	14689
Thus	14681
em	14674
Barcelona	14651
buildings	14647
average	14647
ils	14646
EN@@	14640
DE	14632
Han@@	14628
mark	14626
speak	14619
wipe	14619
ium	14613
began	14610
contract	14610
Lin@@	14598
worldwide	14589
Sim@@	14572
piece	14571
reports	14547
adv@@	14539
AR@@	14539
let@@	14537
eter@@	14526
comprehensive	14517
cast@@	14503
serve	14485
alk@@	14481
less@@	14475
ya	14469
serious	14466
55@@	14463
CD@@	14463
hands	14446
ring@@	14437
seems	14436
ia@@	14434
optim@@	14432
separate	14431
paid	14424
histor@@	14423
prepared	14422
alone	14415
ards	14412
supported	14403
Czech	14394
ano@@	14390
fan@@	14390
update	14387
CH@@	14379
ican	14374
Mad@@	14370
loss	14369
org	14366
myself	14362
AS@@	14359
07.@@	14359
About	14356
ented	14350
ideas	14325
growing	14324
r.	14322
Z	14317
New@@	14310
interests	14302
consider	14292
Har@@	14276
flo@@	14273
window	14265
75@@	14265
height	14260
anything	14258
Company	14237
watch	14233
Pan@@	14233
Gro@@	14226
entry	14225
worked	14207
Cul@@	14206
tish	14202
majority	14200
distribution	14196
13.@@	14194
eyes	14192
official	14176
le-@@	14174
increasing	14161
rel@@	14159
minute	14155
th-@@	14153
SS	14153
Dr@@	14134
phase	14121
reviews	14118
blood	14108
alog	14108
Ag@@	14107
ada	14105
proposed	14102
ergy	14097
reduce	14095
posed	14092
hal@@	14092
bel@@	14090
Wil@@	14086
achieved	14075
properties	14062
istic	14060
detailed	14060
itation	14049
Treat@@	14045
scale	14043
Back	14043
writing	14029
goes	14014
rich@@	14013
integration	14001
sing@@	13988
600	13968
sett@@	13966
lights	13959
head@@	13951
du	13949
concer@@	13947
org@@	13944
get@@	13944
relations	13939
fun@@	13938
review	13932
86	13919
RO@@	13917
kinds	13916
running	13913
agreed	13911
ß@@	13903
eries	13896
benefits	13890
otes	13881
ife	13875
physical	13871
91	13852
ker@@	13849
Q	13840
Del@@	13838
IM@@	13828
Description	13823
fight	13821
je@@	13814
alities	13812
giving	13809
ø	13801
exactly	13795
conditioning	13793
served	13788
fine	13782
Why	13762
stom@@	13760
design@@	13757
aching	13756
wards	13747
Its	13744
ket@@	13742
diver@@	13737
While	13733
88@@	13730
technologies	13717
recently	13713
applied	13711
euro@@	13703
ault	13693
joint	13692
lif@@	13692
lost	13687
fast@@	13682
CE@@	13672
Rome	13666
uri@@	13662
According	13653
sac@@	13648
4,@@	13645
EN	13642
Peter	13638
kes	13629
damage	13626
tle	13617
Social	13614
availability	13612
AA@@	13612
asc@@	13608
category	13589
pati@@	13586
120	13574
combination	13574
log	13559
sometimes	13557
beyond	13551
Bas@@	13545
Directive	13543
automatically	13540
S-@@	13537
13-@@	13535
programs	13532
Netherlands	13526
ai	13524
tation	13522
roo@@	13518
TE	13518
devices	13517
installed	13515
spen@@	13513
f-@@	13493
see@@	13481
prevent	13481
logy	13480
Because	13464
getting	13455
Tri@@	13448
told	13447
sit	13447
objective	13424
AC@@	13423
84	13421
Great	13420
Gi@@	13417
ro	13403
cle	13397
studies	13395
1998	13394
cep@@	13393
agree	13392
bs	13386
47@@	13380
selves	13376
tom@@	13374
dep@@	13370
valid	13364
consum@@	13363
19.@@	13362
she@@	13356
ures	13354
dates	13353
square	13352
numbers	13345
Sy@@	13323
fied	13316
aware	13311
ax	13305
although	13302
David	13295
fresh	13293
gra@@	13288
tives	13262
annual	13255
actual	13246
ero@@	13241
tware	13241
TO	13238
read@@	13237
mainly	13230
750@@	13226
eth	13225
Greece	13222
son@@	13217
01-@@	13217
¼	13217
bad	13202
46@@	13186
autom@@	13182
proce@@	13181
stat@@	13181
und@@	13179
Cl@@	13174
accept	13171
blue	13167
percent	13159
pieces	13159
goal	13152
balance	13134
Kingdom	13133
Poland	13124
vac@@	13124
middle	13121
stored	13120
69@@	13120
animals	13115
tex@@	13114
14-@@	13107
ty@@	13106
finally	13101
Vol@@	13097
SA@@	13085
flow	13080
aspects	13078
thers	13064
sup@@	13062
delivered	13055
Most	13044
serv@@	13028
mid@@	13017
orm@@	13015
cards	13012
Micro@@	12995
oring	12991
doesn	12990
cin@@	12981
Economic	12975
Content	12966
cable	12963
vehicle	12962
Station	12962
explo@@	12958
ssed	12957
Sen@@	12955
aged	12950
proposals	12930
96	12925
alized	12913
record	12906
presence	12900
Ren@@	12898
Photo	12889
carry	12888
require	12888
followed	12884
tures	12882
Tre@@	12879
comfort	12878
programmes	12875
colour	12868
store	12863
reference	12855
05-@@	12855
Special	12854
approximately	12853
fas@@	12853
ital	12840
line@@	12839
04-@@	12839
associated	12837
maintenance	12834
AN@@	12833
DI@@	12826
Edi@@	12821
Cham@@	12820
scientific	12820
lop@@	12809
cut@@	12806
useful	12789
lan@@	12789
Lake	12774
mar	12759
hy@@	12745
hel@@	12742
Association	12738
arb@@	12735
Co	12735
decisions	12733
minimum	12728
mm@@	12725
ff	12720
assistance	12719
än@@	12718
ises	12710
Open	12709
Affairs	12706
becomes	12706
participants	12704
whe@@	12698
Tran@@	12696
chance	12693
ste	12689
ont	12687
ick	12682
generation	12665
normal	12646
enable	12645
max	12643
ese	12634
reading	12626
ix	12614
registered	12599
was@@	12593
dered	12591
turned	12570
bir@@	12568
mul@@	12554
limit	12546
toc@@	12538
97	12537
tries	12535
IS@@	12534
units	12530
RA@@	12529
ab	12516
purchase	12512
03-@@	12511
azine	12504
io	12496
omep@@	12490
hun@@	12478
entary	12472
02-@@	12471
urity	12468
ona	12467
defined	12462
Furthermore	12461
probably	12456
competi@@	12448
w.@@	12443
fundamental	12441
ion	12439
practical	12435
regulation	12429
statement	12428
relationship	12423
tas@@	12423
ligh@@	12417
san@@	12417
sten	12408
yed	12406
ga	12404
System	12400
consists	12387
ected	12384
tables	12375
mother	12373
sour@@	12369
Japan	12358
program@@	12357
comments	12351
ound@@	12346
well-@@	12346
overall	12340
broad@@	12335
idity	12332
sation	12316
fer	12313
Forum	12311
brand	12306
structures	12304
claim	12302
ural	12298
Ci@@	12291
peri@@	12291
avoid	12290
ud	12280
protected	12280
Mari@@	12279
06@@	12275
ava	12270
lack	12269
accordance	12265
write	12264
onto	12252
Area	12249
ped	12248
pal@@	12246
Comments	12240
plan@@	12226
83	12222
ON	12220
sel@@	12216
tial	12210
ases	12207
ams	12198
Chinese	12195
electric	12194
aria	12191
ome@@	12189
outdo@@	12188
operations	12186
reduced	12184
Where	12182
gir@@	12175
Tro@@	12172
ological	12144
behalf	12141
Conference	12140
waste	12132
electronic	12114
host	12108
protect	12107
heat	12095
EC@@	12093
understanding	12089
MP@@	12082
response	12075
electr@@	12074
character	12074
ues	12072
za	12069
Jer@@	12066
Trac@@	12065
listed	12062
icity	12054
Op@@	12054
ER@@	12053
dam	12049
creating	12045
kin@@	12036
ette	12035
à	12032
typical	12027
Mi@@	12019
rule	12018
Very	12016
ingen	12000
ST@@	11995
Camp@@	11987
influence	11985
16.@@	11983
care@@	11980
advance	11977
Take	11971
70@@	11971
spl@@	11963
talk	11959
description	11958
requires	11955
87	11954
promote	11949
alization	11941
caused	11922
initiative	11919
250	11918
studi@@	11911
analy@@	11908
ha	11902
yo@@	11896
ales	11888
es-@@	11882
ret@@	11877
ugh@@	11875
ras@@	11867
completed	11854
special@@	11850
94	11838
NE@@	11834
smoking	11833
degree	11831
mel@@	11828
cleaning	11824
Bon@@	11821
wo@@	11814
plans	11793
human@@	11786
experts	11775
patients	11775
star@@	11768
tab@@	11755
commitment	11751
regular	11747
walking	11747
ously	11738
calls	11736
ising	11727
warm	11723
09@@	11723
E-@@	11715
tan@@	11709
pub@@	11699
platform	11698
translation	11692
challenges	11687
courses	11686
atur@@	11682
sy	11678
locations	11671
ó@@	11668
Sub@@	11662
bra@@	11652
Rob@@	11645
marketing	11644
hair	11640
discussion	11634
PS	11627
innovation	11626
hu@@	11623
worth	11621
begin	11620
arity	11615
07@@	11612
claims	11610
AD@@	11607
ino@@	11598
infrastructure	11598
rom@@	11585
else	11584
Add	11578
i.e.	11569
extension	11569
contribution	11567
Dec@@	11565
remo@@	11557
pul@@	11557
MA@@	11552
disease	11544
alisation	11539
relax@@	11539
database	11529
high@@	11526
ez@@	11510
syn@@	11510
experienced	11508
co-@@	11507
ths	11506
signed	11502
ole	11498
experiences	11495
resi@@	11490
sit@@	11484
dialogue	11478
procedures	11477
cou@@	11475
Once	11467
recommended	11466
lab@@	11461
patent	11459
Hor@@	11445
hear	11444
Bur@@	11444
seven	11442
bec@@	11441
TI@@	11439
Although	11438
fy	11438
zen	11435
session	11432
enables	11432
eu	11428
vehicles	11424
High	11421
task	11417
Before	11414
Kon@@	11411
ham@@	11408
principles	11405
ria	11402
lun@@	11400
deep	11391
nel	11386
eld	11385
chosen	11378
objectives	11374
compared	11371
learning	11370
inks	11353
AN	11352
chen	11352
Up@@	11342
appear	11331
esses	11327
ares	11322
cell@@	11321
THE	11321
Sou@@	11319
reduction	11318
bath	11313
My@@	11312
route	11308
Sum@@	11298
LI@@	11290
HO@@	11289
Bl@@	11274
labour	11268
provider	11268
imp@@	11256
telephone	11255
amb@@	11254
regi@@	11252
alogue	11250
Sur@@	11247
encoun@@	11244
consumption	11243
cen@@	11238
uk@@	11232
detail	11231
g.@@	11228
aring	11225
gram@@	11223
len@@	11215
bility	11215
77@@	11211
sic@@	11209
hear@@	11207
priority	11207
AP@@	11203
volume	11197
MB	11193
Out@@	11183
tons	11178
angu@@	11176
notice	11170
strength	11166
sets	11165
submitted	11159
ato@@	11150
book@@	11148
MS	11146
directive	11139
accepted	11139
Hi@@	11134
59@@	11133
engineering	11131
ambi@@	11130
Ed@@	11123
transpor@@	11121
die@@	11118
sight	11114
tran@@	11105
extensive	11104
names	11104
writ@@	11102
ently	11100
det@@	11092
hen	11092
tail	11078
EPC	11075
subsi@@	11071
arms	11066
pet@@	11060
los	11058
etz@@	11051
Sil@@	11049
gest	11045
Finally	11044
difference	11042
Met@@	11042
prior	11040
Du@@	11035
introduced	11032
output	11032
Every	11031
Data	11016
Bor@@	11010
advanced	11007
16-@@	11004
plic@@	10994
species	10993
Canada	10990
well@@	10984
ky	10981
supports	10979
Fil@@	10975
ised	10971
izing	10961
1997	10958
acqu@@	10958
Le	10949
olic	10948
ounced	10947
prom@@	10946
AU@@	10943
purposes	10940
fruit	10935
heating	10935
occup@@	10934
Michael	10925
Shi@@	10920
rid	10916
Die@@	10903
FI@@	10902
concerns	10895
edings	10888
presentation	10887
Rel@@	10886
Two	10886
gold	10885
emb@@	10882
mun@@	10877
Can	10876
lar@@	10876
eli@@	10869
Director	10857
Tele@@	10855
science	10847
adi@@	10840
5,@@	10838
alternative	10834
alling	10831
assi@@	10831
Code	10830
Franc@@	10827
ini	10826
metal	10825
condi@@	10824
lied	10820
sel	10818
furniture	10815
Products	10812
ateg@@	10807
Spe@@	10801
May@@	10790
graphy	10787
tests	10785
ring	10785
IP	10780
fee	10777
Fore@@	10775
advantages	10774
positions	10771
Lit@@	10765
People	10761
ML	10742
break	10739
appeal	10738
Non-@@	10735
poor	10734
Life	10729
gets	10725
graph@@	10723
provisions	10720
proc@@	10715
Lis@@	10708
EC	10707
continued	10706
800	10700
ñ@@	10700
ames	10699
comb@@	10694
RI@@	10691
background	10674
ouse	10666
touch	10666
loc@@	10663
Form@@	10663
85@@	10662
pow@@	10657
Sun@@	10657
agreements	10651
ills	10650
eller	10645
ör@@	10644
Sha@@	10643
g-@@	10641
manner	10638
and-@@	10632
Dom@@	10629
dge	10628
taste	10624
funding	10621
eur@@	10619
fen	10618
core	10617
effort	10610
inning	10609
elling	10604
remove	10604
tainment	10603
architecture	10585
Char@@	10584
Find	10584
War@@	10583
foot	10581
ella	10572
follows	10563
Technology	10562
elle	10561
gence	10557
gal@@	10551
tes@@	10547
skills	10546
someone	10544
nation@@	10543
kept	10541
fill	10538
networ@@	10531
AG@@	10527
No.	10521
representatives	10520
C.	10520
Red	10519
passed	10516
B-@@	10509
ere@@	10505
Commun@@	10503
dele@@	10500
index	10494
cc@@	10490
wrong	10483
Rec@@	10479
participation	10475
lish	10468
nia	10466
lake	10465
reform	10464
possib@@	10463
meaning	10463
raine	10461
standing	10456
monitoring	10454
Mil@@	10452
ush	10450
regulations	10450
Pen@@	10449
OS	10449
combined	10442
reliable	10441
released	10438
shape	10435
ilo@@	10432
Phil@@	10432
Belgium	10431
harmon@@	10426
forget	10403
PE@@	10402
aving	10402
Sit@@	10400
expen@@	10390
nam@@	10388
ased	10387
Public	10383
bul@@	10374
sources	10374
install@@	10374
Members	10370
Bar	10368
alls	10366
ific@@	10360
larger	10360
improved	10357
intended	10357
ming	10356
feed	10354
visible	10349
stands	10341
Riv@@	10337
isch@@	10332
ts@@	10331
tin@@	10330
enda	10325
rings	10305
400@@	10305
Moreover	10301
Bil@@	10297
atin	10295
14.@@	10294
Health	10291
walls	10290
long-term	10285
vely	10284
illed	10283
arrang@@	10278
letter	10276
mon	10276
transparent	10269
ani	10269
appreci@@	10265
tail@@	10261
omet@@	10261
ond	10257
anim@@	10251
likely	10244
bought	10240
rati@@	10239
abilities	10238
described	10236
ER	10232
nt	10228
ema	10220
memory	10203
sal	10194
Ni@@	10191
leads	10190
17.@@	10190
vin@@	10185
6,@@	10182
animal	10177
sers	10176
De	10176
atory	10169
changing	10168
ll@@	10162
clock	10161
manufacturing	10149
hood	10145
itor	10145
categories	10142
sn@@	10133
ok	10130
cold	10115
prises	10115
oned	10115
mage	10115
IT@@	10110
agen	10109
inary	10108
Mu@@	10107
15.@@	10106
but@@	10103
fit	10102
integr@@	10099
fel@@	10094
instance	10090
Year	10089
astern	10089
utes	10081
operate	10081
scope	10078
fixed	10078
--@@	10078
Cam@@	10076
challenge	10072
Sk@@	10071
consumer	10066
association	10060
prov@@	10056
identi@@	10053
rene@@	10050
mode	10050
-1	10050
og@@	10049
Off@@	10047
cip@@	10043
Gall@@	10038
Ph@@	10037
oro@@	10033
sectors	10029
ith@@	10025
|	10012
ð@@	10011
profile	10010
tising	10007
shared	9999
tivity	9999
demands	9997
finished	9984
Ges@@	9976
scha@@	9970
equal	9960
exist	9947
van	9947
rece@@	9946
saf@@	9940
raised	9935
eye	9930
Tor@@	9928
pleased	9924
strategic	9921
contribute	9918
uration	9918
,000	9911
edge	9908
0-@@	9904
ie@@	9900
seeing	9887
IS	9881
ena	9878
zo@@	9876
Mor@@	9870
deposit	9868
1996	9865
eat	9859
lowers	9857
une	9848
respective	9848
ingly	9847
contents	9842
birth	9837
cycle	9834
returned	9834
corporate	9831
ordinary	9830
open-@@	9828
stability	9826
entation	9825
planned	9824
criteria	9822
ake	9817
foot@@	9812
approved	9810
pre-@@	9810
Black	9807
helps	9796
measure	9795
organisation	9793
M.	9786
register	9783
ello	9781
loaded	9772
offices	9760
died	9760
administration	9755
ent-@@	9753
extent	9751
dated	9741
advice	9739
ady	9739
draw	9738
ES	9738
committed	9732
ania	9732
ably	9731
ache	9729
farm	9716
decide	9703
developments	9684
sim@@	9681
looks	9679
lets	9678
bri@@	9677
favour	9676
jud@@	9673
tte	9670
ective	9667
otherwise	9665
`@@	9665
named	9657
ron@@	9654
89@@	9637
olence	9634
printing	9630
proof	9629
tioned	9619
tak@@	9613
income	9613
Both	9612
thousand	9610
owner	9607
rib@@	9606
ari	9604
parents	9598
relation	9596
linked	9590
organisations	9579
ital@@	9578
tasks	9570
asing	9566
ful@@	9563
CHF	9559
fru@@	9556
Place	9556
deci@@	9552
Show	9550
iling	9549
rain	9548
Wo@@	9547
21.@@	9547
sper@@	9546
orr@@	9542
implemented	9538
Bra@@	9538
marked	9537
Check	9536
Kun@@	9534
spring	9533
sear@@	9532
uck	9526
l-@@	9526
ague	9515
ouri@@	9513
maintain	9512
Sup@@	9512
waiting	9508
Mac@@	9508
generally	9504
å@@	9504
worl@@	9503
signs	9502
Best	9499
micro@@	9495
establish	9494
Note	9489
empha@@	9485
modified	9481
surrounding	9478
replace	9477
J	9476
d.@@	9469
avel	9468
CE	9467
Pas@@	9467
Category	9467
concern	9461
bodies	9461
Ireland	9460
entered	9459
Bab@@	9459
Cour@@	9457
testing	9456
itr@@	9456
king@@	9450
origin	9443
Good	9442
flexible	9441
neither	9439
secre@@	9437
Children	9435
ti	9431
Middle	9426
2nd	9425
mass	9421
Market	9420
sens@@	9419
01@@	9414
lo	9407
sland	9401
trying	9400
matters	9398
amendments	9392
suc@@	9392
ratio	9389
expect	9379
bon@@	9379
CI@@	9373
onia	9371
erv@@	9371
recor@@	9367
figures	9364
iness	9361
i.@@	9357
Party	9356
ven	9354
Up	9353
hn	9352
IB	9351
managed	9334
thi@@	9327
evidence	9325
smaller	9323
represents	9322
easier	9322
atic@@	9317
SO@@	9313
perform@@	9310
Sweden	9309
Martin	9307
grounds	9306
1995	9305
Vir@@	9299
registration	9298
Dig@@	9297
rock	9295
itors	9290
thinking	9286
plastic	9286
lea@@	9286
orig@@	9284
copy	9279
ja@@	9277
mental	9276
plate	9270
Justi@@	9266
emp@@	9263
Agre@@	9262
warded	9261
figure	9258
Comp@@	9256
sold	9254
1000	9248
à@@	9247
spot@@	9241
quarter	9239
element	9237
Australia	9236
speaking	9228
bru@@	9228
virtu@@	9226
so-called	9220
Portugal	9216
anda	9216
anti-@@	9211
ier	9208
corner	9205
aven@@	9195
affected	9194
Saint	9185
performed	9184
ita	9181
AL	9177
stated	9172
Science	9164
omo@@	9160
water@@	9159
qual@@	9152
logn@@	9152
loo@@	9151
drink	9150
Safety	9147
medium	9146
STE@@	9145
existence	9137
28.@@	9130
displayed	9128
Cy@@	9119
quo@@	9113
ix@@	9113
determined	9111
overview	9108
Another	9093
cross-@@	9093
continues	9093
remember	9091
Brussels	9090
AD	9083
depending	9075
automatic	9072
formed	9071
-up	9066
feeling	9065
erb@@	9065
42@@	9063
Trade	9060
atin@@	9058
wash@@	9057
w-@@	9055
manufacturers	9053
Super@@	9053
flexi@@	9051
Kr@@	9049
MO@@	9044
justi@@	9043
outstanding	9043
KG	9039
Cha@@	9037
AS	9035
spread	9032
handling	9023
sell	9021
ON@@	9010
Coll@@	8998
Enter@@	8996
classic	8995
Deutschland	8995
assessment	8993
ara	8992
sufficient	8991
pursu@@	8991
WE@@	8990
lay@@	8989
bottom	8987
ible	8981
gri@@	8981
Report	8980
Direc@@	8980
except	8976
aci@@	8974
Men@@	8972
liber@@	8971
Mus@@	8970
fix@@	8965
SI@@	8965
Leg@@	8963
foli@@	8962
aza	8959
orders	8956
56@@	8955
discussed	8953
87@@	8952
rency	8951
Fer@@	8945
pass@@	8939
Gl@@	8937
ony	8936
ured	8933
factors	8932
grade	8930
Sar@@	8924
connec@@	8918
critical	8913
Further	8909
ature	8909
Review	8908
moved	8907
ull	8906
Flo@@	8906
dark	8902
UN	8897
Pop@@	8890
extended	8888
odation	8887
amm@@	8881
asi@@	8881
contain	8879
conc@@	8876
Bio@@	8872
SP@@	8870
Street	8870
fav@@	8869
Ul@@	8862
tar@@	8857
Due	8848
zed	8847
inform@@	8845
Don	8844
tra	8841
III	8841
controlled	8841
antly	8840
cross	8836
glob@@	8832
marks	8831
8,@@	8821
relax	8819
upper	8817
aims	8815
meetings	8809
Ü@@	8806
appears	8804
ml	8800
clou@@	8799
Or	8791
Madrid	8772
cru@@	8770
Old	8768
ola	8763
multiple	8762
pose	8760
Ak@@	8760
All@@	8759
79@@	8753
oric@@	8752
ulation	8751
RE	8749
User	8743
vor@@	8740
healthy	8736
atis@@	8731
je	8729
preparation	8728
authority	8725
aging	8725
gin	8721
A.	8721
Human	8720
Start	8719
spent	8718
Systems	8718
Bir@@	8715
removed	8713
firm	8709
Ministry	8705
ended	8704
felt	8703
Hungary	8700
cement	8697
happen	8696
circumstances	8696
frame	8691
appointed	8691
Ol@@	8689
ancy	8687
resistance	8685
rapporteur	8682
Oper@@	8670
ling@@	8664
bed@@	8663
Vis@@	8661
lei@@	8658
participate	8657
feet	8656
Tem@@	8656
SC@@	8654
yar@@	8653
Part@@	8653
te-@@	8646
messages	8641
ura	8638
Meeting	8637
moving	8633
î@@	8632
s.	8630
ata	8625
art@@	8625
errors	8616
deliver	8615
packaging	8613
week@@	8608
El	8607
one-@@	8601
successfully	8597
cells	8588
driving	8585
stable	8581
tested	8581
sex@@	8575
ou	8574
wait	8571
lowing	8570
Wal@@	8568
earlier	8566
ien	8566
Fran@@	8563
know@@	8561
drop	8556
udent	8555
Via	8552
acti@@	8550
ahead	8547
tin	8545
stations	8526
competitive	8525
starts	8525
bit@@	8519
missing	8516
proj@@	8516
author@@	8515
older	8515
C-@@	8508
ech	8507
granted	8505
nearly	8503
sitting	8498
stein	8495
lic	8495
therapy	8488
insul@@	8487
oses	8485
attle	8480
conn@@	8479
ate-@@	8478
mir@@	8477
dy@@	8476
58@@	8476
specified	8474
ives	8473
hid@@	8472
anyone	8469
lift	8461
cere@@	8460
Thomas	8459
Da@@	8458
eth@@	8457
Sel@@	8455
ened	8451
ride	8449
pressive	8445
hair@@	8444
vid@@	8441
lish@@	8438
57@@	8436
ij@@	8432
couple	8428
tol@@	8427
pine	8425
becoming	8422
66@@	8422
1994	8419
dynamic	8419
bac@@	8415
9,@@	8414
quick	8408
covers	8404
increasingly	8399
ba	8398
yr@@	8397
Their	8395
MB@@	8395
represent	8389
tried	8383
consequences	8379
seem	8378
Inve@@	8375
Garden	8374
abroad	8373
heim	8372
wear	8370
fü@@	8370
filled	8369
Dor@@	8369
List	8367
ko	8365
vie	8363
18.@@	8362
110	8360
versions	8356
Chi@@	8354
examples	8353
regards	8351
se-@@	8348
Af@@	8347
rap@@	8342
rising	8337
MI@@	8334
broad	8331
risks	8329
fication	8326
windows	8325
lac@@	8322
ç@@	8322
character@@	8321
establishment	8319
desire	8319
о@@	8318
evaluation	8312
verse	8302
express	8300
settings	8297
BO@@	8297
exercise	8296
negative	8294
sk	8292
squ@@	8290
ector	8288
belong	8285
Ga@@	8285
rif@@	8280
Pac@@	8280
ify	8278
03@@	8269
25.@@	8269
ains	8268
seek	8266
eva	8264
White	8263
Email	8263
mas@@	8261
onal	8258
grow	8251
supporting	8247
happened	8244
relating	8241
eder@@	8239
ires	8233
hundred	8232
Elec@@	8230
bel	8228
manufacturer	8227
eze	8227
Bud@@	8224
ade@@	8222
Several	8221
techno@@	8219
ind@@	8217
significantly	8214
cow	8212
represented	8210
py@@	8209
Rev@@	8207
patient	8207
absolutely	8199
tig@@	8192
committee	8191
introduction	8189
Quality	8186
licen@@	8186
enth@@	8185
si	8183
hou@@	8181
heavy	8175
gone	8172
tured	8169
Ban@@	8169
OR@@	8169
chain	8167
magn@@	8166
department	8165
recorded	8164
partnership	8160
depends	8159
presents	8148
Prague	8140
lit@@	8138
AM@@	8138
ische	8137
rej@@	8135
spaces	8135
NO@@	8131
Film	8126
improvement	8109
despite	8107
Indi@@	8107
97@@	8107
Environ@@	8105
ements	8098
Cr@@	8097
chemical	8095
nuclear	8094
expertise	8092
Inf@@	8091
Pic@@	8089
brings	8088
Cri@@	8087
SA	8086
implement	8080
graphic	8080
smo@@	8069
IC@@	8067
cell	8065
3rd	8065
laid	8052
multi-@@	8052
Maria	8052
dinner	8048
Joh@@	8045
Any	8042
24.@@	8038
motion	8037
scrip@@	8034
â	8033
wable	8030
ology	8030
nal@@	8029
bridge	8023
Moder@@	8018
RU@@	8015
sex	8013
drawn	8012
bic@@	8009
Alex@@	8008
spective	8005
mit@@	8005
700	8004
tan	8001
Nov@@	8001
7,@@	7997
divided	7995
expression	7995
jac@@	7995
usual	7993
cle@@	7988
gain	7988
prepare	7988
false	7987
knows	7986
oration	7982
Green	7980
,5	7978
Background	7978
Nat@@	7975
rating	7973
ug	7972
topics	7967
ock@@	7967
manager	7961
TR@@	7961
DO@@	7954
nes	7952
ount	7950
lat@@	7949
Under	7948
individuals	7947
applies	7947
canc@@	7947
assembly	7947
ducation	7943
zer	7943
sizes	7942
Lab@@	7937
Star	7935
obtain	7933
aks	7932
counter@@	7928
Society	7926
dar@@	7925
sis	7922
yn@@	7922
Mail	7921
™	7921
Luc@@	7917
Finland	7916
ock	7916
Che@@	7915
Those	7911
ora	7911
22.@@	7911
expres@@	7910
tically	7908
Tit@@	7906
depth	7904
manage	7901
Ka@@	7898
dan@@	7895
initial	7894
PO@@	7889
Soci@@	7888
lung	7887
ried	7887
PG	7883
tech@@	7882
Rol@@	7882
hib@@	7878
sort	7877
library	7877
mes	7876
pover@@	7874
permanent	7871
27.@@	7869
1990	7866
fax	7866
Water	7857
atr@@	7852
sibility	7851
la-@@	7851
cht	7851
milli@@	7850
specially	7845
territory	7843
Amsterdam	7842
lived	7830
collaboration	7829
heav@@	7828
spot	7826
Administr@@	7824
looked	7820
aimed	7819
expressed	7814
vo	7814
sin	7808
dules	7804
ries	7803
beg@@	7803
oblig@@	7802
alle@@	7790
refer	7782
ME	7781
catalogue	7778
uk	7775
stly	7770
goals	7769
administrative	7766
ID@@	7765
improving	7757
Such	7756
sco@@	7755
ack	7751
stry	7751
forced	7739
Gener@@	7738
component	7737
Prin@@	7735
rests	7733
visual	7732
ough	7729
proper	7723
ound	7722
confidence	7720
Rh@@	7720
block	7719
QU@@	7716
Bol@@	7716
lock	7716
motor	7714
Ham@@	7713
Get	7713
AB@@	7706
repair	7696
characteristics	7693
draft	7689
ication	7689
pping	7688
where@@	7686
Lat@@	7685
Prof.	7678
wise	7677
ator@@	7676
fic@@	7675
ista	7673
desired	7668
reserved	7668
CT	7665
informed	7663
Access	7663
onally	7662
1992	7660
previously	7656
factor	7654
constantly	7653
agency	7652
mine	7652
ringing	7651
union	7650
resulting	7640
temporary	7639
band@@	7639
etary	7635
reported	7634
acts	7628
Ob@@	7628
closely	7626
organic	7614
dream	7606
2007-@@	7605
inform	7602
Over	7601
SD	7595
eight	7592
perform	7589
stress	7585
constant	7579
oli@@	7575
tres	7575
primary	7571
invited	7570
providers	7568
statements	7566
specifically	7561
practi@@	7557
onic	7557
environ@@	7553
Rot@@	7552
structural	7536
Tim@@	7536
alu@@	7532
sexual	7532
ulate	7530
doubt	7529
nit@@	7526
Cle@@	7525
main@@	7522
Â	7522
initiatives	7521
á	7521
eder	7519
indi@@	7518
satisfaction	7515
greatest	7513
yment	7511
lev@@	7509
Brit@@	7507
enz@@	7506
strengthen	7505
appro@@	7501
ility	7499
Vic@@	7499
impossible	7497
expert	7496
ification	7495
TA@@	7495
guid@@	7491
lose	7490
discuss	7489
180	7483
referred	7471
Type	7469
Department	7466
Dan@@	7461
occ@@	7461
SQ@@	7459
tract	7454
allowing	7448
beli@@	7447
charged	7444
cis@@	7437
ore@@	7435
ine-@@	7435
practices	7433
TO@@	7433
sus@@	7433
residence	7432
ING	7432
immediate	7429
launched	7427
thir@@	7425
Dim@@	7420
bright	7420
VE@@	7420
iry	7419
Des@@	7416
discipl@@	7414
attack	7413
differences	7409
Equ@@	7408
LA@@	7408
lip@@	7408
module	7408
elled	7404
ides	7401
reserve	7397
Orig@@	7397
confirmed	7394
unless	7393
awa@@	7389
rea	7388
IN	7388
don@@	7376
corresponding	7374
conclusion	7374
1993	7371
issued	7369
func@@	7369
logis@@	7365
sep@@	7365
facility	7359
break@@	7347
icate	7346
hof	7342
ply	7339
raw	7336
ô@@	7336
appearance	7334
straight	7332
stand@@	7332
bo	7332
Live	7330
keeping	7329
rand@@	7326
pap@@	7326
carefully	7320
68@@	7316
facing	7313
sheet	7313
dang@@	7308
â@@	7308
harb@@	7307
ille	7307
connect	7305
ira	7301
Global	7299
suffering	7298
contrast	7295
recogn@@	7295
54@@	7295
ado	7294
dul@@	7293
dependence	7284
anded	7281
History	7273
130	7273
adults	7268
faces	7263
frequently	7258
sty@@	7258
m-@@	7257
rence	7256
division	7255
AT	7255
phy	7254
140	7253
holds	7250
crucial	7248
capable	7245
aker	7244
Net@@	7241
input	7240
FA@@	7236
isation	7233
regularly	7229
some@@	7227
lig@@	7225
check-@@	7225
mostly	7219
sum	7217
tina	7212
valuable	7211
kun@@	7209
suppli@@	7205
elec@@	7203
SE	7202
remaining	7201
29.@@	7199
78@@	7199
determine	7197
Be	7197
Econ@@	7192
chair@@	7191
primarily	7190
England	7188
iron	7187
discussions	7185
tiveness	7181
ied	7180
sses	7179
cel	7176
promo@@	7175
pure	7175
packages	7172
guidelines	7171
occasion	7166
label	7165
obtained	7162
160	7158
HD	7155
Def@@	7153
Inst@@	7151
publication	7150
Agency	7149
export	7148
treat	7147
fridge	7146
meat	7141
350	7141
ge-@@	7141
representative	7140
entirely	7139
causes	7138
anta@@	7138
anni@@	7137
J.	7137
Star@@	7136
~	7135
instructions	7134
t.	7134
bing	7130
Obj@@	7129
aud@@	7128
solid	7126
transl@@	7126
erce	7122
all-@@	7121
tered	7119
functional	7115
chair	7103
fashion	7097
ensuring	7095
stream	7095
ender	7093
Food	7092
ham	7092
ele	7087
mark@@	7085
lod@@	7083
female	7081
provision	7078
n-@@	7077
explained	7077
organised	7075
elev@@	7073
Luxembourg	7068
lie	7064
handle	7063
Cla@@	7062
mouse	7057
scri@@	7056
Support	7053
š@@	7052
ables	7050
volu@@	7050
Mas@@	7048
Regulation	7047
pes	7043
Mary	7042
medicine	7041
EP@@	7040
loading	7036
yes	7024
toward	7023
31.@@	7021
identify	7018
increases	7015
lor@@	7014
dog	7014
pick	7013
Programme	7010
laun@@	7010
techniques	7008
measurement	7008
ild@@	7005
Ke@@	7004
opposite	6992
closer	6984
Financial	6983
hat@@	6983
AC	6981
Lan@@	6971
ration	6966
Control	6961
ting@@	6960
Japanese	6960
qualified	6955
situations	6954
Site	6954
Dar@@	6951
effectively	6948
channels	6947
4th	6947
inger	6946
Cer@@	6941
visiting	6937
aqu@@	6935
signal	6931
Bet@@	6930
as-@@	6929
compliance	6926
TH@@	6924
weet	6923
gate	6921
fr	6920
recognition	6918
notes	6918
arth@@	6914
hour@@	6912
Psycho@@	6910
eno@@	6909
F-@@	6909
sz@@	6908
covering	6905
treated	6903
finish	6898
Trans@@	6894
worth@@	6893
alised	6892
ership	6892
encia	6885
explore	6883
max@@	6883
long@@	6882
cel@@	6882
visit@@	6879
lay	6874
Bad	6874
Double	6873
lists	6867
afternoon	6866
knew	6866
Standard	6864
formation	6861
Update	6860
ark	6858
umn	6856
26.@@	6855
documentation	6849
thr@@	6846
joined	6845
Romania	6844
Dist@@	6844
Technical	6843
panel	6841
drawing	6839
atures	6833
Ten@@	6831
continuous	6829
mur@@	6825
texts	6822
showed	6820
erm@@	6818
vel@@	6817
mention	6815
applicable	6815
transparency	6812
inations	6812
helped	6810
nec@@	6810
red@@	6809
channel	6809
wishes	6808
utili@@	6807
Following	6807
300@@	6807
monitor	6805
ived	6805
claimed	6805
sensitive	6804
resid@@	6803
employed	6801
prin@@	6797
Details	6795
izes	6792
discri@@	6790
limits	6786
deep@@	6782
Set	6777
subj@@	6770
trial	6770
promotion	6765
LE	6759
wild	6755
cir@@	6751
filter	6749
layer	6748
expansion	6744
unk	6744
Land@@	6743
exclusively	6742
Hu@@	6741
examination	6740
raise	6739
NA@@	6739
bol@@	6737
exec@@	6735
München	6734
attempt	6732
ric@@	6728
believ@@	6724
Wa@@	6722
OF	6721
inated	6718
sleep	6716
ssen	6712
Na@@	6706
mouth	6704
Tar@@	6704
solve	6703
med@@	6702
üssel@@	6699
appeared	6687
substances	6685
semb@@	6683
disposal	6682
respond	6680
ios	6679
trading	6674
chan@@	6672
workshop	6669
totally	6668
extra@@	6668
Through	6666
Que@@	6666
cancer	6665
Second	6663
microwave	6663
domin@@	6662
lym@@	6660
1.5	6660
toilet	6657
controls	6654
las@@	6654
bat@@	6650
95@@	6650
essor	6644
peti@@	6642
considerable	6639
contacts	6639
failure	6638
MAR@@	6638
helpful	6633
classes	6631
Head	6628
mechanical	6626
colleagues	6625
recovery	6625
measuring	6624
1991	6623
parti@@	6621
Results	6620
Tu@@	6620
sug@@	6619
500@@	6619
ever@@	6617
slightly	6615
1989	6614
Ara@@	6612
ells	6610
ici@@	6608
inz@@	6606
×	6604
encourage	6596
conducted	6593
contained	6583
uted	6581
talking	6579
stric@@	6579
Lam@@	6578
stic	6575
alth	6574
milk	6573
consideration	6569
bin	6569
Mel@@	6566
dangerous	6565
showing	6565
doub@@	6563
manual	6563
diseases	6559
tery	6556
ri	6554
conversion	6553
urg@@	6552
forecast	6551
cool	6550
suggest	6548
Weight	6545
itting	6544
parameters	6544
agencies	6543
psycho@@	6537
hill	6532
at-@@	6531
match	6520
Ku@@	6517
dependent	6513
Mc@@	6509
thereby	6508
Whether	6507
23.@@	6504
SC	6502
remained	6499
holders	6499
EL@@	6499
hardware	6494
ould	6490
reducing	6490
newly	6490
approval	6487
plays	6485
amen@@	6484
ints	6482
illi@@	6481
speech	6480
mix	6478
everyday	6477
who@@	6475
ouring	6470
Body	6467
latter	6465
reno@@	6465
met@@	6463
happens	6460
Neu@@	6460
holding	6458
pain	6458
relatively	6457
supplier	6452
sten@@	6450
schaft	6450
path@@	6449
comparison	6448
aspect	6445
occur	6442
strongly	6439
Action	6436
declar@@	6435
arium	6430
Dub@@	6429
person@@	6429
ission	6428
ingredients	6427
faster	6424
clar@@	6423
Tyrol	6422
posi@@	6421
Hen@@	6421
Mul@@	6411
neu@@	6410
tric@@	6408
Radi@@	6408
Network	6407
Sco@@	6407
scheme	6407
MA	6405
spon@@	6403
accompanied	6400
ails	6398
stadt	6398
lag	6396
definitely	6394
quarters	6391
Europe@@	6390
ensures	6389
iring	6388
emo@@	6388
electrical	6388
definition	6383
sche@@	6381
conduc@@	6378
recommendations	6370
Royal	6370
Nature	6369
regime	6368
sized	6367
concluded	6366
vital	6364
strength@@	6352
Conditions	6349
Ang@@	6344
84@@	6344
Bulgaria	6343
male	6342
convenient	6338
mobility	6335
engine@@	6334
printed	6333
transmission	6332
inity	6325
ida	6325
UL@@	6324
Consul@@	6322
pers@@	6318
Ram@@	6318
itec@@	6318
answered	6315
confirmation	6313
T-@@	6313
motiv@@	6310
identified	6310
2.0	6310
gel	6308
strategies	6307
bab@@	6305
warm@@	6303
routes	6299
Light	6297
aro@@	6296
reasonable	6295
namely	6295
binding	6292
cent	6287
lin	6286
Cast@@	6285
Ret@@	6283
noise	6282
dig@@	6279
ni	6277
olab@@	6277
Grap@@	6276
Aug@@	6276
ed-@@	6274
time@@	6273
housing	6272
Available	6271
recognized	6266
Square	6260
HT@@	6258
nings	6257
uries	6252
High@@	6249
symbol	6247
13,@@	6247
drinks	6243
expl@@	6242
local@@	6241
Executive	6240
grav@@	6236
Lag@@	6235
specialist	6234
measured	6233
Denmark	6231
1x@@	6231
switch	6228
Mol@@	6228
Like	6226
tile	6216
turns	6215
rare	6211
pattern	6209
stra@@	6203
desc@@	6202
priorities	6200
frag@@	6200
ems	6200
carbon	6196
ington	6195
Castle	6191
arc@@	6190
Protection	6188
launch	6187
BI@@	6182
contracts	6170
sounds	6170
leaving	6167
frequency	6165
focused	6163
clean@@	6161
stro@@	6159
ror	6157
mo	6152
supplied	6150
98@@	6148
properly	6146
keys	6143
appe@@	6142
charges	6141
centres	6141
familiar	6141
educational	6139
wil@@	6137
enlargement	6135
explain	6132
iel@@	6131
ember	6129
fourth	6125
Exp@@	6124
begins	6119
ß	6117
stood	6116
V.	6116
payments	6115
duration	6113
sub-@@	6113
tum@@	6112
etr@@	6111
Mis@@	6107
movements	6106
heads	6106
exists	6103
Sing@@	6103
destroyed	6102
domain	6099
ading	6098
film@@	6096
para@@	6095
acting	6093
studied	6092
assist	6086
compatible	6085
West@@	6085
Single	6083
SS@@	6082
ecting	6080
Program	6080
represent@@	6079
conclusions	6079
Pur@@	6077
Ori@@	6075
anger	6066
ig	6066
virus	6065
teen	6064
precise	6062
rig@@	6061
Pap@@	6059
deve@@	6055
whatever	6054
baby	6052
certi@@	6049
Make	6045
Current	6043
define	6042
ES@@	6038
erial	6037
meant	6036
ente	6032
quet	6028
tionally	6020
и@@	6019
obligations	6014
SP	6010
ch-@@	6010
zur	6008
Ou@@	6007
Unknown	6007
crim@@	6006
900	5999
difficulties	5997
Schwe@@	5997
Nic@@	5995
yellow	5988
Ve@@	5987
-based	5986
ò@@	5979
Part	5976
ought	5973
sym@@	5970
exceptional	5970
Select	5970
mach@@	5970
Events	5969
institution	5967
falls	5967
fell	5966
inj@@	5965
roll	5963
erci@@	5959
sor	5958
fees	5957
or-@@	5953
attacks	5952
substantial	5948
gy@@	5945
indicated	5941
ago@@	5936
Fir@@	5933
Hum@@	5933
rose	5931
finding	5930
lob@@	5930
53@@	5930
amounts	5929
none	5928
accession	5928
horse	5925
blu@@	5925
Despite	5920
li	5918
introduce	5917
nine	5917
supplies	5915
1.0	5915
consultation	5914
atives	5914
Plan	5914
diameter	5914
producing	5907
containing	5907
poses	5904
iner	5903
199@@	5900
slow	5900
foc@@	5898
replaced	5898
oma	5898
declared	5896
colle@@	5893
awareness	5892
nn@@	5892
affect	5891
manag@@	5890
Blue	5890
Az@@	5887
promoting	5886
She@@	5884
low-@@	5880
IP@@	5877
cing	5876
Within	5876
pressed	5872
absolute	5869
bibli@@	5869
conventional	5866
Budapest	5864
DC	5863
ller	5861
conce@@	5855
plenty	5851
Pra@@	5850
86@@	5850
alli@@	5848
Conver@@	5848
aint	5847
ls@@	5843
Ros@@	5841
Rating	5841
£	5840
compact	5836
eling	5836
extreme	5835
96@@	5835
implementing	5834
ommun@@	5834
exact	5832
Buil@@	5832
BA	5832
10,@@	5828
speci@@	5826
Transfer	5825
sections	5824
guar@@	5824
tam@@	5824
phe@@	5823
workshops	5822
³	5821
mitted	5820
63@@	5819
salt	5818
Av@@	5815
sugar	5815
updates	5813
targets	5807
operational	5807
dealing	5803
legislative	5801
PH@@	5801
ret	5800
SM@@	5797
Using	5794
ness@@	5794
viously	5792
investigation	5791
Post@@	5791
teams	5790
Bun@@	5789
Table	5786
institutional	5785
Duration	5784
pit@@	5781
ā@@	5781
diverse	5779
stones	5779
R.	5778
putting	5774
Active	5774
Big	5772
relaxation	5772
Tw@@	5770
Inc	5770
ached	5769
ric	5769
native	5767
graphs	5763
basi@@	5760
cy@@	5754
Among	5753
eastern	5753
disk	5751
apart	5746
001	5742
Hand@@	5742
stages	5740
comfor@@	5738
manufacture	5732
ET@@	5731
Road	5730
b.@@	5728
expectations	5727
ause	5726
collected	5726
conduct	5724
ms@@	5724
designs	5723
D.	5723
prot@@	5721
Medical	5719
satisfied	5716
distributed	5716
Sym@@	5713
Line	5707
girls	5705
abr@@	5702
abo@@	5701
logie	5699
bound	5693
B.	5692
plat@@	5692
-C@@	5690
Nevertheless	5689
emic	5689
ipment	5689
fitted	5686
Three	5684
acted	5681
Journal	5681
enh@@	5676
maintained	5676
convinc@@	5673
AR	5671
AV@@	5671
CH	5668
extend	5663
soil	5662
Fel@@	5662
continuing	5657
noted	5657
ston	5653
blocks	5652
Dri@@	5648
usage	5647
guided	5647
dating	5645
HE@@	5645
failed	5644
sample	5640
mist@@	5636
Marketing	5636
helping	5635
24-hour	5635
Regional	5632
professionals	5630
amendment	5629
illustr@@	5624
TS	5623
cross@@	5622
onds	5620
obvious	5619
eness	5618
450	5617
coordination	5615
two-@@	5613
vity	5611
lighting	5611
-B@@	5605
battery	5605
Reg@@	5604
dian	5603
mic@@	5603
Ö@@	5601
zation	5600
liter@@	5596
angle	5593
asses	5592
distinc@@	5590
Work	5590
mig@@	5588
doctor	5586
attached	5585
associations	5584
Som@@	5584
dogs	5578
grant	5577
Adv@@	5576
emergency	5574
distrib@@	5573
Pro	5573
proven	5572
Mir@@	5570
balanced	5566
Den@@	5563
dal	5563
fund	5562
reven@@	5557
massage	5551
EX@@	5546
glo@@	5543
Hy@@	5537
addresses	5534
Additional	5534
resource	5532
trend	5532
Local	5532
accounts	5530
Ide@@	5529
research@@	5529
cycl@@	5529
lak@@	5524
tress	5524
sures	5522
Small	5521
empty	5520
well-known	5520
XX@@	5519
grown	5518
valu@@	5517
Fol@@	5514
Norway	5513
smooth	5513
magnetic	5512
sion-@@	5511
collect	5511
mination	5510
forming	5507
aming	5506
ula	5506
ar-@@	5505
astic	5504
innov@@	5503
container	5503
tioning	5503
Hung@@	5502
20.@@	5498
killed	5497
comple@@	5492
lit	5492
za@@	5491
bet@@	5489
tube	5488
oni@@	5487
SU@@	5487
Recor@@	5487
2.5	5486
§	5486
unable	5483
HI@@	5483
ier@@	5482
non@@	5481
shar@@	5481
acquisition	5481
preci@@	5478
ance@@	5478
flu@@	5476
PRO@@	5475
rats	5472
vast	5471
repa@@	5467
advi@@	5465
rapid	5462
uz@@	5462
generate	5458
Produ@@	5456
30-@@	5455
A.@@	5455
ens@@	5451
auto@@	5451
membership	5449
understood	5446
specif@@	5438
guard	5436
iro	5434
broken	5432
prove	5429
ë@@	5423
adoption	5422
isn	5422
Flor@@	5416
BM@@	5416
thum@@	5415
filling	5413
Which	5412
105	5406
spar@@	5405
communications	5405
normally	5405
incre@@	5403
reliability	5401
125	5400
ime@@	5400
graphics	5398
fif@@	5396
describ@@	5391
EPO	5391
Portug@@	5387
Industry	5386
refl@@	5385
interpretation	5382
comply	5382
Professor	5379
wee@@	5377
amongst	5376
transition	5367
requirement	5367
bli@@	5366
electron@@	5365
learned	5361
vari@@	5361
pot	5361
mechanism	5359
casi@@	5359
adapted	5356
End	5356
trends	5355
feedback	5354
Lim@@	5349
system@@	5345
refers	5344
ono@@	5344
ect@@	5344
Blu@@	5344
endor@@	5341
formal	5338
publications	5338
records	5337
tips	5337
terminal	5336
Anti@@	5336
Zi@@	5336
ears	5334
operated	5328
managing	5326
branch	5322
ik	5321
reflect	5320
Change	5320
Training	5319
composition	5318
anu@@	5317
m.@@	5315
half-@@	5314
cream	5310
AND	5309
redi@@	5308
technique	5307
dia@@	5301
uting	5300
destruction	5297
driven	5291
behavi@@	5291
nd	5290
carrying	5285
Card	5285
icking	5284
AME	5284
nationally	5283
94@@	5281
segment	5278
Age	5278
alter	5274
aluminium	5274
birds	5273
holder	5272
GO@@	5270
aster@@	5269
EU-@@	5267
Ty@@	5264
indoor	5263
ville	5263
directed	5261
Authority	5260
bag	5257
full-@@	5256
explains	5254
concentration	5250
establishing	5248
impression	5248
hearing	5248
bin@@	5246
E.@@	5244
Together	5244
Test@@	5244
10th	5244
ups	5239
submit	5233
64@@	5233
Catal@@	5232
aded	5230
personnel	5230
careful	5229
logic	5228
PL@@	5227
Instead	5224
contributions	5223
influ@@	5223
am-@@	5223
test@@	5222
competent	5216
gh	5215
actively	5214
periods	5212
н@@	5208
mus@@	5206
aints	5198
ered	5197
til	5196
unc@@	5195
fighting	5194
Well@@	5194
highligh@@	5193
counts	5193
elected	5192
Ib@@	5192
tution	5189
flat@@	5184
consistent	5182
ly-@@	5181
BC	5181
optimal	5181
360	5181
correctly	5180
Decision	5176
IV	5173
intensive	5171
Without	5171
exposure	5171
Work@@	5170
Gran@@	5169
mixed	5169
Dres@@	5169
Janu@@	5167
sert	5166
DA@@	5162
Full	5156
ounding	5155
sh-@@	5155
prevention	5153
hospit@@	5150
miss	5149
ation-@@	5148
Women	5146
Net	5143
classical	5142
Ev@@	5141
inten@@	5140
ongoing	5140
argu@@	5139
CS@@	5139
V-@@	5139
turning	5138
CT@@	5138
Registration	5133
uro@@	5131
literature	5125
transferred	5123
app	5123
orm	5122
confirm	5119
with@@	5119
1600	5116
processed	5111
ext	5111
Photo@@	5106
0.00	5106
ford	5105
Fle@@	5103
is-@@	5102
agents	5101
excl@@	5095
symptoms	5089
Telephone	5089
tations	5087
emed	5083
graph	5082
machinery	5078
temperatures	5077
vir@@	5077
Aqu@@	5073
beer	5072
elli@@	5072
vine	5072
Porto	5069
cles	5068
eta	5068
rol@@	5067
meter	5066
stores	5065
intention	5064
mutual	5062
anced	5060
composed	5060
kal@@	5060
precipitation	5059
parallel	5058
OP@@	5057
enhance	5057
lum@@	5056
dw@@	5054
Week	5054
Slovakia	5052
114@@	5052
addressed	5051
releases	5051
electro@@	5051
drugs	5049
Organ@@	5049
Me	5049
non	5047
split	5046
›	5036
ve-@@	5035
101	5030
column	5030
pack	5028
Set@@	5028
acquired	5027
escal@@	5027
č@@	5025
ired	5024
behaviour	5024
Ki@@	5022
wave	5020
originally	5019
pen	5017
delay	5016
oney	5013
vul@@	5012
H.	5008
ê@@	5008
intervention	5006
dium	5005
consol@@	5004
Building	5001
inch	5001
1988	4999
proved	4996
tual	4996
ind	4995
um-@@	4994
MT@@	4992
adequate	4991
reaching	4991
partly	4987
Point	4987
alia	4986
adding	4985
Stre@@	4985
respec@@	4984
urs	4983
aling	4983
ep	4982
compromise	4980
ón	4980
bou@@	4980
eter	4977
gained	4975
answers	4973
IB@@	4969
serving	4967
var@@	4966
competence	4963
Swedish	4963
outcome	4962
swe@@	4960
gest@@	4957
013	4957
laser	4956
regarded	4955
ule	4948
shap@@	4945
letters	4945
oting	4944
pic	4943
regulatory	4942
six@@	4937
CP@@	4936
professi@@	4934
enb@@	4933
gentle	4932
Choose	4932
lot@@	4930
survey	4928
van@@	4925
I-@@	4925
�	4923
012	4921
Youn@@	4921
Integr@@	4920
Saint-@@	4919
Kor@@	4919
pin@@	4917
iler	4916
selling	4914
sleeping	4914
43@@	4914
Acc@@	4908
nesses	4907
Based	4903
pointed	4902
aked	4901
bid@@	4901
diary	4901
E.	4901
zer@@	4901
produces	4900
roc@@	4894
belongs	4893
rt	4892
rena	4890
total@@	4890
Sau@@	4888
rot@@	4887
Release	4887
public@@	4886
DA	4884
passing	4883
Ms	4883
docum@@	4883
arrangements	4881
Hal@@	4878
¬	4877
LED	4874
Ltd	4873
entering	4872
led@@	4866
tension	4864
dle	4864
Amer@@	4863
Wien	4862
naturally	4854
judgment	4854
CO2	4850
individually	4850
compet@@	4845
thoughts	4845
evol@@	4845
meal	4845
fal@@	4844
seg@@	4843
-22	4843
Chapter	4843
amed	4842
cat	4842
Saf@@	4837
variable	4836
dness	4835
us-@@	4835
Pres@@	4833
seriously	4832
varied	4832
hole	4831
improvements	4830
treatments	4826
physi@@	4825
tren@@	4821
facilitate	4819
reich	4816
subjects	4815
unknown	4814
estimated	4813
narrow	4811
Industrial	4810
og	4809
subsequent	4808
drops	4808
Currently	4807
agg@@	4806
throw	4805
Mü@@	4805
transfer@@	4802
CA	4801
compu@@	4800
aug@@	4798
erc@@	4797
és	4794
hospital	4792
combine	4787
firms	4784
21@@	4784
metr@@	4783
receiving	4782
appointment	4782
inspired	4782
endar	4781
abb@@	4777
Milan	4776
reaction	4775
lasting	4775
embr@@	4775
ssing	4774
shift	4771
up-@@	4771
Universit@@	4771
Kir@@	4770
acu@@	4764
certificate	4762
Fra@@	4762
Dal@@	4759
possibly	4756
.....	4756
relationships	4755
revealed	4755
exception	4752
tness	4752
aten	4749
pening	4748
drug	4746
einer	4744
meals	4743
Paper	4742
adjusted	4742
manu@@	4742
utation	4741
consciousness	4739
Annual	4737
eco@@	4736
nat@@	4736
rapidly	4735
vary	4734
candidate	4733
adjust	4730
tica	4730
grap@@	4729
Kal@@	4729
FO@@	4728
emphasis	4727
boxes	4727
permitted	4723
cept@@	4723
relative	4721
gran@@	4720
ample	4718
accurate	4714
sty	4714
rin@@	4714
GI@@	4712
widely	4710
shel@@	4710
iser	4708
consulting	4706
fat	4705
eded	4702
S.@@	4700
ú@@	4697
CN@@	4697
stick	4696
papers	4689
eff@@	4687
Lev@@	4687
damag@@	4680
optional	4679
preser@@	4675
Eli@@	4672
ky@@	4671
dos@@	4670
inates	4670
ska	4670
opinions	4669
ox@@	4669
con	4668
Section	4662
twice	4659
Clo@@	4659
Irish	4658
stad@@	4656
cos@@	4655
equally	4652
LAN@@	4651
deleted	4651
Techno@@	4651
survi@@	4650
precision	4648
xi@@	4648
Federation	4645
eck	4643
Natural	4643
stal@@	4643
123	4642
forget@@	4637
rd	4637
SME@@	4636
Univer@@	4636
Dire@@	4636
Kno@@	4635
Working	4634
grow@@	4633
rid@@	4630
recognised	4626
observed	4624
chapter	4624
bach	4624
destroy	4619
annes	4617
believed	4616
structuring	4614
scheduled	4614
organ	4614
Vil@@	4613
plates	4613
EF@@	4611
Trav@@	4611
diction	4610
collabor@@	4610
Scre@@	4610
gender	4609
ae	4609
15,@@	4609
Les	4608
assume	4604
tec@@	4602
largely	4599
Ann@@	4599
PA	4597
Fas@@	4596
itor@@	4593
lex	4593
ific	4593
ED@@	4592
migration	4589
favour@@	4589
82@@	4588
ult	4585
Hein@@	4584
dish	4584
recycl@@	4583
bert	4583
jk	4578
Gra@@	4577
meets	4576
intellectual	4576
approaches	4576
Ari@@	4575
Slovenia	4575
sung	4573
everybody	4571
lack@@	4569
bad@@	4562
gene	4559
brain	4559
fro@@	4558
ourg	4557
Ministers	4557
esc@@	4557
е@@	4557
Professional	4556
ø@@	4554
controller	4552
removal	4552
mechanisms	4548
las	4544
fort	4544
cally	4541
chil@@	4541
rame@@	4534
mod@@	4534
Smar@@	4534
AF@@	4530
post-@@	4530
Mic@@	4529
Count	4527
effectiveness	4526
20-@@	4525
stronger	4524
portal	4524
RA	4519
essi@@	4517
Step	4517
24-@@	4517
respectively	4515
directions	4515
Over@@	4514
urt	4508
surfaces	4508
vent	4507
allo@@	4507
X-@@	4507
hes@@	4505
agon	4505
specialists	4503
clothing	4503
bered	4501
Agriculture	4499
Cyprus	4497
characteristic	4496
continu@@	4490
00-@@	4490
alit@@	4489
í	4488
eline	4487
import	4485
Multi@@	4485
M-@@	4484
defence	4483
participating	4481
gut	4481
240	4476
Test	4475
ema@@	4475
territ@@	4474
Looking	4474
your@@	4474
therap@@	4473
continuously	4471
enes	4470
chamber	4469
dist@@	4468
telec@@	4466
welcomed	4462
aver@@	4462
remark@@	4460
G-@@	4460
leb@@	4460
L-@@	4457
asy	4457
visi@@	4456
renewed	4455
VI	4454
Plus	4454
Dur@@	4454
agement	4453
transactions	4451
warr@@	4450
posing	4445
achieving	4443
kn@@	4443
ii	4443
functioning	4442
quantity	4442
paragraph	4441
indicate	4441
gue	4437
tells	4434
stret@@	4432
acceptance	4432
vessels	4431
manufactured	4430
sessions	4429
reporting	4425
kill	4424
energ@@	4422
massive	4420
asp@@	4420
Box	4420
Tech@@	4418
Should	4416
TA	4415
Title	4414
sought	4411
plain	4410
stainless	4410
Concer@@	4408
Sor@@	4408
Od@@	4408
far@@	4406
Lau@@	4406
ole@@	4403
Bay@@	4403
que@@	4402
aden@@	4401
Level	4400
brief	4399
fail	4398
degrees	4398
obe@@	4398
accuracy	4396
accordingly	4393
Chairman	4391
trained	4388
v.@@	4388
arise	4385
considerably	4385
chron@@	4382
Zo@@	4382
Month	4382
agr@@	4380
ongside	4372
wa	4372
superior	4371
Cli@@	4369
lying	4366
attended	4362
expanded	4360
conclude	4359
Pub@@	4357
spare	4356
contra@@	4355
cultures	4355
hen@@	4355
itate	4355
matic	4354
RS	4353
Sciences	4352
preparing	4348
Cross	4348
Division	4347
escape	4344
1985	4340
ree	4340
logies	4339
weak	4337
arry	4337
lef@@	4336
Malta	4336
oph@@	4335
op	4333
substance	4329
rated	4329
considers	4327
Ot@@	4327
attri@@	4325
affairs	4323
suffer	4323
oured	4323
reflected	4322
ce-@@	4322
Plan@@	4321
ph	4321
BB@@	4317
three-@@	4316
Baltic	4315
completion	4314
severe	4314
iw@@	4314
merc@@	4313
score	4312
corpor@@	4310
commitments	4310
agli@@	4310
Bec@@	4309
involving	4307
gover@@	4307
intense	4307
drinking	4304
Mid@@	4304
Beau@@	4303
significance	4301
x-@@	4293
co-operation	4292
Auto@@	4292
P-@@	4291
taught	4291
tech	4291
satis@@	4290
execution	4288
examine	4285
Follow	4285
laboratory	4284
powered	4281
surgery	4280
it-@@	4279
horses	4278
assemb@@	4276
vege@@	4275
long-@@	4274
Gri@@	4274
kno@@	4270
adult	4270
420	4265
toco@@	4265
eve	4264
modul@@	4262
ced	4260
findings	4258
stops	4258
а@@	4257
eration	4256
ã@@	4252
exposed	4251
Under@@	4251
dust	4250
cop@@	4249
gently	4249
OR	4248
ear	4244
experim@@	4243
115	4237
sole	4234
whereas	4233
Tal@@	4233
Max@@	4232
unusual	4230
cup	4229
logo	4224
220	4221
aning	4221
SCH@@	4221
flav@@	4221
converted	4220
thereof	4218
onset	4218
demonstrate	4216
burden	4214
Conf@@	4214
assigned	4213
G.	4212
ffic@@	4211
Rem@@	4211
3.5	4209
combines	4208
describe	4205
lation	4205
30.@@	4201
Classi@@	4201
taining	4200
1987	4199
translated	4198
cam	4198
equivalent	4197
secondary	4197
ae@@	4196
eti@@	4195
ruption	4193
ousness	4193
sti	4193
scr@@	4192
230	4192
astro@@	4189
budgetary	4189
acknowled@@	4188
involves	4188
Ker@@	4188
quar@@	4187
necessarily	4186
missions	4186
atically	4185
liquid	4185
Institut	4184
airs	4184
restrictions	4180
breath@@	4180
0.00@@	4179
preserved	4177
displays	4175
outer	4174
somewhat	4172
nal	4172
registry	4169
greatly	4168
officials	4166
pilot	4166
whilst	4165
mber@@	4165
DF	4163
chec@@	4162
ison	4158
tend	4155
oni	4155
PR@@	4154
stuff	4152
Studies	4150
Basic	4150
Chief	4148
difficulty	4147
Common	4146
1986	4145
certification	4141
Environmental	4140
-5	4140
iber@@	4139
Pul@@	4137
premises	4135
Sin@@	4129
travelling	4128
presenting	4128
Days	4126
propose	4125
sb@@	4125
ques	4120
seven@@	4119
sist@@	4118
rim@@	4118
sp	4118
involvement	4117
PI@@	4117
tends	4115
ellschaft	4114
alcohol	4113
FI	4110
nel@@	4107
returns	4105
asse	4105
pro	4105
happening	4104
strange	4104
disci@@	4100
pump	4099
dark@@	4099
diet	4097
maintaining	4095
spots	4095
150@@	4093
mini	4091
atch	4090
distingui@@	4087
cess	4087
threat@@	4086
Flu@@	4086
expenditure	4084
reve@@	4083
alive	4082
assum@@	4082
dealt	4079
repeat	4078
Large	4078
Key	4075
fies	4075
determination	4072
mid-@@	4072
calculated	4072
occurs	4069
Mont@@	4069
aesthe@@	4062
worse	4059
house@@	4059
ito	4056
CR@@	4056
Europa	4055
Cir@@	4054
separated	4053
Ce@@	4053
compres@@	4052
Between	4050
GE@@	4047
osing	4046
rem@@	4044
ery@@	4044
CET	4043
patterns	4042
ared	4038
day@@	4036
LL@@	4036
compl@@	4035
point@@	4034
refrigerator	4034
Cho@@	4033
attend	4032
Aud@@	4031
Á@@	4031
ED	4030
Sometimes	4028
comprises	4025
P.	4025
adjustment	4024
Roma	4024
trop@@	4024
PRE@@	4023
cess@@	4021
iti@@	4021
freely	4020
mented	4019
Apart	4018
catch	4017
coord@@	4016
LU@@	4016
tric	4013
rh@@	4011
acid	4011
eties	4011
ère	4010
Person@@	4010
schedule	4006
Call	4005
Gir@@	4004
mass@@	4002
bottle	4000
-29	3999
faced	3996
enhanced	3994
Zer@@	3994
accomp@@	3991
poly@@	3990
incl.	3990
IA	3989
′	3989
OS@@	3988
sv@@	3988
Cooperation	3986
interpre@@	3982
uture	3981
pro-@@	3980
tone	3976
structive	3974
shaped	3974
Sev@@	3974
Köl@@	3974
closure	3967
agent	3967
ferences	3966
Production	3966
bearing	3965
mac@@	3965
Danish	3964
Sti@@	3964
guidance	3963
inating	3963
170	3963
Manu@@	3961
-23	3960
ultim@@	3959
Official	3958
ume	3958
kit	3958
E-mail	3957
eventually	3955
stered	3955
neur@@	3954
medium-sized	3952
twelve	3952
Charles	3952
demonstrated	3951
mixture	3951
25th	3946
cooling	3944
Bul@@	3944
slowly	3941
consci@@	3940
-P@@	3939
schem@@	3937
hist@@	3937
1984	3937
double-@@	3936
1,000	3936
。	3936
mages	3934
gues	3933
tism	3932
stopped	3932
fold	3931
dd@@	3931
identification	3931
simultaneously	3930
calm	3928
circuit	3926
TION	3926
Asian	3923
conferences	3922
stays	3922
cuts	3921
inspection	3921
ranging	3921
Hot	3920
Sud@@	3919
examined	3918
check@@	3918
Gran	3916
CON@@	3915
depend	3913
Having	3912
restore	3912
Wat@@	3911
transformation	3910
success@@	3908
EU@@	3906
productive	3905
laying	3904
consisting	3904
Ther@@	3904
т@@	3903
MP	3902
CO	3902
ulated	3901
exist@@	3901
102	3901
underlying	3900
Es@@	3900
applicant	3899
190	3898
cotton	3897
Syn@@	3896
Hou@@	3895
absence	3894
ater@@	3892
percentage	3888
emerging	3886
ori	3884
strong@@	3884
anes	3880
medic@@	3880
Previous	3879
requ@@	3877
201	3877
atics	3877
ée	3876
104	3875
mi	3874
106	3872
nevertheless	3871
CM@@	3869
som@@	3869
bags	3868
gap	3867
Mark@@	3867
accident	3866
protecting	3865
20.0@@	3865
consequence	3864
legs	3864
counter	3862
pel@@	3862
detection	3861
Vel@@	3861
Ful@@	3860
Ital@@	3860
explanation	3858
novel	3858
checked	3858
Main@@	3857
expenses	3856
hydro@@	3854
waves	3853
Internal	3852
acceptable	3850
delegation	3850
healing	3850
pack@@	3850
K.	3849
52@@	3848
responsibilities	3847
Event	3846
HD@@	3842
figh@@	3839
Hist@@	3838
contributed	3837
nover	3836
nom@@	3835
push	3833
brown	3831
equip@@	3831
DS	3830
decline	3829
Mig@@	3828
compare	3826
characterized	3825
Basi@@	3824
market@@	3823
ocolate	3817
Additionally	3817
there@@	3816
denti@@	3816
offic@@	3815
humans	3814
constitute	3812
samples	3812
→	3812
specifications	3810
excluded	3809
adapt	3807
spectrum	3805
jo	3805
teeth	3804
solely	3804
sheep	3804
Eu@@	3804
age-@@	3803
liqu@@	3802
pools	3801
considering	3800
Proble@@	3799
scan	3799
p.	3799
ó	3798
applying	3795
neg@@	3793
gio	3793
FR	3789
gradually	3789
lick	3788
Ado@@	3788
tant	3787
Starting	3786
references	3785
VE	3785
inet	3785
0.87	3784
encies	3783
warning	3783
dra	3783
semble	3783
keeps	3782
les@@	3781
205	3781
distor@@	3779
adap@@	3779
Drive	3777
sentence	3776
Bou@@	3776
18-@@	3775
Sunset	3775
zzle	3773
0,000	3773
simp@@	3771
I.	3770
enabling	3768
moves	3766
Daily	3766
Vice-@@	3765
counted	3765
ning@@	3765
ova	3763
coating	3763
falling	3762
Dou@@	3762
Speci@@	3760
pted	3755
relate	3749
GU@@	3749
enting	3748
thin	3748
Solutions	3746
20,@@	3745
correc@@	3741
enta@@	3739
HA@@	3736
twenty	3735
WI@@	3735
BA@@	3734
ecutive	3732
peak	3726
tip	3725
108	3723
Amb@@	3722
Stil@@	3721
è	3721
aux	3719
Experience	3718
breaking	3716
activated	3715
Personal	3715
eigh@@	3714
IF@@	3712
closing	3711
beit	3711
presentations	3711
decrease	3710
suffered	3709
targeted	3709
fallen	3709
ía	3709
involve	3708
gem@@	3708
CC	3708
occurred	3707
rubber	3705
Long	3703
tary	3702
urgent	3702
Published	3702
Class	3700
agen@@	3699
eding	3696
copies	3696
FE@@	3695
320	3694
Being	3689
suddenly	3688
previ@@	3687
EE@@	3682
thick	3681
Sant	3681
permit	3680
ris	3679
spiration	3679
DF@@	3679
dum	3678
hur@@	3678
initially	3678
minor	3677
bone	3676
ì@@	3676
sher	3673
600@@	3671
restricted	3670
revenue	3669
mus	3669
N-@@	3666
proceed	3665
id-@@	3665
stu@@	3664
box@@	3661
^	3660
fifth	3659
Upper	3659
eating	3658
Whe@@	3656
zing	3652
tability	3650
Sc@@	3650
ified	3647
neck	3647
æ@@	3645
interaction	3640
ange	3633
attac@@	3631
lip	3631
rol	3631
deeply	3630
challen@@	3630
Works	3628
intern@@	3626
profiles	3623
passes	3622
Black@@	3622
losses	3619
Far@@	3619
pa	3619
regardless	3618
mol@@	3618
103	3615
tably	3611
r.@@	3611
Ñ@@	3610
uss	3609
abuse	3608
after@@	3608
associ@@	3607
yc@@	3607
comparable	3605
suggested	3603
conjunction	3603
accounting	3602
urg	3602
pair@@	3602
benef@@	3600
Cin@@	3600
lt	3599
participated	3597
CA@@	3597
shif@@	3596
prece@@	3596
arrange	3595
LA	3594
Rules	3593
observe	3593
112	3592
administr@@	3590
tee	3590
299	3588
sively	3584
assess	3584
College	3584
Long@@	3584
relief	3583
Ä@@	3583
augh@@	3579
spite	3578
Ds	3577
liver	3576
CP	3573
....@@	3572
Latvia	3569
135	3569
axis	3565
justified	3563
biological	3560
trouble	3560
brigh@@	3560
cit@@	3560
Serv@@	3560
candidates	3558
Look	3557
shortly	3556
rub@@	3556
Little	3555
clinical	3552
agre@@	3549
Shar@@	3546
EL	3546
NY@@	3543
Vit@@	3541
tranqu@@	3540
protocol	3538
illu@@	3536
caught	3536
household	3535
lean	3534
authorized	3534
210	3533
Chem@@	3529
ptions	3528
reinfor@@	3526
indicates	3526
calculation	3525
fulfilled	3525
measurements	3523
mirror	3523
missed	3522
foo@@	3522
first-@@	3521
yro@@	3521
aths	3520
Gö@@	3520
PA@@	3519
Dark	3518
publishing	3516
replacement	3516
Stat@@	3516
111	3516
color@@	3515
seas@@	3512
Dear	3512
ÿ	3510
Canary	3509
109	3509
representing	3508
wr@@	3506
Rue	3506
attempts	3505
signals	3504
pin	3502
F.	3501
zero	3500
limb	3500
evolution	3499
exerc@@	3496
Activities	3495
thickness	3495
arising	3493
lined	3491
Four	3491
eye@@	3490
layers	3489
Abra@@	3489
orange	3489
Mem@@	3488
wider	3487
ido@@	3487
racing	3487
recover	3486
UT@@	3481
Lithuania	3479
stic@@	3478
robust	3475
IG@@	3473
eggs	3473
centr@@	3472
yst@@	3469
CI	3468
Performance	3466
mut@@	3463
advise	3461
noticed	3460
PAR@@	3460
tern@@	3460
preferred	3459
step@@	3458
Depending	3458
ves@@	3457
chemicals	3454
Estate	3454
Bath	3454
rash	3452
Spec@@	3452
reflects	3451
supervision	3447
virtually	3447
phenomenon	3438
BR@@	3438
tern	3437
Norm@@	3436
grey	3435
resulted	3433
receives	3432
Third	3430
pressing	3427
ige	3426
vacuum	3424
Initi@@	3423
0.5	3423
Rap@@	3420
sto	3420
Analy@@	3420
reduces	3419
complicated	3416
extr@@	3416
zo	3412
xx@@	3412
But@@	3411
ão	3411
dal@@	3410
LD@@	3409
Corporation	3409
Roche	3408
recommendation	3407
partial	3407
Athens	3406
dos	3406
reaches	3405
Lef@@	3403
operative	3402
develops	3402
Blo@@	3401
aph@@	3401
incorpor@@	3399
visu@@	3398
zones	3395
shi@@	3395
enic	3395
Back@@	3395
cryst@@	3393
cover@@	3392
resistant	3392
010	3391
р@@	3390
nearest	3389
powder	3387
mea@@	3387
tent	3386
128	3386
107	3385
ultimately	3384
analyses	3383
nes@@	3383
1983	3381
intr@@	3380
Rech@@	3379
tion-@@	3378
Copenhagen	3376
undam@@	3375
Kö@@	3375
Syst@@	3372
efficiently	3371
bid	3371
no-@@	3370
Dra@@	3370
overnight	3370
societies	3368
colo@@	3368
Intern@@	3366
Organisation	3365
rised	3365
me-@@	3357
materi@@	3356
transmitted	3356
proxim@@	3355
dental	3353
night@@	3352
circulation	3351
proportion	3349
miner@@	3348
doctors	3347
pact	3346
nur@@	3345
4.5	3344
easi@@	3343
eg	3342
Merc@@	3341
SW@@	3341
17-@@	3340
tending	3339
pting	3336
Zealand	3336
blind	3335
pharmaceutical	3335
stance	3333
platz	3332
Advanced	3331
conservation	3329
parameter	3328
AI@@	3326
infection	3323
sition	3323
geograph@@	3322
volun@@	3318
Articles	3316
impac@@	3315
worry	3314
c-@@	3313
performing	3312
Ps	3310
EB@@	3310
portion	3308
optimum	3306
num@@	3306
015	3305
Requ@@	3304
eri	3304
Cont@@	3303
insti@@	3301
allen@@	3301
ethnic	3300
grams	3296
Appe@@	3295
aiming	3294
desi@@	3294
iden@@	3293
Cel@@	3293
1.2	3292
stration	3290
Top@@	3289
ho	3287
vice	3286
Slo@@	3286
131	3285
principal	3283
shell	3281
hence	3279
isol@@	3278
burning	3278
Fal@@	3278
by-@@	3277
adjust@@	3275
ï@@	3274
Produc@@	3273
harmful	3272
shoul@@	3271
weekly	3271
excessive	3270
Indonesia	3268
Š@@	3266
excell@@	3265
Low	3265
aric	3263
ž@@	3262
receipt	3261
sequence	3261
elim@@	3259
750	3259
pit	3258
fulfil@@	3257
officially	3256
identical	3256
static	3256
labels	3256
arly	3254
begun	3254
dreams	3254
apped	3253
Ble@@	3252
modify	3251
Det@@	3251
deemed	3250
fulfil	3250
clin@@	3248
py	3247
tend@@	3246
protein	3246
280	3245
cope	3245
damaged	3243
COM@@	3243
beat	3243
trem@@	3242
etc.	3240
Joint	3239
Application	3239
respon@@	3238
moderate	3238
maj@@	3237
ec	3237
wet	3236
atum	3235
Administration	3230
1.1	3228
spa@@	3228
NI@@	3228
accel@@	3226
pol	3225
resolved	3224
acity	3224
atri@@	3224
remind	3223
short@@	3222
sequ@@	3222
Km	3222
horizontal	3221
pren@@	3220
separ@@	3218
second@@	3217
R-@@	3217
infected	3216
influenced	3216
hem@@	3215
pes@@	3214
ram	3213
initiated	3211
ounds	3211
personality	3210
fits	3210
IL@@	3210
remin@@	3207
30-2@@	3207
lear@@	3206
repeated	3204
resolve	3202
bathing	3201
suff@@	3199
forgotten	3197
lips	3197
ux	3195
separately	3195
ty-@@	3193
Att@@	3192
accoun@@	3191
mandate	3190
leng@@	3190
stop@@	3189
tailored	3189
L.	3189
volumes	3188
Agr@@	3188
Port@@	3188
cket	3186
fi	3185
assumed	3184
causing	3184
chang@@	3184
Tube	3184
¤	3184
Mass	3183
mel	3182
feelings	3180
rel	3179
TP	3177
preliminary	3176
foods	3171
rup@@	3170
tili@@	3170
Assist@@	3169
manip@@	3168
Hun@@	3168
osa	3168
transformed	3167
1-2@@	3167
Al	3167
copper	3166
ati	3164
338	3164
start@@	3163
verk@@	3163
VO@@	3160
intend	3157
rolling	3157
derived	3157
tia	3156
sional	3156
ice-@@	3155
Spo@@	3154
coverage	3153
younger	3152
produk@@	3152
semi-@@	3149
engage	3148
concentrate	3147
amended	3147
convenience	3146
sam@@	3141
heading	3139
breeding	3138
Men	3138
ferry	3138
suit@@	3137
necessity	3137
elsewhere	3134
inclusion	3134
Jan@@	3134
1200	3132
ý	3132
medicines	3131
119	3130
chem@@	3129
prime	3127
Dry	3126
jug@@	3125
roun@@	3124
revision	3123
uniform	3122
afterwards	3121
By@@	3121
tired	3119
ications	3117
Van	3117
tened	3116
density	3116
inevit@@	3115
echo@@	3115
strictly	3114
RP	3114
artificial	3111
bron@@	3111
inher@@	3110
blin@@	3107
Below	3107
Representative	3106
Ash@@	3106
ament	3104
gastr@@	3103
Analysis	3103
particles	3103
tie	3103
amoun@@	3102
jection	3099
Wall@@	3099
pion	3099
subsequently	3098
selecting	3096
ometr@@	3096
ses@@	3096
Green@@	3095
inate	3093
SF	3093
time-@@	3090
dial	3090
packed	3090
fen@@	3090
Imm@@	3089
mineral	3088
Sign@@	3086
Consequently	3084
conscious	3084
r-@@	3084
atan	3084
revi@@	3081
NT	3081
containers	3080
sick	3079
Sebas@@	3078
Study	3077
GA	3076
SH	3076
farms	3074
passage	3074
erge@@	3074
aking	3073
recognise	3072
rant	3071
usti@@	3069
wel	3069
controlling	3068
bud@@	3068
amin	3068
consist	3067
3000	3066
siz@@	3064
mandatory	3062
e.	3062
tik	3061
libr@@	3061
tab	3060
Stra@@	3059
Turn	3056
ually	3055
onary	3055
techni@@	3054
defic@@	3051
protective	3051
databases	3048
ín	3048
asis	3047
MS@@	3047
tec	3047
emotional	3045
referen@@	3043
shor@@	3041
particip@@	3037
restoration	3035
factor@@	3035
whenever	3034
focusing	3034
modification	3033
¶	3032
coat	3030
incorrect	3029
estab@@	3028
frequent	3027
ulating	3026
ideally	3026
reas@@	3025
ranges	3023
Round	3022
encouraged	3021
rested	3020
computer@@	3019
260	3019
stering	3017
vic	3017
Conn@@	3017
minority	3016
stakeholders	3015
pression	3015
pep@@	3015
cil	3014
event@@	3014
Belgian	3013
Store	3013
INE	3013
affects	3012
group@@	3012
conveni@@	3012
ny@@	3012
nails	3011
Fast	3010
treat@@	3009
perception	3009
radiation	3009
scal@@	3009
tention	3008
assist@@	3008
descri@@	3008
cycles	3008
EV@@	3007
weak@@	3005
notified	3004
sph@@	3004
kin	3003
brid@@	3000
senten@@	3000
DU@@	3000
Poly@@	2998
respected	2997
tten	2997
year-old	2997
Dev@@	2996
tissue	2995
undertaken	2994
Im	2994
Direct	2993
tight	2992
117	2992
PE	2992
ET	2991
burn	2991
simul@@	2990
preserv@@	2989
122	2988
Iron	2988
boys	2986
amer	2986
zia	2986
Sl@@	2985
Subject	2984
External	2984
abor@@	2984
1500	2983
polic@@	2982
Louis	2982
ex	2981
occasions	2979
Overview	2978
heit	2977
Fon@@	2976
Dublin	2975
senior	2974
dio@@	2974
evident	2972
oth	2972
Bic@@	2972
Hill	2970
swit@@	2970
signature	2969
lining	2968
Route	2968
5.5	2966
authorised	2965
seri@@	2964
Given	2961
650	2961
MAN@@	2959
g.	2958
summary	2957
ace@@	2956
cies	2956
ros	2955
KA	2955
jointly	2954
monthly	2954
tens	2953
aining	2953
mechan@@	2952
extensions	2952
bilateral	2951
Tam@@	2951
32-@@	2951
olation	2949
pull	2949
Estonia	2949
Sm@@	2949
Ran@@	2948
differ	2945
rix	2943
ram@@	2942
achiev@@	2939
6.5	2939
rob@@	2939
ks@@	2939
isa	2938
consensus	2935
Measure@@	2935
coordinated	2934
Pos@@	2933
intensity	2933
SL@@	2933
ika	2931
Protocol	2930
Tax@@	2930
life@@	2930
fed	2929
succ@@	2928
550	2928
lers	2927
Watch	2925
ł@@	2925
bot@@	2923
WS	2923
tim	2922
strengthened	2921
116	2921
carrier	2919
IC	2919
165	2918
mem@@	2916
separation	2916
proto@@	2916
formula	2915
Frank@@	2915
3.0	2915
Iceland	2914
tender	2914
radical	2912
norm@@	2912
800@@	2912
illness	2911
constitutes	2911
immer@@	2911
Avenue	2910
discharge	2909
partner@@	2909
Resul@@	2909
Death	2908
6.1	2908
Chang@@	2907
essentially	2905
ential	2905
Written	2905
Geno@@	2904
album@@	2903
tutes	2902
HP	2901
rey	2900
contro@@	2899
ustin	2899
strasse	2899
quantities	2897
Index	2897
MO	2896
sings	2896
preparations	2894
Î@@	2893
SK@@	2893
prehen@@	2892
30.0@@	2892
Continue	2891
Las@@	2890
essen@@	2890
RS@@	2890
ZI@@	2890
в@@	2889
supplement	2887
losing	2885
genous	2882
sharp	2882
etro@@	2881
placing	2878
lowest	2877
gon@@	2876
healthcare	2876
theoretical	2876
indicators	2875
ulty	2875
Volume	2874
Stockholm	2873
Inte@@	2872
NO	2871
day-@@	2870
ila	2870
glu@@	2870
gend@@	2869
elli	2868
114	2864
disc	2864
receiv@@	2863
encouraging	2862
PL	2862
deleg@@	2861
splen@@	2860
Oil	2859
cio	2858
Ï@@	2857
defects	2855
circum@@	2854
ough@@	2854
machin@@	2854
crac@@	2853
breaks	2853
Deputy	2853
-2	2853
Points	2853
tants	2852
scar@@	2851
Bag@@	2851
Lower	2850
SL	2850
gross	2848
Hence	2847
Ä	2846
ü	2845
Ax@@	2845
achievements	2844
FC	2844
straße	2844
diagnosis	2842
incid@@	2841
113	2841
complex@@	2840
graf@@	2840
typically	2839
155	2839
evaluate	2838
deliver@@	2836
enters	2835
four-@@	2835
25-@@	2835
tis	2833
finishing	2832
eme@@	2831
175	2829
Try	2828
belonging	2827
commit	2826
Clar@@	2826
smoke	2826
neutral	2820
Cs	2820
mini-@@	2819
Care	2819
39.@@	2817
Í@@	2816
MI	2816
Lar@@	2815
SON	2814
allocated	2813
Question	2813
silent	2813
illy	2812
Organization	2812
leg	2812
lon	2812
assurance	2810
obser@@	2807
O-@@	2804
onate	2803
sium	2803
ALL	2803
thumb	2801
Plac@@	2798
liner	2796
fini@@	2795
les-@@	2794
firmly	2792
apparent	2791
-related	2791
1975	2791
pts	2790
itory	2790
Appro@@	2789
safely	2788
Start@@	2788
VA	2786
vegetable	2785
132	2785
RC@@	2784
Var@@	2784
apest	2782
regulated	2781
sur	2781
table@@	2781
plastics	2779
gia	2779
surveillance	2778
lateral	2778
partially	2778
activate	2778
mistake	2777
Ly@@	2777
elles	2777
entally	2776
sable	2772
avia	2771
permanently	2770
instruction	2769
rounded	2769
europa@@	2768
anti	2767
lens	2767
adaptation	2766
Consumer	2766
ulations	2766
tta	2766
Suc@@	2765
juice	2765
Heart	2765
ì	2765
manually	2764
Sto@@	2763
corresponds	2760
с@@	2758
integrity	2757
initi@@	2757
Unit	2756
È@@	2754
exo@@	2752
discre@@	2751
aste	2749
Keep	2749
slide	2749
utions	2748
Fab@@	2748
tiny	2747
sement	2747
Return	2746
itude	2745
County	2744
a.	2744
vis	2743
wash	2743
prev@@	2742
eda	2742
uncertain@@	2741
progressive	2741
fem@@	2738
apping	2737
SN@@	2737
observation	2736
asm	2736
arrow	2736
theless	2734
к@@	2734
Mün@@	2733
hlen	2733
urge	2729
lifestyle	2729
eliminate	2726
utility	2724
ion@@	2723
Dun@@	2722
lingu@@	2721
Upon	2721
infra@@	2720
correspon@@	2719
ugh	2719
ork	2719
nail	2718
Bulg@@	2717
232	2716
divi@@	2715
correction	2715
mood	2715
Tours	2714
constitution	2713
impro@@	2712
harm	2711
dominant	2710
fying	2709
pec@@	2709
Final	2709
macro@@	2708
Rhe@@	2708
il-@@	2705
Vietnam	2705
cake	2704
chairman	2703
wearing	2703
isolated	2703
insert	2702
muscle	2702
ity-@@	2701
HR	2701
vast@@	2700
filters	2700
variations	2699
classification	2699
liament	2699
solving	2699
pad	2699
Provi@@	2698
Inhal@@	2698
independently	2697
alg@@	2697
AP	2697
TER	2696
MON@@	2695
É@@	2694
igure	2693
Dy@@	2693
rupt	2690
colour@@	2690
pointing	2689
eph@@	2688
widespread	2687
span@@	2685
Card@@	2685
pursuant	2684
revised	2684
coloured	2683
Sac@@	2683
suggests	2682
transported	2682
reveal	2682
experiments	2681
Hop@@	2680
fing@@	2680
134	2680
introducing	2679
audit	2678
mean@@	2678
meta@@	2678
issu@@	2677
145	2677
121	2676
oxygen	2676
complaints	2675
demonstration	2675
ße	2674
demonstr@@	2672
instruc@@	2672
exceed	2668
Floor	2668
sul@@	2667
ffee	2667
Michel@@	2666
indication	2664
secured	2662
126	2662
discussing	2660
logists	2660
133	2660
sics	2660
AB	2659
bacteria	2659
prominent	2658
encour@@	2657
Num@@	2657
consult	2656
urely	2656
specification	2655
organise	2654
EURO@@	2654
propag@@	2653
referring	2651
Ã@@	2651
Value	2650
vni@@	2650
beneficial	2649
suspension	2649
incorporated	2648
kyo	2648
thoroughly	2647
excess	2647
translations	2647
standar@@	2647
Kap@@	2647
unacceptable	2645
yield	2644
concentrated	2644
dic	2644
aller@@	2644
usion	2643
seal	2642
cia	2641
DL	2640
Jean	2639
2.2	2639
omic	2639
GE	2639
SD@@	2638
compatibility	2636
designated	2636
Plas@@	2635
abs	2634
exclusion	2633
consolidated	2632
Bru@@	2632
repub@@	2631
preventing	2631
glasses	2631
numer@@	2631
380	2630
rises	2627
Guid@@	2626
returning	2625
inet@@	2625
experimental	2624
commonly	2623
Translation	2621
networking	2621
Lyme	2621
minimal	2620
feed@@	2620
127	2620
feren@@	2620
favourable	2619
Rub@@	2618
tively	2617
solved	2617
ave	2616
bow@@	2616
Otherwise	2615
missible	2614
carries	2613
itte@@	2613
AU	2613
UM	2611
ando	2610
ic-@@	2609
thal@@	2609
Cit@@	2609
mix@@	2608
stamp@@	2607
nau@@	2606
141	2606
ughly	2605
thesis	2604
7.5	2604
-free	2604
eps	2604
eve@@	2604
injection	2603
constitutional	2602
sely	2601
Close	2601
screw	2601
notification	2600
predic@@	2600
conven@@	2599
pending	2599
parent	2599
NET	2597
agon@@	2596
beam	2596
highlighted	2595
satisfactory	2595
maxim@@	2595
gras@@	2593
della	2593
bra	2591
22-@@	2591
pled	2590
reover	2589
Way	2589
turnover	2588
S.A.	2588
giv@@	2587
850	2587
-3@@	2587
ci	2586
rim	2580
dive	2580
patch@@	2580
Os@@	2579
plex	2579
Growth	2578
Ale@@	2578
Emb@@	2577
Helsinki	2576
pour	2576
minim@@	2575
kus	2575
113@@	2575
officer	2574
noc@@	2573
esel@@	2573
Chap@@	2572
prohibited	2571
over-@@	2570
Storage	2570
inn	2568
handled	2567
118	2567
responses	2566
Questions	2566
thor@@	2564
Tab	2564
Holland	2563
dil@@	2562
rak@@	2561
After@@	2561
pumps	2560
eled	2559
traces	2559
sdor@@	2559
calcul@@	2558
phases	2558
Talk	2558
19-@@	2557
alternatives	2555
muscles	2555
rank	2554
tongue	2553
surve@@	2553
deadline	2552
giant	2549
valve	2549
tting	2548
practically	2545
Doc@@	2544
end-@@	2541
cattle	2541
efs	2541
rapid@@	2540
margin	2539
era@@	2538
combinations	2538
erous	2537
edges	2537
matches	2536
Sle@@	2535
contributing	2533
red-@@	2533
62@@	2533
withdrawal	2532
digit@@	2531
ingham	2529
C.@@	2529
termin@@	2528
stretch	2527
compete	2526
137	2525
reproduction	2525
32.@@	2525
repeatedly	2524
loop	2523
cap	2522
sleep@@	2521
bag@@	2521
Dro@@	2520
Insti@@	2520
metic	2520
psy@@	2520
Lä@@	2519
genetic	2519
Optim@@	2519
Rou@@	2518
trace	2518
gment	2516
8.5	2516
threshold	2510
4.0	2510
consistently	2509
IR@@	2509
syl@@	2508
Jen@@	2504
ò	2504
retro@@	2503
resear@@	2503
emission	2499
Short	2499
nav@@	2499
TEC	2499
survival	2498
breath	2498
orities	2497
brac@@	2497
SI	2497
chances	2496
3.2	2496
combining	2495
penis	2495
pride	2493
Contro@@	2493
1.3	2491
270	2490
eo@@	2487
129	2487
IX	2483
NL	2483
omas	2481
abandoned	2480
152	2479
Trib@@	2479
cus@@	2478
Ox@@	2478
acids	2478
withdraw	2477
136	2476
21-@@	2476
aments	2475
bott@@	2474
mixing	2473
Bot@@	2473
Aff@@	2472
LIN@@	2472
az	2471
fulness	2470
Orange	2470
116@@	2469
Holding	2468
-10@@	2468
330	2467
achi@@	2467
single-@@	2466
arro@@	2465
trials	2465
raz	2465
10,000	2464
eligible	2463
PT@@	2463
hrs	2463
rat	2460
FOR	2460
convention	2459
Child	2458
statistical	2457
vessel	2457
а	2457
Dr	2454
Maximum	2454
Ali@@	2454
sufficiently	2452
atro@@	2451
Water@@	2450
EM@@	2450
fails	2449
arac@@	2448
proble@@	2447
ao	2447
ecu@@	2447
P.@@	2447
Gil@@	2446
Michel	2445
accompanying	2444
worn	2444
92@@	2444
favor	2444
substantially	2442
enza	2442
aut	2441
gress	2441
ught	2440
Schwar@@	2440
±	2438
realise	2436
PP@@	2436
sec	2436
annually	2435
certificates	2435
adjacent	2435
Sul@@	2435
simpli@@	2434
fos@@	2434
ttle	2434
gram	2434
carb@@	2434
ally-@@	2433
detect	2433
rial	2433
homo@@	2433
rt@@	2433
institute	2432
fewer	2431
Sig@@	2431
Noti@@	2428
hospitals	2427
accidents	2425
kne@@	2425
characterised	2424
-in	2424
prevents	2424
moul@@	2423
psychological	2422
RC	2422
Foc@@	2421
pink	2419
youn@@	2418
Form	2418
zy@@	2418
ip	2416
reactions	2416
para	2416
systematic	2415
consequently	2415
childhood	2414
Respon@@	2414
hip	2414
Lang@@	2413
Italia	2413
315	2413
arities	2411
react	2411
PT	2411
health@@	2411
Pag@@	2411
73@@	2411
142	2410
cats	2410
LS	2409
accor@@	2408
lamps	2408
atis	2408
s-	2408
routine	2407
implications	2407
185	2407
avoided	2406
classified	2406
ions	2406
notably	2405
rescue	2404
151	2404
ss-@@	2403
posit	2403
committees	2402
sole@@	2400
28-@@	2400
amin@@	2400
Officer	2400
import@@	2399
suppor@@	2398
breast	2398
organs	2397
Vision	2397
emerged	2395
strip	2395
demonstrates	2394
BP	2394
Wed@@	2394
agram	2394
lled	2393
fet@@	2393
Pierre	2393
stria	2392
WA@@	2390
PEG	2387
frame@@	2385
196	2385
documented	2384
addressing	2383
Nordic	2383
sil	2383
ister	2383
chol@@	2383
Whit@@	2381
interven@@	2378
aire	2378
erec@@	2378
TH	2378
entre	2378
compul@@	2377
138	2377
ds@@	2377
Rece@@	2377
Staff	2375
utory	2375
lifetime	2375
EEC	2374
noon	2371
variables	2371
228	2371
governing	2370
checking	2370
Vari@@	2370
EW	2370
prop@@	2368
icians	2368
2,000	2367
ia-@@	2366
specialised	2365
edly	2364
195	2363
ots@@	2363
ference	2360
rarely	2359
tubes	2359
orb@@	2358
palm	2358
Sab@@	2357
hion	2357
imer	2355
Notes	2355
considerations	2354
Py@@	2353
interpreted	2352
Dep@@	2352
contributes	2352
lifting	2352
Phar@@	2352
zk@@	2351
Mann@@	2351
CO-@@	2351
alled	2349
Sus@@	2349
abund@@	2347
Various	2346
water-@@	2346
chains	2345
feeding	2345
40-@@	2345
Hospital	2345
Impro@@	2345
possess	2344
Communications	2344
011	2344
retain	2342
egg	2342
atus	2342
Ep@@	2342
Side	2340
arma	2339
31-@@	2339
belong@@	2338
Bene@@	2338
yours	2336
alf@@	2336
protects	2335
stem	2335
erate	2331
Compan@@	2329
ored	2329
headed	2326
FA	2326
cipation	2324
GS@@	2324
shorter	2322
352	2322
inator	2321
2.1	2321
ku	2320
OJ	2320
Dir@@	2319
27-@@	2318
rod	2318
Beh@@	2317
circ@@	2317
follow@@	2317
rier	2317
Infra@@	2316
lex@@	2314
Visual	2313
ellung	2312
connects	2309
Reserve	2308
finger	2307
RT	2307
assistant	2306
pathy	2305
ten-@@	2305
NG	2305
Thir@@	2304
pha	2304
sors	2301
loose	2301
Five	2300
cloth	2300
124	2300
ather@@	2300
Hav@@	2299
SPE@@	2299
shoulder	2298
placement	2297
uma	2297
differently	2296
itecture	2296
ournal	2295
ř@@	2295
reverse	2294
node	2294
pus@@	2293
2.00	2291
allow@@	2290
typ@@	2289
uty	2289
repor@@	2288
advanta@@	2286
chemistry	2286
-like	2285
016	2285
accomplished	2284
collapse	2284
mand@@	2284
340	2284
assured	2283
prohib@@	2282
heavily	2282
Glo@@	2282
sies	2281
Slovak	2278
experiencing	2277
anese	2277
HU@@	2277
linear	2276
infor@@	2275
ı@@	2275
Ø	2275
H-@@	2274
Lou@@	2272
investigations	2271
amil@@	2271
hout	2271
delivers	2269
labelling	2269
inter-@@	2268
borne	2268
dropped	2266
ography	2266
itive	2265
evaluated	2264
ING@@	2264
aero@@	2263
apparently	2263
inserted	2263
locked	2262
indirect	2261
reinforced	2260
dynamics	2259
hosted	2258
aris	2258
thorough	2257
provo@@	2256
vals	2256
ATE	2253
-to-@@	2253
å	2253
Al-@@	2253
decre@@	2251
grades	2251
Lyon	2251
Warning	2250
199	2249
potentially	2248
investigate	2247
ox	2247
lus	2245
asters	2244
pup@@	2244
NOT	2242
formations	2242
Parts	2242
apple	2241
rays	2241
evo	2240
infections	2240
yable	2239
TER@@	2239
3.1	2237
undertake	2236
Early	2236
confirms	2235
MENT	2235
removing	2233
disorders	2233
146	2231
5.1	2231
barrier	2230
immune	2230
troub@@	2230
oping	2228
itted	2228
profound	2228
144	2228
Der@@	2227
5,000	2227
mentation	2226
therapeutic	2226
isk@@	2226
enia	2224
290	2224
Fro@@	2224
Canc@@	2221
ssen@@	2219
prevented	2218
reviewed	2217
renewal	2217
499	2217
CRI@@	2216
affecting	2215
yl	2214
xiliary	2214
yn	2213
310	2212
TRI@@	2212
intermediate	2211
tif	2211
Limited	2210
subscription	2210
tracking	2209
accep@@	2205
ularity	2205
Complete	2205
Procedure	2204
Mec@@	2204
Zone	2204
draf@@	2203
inhe@@	2203
advised	2202
ès	2202
147	2202
AE@@	2202
anal	2202
v-@@	2202
seasonal	2200
complement	2200
marg@@	2199
aled	2199
Weekly	2199
cy	2198
NE	2198
Electronic	2197
221	2197
K-@@	2197
VER@@	2195
firm@@	2194
consistency	2193
TT@@	2193
crises	2192
gn	2192
Malaysia	2192
limitations	2191
icks	2190
172	2190
mou@@	2189
hyper@@	2189
accompany	2186
small@@	2185
slight	2185
ily@@	2185
159	2183
Andr@@	2183
locks	2182
nose	2180
gains	2180
improves	2179
Fill	2179
unw@@	2178
157	2178
Scientific	2177
Jean-@@	2176
shock	2175
Medicine	2175
225	2175
014	2175
atively	2174
COUN@@	2174
defini@@	2173
jer@@	2173
ias	2173
Gel@@	2172
ruled	2171
tolerance	2171
formerly	2171
detected	2171
idate	2170
sensitivity	2168
correspond	2167
rench	2166
II@@	2165
texture	2165
logically	2164
Da	2164
tha@@	2164
simil@@	2162
Kab@@	2161
Immuno@@	2161
dar	2160
informal	2159
grading	2159
bottles	2159
individu@@	2157
blend	2157
termination	2156
Sche@@	2156
Almost	2156
1.4	2155
Overall	2155
moisture	2155
TV@@	2155
foam	2155
ival	2154
Techni@@	2154
durable	2152
anco	2152
fea@@	2151
dried	2151
Anim@@	2151
ér@@	2150
AIDS	2149
endo@@	2149
kit@@	2149
FT	2148
examining	2147
231	2147
vice-@@	2146
EP	2146
aze	2144
Anti-@@	2144
injury	2144
м@@	2144
distant	2142
monitored	2141
escap@@	2141
enty-@@	2141
freezer	2141
acknowledged	2140
eto@@	2140
149	2139
wav@@	2138
л@@	2138
bal	2136
assessed	2135
non-smoking	2135
stabil@@	2133
aer@@	2133
radio@@	2133
TM@@	2133
relates	2132
marking	2132
CB@@	2131
mild	2130
fluid	2129
alis	2129
26-@@	2129
LES	2129
potenti@@	2128
IL	2128
omb	2127
440	2127
Always	2127
gun	2126
Sep@@	2124
Bren@@	2124
2.3	2124
restric@@	2123
29-@@	2122
sheim	2122
nig@@	2121
oria	2121
emia	2119
mono@@	2119
legis@@	2118
ographic	2118
Rit@@	2118
0.1	2118
139	2116
Annex	2116
Some@@	2116
yt@@	2116
EM	2115
AA	2115
locally	2113
dys@@	2113
DNA	2113
irl	2113
TU@@	2113
Albert	2112
distinct	2112
encomp@@	2111
370	2109
143	2109
162	2108
SPA	2107
conception	2106
additionally	2104
MD@@	2103
determining	2102
introduc@@	2102
Remember	2099
PLUS	2099
ol-@@	2099
timely	2098
quiries	2098
defining	2097
Minimum	2097
153	2096
iving	2096
Tel@@	2095
arrest	2094
Important	2093
comprising	2092
2.4	2092
4.1	2092
limitation	2091
480	2091
straigh@@	2090
Four@@	2089
align@@	2089
5000	2087
calculate	2087
promotes	2086
modifications	2086
templates	2084
hygiene	2083
monit@@	2083
Tas@@	2083
LD	2081
energy-@@	2080
icar@@	2080
PER@@	2080
populations	2079
depri@@	2078
tied	2078
requiring	2078
Marath@@	2078
altogether	2077
confusion	2076
TY	2076
expects	2075
alise	2074
Pack	2074
killing	2074
Guidelines	2074
Stability	2073
stroke	2072
estr@@	2072
brochure	2071
sur-@@	2071
coordinate	2069
year-@@	2067
С@@	2067
sist	2064
dus	2064
tained	2064
scrib@@	2064
thly	2062
Pel@@	2062
211	2062
ý@@	2062
183	2061
ician	2061
Partners	2060
asal@@	2060
pushed	2059
4.2	2059
2x@@	2059
Colour	2058
mask	2057
rue	2057
KE	2057
Fru@@	2056
NA	2056
enhancing	2055
plying	2054
switching	2053
delivering	2052
ticity	2051
terminals	2051
BAS@@	2051
alth@@	2050
dual	2050
ortho@@	2050
pron@@	2049
ensured	2047
Changes	2047
chest	2047
centrally	2046
hunger	2045
cial	2045
lides	2045
elderly	2044
bones	2044
nutrition	2044
Develop@@	2044
Rein@@	2044
Vien@@	2044
recall	2043
consolidation	2043
tendency	2043
sed@@	2043
authorisation	2042
ingu@@	2042
tracts	2041
23-@@	2040
oric	2039
inver@@	2038
1.6	2036
pler	2035
ONE	2035
Sex@@	2035
mature	2034
cure	2034
Put	2034
Leave	2034
exterior	2033
sei	2033
enlarged	2032
block@@	2032
Aer@@	2031
Sed@@	2031
2-3	2030
Certific@@	2030
flora	2029
Figure	2028
275	2027
Om@@	2027
strain	2025
ventilation	2025
Oli@@	2024
estimate	2023
chambers	2023
CAR@@	2023
PO	2021
child@@	2021
fur	2021
extrem@@	2020
N.	2018
relevance	2016
365	2016
wheat	2016
Ple@@	2016
follow-up	2015
emer@@	2015
meg@@	2014
world@@	2014
3,000	2013
Tab@@	2013
paste	2012
cylinder	2012
CU@@	2011
Individual	2010
metre	2010
Barbara	2010
thermo@@	2010
revie@@	2009
Å@@	2008
OD	2007
-4@@	2007
graduate	2006
Arg@@	2006
rout@@	2005
aggressive	2003
chronic	2003
Suppor@@	2002
polyester	2000
izon@@	1998
п@@	1998
Different	1997
50-@@	1997
José	1996
habits	1995
ECU	1995
Gy@@	1995
Tol@@	1995
Core	1995
WOR@@	1995
ibr@@	1994
Va@@	1994
spreading	1992
tex	1992
poc@@	1991
Reports	1990
fertili@@	1990
organisms	1989
CR	1989
plenary	1988
insufficient	1988
359	1987
cluding	1986
CAP	1986
ć	1986
BP@@	1985
161	1983
Lac@@	1982
eping	1981
OM	1981
166	1978
act@@	1977
Shor@@	1976
arily	1974
five-@@	1974
PR	1974
ashes	1974
distribute	1971
in-house	1969
ght	1968
BE	1968
Bin@@	1968
obtaining	1967
gles	1967
RT@@	1967
Rate	1967
logist	1966
four@@	1963
disappear	1963
estimates	1963
nar@@	1963
hes	1962
delays	1961
etta	1960
Stop	1960
coated	1960
licensed	1960
FOR@@	1960
tray	1959
manship	1959
bury	1958
exhibits	1958
atever	1957
Enlar@@	1957
CL@@	1957
off-@@	1956
Applications	1956
diff@@	1955
255	1955
sure@@	1955
192	1955
screening	1954
Ê@@	1954
50,000	1953
trigger	1952
folding	1952
hel	1951
ance-@@	1951
gene@@	1950
Emil@@	1950
700@@	1949
spray	1949
borg	1947
asy@@	1947
propos@@	1945
HIV	1945
bent	1944
radic@@	1943
171	1943
Major	1943
Asi@@	1943
new-@@	1943
pupils	1942
Lum@@	1942
wo	1941
Glob@@	1939
snack	1937
Race	1935
295	1934
viable	1932
nominal	1932
KS	1931
has@@	1928
sured	1927
PP	1927
achment	1925
harve@@	1925
onor@@	1925
Ig@@	1923
163	1922
alin	1922
secret@@	1920
sustained	1920
tooth	1920
Introduction	1920
eous	1919
Van@@	1919
spra@@	1919
Box@@	1918
coding	1918
Printing	1918
71@@	1918
continuation	1917
cleaned	1917
Pom@@	1917
qualit@@	1916
AZ@@	1916
short-term	1915
adjustments	1915
urred	1915
Position	1913
Ris@@	1913
chlo@@	1913
rotation	1912
ainst	1912
stimulate	1912
compounds	1912
ained	1910
determines	1910
VP@@	1910
154	1909
observations	1908
completing	1908
Occ@@	1908
mode@@	1907
tium	1907
tine	1907
Deve@@	1907
CZ@@	1907
indicator	1906
ergon@@	1906
disappeared	1905
BU@@	1905
237	1904
esp	1904
jav@@	1904
suspended	1901
crossed	1901
Josef	1900
mic	1899
synthetic	1899
retar@@	1897
exam@@	1896
Õ@@	1896
resc@@	1895
ultr@@	1894
pocket	1893
Reference	1892
applicants	1890
169	1890
leaf	1890
399	1890
210@@	1890
temporarily	1889
Ath@@	1889
Ec@@	1889
thinks	1887
Til@@	1887
Condi@@	1887
Gon@@	1886
Never	1885
calculations	1884
eta@@	1884
Comple@@	1883
UV	1883
relatives	1881
clinic	1881
SY@@	1880
alising	1879
Lov@@	1879
No.@@	1879
exceeded	1878
DJ	1878
reductions	1877
dose	1877
circular	1877
smell	1875
Will@@	1875
386	1875
absor@@	1873
epo@@	1873
Prof@@	1873
emerge	1872
-24@@	1872
Utrecht	1871
carriers	1870
Fern@@	1870
9.5	1870
dairy	1869
mentary	1867
frozen	1867
5.0	1867
aluminum	1867
Others	1866
uno@@	1866
per-@@	1866
illustrated	1865
Trading	1865
168	1864
Stand@@	1863
interventions	1862
dioxide	1862
berry	1862
appearing	1861
Thro@@	1860
DO	1860
responded	1859
164	1859
nut@@	1858
maintains	1857
DG	1857
pig@@	1857
49-@@	1857
partic@@	1855
gestion	1854
life-@@	1853
steady	1853
oline	1853
defect	1853
algorithm	1852
б@@	1852
justify	1851
deposits	1850
granting	1849
vitamin	1849
202	1848
discretion	1848
Dav@@	1848
joints	1848
256	1848
convincing	1847
Statement	1847
Pot@@	1847
lowering	1846
Registry	1846
cord	1845
triple	1845
Ask	1845
2,5	1845
Co-@@	1844
iso@@	1844
RAN@@	1844
passive	1843
switched	1842
Need	1842
RO	1841
321	1840
REN@@	1840
attach	1839
fibre	1839
rhythm	1839
cann@@	1839
pla@@	1838
sudden	1838
diagnostic	1838
CV@@	1837
Remo@@	1837
sso@@	1837
encing	1836
SR	1836
thin@@	1835
Ass@@	1835
Ý@@	1835
onwards	1834
short-@@	1834
ece	1834
adapter	1834
durability	1833
999	1833
Et@@	1833
PVC	1832
Vig@@	1832
215	1832
UF@@	1832
sibly	1831
158	1831
Thi@@	1831
extrac@@	1831
natur@@	1831
Magn@@	1831
reads	1830
Lip@@	1830
MC	1830
supplementary	1829
prim@@	1829
painful	1829
alan	1829
adhesive	1829
donation	1828
Glass	1828
Tell	1827
scores	1827
ach-@@	1827
UC@@	1826
lyn	1826
1-2	1825
hypo@@	1825
rom	1825
too@@	1825
ique	1825
enne	1824
191	1823
consumed	1822
†	1822
irchen	1821
distinguish	1820
sweet@@	1820
yram@@	1820
lacking	1819
intake	1818
blocked	1818
umann	1818
facil@@	1817
varying	1816
notify	1815
haz@@	1815
bis@@	1814
anza	1814
regim@@	1813
Mé@@	1813
5.2	1812
yan@@	1811
neuro@@	1809
CK	1809
formally	1808
budgets	1808
eaten	1808
A2	1808
176	1808
andr@@	1808
390	1808
hazardous	1807
etic	1807
Č@@	1807
у@@	1807
KE@@	1805
vable	1805
nica	1804
Sand@@	1803
ma-@@	1802
deaths	1801
pulse	1801
repe@@	1800
0.3	1800
aim@@	1800
resist@@	1799
173	1799
patch	1799
High-@@	1798
depend@@	1797
½	1796
meaningful	1794
167	1794
round@@	1794
grip	1794
184	1794
elevation	1794
Ecu@@	1793
vec@@	1793
Sofia	1793
last@@	1792
Thre@@	1791
¡	1790
submission	1788
ept	1788
tere@@	1787
Taking	1786
cum@@	1786
Metho@@	1784
phenomena	1783
Deep	1783
Life@@	1783
avian	1782
mond	1782
KI@@	1781
Average	1781
Fernando	1780
Risk	1780
Packaging	1779
body@@	1779
rang@@	1779
intensi@@	1778
Bure@@	1778
án@@	1778
decides	1777
3.3	1776
breathing	1776
Neither	1775
Jacqu@@	1775
Haupt@@	1774
dless	1773
plac@@	1773
adverse	1773
warmth	1773
Represent@@	1772
Fixed	1771
recep@@	1770
dication	1770
imple@@	1770
148	1770
lock@@	1770
Six	1769
dead@@	1769
Sloven@@	1769
cyc@@	1769
Effici@@	1768
divide	1767
NR@@	1767
prescribed	1766
andro@@	1765
remedy	1764
Elev@@	1764
conservative	1764
amine	1764
Expert	1764
Write	1763
YOU	1763
volunteers	1762
rect@@	1762
д@@	1761
opic	1758
tom	1758
lis@@	1757
urn	1757
gab@@	1757
fingers	1757
tana	1756
extraction	1755
stine	1754
alte@@	1753
listing	1753
unexpected	1753
Package	1751
WAR@@	1751
restriction	1749
lishing	1748
den-@@	1748
indications	1747
235	1747
sunset	1747
enhancement	1746
INTER@@	1744
nominated	1744
gaining	1743
auce	1743
pulled	1742
355	1741
Making	1740
156	1740
weg	1740
raises	1739
tfor@@	1739
stomach	1739
interim	1738
tely	1738
omen@@	1738
Proce@@	1738
Squ@@	1738
Hay@@	1737
builds	1736
ancer	1736
dressing	1734
arli@@	1734
BD@@	1734
Care@@	1734
DT@@	1733
delayed	1731
curve	1731
arely	1730
expo@@	1730
Publications	1729
recipient	1727
SR@@	1727
slip	1727
aggreg@@	1727
dense	1727
-28@@	1727
agrees	1725
ib	1725
ZE@@	1725
228@@	1725
compli@@	1724
solv@@	1723
3.4	1723
Detailed	1723
toxic	1722
Field	1721
identif@@	1720
aan	1720
biom@@	1720
189	1720
177	1719
nervous	1719
Agricul@@	1718
judged	1718
knowled@@	1717
2-4	1717
decreased	1716
washed	1716
tablet	1715
Public@@	1715
RG@@	1715
timetable	1714
diagno@@	1714
Practi@@	1714
Mix	1714
unlikely	1713
domains	1713
www@@	1713
212@@	1713
4.3	1711
temper@@	1711
gradu@@	1711
AF	1710
inous	1710
intervals	1710
riger@@	1710
NS	1709
tablets	1709
incident	1708
Smoking	1708
toi@@	1708
LY	1708
uv@@	1707
enclosed	1707
incidence	1705
pe-@@	1705
Lö@@	1704
1.7@@	1704
Ring	1703
magne@@	1703
BOX@@	1703
ectively	1702
Fif@@	1702
285	1702
donations	1702
exhibit	1702
Leu@@	1702
evo@@	1701
179	1701
tap	1700
definite	1699
Budget	1699
Fig@@	1698
Patrick	1698
100,000	1697
elz@@	1697
systematically	1696
excluding	1696
avoiding	1696
unchanged	1696
1.8	1696
GAR@@	1695
chro@@	1694
itates	1694
ys@@	1693
HT	1692
procedural	1691
occasionally	1690
Pack@@	1689
In-@@	1687
phal@@	1686
particle	1685
oing	1684
Unless	1683
-off	1683
plas@@	1683
lification	1682
menti@@	1682
nas@@	1682
OG@@	1682
pum@@	1680
demo@@	1680
EME@@	1680
Ank@@	1679
Persons	1679
421	1678
physically	1677
Tap@@	1677
303	1677
L.@@	1677
RIS@@	1677
Inc@@	1676
Ask@@	1675
Exper@@	1675
inadequate	1674
omel@@	1674
ě@@	1674
bowl	1674
inea	1673
Ket@@	1673
proteins	1672
actu@@	1672
IF	1672
Iv@@	1671
aly@@	1671
anion	1671
surgical	1670
proportion@@	1669
Notice	1669
supplements	1668
Swit@@	1668
investigated	1667
converting	1667
valves	1667
itch	1667
sib@@	1667
Neuro@@	1666
Elisab@@	1665
retained	1665
essing	1664
4000	1664
tus@@	1663
VII	1663
Lich@@	1663
Acro@@	1662
1800	1662
EEA	1661
eleven	1658
categor@@	1658
throug@@	1658
kill@@	1657
MR@@	1657
vag@@	1656
Presentation	1656
amo@@	1655
urthermore	1654
strengths	1653
188	1653
ose	1652
ás	1652
harmonisation	1651
ribed	1651
Regarding	1650
omed	1650
212	1650
Typical	1649
TI	1649
Riga	1648
transitional	1647
beverages	1647
tch	1646
matched	1646
stream@@	1646
assisted	1645
Cau@@	1645
Sci@@	1645
thick@@	1645
Less	1644
avail@@	1644
70-@@	1644
Memory	1644
commerci@@	1643
203	1643
Sain@@	1643
gement	1642
exhibited	1640
lin-@@	1640
Smith	1639
lays	1638
Vall@@	1638
dell	1638
0.2	1638
attending	1637
chy	1637
Generally	1637
CAN@@	1637
mitig@@	1636
str	1636
males	1635
mothers	1634
graded	1634
Pre-@@	1634
Eth@@	1633
phil@@	1633
exceptionally	1632
compression	1632
Similarly	1631
intermedi@@	1631
Clin@@	1630
-term	1630
Proc@@	1630
scans	1630
desirable	1629
varies	1626
prompt	1626
metric	1626
Clean	1626
-27@@	1626
light-@@	1624
stuck	1624
ast-@@	1623
gil@@	1623
usable	1622
thes@@	1622
lid	1622
sealed	1622
GP	1622
Z-@@	1622
Status	1621
lasts	1620
addi@@	1619
wast@@	1619
gos	1619
lu	1619
002	1618
weakness	1617
invented	1617
Bron@@	1617
flavour	1616
Centr@@	1616
laboratories	1615
Ny@@	1614
wich	1614
1.	1613
modest	1612
circu@@	1612
Liechtenstein	1612
xion	1612
512	1612
treating	1611
recovered	1611
arom@@	1611
383	1611
medication	1610
Medic@@	1610
Eye	1610
Remove	1610
ary-@@	1609
Alle@@	1608
tagon@@	1605
expi@@	1605
yle@@	1603
argued	1602
Ast@@	1600
verte@@	1600
ASA	1599
186	1598
wool	1598
Opinion	1597
focal	1595
carriage	1595
CF	1595
Auditors	1594
symptom	1594
410	1594
Assessment	1594
CC@@	1594
Sure@@	1593
fall@@	1593
Monitoring	1593
arma@@	1593
goro@@	1592
heim@@	1592
SEN	1590
variants	1589
great@@	1589
verified	1589
Author@@	1589
lar	1589
y.	1588
312	1587
296	1587
Los@@	1587
outlined	1586
deriv@@	1586
178	1585
Seven	1584
HP@@	1584
pam@@	1584
ð	1584
stab@@	1583
interference	1583
need@@	1583
interrupted	1583
accelerate	1583
375	1583
icul@@	1583
182	1582
None	1582
ex-@@	1581
Swe@@	1581
depression	1581
regulate	1580
bourne	1580
activation	1580
substitute	1579
Groups	1578
parently	1578
rav@@	1578
put@@	1578
aba	1577
301	1576
5.3	1576
agle	1576
tigh@@	1575
2.6	1575
reminded	1574
Medium	1574
slaugh@@	1573
reliably	1573
attributed	1572
345	1572
uria	1572
analysed	1571
complementary	1571
419	1571
premature	1570
60-@@	1570
ERS	1570
anticipated	1569
Operation	1569
matrix	1569
Nec@@	1569
intent	1567
39-@@	1567
sided	1566
tera	1566
freez@@	1566
ARD	1565
indirectly	1565
answ@@	1564
phy@@	1564
orph@@	1564
enty	1564
vitamins	1564
Hard	1564
effec@@	1563
Heads	1563
ques@@	1563
TW@@	1563
forecasts	1562
identiality	1561
ary@@	1561
-European	1559
stak@@	1559
ception	1558
accurately	1558
333	1558
biology	1557
GA@@	1557
Palazzo	1557
Wales	1556
174	1556
phen@@	1556
Regulations	1555
const@@	1555
scar	1555
ZA	1555
33.@@	1555
genes	1554
187	1554
assessments	1552
plasma	1552
IV@@	1551
AST	1551
mc@@	1551
consultant	1550
puri@@	1550
altered	1550
floating	1550
Gerhard	1550
Bli@@	1550
micro-@@	1549
‑	1549
timing	1547
carc@@	1547
retention	1547
change@@	1547
absorbed	1547
indicating	1545
oling	1544
Connect	1544
drop@@	1542
Stephen	1542
413	1541
Spar@@	1540
exclude	1539
Soft	1539
WIN@@	1539
pregnant	1538
umes	1538
Scan@@	1538
CM	1538
181	1537
transmit@@	1537
cups	1536
Accordingly	1534
pyri@@	1534
viruses	1534
Hair	1534
и	1532
restrict	1530
fum@@	1529
mea	1529
lenses	1529
Alternatively	1528
replac@@	1528
319	1528
iology	1528
265	1527
preventive	1526
245	1526
consecutive	1525
208	1525
---	1525
rio	1524
MIN@@	1524
tick	1524
tise	1523
Smo@@	1523
auto-@@	1523
Scal@@	1523
lessness	1521
contrib@@	1521
rap	1521
pregnancy	1521
NT@@	1520
foil	1520
enced	1519
manifest	1517
Jung@@	1517
dine	1517
Gau@@	1517
menting	1515
vities	1515
Label	1514
IM	1514
failing	1513
Mea@@	1513
194	1513
Oslo	1512
membrane	1512
avoid@@	1511
chicken	1511
vid	1510
metal@@	1510
oundary	1510
580	1510
apr@@	1509
destro@@	1508
strips	1508
batch	1508
encountered	1506
canal	1506
ipe	1506
Usually	1506
Fort	1505
MG	1505
seni@@	1504
eliminated	1504
chase	1504
employ	1503
rine	1503
pushing	1503
sticks	1503
lingual	1503
VEN@@	1503
nem@@	1503
Higher	1502
Gabriel	1502
medicinal	1501
sised	1501
35-@@	1501
CY	1501
Fig	1501
rejection	1500
scales	1500
concludes	1499
OL@@	1499
520	1499
attempted	1498
bend	1498
Gab@@	1498
Nut@@	1498
confused	1497
expan@@	1497
Six@@	1496
acute	1496
ACE	1496
undamental	1495
aine	1495
windo@@	1495
incomplete	1494
contracting	1494
325	1494
Bac@@	1494
Film@@	1494
advances	1492
spheres	1492
vet	1492
occurring	1491
fa	1490
209	1489
STA@@	1489
turing	1489
retriev@@	1489
earliest	1487
ö	1487
ст@@	1487
produ@@	1487
alert	1486
Half	1486
Mut@@	1486
Vere@@	1486
synthesis	1485
430	1485
rene	1485
Document	1485
HA	1485
ví@@	1485
enta	1485
Recep@@	1485
305	1485
►	1485
EUROPEAN	1485
replacing	1484
quad@@	1484
197	1482
.1	1482
actic	1481
Cambridge	1481
3.6	1480
mr@@	1480
foreseen	1479
survived	1479
estim@@	1479
PI	1479
counting	1478
awa	1478
variant	1478
vised	1478
206	1478
Jones	1478
fec@@	1478
rapporteurs	1477
inge	1477
buffer	1477
Examples	1476
licensing	1476
nutrients	1476
Pear@@	1476
AGE	1476
corrected	1475
316	1475
Hart@@	1475
bitter	1474
injuries	1474
Export	1473
criterion	1472
excitement	1470
TIC@@	1470
351	1469
OL	1469
quantitative	1468
inally	1468
accumulation	1467
640	1467
explanations	1465
displac@@	1465
shelf	1465
258	1465
opt	1464
cleared	1463
2.8	1462
orms	1461
variation	1461
wax	1461
beliefs	1460
tended	1460
anxiety	1460
rever@@	1460
226	1460
nex@@	1460
yr	1459
5.4	1459
omer@@	1459
Masters	1459
UT	1459
positively	1458
û@@	1458
Conven@@	1458
Compared	1458
Bratislava	1458
eo	1458
198	1457
graduated	1457
ple-@@	1457
Contents	1457
umps	1457
Func@@	1456
assessing	1455
Docum@@	1455
lasted	1454
amending	1454
rigid	1454
Administrative	1454
prox@@	1454
Astr@@	1454
disorder	1453
264	1453
idad	1453
dk	1453
meaning@@	1452
ND@@	1452
Gender	1451
deciding	1451
paren@@	1451
stics	1451
broch@@	1451
ely@@	1451
Comb@@	1450
dynam@@	1450
411	1450
refusal	1449
continuity	1449
inc	1449
1,500	1448
controll@@	1447
Nar@@	1447
1400	1447
ority	1444
itely	1444
180@@	1444
Tony	1442
bas	1441
resp@@	1440
MAN	1440
pher@@	1439
blocking	1439
demographic	1439
dis	1439
sealing	1438
243	1438
gradual	1437
bore	1437
compound	1437
episode	1436
216	1436
laim	1436
ación	1436
simultaneous	1435
hydrogen	1435
initiate	1433
CES	1433
sification	1433
311	1433
absorption	1433
Walk	1433
stat	1432
lus@@	1432
cone	1432
È	1431
Consum@@	1430
Patr@@	1430
222	1430
Range	1430
stim@@	1429
evid@@	1429
pressures	1429
fug@@	1429
4.8	1429
abine	1429
acro@@	1428
reasonably	1427
Stage	1427
720	1427
Zen@@	1427
consulted	1426
kap@@	1426
LL	1426
reflecting	1425
warned	1424
notic@@	1424
Related	1424
Stim@@	1424
POR@@	1423
20,000	1422
reac@@	1421
methodology	1420
Parties	1420
PRI@@	1420
stopping	1419
Specific	1418
gres@@	1418
litres	1418
34.@@	1417
kled	1417
й	1417
erated	1416
USE	1415
Milano	1415
tening	1414
2500	1414
steadily	1413
SG	1413
45-@@	1413
8.1	1413
297	1413
YO@@	1412
herbal	1411
MU	1410
STO@@	1410
iqu@@	1410
EA	1410
45.@@	1410
steller	1410
oled	1409
igh	1408
triggered	1408
exceeding	1408
organism	1408
Genti@@	1408
219@@	1408
haematology	1408
kly	1407
1.7	1407
essed	1407
dea	1407
withdrawn	1406
cardboard	1406
Arth@@	1405
amino	1405
intact	1404
rr@@	1404
purity	1403
DER	1403
Peri@@	1402
1T@@	1402
institu@@	1401
rowing	1400
frequencies	1400
sunlight	1400
paralle@@	1399
exceeds	1398
PV@@	1398
470	1398
Rij@@	1398
clip	1398
VIII	1397
Gem@@	1397
34-@@	1397
Österreich	1397
Evaluation	1395
Novo@@	1395
sives	1394
`	1394
0.0	1393
6.2	1393
BRI@@	1393
O.	1393
angles	1392
hungry	1392
193	1392
abundant	1391
formulated	1390
Ind@@	1390
1.00	1390
alcoholic	1389
imaging	1389
FIN@@	1389
prepar@@	1388
fibres	1388
interact	1388
4,000	1388
severely	1387
ono	1387
analytical	1386
adequately	1385
Communities	1385
Standards	1385
Recovery	1385
contamination	1384
instances	1384
John@@	1384
281	1383
bio	1382
Stab@@	1382
quick@@	1381
fatty	1381
Maintenance	1381
oxide	1380
560	1380
hasn	1380
Greater	1378
U.	1378
amy	1377
44-@@	1377
Eras@@	1376
Q-@@	1376
addic@@	1375
223	1375
lem	1374
pari@@	1373
TTP	1373
caps	1372
Gren@@	1372
observ@@	1371
tially	1371
shield	1371
elimination	1370
464	1370
Roy@@	1370
pneum@@	1370
mang@@	1370
Lot	1370
wort	1370
Allerg@@	1370
Implementation	1369
-2-@@	1369
phan	1368
uation	1367
gen-@@	1367
isms	1366
backing	1365
outcomes	1364
persistent	1363
additives	1363
Frequ@@	1363
yearly	1363
Int@@	1362
inking	1362
declined	1362
needle	1362
Whenever	1361
6.3	1361
Hoff@@	1361
preceding	1360
dex	1360
BIT@@	1360
enly	1359
Hem@@	1358
passages	1358
vap@@	1358
wording	1357
GI	1357
minate	1356
junction	1355
Kit	1355
yline	1355
GF	1354
constituted	1354
recommends	1354
owing	1353
facilitating	1353
Å	1353
packs	1353
99.@@	1353
stead	1353
UG@@	1353
stating	1352
consume	1352
esi@@	1352
Quick@@	1352
arter@@	1351
6000	1351
poin@@	1351
deficits	1350
Eric	1350
narro@@	1350
371	1349
Lith@@	1349
Summary	1349
grape	1349
36-@@	1349
pins	1348
fat@@	1348
worried	1347
ething	1347
extern@@	1347
Harmon@@	1347
Surve@@	1347
SG@@	1347
gambling	1346
anth@@	1346
ENT	1345
eso@@	1345
heal	1345
UB@@	1345
Nutrition	1345
comprised	1344
Mechan@@	1344
Tin@@	1343
2.7	1343
6.0	1343
classi@@	1342
edness	1342
MM	1342
emergence	1340
33-@@	1340
expressing	1339
ilton	1339
950	1338
aler@@	1337
PV	1337
purple	1336
177@@	1336
Hosp@@	1335
ittel@@	1335
的@@	1335
strateg@@	1332
organisational	1332
80-@@	1332
229	1332
Straße	1332
definitive	1331
explored	1331
tear	1331
331	1331
vian	1330
wound	1330
279	1330
inic	1330
limiting	1329
dou@@	1329
391	1329
Getting	1329
LV@@	1328
Wiesbaden	1328
consisted	1327
irrespective	1326
8.2	1326
derm@@	1325
babies	1325
ancies	1324
molecular	1324
physician	1324
Recommended	1324
Monit@@	1323
pus	1322
designation	1322
CL	1322
Treatment	1322
specific@@	1322
target@@	1321
sponsors	1320
BAR@@	1320
eux	1320
D1	1320
renn@@	1319
204	1319
decom@@	1318
arances	1318
poe@@	1318
249	1317
urgency	1316
rag@@	1316
void	1315
clearance	1315
Used	1315
г@@	1315
generic	1314
PhD	1314
wri@@	1313
milestone	1313
Viv@@	1313
207	1313
Dic@@	1313
Loo@@	1313
adhe@@	1312
uncomfortable	1312
weights	1312
ase-@@	1310
Mang@@	1310
IH@@	1310
challenged	1309
sept@@	1308
place@@	1308
MD	1307
nutri@@	1307
mec@@	1307
deadlines	1306
TB	1306
Doh@@	1306
fiel@@	1305
6,000	1305
anine	1305
resin	1304
Contains	1304
Kob@@	1303
PD	1303
envelop@@	1302
agra	1302
yrs	1301
esca	1301
ison@@	1300
Wee@@	1300
storing	1299
ã	1299
238	1298
Mix@@	1297
Operations	1297
Stro@@	1297
Chemical	1297
ules	1296
8.3	1296
224	1296
490	1296
vs	1296
stir@@	1295
WHO	1294
PU@@	1294
justification	1293
advisable	1293
pulses	1293
precautionary	1292
236@@	1292
LER	1292
bum@@	1291
Thur@@	1291
Prior	1290
plateau	1290
vise	1289
Str	1289
constitu@@	1288
428	1288
Multi-@@	1287
drafting	1287
Recent	1287
soap	1287
8.0	1287
wom@@	1286
ridge	1285
Term	1285
delegates	1284
ence-@@	1284
Practice	1284
perative	1283
TRA@@	1283
objections	1281
tutions	1281
Buc@@	1281
rets	1281
241	1281
orges	1281
GF@@	1281
013@@	1281
compensate	1280
ticularly	1279
provi@@	1278
Activ@@	1278
laf@@	1278
tative	1277
personalities	1277
predominantly	1277
Continu@@	1277
CIS	1277
feasible	1276
presently	1276
protocols	1276
TRE@@	1276
exce@@	1276
Documents	1276
213@@	1276
elen@@	1275
lacks	1275
Immun@@	1275
uclear	1274
251	1274
Alfred	1274
attain	1273
Maxim@@	1273
understands	1272
conserv@@	1272
Clear	1272
Associ@@	1272
pronounced	1271
282	1271
emul@@	1270
fusion	1270
NS@@	1270
treats	1269
isen@@	1269
alyst@@	1269
Brü@@	1269
gens	1269
appropriations	1268
disse@@	1268
readily	1268
biotechnology	1268
asons	1268
Documentation	1268
Park@@	1268
ION	1268
ejaculation	1268
3x@@	1268
grasp	1267
proprietary	1267
Whereas	1267
Johnson	1267
Observ@@	1266
254	1266
Blood	1266
TY@@	1266
manife@@	1265
ambient	1265
č	1265
Offic@@	1264
diabetes	1264
interval	1264
zin	1264
City@@	1264
mann-@@	1264
Para@@	1264
threatening	1263
disturbed	1263
STR@@	1263
ská	1263
ا@@	1263
stimulating	1262
Ras@@	1262
460	1260
tico@@	1260
weighing	1260
versa	1259
suspected	1258
pend	1258
213	1258
219	1258
Carbon	1258
Solution	1258
clearer	1257
glut@@	1257
Typ@@	1257
Included	1257
nier	1256
Distribution	1256
calibration	1256
Lyn@@	1255
recruitment	1255
tide	1255
Asc@@	1255
H2	1255
gic	1254
stimul@@	1254
seals	1254
herence	1253
regeneration	1253
Self-@@	1253
notable	1253
iro@@	1252
facial	1252
aligned	1251
chrom@@	1251
MT	1251
Circ@@	1251
Ð@@	1251
damaging	1250
379	1250
357	1250
ograph@@	1249
inspections	1248
4.4	1248
214	1248
Nel@@	1247
duction	1247
SAN@@	1247
7.1	1246
empt@@	1246
Latvi@@	1245
Feder@@	1245
CIA	1245
1100	1245
swimm@@	1245
ske	1245
BV@@	1245
differs	1244
clinics	1244
0.4	1244
Chil@@	1243
630	1243
donors	1242
341	1242
rupt@@	1242
214@@	1242
uality	1241
Doctor	1241
323	1241
412	1241
TRU@@	1241
metallic	1239
146@@	1239
sensation	1239
TIONS	1239
5.6	1238
accelerated	1237
estro@@	1236
forwarded	1235
help@@	1235
376	1235
MM@@	1235
GRA@@	1235
xim@@	1234
007	1234
topo@@	1233
nitrogen	1232
strains	1232
lj@@	1232
margins	1231
side-@@	1231
clips	1231
43-@@	1231
postp@@	1229
beverage	1229
372	1229
ROU@@	1229
though@@	1228
diam@@	1228
gem	1228
SAT	1227
289	1226
replic@@	1226
425	1225
wy	1225
Reven@@	1225
Yellow	1225
Eis@@	1225
ival@@	1224
337	1224
Psy@@	1224
Industries	1223
Concept	1223
OM@@	1223
cows	1222
optimised	1222
Alpes	1222
buff@@	1222
Controller	1221
unwanted	1221
skip	1221
almon@@	1220
PB	1220
SIG@@	1220
bling	1219
trunk	1219
possesses	1218
calcium	1218
Campus	1218
breathe	1217
oval	1217
ora@@	1217
е	1217
illum@@	1216
nucle@@	1216
7.0	1216
49.@@	1216
genic	1215
Isol@@	1215
369	1215
JO@@	1215
þ@@	1215
gauge	1214
blades	1214
ugen	1213
288	1213
IDE	1213
911	1213
485	1211
vist	1211
Kil@@	1211
yester	1211
substanti@@	1210
appoint@@	1210
gare@@	1209
Inc.	1209
GS	1209
itus	1208
super-@@	1207
361	1207
validation	1207
Pink	1207
esz@@	1207
ı	1207
ampl@@	1206
doubled	1206
t-	1206
evaluating	1204
PRO	1204
¨	1204
suring	1203
OB@@	1203
plen@@	1203
c.	1203
predictable	1202
illnesses	1202
AE	1202
2.	1201
SEN@@	1201
Avail@@	1201
347	1200
obil@@	1200
ecti@@	1200
endorsed	1199
353	1199
fever	1199
labor@@	1198
Rib@@	1198
GRE@@	1198
SB@@	1198
illumination	1198
healed	1197
observers	1196
drainage	1196
unstable	1195
3.8	1195
HAR@@	1195
penetration	1194
precautions	1194
Bayer	1194
335	1194
authorization	1194
judgement	1193
Syl@@	1193
fragile	1192
arel@@	1192
CK@@	1192
Gradu@@	1190
287	1190
ollen	1190
detail@@	1189
Phase	1189
portun@@	1188
touching	1188
igures	1188
infrared	1188
formulation	1187
003	1187
Discussion	1187
limbs	1187
exercising	1186
adul@@	1186
yields	1186
adin	1186
HI	1186
sever@@	1185
ц@@	1185
zio	1184
irrig@@	1183
Spon@@	1183
lacqu@@	1183
Bacter@@	1183
veness	1182
495	1182
ан@@	1182
illuminated	1181
hypothe@@	1180
242	1180
sevel@@	1180
-8@@	1179
304	1178
dening	1178
metabolism	1178
218	1177
leu@@	1177
e-	1176
upwards	1175
Virus	1175
Recon@@	1174
1,2	1174
bind	1173
4.7	1173
Pati@@	1173
underneath	1172
throat	1172
payable	1172
etal	1172
molecules	1172
494	1172
Animals	1171
folded	1171
з@@	1171
genetically	1170
compar@@	1170
gou@@	1170
proliferation	1169
scored	1169
Zar@@	1169
cision	1168
Alternative	1168
329	1168
promptly	1167
itant	1166
submitting	1166
395	1166
ATION	1166
heart@@	1165
elevated	1163
probability	1163
RI	1163
Cra@@	1163
suicide	1162
comparative	1162
beta	1162
v.	1162
248	1162
2000-@@	1161
253	1161
orith@@	1161
resul@@	1160
assuming	1160
elin	1160
hof@@	1160
234	1160
Freder@@	1160
Apply	1160
Resi@@	1160
43.@@	1160
TOS	1160
Ltd.	1160
engaging	1159
Animal	1159
vas@@	1159
Ca	1159
Module	1159
ş@@	1158
Apo@@	1158
appropriately	1157
FP	1157
reason@@	1157
elis	1156
0.8	1156
shake	1156
supplemented	1156
volunteer	1156
36.@@	1156
lever	1154
ço@@	1154
PF@@	1154
trimester	1154
õ@@	1154
pell@@	1154
aspir@@	1153
217	1153
verage	1153
GB@@	1153
oid	1152
disrup@@	1152
Ô@@	1152
King@@	1151
dip@@	1151
spontaneous	1150
interactions	1150
caring	1150
neutr@@	1150
nutritional	1150
optimisation	1150
328	1150
odds	1149
idation	1149
sexuality	1149
bee	1149
Hold	1149
Boulevard	1149
dl	1149
acr@@	1148
TN@@	1148
triangle	1147
272	1147
1.9	1146
Candi@@	1146
LT@@	1146
present@@	1146
compartment	1146
Ring@@	1146
indo@@	1145
37.@@	1145
asth@@	1144
Evol@@	1143
-out	1142
multinational	1142
pha@@	1142
preferably	1142
004	1142
lease	1142
b.	1142
unas	1141
kills	1141
š	1141
Peak	1141
020	1140
2.9	1140
286	1140
crosses	1140
660	1140
quin@@	1140
Except	1139
Io@@	1139
utilisation	1139
UK@@	1139
î	1139
membr@@	1138
Laboratory	1137
ñ	1137
marker	1136
meth@@	1136
isations	1136
breakthrough	1135
intro@@	1134
7.2	1134
9.2	1134
tensive	1134
DK@@	1134
Bochum	1134
Allow	1133
540	1133
Population	1132
dwelling	1132
BO	1132
Ž@@	1132
FE	1132
Reli@@	1131
tad@@	1131
warrant	1130
276	1130
239	1130
423	1130
Numb@@	1130
415	1130
Ñ	1130
usive	1129
thetic	1129
374	1129
ART	1129
attempting	1127
altern@@	1127
368	1127
XT	1127
SAL@@	1127
Valu@@	1126
COR@@	1126
composite	1126
4.6	1125
CMS	1125
blast@@	1125
Compon@@	1125
omer	1124
006	1124
responding	1123
252	1123
HB@@	1123
diamond	1122
Qual@@	1122
shak@@	1121
confined	1121
usk@@	1121
Tes@@	1121
1300	1121
451	1121
Sweet	1120
resume	1119
reco@@	1118
d.	1118
283	1117
Wood@@	1117
abs@@	1116
431	1116
Recommendation	1115
Estab@@	1115
Aviation	1115
590	1115
005	1115
Dé@@	1114
clarification	1114
LAS	1113
ocate	1113
undergo	1113
stained	1113
distress	1113
inser@@	1113
266	1113
3.7	1113
9.3	1113
Whilst	1112
Similar	1112
nerve	1112
adine	1112
BY	1112
engrav@@	1112
occurrence	1111
Block	1111
diminished	1111
377	1111
ы@@	1111
suspect	1110
olate	1110
Ì@@	1110
administrations	1109
vial	1109
Cell@@	1109
eni	1109
GL@@	1109
teri@@	1109
gau@@	1108
deterioration	1108
extensively	1108
Indic@@	1108
estive	1107
exercised	1107
Paren@@	1107
314	1107
It@@	1107
Ulm	1107
alco@@	1107
cleansing	1106
stil@@	1106
358	1106
Secretariat	1105
amous	1105
upward	1105
332	1105
THE@@	1105
Y-@@	1105
ivers	1104
minimize	1104
mpt@@	1103
implants	1103
gloves	1103
Rin@@	1103
fil	1102
requesting	1102
wounds	1102
lowered	1102
Centro	1102
irc@@	1102
uncertain	1101
multic@@	1101
sified	1101
jar	1101
DK	1101
indic@@	1100
therapies	1100
ANS@@	1100
examinations	1099
pharmacy	1099
Fast@@	1099
Neo@@	1099
incompatible	1098
fus@@	1098
Gaul@@	1098
À@@	1098
tific@@	1098
Agu@@	1096
LAND	1096
investig@@	1094
demonstrating	1094
349	1094
Skin	1094
Scienti@@	1093
conta@@	1093
refer@@	1093
711	1091
liquids	1091
clicks	1091
contaminated	1090
æ	1090
48-@@	1090
CV	1090
570	1089
zinc	1089
INTE@@	1089
lesser	1088
breakdown	1088
failures	1088
Anne@@	1088
Philadelphia	1088
develop@@	1088
l.	1088
voluntarily	1087
362	1087
Strong	1087
τ@@	1087
000.00	1087
prob@@	1086
Cancer	1086
404	1086
Correc@@	1085
shiel@@	1085
IE	1085
sleeve	1085
tub@@	1084
Per	1084
Gast@@	1084
attained	1083
227	1083
visually	1083
belly	1083
Episo@@	1083
344	1083
similarly	1082
Manufacturing	1082
dissemination	1081
hoc	1081
fib@@	1081
pulling	1080
308	1080
predicted	1080
363	1080
reimbursement	1080
LT	1080
30,000	1079
upright	1079
Line@@	1079
ameter	1079
foodstuffs	1078
brit@@	1078
niture	1078
1,8@@	1078
paragrap@@	1077
PG@@	1077
nov	1077
successive	1076
entif@@	1076
cellular	1076
barrel	1076
Pier@@	1076
ī@@	1076
435	1076
emerg@@	1075
concentrations	1075
398	1075
fragments	1075
ë	1075
adal@@	1074
OH@@	1074
pills	1073
VER	1073
Driving	1073
343	1073
37-@@	1072
mbling	1071
Frankfur@@	1071
Pure	1071
Regular	1071
sko	1071
Bring	1071
physicians	1071
Bucha@@	1070
meer	1070
Electro@@	1070
5.7	1070
rub	1069
Imple@@	1069
Demo@@	1069
anis@@	1069
recipients	1068
302	1068
427	1068
Span@@	1067
Device	1067
ZO@@	1066
spinning	1066
326	1065
PAS@@	1065
Either	1064
reminder	1064
accumulated	1064
Progress	1064
5.8	1064
recognises	1063
lep@@	1063
iche@@	1062
fertile	1062
ureth@@	1062
Marino	1062
manifestation	1061
Preparation	1061
41-@@	1061
disability	1060
disturb@@	1059
noticeable	1059
applic@@	1058
NU@@	1058
administered	1058
418	1058
colony	1057
Scan	1057
387	1056
summar@@	1055
-life	1055
Hat@@	1054
curves	1054
drain	1053
PAC@@	1052
interfere	1051
sampling	1051
viations	1051
depos@@	1051
differentiated	1050
lightly	1050
ilers	1050
terminology	1049
Ster@@	1049
TED	1049
fatal	1048
625	1048
008	1047
donor	1047
slow@@	1047
extracted	1047
pies	1046
Compet@@	1046
HS@@	1046
409	1044
3-4	1044
ingredient	1043
sna@@	1043
peripheral	1043
Taste	1043
455	1043
ycl@@	1042
Wy@@	1042
Hydro@@	1041
364	1041
ab-@@	1041
LV	1041
ğ@@	1041
food@@	1040
polar	1040
309	1040
GT	1040
histo@@	1040
wart	1039
confirming	1039
questionnaire	1039
dop@@	1039
277	1038
iary	1037
chrome	1037
UD@@	1037
0,5	1037
Stal@@	1036
Shel@@	1036
CAL@@	1036
pains	1035
Heat	1035
ч@@	1035
quicker	1034
447	1034
ween	1034
LY@@	1034
030	1034
adhere	1033
expiry	1033
ila@@	1033
inflammation	1033
defective	1032
44.@@	1032
usu@@	1031
405	1031
273	1030
doms	1029
zom@@	1029
MEDI@@	1028
SAR@@	1028
eca	1028
ACH	1028
Hg	1028
case-@@	1027
bubble	1027
half@@	1026
‹	1026
cylinders	1026
satisfying	1025
remainder	1025
saturated	1025
patches	1025
rix@@	1025
rst@@	1025
456	1024
511	1024
535	1024
6.4	1023
91-@@	1023
B2	1023
dure	1022
epid@@	1022
proportions	1022
reas	1022
TIME	1022
HAN@@	1022
PAL	1022
predict	1021
selective	1021
ost	1021
stav@@	1021
Specific@@	1020
Cap	1020
AME@@	1020
ezia	1020
Gabri@@	1020
OTHER	1020
dietary	1019
Aluminium	1019
EPS	1019
OT	1019
provisional	1018
tissues	1018
OF@@	1018
457	1017
318	1016
271	1016
89-@@	1016
Evening	1016
7.6	1016
urine	1016
MEN@@	1016
我@@	1016
interpreting	1014
té	1014
questioned	1014
396	1014
arbitration	1013
adjusting	1013
Eisen@@	1013
enhances	1013
meter@@	1013
Non	1013
.00	1013
о	1013
327	1012
weaker	1012
Certain	1012
7.3	1012
wrapped	1012
asleep	1012
Defini@@	1012
refore	1012
Setting	1011
Parc	1011
coc@@	1011
pads	1011
SER@@	1011
Experts	1010
occasional	1010
366	1010
spreads	1010
Meetings	1010
Requirements	1010
capsules	1010
Thy@@	1009
transferring	1009
pooling	1009
är	1009
ito@@	1009
TRO@@	1009
straat	1009
harmonised	1008
mania	1008
269	1008
veterinary	1006
kage	1006
vides	1006
15-minute	1006
erection	1006
ranked	1006
46.@@	1006
pens	1005
reset	1005
zin@@	1005
acrylic	1005
unclear	1004
Tac@@	1004
analogue	1004
ain-@@	1004
153@@	1004
0.6	1003
Gou@@	1003
246	1003
BW	1003
investigating	1002
680	1002
rish	1001
shallow	1001
females	1000
ometric	1000
unpleasant	1000
episodes	1000
synthe@@	999
pH	999
medications	999
Minister@@	998
adri@@	998
406	998
Therapy	998
336	997
LEN@@	997
antibiotics	996
optimise	996
384	996
ist-@@	996
BR	995
rhe@@	995
magnitude	994
surg@@	994
rop@@	994
Mobil@@	994
litre	993
terminated	993
Barcel@@	993
Ë@@	993
inging	992
Hyper@@	992
kidney	991
amid	991
Nob@@	991
530	991
defended	990
lop	990
grab	990
367	990
247	990
lished	990
Acti@@	990
panic	989
fatigue	989
sedi@@	989
Dogs	989
Dop@@	989
carri@@	988
seated	988
fraction	988
NC	988
Prevention	987
ilo	987
irregular	986
pig	986
Colle@@	985
instability	985
induced	985
Ini@@	985
puppies	985
BC@@	985
warnings	984
topical	984
regul@@	984
alternate	984
284	984
vs.	984
233	984
rod@@	983
MW@@	983
322	983
Non@@	983
reme@@	982
André	982
forgo@@	981
silicon	981
yeast	981
teur	981
reproduce	980
fats	980
intellec@@	980
Ø@@	980
weigh@@	979
instructed	979
freezing	979
Clinical	979
immuno@@	979
BRA@@	979
515	979
inherited	978
determin@@	978
306	978
Prot@@	977
TT	977
FU@@	977
267	976
contain@@	975
versus	975
SERVI@@	975
esi	974
38-@@	974
absent	973
Scandin@@	973
outbreak	973
poultry	973
Ambi@@	973
Cell	973
six-@@	972
346	972
CAM@@	972
VIS	972
CAN	972
differential	971
Ma	971
entec@@	971
prolonged	970
decreases	969
complications	969
475	969
Progressive	969
-1.@@	969
ISBN	969
syndrome	968
fluctuations	968
respiratory	968
NP@@	967
Lock	967
4-6	967
1-3	967
portions	966
transi@@	966
lv	966
penetr@@	965
seldom	965
reimbur@@	965
356	965
resonance	965
dicated	964
slower	964
regulators	963
ede@@	963
417	963
Gn@@	963
dion	963
244	963
966	963
stuffs	962
impulse	962
9.0	962
TAC@@	961
mill@@	961
schedules	961
6.6	961
Pers@@	960
allowance	960
exper@@	960
449	960
639	960
tron	960
º	959
inine	959
imen	959
Cere@@	959
uter@@	959
fortified	958
Industrie	958
MAC	958
hex@@	958
oles	957
nursing	957
remedies	957
noti@@	957
duct	957
action@@	957
rotate	956
0.5@@	956
9.1	956
Short@@	955
Vitamin	955
level@@	954
pia	954
Nas@@	954
ulo@@	954
reservoir	953
Turn@@	953
0.9	952
10.0	952
292	952
BG	952
620	952
empirical	951
354	951
nm	950
MU@@	950
Sug@@	949
accounted	949
diso@@	949
zol@@	949
8.4	948
litter	948
Contr@@	947
repeti@@	947
313	947
WH@@	947
408	947
7.4	946
ń@@	946
equilibrium	945
refrain	945
4.9	945
mitting	944
absorb@@	944
tumor	944
straw	943
degradation	943
breeds	943
268	943
ε@@	943
sori@@	943
under-@@	942
Stren@@	942
aggression	942
471	942
dissolved	940
ORI@@	940
phic	939
0.7	939
Rig@@	939
PK@@	938
REACH	938
securely	938
Ultr@@	938
deficiency	937
ь@@	937
307	936
punctu@@	936
Marcel	936
Visu@@	936
velocity	935
chlor@@	935
Brac@@	935
ici	935
FER@@	935
Function	935
plaster	934
378	934
eut@@	934
293	934
idated	933
392	933
Positive	933
KR@@	933
arius	932
offspring	931
Benef@@	931
ristine	931
ND	931
pigs	930
263	930
Rele@@	929
ANY	929
recru@@	928
sperm	928
rin	928
cognitive	928
STI@@	928
clarified	927
adolescents	927
yments	927
407	927
Modified	927
spine	927
comparing	925
mortality	925
Approximately	925
crying	925
supervised	924
259	924
327@@	923
Male	923
achieves	922
Possible	922
298	922
373	921
beats	921
Response	921
Vas@@	921
messenger	921
Hör@@	921
attributable	920
262	920
SAS	919
prescription	918
CRE@@	918
EX	918
Luxemburg	918
599	918
inability	917
extra-@@	917
patho@@	916
-resistant	916
ino-@@	916
Rip@@	916
yme	916
ulative	915
filtration	915
ateral	915
booklet	915
gated	915
Operational	915
neo@@	915
Target	915
Ad	914
critically	913
derivatives	913
freeze	913
3.00	913
257	913
alter@@	913
3.9	912
reinforcing	912
apsed	912
8000	912
decay	912
clusion	912
Na	912
ectives	911
raf	911
339	911
aken	911
PHO@@	911
anium	910
derive	910
thereafter	910
salmon	910
Cum@@	910
Prad@@	910
drunk	909
submissions	909
evaluations	908
undi@@	908
3.	907
erit@@	907
Reco@@	906
thood	906
hygi@@	906
LIN	906
ulas	905
verb	905
archiving	905
610	905
balloon	905
ARE	905
lax@@	904
XX	904
complic@@	903
90-@@	903
messen@@	903
Hamilton	903
zan@@	903
DP@@	902
rele@@	902
BEN@@	901
009	901
LOG@@	901
iso	901
itated	900
Regardless	900
Meta@@	900
asal	900
temporal	900
labeled	900
differentiation	899
Method	899
Cardi@@	898
restart	898
diagnosed	898
ulates	897
Accounting	897
÷	897
gasse	897
278	896
approximate	896
Emer@@	896
prehensive	895
414@@	895
ferred	894
radioactive	894
shortest	894
75-@@	894
MR	894
690	893
525	893
progression	893
Load	893
890	893
discus@@	892
prospective	892
dependency	891
Avoid	891
worm	891
401	891
TAR@@	891
Asp@@	891
alde@@	890
Pick	890
DAT@@	890
terior	889
cau@@	889
cardiovascular	889
15,000	889
Multiple	889
ā	889
щ@@	889
gent	888
suspicion	888
efficacy	888
geri@@	888
annex	887
minent	887
cataly@@	887
intensified	887
Stock@@	887
Testing	887
End@@	887
toler@@	886
inscription	886
GEN@@	886
esis	886
Manufacturer	886
responds	885
interrupt	885
Micha@@	885
Emergency	885
bos@@	885
antic@@	885
Cycle	885
prefer@@	884
317	884
Oro@@	884
ov.@@	884
HER@@	884
evenly	883
Desc@@	883
381	883
422	883
−	883
inferior	882
stimulation	882
AI	882
ople	881
bol	881
NOR@@	881
effici@@	880
solutely	878
Effective	878
pharmaceuticals	878
Factor	878
dise@@	878
MUN@@	878
AV	878
yne	877
Immediately	877
marketed	877
342	877
lest@@	877
324	877
duct@@	876
Dental	876
α@@	876
enquiries	875
509	875
mac	875
FROM	875
audits	874
442	874
loo	874
control@@	873
42-@@	873
CHO	872
12.5	872
SION	872
y-	871
wastewater	871
optic	871
WITH	871
Cerv@@	870
Brist@@	870
allowances	869
resolving	868
inappropriate	868
hormone	868
wrap	868
315@@	868
postponed	867
reproductive	867
soy	867
decreasing	866
polar@@	866
sol	866
Eff@@	865
numb@@	865
HE	865
unit@@	865
76-@@	865
SEC@@	865
deficiencies	864
infect	864
MAC@@	864
bend@@	864
Leid@@	864
Richter	863
grad@@	863
turally	862
so-@@	862
onis@@	862
10.5	862
Instructions	862
chem	862
regulator	861
es.	861
favoured	860
preceded	860
chaired	860
wered	860
664	860
414	859
Authorities	859
sickness	859
Strauss	859
Д@@	859
expect@@	858
Disp@@	858
Trial	858
621	858
Ab	858
staining	857
displacement	857
cellaneous	857
8.7	857
Vilnius	857
amino@@	857
nodes	856
systemic	856
breasts	856
URI@@	856
661	855
Ls	855
261	855
cath@@	854
thirst	854
469	854
-3	854
erly	853
BN@@	853
4-5	853
amination	853
moist@@	853
impaired	852
236	852
555	852
Strasse	852
unused	851
possess@@	851
Mono@@	851
Scale	851
coni	850
scriptions	850
alo	850
522	850
100-@@	850
77-@@	849
Sector	849
WT	849
­	848
undergoing	848
abra@@	848
lez	847
iu	847
immunity	846
ل@@	846
Includes	846
lative	845
appetite	845
alum@@	845
ounts	845
allergic	845
6.7	845
PLA@@	845
dosage	844
40,000	844
489	844
pencil	844
576	844
esthe@@	844
dorp	844
aspar@@	843
Quanti@@	843
erosion	842
analo@@	841
670	841
EE	841
Wo	841
clusions	840
tolerate	839
Physical	839
scl@@	839
tite	839
bloody	838
444	838
Moul@@	838
HY@@	838
XE@@	838
iliar@@	837
Consider	837
accum@@	836
rella	836
Viet@@	836
GRI@@	836
1,200	836
291	836
dispos@@	835
East@@	835
334	835
Activity	835
Þ@@	835
Separate	835
Pall@@	835
Instruc@@	835
hydr@@	834
100.@@	834
icl@@	834
0,1	834
ő@@	834
Alf@@	833
etan@@	833
harmless	832
Experi@@	832
Radio@@	832
Proto@@	832
Adult	832
approxim@@	831
caution	831
deposited	831
melan@@	831
gp@@	831
5x@@	830
Measurement	830
resumed	829
BT@@	829
AK	829
¹	829
nozzle	829
cept	828
Solo@@	828
poorly	827
fficial	827
cured	827
Hunter	827
Educational	827
manifested	826
432	826
hormones	826
spinal	826
Intro@@	826
274	826
û	826
İ@@	826
¿	825
t-time	824
elines	824
LIFE	824
vertically	824
ní	824
blast	823
dosing	823
TIC	823
commercially	822
Cis@@	822
Magne@@	822
omas@@	822
Conferences	821
cigare@@	821
adness	820
545	820
BL	820
crushed	819
compensated	819
Jose@@	819
Increase	819
434	819
bubbles	818
Interpre@@	818
tightening	818
alpha	818
boosting	818
Health@@	818
Ljubljana	818
wn-@@	818
6.9	818
Institu@@	817
misuse	817
vered	817
langu@@	817
ū@@	817
BUS@@	817
Patients	816
XXX	816
PU	816
LS@@	816
Morning	815
416	814
294	814
Louv@@	814
anto@@	814
5-10	814
polymer	814
employing	813
Yel@@	813
silicone	813
503	813
465	813
residual	812
Analytik	812
proportional	811
dividing	811
910	811
ative-@@	811
97-@@	811
chemie	811
avenue	810
567	810
081	809
Tec@@	809
Effects	809
stuff@@	809
fertility	809
uste@@	808
semen	808
017	808
flor@@	808
viability	807
above-mentioned	807
8.6	807
Wilson	807
ASE	807
OX@@	807
evidenced	806
expose	806
correlation	806
Speak	806
Drug	805
PCI	805
upset	804
529	804
DD	804
Amon@@	803
Professi@@	803
SON@@	803
25,000	802
Noc@@	802
yto@@	802
alternatively	801
YS	801
ś@@	801
rently	800
Highly	800
Epi@@	800
vd	800
Bé@@	799
ester	799
closures	798
pale	798
España	798
463	798
equals	797
CAP@@	797
pre	797
Tablet	797
herd	796
concentrates	796
ITY	796
anxious	795
guideline	795
Alcohol	795
vinyl	795
1,9@@	794
OP	794
gat@@	794
ral	793
converts	793
lodged	792
tility	792
knee	792
VL@@	792
minated	791
medium-@@	791
Standing	791
Reporting	791
crystals	791
esso@@	791
B1	791
Setup	791
Leiden	791
multiply	790
aid@@	790
subsidy	790
weakened	790
55-@@	790
Avenida	790
RG	790
ę@@	790
NHL	790
undergone	789
5.9	789
Resistance	789
9.6	789
twist	788
addiction	788
suspend	787
residues	786
itations	786
9.4	786
CEL@@	786
mary	786
scopy	786
dened	785
uniform@@	785
VC	785
439	785
palate	785
Ò@@	785
overlap	784
Rapid	784
mistaken	784
bi-@@	784
bev@@	784
000-@@	784
467	784
7.7	784
attaches	783
olig@@	783
relieve	783
bundle	783
sund@@	783
nr	783
MANN	783
starch	782
Minor	782
solvent	782
Classical	782
Physi@@	782
magnesium	782
sera	782
476	781
standardised	779
arate	779
6.8	779
502	779
paras@@	779
exhibiting	779
downward	778
595	778
382	778
PDT	778
Alzheimer	777
438	777
EFTA	777
bacterial	777
concentrating	776
Supple@@	776
9.9	776
ь	776
explan@@	775
weigh	775
vided	775
Carb@@	775
cade	775
Vertri@@	775
questionable	774
disposition	774
advises	774
501	774
product-@@	774
factu@@	773
Scandinavia	773
interruption	772
intercourse	772
Measuring	772
flip	771
chel@@	771
840	771
anus	771
END	771
perme@@	770
COMP@@	770
substrate	770
49-	770
dispose	769
ptive	769
lungs	769
Problems	769
asta	769
Peg@@	769
HU	769
1-	768
Minim@@	768
NH	768
Reykjav@@	768
illary	767
implant	767
ul-@@	767
prone	766
staff@@	766
ć@@	766
462	765
fore	765
surgeon	765
imprint	765
Triple	765
multiplic@@	764
Neder@@	764
rimon@@	764
With@@	764
q.	764
blood@@	763
Half@@	763
hay	763
915@@	763
348	762
insertion	762
ril	762
awaited	761
ssel	761
Cross-@@	761
Conduct	761
packaged	761
433	761
Consol@@	760
Subsequently	759
445	759
modelling	759
PARTIC@@	759
accidental	758
ittel	758
Wr@@	757
disposed	757
effor@@	757
Insert	757
ONS	757
CG	757
sque@@	756
releasing	756
facturers	756
Nine	756
Dio@@	756
SHO@@	756
sweat	755
539	755
9.7	755
ylin@@	755
441	755
Seine	754
-6	754
beating	753
mam@@	753
Issues	753
Degree	753
invert	753
quarterly	752
engineered	752
RELEASE	752
tabs	751
phobia	750
cigarette	750
refriger@@	750
799	750
stabilisation	749
scher@@	749
Georges	748
maize	748
forti@@	748
BRE@@	748
453	747
trouble@@	747
dynamically	747
rhythms	746
responsive	746
fung@@	746
thirsty	746
46-@@	746
calories	746
deviation	745
7.9	745
Vittor@@	745
487	744
thirds	744
metho@@	744
itol	744
710	744
deletion	743
oly@@	743
tality	743
graduation	743
pand@@	743
ù	743
VED	743
Tél	743
unilateral	742
Normal	742
abortion	742
Reinhard	742
980	742
womb	742
remedi@@	741
enlar@@	741
fasting	741
PET	741
STA	741
CZ	741
L1	741
xeno@@	740
platinum	740
Recommendations	740
medicin@@	740
breeders	739
Combined	739
Experim@@	739
erse	739
Score	739
389	738
089@@	738
¾	737
angi@@	737
473	737
NEX@@	737
ι@@	737
Disease	736
WP	736
hazards	736
780	736
cholesterol	736
Flex@@	736
Adults	736
preferen@@	735
Inno@@	735
potent	735
Org@@	735
MF	735
rashes	734
principally	734
Dise@@	734
metry	734
scription	734
engraved	734
compan@@	734
aso@@	734
agno@@	734
irregularities	733
incorporation	733
erro@@	733
incl@@	733
Exposure	733
exert	732
shortened	732
denly	732
periodic@@	732
reafter	732
357@@	732
SYSTE@@	732
-Pl@@	731
skil@@	731
ESA	731
benefiting	731
scientifically	730
vaccination	730
ADA	730
505	730
602	730
alli	730
dF@@	730
long-lasting	729
enical	729
dysfunction	729
Consult	729
RON@@	729
intra@@	729
enzymes	729
nurse	728
Oral	728
388	728
424	727
ineffective	727
suggesting	727
60,000	727
indicative	726
entations	726
Contri@@	726
capsule	726
ANO@@	726
cautious	725
disappears	725
10-15	725
uman	725
recurring	725
X-ray	725
507	724
Handling	724
jit@@	724
tate	723
hazard	723
-line	723
grouped	722
identifiable	722
facilitated	721
strand	721
penetrate	721
strokes	721
stimulates	721
facture	721
477	721
521	720
hardened	719
1050	719
infectious	718
Giv@@	718
nerves	718
ATS	718
ń	718
mice	718
supportive	717
9.8	717
Mechanism	717
Calcul@@	717
yi@@	717
awake	717
Doc	717
mg@@	717
478	717
sensory	716
gland	716
GH	716
chemotherapy	715
activating	714
Exc@@	714
cyclo@@	714
frequ@@	714
opi@@	714
zar	714
VAL@@	713
agrap@@	712
remn@@	712
omers	712
Coordination	711
exer@@	711
worms	711
hemi@@	711
YOUR	711
Ant@@	711
Duo	711
Toc@@	711
0.9@@	711
deter@@	710
wal	710
poro@@	710
Reduction	710
Prop@@	710
ра@@	710
branded	709
8,000	709
liberated	709
ethanol	709
GLO@@	709
ultras@@	709
ection-@@	709
Ì	709
Incid@@	708
454	708
455@@	708
PPP	708
ê	708
Budgetary	707
pharmac@@	707
lux	707
FDA	707
fluids	707
CHAR@@	707
665	707
Pure@@	707
WHE@@	707
apse	706
differentiate	706
ROUN@@	706
manifestations	705
Eight	705
soluble	705
swelling	705
7.8	705
unaffected	705
veterinarian	705
Simul@@	705
severity	704
SET	704
markers	703
Tallinn	703
2,3	703
397	703
notifications	702
Compar@@	702
xes	702
Limit	702
forge	701
validated	701
Advice	701
----@@	701
piston	701
KER	701
transp@@	700
ecy@@	700
enhanc@@	700
toes	700
physiological	699
Re-@@	699
Protein	699
IG	699
609	698
Experimental	698
hol	698
ectable	698
microscope	698
humour	697
594	697
7000	697
Industri@@	697
з	697
periodic	696
Bs	696
gum	696
satur@@	696
SHA@@	696
asper@@	695
interrup@@	695
icals	695
Matrix	695
ley-@@	695
inspec@@	694
vidence	694
TAN@@	694
rhyth@@	694
tronic	694
Nile	693
Aven@@	693
HM@@	693
я@@	693
mim@@	692
940	692
cartridge	692
Alco@@	692
Wash	692
ю@@	692
740	691
ESP@@	691
BIO@@	691
Opinions	690
488	690
WG	690
commenced	689
Considering	689
9000	689
486	689
apo	689
cylin@@	689
ld	688
groundwater	688
needing	688
progressively	688
Zol@@	688
alterations	687
Add@@	687
558	687
vagina	687
disintegr@@	686
duced	686
suppression	686
Immediate	686
H1	686
tightly	685
dispen@@	685
co-ordination	685
721	685
是@@	685
reversed	684
obstruc@@	684
periodically	684
Membership	684
Inten@@	684
Incre@@	684
certific@@	684
bino	684
LIA	684
presumably	683
minimise	683
Previously	683
itating	683
760	683
T2	683
-on	682
623	682
Transparency	682
770	682
м	682
Transfer@@	681
glomer@@	681
frac@@	681
402	681
rion	681
24h	681
splan@@	681
spontaneously	680
697	680
Alg@@	680
peg@@	680
ANTS	680
dossier	679
LLA	679
activ@@	678
880	678
dentist	678
1,7@@	678
µ@@	678
ected@@	677
suppressed	677
onism	677
699	677
65-@@	677
Fak@@	677
posture	676
Branch	676
amel	676
standardisation	675
semi@@	675
elbo@@	675
8.8	675
Post-@@	675
Units	675
ù@@	675
ï	675
mint	675
я	675
394	674
ilate	674
allergies	674
cid	674
Female	674
Behavi@@	673
plate@@	673
730	673
你@@	673
TAC	672
vaccine	672
sore	672
ABC	672
fications	672
creams	672
Zal@@	672
ERA	672
INF@@	672
1.6@@	672
scopic	672
URE@@	672
LTD	672
disturbances	671
443	671
Rif@@	671
ç	671
AX@@	671
susceptible	670
steril@@	670
titanium	670
flux	670
rex	670
labelled	669
measurable	669
doses	669
homogeneous	669
trauma	669
trab@@	669
BV	669
Interested	669
adherence	668
pse@@	668
Quinta	668
Zy@@	668
UBE@@	668
Scher@@	668
STAR	667
yco@@	667
tuting	667
Directorate	667
ready-@@	667
surfac@@	667
NR	667
ternal	667
DY@@	667
μ@@	667
Paseo	667
consequent	666
lamm@@	666
sodium	666
alternating	666
geometric	666
NV	666
Draw	666
040	665
solvents	664
evalu@@	664
itra	664
ш@@	664
elig@@	663
suspec@@	663
thresh@@	663
duce	663
cavity	663
AH	663
infant	662
Sugar	662
870	662
ą@@	662
Across	661
flip@@	661
Extreme	661
ej	661
Fos@@	661
persist	660
disappearance	660
Pou@@	660
surge	660
preservatives	660
-4	660
generative	660
ypto@@	659
gies	659
INC@@	659
afen@@	659
rejecting	658
revise	658
lump	658
chick@@	658
lide	658
Gli@@	658
ordination	657
Healthcare	657
200-@@	657
1250	657
pane	657
uur	657
atology	657
一@@	657
imbalance	656
complying	656
wrap@@	656
TAB@@	656
393	656
spectro@@	656
crystalline	655
pr	655
ICS	655
join@@	654
Protect	654
403	654
ologist	653
482	653
MIT	653
acet@@	653
illo@@	652
membranes	652
8.9	651
ither	651
Fus@@	651
Table@@	651
jaw	651
0.7@@	651
kilo@@	650
likelihood	650
metabolic	650
interpreters	649
probable	649
seriousness	649
intentional	649
459	649
invasive	649
tempor@@	649
Presentations	649
tated	648
spoon	648
Lane	648
BM	648
thec@@	648
alleviate	647
colouring	647
faulty	647
triggers	647
benz@@	647
SIN	647
615	647
436	647
ticks	647
summarized	647
sulphur	646
gencies	646
10.2	646
icio	646
INO@@	646
rabbit	645
drow@@	645
452	645
STAN@@	645
candi@@	644
3-5	644
gard	644
WIL@@	644
redness	643
logistical	643
VAC	643
0.8@@	643
‚	643
aquatic	642
unconscious	642
Revision	642
dissolution	642
omar@@	642
458	642
ă@@	642
complexes	641
10.1	641
burns	641
10-12	641
anch	641
559	641
indices	641
breed@@	640
renal	640
substitution	640
sticker	640
prote@@	640
keting	640
Н@@	640
PAT@@	640
weaken	639
inflammatory	639
tolerable	639
Jos@@	639
shaken	639
lower-@@	639
silic@@	639
PAL@@	639
Fresenius	639
bypass	638
Watson	638
446	638
IU@@	638
THIS	638
Hampshire	637
irrit@@	637
abling	637
437	637
т	637
pregn@@	636
Ray@@	636
Jonas	636
Primary	636
carp@@	636
498	636
widening	635
unavoidable	635
horizontally	635
nical	635
Arbitration	635
tolerated	634
672	634
ATED	634
611	633
borough	633
Alfa	633
627	632
obic	631
Reduc@@	631
allergy	631
Desi@@	631
ija	631
carbonate	631
ор@@	631
calibr@@	630
51-@@	630
AZ	630
polym@@	630
Starter	630
х@@	630
inhal@@	629
2001-@@	629
Increased	629
Retro@@	629
intra-@@	628
RATION	628
Gilead	628
elab@@	627
bleeding	627
Applic@@	627
ο@@	627
Rhein	627
oste@@	627
Ware	627
glucose	626
σ@@	626
YE@@	626
Haarlem	626
ffici@@	625
ratios	625
residue	625
yel@@	625
655	624
gus	624
hul@@	623
non-EU	623
spired	623
PAN@@	623
stabilization	623
muscular	623
Liquid	623
GR	623
496	623
812@@	623
Nit@@	622
ylo@@	622
ADE	622
quanti@@	621
stimulated	621
Statistic@@	621
sias	621
River@@	621
504	621
Sever@@	621
Cream	621
Pig@@	621
superficial	620
quin	620
onation	620
Increasing	619
inful	619
rho@@	619
rified	618
toxins	618
ula@@	618
antibodies	618
94-@@	618
STRI@@	618
differenti@@	617
weighed	617
sine	617
Flat@@	617
FIL@@	617
viro@@	617
Alph@@	616
CARD	616
ú	616
defer@@	615
initiation	615
vitro	615
TIN@@	615
733	615
Tum@@	615
BON@@	615
detrimental	614
Addi@@	614
stiff	614
G1	614
impairment	614
vement	614
hep@@	614
eon	614
ар@@	614
810	613
consti@@	612
transmitting	612
Té@@	612
mixtures	612
THER@@	612
laminate	612
Prote@@	612
541	611
vering	611
089	611
RH	611
ер@@	611
3600	611
udd@@	610
commits	610
rubb@@	610
11.5	610
apter	610
016@@	610
defin@@	609
exten@@	609
adhesion	609
VIR@@	609
565	609
overlapping	608
cott@@	608
544	608
obesity	608
needles	608
eces	608
congestion	607
prohibit	607
depot	607
Praha	607
cartridges	607
PEG@@	607
flu	606
dura	606
ZA@@	606
483	606
ô	606
vigorous	605
ring-@@	605
dreaming	605
tute	605
629	605
679	605
TIES	605
775	605
inspected	604
aise	604
commence	604
pupil	604
manic	604
-2.@@	604
stov@@	604
boulevard	604
513@@	604
vigil@@	603
referral	603
Preliminary	603
Porte	603
ST-@@	603
TAL	603
LH@@	603
skull	602
profil@@	602
mast	602
dependant	602
iza@@	602
há@@	602
NH@@	601
4.	601
exac@@	601
Compati@@	601
iv	601
coded	601
100ml	601
inspect	600
risk-@@	600
Associations	600
Kw@@	600
violet	600
headache	599
onals	599
ACK@@	599
onk@@	599
disturbance	598
underwent	598
pathic	598
TIV@@	598
dingly	597
two-thirds	597
recast	597
inserting	597
theore@@	597
Benefit	597
specimens	597
induction	597
POS	597
514	597
Nederland	596
alid@@	596
T1	596
-7	596
äts@@	596
weighs	595
Adding	595
Mim@@	595
506	594
posite	594
counselling	594
PF	594
licking	594
ITS	594
O2	594
negatively	593
-2000	593
497	593
oxidation	593
Rare	593
ularly	592
Drugs	592
552	592
tio	592
Advocate	592
ρ@@	592
MY@@	592
laborator@@	592
Muscle	592
Pharma	592
TURE	591
alteration	591
drug@@	591
reflex	591
trough	591
Sut@@	591
vom@@	591
ELISA	591
upside	590
muc@@	590
herds	590
etting	590
allu@@	590
474	590
flush	589
554	589
particul@@	589
decon@@	588
Altern@@	588
donate	588
oids	588
Tub@@	588
tof@@	588
comparisons	587
461	587
BU	587
arthritis	587
meet@@	587
D3	587
oid@@	586
screened	586
MUS@@	586
excessively	585
modifying	585
1,5@@	585
co-ord@@	585
prostate	585
on-going	584
administer	584
impl@@	584
Sé@@	584
MENTS	584
581	584
HAL@@	584
µm	584
888	584
decentralised	583
Surgery	583
soles	583
3x	583
rium	583
compens@@	582
dimini@@	582
sexually	582
adic	582
diffusion	582
Prepare	582
coefficient	582
ー@@	582
481	582
onos	582
4-0@@	582
modifi@@	581
aided	581
pumping	581
palms	581
10.3	581
0.6@@	581
sulf@@	581
SOP	581
withstanding	580
accidentally	580
markings	580
Circus	580
ging@@	580
DIA	580
1.0@@	580
616@@	580
Veterinary	579
itment	579
Powder	579
ż@@	579
randomly	578
alyse	578
Ves@@	578
dissolve	578
549	578
SN	578
P2	578
Viale	578
ARI@@	578
unusually	577
edem@@	577
bladder	577
abrasion	577
Intr@@	576
cardiac	576
expiration	576
enzyme	576
cardi@@	576
BRO@@	576
vaccines	575
disposable	575
skeleton	575
ribs	575
sels	575
95.@@	575
embryo	574
516	574
fluoresc@@	574
udy	574
678	574
predefined	574
Continuous	574
VEL@@	574
SEL@@	574
10.4	573
alim@@	573
influenza	573
ecular	573
suck	572
calf	572
usions	572
Opti@@	572
latex	572
19.11.@@	572
IDS	572
retrospective	571
Tables	571
vec	571
LIM@@	571
2c	571
abnormal	570
recovering	570
prudent	570
tuberculosis	570
matern@@	570
Proposal	569
Accor@@	569
infants	569
boosted	569
contraction	569
929	569
pill	568
HOW	568
question@@	567
additive	567
onat@@	567
Fem@@	567
delta	567
inum	567
ALS	567
d-	566
10.7	566
426	566
tape@@	565
insignificant	565
CEE	565
erup@@	565
M1	565
050	565
ů@@	565
lipped	564
mbers	564
scaling	564
enrolled	564
Doctors	564
CY@@	564
fiable	563
Bio-@@	563
Temporary	563
Arb@@	563
513	563
alex@@	563
Monthly	563
ARY	563
agel	563
Opened	563
Need@@	562
085	562
disruption	562
Öster@@	562
gnition	562
MIC	562
в	562
Particular	561
mediate	561
mist	561
Sections	561
seb@@	561
sensations	561
daytime	560
accumulate	560
636	560
RAL	560
a-	560
Parque	560
Repeat	560
viral	559
pseudo@@	559
consequ@@	559
regulates	558
compromised	558
lishment	558
Nem@@	558
arsen@@	557
ACS	557
6-8	557
Functional	557
epi@@	556
withdrew	556
encoded	556
¢	556
ě	556
escalation	555
neare@@	555
082	555
SRL	555
DV	555
recognising	554
subst@@	554
derivative	554
leak	554
Louise	554
remnants	554
UE	554
dox@@	554
556	554
letta	554
refrigeration	553
Improvement	553
Tend@@	553
Wisconsin	553
E4@@	553
booster	552
603	552
Stel@@	552
rl	552
Inspection	551
utilised	551
clon@@	551
472	551
stig@@	551
adapters	551
ANA	551
10.6	551
digestive	551
harmonise	550
088	550
shaking	550
Sleep	550
TRA	550
mbH	550
incin@@	549
Requests	549
add-on	549
11.1	549
Trab@@	549
LOW@@	549
ultrasound	549
Modification	549
zinische	549
EF	548
logy-@@	548
derly	548
Regulatory	548
acia	548
implan@@	548
À	547
abdominal	547
THAT	547
Weeks	547
doubling	546
hardw@@	546
484	546
amide	546
013-@@	546
REG@@	546
Daf@@	546
exagg@@	545
regre@@	545
food-@@	545
vert	545
abant	545
TON	545
solic@@	544
aracteris@@	544
harm@@	544
relieved	544
idol@@	544
mobilisation	544
extrav@@	544
cet	544
Arrow	544
Diagnostics	544
SIA	544
RAP@@	544
appropri@@	543
endemic	543
annexed	543
waste@@	543
necess@@	543
eal	543
1,6@@	543
Eigh@@	542
secretariat	542
asthma	542
ubic@@	542
wk	541
491	541
RED	541
Luxemb@@	540
zal@@	540
Adjustment	540
volunte@@	540
SUL@@	540
SIZE	540
Ð	540
RIS	539
cline	539
CATION	539
cen	539
Establishment	538
709	538
SEE	538
TICS	538
usly	537
progressing	537
eters	537
salts	537
solitary	536
sow	536
uncommon	536
AMD	536
mitr@@	536
93-@@	536
635	536
examin@@	535
prevalent	535
distur@@	535
Rs	535
BLE	535
MAL@@	535
2-5	535
Imaging	535
azzo	535
TOR@@	535
Romano	534
ause@@	534
down-@@	534
467@@	534
Lösung	534
cran@@	534
uncture	534
Request@@	534
undesirable	533
5-6	533
wrapping	533
11.0	533
Nij@@	533
CX@@	533
tyro@@	533
hospital@@	533
524	532
intolerance	532
Barn@@	532
Steering	532
dol	532
grouping	531
tighten	531
º@@	531
11.2	531
714	531
vinc@@	531
PGA	531
etes	531
022	531
intestinal	531
RNA	531
DEP@@	531
拉@@	531
PPE	530
pou@@	530
monkey	530
uble	530
kg@@	530
mik@@	530
carbohydrates	530
FAR@@	529
1-4	529
Jap@@	529
A6	529
laminated	529
2B@@	529
exclud@@	528
suspic@@	528
acidity	528
dual-@@	528
sticky	528
halo@@	528
0.4@@	528
ifen@@	528
有@@	528
adhered	527
626	527
Personnel	527
apan	527
1750	527
orgasm	527
tigung	527
Meier	527
AND@@	527
smokers	526
nightmare	526
Rout@@	526
Recomm@@	526
term@@	526
presumed	525
sterile	525
distributes	525
Icel@@	525
coarse	525
resumption	524
eradication	524
instituted	524
methodological	524
561	524
pathways	524
863	524
π@@	524
viscosity	524
-200	524
tumour	524
glands	524
Diagno@@	524
peel	523
blurred	523
Adju@@	523
reacts	523
potassium	523
10.8	523
П@@	523
р	523
cepti@@	522
sadness	522
ove@@	522
EDI@@	522
monkeys	522
653	522
562	522
elast@@	522
consist@@	521
7,000	521
612	521
induc@@	521
gamma	521
intran@@	520
milest@@	520
amend@@	520
Macro@@	520
ACT	520
Patch	520
之@@	520
tho	519
formulations	519
urther@@	519
970	519
leen	519
ν@@	519
Fees	519
ж@@	519
film-@@	518
533	518
LOS	518
similarity	517
irreversible	517
Essential	517
opaque	517
Twelve	517
Characteristics	517
mite	517
activates	517
porte@@	516
722	516
618	516
Omega	516
taway	516
molecule	516
worsening	515
Keeping	515
Frequency	515
vein	514
Failure	514
656	514
2-	514
biscuits	514
FLEX	514
TIVE	514
preferable	513
ategies	513
sympath@@	513
intrinsic	513
icum	513
VAN@@	512
imb@@	511
633	511
ide-@@	511
homeo@@	511
al-	511
WR@@	511
appropriation	510
dispersed	510
atu	510
Signs	510
Absolute	510
CAD@@	510
GD	510
sensi@@	509
viation	509
genesis	509
α	509
atio	509
beige	509
Р@@	509
Negative	509
trum	508
813	508
Discus@@	508
regon	508
087	508
sampl@@	508
663	508
-shaped	507
ive-@@	507
677	507
928@@	507
67-@@	507
Bond@@	507
child-@@	506
reversal	506
Dil@@	506
ECO	506
Directorate-General	505
induce	505
667	505
cumulative	505
Hex@@	505
ical@@	505
tumors	505
PEN@@	505
inspectors	504
diminish	504
labyrinth	504
anso@@	504
VF@@	504
kidneys	504
921	504
destroys	503
centralised	503
discontinued	503
moderately	503
depressed	503
aracter@@	503
041	503
Cases	503
DRE@@	503
ife@@	503
superiority	502
siveness	502
726	502
Initial	502
ACE@@	502
Transmission	502
Schedule	502
Known	502
constituents	501
seizure	501
supple@@	501
Jal@@	501
025	501
immersion	501
constituent	500
Tests	500
adol@@	500
Berkeley	500
slaughtered	499
EC-@@	499
1a	499
solicited	499
Pharmaceutical	499
0.05	499
CX	499
682	499
amn@@	499
RB@@	499
FRANCE	499
sundheit	499
exaggerated	498
irritation	498
slowing	498
dispersion	498
676	498
Combining	498
bitch	498
641	498
drecht	498
VR	498
613	497
convened	497
Refer@@	497
Sexual	497
Riverside	497
ynast@@	497
ş	497
6-10	497
Glu@@	497
circulating	496
Ö	496
etics	496
heterogeneous	496
veins	496
シ@@	496
inconsistent	495
foreca@@	495
shire	495
086	495
vious	494
687	494
adequacy	494
crush	494
0.01	494
vigorously	493
triggering	493
638	493
ylan	493
vaginal	493
S.L.	493
2100	492
antibiotic	492
Industrie@@	492
trap@@	492
moist	492
aland	492
.3	492
yielded	491
mouth@@	491
receip@@	491
98-@@	491
polypropylene	491
iris	490
SAIN@@	490
chickens	489
assay	489
recruited	489
discomfort	489
amber	489
3A	489
Ç	489
lism	488
uled	488
1.50	488
sham	488
rotated	488
diaphrag@@	488
Ave	488
alu	487
summarised	486
Wait	486
ANT	486
dru@@	486
Effect	486
elon	485
idio@@	485
686	485
inactive	485
Deter@@	485
hyth@@	485
stool	485
701	485
MIT@@	485
transpa@@	484
recruit	484
developmental	484
tonic	484
scol@@	484
HB	484
elliptical	484
physiology	484
GEL	484
不@@	484
predominant	483
untreated	483
swallow	483
junc@@	483
Nacional	483
steri@@	483
nai	483
Avastin	483
Grades	483
disagreement	482
adversely	482
discarded	482
pathway	482
643	482
erectile	482
casual@@	481
cellulose	481
uncomplicated	481
late-@@	481
Colonel	481
MN	481
OFF	481
pix	481
902	481
epidem@@	480
embryos	480
altering	480
hetero@@	480
athing	480
GES	480
metering	480
deterior@@	479
rand	479
UA	479
Keith	479
SSION	479
Slovak@@	479
redistribution	478
three-year	478
M3	478
Æ@@	478
anatom@@	478
571	478
osis	478
depres@@	477
perman@@	477
unavailable	477
Ill@@	477
707	477
stabilise	476
azo@@	476
95-@@	476
t-to-@@	476
flakes	476
Ip@@	476
PROTE@@	476
xe@@	476
Potential	476
notice@@	475
commencement	475
selector	475
8-10	475
2C@@	475
tapping	474
Significant	474
manageable	474
initiating	474
omen	474
Reproduction	474
M2	474
TIA	474
ylic	474
Individu@@	474
2C	474
acional	474
00.00	474
Ú	474
finalised	473
kis	473
Committees	473
faint	473
955	473
snap	473
colon	473
i.	473
Xe@@	473
pran@@	473
3b	472
coli	472
assess@@	472
slowed	472
548	472
addre@@	472
shorten	472
udo@@	472
thym@@	472
Españ@@	472
Booster	472
crossover	471
crushing	471
TG	471
substrates	471
recept@@	471
●	471
uncontrolled	470
suppress	470
10-20	470
gency	470
swings	470
MANAG@@	470
Milk	469
embryonic	469
CTS	469
ens-@@	469
lipo@@	469
Gen	469
atec	469
Guidance	468
termed	468
sis-@@	468
progres@@	468
annex@@	468
784	468
fungi	468
AX	468
fluorescence	468
Confirm@@	467
INFORMATION	467
referenced	467
icono@@	466
viated	466
occurrences	466
itis	466
meo	466
sponge	466
pened	466
rigidity	465
cken@@	465
fixation	465
Silicon	465
op-@@	465
Kg	465
õ	465
ange-@@	465
xo@@	465
10000	465
629@@	465
AIR	464
injected	464
NING	464
atal	464
1A@@	464
Vertrie@@	464
insulin	464
Estimated	464
STAR@@	464
rubbish	463
overl@@	463
Agents	463
hase	463
DIS@@	463
treme	463
rabbits	463
021	463
experi@@	463
expon@@	462
psychiatric	462
LAR	462
3,4	462
⇒	462
well-established	461
553	461
pton	461
brea@@	461
Ic@@	461
ellar	461
whichever	460
ferencing	460
impe@@	460
reduc@@	460
ulc@@	460
atica	460
LET	460
repeat@@	460
ONLY	460
ONG@@	460
542	460
headings	459
afforded	459
sulph@@	459
april	459
Tek@@	459
668	459
547	459
pellets	458
elong@@	458
GEA	458
onas	457
elic@@	457
ingles	457
guaran@@	456
accur@@	456
revisions	456
MARK@@	456
Treat	456
ná	456
polyamide	456
persistence	455
syrup	455
digestion	455
NAME@@	455
의	455
yoghurt	454
swallowed	454
Drinking	454
sclerosis	454
PEN	454
UPD@@	454
12.0	454
sibilities	453
tolerant	453
regression	453
methodo@@	453
CLC	453
gly@@	453
HEL@@	453
mites	453
uc	453
theoretically	452
Belgi@@	452
rex@@	452
731	452
557	452
92-@@	452
D2	452
unsuitable	451
pering	451
idal	451
sac	451
Viagra	451
528	451
Album@@	451
CAB@@	451
lamed	450
transcrip@@	450
taneously	450
chloride	450
905	450
712	450
Director@@	449
Recognition	449
Ques@@	449
9,000	449
н	449
AGEN@@	449
hostility	448
BRD	448
Modi@@	448
diagnose	448
Pharmac@@	448
805	448
conj@@	447
Ibra@@	447
lia@@	447
Ensure	447
acne	447
11.3	447
sele@@	447
Existing	446
alcohol@@	446
caro@@	446
13.5	446
Syndrome	446
rib	446
GAN@@	446
proportionality	445
weighted	445
trophy	445
Required	445
spoons	445
737	445
2400	445
cancers	444
reservo@@	444
isons	444
Diffe@@	444
6-12	444
569	444
Diab@@	444
024	444
plast@@	444
י@@	444
	444
wiped	443
conceive	443
Ade@@	443
Typically	442
degrad@@	442
Reduced	442
nef@@	442
Plate@@	442
purified	442
NAME	442
aspiration	441
plicated	441
Ï	441
reactive	441
h.	441
stabilized	441
Guill@@	441
CNS	440
impotence	440
particulars	440
wasting	440
Evidence	440
offici@@	440
nea	440
Helic@@	440
FIC	440
Peel	440
Quin@@	440
rinse	440
←	440
vices	440
514@@	440
liaison	439
calves	439
lix	439
Older	439
ONA	439
083	439
ALU@@	439
pivotal	438
parasites	438
genetics	438
blun@@	438
LU	438
BH	438
THO@@	438
VT	438
progressed	437
Biotechnology	437
654	437
744	437
Calc@@	437
breast@@	437
Protective	437
Comparison	436
staf@@	436
rett	436
EMEA	436
SIL@@	436
564	436
s.r.o.	436
◄	436
TIS	435
LF@@	435
ppm	435
Variations	435
100.00	435
oxy@@	435
commit@@	434
B.V.	434
E5@@	434
retur@@	433
Investig@@	433
ducts	433
enro@@	433
Whole	433
martin@@	433
plaque	433
pious	432
iliar	432
calibrated	432
INTERNATIONAL	432
Amen@@	432
RH@@	432
decid@@	431
Chick@@	431
transplantation	431
Stress	431
overload	430
stopp@@	430
markedly	430
intell@@	430
SIN@@	430
CIN@@	430
011-@@	430
Á	430
Ü	430
recommend@@	430
............@@	430
爾@@	430
Pen	429
6.	429
Agencies	429
surable	429
wallet	429
Strength	429
ел@@	429
combin@@	429
032	429
西@@	429
sensiti@@	428
745	428
N1	428
Aden@@	428
12.2	428
Grade	428
12.1	428
‒	428
declines	427
edible	427
vascular	427
Perc@@	427
lac	427
1-10	427
screwed	427
charcoal	427
007@@	427
CESS@@	427
：	427
dialysis	426
tane@@	426
Bloc@@	426
KAR@@	426
12-14	426
ы	426
carton	426
polyethylene	426
heimer	426
neutral@@	426
benchmarking	425
algia	425
o-	425
headaches	425
1A	425
chy@@	425
Hyp@@	425
airway	425
Depression	425
terns	425
analogous	424
recommending	424
Fail@@	424
drain@@	424
GLI@@	424
VES	424
hardening	423
udder	423
kittens	423
leakage	423
malignant	423
Hearing	423
male@@	423
sume	422
Benelux	422
XI@@	422
perio@@	422
P1	422
cular	422
Neph@@	422
still@@	421
emph@@	421
lude	421
OVI@@	421
positional	421
normal@@	421
783	421
G2	421
11.4	421
costing	420
gree	420
hepatitis	420
TK@@	420
039	420
overweight	420
ί@@	420
achievable	419
eruption	419
Pharmaceuticals	419
lol	419
781	419
utti	419
596	419
F2	419
589	418
ANNE@@	418
Benz@@	418
taz@@	418
ו@@	418
troph@@	417
kinetic	417
eae	417
ő	417
mock@@	416
7-8	416
Ef@@	416
antioxid@@	416
OH	416
Ê	416
discard	415
reg	415
poisoning	415
feel@@	415
523	415
573	415
pigment	415
vac	415
maximal	415
Servi@@	415
EG	415
sants	415
dams	414
traumatic	414
713	414
vista	414
Surveillance	414
ALA	414
in-	414
Colour@@	414
Therap@@	414
、	414
blindness	413
Coch@@	413
equi@@	413
consi@@	413
577	413
pé@@	413
SES	413
penile	413
ī	413
incineration	412
soya	412
workload	412
saturation	412
leaflets	412
compartments	412
dye	412
EST@@	412
phosphate	412
Ch	412
572	412
BEL@@	412
éf@@	412
і@@	412
克	412
prevalence	411
questionnaires	411
princi@@	411
deteriorated	411
SPS	411
oxid@@	411
T4	411
inium	411
0.43	411
Derm@@	411
holm	411
equival@@	410
toxicity	410
822	410
Lack	410
led-@@	410
essively	410
Pain	410
Transpa@@	410
suspen@@	409
Caution	409
E9@@	409
affinity	409
PH	409
10x@@	409
Reduce	409
3A@@	409
532@@	409
018	409
POS@@	409
INVE@@	409
batches	408
Influ@@	408
KIN@@	408
squeeze	407
lid@@	407
WEE@@	407
congenital	407
Ó	407
use-@@	407
pendic@@	407
926	407
006@@	407
OB	407
2A	407
retinal	407
comit@@	406
prolong	406
exposing	406
facilitation	406
DRA@@	406
aphy@@	406
Sonata	406
BOX	406
intestine	405
unger	405
773	405
ichi	405
Orion	405
þ	405
oco@@	405
ulence	404
1.20	404
stimuli	404
CONTRO@@	404
nausea	404
osi	404
log-@@	404
o.	404
misses	403
2b	403
Associated	403
Inspec@@	403
quality-@@	403
Alert	403
neurological	403
üss@@	403
Priest	403
clockwise	403
substituted	402
voor	402
ARA	402
0.25	402
Fabri@@	402
2a	402
ALT	402
К@@	402
entan@@	402
blockade	401
limin@@	401
10.9	401
sant	401
itrate	401
Organ	401
Persistent	401
811	401
sufficiency	400
predomin@@	400
andin@@	400
cardio@@	400
Secondary	400
Elevation	400
annien	400
diffuse	399
crystalli@@	399
B6	399
onel	399
atine	399
UTE@@	399
WITHOUT	399
sus-@@	398
HAC@@	398
785	398
WC@@	398
triang@@	398
Oxy@@	398
RADI@@	398
forte	398
Vog@@	397
avage	397
dementia	397
027	397
Leverkusen	397
Fat	397
degeneration	396
mia	396
diluted	396
leaflet	396
ducks	396
Replace	396
Gel	396
binds	395
investigators	395
iform	395
Marion	395
802	395
ла@@	395
one-third	394
degenerative	394
seal@@	394
6-7	394
START	394
MN@@	394
В@@	394
relle	393
stiffness	393
3-	393
031	393
843	393
斯	393
PHAR@@	392
solute	392
ECE	392
naive	392
sensing	392
833	392
nam	392
yth@@	392
ated-@@	392
س@@	392
minu@@	391
injections	391
sitive	391
visco@@	391
TOR	391
BERG	391
vita	391
yielding	390
escent	390
suck@@	390
4a	390
MET	390
tubing	390
maternal	389
solves	389
11.6	389
clock@@	389
11.8	389
″	389
KIT	389
localized	389
satisfactorily	388
strenu@@	388
ň@@	388
Ł@@	388
026	388
testosterone	388
Specification	388
ˈ@@	388
652	388
∞	388
vit	387
vacu@@	387
halves	387
alge@@	387
sing-@@	387
re-	386
build-up	386
ر@@	386
Leg	386
genital	385
suggestive	385
inoc@@	385
wering	385
Newcastle	385
replication	385
300-@@	385
ф@@	385
1-0	385
FORM	385
Í	385
justifies	384
MED	384
Propos@@	384
instruct	384
ingest@@	384
fluctu@@	384
omit	384
emptied	384
anol	384
Mineral	384
Vet@@	384
gno@@	384
852	384
-0	384
ych@@	384
Chest	384
Tap	384
-0.@@	384
para-@@	384
rupting	383
withdrawing	383
distre@@	383
infiltr@@	383
Relief	383
Repor@@	383
1.25	383
Kent	383
ulent	383
Tubes	383
749	383
QM	383
ит@@	383
к	383
RED@@	383
ologically	382
increments	382
Insul@@	382
phenomen@@	382
Contribution	382
oxi@@	382
11.9	382
eu.	382
knob	382
agl@@	382
MRI	382
gebru@@	382
equivocal	381
agitation	381
fail@@	381
biting	381
blur@@	381
high-grade	381
019	381
Perg@@	381
DE-@@	381
RICA	381
OUT	380
supp@@	380
anat@@	380
824	380
NAI@@	380
anxi@@	379
unfavourable	379
Notwithstanding	379
Component	379
vomiting	378
Exceptional	378
sistent	378
memb@@	378
atina	378
itre	378
princip@@	378
interfering	377
superi@@	377
intending	376
Ace@@	376
impa@@	376
ranged	376
atological	376
934	376
ator-@@	376
ł	376
10-14	376
ERT	376
Rapporteur	375
Consultation	375
thoro@@	375
Provision	375
syno@@	375
urin	375
impurities	374
diab@@	374
の@@	374
Naf@@	374
bert-@@	374
Hik@@	374
在@@	374
hairy	373
mutation	373
INT@@	373
graf	373
substitutes	372
lactose	372
agam@@	372
Marburg	372
diet@@	372
851	372
Individuals	371
Harm@@	371
swir@@	371
waist@@	371
2-6	371
MBER	371
remission	371
ICH	371
loid	370
lowe@@	370
mares	370
vehic@@	370
ºC	370
Forte	370
Holdings	370
х	370
two-year	369
tib@@	369
pathology	369
Transm@@	369
TIN	369
RMS	369
DEX	369
APC	369
RR	369
MIN	369
个@@	369
RAS	368
pathogens	368
ed.	368
Mab@@	368
Empty	368
onec@@	368
selec@@	368
OG	368
verted	367
Plasma	367
Quint@@	367
lesions	367
ct	366
imer@@	366
paralysis	366
juxta@@	366
lice	366
seln	366
lymph	365
Alexandre	365
Hypo@@	365
tene	365
TON@@	365
CONTE@@	365
rationale	364
retari@@	364
cessation	364
veterin@@	364
Lop@@	364
plications	364
mor	364
778	364
depleted	363
byp@@	363
recur@@	363
uniformly	363
5-7	363
774	363
-17@@	363
differen@@	363
Inclusion	363
IVE	363
leukemia	363
PUBLI@@	363
Species	362
entially	362
ibu@@	362
trembling	362
abdomen	362
hereditary	362
entera	362
レ@@	362
장@@	362
ofi	361
casc@@	361
epa@@	361
2,5@@	361
adrenaline	361
12.8	361
devoid	360
ticide	360
fibro@@	360
nitrate	360
triangular	360
antibody	360
physici@@	360
chloro@@	360
harmonized	360
AC-@@	360
PY@@	360
statistically	359
pinch	359
itching	359
alkaline	359
anter@@	359
Krka	359
这@@	359
Raymond	358
amne@@	358
stiff@@	358
multidisciplinary	358
caffeine	358
gast@@	358
beta@@	358
12.3	358
substantiated	357
orage	357
Indu@@	357
Differences	357
atrice	357
fungus	357
ELI@@	357
epist@@	357
LEX	357
食@@	357
GMT@@	357
E12@@	357
surgeons	356
Mutual	356
kot@@	356
ronic	356
hips	356
982	356
0.50	356
Push	356
swine	355
Novi@@	355
962	355
POWER	355
perc@@	355
phyl@@	355
Fluid	355
年@@	355
attaching	354
persists	354
hormonal	354
strum	354
Consi@@	354
pathological	354
baseline	354
EN-@@	354
inyl	354
hydrate	354
Perio@@	354
percentages	353
resum@@	353
usively	353
liser	353
disper@@	353
attribu@@	353
tumours	353
pril@@	353
13.1	353
黑@@	353
infusion	352
orphan	352
toxic@@	352
acar@@	352
ет@@	352
VEN	352
cloudy	352
1040	352
SOCI@@	352
recurrent	351
tenance	351
collagen	351
ulin	351
Atri@@	351
aline	351
Stir	351
SUB@@	351
ADI@@	350
Te	350
dap@@	350
geno@@	350
pé	349
0.20	349
Shake	349
1-5	349
THRO@@	349
Lisboa	349
라@@	349
gested	348
ampton	348
urinary	348
Mental	348
variability	348
AGEN	348
nitro@@	347
beta-@@	347
gall	347
neph@@	347
Septem@@	347
Tall@@	347
MON	347
13.2	346
atrin	346
E2	346
.o.	346
12,5	346
authorisations	345
elapsed	345
olism	345
thyroid	345
Zir@@	345
K1	345
obia	344
lethal	344
oin	344
sick@@	344
070	344
Long-@@	344
¥	344
REG	343
ETA	343
Mij@@	343
x-ray	343
magne	343
Develop	343
gé@@	343
ocular	343
reddish	343
Trit@@	343
discar@@	342
benign	342
susp@@	342
Turku	342
ē@@	342
odour	342
retina	342
3-11	342
flec@@	342
ENTI@@	342
055	342
э@@	342
idos	341
Outer	341
ž	341
683	341
ION@@	341
translucent	341
ת@@	341
warranted	340
Investigation	340
0800	340
Stop@@	340
on-demand	340
ösung	340
ready-to-@@	340
cervical	339
demon@@	339
Poten@@	339
044	339
pandemic	338
ATIONS	338
12-15	338
onin	338
ANTI@@	338
peeling	338
outbreaks	337
ene-@@	337
cheek	337
orally	337
ENT@@	337
sud@@	337
penetrates	337
yne@@	337
implantation	337
kine@@	337
080	337
Thereafter	336
1.30	336
Codex	336
trid@@	336
-Man@@	336
STS	336
Chine@@	336
S.p.A.	336
Holder	336
whites	335
paedi@@	335
prompt@@	335
Vital	335
thereto	335
weight-@@	335
uterus	335
x1	335
以@@	335
equivoc@@	334
dispo@@	334
BIG	334
behavioural	334
40-2@@	334
β@@	334
RENT	334
specificity	333
negligible	333
Child-@@	333
Cats	333
Artificial	333
Replacement	333
ANNEX	333
emptying	332
caus@@	332
Medicines	332
Accid@@	332
particulate	332
month@@	332
cartilage	332
fibre@@	332
NV@@	332
Refer	332
12.4	332
MET@@	332
shin	332
с	332
carr@@	331
Director-General	331
familial	331
049	331
VEL	331
可@@	331
precursor	330
unsure	330
Long-term	330
concurrent	330
0.75	330
polystyrene	330
Dex@@	330
400-@@	330
Srl	330
receptor	330
thigh	330
blad@@	330
precaution	329
datab@@	329
œ@@	329
lp	329
SAC@@	329
tenderness	328
pressu@@	328
mutations	328
poten@@	328
fractions	328
Technique	328
¦	328
aggres@@	328
quent	327
quarter@@	327
prognosis	327
dosi@@	327
Slow@@	327
033	327
ém	327
866	327
人@@	327
TOTAL	327
prematurely	326
vigilance	326
confer	326
oxides	326
arteries	326
substi@@	326
12.6	326
serum	326
OA	326
usion@@	326
Pare@@	326
12.7	325
hae@@	325
reness	325
yellow@@	325
ILI@@	325
045	325
cine	325
Breda	325
С	325
ﬁ@@	325
Av	325
antioxidant	325
divergent	324
1,400	324
BX@@	324
ICH@@	324
090	324
ש@@	324
unrelated	323
selectively	323
deficient	323
conclusive	323
Loss	323
entia	323
5g	323
▪	323
و@@	323
longer-term	322
interchangeable	322
Iso@@	322
urea	322
----	322
Novo	322
MUST	322
Patient	322
3200	322
HV	322
oncology	322
GEN	322
SPECIAL	322
E15@@	322
malnutrition	321
inverted	321
signalling	321
Conversely	321
Burgos	321
13.4	321
Released	321
15-20	321
ritten	321
anomal@@	320
Applicant	320
stature	320
transporter	320
764	320
Laboratories	320
GMBH	320
echan@@	320
IMPORTANT	320
CHR	319
dissoci@@	319
dispensing	319
11.7	319
nasal	319
inhibit	319
Polska	319
E17@@	319
Bruxelles	319
JC	319
progresses	318
propi@@	318
interacting	318
soy@@	318
IU	318
Velo@@	318
transcription	318
Eli	318
causal	317
14.3	317
Waterloo	317
2,9@@	317
Wort	317
Produced	317
036	317
col	317
γ@@	317
ADR	316
Serious	316
kilogram	316
disor@@	316
usiness	316
600,000	316
PSA	316
ي@@	316
DING	316
Lt@@	316
3355	316
termin	316
유@@	316
consider@@	315
acea	315
Barbar@@	315
connective	315
lithium	315
Abr@@	315
Turner	315
Г@@	315
ellip@@	315
035	315
Paste	315
cobal@@	314
concl@@	314
microbial	314
pressor	314
Smith@@	314
chemically	314
GY@@	314
800-@@	314
b3	314
Sauer	314
Occasionally	313
14.5	313
pyro@@	313
agi	313
Feeling	313
Eur	313
gren	313
Slowly	313
060	313
FIRST	313
copic	313
regained	312
modi@@	312
transplant	312
Preparing	312
Survi@@	312
perforated	312
plc	312
animal@@	312
1111	312
clude	312
methyl@@	312
catheter	312
inase	312
ピ	312
re-use	311
kshire	311
median	311
』	311
prescribe	310
bridging	310
Difficul@@	310
abrupt	310
curative	310
puff@@	310
Tad@@	310
sate	310
sior	310
Pull	310
gnitive	310
023	310
compassionate	309
detachment	309
Preven@@	309
TEK	309
ellas	309
infer@@	308
phen	308
chann@@	308
tid	308
Phen@@	308
mesis	308
PK	308
Oph@@	308
oule	308
2700	308
grate	308
disseminated	307
XA	307
refrigerated	307
dispenser	307
deform@@	307
Ś@@	307
embossed	307
Wear	307
-3.@@	307
ara-@@	307
suspici@@	306
morpho@@	306
WHAT	306
Dos@@	305
latent	305
ilis	305
η@@	305
MULTI@@	305
30-minute	305
stren@@	305
diarrhea	305
REN	305
Octo@@	305
er.	305
.V.	305
epidemiological	304
Tric@@	304
TRAC@@	304
F4@@	304
orded	304
042	304
Topo@@	304
acuity	304
046	304
时@@	304
flea	303
capped	303
Т@@	303
tubular	303
GMP	303
ichter	303
م@@	303
stances	302
delaying	302
xia	302
restless	302
malfunction	302
tiva	302
flang@@	302
13.3	302
dons	302
▻	302
cautiously	301
ammonia	301
dyl@@	301
ENTS	301
TAK@@	301
Amp@@	301
actuator	301
STE	301
untary	300
cascade	300
illation	300
aques	300
swollen	300
receptors	300
ttp	300
KGaA	300
T3	299
permeability	299
pred@@	299
routinely	299
APS	299
abruptly	299
2800	299
KEN@@	299
sorption	299
illin@@	299
『	299
spike	298
etu@@	298
slows	298
Rever@@	298
newborn	298
Crest@@	298
le-	298
ocy@@	298
ylene	298
sday	298
3-6	298
Rua	298
arf	298
譜	298
Marin	297
RCA	297
deteriorate	297
atypical	297
Ts	297
drip	297
chromo@@	297
010-@@	297
echi@@	297
nelia	297
下@@	297
Emul@@	297
Poul@@	296
onium	296
parab@@	296
angio@@	296
AMI	296
yl-@@	296
elu@@	296
ン@@	296
glacial	296
ACT@@	296
3a	296
PRA@@	296
latency	296
Vaginal	296
MEDA	295
onco@@	295
enrolment	295
anatomical	295
heartbeat	295
core-@@	295
8-0	295
FEN@@	295
withholding	294
AID@@	294
Breast	294
onale	294
065@@	294
Z.	294
Δ@@	294
Ano@@	294
bossing	294
drome	294
ultraviolet	294
у	294
år@@	294
SYS	294
13.0	294
大@@	294
dues	293
1997-@@	293
Twenty-@@	293
z.	293
masked	293
-filled	293
ο	293
800,000	293
epig@@	293
Off-@@	292
Qualified	292
cet@@	292
sugars	292
swallowing	292
BN	292
Cells	292
哥@@	292
lesc@@	292
CE-@@	292
Nijmegen	292
NEU@@	292
ع@@	292
blood-@@	291
lores	291
Interaction	291
ecto@@	291
№	291
tret@@	291
rise@@	291
RIT	291
ation.	291
호@@	291
shortening	290
biologically	290
mating	290
vertebral	290
lessen	290
ficial	290
intestines	290
pancreas	290
ugin@@	290
G3	290
calorie	290
092	290
SE-@@	289
differed	289
rupture	289
Bottle	289
-De@@	289
ixa	289
Tilt	289
ة	289
墨@@	289
compensatory	288
uptake	288
repetitive	288
tearing	288
CJ@@	288
hic@@	288
H2@@	288
Samples	288
fracture	288
POW@@	288
Screw	288
somes	288
ZER@@	288
aqueous	288
RING@@	288
ULAR	288
prescriptions	287
cough	287
administering	287
Formal	287
strawberry	287
Fare@@	287
schland	287
Milton	287
14.2	287
diness	286
alters	286
fungal	286
ël	286
precipit@@	286
reversible	286
tign@@	286
tender@@	286
TACT	286
hydrates	286
κ@@	286
卡@@	286
withheld	285
sequential	285
λ@@	285
polymer@@	285
016-@@	285
д	285
CLUS@@	285
fain@@	284
spas@@	284
ventilated	284
Difficulty	284
absorber	284
microscopic	284
once-@@	284
054	284
ventil@@	284
CTOR	284
PCR	284
스	284
abac@@	283
births	283
stools	283
Embr@@	283
biochemical	283
mediated	283
Meth@@	283
STEP	283
micr@@	283
не@@	283
structurally	282
obstruction	282
О@@	282
phine	282
й@@	282
NN	282
pressure-@@	281
Seek	281
ergo@@	281
19.5	281
038	281
Erb@@	281
E1	281
confirm@@	281
renia	281
utro@@	280
exacerbated	280
Priorities	280
Criteria	280
Assess@@	280
esti	280
Combination	280
esn	280
ká	280
deli@@	280
categ@@	280
QUI@@	280
catalytic	279
immedi@@	279
marrow	279
MARK	279
1831	279
Pim@@	279
Evalu@@	279
SUS@@	279
Sp	279
会@@	279
ethylene	278
Preparations	278
awning	278
053	278
relation@@	278
EO@@	278
Symptoms	278
RAT@@	278
═	278
Ophthal@@	278
MINI@@	278
larvae	277
corpus	277
Parkinson	277
tiredness	277
shun@@	277
eruptions	277
Sharp	277
hypertension	277
phane	277
GENERAL	277
remain@@	277
А@@	277
equivalence	276
stabilised	276
Consider@@	276
inject	276
cut-off	276
Stable	276
Ome@@	276
CHAM@@	276
Surg@@	276
apen@@	276
annexes	275
eluc@@	275
areg	275
seizures	275
NOS	275
TEST	275
Pneum@@	275
Levels	275
cr	275
4b	275
ς	275
者	275
א@@	275
staffing	274
isting	274
Competent	274
Stom@@	274
Depo@@	274
G4	274
INN	274
1D@@	274
brown@@	274
depletion	273
mobilised	273
irritated	273
Steven@@	273
Profiles	273
Parameters	273
Kine@@	273
compon@@	273
jor	273
ceptance	272
lox@@	272
Improvements	272
um-	272
ulae	272
twisting	272
discontinue	272
hosp@@	272
ular-@@	272
glaucoma	272
teaspo@@	272
Inform	272
М@@	272
implanted	272
dossiers	271
SEM	271
nep@@	271
17.5	271
double@@	271
amit@@	271
irradiation	271
028	271
undergoes	271
OMEGA	271
Hep@@	271
arden	271
myo@@	271
pru@@	271
velop@@	271
bovine	270
persistently	270
diap@@	270
Quad	270
abnormalities	270
flank	270
Titanium	270
	270
Excessive	269
caine	269
exposures	269
cipated	269
lipid	269
osteoporosis	269
le.	269
leuk@@	269
cornea	269
recomm@@	268
Inj@@	268
ucle@@	268
20-30	268
acidic	268
イ@@	268
ONAL	268
stralia	268
5a	267
n.	267
boa	267
dispense	267
Subsequent	267
fractures	267
16.5	267
Single-@@	267
onates	267
Bone	267
Horses	267
Throw	267
Batch	267
Magnesium	267
Latina	266
degraded	266
2,8@@	266
sin-@@	266
З@@	266
Parameter	266
controllable	265
wks	265
afo@@	265
Middle@@	265
artery	265
1130	265
Strada	265
XE	265
Paras@@	265
endpoint	265
ABE@@	265
OME@@	265
가@@	265
bloo@@	264
deposition	264
catech@@	264
mucous	264
HEAL@@	264
erstrasse	264
INJ@@	264
078	264
surgeries	264
181@@	264
0.06	264
14.4	264
ъ@@	264
itec	264
029	263
37.5	263
1.10	263
rabb@@	263
ää@@	263
aerobic	263
ENO@@	263
Diagnostic	263
pH-@@	263
short-lived	262
six-month	262
Genetic	262
Wim	262
Mania	262
abbing	262
armac@@	262
ن@@	262
cef@@	262
Neck	262
probab@@	262
И@@	262
shock@@	261
juvenile	261
preven@@	261
cyclic	261
N2	261
ticus	261
ourt	261
require@@	261
exud@@	261
anaesthesia	261
shedding	260
wrapper	260
adju@@	260
fluoro@@	260
Partial	260
phosphorus	260
14.1	260
Density	260
SIDE	260
Twist	260
antie	260
065	260
THI@@	260
infancy	259
opacity	259
anomalies	259
1995-@@	259
Binding	259
Novar@@	259
pation	259
Conventional	259
morphology	259
ticle	259
flushing	259
cin	259
Characteristic	259
vir	259
verages	259
rox	259
和@@	259
worsen	258
Confidence	258
Difference	258
Chronic	258
boro@@	258
anti-inflammatory	258
Diagram	258
s.r@@	258
1,25	258
farr@@	258
re.	258
ffered	258
リ@@	258
clog@@	257
Appropriate	257
gog@@	257
Intervention	257
airways	257
immun@@	257
oily	257
LYON	257
VAN	257
ankle	257
Silic@@	257
DEX@@	257
adulthood	256
ия	256
们@@	256
plasty	256
月@@	256
reversing	255
cartons	255
worsened	255
Bov@@	255
incremental	255
one-year	255
withdrawals	255
microbiological	255
dermatitis	255
necro@@	255
¸	255
đ@@	255
RELE@@	255
anate	254
Procedures	254
pharmacist	254
pneumonia	254
CLASSI@@	254
morph@@	254
degre@@	254
A-10@@	254
Lipo@@	254
booklets	254
yellow-@@	254
15.0	254
nicotine	253
ilateral	253
Ε@@	253
tess	253
SAFE	253
MAY	253
yre@@	253
gums	253
373@@	253
alpha-@@	253
correlated	253
biotechnological	252
tally	252
multiplying	252
Responses	252
bumps	252
PON@@	252
Tres	252
Norton	252
0.02	252
FU	252
peach	252
14.0	252
aggravated	251
checklist	251
USER	251
120-@@	251
libido	251
granules	251
nex	251
nitr@@	251
Pfi@@	251
Applicants	251
clum@@	250
parap@@	250
contraception	250
091	250
15.5	250
vivo	250
Increases	250
043	250
lymphatic	250
ECG	250
opac@@	250
M8	250
saliva	250
기@@	250
레@@	250
micro-organisms	249
pulmonary	249
0.15	249
BLI@@	249
abies	249
avir@@	249
adren@@	249
064	249
UNE	249
051	249
PEX	249
ALTA	249
impair	248
concurrently	248
vulg@@	248
Determination	248
cols	248
18.5	248
cerebral	248
attenu@@	248
bubb@@	248
Compatibility	248
ľ@@	248
bruary	248
erections	248
SI-@@	248
12.9	248
13.8	248
Indigo	248
sening	247
d-up	247
υ@@	247
inhibitors	247
Injection	247
他@@	247
transf@@	246
polio	246
tration	246
Micro-@@	246
MAD@@	246
Tl@@	246
osteo@@	246
dizziness	246
Torrent	246
quid	246
ß-@@	246
Zona	246
2.10	245
minimising	245
invol@@	245
usal	245
blinded	245
Infection	245
agal@@	245
secretion	245
mino@@	245
Detail@@	245
iodine	245
anesthesia	245
ophthalmo@@	245
peanu@@	244
insufficiently	244
cluded	244
potency	244
JECT	244
manganese	244
in.	244
001-@@	244
sheath	244
χ@@	244
transient	243
sensus	243
0.10	243
Grenz@@	243
rheum@@	243
Carefully	243
Zinc	243
Wille@@	243
zka	243
placebo	243
undle	243
idas	243
BAYER	243
António	242
pim@@	242
prescri@@	242
epilepsy	242
powdered	242
Concentration	242
hemo@@	242
Desp@@	242
tox@@	242
OLE@@	242
bic	242
011@@	242
enop@@	242
CSF	241
fluctuation	241
Months	241
imble@@	241
Ki	241
cá@@	241
adaptor	241
Paul-@@	240
edro@@	240
carcinogenic	240
cramp@@	240
cludes	240
SCI@@	240
Arm	240
dil	240
tightness	240
1070	240
ml-@@	240
lithi@@	240
Fabrik	240
aec@@	240
CONCLUSIONS	240
spill@@	239
dummy	239
Relative	239
17.4	239
clinically	239
in-line	239
cyto@@	239
al.	239
069	239
autoimmune	239
Herceptin	239
ن	239
PLI@@	239
--------@@	239
Repe@@	238
vaccinated	238
ady-@@	238
excre@@	238
ilin	238
inis	238
nocturnal	238
retrac@@	238
lint	238
037	238
enhancer	238
S.r.l.	238
兰@@	238
자	238
fragility	237
side-effects	237
alysis	237
LIS	237
MIA	237
Lj@@	237
1180	237
dissolving	237
anterior	237
sweating	237
LDPE	237
BAL	237
H4	237
oxin	236
relieving	236
MPS	236
avid	236
confers	236
corneal	236
propagated	236
siness	236
ţ@@	236
nith@@	236
on-	236
chos@@	236
maturation	235
breastfeeding	235
therapeutic@@	235
bowel	235
indig@@	235
ERY@@	235
orbital	235
FIX	235
ω@@	234
Dispo@@	234
enrol@@	234
Leuk@@	234
respiration	234
Pali@@	234
Ё@@	234
า@@	234
exploratory	233
parasite	233
withdra@@	233
harming	233
Diabetes	233
summaries	233
inhalation	233
PID	233
thighs	233
emulsion	233
refractory	233
chromato@@	233
formance	232
narco@@	232
052	232
Α@@	232
Rhi@@	232
ysis	232
75,000	232
Tolerance	232
Nether@@	232
LIST	232
4-	232
ά@@	232
strada	232
bacterium	232
behaviours	231
Facil@@	231
diffuser	231
SUMMARY	231
LIS@@	231
lecithin	231
dryness	231
ATP	231
B-10@@	231
infertility	230
φ@@	230
gastrointestinal	230
Diagnosis	230
AMP	230
spol@@	230
tosa	230
lost@@	230
preclude	229
tropic	229
Camb@@	229
pouch	229
ب@@	229
REF@@	229
13.6	229
WHITE	229
-B	229
corresponded	228
intermittent	228
Continued	228
gered	228
STOR@@	228
cataract	228
095	228
Ratio	228
titr@@	228
Oto@@	228
meta-@@	228
olm	228
Capsules	228
fructose	228
antagonism	227
whole-@@	227
erius	227
meso@@	227
lumen	227
RIX	227
minimally	227
infestation	227
upri@@	227
PRODUCTS	227
skele@@	226
tol	226
yrinth	226
Controlled	226
AREA	226
δ@@	226
068	226
4V	226
ethnicity	225
chew	225
Radiation	225
pyl@@	225
LH	225
Labor@@	225
中@@	225
SUM@@	225
Mean	225
056	225
ик@@	225
♥	225
delusion	224
myco@@	224
amins	224
CTP	224
Beta@@	224
10.2002	224
Wharf	224
MT-@@	224
Ω	224
loon	224
dilution	223
hea	223
Predic@@	223
outflow	223
menstrual	223
carcinoma	223
Uro@@	223
ό@@	223
protein@@	223
favouring	222
commencing	222
penta@@	222
flavoured	222
metastatic	222
何@@	222
크@@	222
entous	221
vaccinations	221
Nam	221
Rex@@	221
gp	221
inhibited	221
ň	221
bipolar	221
OPTI@@	221
1503	221
PUR@@	221
Frequent	221
VET	221
ointment	220
Salmon	220
TAX	220
oules	220
mmy	220
Acid	220
eczema	220
acid@@	220
atim	219
C5	219
wberry	219
encapsul@@	219
Trials	219
ision	219
250-@@	219
tard	219
atex	219
ņ@@	219
orly	219
anaesthetic	219
omeo@@	219
A-1@@	218
foxes	218
coma	218
bowels	218
Ò	218
ologic	218
1.13	218
adolescence	218
lipids	218
Sv	218
F5	218
034	218
refill	218
STATES	218
operable	217
adolescent	217
outweigh	217
tran	217
Midd@@	217
rebound	217
Relevant	217
discontinu@@	217
Subjects	217
4-8	217
phosph@@	217
Belgien	217
1140	217
cryo@@	217
dissolves	217
Ear	217
日	217
measure@@	216
aggregation	216
cleare@@	216
unborn	216
tame	216
medically	216
relieves	216
vestig@@	216
omal@@	216
zine	216
PACK	216
ROCH@@	216
Endo@@	216
Rotation	216
foaming	216
oidal	216
Janssen	216
artan	216
059	216
comparability	215
sess@@	215
Josep	215
Herbal	215
0.03	215
wab	215
Evo@@	215
Disorders	215
bub@@	215
lysis	215
................................................................@@	215
logram	215
수@@	215
insufficiency	214
rences	214
toxin	214
accid@@	214
migraine	214
hort	214
llment	214
Abbott	214
generalized	214
B12	214
Patho@@	214
Pulver	214
XO@@	214
killers	213
restarted	213
kic	213
prophylaxis	213
1320	213
ecia	213
----------------------------------------------------------------@@	213
上@@	213
replicate	212
incompatibility	212
Supplementary	212
ligible	212
bloc@@	212
Substances	212
bial	212
endocrine	212
sponges	212
MUL@@	212
eutics	212
riter@@	212
rubbed	212
colorectal	212
trex@@	212
af-@@	212
colourless	211
Switching	211
chairmanship	211
aerosol	211
methyl	211
olk	211
7-	211
dias	211
ت@@	211
nio	211
075	211
qa	211
iron-@@	211
CLAR@@	211
1995@@	211
르@@	211
incubation	210
sprays	210
1.75	210
tomy	210
Reykjavi@@	210
IDA	210
Τ@@	210
ondon	210
watery	210
yrin@@	210
ulcers	210
arse	210
uric@@	210
virus@@	210
reflex@@	210
加@@	210
如@@	210
ר@@	210
ס	210
暗@@	210
fatalities	209
arial	209
Twice	209
Hod@@	209
seria	209
SUPP@@	209
HEP@@	209
Mixing	209
ECT	209
arga	209
F6	209
057	209
expel	208
recurrence	208
infiltration	208
Hamp@@	208
hyp@@	208
sleepy	208
Ag	208
yellowish	208
LUD@@	208
tenstein	208
SPC	208
ço	208
ZER	208
chemi@@	208
QT@@	208
Calcium	208
ɛ@@	208
ZY@@	208
午@@	208
Reaction	207
vasive	207
enweg	207
Ongoing	207
corne@@	207
Factors	207
Allemagne	207
anje	207
excit@@	207
gsk@@	207
ACTI@@	207
SpA	207
esday	207
lue	207
pellet	207
LEY	207
L4	207
timo@@	207
sessive	206
overex@@	206
narrowing	206
14.6	206
Prolifer@@	206
Medicinal	206
responsiveness	206
laur@@	206
058	206
NM	206
capillary	206
ectin	206
15.4	206
1c	206
S-1@@	206
YY@@	206
ABILI@@	206
Survival	206
CONTENTS	206
품	206
quantified	205
pared	205
iou	205
confer@@	205
schizophrenia	205
Gé@@	205
disabling	205
tonia	205
jska	205
Prav@@	205
Epidem@@	205
048	205
Guideline	205
pre-defined	205
pre-	205
dispensed	204
alcoholism	204
mediators	204
life-threatening	204
qualitatively	204
predictive	204
Panic	204
600-@@	204
oden@@	204
ō@@	204
062	204
incision	204
D6	204
Û@@	204
	204
investigator	203
high-risk	203
chicks	203
061	203
encapsulated	203
scoop	203
buffalo	203
pancreatic	203
fluore@@	203
pointment	202
AR-@@	202
relev@@	202
pooled	202
Sleep@@	202
coronary	202
Rüsselsheim	202
ilat	202
ă	202
Hb@@	202
gado@@	202
066	202
076	202
vig	201
sparing	201
dism	201
troublesome	201
detectable	201
Fever	201
Piro@@	201
dosed	201
047	201
Ş@@	201
ą	201
giver	201
Miraflores	201
fach	201
oxidative	201
TEXT	201
subset	201
hex	201
为@@	201
aryn@@	201
分	201
Industriepark	201
cyanide	200
age-related	200
saline	200
iture	200
15.2	200
pathogen	200
biv@@	200
Romain	200
fetal	200
circulatory	200
花@@	200
ав@@	200
主@@	200
ス@@	200
이	200
exponential	199
30-40	199
contra-@@	199
wag	199
έ@@	199
arterial	199
ready-to-use	199
Meet@@	199
067	199
BMI	199
衛@@	199
fever@@	198
tion.	198
1.11	198
propen@@	198
species-@@	198
15.7	198
13.9	198
gol	198
fi-@@	198
ю	198
15.6	198
ª@@	198
xin@@	198
ts.	198
flak@@	198
到@@	198
Labelling	197
Stevens	197
INDI@@	197
Histo@@	197
ILD	197
bacter@@	197
melanoma	197
Oncology	197
MabThera	197
Bb	197
overdose	197
ES-@@	197
地@@	197
co-ordinate	197
น@@	197
Assay	197
TAB	197
َ@@	197
크	197
gative	196
urate	196
persist@@	196
nitrates	196
halved	196
retic@@	196
resolves	196
depressive	196
dures	196
CEPT	196
diarrhoea	196
zech	196
dehydration	196
071	196
disperse	196
hydroxy@@	196
oxygen@@	196
SPR@@	196
psoriasis	196
Génér@@	196
FAB@@	196
16.4	196
OVER@@	196
porphy@@	196
Tablets	196
ед@@	196
Brüssel	196
FIR@@	196
ALY@@	196
ʼ@@	196
ixed	195
deple@@	195
euphoria	195
exacerbate	195
persisted	195
lika	195
naïve	195
appended	195
telematics	195
Phosph@@	195
stasis	195
ík@@	195
push-@@	195
5-	195
Odense	195
atyp@@	195
Kapl@@	195
PRODU@@	195
blocker	195
entric@@	195
Б@@	195
15.3	195
........	195
ATI@@	195
osel@@	194
mics	194
Borro@@	194
Preferred	194
Metabolic	194
syst@@	194
hydration	194
1234@@	194
Gly@@	194
ONAL@@	194
wetting	194
wiping	193
0.34	193
spotting	193
perennial	193
info.	193
acal@@	193
ė	193
1.8.@@	193
1-2-@@	193
CAU@@	193
Tabs	193
cci	193
caramel	193
aggrav@@	192
proportionally	192
diagnoses	192
Suspension	192
Kaunas	192
carbohydrate	192
anthrac@@	192
IDD@@	192
exertion	192
MRA	192
adora	192
θ@@	192
Þ	192
leth@@	191
grey-@@	191
irradi@@	191
muta@@	191
Pharm	191
menopause	191
WARNING	191
ラ@@	191
Oste@@	191
ё@@	191
로@@	191
leaking	190
ingue	190
22.5	190
se-	190
AIS	190
hives	190
Validation	190
averaged	190
oratory	190
Valletta	190
TAN	190
olet	190
0.63	190
biopsy	190
bandage	190
Neur@@	190
YL	190
avene	189
opini@@	189
inducing	189
taneous	189
Nitro@@	189
antagon@@	189
oride	189
spo	189
1B	189
ammon@@	189
CPA	189
cohort	189
Calculate	189
SERT	189
RO-@@	189
5-8	189
gastric	189
л	189
generalised	188
utive	188
bloodstream	188
tamination	188
salmon@@	188
dizzy	188
Gerard	188
Envi@@	188
Brus@@	188
myc@@	188
musculoskeletal	188
workshop@@	188
ATCH	188
posterior	188
conduction	188
-C	188
injec@@	188
Dial	188
µ	188
NTS	188
STORE	188
VZ@@	188
Kapseln	188
precursors	187
Aler@@	187
12h	187
antibacterial	187
MICRO@@	187
sess	187
rheumatoid	187
VARI@@	187
ägen	187
REVI@@	187
	187
borderline	186
icidal	186
non-smokers	186
steroids	186
propo@@	186
SOC	186
450-@@	186
imprinted	186
PART	186
0.13	186
Perform	186
hypno@@	186
TIL	186
Prz@@	186
43-	186
idne@@	185
graft	185
zac	185
[...]
