"	14115648
,	11838114
.	7648497
:	5160186
/	4775360
und	4557676
der	4379892
die	3987389
in	2733745
)	2438984
(	2402948
von	1895613
-	1683786
zu	1631010
den	1550655
mit	1355028
ist	1350778
für	1319839
das	1133285
Sie	1109603
auf	1106113
des	1063797
im	889326
eine	876438
Die	875041
dem	822558
ein	795426
sich	758691
es	739881
nicht	727674
werden	707319
1	686037
an	648928
sind	608988
http	600488
auch	557614
oder	550191
wird	542579
als	516157
um	495566
dass	492426
?	489058
sie	482208
_	478728
wir	457539
aus	452472
2	444193
über	427518
+	417240
einer	416735
!	407646
Das	396339
einen	395343
am	382853
bei	378429
wie	377872
hat	377665
€	375743
er	374713
haben	362324
Der	358020
nach	357884
einem	352768
zur	347501
ich	344021
10	341444
the	336341
=	331572
-@@	331325
%	329221
zum	327565
können	327182
7	324779
;	314458
3	311908
was	308765
'	305746
00	297953
2016	296565
on	292275
]	291467
durch	289072
...	287114
bis	281936
a	275679
so	275069
nur	272157
12	271546
kann	271375
[	264615
&	264492
“	263308
4	263049
16	262847
>	255626
17	255120
*	252894
wurde	248647
11	247622
„	241264
uns	236200
#	236008
de	234935
–	232403
vor	231793
and	231221
Es	229696
s	227813
»	227448
of	226161
In	224368
m	220781
aber	220186
5	218700
war	218033
0	217392
20	215232
15	215027
diese	210874
is	207324
man	206757
sein	206668
mehr	202740
noch	202590
Wir	197526
wenn	193534
dieser	190977
Ich	190681
vom	188405
The	185258
Nächte	184391
01	184251
18	181993
07	181434
alle	180188
6	180069
14	179209
30	174951
19	174482
13	172402
08	171181
B	170705
to	169122
sehr	165943
21	162232
unter	160652
8	157794
03	156759
22	156717
09	156603
hier	155572
02	154295
2015	152661
04	150983
daß	150355
eines	149838
Hotel	149490
sowie	147455
05	144515
23	144043
PM	141006
ihre	139310
gibt	139148
06	138122
www.@@	136218
C	135922
diesem	135384
Ihre	133437
25	133218
März	133127
Ihnen	132904
er@@	131531
«	131206
km	130265
sa	129520
Und	128968
ver@@	127666
Im	126926
Zeit	123622
2010	123216
9	121920
an@@	121479
da	121297
Wenn	119455
i	117783
zwischen	117554
dann	116931
ihr	116483
anderen	116384
dieses	116113
2009	115044
ab	114721
t	113376
°	112424
24	112227
en	112195
seine	111964
not	111606
en@@	110985
immer	110972
x	109846
Diese	109785
Uhr	109322
e	109093
wurden	109083
müssen	108668
keine	108247
Kommission	107676
2011	106573
te	106553
2008	105642
ab@@	104332
Mit	103828
Posted	103432
un@@	102769
unsere	102050
Jahr	101868
finden	101578
Ein	100843
2013	100770
d@@	100588
o	100409
28	100030
Seite	99786
2014	99374
27	98790
2012	98783
zwei	98371
this	98356
I	98125
26	98113
e@@	96341
50	95968
neue	95558
c@@	95374
Informationen	93501
k@@	93322
S@@	93297
bietet	92912
du	92186
Menschen	92092
A@@	91736
ten	91634
Jahre	91557
2007	91452
andere	90706
K@@	89737
ohne	89293
s@@	89169
URL	89140
29	88771
damit	88596
f@@	87552
wieder	87225
UTC	86960
P@@	86879
seit	86709
gegen	85894
Hotels	84953
a@@	84690
Zimmer	84285
d	84145
mich	83923
ge@@	83733
Unternehmen	83601
Jahren	83596
be@@	83595
.@@	83274
Er	83265
Welt	83190
31	83117
habe	83023
T@@	82819
E@@	82795
seiner	82646
It	82603
neuen	82512
Für	82459
g@@	81907
Eine	81889
p@@	81626
40	81558
August	81296
G@@	81174
o@@	81141
2006	81120
ihrer	80999
muss	80246
by	79818
D@@	79306
t@@	79122
B@@	78922
49	78863
O@@	78827
b@@	78692
6@@	78620
A	78604
z@@	78572
i@@	78522
AM	78332
C@@	78123
sondern	77876
September	77764
<	77315
waren	77202
ein@@	77142
diesen	76259
unserer	76193
Ver@@	76062
mir	75848
9@@	75824
at	75236
Europäischen	75206
November	75070
8@@	75033
l	74998
allen	74469
N@@	74258
H@@	74202
viele	74192
n	74168
for	74155
in@@	74151
al@@	73554
liegt	73465
Stadt	73067
7@@	72992
machen	72697
found	72677
y@@	72653
2005	72419
m@@	72187
server	72080
currently	71553
²	71254
An@@	71182
n@@	71027
heute	70841
Ihr	70753
M@@	70732
pro	70597
V@@	70466
Entwicklung	70436
bereits	70301
Ab@@	70217
aus@@	70030
hatte	69754
schon	69688
L@@	69552
F@@	69206
requested	69191
y	69123
wo	68848
Tag	68847
Herr	68844
100	68589
ersten	68307
selbst	68212
45	68113
gut	67878
h	67869
jetzt	67736
R@@	67619
....	67444
ihren	67264
32	66929
.htm	66824
pm	66595
ent@@	66150
u@@	65862
Deutschland	65809
33	65737
dies	65731
Preis	65348
ing	65310
.com	65166
April	65050
Europa	64938
einfach	64596
Personen	64483
ganz	64413
Reply	64405
Auf	64354
v@@	64256
4@@	64244
während	64122
May	63945
denen	63776
This	63732
Artikel	63329
g	63206
Alle	62905
seinen	62863
2004	62755
jedoch	62748
.de	62712
Wie	62711
So	62584
ihm	62497
Anzahl	62442
35	62185
Aug	62137
denn	62073
Z@@	62027
re@@	62011
5@@	61735
Union	61727
mm	61683
W@@	61661
el@@	61562
p	61479
sehen	61218
10@@	60697
auf@@	60609
Bei	60411
ch@@	60395
I@@	60356
h@@	60323
it	60227
viel	60141
soll	60020
Ein@@	60009
Nach	59908
as	59890
beim	59836
41	59832
times	59832
Oktober	59822
Haus	59775
Bereich	59702
ar@@	59567
34	59520
Teil	59515
drei	59388
geht	59344
ihn	59257
Daten	59218
c	59076
43	59062
Von	59052
Produkte	58920
erhalten	58740
k	58707
Mai	58688
Was	58653
39	58586
EU	58392
de@@	58129
”	58004
kommen	57995
etwas	57975
unseren	57858
lassen	57768
EUR	57576
Art	57562
e-@@	57522
sch@@	57495
cm	57161
sollte	56882
nun	56798
l@@	56596
bin	56563
alles	56541
ihnen	55678
weil	55491
li@@	55376
dazu	55372
st@@	55345
Dies	55183
einige	55164
will	54787
j@@	54771
steht	54674
36	54581
Leben	54050
or	54019
di@@	53971
r@@	53810
u	53798
on@@	53709
x@@	53552
um@@	53539
Kunden	53515
ung	53391
Juni	53370
weiter	53300
U@@	53261
2@@	52870
18@@	52825
Vor@@	52635
möglich	52606
es@@	52556
Auch	52495
Ort	52468
stehen	52437
44	52363
J@@	52310
…	52254
w	52177
Lage	52087
ob	52071
ter	52022
Kinder	51969
Aber	51960
Arbeit	51954
geben	51839
3@@	51641
möchte	51606
48	51551
Samstag	51484
be	51458
über@@	51405
befindet	51336
Juli	51272
seiten	51219
entfernt	51186
also	51167
all	51077
st	51022
Als	50999
Land	50986
Ende	50639
42	50588
$	50583
weitere	50573
Ihren	50522
you	50504
S	50471
15@@	50390
Freitag	50118
Donnerstag	49978
are	49752
vor@@	49729
allem	49690
bieten	49634
stellen	49508
38	49294
großen	49074
gen	49047
welche	49028
et	48983
’	48887
37	48785
ro@@	48737
Aus@@	48635
Mitgliedstaaten	48587
16@@	48582
dabei	48530
at@@	48505
Rahmen	48417
b	48393
r	48284
ti@@	48173
X@@	48051
Hier	48015
w@@	47869
große	47835
Bild	47788
et@@	47645
Beispiel	47565
.jpg	47551
55	47520
ID	47457
Website	47326
D	47283
Verfügung	47198
Internet	47129
0@@	46947
ende	46936
ja	46885
52	46688
würde	46670
doch	46628
ra@@	46596
enden	46595
or@@	46550
ins	46473
page	46400
us	46393
Weg	46154
Um	46151
12.	46007
Gott	45972
zu@@	45932
ungen	45911
14@@	45888
46	45839
Europäische	45805
ern	45786
erste	45786
ma@@	45701
euch	45606
Ã	45566
ungs@@	45523
al	45518
Frau	45355
ri@@	45281
direkt	45257
Da	45039
54	44998
sten	44764
Ihrer	44756
Be@@	44669
letzten	44654
Tel	44616
ca.	44567
wollen	44559
deren	44549
from	44419
darauf	44418
1.	44368
kommt	44363
59	44161
13@@	44020
56	43925
17@@	43899
meine	43890
sollten	43879
verschiedenen	43867
ge	43707
51	43641
\	43625
Bericht	43412
la@@	43381
ed	43365
Nähe	43274
Rat	43245
12@@	43233
aller	43211
USA	43209
gehen	42913
en-@@	42702
Ziel	42647
seinem	42569
47	42455
Euro	42376
GmbH	42305
Präsident	42249
57	42160
Januar	42157
Frage	42152
now	42145
si@@	42089
mi@@	42069
eigenen	42007
53	41896
Er@@	41885
with	41882
T	41812
Sch@@	41777
Person	41776
le	41774
kein	41751
gelbe	41678
worden	41677
Version	41633
2003	41589
innerhalb	41456
System	41406
dafür	41368
tun	41225
In@@	41222
Fall	41111
Am	41073
europäischen	41012
Y@@	40992
da@@	40810
60	40755
sagen	40398
58	40382
.html	40375
z	40278
dort	40242
¼	40113
new	40071
Dezember	40068
11.	40059
Namen	40038
Un@@	40038
Berlin	39867
Dieses	39646
besteht	39606
time	39545
20@@	39436
unser	39230
vielen	39138
end	39092
11@@	39090
10.	39056
sei	38764
zusammen	38675
Ergebnisse	38656
el	38632
ens	38605
MwSt.	38556
Bed	38466
der@@	38441
Fragen	38413
Möglichkeit	38385
la	38383
beiden	38345
s-@@	38326
Ma@@	38198
Zusammenarbeit	38016
ers	38010
etwa	37908
Maßnahmen	37903
v	37753
davon	37734
Re@@	37671
jeder	37523
•	37519
Meer	37419
E	37374
einmal	37229
f	37174
Weise	37140
Unterstützung	37129
sp@@	37115
Programm	37085
besonders	37000
ladysilvia	36902
lich	36886
Geschichte	36847
ter@@	36816
Region	36804
ss@@	36770
M	36755
Sicherheit	36734
insbesondere	36723
ur@@	36721
te@@	36670
Spiel	36498
Unsere	36460
liche	36376
nehmen	36363
Sonntag	36290
Qualität	36143
Telefon	36119
Breakfast	36063
ck@@	35960
ale	35914
Wasser	35913
erreichen	35813
macht	35790
ta@@	35543
Seiten	35508
ni@@	35430
Problem	35390
L	35386
Parlament	35359
unserem	35346
Tage	35322
bringen	35305
bitte	35219
bzw.	35090
os	35057
2.	34999
gemacht	34944
inkl	34886
Februar	34815
Dieser	34815
arbeiten	34779
Du	34689
Ihrem	34683
em	34664
meisten	34506
Software	34473
sowohl	34450
ger	34364
Thema	34343
se	34292
New	34261
mal	34258
Mehr	34243
Service	34236
bar	34182
Woche	34162
us@@	34113
23@@	34096
Al@@	34083
Minuten	34080
möchten	34074
90	33997
weniger	33992
80	33983
Ländern	33975
führen	33905
Zentrum	33883
1@@	33864
zurück	33829
ad@@	33811
je	33790
per	33785
besten	33720
internationalen	33695
Platz	33695
1.@@	33618
24@@	33523
a-@@	33459
verwendet	33453
Gruppe	33392
se@@	33330
Name	33245
do	33231
stellt	33050
le@@	33033
sollen	32987
Hilfe	32906
di	32893
Form	32875
wäre	32850
ste	32834
ne	32833
Ro@@	32823
wissen	32798
ihrem	32712
Mittwoch	32686
{	32615
ck	32569
is@@	32569
N	32489
den@@	32334
wirklich	32331
hin	32296
op@@	32191
Über@@	32143
Blick	32106
F	32094
O	32037
30@@	31951
ch	31888
Flughafen	31882
lo@@	31859
your	31856
Gesellschaft	31852
Fax	31814
vier	31782
25@@	31768
ert	31702
Mar@@	31618
th@@	31611
Durch	31541
Auf@@	31334
co@@	31279
konnte	31201
Herrn	31188
2000	31152
rund	31132
view	31130
nichts	31105
sicher	31079
chen	31041
bi@@	30947
jeden	30944
R	30938
könnte	30866
sk@@	30851
z.B.	30784
@	30781
lange	30686
gegenüber	30676
schnell	30642
em@@	30601
Ge@@	30578
Preise	30498
Bitte	30461
hatten	30436
Millionen	30407
gute	30385
Restaurant	30358
AG	30349
San	30261
La	30252
Bedeutung	30225
am@@	30188
}	30167
ger@@	30164
EU-@@	30129
Unser	30057
senden	30026
V	30010
me	29996
vi@@	29925
ol@@	29921
na@@	29917
au@@	29910
generated	29897
findet	29890
G	29877
Bilder	29877
Zukunft	29842
eren	29832
K	29822
zeigt	29627
daher	29541
ie	29537
-S@@	29501
kleinen	29496
Windows	29394
P	29360
-20	29304
halten	29299
ler	29249
2.@@	29216
ber@@	29207
dir	29091
seconds	29075
ko@@	29030
sogar	29020
Unter@@	28995
S.	28991
Rolle	28989
gen@@	28960
unter@@	28952
Haupt@@	28887
Spiele	28851
Frauen	28850
Home	28845
sagte	28797
Projekt	28796
amp	28782
Weitere	28707
tes	28694
dessen	28688
hinaus	28667
Wohnung	28592
verschiedene	28572
er-@@	28539
ar	28523
70	28518
26@@	28498
Küche	28496
erst	28491
Germany	28488
statt	28477
wichtig	28464
Kirche	28454
W	28444
alt	28430
Zu	28412
gilt	28393
spielen	28392
genau	28381
Di@@	28354
fast	28292
tt@@	28279
indem	28255
besser	28249
kleine	28238
sen	28236
Familie	28172
lichen	28143
ner	28142
Startseite	28139
Zugriffe	28109
befinden	28085
bekannt	28082
13.	28070
mo@@	28061
sa@@	28051
gab	27962
Recht	27928
folgenden	27904
ber	27858
to@@	27822
Stunden	27783
darüber	27748
©	27724
Länder	27667
gefunden	27614
Richtung	27594
200	27498
27@@	27476
che	27440
ganze	27389
Musik	27389
Bau@@	27313
zi@@	27276
®	27273
2002	27250
Datei	27202
28@@	27136
führt	27107
mein	27036
St@@	27013
do@@	27001
Frankreich	26917
natürlich	26821
Staaten	26787
Markt	26738
entwickelt	26687
Probleme	26672
Dr.	26617
Nacht	26615
gerade	26614
Bad	26575
ebenfalls	26530
no@@	26498
online	26496
Um@@	26471
ce	26406
zwar	26356
ci@@	26340
that	26337
3.	26332
verfügt	26315
Lösung	26265
Einsatz	26265
ges	26259
Mo@@	26221
öffentlichen	26212
site	26203
X	26193
Italien	26160
Man	26159
Dienstleistungen	26129
Aus	26102
9.	26075
how	25999
ganzen	25990
nutzen	25986
Hand	25949
000	25933
unterstützt	25913
weit	25898
weltweit	25801
immobili	25794
nächsten	25755
alen	25752
licher	25729
Regierung	25712
gehört	25712
Verbindung	25707
29@@	25697
Höhe	25689
Nr.	25655
gt	25647
it@@	25611
Co@@	25590
helfen	25572
Neu@@	25501
one	25498
Webseite	25497
Seiteaufrufe	25478
leben	25465
gi@@	25464
durch@@	25413
bleiben	25404
ermöglicht	25345
kam	25320
Joined	25310
Ar@@	25293
Grund	25278
dich	25231
del	25228
oft	25170
jede	25146
qu@@	25138
Produkt	25112
19@@	25084
Zu@@	25016
om@@	25000
Mitarbeiter	24979
Karte	24957
Entscheidung	24939
zeit	24936
wegen	24926
Gäste	24926
pa@@	24909
bereich	24900
y-@@	24873
ul@@	24869
Anwendung	24858
her@@	24811
pro@@	24798
500	24781
ser@@	24763
Zum	24737
Gottes	24684
https	24671
Umgebung	24662
Schweiz	24616
bedeutet	24591
Mon	24581
il@@	24557
t-@@	24522
ca@@	24501
ging	24460
ei@@	24453
ke	24426
sprach	24425
sta@@	24376
2001	24365
ba@@	24362
Schlafzimmer	24318
meiner	24286
unterstützen	24243
ken	24223
Li@@	24212
alten	24202
Auswahl	24180
¤	24180
Deutsch	24163
jedem	24116
politischen	24084
ac@@	24081
Kosten	24079
werde	24038
oben	24033
Natur	24026
keinen	24011
insgesamt	24011
Seit	23991
EN	23990
Inhalt	23929
TV	23899
lang	23893
setzen	23875
ak@@	23810
fahren	23775
recht	23725
eg@@	23695
ff@@	23684
Dank	23671
La@@	23644
wenig	23606
Denn	23603
Mal	23589
Zusammenhang	23516
leicht	23493
You	23467
H	23392
schen	23386
Zugang	23359
fa@@	23336
Reihe	23335
gerne	23330
Kunst	23324
sti@@	23288
3.@@	23258
Datum	23245
Verfahren	23228
00@@	23210
Raum	23202
eb@@	23172
Bo@@	23122
Sprache	23117
neu	23116
ts	23097
ens@@	23082
many	23080
daran	23068
Zur	23052
nen	23047
re	23022
einigen	23004
eln	22995
Liste	22991
d-@@	22952
neben	22948
Wirtschaft	22933
Kontakt	22929
Schutz	22897
po@@	22897
ot@@	22887
Terrasse	22849
mehrere	22816
Strand	22793
Design	22783
Universität	22766
gehören	22728
Wasser@@	22695
con@@	22689
Ri@@	22673
Q@@	22672
China	22668
land	22653
handelt	22636
Dann	22635
Post	22630
2-@@	22622
würden	22616
Arbeits@@	22599
Spanien	22586
uploads	22582
muß	22567
An	22566
lässt	22472
www	22442
voll	22436
Erfahrung	22429
sen@@	22427
Download	22407
fest	22399
19.	22387
gegeben	22383
4.@@	22380
1-@@	22370
Sp@@	22340
Wert	22290
Unterkunft	22290
verwenden	22285
ä@@	22236
De@@	22235
aufgrund	22213
Möglichkeiten	22211
20.	22204
ung@@	22136
Größe	22105
weiteren	22068
ing@@	22042
jedes	22024
ka	22020
-F@@	22011
4.	21998
ca	21985
ine	21979
Lo@@	21969
erreicht	21966
Insel	21952
Beschreibung	21950
ru@@	21944
liegen	21941
-10	21921
min	21906
Mio.	21861
é@@	21851
Politik	21842
bo@@	21786
number	21730
......	21714
Grund@@	21691
Anzeige	21678
später	21664
erung	21650
Nutzung	21646
zeigen	21617
so@@	21588
Gebiet	21584
Liebe	21576
between	21574
Pro@@	21550
gestellt	21539
Ba@@	21528
3-@@	21524
Während	21522
Sun	21519
E-Mail	21460
Team	21457
Bedingungen	21441
Mann	21432
Produktion	21427
can	21401
los	21377
Sep	21308
Zahl	21299
300	21298
eigene	21286
Dienstag	21286
Ergebnis	21285
Doch	21270
US	21268
nie	21266
Angebot	21264
frei	21264
erlaubt	21241
Le@@	21204
wp-content	21184
wählen	21182
ere	21178
ed@@	21177
Freund	21167
eh@@	21165
Suche	21143
cht@@	21125
Anfang	21112
75	21108
isch	21095
siehe	21085
no	21076
Se@@	21059
einzelnen	21037
Garten	21028
forum	21024
folgende	21008
wer	20995
mann	20969
·	20947
hohe	20930
Wer	20906
400	20904
weiß	20878
Ent@@	20875
ben	20872
all@@	20865
Erde	20858
ausgestattet	20854
bekommen	20847
Partner	20846
ster	20843
tragen	20833
ation	20787
gesagt	20776
hin@@	20770
deutlich	20769
fünf	20749
solche	20680
Ch@@	20677
gleich	20676
bleibt	20671
her	20660
Verwendung	20652
o-@@	20578
suchen	20530
Mar	20500
40@@	20496
günstige	20488
sagt	20486
Forschung	20478
Gemeinschaft	20477
Con@@	20477
bereit	20462
Su@@	20442
fi@@	20438
Pa@@	20412
gleichen	20399
Quelle	20390
Ko@@	20386
deshalb	20339
Restaurants	20321
Bi@@	20314
ne@@	20304
Aufenthalt	20274
Herzen	20271
Location	20229
schaffen	20220
38@@	20214
Sa@@	20211
Montag	20209
York	20203
Bereichen	20192
Video	20189
Kultur	20168
elle	20117
fr	20114
Israel	20107
Ebene	20076
Antwort	20055
sh@@	20044
Richtlinie	20038
Geld	20038
updated	20032
darin	20016
15.	20007
Mi@@	19995
enthält	19988
internationale	19978
Machine	19976
liches	19914
maps	19912
encyclopedia	19869
Den	19867
gesamten	19862
Lösungen	19851
gel@@	19792
Energie	19782
Urlaub	19763
Leute	19755
.org	19740
wichtige	19713
Dateien	19703
36@@	19686
Prozent	19685
actually	19685
sche	19671
have	19664
deutschen	19645
est@@	19644
Fotos	19639
ve	19639
Anfrage	19626
Über	19624
Situation	19622
brauchen	19622
Links	19599
sozialen	19595
nach@@	19594
weiterhin	19583
English	19573
Museum	19566
Grundlage	19563
Ka@@	19554
ischen	19529
sin@@	19514
links	19493
ell@@	19466
sieht	19452
ziehen	19445
hohen	19418
lesen	19407
gemeinsam	19391
..	19376
á@@	19362
vielleicht	19353
Bezug	19341
ten@@	19337
Po@@	19320
klar	19313
Si@@	19308
Schritt	19301
Anforderungen	19289
Aktivitäten	19270
calendar	19257
5.	19255
ell	19251
Bar@@	19247
Spiel@@	19245
Jan	19243
50@@	19235
Dabei	19223
su@@	19218
paar	19210
verfügbar	19205
enthalten	19194
Nur	19181
wa@@	19181
Inter@@	19165
ker	19135
Damit	19120
Apr	19113
Katalog	19084
Außerdem	19082
Vorschlag	19070
Mittel	19050
wohl	19047
kon@@	19041
5-@@	19041
ago	19030
Jesus	19024
Wayback	19024
zweiten	19017
stand	19016
crawled	19015
index.php	18988
ische	18960
Umsetzung	18956
genießen	18942
ha@@	18933
nationalen	18928
Frühstück	18925
cken	18922
ST@@	18922
Rechte	18906
06@@	18894
Link	18893
sofort	18878
October	18878
ap@@	18857
Mitglieder	18840
Sohn	18837
haus	18807
wichtigsten	18803
0.0@@	18783
International	18782
Besucher	18781
Fach@@	18773
innen	18768
views	18751
Paris	18740
ebenso	18733
men	18718
Wahl	18715
Projekte	18709
Augen	18692
ene	18688
Wort	18677
99	18676
Luxus	18667
Interesse	18656
klicken	18645
Ho@@	18644
Badezimmer	18644
aufgenommen	18637
Warenkorb	18604
erte	18582
IN@@	18572
ho@@	18524
mm@@	18516
16.	18500
ze	18496
ex@@	18494
du@@	18474
Jahrhundert	18473
unternehmen	18467
,00	18442
Mon@@	18425
Beitrag	18390
95	18377
Vor	18371
Ha@@	18369
man@@	18356
legen	18344
22.	18342
ali@@	18335
co	18335
Gebäude	18324
Time	18322
per@@	18297
europäische	18292
erten	18284
DLL	18284
PC	18232
Bürger	18228
gleichzeitig	18213
Vorteile	18212
Villa	18212
Computer	18202
Film	18188
ß@@	18173
hätte	18170
Car@@	18166
Kon@@	18151
Erfolg	18109
25.	18082
Sat	18060
—	18055
ts@@	18053
go@@	18041
ing-@@	18040
dar	18039
Produkt@@	18031
17.	18023
Spieler	18010
Saved	18009
ina	17978
konnten	17972
39@@	17959
ur	17922
Text	17911
Monat	17887
lin@@	17883
Kommentare	17883
24.	17878
Vi@@	17871
politische	17867
gu@@	17858
rechts	17855
images	17853
berg	17847
Nach@@	17844
Volk	17839
Thu	17836
WLAN	17817
65	17814
Bar	17813
Finanz@@	17793
ag@@	17792
kt	17786
weg	17780
erk@@	17769
En@@	17763
Kategorie	17763
Tagen	17756
zurück@@	17738
DE	17735
q@@	17733
al-@@	17726
Republik	17714
mar@@	17710
Wien	17705
König	17688
ers@@	17667
Länge	17655
seines	17650
U	17648
eu@@	17647
PDF	17642
St.	17635
Mitglied	17630
Meter	17624
tern	17617
ly	17604
and@@	17594
ka@@	17591
darf	17590
dürfen	17571
ana	17571
ändern	17563
pp@@	17562
mit@@	17531
guten	17519
ut@@	17510
ga@@	17498
A-@@	17483
ER@@	17463
meinen	17456
Ta@@	17446
Tra@@	17441
bare	17435
sches	17431
zen	17419
ra	17415
Zeit@@	17414
4-@@	17411
Themen	17409
Vater	17388
Firma	17354
m2	17318
beispielsweise	17312
allerdings	17312
Titel	17304
Ziele	17301
Welt@@	17301
tra@@	17292
raum	17292
Rück@@	17286
Balkon	17286
Y	17282
unten	17269
Dinge	17253
ia	17243
Lu@@	17243
6.	17236
stark	17221
Par@@	17217
.net	17211
he@@	17200
Himmel	17200
München	17182
erforderlich	17179
21.	17174
Neben	17163
Kraft	17151
Farbe	17149
37@@	17147
08@@	17145
scher	17133
somit	17131
est	17123
18.	17106
info	17085
ep@@	17082
Ferienwohnung	17081
Jahres	17075
unseres	17060
tische	17056
eri@@	17045
empfohlen	17011
bringt	17007
To@@	17003
heißt	16985
Ra@@	16957
Fri	16955
kostenlos	16940
Buch	16923
Ja	16910
Adresse	16902
gar	16900
Gesamt@@	16880
So@@	16873
kg	16856
Dusche	16834
as@@	16821
Stand	16820
Hamburg	16817
7.	16812
Z	16785
verfügen	16778
notwendig	16756
ons	16740
gemäß	16734
Geschäfts@@	16709
ent	16706
Benutzer	16705
14.	16699
geeignet	16681
London	16674
Na@@	16673
49@@	16667
tem	16661
ÇáÓÇÚÉ	16659
ÇáÂä	16659
Geist	16653
könnten	16652
verbunden	16630
meinem	16622
Druck@@	16583
Verbesserung	16566
July	16557
Auto	16556
Beginn	16555
system	16555
5.@@	16554
Gewicht	16551
E-@@	16551
Österreich	16550
nämlich	16545
len	16545
erfolgt	16540
Management	16521
cht	16519
g-@@	16517
Park	16508
Förderung	16503
ange@@	16498
2017	16489
Deshalb	16481
ellen	16472
WC	16457
February	16455
wobei	16438
B.	16438
nimmt	16424
Wohnungen	16424
ate	16383
Industrie	16382
jeweiligen	16376
64	16369
bevor	16358
Straße	16345
fragen	16344
ö@@	16338
Basis	16338
ds	16336
Meinung	16322
Frankfurt	16314
Europas	16308
Wed	16308
tet	16304
Gesundheit	16303
Punkt	16302
Information	16299
Umwelt	16284
einschließlich	16262
Fehler	16262
CD	16260
Stelle	16251
empfehlen	16249
June	16244
France	16240
sprechen	16235
1,@@	16232
baren	16223
eingesetzt	16212
ph@@	16205
kaufen	16196
gesehen	16194
Hause	16185
Arbeiten	16183
Regel	16182
erfahren	16180
gesamte	16175
Heute	16170
zzgl	16165
setzt	16155
Ober@@	16133
S-@@	16125
me@@	16114
mon@@	16107
Aufgabe	16097
Fläche	16087
Man@@	16083
El@@	16082
150	16076
hoch@@	16075
ss	16070
All	16067
id	16063
09@@	16060
durchgeführt	16059
und@@	16056
gern	16046
Hafen	16043
Ca@@	16038
ie@@	16037
Daten@@	16010
29.	16007
verstehen	16004
enen	16004
welches	16001
ce@@	16000
my	15990
größten	15985
ben@@	15983
22@@	15978
Jun	15958
gewesen	15941
Wochen	15938
ma	15926
neues	15919
Ab	15913
Nov	15868
aktuellen	15857
1999	15838
Jul	15831
etc.	15822
Licht	15819
Körper	15815
Position	15813
No@@	15805
großer	15793
Kar@@	15790
6.@@	15768
Verkauf	15763
Mietwagen	15762
EN@@	15749
Änderungen	15740
ster@@	15740
zweite	15737
Behandlung	15737
Funktion	15735
deine	15718
hotel	15708
Monate	15707
bisher	15687
erwarten	15684
geboren	15684
Ti@@	15682
March	15671
kosten	15668
Nicht	15662
mindestens	15661
07@@	15658
j	15653
Sommer	15635
fer@@	15632
gung	15615
Ausstellung	15613
8.	15613
Einige	15609
GMT	15590
gebracht	15589
Gemeinde	15572
ari@@	15571
News	15571
bestimmten	15560
January	15558
28.	15541
schreiben	15501
els	15501
Besuch	15497
verbessern	15491
Erfahrungen	15491
par@@	15457
Mitte	15451
56@@	15431
gra@@	15428
Englisch	15428
tischen	15424
85	15414
Unter	15414
Kinder@@	15409
arbeitet	15404
richtig	15403
geworden	15390
Her@@	15387
anderem	15382
Auswirkungen	15381
wi@@	15374
href	15350
Gra@@	15345
geb@@	15331
for@@	15314
lage	15313
entwickeln	15312
we	15311
48@@	15303
Organisation	15301
Tue	15280
art	15263
hoch	15260
ihres	15255
ir@@	15249
bau@@	15247
get	15243
treffen	15238
35@@	15199
Pi@@	15197
See	15196
very	15196
ki@@	15193
hast	15181
Russland	15171
Technologie	15169
pi@@	15161
allein	15160
ermöglichen	15145
Kunst@@	15145
que	15143
lernen	15133
Buchung	15130
zahlreiche	15116
Wachstum	15111
é	15103
II	15097
47@@	15096
anderer	15092
Hand@@	15089
46@@	15086
¶	15086
einge@@	15079
He@@	15069
Darüber	15045
hi@@	15007
December	15006
Strategie	15005
fin@@	14996
fen	14992
technischen	14981
hinter	14978
Server	14964
Steuer@@	14963
Parlaments	14962
nahe	14959
Do@@	14948
gesch@@	14945
ig@@	14940
Linie	14931
dis@@	14926
over	14925
CHF	14920
Ist	14914
Berg@@	14913
Menge	14905
folgen	14904
dictionary	14901
wert	14873
57@@	14870
sch	14856
wirtschaftlichen	14853
tion	14836
san@@	14835
beste	14834
Next	14830
ran@@	14829
Regionen	14823
Standard	14822
jeweils	14811
ER	14809
Macht	14799
CH@@	14796
Zeichen	14796
Hoch@@	14790
stelle	14770
af@@	14758
ort	14746
zer@@	14746
Holz@@	14741
spricht	14732
Wohnzimmer	14728
dadurch	14722
Groß@@	14722
Vereinigten	14715
fe@@	14692
lu@@	14692
tel	14676
nahm	14674
Natur@@	14670
more	14668
versuchen	14661
Th@@	14660
Google	14651
Angaben	14632
Landes	14629
Kindern	14621
chten	14614
ü@@	14609
Kontrolle	14598
es-@@	14593
30.	14592
neuer	14589
Kollegen	14567
ender	14566
les	14547
0,@@	14544
ori@@	14540
Arten	14540
essen	14535
öffnen	14534
in-@@	14519
Daher	14517
erkennen	14512
Verantwortung	14509
Bevölkerung	14507
gemeinsamen	14491
einzige	14486
58@@	14485
größte	14479
up	14474
Markt@@	14457
C-@@	14451
Technik	14447
7.@@	14442
ant	14441
72	14431
go	14426
.000	14422
Monaten	14420
AL@@	14414
Bu@@	14412
Wirtschafts@@	14401
ach@@	14399
AN@@	14399
Feb	14399
derzeit	14393
Umwelt@@	14393
Kultur@@	14383
ess@@	14371
usw.	14362
erklärt	14353
For@@	14350
City	14348
Date	14348
hr@@	14339
Rates	14337
ah@@	14333
Nun	14332
Teile	14329
Farben	14328
à	14315
Material	14305
Betrieb	14300
0.@@	14297
Anwendungen	14295
Sal@@	14294
Tri@@	14281
verfahren	14277
-B@@	14276
Forum	14276
Land@@	14275
wer@@	14273
Gruppen	14267
Viele	14261
bestimmte	14260
‘	14259
kennen	14257
dern	14257
Ru@@	14248
besuchen	14238
erwartet	14220
geführt	14204
wichtigen	14200
genommen	14195
außerdem	14194
Online	14182
9.@@	14172
Foto	14155
Reise	14129
inter@@	14111
Cor@@	14105
Ber@@	14087
Programme	14078
Lebens@@	14076
ms	14070
mo	14067
Folgende	14057
veröffentlicht	14056
teilen	14049
Frei@@	14045
dar@@	14032
sc@@	14031
Veranstaltungen	14031
ø	14026
59@@	14025
gesetzt	14023
sechs	14005
AR@@	14002
6-@@	14000
pf@@	13989
wipe	13988
Energie@@	13981
Stück	13971
Ad@@	13968
bei@@	13966
Beziehungen	13950
89	13933
zehn	13919
88@@	13916
Or@@	13909
automatisch	13905
ette	13897
om	13888
Klimaanlage	13876
ft	13869
darum	13868
un	13865
zusammen@@	13841
Rechts@@	13841
Funktionen	13841
modernen	13831
del@@	13826
photos	13826
Männer	13817
Selbst@@	13816
0000	13812
Punkte	13809
Modell	13805
beide	13804
Sonne	13800
wenige	13791
persönlichen	13788
besch@@	13787
lichkeit	13778
gekommen	13778
about	13776
Du@@	13770
Produkten	13767
hören	13754
Hersteller	13752
gs	13749
Mutter	13738
Medien	13737
Sicherheits@@	13729
alte	13727
Bank	13723
ans	13717
ard	13706
Künstler	13697
Hallo	13697
letzte	13696
Mit@@	13689
8-@@	13685
76@@	13685
ant@@	13682
Parkplatz	13679
rei@@	13668
vorhanden	13668
Per@@	13665
Bewertung	13645
Kunden@@	13631
IT@@	13626
Jetzt	13618
ssen	13613
Saturday	13608
Mor@@	13603
möglichkeiten	13588
vo@@	13585
Kampf	13570
heraus	13569
Bild@@	13559
scheint	13553
bestimmt	13531
Bildung	13524
kt@@	13522
genannt	13516
Zeitpunkt	13510
99@@	13509
s.@@	13509
69	13505
Seine	13503
bu@@	13502
bar@@	13492
Ni@@	13485
geschrieben	13485
richtige	13454
Klicken	13443
Ne@@	13436
Wein@@	13421
Waren	13417
Messe	13417
has	13414
23.	13413
hält	13412
enk@@	13412
Online-@@	13411
1998	13409
120	13394
79	13388
Einzel@@	13382
ausge@@	13381
Jo@@	13378
Bereiche	13376
erstellt	13373
privaten	13372
76	13368
11.@@	13361
bilden	13355
Versand	13352
entsprechenden	13350
61	13344
Inseln	13342
On	13327
ku@@	13317
26.	13306
Farb@@	13302
nt.html	13300
Bis	13296
Systems	13288
P-@@	13273
Systeme	13268
600	13262
enz@@	13253
au	13253
04@@	13253
lan@@	13251
erfolgreich	13239
Nachrichten	13238
private	13231
Ihres	13227
freuen	13220
Tags	13217
lösen	13215
on-@@	13215
mp@@	13215
Handel	13214
platz	13212
Center	13211
ler@@	13206
schwer	13194
Prozess	13189
bel@@	13187
sorgen	13176
daten	13172
end@@	13159
besondere	13157
tz@@	13153
Gelegenheit	13149
fand	13148
ano	13146
mu@@	13128
laden	13128
elt	13127
völlig	13126
entsprechend	13118
Bft	13111
Mensch	13092
Patienten	13088
Leistung	13083
here	13077
Herstellung	13074
Details	13074
M.	13072
í@@	13059
Barcelona	13048
bau	13041
gemeinsame	13036
27.	13036
va	13034
war@@	13023
Qu@@	13018
see	13016
ve@@	13012
delivery	13008
Ger@@	12991
Sonder@@	12989
Behörden	12980
Ö@@	12980
71	12978
de-@@	12978
img	12954
Abend	12948
tatsächlich	12947
historischen	12942
IS@@	12934
cb	12933
World	12929
Institut	12927
men@@	12899
Fa@@	12894
Go	12888
images.php	12882
Zeiten	12874
Oct	12869
Alter	12854
schönen	12841
Da@@	12840
aktuelle	12828
warum	12813
Einführung	12804
min@@	12803
zunächst	12802
Fällen	12795
78	12794
z.	12792
10.@@	12784
62	12781
77@@	12775
Tausende	12774
wollte	12771
Sache	12769
ys	12764
Türkei	12745
Geschwindigkeit	12740
03@@	12739
genutzt	12736
Stadt@@	12732
Folge	12729
7-@@	12726
Te@@	12725
vergangenen	12724
kurz	12716
Ausdruck	12716
folgt	12702
genannten	12701
ner@@	12691
Tatsache	12683
we@@	12681
beginnt	12669
88	12668
98	12667
Neue	12667
66	12666
Projekt@@	12659
Serie	12653
77	12650
8.@@	12649
chte	12641
freien	12636
gte	12634
des@@	12630
Falls	12629
mittel	12626
United	12621
erster	12615
Vertrag	12615
bald	12615
Installation	12608
ei	12606
Teilnehmer	12603
years	12600
Au@@	12594
laufen	12589
max	12583
Dazu	12564
name	12561
Kur@@	12553
schöne	12545
hei@@	12540
Web@@	12540
out	12539
zudem	12538
eher	12537
Meine	12523
Eigenschaften	12518
92	12518
33@@	12515
cke	12514
Werk	12510
Dorf	12486
va@@	12484
technische	12467
Apartments	12467
groß	12464
Sport	12459
getan	12453
vergessen	12452
schließlich	12442
link	12442
2,@@	12433
ven@@	12432
Ausbildung	12426
beginnen	12426
fördern	12425
te-@@	12422
bestehen	12419
moderne	12417
Integration	12398
gelten	12393
Familien	12391
spiel	12390
Sinne	12385
nachdem	12385
91	12376
31.	12374
Tour	12369
Gerät	12368
ums	12366
200@@	12364
ES@@	12358
Investitionen	12349
Maria	12348
tion@@	12334
Privat@@	12334
gten	12323
kannst	12322
werk	12320
Ansicht	12314
openx	12313
benötigen	12312
34@@	12312
he	12310
Warum	12307
banner.gitverlag.com	12306
a5a750bd	12306
betrifft	12303
Manager	12281
mer	12277
Last	12273
unterschiedlichen	12263
tigen	12244
Bewegung	12239
Zurück	12236
Konferenz	12233
Dec	12224
vollständig	12211
Analyse	12201
45@@	12201
richtigen	12200
Vom	12197
mehreren	12191
zahlreichen	12189
Praxis	12184
Go@@	12184
Lo-Fi	12182
technik	12180
ungefähr	12179
umfasst	12178
Lebens	12177
Kind	12163
tions@@	12150
Start	12150
na	12147
res@@	12137
eben	12134
Änderung	12134
erhältlich	12130
genug	12122
Anbieter	12120
weder	12119
Anlage	12102
angezeigt	12101
tive	12097
Bundes@@	12094
ov@@	12090
Business	12088
Wei@@	12086
anlagen	12085
kostenlose	12078
81	12069
Wunsch	12067
Schule	12064
250	12064
Ga@@	12062
Studio	12058
ad	12050
abge@@	12041
arbeit	12039
Band	12036
nächste	12035
cks	12031
schaft	12030
63	12030
Line	12029
Vergleich	12028
mi	12020
Gu@@	12011
Schul@@	12008
falls	12006
Hinblick	12002
66@@	12001
form	11976
Inhalte	11951
AT@@	11944
Atmosphäre	11940
tige	11934
96@@	11932
feld	11930
ino	11917
eller	11908
84	11908
HERR	11906
entspricht	11903
frei@@	11892
Freude	11892
im@@	11886
74	11881
our	11870
zahlen	11856
Suite	11856
78@@	11851
solchen	11850
welcher	11849
k-@@	11833
Tod	11825
teil	11819
Fahr@@	11818
End@@	11816
Werke	11805
glauben	11793
soziale	11782
Erklärung	11780
car@@	11774
ini@@	11769
wei@@	11764
ß	11760
buchen	11757
Bestellung	11757
häufig	11752
map	11751
stellte	11747
Hintergrund	11745
obwohl	11735
-0@@	11735
MB	11733
Wi@@	11725
stra@@	11723
Re	11717
kamen	11710
einzu@@	11708
Dis@@	11702
verantwortlich	11700
Abkommen	11696
Produktions@@	11692
bargain	11692
Lesen	11682
´	11681
Hotel@@	11679
bel	11678
ier@@	11676
Einrichtungen	11664
Kommunikation	11663
Werte	11662
Rom	11654
benutzt	11652
gel	11637
Bau	11636
86	11630
eigentlich	11629
Verkehr	11622
Wettbewerb	11613
ings	11613
Format	11610
Stil	11606
Essen	11603
Stunde	11602
cker	11583
ern@@	11582
ausschließlich	11581
Wissen	11580
Wa@@	11571
zusätzliche	11570
dienen	11569
stadt	11568
anders	11563
Vertreter	11556
fer	11556
lei@@	11550
CO@@	11549
glaube	11524
gebiet	11522
Wohn@@	11517
93	11514
Leistungen	11513
Idee	11512
fest@@	11509
Also	11509
Me@@	11505
Wirkung	11504
Sport@@	11502
12.@@	11501
heit	11501
win@@	11497
67	11484
angeboten	11479
Bal@@	11473
Min	11473
Wege	11472
sparen	11463
kl@@	11460
ungs-	11460
Klein@@	11459
außerhalb	11458
Polen	11458
wirtschaftliche	11453
Sprachen	11448
geöffnet	11448
Aufgaben	11443
Mu@@	11439
Anspruch	11437
05@@	11436
Krieg	11433
Krise	11433
fe	11433
Club	11433
ann@@	11429
cu@@	11412
Zustand	11408
Ausgabe	11403
Sehr	11403
treten	11402
kaum	11402
gelegen	11390
68	11384
Kommissar	11371
Druck	11363
Initiative	11356
darunter	11351
but	11348
David	11346
täglich	11343
use	11334
73	11333
Fi@@	11329
Immobilienanzeigen	11329
gruppe	11328
LA@@	11318
inklusive	11312
Materialien	11311
tieren	11309
Videos	11307
spielt	11288
ft@@	11282
Wein	11282
Mess@@	11274
cher	11270
ste@@	11269
Tuesday	11267
96	11262
ya	11258
Web	11257
Karten	11249
Gesetz	11243
kte	11234
eingerichtet	11226
Apartment	11219
verlassen	11217
Am@@	11214
201@@	11212
a.@@	11210
Wahrheit	11204
weise	11199
zentrum	11192
Tätigkeit	11190
Deutschen	11187
führte	11184
Jahrhunderts	11182
Erweiterung	11177
Co.	11177
gef@@	11173
West@@	11159
dein	11153
le-@@	11149
gleiche	11148
Anlagen	11144
Fuß	11140
Kühlschrank	11139
Vielzahl	11138
entscheiden	11129
Angebote	11129
Landwirtschaft	11123
Alles	11123
Betten	11117
hand@@	11101
Minister	11100
Organisationen	11100
AM@@	11097
Bahnhof	11096
We	11093
chen@@	11092
Boden	11092
entlang	11089
gr@@	11087
hinsichtlich	11085
hal@@	11084
gewinnen	11082
Verhandlungen	11080
Vergangenheit	11077
gegründet	11077
Dauer	11068
Geräte	11068
markt	11065
überhaupt	11065
Grenzen	11062
m-@@	11062
Gi@@	11056
benutzen	11055
einfache	11053
Verordnung	11050
Musik@@	11049
begann	11046
q	11043
ro	11020
Regeln	11015
e.@@	11014
erfüllen	11010
Durch@@	11007
RO@@	11002
Griechenland	11000
deutsche	10999
os@@	10999
lose	10997
Frieden	10994
voll@@	10987
ver	10983
weisen	10980
Institutionen	10972
Herz	10972
other	10969
fallen	10964
1997	10961
Technologien	10953
3Ftaxonomy	10943
Schutz@@	10938
Sunday	10938
12.11.2016	10932
subject	10922
82	10921
ser	10921
0-@@	10914
gezeigt	10912
Komfort	10912
maßnahmen	10911
diejenigen	10906
Friday	10906
Verhältnis	10905
lokalen	10904
langen	10902
Kombination	10902
programm	10900
Fest@@	10898
Maschinen	10898
Max	10896
erfüllt	10895
Le	10884
87	10881
ted	10875
gewährleisten	10869
ters	10867
freie	10866
öffentliche	10865
el-@@	10865
Michael	10862
ges@@	10858
zeit@@	10853
LI@@	10851
geschlossen	10849
aktiv	10846
Luft@@	10844
Bestimmungen	10841
Folgen	10840
denken	10834
anderes	10831
Prüfung	10830
entweder	10830
files	10821
geändert	10813
Dialog	10805
voller	10805
allgemeinen	10802
Winter	10800
Verwaltung	10796
ks	10796
RE@@	10786
Deutsche	10779
Freiheit	10777
94	10772
Vorschläge	10769
fall	10762
rechten	10760
83	10758
stets	10752
mat@@	10746
Stimme	10745
sse	10742
Christus	10740
Reisen	10739
able	10734
Ex@@	10727
ja@@	10724
vertreten	10722
anzu@@	10721
cs	10720
Peter	10711
besonderen	10706
leider	10699
sch-@@	10692
Haus@@	10692
hätten	10683
Maße	10683
je@@	10682
Japan	10680
3,@@	10680
Code	10679
oren	10677
9-@@	10672
Veranstaltung	10669
posts	10668
Innen@@	10654
Wählen	10648
Nachricht	10646
Mittel@@	10644
speziell	10644
Fraktion	10643
heutigen	10643
Flug@@	10639
Nationen	10637
Studie	10635
denke	10633
Einrichtung	10633
Öffentlichkeit	10628
erneut	10628
Demokratie	10625
sah	10617
benötigt	10613
tiert	10597
ES	10597
komplett	10593
KB	10589
Durchführung	10582
Nein	10576
Voll@@	10575
ken@@	10575
sto@@	10573
De	10571
Unternehmens	10564
jemand	10554
ideal	10550
Landschaft	10549
schön	10545
ets	10544
�	10543
Auto@@	10540
Mein	10540
Tiere	10534
pre@@	10533
tätig	10531
tig	10519
u.	10515
Homepage	10512
like	10496
Fenster	10487
leisten	10485
Mal@@	10484
braucht	10482
ta	10480
Osten	10478
800	10478
wichtiger	10474
kan@@	10472
Städte	10470
SP@@	10466
Vorschriften	10462
danach	10462
ore	10462
sieben	10461
Pool	10460
Ser@@	10456
.php	10449
Thursday	10448
up@@	10444
è@@	10431
aufge@@	10430
Außen@@	10428
dank	10422
erstellen	10416
ic@@	10410
EM@@	10409
Aufmerksamkeit	10406
com@@	10405
machte	10403
abzu@@	10401
DVD	10392
Lehr@@	10389
len@@	10386
erleben	10384
versucht	10383
Wednesday	10364
gend	10362
gelegt	10359
10-@@	10358
Tu@@	10355
trägt	10351
tri@@	10351
zz@@	10351
bist	10349
kten	10347
Ressourcen	10343
kar@@	10341
www.skepticalscience.com	10341
Sti@@	10337
Sonnen@@	10337
verhindern	10335
versch@@	10332
aler	10328
ren@@	10327
il	10327
funktioniert	10319
ze@@	10319
bedingungen	10317
det	10314
Option	10314
Morgen	10310
60@@	10310
Forschungs@@	10308
Heizung	10305
Har@@	10302
Verfügbarkeit	10294
ek@@	10294
style	10293
zwei@@	10288
EPÜ	10288
Worte	10287
--	10285
Buch@@	10280
sel@@	10279
Tor@@	10279
Sozial@@	10270
pl@@	10268
tin	10255
ff	10252
Ste@@	10243
wenigen	10241
tr@@	10235
Konzept	10229
angenommen	10224
ssi@@	10218
reichen	10216
ieren	10215
führung	10190
ps	10187
Monday	10185
stein	10181
Ur@@	10180
src	10176
Freunde	10172
station	10171
ob@@	10162
lediglich	10161
beachten	10160
art@@	10155
anlage	10148
Services	10148
gebaut	10147
garantiert	10145
Elemente	10145
weiter@@	10144
Formen	10141
European	10138
tisch	10135
Strukturen	10134
auszu@@	10132
ors	10130
Transfer	10129
.ch	10123
är@@	10122
pri@@	10117
iert	10116
Tourismus	10113
97	10109
volle	10108
management	10103
ass@@	10102
Gewalt	10101
eure	10101
hilft	10101
Wind	10099
gan@@	10097
weiterer	10089
Beiträge	10089
Schritte	10088
geschaffen	10087
Familien@@	10087
11-@@	10086
Obwohl	10078
Min@@	10076
|	10070
text	10066
UN@@	10062
wieder@@	10057
Herausforderungen	10052
land@@	10050
1996	10044
Gar@@	10039
HERRN	10038
Andere	10031
der-@@	10028
gew@@	10022
tions	10017
Tradition	10011
title	10010
gar@@	10003
Entfernung	10001
ani@@	9998
Licht@@	9994
vollen	9987
Reservierungen	9983
Zudem	9982
än@@	9979
Test@@	9978
ment	9978
Beim	9972
Gen@@	9972
schutz	9964
age	9962
Click	9960
Heiligen	9955
Linux	9952
Gründen	9949
ppe	9949
ju@@	9944
Haushalts@@	9941
mittels	9941
s.com	9935
Haut	9928
button	9913
hergestellt	9912
Sicht	9910
außer	9906
43@@	9902
Milliarden	9889
Wissenschaft	9884
Schaffung	9876
Netzwerk	9869
Letzte	9866
Fin@@	9861
Nutzen	9859
jungen	9859
Kilometer	9846
Menschenrechte	9840
Beratung	9839
jene	9838
zuvor	9837
jederzeit	9835
Zeitraum	9833
Gefahr	9831
entstehen	9827
offen	9825
via	9812
version	9809
verkaufen	9806
Ruhe	9797
All@@	9796
Media	9793
wenden	9791
th	9785
Interessen	9784
Staat	9774
ry	9766
Reise@@	9765
room	9763
führenden	9762
url	9757
RA@@	9750
behandelt	9749
Ben@@	9748
ga	9742
Ausstattung	9737
Lei@@	9734
4,@@	9734
erhöhen	9731
ständig	9729
Sekunden	9723
Film@@	9723
burg	9722
Uni@@	9712
Hu@@	9707
warten	9700
Breite	9694
Jeder	9690
c-@@	9683
1000	9682
Klasse	9673
Mat@@	9672
AS@@	9666
OR@@	9664
EL@@	9663
Stellen	9659
Gro@@	9656
kleiner	9655
fo@@	9654
junge	9645
Kurs	9641
Notwendigkeit	9636
ling	9635
Verbraucher	9634
st-@@	9634
aufzu@@	9626
gekauft	9619
Entwicklungs@@	9618
gs@@	9615
erscheint	9612
ließ	9607
Wo	9605
Tat	9604
beitragen	9598
gro@@	9597
Temperatur	9591
System@@	9584
verpflichtet	9583
son@@	9582
gende	9580
onen	9575
ktion	9575
zuletzt	9571
D-@@	9570
San@@	9567
oh@@	9559
Immobilienportal	9559
genden	9558
Unternehmens@@	9557
Kal@@	9555
form@@	9554
Ideen	9552
Ukraine	9551
schützen	9549
US-@@	9540
Struktur	9539
Spaß	9536
entdecken	9534
oni@@	9533
Anmeldung	9530
55@@	9529
type	9528
Hei@@	9523
Unterkünfte	9521
heim	9518
gerecht	9517
80@@	9516
Zweck	9512
Stein@@	9512
bl@@	9511
neu@@	9510
OS	9509
Fortschritte	9508
Ku@@	9506
gleich@@	9504
Abstimmung	9499
IC@@	9499
Martin	9493
cher@@	9491
tu@@	9489
Nachdem	9484
ungsp@@	9482
u.a.	9482
Length	9481
Sehenswürdigkeiten	9480
Bio@@	9478
Methode	9473
Hinweis	9473
Eltern	9461
Ju@@	9461
ha	9460
sion	9456
1995	9448
ef@@	9447
KG	9446
Stadtzentrum	9439
ó@@	9438
Staats@@	9434
bed	9433
SE@@	9431
hu@@	9428
Moment	9415
beträgt	9414
ki	9414
Zimmern	9413
if	9408
stell@@	9408
dient	9408
anzeigen	9406
zeiten	9400
Partei	9394
ml	9388
Lieferung	9383
States	9378
Autor	9375
rau@@	9370
jo@@	9369
Ä@@	9369
reich	9368
barkeit	9367
Ton@@	9352
überall	9348
bes@@	9348
Architektur	9346
Santa	9345
mag	9342
Entscheidungen	9337
an-@@	9336
Steuern	9335
wahrscheinlich	9331
Opfer	9329
University	9325
Ferienwohnungen	9325
War@@	9324
gelangen	9321
lebt	9314
fällt	9312
lagen	9311
Pu@@	9307
Ausland	9303
hof	9303
spezielle	9302
ien	9299
Col@@	9297
Sta@@	9295
stische	9294
straße	9293
trotz	9291
Aufbau	9288
Gel@@	9283
fu@@	9282
Art.	9280
IM@@	9278
teten	9272
Transport	9270
LE@@	9268
web@@	9267
tionen	9265
pla@@	9259
Bel@@	9257
miteinander	9255
bessere	9254
gehalten	9252
unterschiedliche	9245
Luft	9243
IT	9240
entsprechende	9239
Kopf	9224
Holz	9222
AD@@	9204
T-@@	9203
Siehe	9202
Indien	9196
Preisen	9183
übernehmen	9178
Pol@@	9177
Einfluss	9176
allgemeine	9175
Falle	9174
stellung	9170
yp@@	9169
ure	9168
pe@@	9165
Übersetzung	9164
eigenes	9163
lichem	9161
maschinen	9158
EC@@	9154
.0@@	9154
DI@@	9153
ismus	9152
Doppelzimmer	9150
Vo@@	9147
12-@@	9139
präsentiert	9131
ales	9127
hoffe	9123
Kern@@	9123
zusätzlich	9123
stischen	9121
Nutzer	9121
§	9121
verb@@	9120
Beschäftigung	9118
M-@@	9117
44@@	9116
ko	9114
schließen	9109
politik	9105
eli@@	9104
Ski@@	9104
Köln	9099
teilweise	9095
­	9095
international	9092
Pre@@	9091
tremulous.net	9090
pr@@	9089
vermeiden	9086
people	9083
bestätigt	9081
kommenden	9079
weg@@	9079
service	9077
erhält	9075
ppen	9075
Mehrheit	9071
Costa	9071
string	9071
produkte	9068
ente	9058
Großbritannien	9057
Dienst	9056
EP@@	9056
0,0	9056
Innovation	9055
Parteien	9054
Komponenten	9053
industrie	9044
Hälfte	9042
unbe@@	9041
Lin@@	9035
Chi@@	9033
Com@@	9032
Handels@@	9023
Wetter	9012
speichern	9005
entwicklung	8999
Zürich	8998
Personal	8997
Group	8997
x-@@	8997
.at	8994
damals	8991
lag	8990
Herren	8982
Doppel@@	8982
90@@	8981
bild	8977
Sprach@@	8976
Sam@@	8975
chi@@	8973
Seele	8970
Natürlich	8969
Sein	8967
Mitteilung	8964
98@@	8958
Rei@@	8954
verbessert	8951
erhöht	8949
Ki@@	8939
Kapitel	8936
Quote	8933
fläche	8933
mal@@	8929
Standard@@	8929
Browser	8929
ba	8922
Sauna	8922
Küste	8919
Vielfalt	8913
deze	8910
9,@@	8907
tz-otocac.hr	8901
iccaldate	8901
sigFreeId3fcf764576	8901
Standort	8897
Betriebs@@	8890
Tro@@	8877
30-@@	8876
Sardinien	8874
chter	8873
Marke	8871
Belgien	8870
Post@@	8868
bezüglich	8867
Wal@@	8864
Dienste	8861
Win@@	8860
Abschluss	8853
Bra@@	8848
größere	8847
geh@@	8845
bewusst	8845
Finanzierung	8844
reisen	8843
schem	8840
Vertrauen	8834
enten	8831
A.	8830
El	8829
Nord@@	8822
spiele	8815
äußerst	8809
Page	8809
Veränderungen	8808
Sh@@	8805
wünschen	8804
PS	8802
-15	8799
uni@@	8788
informieren	8787
zer	8782
Oder	8776
maximale	8775
Prof.	8775
großes	8773
Kor@@	8771
Ref	8771
ren	8759
ige	8759
herunterladen	8748
Norden	8744
Main	8740
erlauben	8735
ary	8734
Kenntnis	8733
fühlen	8732
Aspekte	8730
habt	8730
Typ	8730
liefern	8726
Mädchen	8726
Val@@	8720
AC@@	8719
bedarf	8715
meines	8713
Generation	8713
Bus	8713
Afrika	8707
Kat@@	8705
Tonnen	8700
druck	8698
perfekt	8691
stoffe	8685
Diskussion	8683
the@@	8680
Bewertungen	8677
Regierungen	8675
ct	8673
bauen	8671
Aktualisierung	8670
kraft	8665
its	8657
Here	8652
Welche	8647
Pers	8647
Gegen@@	8646
exkl	8646
way	8632
Anteil	8630
Gefühl	8627
Wieder@@	8627
geschützt	8622
Wahl@@	8616
ang	8614
net	8611
Allgemein	8610
läuft	8607
68@@	8607
Optionen	8599
blog	8598
ord@@	8597
Gedanken	8597
manchmal	8597
testen	8594
Aussicht	8589
ären	8585
Sitz	8584
Eingang	8583
Nummer	8582
Doppelbett	8580
Kroatien	8579
Bei@@	8574
sonst	8572
Allerdings	8570
J	8570
ker@@	8568
bewegen	8566
Bedarf	8566
lau@@	8565
Bekämpfung	8554
Video@@	8546
Bedürfnisse	8545
6,@@	8544
tro@@	8543
line	8542
Dort	8539
70@@	8539
Winter@@	8537
guter	8534
topic	8531
Angelegenheiten	8529
Marketing	8527
sten@@	8523
zentrale	8518
7,@@	8518
tsch@@	8515
har@@	8515
fÃ	8514
arten	8512
äre	8506
besitzt	8500
dritten	8498
regelmäßig	8493
Angst	8492
Sammlung	8487
vier@@	8486
1994	8485
computer	8485
ator	8482
Geschmack	8473
months	8472
edi@@	8468
Methoden	8468
gem@@	8463
Portugal	8457
ves	8456
kur@@	8454
file	8453
Annahme	8449
Süden	8444
Sinn	8444
Fu@@	8436
Maschine	8434
tete	8433
ven	8428
Europe	8428
ett@@	8426
erscheinen	8424
Feld	8424
Top	8423
tiger	8422
Hauptstadt	8422
erklärte	8421
drei@@	8416
ut	8415
col@@	8412
bezeichnet	8410
Ak@@	8407
SI@@	8405
entschieden	8404
ec@@	8404
54@@	8404
Präsidenten	8403
Liefer@@	8403
Thomas	8397
bet@@	8395
Tur@@	8395
lt	8394
Bet@@	8391
Gast	8391
Fre@@	8391
Dokumente	8390
za	8388
fre@@	8384
any	8383
rechte	8382
Jedes	8381
günstigen	8378
Aussprache	8372
bezahlen	8372
Pe@@	8370
ct@@	8369
Gegend	8369
97@@	8365
sorgt	8363
seien	8361
Eis@@	8361
Auftrag	8360
übertragen	8359
bestehenden	8358
Han@@	8358
Gesamt	8357
spiel@@	8354
Reg@@	8353
Lager	8352
Safe	8347
plan@@	8344
verloren	8343
Ac@@	8341
Treffen	8336
ton	8333
ini	8332
zählen	8328
legt	8327
Paul	8327
unabhängig	8325
German	8325
natürlichen	8321
ese	8320
geschichte	8315
which	8314
meist	8311
gewählt	8308
var	8305
Tisch	8304
möglicherweise	8302
nationale	8297
tut	8294
str@@	8292
Fähigkeit	8285
viewtopic.php	8284
show	8281
110	8275
ierte	8275
ologie	8275
schutz@@	8272
lin	8271
zo@@	8269
traditionellen	8269
PO@@	8268
sal@@	8268
met@@	8264
Schweizer	8262
Madrid	8261
berücksichtigt	8257
Jahres@@	8255
Zwei	8253
Ja@@	8251
las	8247
Qualitäts@@	8245
Präsidentin	8244
Mini@@	8244
fil@@	8240
acht	8236
Zubehör	8234
53@@	8232
Leistungs@@	8228
Verkehrs@@	8211
~	8210
ents	8204
schicken	8204
l-@@	8199
Leiter	8198
fahrt	8197
Planung	8195
mer@@	8195
Fahrzeug	8195
travel	8192
Debatte	8191
ech@@	8188
Gast@@	8183
Ban@@	8180
Chance	8178
lä@@	8176
steigen	8176
Bur@@	8176
geräte	8175
kra@@	8173
tag	8172
Sterne	8171
länger	8169
Update	8168
inen	8167
Gold	8167
ara	8160
last	8158
breite	8153
bra@@	8149
Keine	8148
Industrie@@	8145
Gegensatz	8144
Cal@@	8144
Oberfläche	8144
F-@@	8143
Sc@@	8139
welt	8137
Programms	8137
anz@@	8136
Vorteil	8135
Ges@@	8134
Festival	8134
bach	8134
road	8131
beinhaltet	8128
ideale	8125
Bre@@	8123
Gästen	8123
igen	8121
Glauben	8120
Ob	8112
park	8110
starten	8106
oo@@	8106
R-@@	8101
bekannten	8101
John	8101
EU@@	8097
wo@@	8094
bildet	8091
Aufnahme	8091
möglichst	8088
get@@	8087
pu@@	8087
endlich	8083
199@@	8081
mb@@	8079
zuerst	8079
ill@@	8079
punkt	8079
cor@@	8074
haft	8069
Medi@@	8060
Internet@@	8049
5,@@	8049
dor@@	8047
früher	8045
UR@@	8042
ard@@	8040
por	8037
hotels	8036
Bro@@	8031
Cre@@	8031
Nor@@	8030
z-@@	8028
Lan@@	8026
Übersicht	8024
tur@@	8024
organisiert	8017
02@@	8017
Ansatz	8016
van	8015
Rest	8014
ns	8011
installieren	8010
wesentlich	8009
Mari@@	8009
Haben	8007
Geb@@	8004
nieder@@	8001
Via	8000
Formular	7999
just	7998
130	7997
B-@@	7993
eröffnet	7992
Umfang	7990
gerät	7990
VI@@	7988
erzeugen	7981
Standards	7980
zen@@	7978
ty	7975
I-@@	7972
Internationale	7972
Punkten	7971
Medien@@	7971
starke	7969
schönsten	7967
More	7966
aten	7965
Los	7963
Einheit	7961
nor@@	7960
Zi@@	7957
prüfen	7956
ment@@	7956
TI@@	7956
Abb	7953
dra@@	7947
US@@	7946
dr@@	7942
8,@@	7942
Plan	7940
Galerie	7940
Auffassung	7939
Objekt	7939
target	7934
Are	7932
Bücher	7922
Plan@@	7921
abgeschlossen	7917
hauptsächlich	7917
Teilen	7912
Niveau	7907
Kom@@	7905
ana@@	7904
Experten	7903
reicht	7901
fort	7901
globalen	7900
d.h.	7900
Laufe	7888
welchen	7888
zimmer	7888
ir	7887
cc@@	7884
Anschluss	7884
Dokument	7883
1992	7883
Log	7878
ated	7875
Frühstücksbuffet	7875
Mikro@@	7865
unbedingt	7863
musste	7861
Botschaft	7860
information	7860
sage	7857
XP	7857
stan@@	7854
10H	7851
Damen	7850
Juden	7850
Texas	7848
West	7848
Plattform	7846
Programm@@	7836
IP	7836
Bestätigung	7832
etz@@	7831
kontaktieren	7830
Kra@@	7829
Bus@@	7827
gruppen	7825
Pra@@	7822
Volks@@	7821
Entwicklungen	7820
Kunde	7820
hoher	7819
preis	7818
160	7817
liste	7815
best	7815
möglichen	7812
ls	7812
enti@@	7811
Ziel@@	7808
Provinz	7808
Pat@@	7808
House	7806
persönliche	7803
menschlichen	7802
Schweden	7802
ces	7798
Zahlen	7793
Informations@@	7792
dan@@	7788
sea	7784
Bank@@	7780
Tier@@	7778
Süd@@	7777
bitten	7776
Radio	7770
Kaffee	7769
ig	7764
Phase	7761
endes	7759
Ü@@	7754
wor@@	7753
Zusammen@@	7751
entsprechen	7749
losen	7748
weiteres	7742
Engagement	7740
beschäftigt	7739
Bor@@	7737
Grenze	7734
Städten	7732
AG@@	7730
Stuttgart	7725
einzigen	7724
news	7724
kat@@	7719
stärker	7715
höchste	7710
br@@	7708
ke@@	7700
Brüssel	7698
Antworten	7697
gutes	7696
ank@@	7695
image	7695
Berg	7692
Führung	7691
Rad@@	7691
C.	7690
tim@@	7685
Gericht	7679
fordern	7678
formen	7677
fahr@@	7676
Puerto	7675
fuer	7673
heraus@@	7671
erg@@	7669
Werkzeug	7669
fen@@	7668
Veröffentlichung	7662
bin@@	7660
Infos	7660
good	7654
son	7652
getroffen	7649
a.	7644
Microsoft	7642
erin	7640
fte	7639
anbieten	7638
Golf	7638
produziert	7636
wesentlichen	7635
gem	7630
dennoch	7629
interessiert	7628
rück@@	7628
Netz	7628
mel@@	7623
Sektor	7621
Berge	7620
mittel@@	7618
regionalen	7617
zugleich	7610
Untersuchung	7609
Q	7608
speziellen	7607
ON@@	7607
wohnen	7604
ella	7604
Teilnahme	7603
überzeugt	7602
danken	7599
französischen	7599
pol@@	7599
Album	7599
700	7598
profitieren	7596
Rechnung	7595
Kanada	7592
sprachen	7591
starken	7589
Modelle	7589
Parken	7589
geschehen	7586
Infrastruktur	7585
Königreich	7584
Herausforderung	7581
ders	7581
ckt	7579
Preis@@	7578
Pal@@	7577
gang	7574
been	7569
nung	7567
linken	7564
rü@@	7562
Ankunft	7560
Ungarn	7558
festgelegt	7556
niemand	7556
32@@	7554
Campingplatz	7554
gers	7552
Ausschuss	7551
zumindest	7546
eit@@	7543
lich@@	7540
skepticalscience.com	7539
EIB	7538
dung	7537
180	7537
Schwierigkeiten	7535
gewährleistet	7531
amerikanischen	7530
tik	7530
Registrierung	7530
einzelne	7527
schneller	7527
140	7526
wären	7525
net@@	7525
ron@@	7523
Johannes	7523
fähigkeit	7522
1.jpg	7522
verbringen	7520
n-@@	7520
Gemeinschafts@@	7519
IT-@@	7518
schnelle	7517
Archiv	7516
lung	7513
™	7513
dienst	7511
nachhaltige	7509
Station	7509
natürliche	7506
überprüfen	7505
anischen	7505
Altstadt	7504
Ägypten	7497
stu@@	7494
Aufgrund	7492
zieht	7492
seid	7490
Paket	7487
Pri@@	7484
Hauses	7482
Vorbereitung	7482
Anti@@	7480
bestellen	7477
Je	7476
Vereinbarung	7474
Objekte	7473
Körper@@	7465
ret@@	7463
rat	7462
f-@@	7461
verändert	7461
1993	7457
anti@@	7457
ck-@@	7457
1990	7456
www.rau-consultants.de	7451
deinen	7450
sub@@	7449
Photos	7449
J.	7447
media	7447
Dadurch	7446
Orte	7445
wirst	7443
Stock	7441
Sa	7441
zufrieden	7440
av@@	7436
enz	7434
Por@@	7434
Schloss	7434
L-@@	7433
gl@@	7429
blank	7429
stärken	7425
funktionieren	7425
richten	7423
druck@@	7423
rä@@	7422
material	7419
schla@@	7418
Reinigung	7418
Tür	7414
love	7414
ther@@	7412
us-@@	7406
fra@@	7403
rate	7401
ch-@@	7400
Bemühungen	7395
historische	7394
werk@@	7392
installiert	7390
höher	7389
SA@@	7388
ruhigen	7383
erzielt	7382
Super@@	7376
erklären	7375
Shop	7375
bild@@	7372
reservieren	7372
Öl	7369
pat@@	7368
User	7368
Presse	7366
ziemlich	7365
schaften	7365
Elektro@@	7365
notwendigen	7363
erfolgen	7356
Hoffnung	7355
Theater	7354
sterne	7353
nutzt	7350
Hel@@	7348
Status	7342
erungen	7340
Can@@	7337
Eigen@@	7334
bequem	7334
Förder@@	7331
Bon@@	7327
berühmten	7326
tiven	7322
wagen	7321
fl@@	7318
Kan@@	7317
bal@@	7317
ev@@	7317
bro@@	7316
index	7315
begrüßt	7311
Gestaltung	7311
willkommen	7308
Mil@@	7307
leistung	7302
Innen	7302
Kriterien	7301
Zahn@@	7298
Banken	7296
Hal@@	7295
ol	7290
beschlossen	7289
Dra@@	7289
Player	7289
brachte	7283
wirken	7281
betrachtet	7279
Instrumente	7279
Live	7278
erinnern	7277
Revolution	7277
Charakter	7272
Internationalen	7270
MA@@	7270
entstanden	7269
Arbeit@@	7266
rin@@	7266
Begriff	7263
FI@@	7262
Datenbank	7261
Gesundheits@@	7261
tre@@	7259
Mer@@	7257
kurze	7255
Westen	7255
eins	7255
mor@@	7253
Impressum	7253
relativ	7248
ersch@@	7246
Einstellungen	7246
Cu@@	7241
pe	7241
Straßen	7238
Op@@	7236
Verarbeitung	7235
italienischen	7230
Firmen	7224
größeren	7224
Grenz@@	7222
Tabelle	7221
Met@@	7219
ener	7214
Verständnis	7211
Fil@@	7210
wasser@@	7203
Pflanzen	7203
Fahrt	7203
vorher	7202
Jerusalem	7202
hel@@	7202
Aufzug	7202
there	7200
my@@	7199
vorgesehen	7197
schlagen	7196
erhielt	7195
Verwaltungs@@	7192
DER	7191
Haustiere	7189
Halle	7188
schi@@	7187
zählt	7182
Studien	7182
ge-@@	7180
daraus	7178
Schatz	7176
gezogen	7174
höchsten	7173
nen@@	7173
CDATA	7173
Unterschied	7172
Schwerpunkt	7170
Ordnung	7170
Zugriff	7168
tem@@	7166
Hi@@	7166
gn@@	7164
stri@@	7163
eignet	7162
BI@@	7161
ergibt	7158
wal@@	7158
bri@@	7157
gestalten	7154
LO@@	7154
lieben	7153
karte	7153
han@@	7152
Texte	7151
Kauf@@	7148
Char@@	7144
sichern	7143
Stiftung	7143
ort@@	7142
tiv@@	7141
Schönheit	7141
werdet	7139
were	7137
Ter@@	7136
Kann	7135
well	7134
Geld@@	7134
abhängig	7132
AB@@	7130
elles	7130
Fr	7130
Sk@@	7126
Mehr@@	7125
My@@	7125
Transport@@	7124
stoffen	7123
Games	7118
fort@@	7117
tags	7116
ches	7114
Willkommen	7113
zugänglich	7112
Gründung	7109
Sol@@	7106
bb@@	7103
gespeichert	7102
At@@	7096
gene	7095
einiger	7090
ona	7090
nötig	7088
Lassen	7087
Recht@@	7086
Pro	7086
Free	7083
ierten	7081
Instrument	7078
kulturellen	7077
bilder	7074
Tages	7070
100@@	7069
data	7067
Amsterdam	7065
Dollar	7061
trans@@	7054
Firmen@@	7051
67@@	7050
werte	7047
ingen	7046
England	7045
morgen	7044
fordert	7042
Bett	7039
einfachen	7038
cal	7038
Spa	7037
ding	7031
hen	7028
entsteht	7024
Sind	7023
Grand	7023
Blut	7021
ften	7019
Beispiele	7017
Gebrauch	7016
Autos	7016
dri@@	7015
Blog	7015
Anerkennung	7011
Verbindungen	7010
fertig	7009
Pan@@	7006
V-@@	7002
Bil@@	7001
barer	7000
Glück	7000
beteiligt	6998
â	6998
.dll	6994
Gol@@	6992
ET@@	6989
ll	6989
Bri@@	6989
stoff@@	6988
Meeres@@	6985
Dor@@	6978
neuesten	6975
Bildern	6973
serviert	6973
stern	6971
umgeben	6969
positive	6964
Teil@@	6961
reise	6959
Lager@@	6957
Jede	6957
ink@@	6954
Wer@@	6954
cat@@	6954
13.@@	6952
31st	6952
verkehr	6950
mehr@@	6948
Pla@@	6948
Klima	6947
ak	6945
nahmen	6944
Noch	6944
Beziehung	6941
digen	6936
Feuer	6936
Pf@@	6934
deiner	6932
bahn	6928
tischer	6924
search	6924
erzeugt	6923
Boden@@	6922
jährlich	6920
Freunden	6918
beg@@	6916
Hor@@	6913
erungs@@	6910
prä@@	6910
Risiko	6909
National	6908
frage	6907
3D	6907
Büro	6906
ban@@	6906
Ereignisse	6905
Gipfel	6905
Strom	6905
Zwischen@@	6897
Glas@@	6896
europäischer	6891
Hol@@	6888
Austausch	6887
Werbung	6887
Fleisch	6887
pen@@	6883
unver@@	6883
Sommer@@	6882
Alt@@	6881
e.htm	6881
hängt	6879
X-@@	6878
Properties	6878
i-@@	6874
einzigartige	6871
ally	6870
siert	6869
Spielen	6868
verfolgen	6866
Fe@@	6864
Euro@@	6863
Irland	6862
zug	6862
350	6857
kla@@	6856
bur@@	6850
xi@@	6847
Studenten	6846
Zimmer@@	6845
Ohne	6844
Schlüssel@@	6844
Filme	6843
Je@@	6840
Edition	6840
ausdrücklich	6838
Tal	6833
wissenschaftlichen	6830
ele@@	6830
ehemaligen	6829
che@@	6829
Günstige	6827
Fer@@	6826
Hände	6822
1991	6819
Gehminuten	6816
Effizienz	6815
Zug	6815
Ost@@	6815
ek	6814
umgesetzt	6813
Partnerschaft	6812
erweitert	6812
tung	6811
sicherzustellen	6810
Projekten	6809
š@@	6809
stat@@	6806
leitung	6804
verschiedener	6803
Diesen	6801
e.com	6800
Leitung	6799
nennen	6797
Ausführung	6797
Worten	6795
O-@@	6793
gegangen	6791
Events	6789
Jugend@@	6788
tic@@	6788
tat	6787
Previous1	6787
wiederum	6786
ane	6785
mitten	6785
î@@	6785
only	6782
schw@@	6781
alität	6779
Danach	6779
alisierung	6777
Richtlinien	6774
reden	6770
apartment	6770
Ausflüge	6769
Og	6769
Gebieten	6768
.48	6768
Email	6767
stre@@	6763
Test	6763
absolut	6762
scht	6760
wachsen	6759
Düsseldorf	6758
Stand@@	6757
sol@@	6757
Ci@@	6755
Rock	6754
forschung	6752
Studium	6752
bt	6751
garantieren	6750
Kapazität	6749
EL	6745
zentralen	6742
dagegen	6742
Voraussetzungen	6741
ergeben	6739
ßen	6737
ISO	6736
Blut@@	6735
ly@@	6735
Vielen	6734
Ei@@	6734
Schüler	6733
mes	6730
Nr.@@	6730
mögliche	6729
bildung	6729
ED@@	6728
Abendessen	6726
great	6725
erstmals	6723
angebot	6722
band	6721
Schiff	6719
definiert	6718
zog	6718
Überblick	6717
Pass@@	6717
holen	6716
Verschiedene	6716
soweit	6713
cre@@	6711
Versandkosten	6711
begonnen	6709
int	6708
basiert	6706
erwähnt	6704
don	6703
Kosten@@	6701
TO@@	6701
Verpflichtungen	6700
Kooperation	6699
entfernen	6699
solcher	6698
kurzen	6698
Fra@@	6698
86@@	6693
Sen@@	6691
Amerika	6689
eingeführt	6685
produktion	6685
SCH@@	6684
Motor@@	6683
app@@	6677
fehlt	6675
ok@@	6675
Geschäft	6673
National@@	6671
Wand@@	6670
Stabilität	6670
tierte	6669
back	6668
Kraft@@	6667
leg@@	6666
ce-@@	6666
ang@@	6663
64@@	6663
linie	6662
systeme	6660
perfekte	6659
Flexibilität	6656
bericht	6656
darstellt	6655
2020	6655
ett	6654
Poker	6652
Kauf	6651
Bestandteil	6650
Geschäfte	6649
Sitz@@	6644
besitzen	6641
nis	6637
Zustimmung	6632
JPG	6630
schwierig	6629
halte	6628
Fluss	6628
gli@@	6625
Transparenz	6624
product	6623
schauen	6620
Brasilien	6620
SO@@	6618
sobald	6617
ess	6617
gesellschaft	6615
ris@@	6615
Source	6614
nis@@	6612
Priester	6611
Zusätzlich	6609
beziehen	6609
angesichts	6608
rein	6606
vorbei	6606
or-@@	6605
Antrag	6604
en-	6602
handeln	6602
fli@@	6601
ck.php	6600
Wird	6599
gingen	6599
les@@	6598
AP@@	6596
Rede	6595
Regelung	6589
persönlich	6587
wirtschaft	6587
Empfehlungen	6587
höhere	6587
Französisch	6586
Sand@@	6585
Abschnitt	6585
zt	6584
Fähigkeiten	6581
medi@@	6579
DA@@	6578
internationaler	6573
tiges	6571
tal	6571
d.@@	6570
×	6570
erinnert	6568
20-@@	6567
sucht	6562
ise	6561
standen	6559
Lie@@	6559
Wind@@	6559
rit@@	6558
Solar@@	6556
Tochter	6554
G-@@	6553
eiten	6553
sieren	6552
hol@@	6552
amp@@	6551
mmen	6550
Hau@@	6550
Back@@	6550
alo@@	6550
Aktion	6549
Kamera	6547
schriftlich	6546
Einstellung	6543
sicherlich	6541
Kommentar	6540
Überwachung	6534
bil@@	6532
Wald	6532
what	6529
Problemen	6528
ausgezeichnet	6527
lungs@@	6526
führer	6526
MO@@	6526
bestätigen	6525
Energien	6524
Gleichzeitig	6522
wesen	6521
Gründe	6520
Kein	6517
free	6513
leichte	6513
gefallen	6512
á	6509
Drei@@	6507
cal@@	6504
79@@	6501
Zahlungs@@	6495
wirkt	6492
Niederlande	6488
Leider	6487
uss@@	6483
,@@	6483
Völker	6480
seite	6472
wider@@	6471
RI@@	6467
Do	6466
Views	6465
Rechtsvorschriften	6460
Wesen	6460
Strecke	6460
Training	6460
Ware	6457
Star@@	6456
1989	6456
achten	6454
Kurz@@	6454
liefert	6452
Fern@@	6449
öffnet	6447
lat@@	6447
gewonnen	6444
Statistik	6444
mischen	6443
Appartement	6443
Track	6440
Beteiligung	6439
Tages@@	6436
Support	6434
Prinzip	6432
Debian	6432
Kl@@	6431
flo@@	6430
verbinden	6428
Marken	6427
R.	6427
umfassende	6426
weist	6426
stand@@	6425
hoffen	6424
mas	6422
Rund@@	6418
Robert	6417
erter	6415
esi@@	6413
CH	6403
geplant	6399
bus	6398
Trotz	6395
Schlüssel	6395
ñ@@	6395
extrem	6391
votes	6391
Sub@@	6389
beschrieben	6386
Schulen	6386
zusätzlichen	6385
Multi@@	6383
wichtigste	6383
gesprochen	6381
tier@@	6380
Des@@	6379
Verhalten	6378
dritte	6377
entwickelte	6375
Kalifornien	6375
verkauft	6371
GB	6371
Berichte	6367
Nov@@	6367
Kategorien	6365
innovative	6365
elte	6364
größer	6364
Söhne	6364
Darstellung	6362
vollständige	6360
The@@	6359
Bürger@@	6358
ation@@	6353
Not@@	6352
ßt	6350
Stu@@	6350
dy	6350
Show	6349
gebiete	6348
kleines	6348
Risiken	6346
Pension	6345
keiner	6344
wasser	6344
hab@@	6344
Nieder@@	6342
ON	6340
S.@@	6340
Downloads	6340
Dreh@@	6339
Krankheit	6339
ier	6337
Anpassung	6336
Gerichtshof	6333
UNG	6328
Nehmen	6327
Australien	6327
69@@	6325
ada	6323
stimmen	6322
hinzu	6319
übrigen	6318
offenen	6318
gespielt	6318
m.	6317
optimale	6316
Erwachsene	6316
Prozesse	6313
bre@@	6313
tis	6311
w-@@	6311
maschine	6311
selbst@@	6308
Initiativen	6307
stattfinden	6304
Realität	6303
eng	6299
fel@@	6299
une	6298
chtung	6297
ungss@@	6295
vol@@	6293
1x@@	6293
ic	6292
spezifischen	6291
erzielen	6290
liebe	6290
geschieht	6290
besucht	6287
sierung	6286
Allgemeine	6286
anschließend	6284
Open	6284
Einklang	6283
ola	6283
deutsch	6282
sor@@	6277
angegeben	6277
house	6277
Vertrags@@	6276
EG	6274
avw.php	6274
select	6272
Hinsicht	6271
Besonders	6271
Insgesamt	6270
EI@@	6269
kor@@	6268
Stra@@	6266
iPhone	6265
betrachten	6264
Fo@@	6263
Ausschusses	6260
Lau@@	6260
bs	6260
dargestellt	6259
en.htm	6258
ähnlich	6255
h-@@	6255
erfordert	6250
Hin@@	6250
Netz@@	6249
box	6248
Häuser	6246
mini@@	6240
ationen	6240
App@@	6237
Nu@@	6237
nt	6236
Berliner	6236
Rennen	6236
aktualisiert	6235
id@@	6230
lebens@@	6230
Dem	6229
empfangen	6229
Bade@@	6228
ot	6226
let@@	6226
ats	6224
setzte	6223
Les@@	6223
auss@@	6221
ire	6220
chs	6219
trifft	6217
Street	6217
verlieren	6215
NA@@	6214
Grad	6212
Gerechtigkeit	6209
mitteln	6208
zoneid	6204
Spitze	6202
wish	6202
dringend	6201
leiden	6201
click	6200
Motor	6199
89@@	6196
day	6193
.c@@	6193
Märkte	6192
rechtlichen	6190
Umsatz	6190
Selbst	6189
Bahn@@	6187
za@@	6187
reduziert	6185
freundlich	6185
höheren	6183
W-@@	6182
We@@	6180
ierung	6179
work	6178
Strom@@	6175
ction	6175
www.regiolab.info	6175
Steuerung	6173
leiter	6170
schließt	6170
EG@@	6169
Asien	6166
Star	6166
informiert	6165
Herbst	6164
Del@@	6163
gsten	6162
nummer	6162
Websites	6161
qualität	6160
nde	6155
Copyright	6155
verfolgt	6154
bad	6153
port@@	6153
Cookies	6152
Reform	6151
gungen	6150
ast@@	6150
era	6150
aren	6149
zeichen	6148
yo@@	6147
bestand	6143
teilnehmen	6142
Mittelpunkt	6141
stoff	6139
val@@	6138
articles	6138
Prozess@@	6136
Dokumentation	6133
fan@@	6133
Straßen@@	6132
code	6131
Etage	6129
auswählen	6128
ses	6124
Badewanne	6124
stor@@	6123
o.@@	6119
Verlag	6115
dienste	6114
Schließlich	6113
cia	6112
Mitarbeitern	6110
ments	6109
deinem	6109
nice	6108
welt@@	6107
Saison	6107
welchem	6105
Schäden	6104
off@@	6104
genauso	6103
füllen	6103
westlichen	6102
Publikum	6100
Gal@@	6099
Konto	6098
selbstverständlich	6097
Air	6093
1,5	6092
führende	6091
Ferien@@	6091
einander	6085
schätzen	6080
teile	6080
ance	6079
einrichtungen	6074
Ansprüche	6074
sport	6073
Nachfrage	6071
Mc@@	6070
tritt	6069
produ@@	6068
erforderlichen	6068
ele	6068
Aktionen	6066
Allgemeinen	6064
alt@@	6062
Tre@@	6062
Öl@@	6061
hourly	6061
87@@	6059
positiv	6056
spar@@	6056
Entwurf	6051
nahme	6050
Quartal	6050
darstellen	6048
transparent	6047
Ausgangspunkt	6044
betont	6044
Papier	6043
Zeitungen	6043
Ausgaben	6043
nes	6042
ations@@	6041
Rat@@	6041
näher	6040
å@@	6039
breakfast	6035
durchaus	6034
behalten	6034
tter	6034
design	6034
gesp@@	6033
sammeln	6032
por@@	6030
Sil@@	6030
Â	6029
ordnung	6028
Detail	6028
Car	6028
sämtliche	6027
tal@@	6027
Auge	6026
à@@	6024
BO@@	6022
Gerichte	6019
kulturelle	6019
Wirklichkeit	6018
Arbeitnehmer	6017
wa	6016
ausreichend	6014
IP@@	6014
wordpress.org	6013
individuelle	6012
und-@@	6012
verbindet	6011
lokale	6009
unmittelbar	6008
sofern	6007
läßt	6005
³	6004
Rot@@	6003
Venedig	5998
III	5996
integriert	5995
Schon	5995
South	5995
Wald@@	5993
präsentieren	5992
gewicht	5992
laut	5990
ör@@	5986
eter	5986
d.	5985
Glas	5985
jener	5984
tik@@	5983
Tool	5982
Anstrengungen	5981
ski	5980
Linien	5979
Arbeitsplätze	5978
Hof	5976
kal@@	5975
ersetzt	5974
ay@@	5972
haus@@	5970
zahl	5968
Einhaltung	5967
wann	5967
Internet-@@	5966
maximal	5963
unterschiedlich	5962
praktisch	5961
ble	5960
seh@@	5956
Wettbewerbsfähigkeit	5955
individuell	5954
alter	5952
true	5951
Administrador	5951
Armut	5950
Sin@@	5950
Aktuelle	5950
Inserido	5950
legte	5949
Vielleicht	5946
Landes@@	5945
set	5945
Photo	5942
herum	5938
Erstellung	5931
Weiter	5931
selten	5930
Prag	5930
cur@@	5929
etten	5928
stammt	5927
Umgang	5925
li	5924
danke	5922
start	5922
breiten	5921
Kalender	5918
120@@	5917
schlag	5916
Wil@@	5916
Vereinten	5915
CD@@	5915
press@@	5913
Best	5912
niemals	5911
Fal@@	5910
bek@@	5908
Gesch@@	5908
wollten	5902
individuellen	5901
sodass	5901
Stahl@@	5900
systems	5900
uren	5898
Mond	5895
Fri@@	5895
Sach@@	5892
untersucht	5891
selber	5891
Unknown	5888
fach@@	5886
plan	5886
schen@@	5885
Newsletter	5884
Lauf@@	5883
Zentral@@	5881
trat	5881
Parkplätze	5881
Port	5879
ena	5879
wiki	5879
Sachen	5878
arbeitete	5876
cy	5876
Nichtraucherzimmer	5876
Abgeordneten	5873
räume	5871
don@@	5871
Standpunkt	5870
tierten	5869
nahezu	5869
dorf	5868
Rückkehr	5867
teil@@	5865
blieb	5865
glich	5861
haften	5860
elli@@	5859
nden	5858
mmer	5858
konzentrieren	5854
Vision	5850
Menü	5850
Sar@@	5849
Metall@@	5849
city	5847
strategie	5846
finanziellen	5846
regionale	5845
Gei@@	5845
wir@@	5844
sta	5844
Faktoren	5838
trotzdem	5837
Wo@@	5836
Professor	5836
E-mail	5835
Flu@@	5835
Tru@@	5835
Stellungnahme	5833
chtet	5833
ter-@@	5833
wodurch	5831
110@@	5826
Ph@@	5826
2.jpg	5823
Inn	5823
Vista	5822
langsam	5821
tz	5820
Leit@@	5819
Fl@@	5819
21@@	5818
Einen	5817
cken@@	5817
EF@@	5817
Sel@@	5816
et-@@	5816
Konditionen	5815
Satz	5813
Parameter	5813
Genießen	5813
Gebiete	5811
gre@@	5811
schwarz	5811
115	5810
tungen	5807
verändern	5807
Stärkung	5805
Südafrika	5803
10,@@	5802
Fla@@	5800
AL	5800
TR@@	5799
heiligen	5798
65@@	5797
übernimmt	5795
Zeitschrift	5795
Life	5794
ley	5793
Eindruck	5790
elektronische	5789
interessante	5788
Stimmen	5787
Son@@	5786
berücksichtigen	5785
user	5785
Studien@@	5782
traditionelle	5781
wan@@	5779
Ap@@	5777
ds@@	5775
mische	5775
eindeutig	5773
Beide	5773
Fahrzeuge	5770
eng@@	5768
ausgeführt	5767
Kabel	5767
Fisch@@	5766
75@@	5766
Quellen	5761
spezifische	5760
wen@@	5759
flu@@	5756
bereiche	5755
Herz@@	5755
ins@@	5755
place	5754
Klima@@	5752
125	5752
Besch@@	5749
level	5749
sport@@	5748
ri	5746
Gesicht	5745
sichere	5744
Abteilung	5744
deten	5744
make	5744
rot	5743
comp@@	5743
a.com	5743
dig	5742
passiert	5741
jahr	5741
verstärkt	5740
Personal@@	5738
weltweiten	5738
Bru@@	5738
sollst	5738
werfen	5737
SS@@	5737
ties	5736
inzwischen	5735
größe	5734
stehenden	5733
list	5732
Weiter@@	5731
Burg	5731
euer	5730
Hinter@@	5729
äu@@	5729
Versionen	5728
IN	5727
Boote	5725
Zusatz@@	5723
Bibliothek	5722
Element	5721
mt	5719
post@@	5719
weite	5717
Gegenstand	5717
bern	5717
Mitgliedern	5713
There	5713
arb@@	5712
Agentur	5711
mati@@	5711
HD	5710
Zweifel	5709
If	5707
ktionen	5705
asi@@	5705
sichtbar	5701
Religion	5699
‚	5698
Sy@@	5697
kennt	5697
klare	5696
Wohl@@	5693
ße	5692
passt	5692
zeigte	5691
Bruder	5691
inger	5691
Reaktion	5689
Km	5689
els@@	5688
errichtet	5688
App	5687
Verfasst	5687
vieles	5680
tungs@@	5678
frühen	5677
Haltung	5674
russischen	5674
staatlichen	5673
klein	5672
person@@	5672
Mose	5672
echte	5671
Fahrer	5671
Fernseh@@	5664
Abbildung	5664
stes	5663
zeichnet	5663
gewünschte	5661
schafts@@	5658
anhand	5657
Museen	5656
bestimmen	5655
Tätigkeiten	5649
CA@@	5648
NO@@	5647
sh	5647
Gri@@	5645
stück	5644
Lehrer	5644
schrieb	5644
aller@@	5643
angepasst	5643
netz	5642
Berichterstatter	5641
gens	5641
ah	5641
wunderschönen	5641
fern	5640
verursacht	5639
ruhig	5639
p-@@	5639
home	5637
some	5637
plus	5635
Spanisch	5635
.cz	5634
klassischen	5633
can@@	5633
Info	5633
brechen	5632
Schiffe	5629
Tau@@	5627
hielt	5627
gaben	5627
Werbe@@	5627
Beach	5627
Flash	5627
Spezial@@	5626
›	5626
Flo@@	5622
TE	5621
gelassen	5620
Such@@	5620
No	5620
Neben@@	5619
Alternative	5615
Is@@	5615
400@@	5615
Tran@@	5614
Luxemburg	5613
AT	5611
Teams	5609
Add	5608
werke	5607
Kapital@@	5603
General	5603
buch	5599
Israels	5599
ausgewählt	5599
Systemen	5598
Private	5598
Christi	5598
Versuch	5597
grosse	5597
Geschäftsführer	5596
Raum@@	5594
Gas@@	5594
dachte	5592
year	5592
Einwohner	5591
hundert	5590
Pop@@	5589
Cer@@	5587
Gr@@	5586
Nacht@@	5585
Mo	5585
ungsprozess	5581
plat@@	5579
HO@@	5578
akzeptiert	5577
Cat@@	5576
Island	5574
Kammer	5574
einzigartigen	5573
ward	5573
ursprünglichen	5572
mil@@	5571
Mitgliedstaat	5570
Site	5567
besseren	5566
Reich	5566
vorgestellt	5566
2.0	5564
erheblich	5563
Touristen	5562
Mac	5562
A-0@@	5561
ville	5560
bezieht	5558
erst@@	5557
Vertrieb	5556
Viertel	5555
preise	5555
Kirchen	5554
Krankheiten	5554
DS@@	5554
dauer	5553
Di	5551
html	5551
dungs@@	5550
Facebook	5550
übernommen	5548
Verzeichnis	5548
normalen	5546
hochwertige	5546
dischen	5545
fähig	5545
Darum	5545
Menschheit	5543
h.	5541
array	5541
Lebensmittel	5540
SE	5539
Branche	5538
Wegen	5538
menschliche	5537
Ren@@	5536
Rumänien	5536
komplette	5536
Erhöhung	5534
sur@@	5534
jährigen	5532
ware	5528
-und	5526
Beg@@	5525
Finnland	5525
geliefert	5525
geschickt	5524
Start@@	5524
Partner@@	5523
rufen	5522
kontrolle	5521
informationen	5520
H.	5516
Seiten@@	5516
Marina	5516
vorgeschlagen	5515
Nutz@@	5515
Vorhaben	5514
Spar@@	5510
einfacher	5510
dia	5510
12,@@	5508
finde	5507
verwaltung	5507
diert	5506
laufenden	5505
Ausrüstung	5505
wald	5505
Wahlen	5504
verk@@	5503
Fälle	5503
finanzielle	5502
wider	5501
direkten	5499
Kriegs@@	5498
pdf	5498
tiv	5497
reiche	5497
Board	5494
hPa	5494
gestaltet	5493
Berücksichtigung	5492
verhalten	5492
ata	5492
Iran	5491
fonds	5490
Literaturang	5490
Lebensmittel@@	5489
Kontroll@@	5489
mar	5488
gewidmet	5486
post	5486
web	5486
Unterschiede	5484
akzeptieren	5483
wissenschaftliche	5483
Autovermietung	5481
Kol@@	5480
Dat@@	5479
lauf@@	5478
Präsentation	5475
sei@@	5475
film	5474
früheren	5473
Mitteln	5473
dd@@	5472
schule	5471
Schreiben	5470
kli@@	5468
nu@@	5467
Erd@@	5467
Dar@@	5465
gerichtet	5464
Schwer@@	5464
Nicht@@	5463
lösungen	5463
Brand@@	5463
SEO	5463
ssystem	5461
Fahren	5459
Centre	5459
Mission	5458
Don@@	5457
festgestellt	5456
Rezeption	5456
Bergen	5455
tten	5454
erreichbar	5453
vel@@	5452
wechsel	5446
richtet	5446
garten	5444
ungssystem	5442
sion@@	5442
Willen	5441
Mur@@	5440
schau@@	5439
ferner	5437
bor@@	5437
nisse	5434
Überprüfung	5431
wahr	5431
Absatz	5430
gefördert	5430
Lissabon	5430
hervor	5426
sar@@	5426
Partnern	5424
ws	5424
Bars	5424
¬	5424
ktions@@	5423
Deinen	5423
Casino	5422
begleitet	5421
Red	5421
Cam@@	5420
Ferienhäuser	5420
schafft	5419
Forderungen	5417
ey	5412
they	5411
MS	5410
allgemein	5407
Wochenende	5407
Ausbau	5405
Route	5404
erenden	5403
Music	5403
oll@@	5401
stein@@	5401
Las	5398
bit	5396
star@@	5394
Geboren	5390
Ausnahme	5389
Garten@@	5389
ht@@	5387
ity	5387
einsetzen	5386
ht	5386
pass@@	5386
struktur	5384
center	5384
EPA	5383
ath@@	5382
world	5381
keinerlei	5380
Gut	5379
Dennoch	5377
Kli@@	5377
BEST	5377
betrieben	5375
b-@@	5374
geprüft	5370
spe@@	5369
unterkünfte	5369
AS	5368
Danke	5367
jährige	5366
geübt	5366
Strategien	5365
endet	5365
Umfeld	5365
Büros	5364
vorgelegt	5363
Ant@@	5362
dert	5361
Arzt	5357
Ferienhaus	5357
Ebenen	5354
Euch	5354
Regen@@	5354
genen	5353
Sobald	5353
schreibt	5352
42@@	5352
test	5352
hy@@	5351
normalerweise	5350
GNU	5350
bit@@	5349
haltung	5345
Hannover	5342
verfügbaren	5341
Protokoll	5340
vers@@	5338
entgegen@@	5337
Mol@@	5337
Sitzung	5336
Stein	5336
qm	5336
Veröffentlicht	5336
Prüf@@	5334
ähnliche	5334
Garantie	5333
â@@	5333
bestehend	5333
fon@@	5332
öl@@	5332
gelöst	5332
VER@@	5332
häuser	5331
Mel@@	5328
Sur@@	5326
Achtung	5325
null	5325
umfassenden	5324
ug@@	5323
part@@	5322
ursprünglich	5321
cer@@	5319
grossen	5319
Kolleginnen	5317
Zwei@@	5315
Medizin	5313
900	5310
Res@@	5310
Anreise	5310
Verkehr@@	5309
schlägt	5309
funktion	5309
als@@	5309
Christen	5307
Bereitstellung	5305
kostenlosen	5305
sche@@	5305
Lern@@	5302
Bearbeitung	5300
Far@@	5299
Fran@@	5299
könnt	5299
Programmen	5298
Voraussetzung	5298
person	5297
bekommt	5294
lü@@	5294
pt@@	5294
kre@@	5292
Arbeiter	5292
Den@@	5291
Räume	5290
Ausstellungen	5290
Hochschule	5290
Rico	5290
Computer@@	5289
Brüder	5289
Porto	5288
enn@@	5288
c.@@	5287
Engel	5284
450	5284
angesehen	5283
medizinische	5282
105	5281
encounter	5280
sterben	5279
Wel@@	5278
zy@@	5278
bli@@	5277
offene	5276
erfolgreiche	5276
their	5275
Nr.8@@	5275
um-@@	5274
Wann	5274
Augen@@	5274
Verb@@	5273
gelesen	5269
ständige	5266
Schwimmbad	5265
entdeckt	5263
höhe	5262
betreffenden	5261
www.qlyque.com	5261
big	5260
11,@@	5260
Zwecke	5259
ama	5258
se-@@	5258
vorliegenden	5257
zunehmend	5257
hinzugefügt	5257
zieren	5254
flächen	5254
Eigentum	5253
Tipps	5253
kin@@	5250
organisieren	5249
tief	5249
zig	5248
č@@	5246
positiven	5242
Weil	5242
selben	5241
14.@@	5241
Sicherheit@@	5239
reduzieren	5239
inner@@	5238
vollkommen	5237
Veränderung	5236
ou@@	5235
Treiber	5235
www.amarillas@@	5235
sam@@	5234
amen	5232
Kuba	5230
bekannte	5229
gearbeitet	5228
herzlich	5226
entwickelten	5226
aktive	5226
Solidarität	5224
ung-@@	5224
geln	5223
Fonds	5222
werten	5221
natur@@	5218
är	5217
hor@@	5215
Mallorca	5214
DO@@	5213
Sor@@	5211
total	5211
staatliche	5210
52@@	5209
ausgestattete	5208
Casa	5208
Gesellschaften	5205
Industri@@	5205
Profil	5204
tic	5204
getragen	5203
Net@@	5203
aktiviert	5203
Fuß@@	5203
entstand	5202
Ton	5201
kostet	5200
Ag@@	5198
rie@@	5198
aufgebaut	5197
falsch	5196
hinzufügen	5196
fanden	5196
find	5196
beobachten	5195
Anwender	5195
Technische	5194
based	5194
entspannen	5194
Mindest@@	5193
betrieb	5193
UK	5193
Berufs@@	5192
Mischung	5191
con	5191
anische	5188
lö@@	5188
Haftung	5187
tran@@	5186
Sä@@	5186
bewegt	5185
pra@@	5185
IS	5183
lieren	5182
Reformen	5178
Vorstellung	5177
decken	5176
chinesischen	5174
Lehre	5173
Stellung	5172
Runde	5172
Projekts	5171
sicherheit	5170
gratis	5170
EB@@	5170
Brief	5169
Verbreitung	5168
Bosch	5168
ologische	5165
Ansprechpartner	5165
00-@@	5163
1.0@@	5163
video	5162
SU@@	5161
Poly@@	5161
fälle	5160
open	5160
Comments	5160
Schnittstelle	5159
ertes	5158
berechtigt	5157
Hinweise	5156
Wander@@	5156
Event	5156
sicheren	5155
UT@@	5155
Schaden	5153
Kontakte	5153
Brücke	5153
Renn@@	5153
Interview	5151
Anzeigen	5151
Freizeit@@	5151
erkannt	5150
Original@@	5150
I.	5150
Budapest	5150
had	5150
gefragt	5149
vorbereitet	5148
Symbol	5148
neun	5148
Inc	5148
download	5147
lungen	5145
Zahlung	5145
Brot	5145
AU@@	5143
schul@@	5142
Basel	5142
fs	5141
Erholung	5141
Tagung	5139
America	5139
nachhaltigen	5136
ks@@	5135
where	5134
Dimension	5133
Kräfte	5133
berechnet	5133
zuständig	5131
under	5131
ello	5131
360	5130
oberen	5129
äl@@	5129
smus	5127
erische	5127
vorstellen	5124
region	5123
Rö@@	5123
Body	5123
versi@@	5122
Sie@@	5121
Binnenmarkt	5119
ine@@	5118
AN	5118
Air@@	5118
Eintrag	5118
would	5118
Mi	5118
ist@@	5117
Waschmaschine	5116
aufnehmen	5114
Prin@@	5114
Tempel	5112
hafte	5111
dro@@	5110
LE	5110
Trans@@	5109
falsche	5109
ee	5109
punkte	5108
begrüßen	5107
konkrete	5107
who	5107
Dänemark	5105
geschäft	5105
24-Stunden-Rezeption	5105
Bl@@	5104
Vier@@	5103
ative	5101
Ess@@	5101
Montage	5101
kosten@@	5100
ischer	5098
Dach@@	5098
heißen	5096
Ker@@	5096
Chancen	5093
kämpfen	5092
Geben	5092
K-@@	5091
II.	5091
Men@@	5091
Hat	5089
Erst@@	5089
Christian	5089
í	5088
Vol@@	5085
dauert	5084
zahl@@	5083
eingestellt	5082
occasione	5081
Gleich@@	5080
Then	5080
dige	5079
erfolgreichen	5077
optimal	5077
ID@@	5077
SPIEL	5076
globale	5075
leichter	5074
Durchmesser	5072
Bulgarien	5071
want	5071
WESTERN	5071
vorbehalten	5070
Polizei	5070
zur@@	5070
tei@@	5070
Resort	5070
leistungen	5069
Brise	5067
Definition	5064
Irak	5064
Jesu	5064
nationaler	5063
fla@@	5063
14,@@	5063
Luftfeuchtigkeit	5063
Ebenso	5062
Erwartungen	5062
anten	5058
MP3	5058
94@@	5058
Vereinigte	5057
Maß	5057
eigener	5055
Bucht	5054
nern	5053
freundliche	5052
offensichtlich	5049
.12.@@	5046
aktiven	5045
chts@@	5044
Gehen	5044
schu@@	5043
gkeit	5043
Südtirol	5043
bereichen	5042
tten@@	5040
Stärke	5036
Bereits	5035
Waffen	5035
hilfe	5034
stag	5034
Wiener	5033
Gesetze	5032
Wünsche	5032
Schlaf@@	5032
Verlust	5031
Kulturen	5031
berichtet	5030
museum	5029
ergänzt	5028
Patent	5027
On@@	5027
RE	5026
karten	5023
lan	5022
Grün@@	5021
derselben	5020
format	5020
dete	5019
rö@@	5019
MI@@	5016
ci	5015
One	5015
vis@@	5013
Tanz@@	5013
außen	5012
lauf	5011
elten	5011
Gre@@	5011
Jahr@@	5010
Pin@@	5010
ktes	5007
ante	5007
Backofen	5007
Kontakt@@	5006
Mus@@	5003
erleichtern	5002
theit	5001
direkte	5001
kostenloses	5000
Absicht	4999
Besuchen	4998
lösung	4996
Bürgern	4995
ktion@@	4995
produzieren	4994
Militär@@	4993
Bauernhof	4993
mussten	4993
Foto@@	4993
hervorragende	4992
Kontext	4991
dy@@	4991
sexy	4990
nicht@@	4989
to-@@	4987
first	4987
Meister	4985
oc@@	4985
300@@	4984
Entschließung	4983
Gebet	4983
Beschluss	4983
schlecht	4981
Roll@@	4980
Armee	4978
organisation	4978
Händen	4978
ement	4978
Br@@	4978
.....	4976
unterwegs	4976
30th	4976
Konstruktion	4975
Webseiten	4975
anz	4974
Patent@@	4974
s.	4974
spro@@	4973
Ganz	4971
interessant	4971
messen	4970
festen	4969
Spe@@	4969
fol@@	4969
iger	4968
stieg	4966
ländlichen	4965
а@@	4965
ktoren	4964
chter@@	4964
American	4963
Kritik	4960
Erste	4960
Immobilien	4955
Text@@	4954
Tor	4953
linien	4949
Wissenschaftler	4948
Gute	4947
si	4947
Eröffnung	4946
fiel	4946
1988	4944
eten	4941
Auflösung	4941
1945	4940
durchführen	4939
Speisen	4939
Besitz	4938
los@@	4937
kürzlich	4936
ads	4936
Verpflichtung	4935
Ambiente	4935
Änderungsanträge	4934
markt@@	4934
85@@	4931
Umständen	4930
vielmehr	4929
Weg@@	4929
Leipzig	4929
lien	4928
erlebt	4928
gut@@	4926
betroffenen	4925
Mah@@	4925
when	4924
kurzem	4923
Fort@@	4923
Felder	4923
Werk@@	4923
Premiere	4923
street	4922
diskutiert	4921
ausgeschlossen	4921
spezialisiert	4921
olo@@	4920
bestehende	4917
etc	4916
3D@@	4916
kop@@	4915
ersetzen	4915
Staat@@	4914
P.	4914
offiziellen	4913
ET	4913
Prä@@	4910
Kri@@	4910
Plat@@	4909
Kin@@	4909
Global	4909
gegenwärtigen	4908
jüngsten	4907
Gegenwart	4907
Material@@	4907
Telefon@@	4906
unterscheiden	4904
2,5	4904
steigt	4903
most	4902
vieler	4900
Bühne	4897
Zoll@@	4895
Moskau	4895
Andreas	4894
FA@@	4892
atoren	4891
Institute	4889
AGB	4888
vorgenommen	4887
Image	4887
verstanden	4885
ai	4885
grünen	4884
scho@@	4884
netz@@	4884
13,@@	4883
beraten	4882
Halb@@	4880
Beihilfen	4880
Gemeinden	4879
Vorjahr	4878
gänge	4877
Tan@@	4876
Mrd.	4876
101	4876
Männern	4875
Massen@@	4875
lo	4873
Ass@@	4872
verlangt	4869
Maschinen@@	4869
PRO@@	4868
unmöglich	4867
Pet@@	4867
Fol@@	4864
Ther@@	4863
cra@@	4862
Research	4862
schneiden	4860
Ball@@	4859
Tal@@	4859
sy@@	4858
84@@	4858
indi@@	4857
Zone	4857
Schluss	4857
Social	4857
95@@	4855
bank	4854
Änderungsantrag	4853
Befehl	4852
stolz	4851
geladen	4850
stammen	4849
lia	4848
See@@	4847
demokratischen	4847
Musi@@	4847
ica	4844
Passwort	4844
einheit	4841
digitalen	4841
entgegen	4840
action	4840
BTE	4840
Untersuchungen	4839
gestimmt	4838
elektronischen	4837
nte	4836
Mexiko	4836
wege	4834
AC	4834
Urteil	4833
Normen	4833
Park@@	4833
steuern	4832
Anwendungs@@	4832
Schu@@	4832
licht	4831
ence	4831
wittgensteinsource.org	4831
Vertrags	4829
erende	4829
Valencia	4829
Küsten@@	4828
ms@@	4828
ny	4827
Plätze	4827
Genehmigung	4824
unge@@	4824
Mag@@	4824
PS@@	4823
tä@@	4823
Boot	4823
Anfragen	4821
hängen	4821
hinter@@	4820
Verfassung	4819
old	4819
Gas	4817
Entspannung	4816
Fernseher	4816
MP@@	4815
software	4815
ani	4815
artikel	4815
From	4815
vertrag	4814
Priorität	4813
zel@@	4813
Anwesen	4812
vat@@	4811
Eur@@	4811
namen	4811
Abfahrt	4811
stehende	4810
ë@@	4810
spolitik	4808
eil@@	4808
Einsatz@@	4808
Werkzeuge	4807
linge	4807
Tools	4807
Plus	4804
bat@@	4804
mag@@	4803
Hör@@	4803
Web-@@	4802
gebieten	4801
Chr.	4801
bs@@	4798
eur	4797
hinein	4796
sing	4796
Original	4795
betroffen	4794
Händler	4794
Propheten	4794
gri@@	4792
Aspekt	4791
12th	4791
britischen	4790
E.	4790
vo	4790
anerkannt	4789
rasch	4787
Gnade	4787
ehr@@	4785
platte	4784
School	4784
exp@@	4783
For	4783
halle	4782
Orientierung	4780
las@@	4778
Heimat	4777
Erinnerung	4776
Regierungs@@	4775
Führer	4775
DE@@	4775
angegebenen	4775
inkl.	4775
schnellen	4774
datum	4773
sts	4773
live	4773
beheben	4768
Weine	4766
cts	4765
Ara@@	4764
solange	4763
Konzert	4762
Übernachtung	4762
beschränkt	4761
ê@@	4761
verbundenen	4760
Weihnachts@@	4760
gh@@	4760
verhindert	4759
gewährt	4759
area	4758
nisses	4757
Gegenteil	4756
Fortschritt	4756
ela	4756
Wirtschaft@@	4755
gische	4755
Room	4754
Besitzer	4753
Sieg	4752
Filter	4752
Hans	4750
anstatt	4748
Minibar	4747
leb@@	4746
Erst	4745
Aufpreis	4745
Angelegenheit	4744
aufmerksam	4741
Einigung	4741
Literatur	4741
Eintritt	4741
Reservierung	4741
ete	4740
Autobahn	4740
Tar@@	4739
stücke	4738
Ergebnissen	4738
drucken	4733
Gold@@	4732
antwortete	4732
lation	4731
Immobilien@@	4728
ctor	4728
professionellen	4727
Stamm@@	4727
hierzu	4726
Box	4726
verlangen	4725
sogenannten	4724
sm@@	4723
feed	4723
Bildschirm	4722
Maus	4722
wand@@	4721
USB	4721
123	4719
reagieren	4718
king	4718
Zwischen	4715
uner@@	4714
ez	4714
verringern	4713
fal@@	4713
sitzen	4713
od@@	4712
Italy	4712
LAN@@	4712
XL	4712
freue	4711
sis	4711
Rau@@	4711
gelöscht	4710
Gruppen@@	4709
gest@@	4708
SA	4707
sive	4706
vorschriften	4705
aktuell	4705
Erfüllung	4704
knapp	4704
Gespräch	4703
inmitten	4702
gewünschten	4701
geprägt	4701
Bestimmung	4701
Regel@@	4698
Press@@	4697
Play@@	4697
kurs	4694
gender	4692
lar@@	4692
zuständigen	4689
raten	4689
täglichen	4689
Erdgeschoss	4689
Lernen	4688
Kundenservice	4687
stimmt	4686
ç@@	4686
Salzburg	4686
Black	4686
Identität	4684
erzählt	4684
gal@@	4684
Laser@@	4684
Drei	4683
verteilt	4682
lass@@	4682
Appartements	4682
Sorge	4680
shi@@	4678
zei@@	4675
Plaza	4675
Abenteuer	4674
gener@@	4673
Mis@@	4672
recht@@	4671
Neues	4671
machten	4670
Nachhaltigkeit	4670
fährt	4668
analysiert	4668
Zeitung	4668
Comp@@	4667
-5	4666
sä@@	4665
blo@@	4664
van@@	4664
ll@@	4663
16,@@	4663
MAR@@	4662
Planeten	4662
Spitzen@@	4661
240	4661
gam@@	4661
Lang@@	4660
Sollten	4660
Daniel	4660
ok	4660
rief	4659
и@@	4659
kombiniert	4657
gallery	4657
million	4656
e.de	4654
ergreifen	4653
Orten	4652
regeln	4650
mü@@	4650
1.0	4650
spor@@	4648
getrennt	4648
vorhandenen	4647
Karaoke	4647
lers	4646
Dass	4646
high	4645
Grundlagen	4644
lands	4643
iner	4643
Fokus	4642
Geschäftsbedingungen	4639
Somit	4638
Schw@@	4638
hau@@	4637
Papst	4637
AA@@	4637
durchzuführen	4636
greifen	4636
Miet@@	4635
Zunächst	4634
boden	4634
Pressemitteilung	4634
ong	4634
know	4633
branche	4632
Verein	4631
weißen	4631
Beweis	4630
stei@@	4630
behandeln	4630
Blo@@	4630
15.@@	4629
position	4628
tau@@	4627
Metern	4627
Book	4627
Wettbewerbs@@	4626
bo	4626
Allah	4626
Prioritäten	4625
Kurse	4625
es.com	4620
ils	4619
Wohnfläche	4617
ausgerichtet	4616
Große	4616
Strände	4616
zogen	4616
wesentliche	4613
yl@@	4611
unk@@	4609
staaten	4609
provider	4608
Dritte	4607
ger-@@	4607
Entdecken	4607
halt	4604
buch@@	4603
Jugend	4601
vit@@	4601
dungen	4600
zentren	4600
neusten	4600
Lufttemperatur	4600
ständigen	4598
Operation	4594
Einer	4592
spanischen	4590
menge	4587
Hil@@	4587
Dresden	4585
ie-@@	4584
out@@	4584
emp@@	4583
politischer	4583
Deutschlands	4582
ester	4582
Zuletzt	4581
ach	4579
Agrar@@	4578
vergeben	4578
Sollte	4575
Philosophie	4575
yst@@	4575
kostenfrei	4575
amt	4574
Gam@@	4571
Apple	4571
Form@@	4570
500@@	4570
Autoren	4569
vi	4569
ebene	4568
article	4568
RF@@	4567
char@@	4567
drücken	4563
wahren	4562
la-@@	4561
Top@@	4561
gewisse	4560
ür@@	4560
kom@@	4559
berg@@	4557
sprache	4555
Kr@@	4555
Kn@@	4555
Des	4554
lern	4554
Master	4554
KMU	4553
Spaziergang	4553
Angesichts	4551
sionen	4551
Tests	4551
ay	4551
Spezialitäten	4551
yc@@	4551
Skigebiet	4551
DC	4550
steigern	4549
KO@@	4549
Verbraucher@@	4548
chs@@	4548
gedacht	4547
imm@@	4547
geblieben	4546
Sehen	4546
Insbesondere	4545
zufolge	4543
PC@@	4543
Fassung	4542
A.@@	4542
Mio	4541
mus@@	4541
sehe	4538
Service@@	4538
feststellen	4537
ansehen	4537
ome	4537
Vorstand	4537
car	4535
Betrag	4534
Verkaufs@@	4534
Wild@@	4534
gebäude	4533
sorgfältig	4532
Science	4530
bis@@	4528
beendet	4527
tex@@	4527
praktische	4526
nt@@	4526
Tiefe	4525
fördert	4525
Innerhalb	4525
Mont@@	4525
PHP	4524
Empfehlung	4523
Schi@@	4522
top@@	4521
iten	4521
geboten	4520
ora	4520
Rent	4519
leiten	4518
by@@	4518
hört	4517
lie@@	4517
wächst	4517
content	4516
liegenden	4515
zugrunde	4514
Geräten	4513
Amt	4512
typischen	4511
Nah@@	4510
int@@	4510
lädt	4510
63@@	4510
Kamin	4510
Wunder	4509
registriert	4509
Erlebnis	4506
Cap@@	4504
Lande	4503
board	4503
sierte	4502
Tour@@	4501
Ferner	4500
Marken@@	4500
Stahl	4499
View	4499
dt	4498
Modul	4498
Port@@	4497
Wand	4497
Volkes	4496
о@@	4496
andererseits	4495
Trau@@	4495
Verbrechen	4495
Gla@@	4494
erhoben	4493
gesucht	4493
Angriff	4492
lieber	4491
Betrieb@@	4491
Einzelbetten	4490
hart	4489
aufs	4488
ry@@	4488
sz@@	4488
bares	4487
Super	4487
derer	4485
tage	4485
Taupunkt	4485
Sünde	4484
verursachen	4483
Virus	4483
aden	4483
blau	4482
chtes	4481
gegenwärtig	4480
stände	4480
Paar	4480
herrlichen	4479
WI@@	4479
ø@@	4478
Einträge	4478
original	4478
Regelungen	4477
diskutieren	4477
bisherigen	4477
diskontierte	4477
jenen	4476
74@@	4476
Rechts	4475
Mobilität	4475
Periode	4475
Sho@@	4475
auftreten	4474
eigen@@	4474
Kommunikations@@	4472
modern	4472
Buchen	4472
Ausstellungs@@	4471
Merkmale	4470
around	4470
ologischen	4469
ander@@	4468
fro@@	4467
inneren	4467
tere	4467
handel	4467
folge	4467
dürfte	4466
amm@@	4466
Denken	4466
e.V.	4466
Dateiendung	4465
aufgeführt	4464
Leg@@	4463
gebildet	4463
Gibt	4461
Getränke	4461
D.	4461
Unterkunfte	4461
and-@@	4459
lager	4459
Stoffe	4457
Benutzen	4456
Florenz	4454
Les	4454
sicht@@	4453
Pr@@	4451
egal	4450
after	4449
suche	4449
Royal	4448
mess@@	4448
TH@@	4446
überprüft	4445
räumen	4445
inn@@	4445
offizielle	4444
21.@@	4444
Suiten	4442
Flug	4441
setzung	4440
220	4440
img@@	4440
Kommissarin	4438
Schlussfolgerungen	4438
230	4437
günstig	4436
tigkeit	4435
Audio	4435
ving	4433
Performance	4433
Bezeichnung	4432
Theorie	4432
Innenstadt	4431
dische	4430
life	4430
Geh@@	4429
schwer@@	4427
Kleine	4426
zurückzu@@	4426
Sonnenuntergang	4425
Benutzung	4424
fc@@	4423
alismus	4422
е@@	4422
solches	4421
digitale	4421
mobile	4421
Stationen	4421
ole	4420
auto@@	4420
op	4419
2008-0@@	4419
same	4417
Klimawandel	4417
ausgezeichnete	4414
Mes@@	4414
Bildungs@@	4414
Ernährung	4414
Office	4414
zerstört	4411
fein@@	4411
Märkten	4409
Dir	4409
Treffer	4409
luxus	4409
Ze@@	4407
5-0@@	4406
med	4406
wechseln	4405
weiten	4405
Verlauf	4404
Saint	4404
XS	4403
bett	4402
Bern	4402
Muster	4401
Lab@@	4400
Frist	4399
Hund	4398
opp@@	4397
g.@@	4397
Leitlinien	4396
finanziert	4396
zeichnen	4396
erischen	4394
uri@@	4393
Laut	4392
CS@@	4392
passen	4390
modell	4389
fehlen	4387
qui@@	4387
Wandern	4387
condado-de-@@	4387
Fon@@	4386
yer	4385
light	4385
Lieferanten	4385
Anliegen	4384
fun@@	4384
melden	4383
Schatten	4383
euren	4383
derzeitigen	4382
genaue	4382
To	4382
ow	4380
Risiko@@	4379
Slowakei	4379
nten	4378
Übernahme	4378
klasse	4376
desto	4373
Türen	4373
Schrift@@	4372
ars	4371
Haushalt	4370
into	4370
Bevor	4369
V.	4369
Ol@@	4369
than	4369
G.	4369
Leuten	4368
Rahmen@@	4367
cap@@	4366
1987	4364
verwendeten	4364
cro@@	4364
scheinen	4363
Mail	4363
Spiels	4361
Saint-@@	4360
lingen	4360
grundsätzlich	4359
watch	4359
effiziente	4358
ons@@	4356
behörden	4355
Roh@@	4355
sonstige	4355
mme	4352
beds	4351
PR@@	4349
Data	4349
feiern	4348
komme	4347
Investitions@@	4347
Award	4347
Tagesordnung	4345
künftig	4344
Innenhof	4344
beten	4343
Bedien@@	4342
Haartrockner	4341
erweitern	4340
Direkt@@	4339
lautet	4339
Bahn	4339
Kampagne	4336
Entwickler	4334
Niederschläge	4334
Minute	4333
Richter	4333
wahre	4332
Innovationen	4332
17.@@	4331
mittlerweile	4331
angenehm	4331
Gran@@	4330
Hügel	4330
existiert	4329
Central	4328
above	4328
Sig@@	4327
Gepäckaufbewahrung	4327
Konfiguration	4326
vers	4325
tour@@	4324
richtung	4324
fällen	4323
www.bibliotecapleyades.net	4322
Workshops	4321
Beitritt	4319
ausschuss	4319
Url	4319
stet	4318
betreffen	4318
effizient	4318
deleted@@	4318
echten	4317
1973	4317
right	4317
Eu@@	4315
Tr@@	4315
Ve@@	4315
Str@@	4314
Airport	4314
Speicher@@	4313
ame	4313
Verbesserungen	4311
Vaters	4311
v-@@	4311
www.eib.org	4311
nete	4310
französische	4308
31@@	4308
Anna	4307
schweren	4307
ato	4305
Geburt	4305
Digital	4305
stru@@	4304
den-@@	4304
Blumen	4304
Übertragung	4303
gol@@	4303
Karriere	4303
wünsche	4302
sters	4302
Haare	4301
niveau	4300
1986	4299
Finanzen	4299
Get@@	4298
1985	4298
gabe	4297
Versicherungs@@	4297
freiheit	4296
löschen	4296
schei@@	4296
Häfen	4295
registrieren	4295
ön@@	4295
stellungen	4294
innovativen	4294
Kunststoff@@	4292
Der@@	4292
Level	4292
Bibel	4291
Internetzugang	4291
Perspektive	4290
wirksam	4290
veranstaltungen	4290
Abmessungen	4290
vermitteln	4289
First	4289
Pläne	4288
mögen	4288
schrift	4288
Unabhängigkeit	4287
stisch	4287
MA	4287
Bü@@	4286
Presse@@	4286
ð@@	4286
Seminar	4285
EX@@	4285
denk@@	4284
bert	4284
Ablauf	4283
wür@@	4283
Francisco	4283
ded	4283
rischen	4282
pul@@	4280
zin@@	4279
amerikanische	4278
Premium	4278
wohl@@	4277
orte	4277
Tauch@@	4277
pfen	4275
Freien	4274
erstes	4273
Struktur@@	4272
Berichts	4272
Ruf	4272
legung	4272
ska	4272
Büro@@	4269
Freuen	4268
Beschäftigungs@@	4264
programme	4264
wur@@	4263
Real	4263
0,00	4263
einerseits	4262
EC	4262
Neu	4261
Wirtschafts-	4260
Bürgerinnen	4259
Technology	4259
trä@@	4257
gungs@@	4257
nungs@@	4256
Besuchern	4256
East	4255
behörde	4254
Freizeit	4254
strukturiert	4253
ero@@	4253
Effekt	4252
geri@@	4252
mieten	4252
Background	4252
ati@@	4250
Fans	4250
Beste	4249
erer	4248
e-	4248
cli@@	4247
Geschichten	4244
heutige	4243
aut@@	4243
Dich	4243
Währung	4242
-30	4241
Fisch	4240
Feld@@	4240
Kühl@@	4240
verboten	4239
konferenz	4239
Shi@@	4238
ni	4237
englisch	4237
ide@@	4236
prompte	4236
Tee	4236
gere	4235
Bord	4235
our@@	4235
ved	4234
cker@@	4233
Mau@@	4233
Königs	4233
ute	4232
ous	4232
170	4230
gekennzeichnet	4229
sauber	4229
ced	4229
these	4225
entscheidend	4224
Washington	4224
Musiker	4224
kunst	4224
order	4224
LU@@	4223
enge	4221
Wagen	4220
haf@@	4219
ungst@@	4219
trag@@	4219
detaillierte	4218
hingegen	4216
Tier	4216
seg@@	4215
felder	4214
Fernsehen	4213
früh	4213
15,@@	4213
Express	4213
Großen	4212
Tickets	4211
Sau@@	4211
gesetzl	4211
begrenzt	4210
trinken	4210
Gelände	4210
width	4210
Bewohner	4208
kontrolliert	4208
Ken@@	4208
Bat@@	4206
fall@@	4205
Power	4205
tin@@	4205
quelle	4205
planen	4204
Agenda	4203
zier@@	4203
ausgesetzt	4202
Immer	4202
CO	4201
nicht-@@	4201
css	4201
stischer	4199
tation	4199
Gebühr	4199
Ecke	4199
sk	4199
Kaffeemaschine	4199
Antonio	4198
Indi@@	4198
Schrift	4198
Menschen@@	4196
Wolfgang	4193
Käufer	4192
Ster@@	4191
tar@@	4191
rent@@	4190
Gerade	4189
gestattet	4188
Set	4188
Pakete	4188
Traum	4188
Author	4188
elemente	4187
esen	4187
Don	4187
dien@@	4186
Moderne	4186
E-Mail-Adresse	4186
sier@@	4184
ex	4184
Papier@@	4184
Pon@@	4181
eingeladen	4181
pur@@	4180
extra	4180
ktor	4177
mnt	4176
ität	4175
griechischen	4175
urs	4175
used	4174
arbeits@@	4173
bislang	4173
Einkaufs@@	4173
19.@@	4173
gefordert	4172
gelungen	4172
Forderung	4172
kleinere	4172
nd	4171
ili@@	4171
tiere	4170
ü	4170
USD	4170
Yo@@	4170
leistungs@@	4168
versorgung	4168
Zellen	4168
kunst@@	4167
schn@@	4166
internen	4165
bewerten	4165
ungser@@	4165
Mobile	4165
Positionen	4163
bezahlt	4163
Kre@@	4163
ziert	4162
sites	4162
HTML	4162
AV@@	4161
hochwertigen	4160
Zoll	4160
Dro@@	4159
Kredit@@	4159
una	4158
ziele	4157
Versorgung	4157
Vel@@	4157
Automobil@@	4157
Diskussionen	4156
Bewegungen	4156
Pages	4156
Esszimmer	4156
breit	4154
geschwindigkeit	4154
automatische	4153
Darlehen	4153
großem	4152
Soldaten	4152
22.@@	4151
tausend	4151
Norwegen	4149
Gespräche	4149
gei@@	4149
Aluminium	4149
oto@@	4148
AccommodationZ.com	4146
gab@@	4145
teren	4145
enter	4145
Spuren	4145
erkunden	4145
Handel@@	4144
oli@@	4144
Direktlink	4144
bewegung	4143
Zeile	4142
super	4142
Corporate	4141
Verfugbare	4140
versteht	4139
Zer@@	4139
Wüste	4139
unden	4138
trau@@	4138
Lizenz@@	4138
Präsidentschaft	4137
Mangel	4137
dende	4137
stunden	4137
-St@@	4137
gehe	4135
dahin	4135
Cro@@	4135
What	4135
externen	4134
professionelle	4134
527	4133
scher@@	4131
gesetz	4131
wichtiges	4130
ppen@@	4130
Kapital	4129
Anstieg	4129
Laden	4129
eingehen	4128
konzentriert	4128
Dan@@	4128
reich@@	4127
anlass	4127
oni	4126
bereitgestellt	4126
ari	4126
hl	4126
genügend	4125
Niederlanden	4125
Gemeinsamen	4125
Universitäten	4125
Alexander	4125
liert	4124
dieren	4123
hier@@	4123
Terrorismus	4122
Ke@@	4121
Grunde	4120
leitet	4120
ungs	4119
eins@@	4119
Wandel	4118
rechtliche	4117
ón	4117
berichten	4116
ehemalige	4116
reg@@	4116
schie@@	4115
stal@@	4114
andern	4114
Ereignis	4110
Unterhaltung	4110
Twitter	4110
kern	4109
Regional@@	4108
Gemüse	4108
Modus	4107
And	4107
länder	4106
heits@@	4106
lieb@@	4106
Vis@@	4106
Ufer	4106
realisiert	4105
Stad@@	4105
voraus	4104
Termine	4104
deutscher	4104
miss@@	4104
umfangreiche	4103
Development	4103
.amarillas@@	4102
Situationen	4101
bauten	4101
Direktor	4101
glichen	4100
chtigen	4099
Weiterentwicklung	4099
Mark@@	4099
zwölf	4099
Big	4098
hren	4098
Größen	4098
190	4098
hafen	4098
strategischen	4097
geltenden	4097
www.mogelpower.de	4097
sach@@	4096
dateien	4096
Abstand	4095
scha@@	4095
zieh@@	4094
Mexico	4094
orten	4094
height	4094
könne	4092
→	4092
gesellschaften	4090
ela@@	4090
New@@	4089
Rand	4089
quellen	4087
ami@@	4087
com	4087
Auftrags@@	4086
hab	4086
platten	4085
ssd	4085
aufgefordert	4084
Jugendliche	4083
unabhängige	4082
Fischerei@@	4081
Content	4081
oper@@	4080
Seh@@	4080
beeinflussen	4079
ade	4079
Lat@@	4079
Off@@	4079
eigenem	4078
pkoehn	4078
site-crawl	4078
analyse	4077
Verteidigung	4076
nah	4076
gericht	4076
Fein@@	4075
Deine	4075
looking	4075
führten	4074
Bewusstsein	4072
different	4071
Ret@@	4069
George	4068
ausstellung	4068
konkreten	4067
hervor@@	4067
Lam@@	4067
tät	4067
aner	4067
guide	4067
tig@@	4065
73@@	4065
Anweisungen	4064
ball	4064
location	4063
atz@@	4062
Volumen	4062
Strand@@	4060
DIN	4060
berger	4059
Konzern@@	4058
located	4058
game	4058
Verringerung	4057
Labor@@	4057
zone	4057
0200	4056
feste	4055
Leu@@	4055
W.	4054
Hom@@	4054
Ansichten	4053
Segel@@	4053
gesetzlichen	4052
CA	4052
Kleidung	4052
Access	4052
kostenfreies	4052
EV@@	4051
behandlung	4048
Kam@@	4048
sinn@@	4047
preis@@	4046
Module	4046
Stimm@@	4045
--@@	4045
kul@@	4044
www.vidc.org	4044
klaren	4043
dliche	4043
lig	4042
von@@	4042
Wartung	4041
Existenz	4041
Faktor	4040
U-@@	4040
.......	4040
beschreibt	4039
Jedoch	4039
Datenschutz@@	4039
Engineering	4039
sions@@	4038
Kloster	4038
vierten	4037
fri@@	4037
schalten	4037
Lizenz	4037
83@@	4037
Switzerland	4037
www.blogigo.de	4036
Wir@@	4035
Erachtens	4034
Cur@@	4031
weit@@	4030
Hardware	4030
sex@@	4028
din@@	4028
Im@@	4027
dlichen	4026
kette	4026
Extra@@	4026
Ly@@	4025
420	4025
yn@@	4025
ump@@	4024
ctions	4024
Terminal	4024
wel@@	4022
Symptome	4022
Verbrauch	4022
body	4022
Letzter	4021
need	4021
ners	4020
Palette	4019
1984	4019
Syrien	4018
Jung@@	4018
Beteiligten	4017
ST	4017
Joseph	4016
tierung	4014
ruft	4013
jpg	4011
kel@@	4010
Seg@@	4010
Journal	4010
messe	4009
available	4009
sierten	4008
Aufnahmen	4008
Fischer	4006
pos	4005
Zuverlässigkeit	4005
Delegation	4003
Verträge	4003
Betreuung	4003
sektor	4001
glücklich	4001
strasse	4001
Tex@@	4000
multi@@	3999
steuer@@	3999
Jan@@	3999
besuch	3999
Lü@@	3999
Mode	3998
fragte	3998
Kopf@@	3998
steuerung	3998
Out@@	3998
My	3998
author	3997
bung	3995
Hü@@	3993
gebühr	3993
Bir@@	3993
Eli@@	3993
Mobil@@	3992
iel	3990
Pfad	3990
berühmte	3989
verarbeitet	3989
Fest	3988
Gran	3988
besonderer	3987
Mieten	3987
mitt@@	3986
gewi@@	3986
Kreis	3986
DLL-Fehler	3986
HErr	3985
verringert	3984
FT@@	3984
Fischerei	3983
wil@@	3983
Bes@@	3983
Deb@@	3982
ty@@	3982
organisationen	3981
bedeuten	3978
93@@	3977
wahr@@	3976
Pl@@	3976
Jobs	3976
hohem	3975
niedrigen	3974
seitens	3974
umfassen	3974
AK@@	3974
prin@@	3973
aktivieren	3973
Widerstand	3972
Masse	3972
spielte	3972
Cri@@	3971
hot	3971
Angel@@	3970
verbreitet	3970
dire@@	3970
ton@@	3969
derung	3968
technologie	3968
Zimmerservice	3968
Pflege	3967
ausgewählten	3967
General@@	3966
Ir@@	3966
ti	3966
.-@@	3966
Pil@@	3965
bisschen	3965
As	3965
integrierten	3964
lichsten	3964
Bla@@	3963
qualitativ	3962
Kla@@	3962
ado	3962
hierbei	3960
wand	3960
überzeugen	3959
äh@@	3959
Architekten	3959
Konzerte	3959
nights	3959
UND	3959
false	3959
Hilfs@@	3958
plätze	3958
Anlass	3957
rar	3957
let	3957
Handeln	3956
Dienstleistungs@@	3956
Wäscheservice	3954
Funk@@	3952
Tele@@	3951
führ@@	3950
Beh@@	3950
Kompetenz	3949
Politiker	3949
ates	3948
t.@@	3948
Ursache	3947
Sound	3947
Card	3946
Forsch@@	3945
Franz	3945
Waren@@	3943
enzen	3943
geleitet	3942
Bettwäsche	3942
atur@@	3941
Dafür	3940
wahl	3940
16.@@	3939
photo@@	3939
1-0@@	3939
notwendige	3938
Relevanz	3938
mitglieder	3938
plötzlich	3938
komfortable	3938
т@@	3937
Übereinkommen	3936
manche	3936
Unterlagen	3936
ther	3936
wachsenden	3936
erschienen	3936
rig@@	3936
Therapie	3936
stätte	3936
inbegriffen	3936
bearbeiten	3934
fangen	3934
gesellschaftlichen	3933
Empfang	3933
Eisenbahn@@	3932
vil@@	3932
erwerben	3932
tert	3932
liegende	3931
17,@@	3931
ces@@	3931
werken	3930
fassung	3929
ffe	3928
Of	3928
ā@@	3928
www.penilefitness.com	3928
methoden	3927
Ausgang	3927
play	3927
Einzelheiten	3926
made	3925
holz	3924
Rio	3924
ater	3924
unteren	3923
beruht	3923
gemeinschaft	3922
medizinischen	3922
hard	3922
nochmals	3920
Tisch@@	3920
Finanzierungs@@	3919
chti@@	3919
ligen	3918
Richard	3918
DIE	3918
Mikrowelle	3917
eck@@	3915
bewertet	3914
Arbeitsplatz	3913
Schön@@	3913
Ehre	3912
angenehmen	3912
Temperatur@@	3912
.09.2015	3911
és	3910
.11.@@	3910
Einheiten	3909
isches	3909
Fehler@@	3909
fluss	3909
gelegenen	3908
langfristige	3907
urlaub	3907
Ed@@	3907
weitgehend	3905
Justiz	3905
Jugendlichen	3905
Werken	3905
ai@@	3905
Tab@@	3904
gas	3904
eleganten	3904
4.00	3903
geleistet	3902
satz	3902
omm@@	3901
Autorität	3900
pen	3900
Dem@@	3899
Camp@@	3899
tisches	3898
hierfür	3896
db@@	3896
friendly	3896
hinzu@@	3894
sau@@	3894
gewissen	3893
mes@@	3893
Verteilung	3892
kÃ	3892
ung.htm	3892
lichkeiten	3891
wunderschöne	3891
www.ypagesusa.com	3891
Cli@@	3890
nnen	3890
mittleren	3889
Grundsätze	3888
Alpen	3888
gestern	3887
bes	3887
Übereinstimmung	3886
erlangen	3886
erstreckt	3886
früh@@	3886
ik@@	3886
Ausblick	3884
vertraut	3883
bahnen	3883
Sab@@	3883
posi@@	3882
rad@@	3882
Temperaturen	3881
Ausführungen	3879
Hafen@@	3879
Sand	3879
uch@@	3878
Wettervorhersage	3878
fach	3877
Pau@@	3877
Logistik	3877
züge	3876
Kenntnisse	3875
Dach	3875
ändert	3874
Eines	3874
Strasse	3874
künftigen	3873
Wachstums@@	3873
Wider@@	3873
Kanal	3873
musst	3872
Diego	3872
pool	3871
kümmern	3869
gg@@	3868
Fahrzeug@@	3867
dre@@	3867
sil@@	3867
Zweitens	3866
dienst@@	3866
2014-0@@	3866
PL@@	3865
Café	3865
Modell@@	3864
ée	3864
Camping	3863
www.b@@	3863
www.immobilsarda.com	3863
book	3862
Trends	3861
licherweise	3860
top	3860
projekte	3859
val	3859
526	3859
How	3859
Wellness	3859
v.@@	3859
Mwst	3859
Alltag	3858
Fun@@	3858
kol@@	3858
them	3858
www.youtube.com	3858
19,@@	3857
Entwickl@@	3856
lig@@	3856
fü@@	3856
Verpackung	3856
gehabt	3856
beautiful	3856
eingereicht	3855
Prinzipien	3855
ehe	3855
stau@@	3854
hän@@	3854
date	3854
Globalisierung	3853
Rotterdam	3853
North	3852
falschen	3851
ron	3851
hausen	3851
BA@@	3851
aufzunehmen	3850
Roma	3850
Syn@@	3850
Bot@@	3849
burger	3848
genannte	3848
itz@@	3848
Ausrichtung	3846
gerufen	3846
Cas@@	3846
n.	3845
hon@@	3843
dlich	3843
15-@@	3843
Optimierung	3843
PP@@	3842
begeistert	3842
funktionen	3842
Lounge	3841
3-0@@	3841
komm@@	3840
Fehl@@	3840
ue	3840
gestartet	3839
rahmen	3838
Erzeugnisse	3838
grundlegenden	3836
tt	3836
relevanten	3835
zellen	3834
www.google.com	3834
2-0@@	3832
Koordinierung	3831
field	3831
stik	3831
gültig	3830
ating	3830
datei	3830
vereinbart	3829
spa@@	3829
Mei@@	3829
Betreiber	3828
Dom@@	3827
hi	3827
Tanz	3827
Staates	3826
kti@@	3826
197@@	3826
gliche	3825
2015-0@@	3825
dat@@	3824
Stufe	3824
Fertigung	3824
Klick	3824
taxonomy	3824
www.c@@	3823
Kreuz	3822
Beschwerde	3822
s.htm	3822
eur@@	3821
kri@@	3821
dos	3820
vollständigen	3819
heim@@	3819
ungen@@	3818
rt	3818
May@@	3818
lad@@	3817
Potenzial	3817
rad	3817
Rue	3816
vermögen	3815
län@@	3815
Len@@	3815
gek@@	3814
drehen	3813
gie	3813
arbeit@@	3813
publi@@	3813
erstklassiger	3813
QUOTE	3813
Steigerung	3812
unabhängigen	3812
langfristig	3812
Investoren	3811
Wechsel@@	3809
übernachten	3809
heben	3808
Versammlung	3808
Western	3807
versehen	3805
Herrschaft	3805
fi	3804
fenster	3802
sho@@	3802
musik	3801
ergänzen	3800
James	3800
ular@@	3800
Kap@@	3799
Know-how	3799
Konflikt	3798
geeignete	3798
Baum	3798
politisch	3798
Schne@@	3798
Nord	3798
mann@@	3797
Sü@@	3797
Geschrieben	3797
für@@	3796
bus@@	3796
schwere	3795
stands	3795
really	3795
Unternehmer	3794
bereiten	3794
fliegen	3794
immobilsarda.com.2015-12-05	3794
einst	3793
genehmigt	3792
fr@@	3792
Open@@	3791
einheiten	3790
Heilige	3790
wirtschaftlich	3789
geschah	3789
png	3789
wis@@	3787
14-@@	3787
grundlegende	3785
Scho@@	3784
gegen@@	3784
.info	3784
zugunsten	3783
freut	3783
Ferien	3782
meister	3782
^	3782
Suchergebnisse	3782
102	3781
ME	3781
0.87	3781
stellten	3780
jo	3780
Augenblick	3779
wert@@	3779
Team@@	3779
Portal	3779
roten	3778
Fü@@	3778
tolle	3778
Datei@@	3778
Karl	3777
ness	3777
Anleitung	3776
mmer@@	3776
Bonn	3776
sel	3775
fließt	3775
Pen@@	3775
gas@@	3774
Enterprise	3773
annehmen	3772
Generationen	3772
Fremd@@	3772
wartet	3771
Slowenien	3771
.07.@@	3771
Information@@	3770
is-@@	3769
Live-@@	3769
Dritten	3768
Mass@@	3768
ähnliches	3768
Benutzer@@	3768
pa	3768
Gewinn	3767
sky	3767
help	3767
dent@@	3766
Erstens	3765
rechts@@	3765
eter@@	3763
rooms	3763
Software-@@	3762
nissen	3761
älteren	3761
en.@@	3761
Jur@@	3759
Road	3759
Schiff@@	3758
Öffnungszeiten	3758
Zusammen	3757
GM@@	3757
GN@@	3757
strukturen	3756
konzept	3756
under@@	3756
starb	3756
schein@@	3755
BR@@	3755
unterzeichnet	3754
Ham@@	3753
ball@@	3753
nord@@	3753
Guide	3753
VEBEG	3753
IV	3752
Thailand	3752
i.@@	3752
Schie@@	3751
Frank	3751
Könige	3751
GrundstÃ	3751
gr	3751
Kop@@	3750
Maßnahme	3749
Fli@@	3749
Feuer@@	3749
ey@@	3749
blatt	3748
Lesung	3746
24-@@	3746
ffen	3745
ile	3745
Grundstück	3745
CE	3745
Hostel	3745
13.11.2016	3745
kts	3744
dens	3744
hell@@	3744
Arbeitslosigkeit	3743
fern@@	3743
ssen@@	3743
ult@@	3742
Jahrzehnten	3741
fahrten	3741
Ausbildungs@@	3740
aro@@	3739
merk@@	3738
Zell@@	3738
rische	3737
1980	3737
iPod	3737
GO	3736
ausstattung	3735
limit	3735
rating	3734
Themen@@	3733
industriellen	3732
SC@@	3732
Design@@	3732
speed	3732
TV-@@	3731
geschlagen	3730
Schwarz	3730
Bestell@@	3730
willen	3729
B-0@@	3728
tit@@	3728
Gästebewertungen	3727
best@@	3726
Bedenken	3726
sagten	3726
Vit@@	3726
Stre@@	3726
hauses	3725
104	3725
128	3725
wissenschaften	3725
engen	3724
cio	3722
Präsenz	3721
gesammelt	3721
gen-@@	3721
ema@@	3719
pal@@	3718
BIP	3717
F.	3717
hörte	3715
bi	3714
farbe	3714
geräten	3712
hr	3712
zentral	3711
fle@@	3711
ning	3711
Stefan	3711
hingewiesen	3710
zuge@@	3710
Gallery	3710
erbaut	3710
Prei@@	3708
Workshop	3707
Tieren	3706
Organ@@	3706
beeinflusst	3706
Rechnungs@@	3705
iss@@	3704
Gang	3704
ssysteme	3703
Community	3703
Friedens@@	3702
main	3702
dll	3702
Bol@@	3701
dur@@	3701
unde	3701
Zielen	3700
ma-@@	3700
ely	3700
Leiden	3698
days	3698
Heim@@	3697
Bonus	3697
ou	3696
baut	3695
Weiß@@	3695
Haar@@	3695
erkennt	3695
Game	3695
kun@@	3694
gezwungen	3694
gefertigt	3694
Hz	3694
Mengen	3693
mente	3693
Publikationen	3693
renoviert	3693
angewendet	3692
Cy@@	3691
two	3691
real	3690
3D-@@	3690
fertigen	3689
Kampf@@	3689
tor@@	3689
bte	3688
denden	3688
bul@@	3688
nützlich	3687
Hunde	3687
illi@@	3686
Not	3685
Sünden	3685
verurteilt	3685
angenehme	3685
ktor@@	3685
Erklärungen	3684
Durchschnitt	3683
Werden	3683
Frühjahr	3683
Mach@@	3683
untersuchen	3682
wechsel@@	3682
ehen	3682
Juda	3682
EM	3680
Alp@@	3680
zukünftige	3679
uli@@	3679
Party	3679
side	3678
sicherstellen	3677
teilt	3677
ky	3677
grün@@	3677
IG@@	3677
Verk@@	3675
Maps	3675
schwierigen	3674
jegliche	3674
chern	3673
fru@@	3673
stechnik	3673
Amarillas@@	3673
kraft@@	3672
res	3672
mein@@	3671
Heil@@	3671
fassen	3670
Angeles	3670
etta	3669
Ob@@	3668
198@@	3668
Koch@@	3667
passende	3666
landschaft	3666
Display	3666
BS@@	3665
kes	3665
Kino	3665
visit	3665
Branchen	3663
Baumwolle	3663
Netzwerk@@	3663
Whirlpool	3663
Wür@@	3662
strategische	3661
299	3660
ih@@	3660
sinkt	3659
märkte	3659
länge	3659
hä@@	3659
abkommen	3658
Zutaten	3658
mass@@	3658
lot	3658
glaubt	3657
Straf@@	3656
set@@	3656
team	3656
1982	3655
Manchmal	3654
stro@@	3654
br	3654
Mund	3653
USt	3651
listen	3650
betreffend	3649
20.@@	3649
ungsin@@	3648
rechnen	3648
Silber	3648
kultur	3647
Dol@@	3647
hinweisen	3646
Geheimnis	3646
Cra@@	3646
schwarze	3646
elektrische	3646
projekt	3645
150@@	3645
enes	3644
items	3644
komfortabel	3643
enger	3642
vent@@	3642
gefangen	3641
ckte	3641
1979	3641
Kirchen@@	3641
`@@	3641
zuzu@@	3640
Spektrum	3640
Emp@@	3640
aufgeteilt	3640
Index	3640
Standard-@@	3640
Verkauf@@	3639
imp@@	3639
strom	3639
sinnvoll	3638
Gärten	3638
sicht	3638
hinweg	3637
langer	3637
angemessen	3636
IF@@	3636
hervorragend	3635
Schnell@@	3635
Pflicht	3635
fran@@	3635
flü@@	3635
erschien	3635
18-@@	3635
4-0@@	3634
fung	3634
Spi@@	3634
ita	3634
Akademie	3634
EIN@@	3634
Geschenk	3633
Kathedrale	3633
Pap@@	3632
Kochnische	3632
Grundsatz	3631
th-@@	3631
ants	3631
Hohe	3631
tiefe	3631
Schreib@@	3631
Reb@@	3631
Ç@@	3630
BER@@	3630
Tatsächlich	3629
may	3629
ose	3628
tab@@	3627
Ven@@	3625
bestimmter	3624
star	3624
Kilometern	3624
nungen	3623
bedienen	3623
gewinnt	3622
AR	3622
at-@@	3622
standes	3622
Public	3622
angebracht	3621
auer	3621
minister	3621
flexibel	3621
Swiss	3621
v.	3621
IA	3620
ffer	3619
entscheidende	3619
italienische	3619
eig@@	3618
üblichen	3617
Geistes	3617
Cloud	3617
Nachmittag	3616
1.000	3616
anforderungen	3615
as-@@	3614
Play	3614
Sant	3614
baum	3612
freier	3612
Herr@@	3612
basis	3611
Sorgen	3610
innere	3610
angel@@	3610
bla@@	3610
archi@@	3610
umwelt@@	3609
Geschäft@@	3609
roman@@	3609
grad	3608
Day	3608
umzusetzen	3607
staat	3607
integrierte	3607
pan@@	3607
Songs	3606
esse	3604
Sex	3603
einverstanden	3602
zukünftigen	3602
var@@	3602
Seminare	3602
ac	3602
eta	3602
Gewinn@@	3601
Nation	3601
T.	3601
Ev@@	3600
Leser	3600
personal	3600
.eu	3600
Eigentlich	3599
Up	3599
mus	3598
Johann	3598
fs@@	3597
tag@@	3596
öl	3595
beteiligten	3595
phase	3595
Ali@@	3595
2007-0@@	3595
beschäftigen	3594
112@@	3594
retten	3593
welch	3593
ls@@	3593
alleine	3593
far@@	3593
Fax-	3592
ò@@	3591
18.@@	3591
frisch	3591
tec	3591
tionsp@@	3590
K.	3590
then	3590
konzipiert	3589
gemütlichen	3589
Sicherung	3588
Herkunft	3588
Trend	3588
df@@	3588
magazine	3588
beantworten	3586
uten	3586
his	3586
ständen	3585
kurse	3584
135	3582
m.@@	3582
studierte	3581
Nationalpark	3581
www.g@@	3581
gener	3580
Aktien	3580
Phone	3579
effektiv	3578
hielten	3578
Tourismus@@	3578
Weisheit	3578
Mitgliedschaft	3578
back@@	3578
Mittagessen	3577
agen	3576
Bedienung	3576
performance	3576
sogenannte	3575
heiten	3575
Artikeln	3575
Abend@@	3574
Verwenden	3574
Techniken	3573
RA	3573
Institution	3572
210	3572
open-@@	3572
Gleichgewicht	3571
besonderes	3571
orts	3568
bool	3568
gesandt	3566
Zypern	3566
с@@	3566
es.@@	3565
pack@@	3564
Tief@@	3564
CR@@	3564
keinem	3563
taten	3563
beschreibung	3563
Verletzung	3562
Medikamente	3562
Kab@@	3562
Obst	3561
log@@	3561
point	3561
ology	3561
280	3560
letzter	3559
wä@@	3558
War	3558
etzen	3555
Rein@@	3554
sollt	3554
′	3554
Mailand	3553
Edelstahl	3553
size	3553
geringen	3552
ungsprogramm	3551
ruhige	3550
Austria	3550
Em@@	3548
kontrollieren	3548
gebunden	3548
Gegner	3547
Früchte	3547
Mehrwertsteuer	3546
kel	3546
Wechsel	3546
port	3546
Modernisierung	3545
erhebliche	3544
Traditionen	3544
kontinuierlich	3544
dal	3544
ima@@	3544
weshalb	3543
Fahrrad@@	3543
Control	3543
Band@@	3543
Ministerium	3543
Playa	3543
Etagen	3542
Milch@@	3541
Produktivität	3541
Ideal	3541
Föderation	3541
Vorsitzender	3540
Weltkrieg	3540
poli@@	3539
pper	3539
Company	3538
klar@@	3537
sat@@	3537
grün	3537
p.@@	3536
eignen	3536
Gemeinschaften	3535
Kern	3535
103	3535
still	3534
dem@@	3533
è	3533
mung	3532
wiederholt	3532
wendet	3531
Toskana	3531
comments	3531
.it	3531
arch@@	3530
Ach@@	3530
quote	3529
ließen	3528
übrigens	3528
unmittelbarer	3528
Aktivität	3528
ú@@	3528
Fahrrad	3528
gebühren	3525
Schle@@	3525
Massage	3525
Termin	3524
11-0@@	3523
gegebenenfalls	3522
website	3521
ear@@	3521
Bremen	3520
Ursprung	3519
lige	3518
investieren	3517
Brun@@	3517
bandliste.de	3517
106	3516
Mittelmeer	3516
Fall@@	3516
lischen	3515
alisieren	3515
Heiz@@	3515
kurzer	3514
Ari@@	3514
ase	3514
verkauf	3513
Gebäuden	3513
ENT@@	3512
Compare	3512
Variante	3511
vereint	3511
ernst	3510
unterliegen	3510
tiker	3510
Ty@@	3510
TA	3510
ž@@	3510
MT@@	3509
halt@@	3508
ausländischen	3508
Hart@@	3507
blu@@	3507
fühlt	3506
Touren	3506
File	3506
ory	3505
erfasst	3505
tru@@	3505
sahen	3504
TS	3502
Geschirrspülmaschine	3502
PA	3501
vorne	3501
GO@@	3500
0100	3500
freundlichen	3499
Erfindung	3497
rich	3497
Tat@@	3496
1983	3496
IMG	3495
grund@@	3494
Job	3494
cep@@	3494
nunmehr	3493
gelegene	3493
Dienst@@	3492
ams	3491
Mutter@@	3490
gemessen	3490
Projektes	3490
öffentlich	3489
regi@@	3489
Titan	3489
Atom@@	3488
tho@@	3488
alisiert	3487
Übergang	3487
bearbeitet	3487
ökonomischen	3486
riesigen	3486
Reduzierung	3486
25-@@	3486
Bad@@	3486
Paulus	3486
stil	3485
erzählen	3485
eurer	3485
Geschäftsjahr	3485
feu@@	3484
ps@@	3484
Nahrung	3483
HOME	3483
Bedürfnissen	3482
materialien	3482
chemische	3482
1944	3482
Gott@@	3480
dest@@	3479
Zuge	3478
südlichen	3478
christlichen	3478
erinnen	3477
Nürnberg	3477
Berechnung	3476
Eigentümer	3476
präzise	3475
Rom@@	3475
Beruf	3475
much	3475
FR	3474
aut	3474
vermittelt	3474
Lebensdauer	3474
Dolomiten	3472
erworben	3471
Armen	3471
schluss	3471
eien	3470
gestaltung	3470
leidet	3469
Geburtstag	3469
320	3469
events	3469
eingesch@@	3468
Dingen	3468
Seen	3468
Fotokopiereinrichtungen	3468
Hy@@	3467
Vorlage	3465
tto	3465
Umweltschutz	3464
unterschiedlicher	3464
offiziell	3464
hör@@	3464
esischen	3464
begrüße	3463
intensiv	3463
videos	3463
Gehäuse	3462
erteilt	3461
blauen	3461
Datenschutz	3460
Toilette	3460
behaglich	3460
tägliche	3459
PH@@	3459
angebotenen	3459
dru@@	3458
Ursachen	3458
mäßig	3458
Blumenstrauß	3458
verleihen	3457
Vorstellungen	3457
Wissens@@	3457
Termin@@	3456
ros	3456
Aussagen	3455
Vortrag	3455
Italienisch	3454
erei	3453
kammer	3452
verband	3451
Poli@@	3451
Rechner	3451
verkehrs	3450
ova	3450
namens	3450
BA	3450
isActive	3450
geringe	3449
zus@@	3449
Umsatz@@	3449
Suchen	3449
Fix	3449
Green	3448
ats@@	3447
Spannung	3447
Gor@@	3446
112	3446
As@@	3446
betonen	3445
Bauern	3445
Früh@@	3445
beenden	3444
L.	3443
00AM	3443
ea@@	3442
Price	3442
Festivals	3442
108	3441
beteiligen	3441
Map	3441
Sales	3441
LL@@	3441
sitz@@	3440
schöner	3439
Einkommen	3438
tief@@	3436
vorzu@@	3433
hersteller	3433
betreiben	3432
Motto	3432
unterscheidet	3432
empfiehlt	3432
fahrer	3432
N-@@	3432
Leidenschaft	3432
stimme	3431
ots	3431
Betriebe	3431
Energieeffizienz	3431
Marokko	3430
frischen	3430
Schla@@	3429
ines	3429
Rabatt	3429
red	3428
Schwester	3428
Va@@	3428
omet@@	3426
Online-Buchung	3426
vorgeschlagenen	3425
praktischen	3424
Mac@@	3423
getestet	3423
1200	3423
Milch	3422
Wärme	3422
pass	3422
Berater	3421
Angabe	3421
Š@@	3421
Drittel	3419
Vorsitz	3419
acht@@	3419
bereit@@	3419
verdienen	3418
Stücke	3418
2006-0@@	3418
anmacht	3417
ar-@@	3416
gefällt	3415
erfolgte	3415
Abfall@@	3415
Frauen@@	3415
Place	3415
bezug	3414
ün@@	3414
cer	3414
verstärken	3412
Automodelle	3412
QU@@	3411
luft@@	3411
cing	3411
sam	3410
biegen	3410
nah@@	3409
Aussage	3409
Kreuz@@	3409
Lust	3409
minutes	3409
gelernt	3408
Nat@@	3408
hl@@	3407
Bern@@	3407
die@@	3407
tor	3407
.09.@@	3406
Logo	3405
Rohr@@	3405
bru@@	3405
Designer	3405
die-@@	3405
behaupten	3404
egt	3404
Pflanzen@@	3404
Residence	3404
erfordern	3403
stattfindet	3403
r-@@	3403
gebe	3402
Internetseite	3402
behält	3401
Fast	3401
Abhängigkeit	3400
angeschlossen	3400
religiösen	3400
beschreiben	3400
translation.php	3400
Christ@@	3399
Erbe	3398
Vermietung	3398
Wasch@@	3398
ausschusses	3397
too	3397
Sektoren	3396
senken	3396
Betriebssystem	3396
Hütte	3395
5,00	3395
Wirksamkeit	3394
anzubieten	3394
gerechte	3393
korrekt	3393
entes	3393
FOR@@	3393
Konferenz@@	3392
Sat-TV	3392
bemüht	3391
bewahren	3391
Taste	3391
u.@@	3390
Malerei	3390
Karten@@	3390
Die@@	3390
Genf	3389
Grünen	3389
Kreativität	3389
ler-@@	3389
dad	3388
mmt	3387
RT@@	3387
nutz@@	3385
neten	3385
Messung	3385
verkehrs@@	3385
olo	3385
österreichischen	3384
beinhalten	3383
Spezi@@	3383
CN@@	3382
DA	3381
cri@@	3381
aktualisieren	3380
Erhaltung	3379
Drogen@@	3379
111	3379
ua	3379
ausgezeichneten	3378
verabschiedet	3378
geplanten	3378
angen	3377
Bis@@	3377
Viel	3377
1981	3376
verdient	3375
angemessene	3375
eres	3375
Emissionen	3375
rates	3375
fische	3373
Zahlungen	3373
vierte	3372
geringer	3372
Wor@@	3372
Salz	3372
inc@@	3372
Erden	3372
Respekt	3371
aufgestellt	3370
Auflage	3370
ältesten	3370
produkten	3370
sonstigen	3369
girl	3369
Marktes	3368
Summe	3368
süd@@	3368
GPS	3368
support	3367
Festplatte	3367
gesetzten	3366
Ärzte	3366
incl	3366
Vereinbarungen	3365
nehm@@	3364
High	3364
Security	3364
rechtzeitig	3363
existieren	3363
pres@@	3363
weichen	3362
omi@@	3362
3000	3362
Blu@@	3362
50-@@	3362
abteilung	3361
ham@@	3361
w.@@	3361
diger	3360
Müller	3360
EA	3360
Filter@@	3360
Turm	3360
6-0@@	3360
abgestimmt	3359
Spezialisten	3356
herrscht	3355
Dur@@	3355
Mark	3354
chtern	3353
Odgovor	3353
Vordergrund	3352
LA	3352
Schnee	3352
2.0@@	3352
ea	3351
Attraktionen	3351
ore@@	3350
Gewinner	3350
Rü@@	3350
prote@@	3349
klassische	3348
Kranken@@	3348
re-@@	3348
Wunder@@	3348
cha@@	3348
Konzern	3348
Sun@@	3347
Vereinigung	3346
Ran@@	3346
Flüge	3345
.08.2015	3345
SW@@	3344
last@@	3343
Kenn@@	3342
demokratische	3342
Brenn@@	3342
Person@@	3341
Sonnenaufgang	3341
Radi@@	3340
Schicksal	3338
Haup@@	3337
system@@	3337
zugelassen	3336
strei@@	3335
Meerblick	3335
Möbel	3334
ful	3334
.04.@@	3334
Pic@@	3333
-Datei	3333
blin@@	3332
wen	3332
unt@@	3331
att@@	3331
Ori@@	3331
warm	3331
King	3331
elegante	3330
planung	3329
Zuerst	3329
Zucker	3329
Argentinien	3329
Kir@@	3328
komplexe	3327
künftige	3327
blick	3327
schnitt	3327
organi@@	3326
gio	3326
10-0@@	3326
260	3324
befassen	3322
Konzentration	3322
wunder@@	3322
super@@	3322
Ring	3322
Großteil	3320
meistens	3320
fuhr	3320
führungen	3320
Sortiment	3320
EH@@	3319
Sonn@@	3319
Ski	3319
Oberflächen@@	3318
berufen	3318
verbindungen	3318
veröffentlichen	3318
ziel@@	3317
ux	3317
Einfach	3317
Bay@@	3317
.10.@@	3317
teils	3315
Ai@@	3315
englischen	3315
chts	3314
Schil@@	3313
stic	3313
Kreditkarte	3313
Sowohl	3312
ula	3312
12-0@@	3312
sätze	3311
begegnen	3311
ungssysteme	3311
Forscher	3311
Hir@@	3311
Konzepte	3310
Mut	3309
107	3309
zung	3308
CC@@	3308
BMW	3307
EW@@	3307
Festlegung	3306
arg	3306
-25	3306
Coins	3306
gent@@	3305
Fotografie	3305
Unterricht	3305
products	3304
Release	3304
y.com	3304
bedeutende	3303
dauern	3303
Tei@@	3303
109	3303
Mand@@	3303
lar	3302
Krieges	3301
dan	3301
Hauptbahnhof	3301
opfer	3300
default	3300
gelangt	3299
enheit	3299
Garage	3299
steuer	3298
Besitz@@	3298
Bier	3298
Polizei@@	3298
Gebühren	3298
Gegenstände	3298
Palma	3298
z.@@	3298
Fro@@	3297
zierte	3297
dreh@@	3297
technisch	3296
tigt	3295
Begegnung	3295
Kaiser	3295
Wall@@	3294
gebraucht	3294
Basi@@	3294
01.@@	3294
Kongress	3294
etten@@	3294
Gesundheit@@	3293
anda	3293
problemlos	3292
warmen	3292
ala	3291
Great	3291
typisch	3290
Schal@@	3290
Abs	3290
ING	3290
Verfahrens@@	3289
gründen	3288
Anmelden	3288
zuständige	3287
erleichtert	3287
Flächen	3287
Dokumenten	3286
Basis@@	3286
Za@@	3286
gemütliche	3286
Eisen@@	3285
vie@@	3285
Haut@@	3285
Klin@@	3285
NI@@	3284
the-@@	3284
Stat@@	3283
Studios	3283
grüne	3282
oms	3282
LIN@@	3282
Küchen@@	3281
förder@@	3279
Können	3279
gefolgt	3279
Verkäufer	3279
geeigneten	3278
aktivitäten	3278
Annehmlichkeiten	3277
ück@@	3276
Leben@@	3275
Che@@	3275
20,@@	3275
Rock@@	3275
HErrn	3275
definieren	3274
bahn@@	3274
Oli@@	3274
dol@@	3274
Geheim@@	3273
Toten	3273
erie	3273
Std.	3273
Spiegel	3273
gehende	3272
Sat@@	3272
IR@@	3271
Messen	3271
Abkommens	3270
ding@@	3269
rela@@	3269
Rin@@	3268
2014-@@	3268
Felsen	3265
zes	3264
komplexen	3264
Öffnung	3263
aussehen	3263
digt	3263
iter	3263
brachten	3262
nennt	3262
od	3262
forma@@	3261
startet	3261
Rücken	3260
SS	3260
Feu@@	3260
Wolken	3259
erheben	3258
elli	3258
en.wikipedia.org	3258
wie@@	3257
Körpers	3257
Energy	3257
down	3257
access	3257
ktive	3256
kunden	3256
www.gstadt.de	3254
Sim@@	3253
losigkeit	3252
Nahen	3252
Export	3252
Bohr@@	3252
Trotzdem	3251
Nr.0@@	3251
späteren	3250
Kunststoff	3250
ov	3250
Zeichnungen	3250
Prozesses	3249
bot	3249
1500	3249
Sohnes	3249
vergleichen	3248
berät	3248
Kostenlose	3247
gebeten	3246
ops	3246
up-@@	3244
119	3244
Ordner	3244
Ros@@	3243
schaf@@	3241
Personen@@	3240
bestens	3240
auff@@	3239
lische	3239
deines	3239
н@@	3239
technischer	3238
Miss@@	3238
ot-@@	3238
18,@@	3238
Golf@@	3237
beigetragen	3236
kleineren	3236
stä@@	3236
Überzeugung	3235
7-0@@	3235
Nichtraucherzonen	3234
Referenz@@	3234
flug@@	3234
weltweite	3233
ne-@@	3233
rat@@	3233
unt	3233
tour	3233
übergeben	3232
come	3232
bett@@	3230
projects	3229
facilities	3229
Direkt	3229
schaft@@	3228
Trocken@@	3228
SF	3228
ausgelegt	3227
122	3227
entworfen	3227
Rab@@	3227
Vertrieb@@	3226
Künstlern	3226
moderner	3226
Regime	3225
wild	3225
Log@@	3225
rän@@	3224
Möchten	3224
daten@@	3224
sur	3224
gelingt	3223
Bab@@	3223
ged	3223
ausgesprochen	3222
Menschenrechts@@	3222
Flüchtlinge	3221
Europäer	3221
iPad	3221
Touristen@@	3219
spät	3217
schung	3217
gewachsen	3217
Tschechische	3216
Afghanistan	3215
lab@@	3215
jährlichen	3213
handel@@	3213
tauchen	3213
Geschäften	3213
umfangreichen	3212
Read	3212
Kosovo	3211
gkeiten	3211
ritt	3211
ress	3211
Handy	3211
fing	3211
profile	3211
deswegen	3210
Will@@	3210
Chile	3210
ability	3209
Fel@@	3209
ann	3208
ji	3208
Adobe	3208
unverzüglich	3207
letztlich	3205
Beurteilung	3205
ähnlichen	3205
Weihnachten	3205
log	3205
Eigentümern	3205
Varianten	3205
Aktuelles	3205
geistigen	3203
Vertretern	3203
Liter	3203
Anti-@@	3202
kräfte	3200
typische	3200
am-@@	3199
DL@@	3199
stärke	3198
Korruption	3198
Zo@@	3198
modified	3197
erneuert	3196
1st	3196
öffentlicher	3195
ent-@@	3195
Europ@@	3194
Funktions@@	3194
Power@@	3194
-3@@	3194
kter	3193
externe	3193
Love	3193
GI@@	3192
antworten	3191
schlug	3191
kum@@	3190
131	3190
schlag@@	3189
leitungen	3189
ade@@	3188
reihe	3188
119@@	3188
Kun@@	3187
Il@@	3187
GR@@	3187
lebte	3187
Vertriebs@@	3186
services	3186
anpassen	3185
000@@	3185
Ed	3185
aa@@	3185
Rechten	3183
atz	3183
62@@	3183
UN-@@	3182
Aktiv@@	3182
ruhiger	3182
St	3182
fähige	3181
Orts@@	3181
begleiten	3180
Rückgang	3180
Satelliten@@	3180
Bund	3180
Designs	3180
uss	3178
BB@@	3178
Monte	3178
Rahmenbedingungen	3177
Wurzeln	3177
ó	3177
Fische	3177
cen@@	3177
vgl.	3176
omen	3175
Meg@@	3175
mache	3173
Resultate	3172
HD@@	3172
ober@@	3171
Android	3171
ris	3170
gangs	3170
Micro@@	3170
ator@@	3169
Kompetenzen	3168
Eck@@	3168
verkehr@@	3167
aufnahme	3167
mark	3167
Debian-@@	3167
Blue	3166
entschlossen	3165
kompletten	3165
sr@@	3165
leit@@	3164
Verbot	3164
Errichtung	3164
vari@@	3164
Erkenntnis	3164
ô@@	3164
Cube	3164
eth@@	3163
Alkohol	3163
angebote	3163
Pres@@	3163
angelegt	3162
unternommen	3161
Szene	3160
Jazz	3160
sozialer	3159
gewann	3159
Entstehung	3158
ä	3158
Linz	3157
GE	3157
XVon	3157
Roche	3153
Thr@@	3152
Taxi	3152
offer	3152
Arbeitsmarkt	3151
bezogen	3151
ost@@	3151
Hochschul@@	3150
dau@@	3150
State	3150
Schalt@@	3150
herr@@	3149
Voraus	3149
Song	3149
Stimmung	3148
Hen@@	3147
Panorama	3147
eventuell	3146
künstlerischen	3146
hervorragenden	3145
BM@@	3145
cel@@	3144
eit	3144
tion-@@	3144
bekam	3143
Konferenzen	3142
Slo@@	3142
schönes	3142
anna	3142
interessanten	3141
baus	3141
volles	3140
Gesetzgebung	3139
Erfassung	3139
Diskriminierung	3139
Formel	3139
bruch	3138
dienstleistungen	3138
Führungs@@	3138
empfängt	3138
Bit	3138
schwarzen	3137
hinauf	3137
Funktionalität	3137
stoßen	3136
should	3136
vollem	3135
Suchmaschinenrobotern	3135
steten	3134
Allianz	3134
1970	3133
Pack@@	3133
Intelligenz	3133
cted	3133
angesprochen	3132
Süd	3132
Mir	3131
enthaltenen	3131
schte	3131
bio@@	3131
gue	3131
Wiederherstellung	3130
Friedrich	3130
dal@@	3130
ino@@	3129
kirche	3129
ori	3128
sicher@@	3127
Lor@@	3127
schä@@	3126
Für@@	3125
ergab	3125
Note	3125
halter	3125
Audio@@	3125
ï@@	3124
could	3124
gewöhnlich	3123
Ergänzung	3122
ctive	3121
wertvolle	3120
erläutert	3120
zeugen	3120
Bäume	3120
Gau@@	3120
750	3119
passieren	3118
geraten	3117
Kran@@	3117
Magazin	3117
Baby	3117
musi@@	3117
beginn	3116
hell	3116
market	3116
Health	3116
verletzt	3115
rote	3114
Rollen	3113
Rund	3113
west@@	3112
speci@@	3112
plätzen	3111
part	3111
Tagesansicht	3111
interne	3110
Perspektiven	3110
Rie@@	3110
einheitlichen	3109
dlicher	3109
Pul@@	3109
dere	3108
Il	3108
zurückzuführen	3107
kn@@	3107
status	3107
Technologie@@	3107
anzuzeigen	3107
ländern	3106
verzichten	3105
Schiffen	3105
wandern	3105
gering	3105
ali	3105
nehme	3104
moodle	3104
www.amarillasaustin.com	3104
Handlungen	3102
spüren	3102
kung	3101
mark@@	3101
zuverlässig	3101
ations	3101
Zivilgesellschaft	3100
paket	3100
fünf@@	3100
SAP	3100
Meinungen	3099
ran	3099
setz@@	3099
sern	3099
restaurants	3099
press	3099
eben@@	3098
KÃ	3096
rech@@	3095
verlust	3095
bers	3095
wn@@	3094
Uhrzeit	3094
Empfänger	3093
ble@@	3093
lasse	3093
OL@@	3093
off	3092
Ram@@	3092
hil@@	3091
militärischen	3091
ergriffen	3091
Wert@@	3091
de.@@	3091
russische	3089
Eis	3089
veröffentlichte	3089
Walter	3088
techni@@	3087
da-@@	3087
Master@@	3087
Effekte	3086
CD-@@	3086
OP@@	3085
Mondaufgang	3085
wiederholen	3084
stufe	3084
ül@@	3084
häusern	3083
dc@@	3083
wohn@@	3083
herzustellen	3082
Gefängnis	3082
miert	3082
TS@@	3080
Beleuchtung	3079
Monduntergang	3079
bg-bab	3079
anen	3078
leu@@	3078
ford	3078
spezi@@	3078
1978	3077
versuche	3077
schlechten	3076
Oper	3076
grenzen	3075
Kurz	3075
Dorf@@	3075
weiße	3073
partner	3073
bü@@	3073
ate@@	3073
ã@@	3073
Photo@@	3072
Bett@@	3072
www.fotos.sc	3072
zeu@@	3071
erreichte	3071
klin@@	3071
Parks	3071
kommerziellen	3071
Elektronik	3071
Pharma@@	3071
inforMARE	3071
Zweiten	3070
offener	3070
zw@@	3070
Hilf@@	3070
heit@@	3069
gehalt	3069
Kopie	3069
Ausschuß	3068
volumen	3068
förderung	3068
tos	3068
frist	3068
Dein	3068
solch	3067
Regen	3067
büro	3067
air@@	3067
viertel	3066
ministerium	3066
atten	3066
misch	3066
338	3066
Kaffe@@	3066
Soli@@	3066
USB-@@	3066
Client	3066
gesetz@@	3065
Zerstörung	3065
bestellt	3065
Av@@	3065
ski@@	3065
Spain	3065
Wach@@	3064
griffen	3064
Jihlava	3064
östlichen	3063
flexible	3063
since	3063
werks	3062
Wörter	3062
änder	3061
Flughäfen	3061
MS@@	3061
offenbar	3060
tat@@	3060
Reihenfolge	3060
always	3060
Käse	3059
Association	3058
both	3058
voraus@@	3057
hohes	3057
Regi@@	3056
Erwerb	3056
llen	3056
weiss	3056
Tschechischen	3055
trennen	3055
BE@@	3055
bedeutenden	3054
Erstellt	3054
Europa@@	3053
bereitet	3053
16-@@	3053
kostenloser	3053
admin	3053
Malta	3051
aku@@	3051
ME@@	3051
Tür@@	3051
Piazza	3051
Sanktionen	3050
Tom	3050
CI@@	3049
10,00	3049
Klavier	3049
1.html	3049
Fr@@	3048
.06.@@	3048
ía	3047
kW	3047
Zug@@	3046
übersetzt	3046
kunden@@	3046
ling@@	3045
Gener@@	3045
überwinden	3044
Psychologie	3044
Klang@@	3044
bit.ly	3044
ener@@	3043
Ul@@	3043
chtig	3043
232	3043
realisieren	3042
Drucker	3042
Immo	3042
Fron@@	3041
£	3039
hü@@	3039
Press	3038
Glo@@	3038
tö@@	3037
Tom@@	3037
Jungen	3037
ystem	3036
groß@@	3035
gie@@	3035
hnen	3035
problem	3035
getötet	3035
270	3035
Dörfer	3035
Salz@@	3035
mittlere	3034
enter@@	3034
versicherung	3034
Platte	3034
Var@@	3033
beliebt	3033
Bezirk	3033
oli	3032
Schlusselwortern	3032
bedanken	3031
LAN	3031
Selbstverständlich	3030
Andalusien	3030
active	3030
nischen	3029
228@@	3029
Keller	3028
Bauern@@	3028
Einbeziehung	3027
Lar@@	3027
ands	3027
nam@@	3027
betra@@	3026
mä@@	3026
cho@@	3026
Wärme@@	3026
tta	3026
article.php	3026
Investition	3025
frische	3025
Airlines	3025
145	3025
price	3025
bemühen	3024
Zeugnis	3024
gesunde	3024
Adressen	3024
Reichtum	3023
derartige	3023
Eigenschaft	3023
alter@@	3023
Dru@@	3023
ader	3023
Anhänger	3022
Lohn@@	3022
3,5	3021
Hits	3021
www.dutchgrammar.com	3020
betrug	3019
EP	3019
richtlinie	3019
statt@@	3019
Neuen	3019
Container	3019
verbindung	3018
liger	3018
basierte	3017
eni@@	3016
Art@@	3015
Metall	3015
nähe	3014
Schwarz@@	3014
space	3014
FF@@	3014
co-@@	3014
д@@	3014
abgerufen	3013
stationen	3012
Det@@	3012
Burg@@	3012
Pun@@	3011
117	3011
175	3011
æ@@	3011
new@@	3010
www.amarillasausti	3010
Arbeitgeber	3009
gewähren	3009
Cl@@	3009
take	3009
open@@	3009
Features	3009
Jakob	3009
Einladung	3008
spätestens	3008
group	3008
DV@@	3008
2D	3008
boote-kleinanzeigenmarkt.de	3008
plant	3007
kanische	3007
small	3007
Flugzeug	3006
Dynamik	3006
Bay	3006
Patri@@	3005
bewer@@	3005
froh	3004
eil	3004
UL@@	3004
vin@@	3003
Verwirklichung	3002
Mö@@	3002
dün@@	3002
gon@@	3002
.05.@@	3002
licht@@	3001
tien	3001
til@@	3001
ypen	3001
Künste	3001
klein@@	3000
eu	3000
diente	3000
sation	2999
diverse	2999
Sei@@	2999
steh@@	2998
stätten	2998
genauer	2997
H-@@	2997
Handtücher	2997
Signal	2996
wunderbare	2995
lohnt	2995
Check	2995
ws@@	2994
ange	2993
möglichkeit	2993
nutzung	2993
ever	2993
AH@@	2992
Herrlichkeit	2992
denkt	2991
Landschaften	2991
Steck@@	2991
Vorgehen	2990
ermittelt	2990
pop@@	2990
angekündigt	2989
einzusetzen	2989
Nachbarn	2987
Würde	2987
Filmen	2986
Kä@@	2986
een	2986
della	2986
Migration	2985
uts	2985
Führ@@	2985
Canada	2985
Video-@@	2985
aufgerufen	2984
Senior	2984
Gemeinsam	2983
Islam	2983
Organe	2982
Yu@@	2982
Ele@@	2981
bekämpfen	2980
Fülle	2980
Solche	2980
Korea	2980
Litauen	2978
air	2978
infolge	2977
Inneren	2977
gsp@@	2976
É@@	2976
orientierte	2975
Lettland	2975
Schn@@	2975
beliebtesten	2975
derte	2974
herunter	2974
test@@	2973
Meer@@	2973
Gl@@	2973
Ausfahrt	2973
Hä@@	2972
Stor@@	2972
Journalisten	2971
sü@@	2971
LED	2971
wing	2971
Todes@@	2970
hand	2970
114	2970
gebucht	2970
Zusammensetzung	2969
tives	2969
E.@@	2969
Praktiken	2968
aum	2968
Block@@	2967
ursprüngliche	2967
Inhalten	2967
Speicher	2967
schriftliche	2966
regelung	2965
Gesam@@	2965
Gefahren	2964
steckt	2964
verfahrens	2964
teilung	2963
jemals	2963
mut@@	2963
Java	2963
Monats	2962
gelt	2962
schlafen	2962
half	2962
arbeiter	2961
geschafft	2961
local	2961
verliehen	2960
chemischen	2960
meint	2960
vielfältigen	2960
angeht	2959
voneinander	2959
anwenden	2959
mau@@	2959
syn@@	2959
wirksame	2958
Account	2958
britische	2957
integrieren	2957
spart	2957
automati@@	2957
Handlungs@@	2956
xen	2956
gleichermaßen	2956
Leder	2956
fäl@@	2955
Gross@@	2955
fragt	2954
Dire@@	2954
ee@@	2954
zusammenarbeiten	2953
Holland	2953
Ihm	2953
Al	2952
Grill	2952
Van	2951
Charles	2951
Ltd.	2951
Fahrradverleih	2951
Anwesenheit	2950
physi@@	2950
farben	2950
oten@@	2949
Insel@@	2949
Bayern	2949
SK@@	2949
Verfahrens	2948
Erkenntnisse	2948
Wahrnehmung	2947
Kabinen	2947
jüdischen	2946
längere	2946
Artikels	2945
Ky@@	2945
72@@	2945
pil@@	2945
vorgesehenen	2944
aux	2944
Roman	2944
Auszeichnung	2944
Shanghai	2944
parallel	2943
ras	2943
Einblick	2943
Charme	2943
eingegangen	2942
Frühling	2942
g.	2941
gesund	2941
Grafiken	2941
separate	2941
Lauf	2940
Vertretung	2940
Steine	2940
language	2940
pages	2939
spo@@	2938
sichergestellt	2937
Realisierung	2937
Wanderungen	2937
becken	2936
händler	2936
exklusiven	2936
next	2936
Boot@@	2936
Soleil	2936
Derzeit	2935
eta@@	2935
Klaus	2935
Orchester	2935
Räumen	2934
läu@@	2934
einstellen	2934
Feinde	2933
yp	2933
XXL	2933
Nachbar@@	2932
Schuld	2932
elen	2932
entwurf	2931
römischen	2931
durchsuchen	2931
führender	2930
kompatibel	2930
Regie	2929
1976	2929
Ten@@	2929
aufzubauen	2928
ite	2928
genossen	2928
Waschsalon	2928
schaff@@	2927
Gil@@	2927
stür@@	2926
Verbindungs@@	2926
iz@@	2926
rus	2926
Gewährleistung	2925
Luxus@@	2925
manchen	2924
viel@@	2924
dieselbe	2924
märkten	2924
VO@@	2924
Weiteren	2924
tiefen	2923
Netzes	2923
Samen	2923
Schaltfläche	2923
tan@@	2922
ke-@@	2922
effizienten	2921
öh@@	2921
steu@@	2920
mün@@	2920
24,@@	2920
196@@	2920
aufwand	2919
Wett@@	2919
Palace	2919
draußen	2918
eria	2918
Offenbarung	2918
Glück@@	2917
Paradies	2917
Ä	2917
fügt	2916
Kontrollen	2915
vermutlich	2915
ky@@	2915
bekanntesten	2915
win	2915
Your	2915
vorher@@	2914
gendes	2914
Network	2914
vertrauen	2913
DR@@	2913
optimalen	2912
Fan@@	2912
Palast	2912
systemen	2911
Chemi@@	2911
JavaScript	2911
vert@@	2910
Osteuropa	2910
bet	2910
Mondphase	2910
zulassen	2908
Halbinsel	2908
Schau@@	2908
Cho@@	2908
Golfplatz	2907
nachhaltig	2906
aturen	2906
wirtschafts@@	2905
verwalten	2905
einzigartig	2905
Teilnehmern	2904
Top-@@	2904
ed-@@	2904
Familienzimmer	2904
lag@@	2903
Gebäudes	2903
shar@@	2903
Shar@@	2902
Euro-@@	2902
Aussehen	2902
kam@@	2901
internet	2901
ökologischen	2900
Beseitigung	2900
Lö@@	2900
ehren	2900
Bavaria	2900
Genau	2899
konzep@@	2899
Konflikte	2899
rent	2899
Analysen	2898
Spor@@	2898
demo@@	2897
tte	2897
eingeben	2897
ny@@	2897
stellungs@@	2896
Service-@@	2896
pflanzen	2894
Register	2894
dl@@	2894
optional	2894
afrikanischen	2893
116	2893
kenn@@	2892
23.@@	2892
normale	2891
tional	2891
Vögel	2891
arische	2891
wissenschaft	2891
beratung	2891
Wort@@	2890
beruflichen	2890
ner-@@	2890
fax	2889
tlich	2888
1972	2888
ring@@	2888
elektrischen	2888
ungstechnik	2888
Ohren	2887
host@@	2887
Behörde	2886
113	2886
markiert	2886
passenden	2886
Arbeitsplätzen	2885
ärer	2885
550	2885
ausgestellt	2883
oria	2883
reis	2883
übermittelt	2882
Belastung	2882
illa	2882
schloss	2882
bedeut@@	2881
matische	2881
Aqu@@	2881
kauf@@	2879
Arbeiter@@	2879
ag	2879
л@@	2879
Erfolge	2878
polnischen	2878
through	2877
Registrieren	2877
Elementen	2876
gängen	2876
sions	2875
Höchst@@	2874
tigung	2874
bearbeitung	2874
Val	2874
verbundene	2873
stay	2873
Berichterstatterin	2872
ura	2872
tter@@	2872
Georgien	2872
besichtigen	2871
ror@@	2870
fun	2870
konfrontiert	2869
jeweilige	2869
option	2869
mg	2868
negative	2867
meldungen	2867
bia	2867
Trainings@@	2867
Abschließend	2866
Schlag@@	2866
vern@@	2866
Ausgangs@@	2866
zzo	2866
public	2866
schicht	2865
Zentren	2865
Übersetzungen	2865
folgte	2864
prozess	2864
Leistungsfähigkeit	2863
Gestalt	2862
standards	2862
ten-@@	2862
emo@@	2861
Urlaubs@@	2861
wirkung	2860
hafter	2860
not@@	2860
leichten	2859
ologen	2859
Rela@@	2858
iel@@	2858
Erhalt	2857
Gewerkschaften	2857
bewertung	2856
verhältnis	2856
Versicherungen	2856
galerie	2856
terung	2855
Medizin@@	2855
over@@	2854
email	2854
Privatparkplatz	2854
absolute	2853
bre	2853
Schmi@@	2853
Nar@@	2853
empf@@	2852
Mauer	2852
1975	2852
Veranstaltungsräume	2852
Vogel@@	2851
folglich	2851
Lateinamerika	2851
Wellen	2851
hen@@	2851
sla@@	2851
64-bit	2851
belegt	2850
jeglicher	2850
gestellten	2850
südlich	2850
án	2850
samt	2850
UR	2849
.00	2849
kr@@	2849
politi@@	2848
Werten	2848
vali@@	2848
geschätzt	2848
eck	2848
fähigen	2846
arabischen	2846
Fakten	2846
fisch	2846
Label	2846
zahlungen	2845
zweimal	2845
wachsende	2845
Zusammenfassung	2845
genießt	2844
normal	2844
Eth@@	2844
650	2844
span	2844
MM@@	2844
31.@@	2844
week	2844
240@@	2844
berichte	2843
Fertig@@	2843
121	2843
Stern	2843
Arm@@	2843
ow@@	2843
herrliche	2843
situation	2842
Mul@@	2842
Konsequenzen	2841
armen	2841
manager	2841
cam@@	2841
White	2841
Space	2841
Akteure	2840
langfristigen	2840
40-@@	2840
Fitness	2840
ère	2839
mengen	2838
grenze	2838
SM@@	2838
.08.@@	2838
Imp@@	2837
Glaube	2837
gefahren	2836
sichert	2836
Schuhe	2836
VA	2835
fertigung	2835
Hektar	2834
Nordamerika	2834
Geschlecht	2834
do-@@	2834
ktur	2833
Info@@	2833
amar@@	2833
Z-@@	2833
www.ironmaxx.de	2833
treiben	2832
OK	2832
Kollektion	2832
Wälder	2831
vel	2831
aria	2831
25.@@	2831
GA	2831
Entwicklungsländern	2830
Serbien	2830
Gottes@@	2830
Figuren	2830
gestellte	2829
Anhang	2828
Brunnen	2828
quality	2828
liebt	2828
Special	2828
nbsp	2828
mobilen	2827
bol@@	2827
Anfänger	2826
anzupassen	2825
nische	2825
less	2825
2012-0@@	2825
schien	2824
ast	2824
chtungs@@	2824
Dr@@	2824
Erleben	2824
dasselbe	2823
shop	2823
runden	2823
tagen	2823
willst	2823
CEO	2823
Jehova	2823
Typ@@	2822
Rezepte	2821
spann@@	2820
Schöpfung	2820
Konferenz-	2820
festgelegten	2818
Klassen	2818
Tennis	2818
Macht@@	2817
Saal	2817
it-@@	2817
griff	2817
teste	2817
Laufzeit	2817
einfachste	2817
Hall	2817
own	2817
9-0@@	2817
vornehmen	2816
Sky@@	2816
Vari@@	2816
Sol	2816
enswert	2815
Anschließend	2815
phone	2814
‑	2814
Lake	2813
verweist	2812
prüfung	2812
wol@@	2812
therapie	2812
mußte	2811
dä@@	2811
Krisen@@	2811
beweisen	2811
ernannt	2811
anmelden	2811
hom@@	2811
digung	2810
dm@@	2810
Pur@@	2810
business	2809
vision	2809
ys@@	2808
interessieren	2807
global	2807
Blatt	2807
Dre@@	2807
nieder	2806
nei@@	2806
Rech@@	2805
www.bing.com	2805
Aufwand	2804
alem	2804
Innovations@@	2804
negativen	2803
brü@@	2803
tren@@	2803
Zivil@@	2802
blicken	2801
wunderbar	2801
ub@@	2801
rights	2801
ome@@	2801
mission	2800
gran@@	2800
HI@@	2800
Wol@@	2800
lieferbar	2800
radi@@	2798
Gemeinsame	2797
lität	2797
tot	2797
CON@@	2797
ust	2797
Taf	2797
Marco	2796
Schwert	2796
ve-@@	2796
seri@@	2795
junger	2795
Konkurrenz	2795
PI@@	2795
of-@@	2795
kareha.pl	2795
Gewi@@	2794
Unternehmen@@	2794
Villen	2794
Ulrich	2794
Asyl@@	2793
Wohlstand	2793
zierten	2793
ziel	2793
Aussteller	2793
DB@@	2793
SUITE	2793
Höhepunkt	2792
zukommen	2792
tot@@	2792
bir@@	2792
grenz@@	2791
Georg	2791
Corporation	2791
Fertigungs@@	2790
Come	2790
kreis	2789
Truppen	2789
sexuelle	2789
schützt	2789
Medium	2789
Solar	2789
zweit@@	2788
Hö@@	2788
RS@@	2788
Literatur@@	2787
register	2787
koennen	2787
EU-Mitgliedstaaten	2786
Lieblings@@	2786
äm@@	2786
fahrzeuge	2786
Wesentlichen	2786
pictures	2786
Stück@@	2785
erw@@	2785
Rosen@@	2785
Gutes	2784
Ost	2784
Brau@@	2784
gla@@	2784
Egal	2784
Weiterbildung	2783
jenseits	2782
Jury	2782
Blätter	2782
Schnitt@@	2782
Pensionen	2782
Moon	2782
please	2782
industrielle	2781
Krankenversicherung	2781
satellite	2781
hat@@	2780
bat	2780
Waschbecken	2780
asse	2779
kap@@	2779
Nachfolgend	2779
2016-0@@	2779
müsse	2778
eröffnen	2778
kü@@	2778
Nichts	2778
wies	2778
Katalonien	2778
Quell@@	2778
Ani@@	2777
verbesserte	2777
traf	2776
humanitäre	2776
Pause	2776
Bedrohungen	2776
zugeben	2775
key	2775
temperatur	2775
220@@	2774
Einzelzimmer	2774
.files.wordpress.com	2774
Leb@@	2773
Beratungs@@	2773
SD@@	2773
Hab@@	2773
Platten	2773
Abgeordnete	2771
zustand	2771
Farm	2771
logi@@	2770
Metro	2770
geräumige	2770
ologi@@	2769
tel@@	2769
betten	2769
vorherige	2769
öff@@	2769
в@@	2769
Zulassung	2768
exklusive	2768
Museums	2768
update	2768
einbezogen	2767
fass@@	2767
agentur	2767
Foundation	2767
Zeige	2767
Salon	2766
Entspannen	2766
Split	2766
bc@@	2766
Fur@@	2765
Gesetzes	2765
night	2765
Market	2765
Verhandlung	2764
leben@@	2763
angewandt	2763
woche	2763
Garden	2763
wirtschaftlicher	2762
Kommissions@@	2762
überrascht	2762
istischen	2762
eingerichtete	2762
Cala	2762
ru	2761
Arts	2761
mond	2760
stin	2760
Rand@@	2759
Altar	2759
Bezahlung	2759
Mä@@	2759
Zuhause	2759
ama@@	2759
berufliche	2758
Gay	2758
richtungen	2757
Kontra@@	2757
Orange	2757
Okt	2757
aufgaben	2755
Standorten	2755
teuer	2755
hebt	2755
verschiedensten	2755
Erkrankungen	2755
Hl	2755
niedriger	2754
veranstaltet	2754
Karlsruhe	2753
Feuchtigkeit	2753
sat	2753
Typen	2752
Gut@@	2752
anlässlich	2752
konsultieren	2751
Kandidaten	2751
photo	2751
schten	2750
2018	2750
Vorgaben	2749
Alpen@@	2749
ckten	2748
dreht	2748
analy@@	2748
Stütz@@	2748
arbeiteten	2747
Kindes	2747
Eingabe	2747
ham	2746
Wi-Fi	2746
reine	2745
Aufträge	2745
angeb@@	2745
Ersatz@@	2745
mei@@	2745
olog@@	2744
adi@@	2744
Segment	2743
Jun@@	2743
bester	2743
unterricht	2743
Friendly	2743
Wes@@	2742
trug	2742
ones	2742
folgendes	2741
mmel	2741
zeitraum	2740
DS	2740
abgelehnt	2739
Vizepräsident	2739
schmi@@	2739
stufen	2739
Stadtteil	2739
längst	2738
greift	2738
Dritter	2738
Registry	2737
effizienter	2736
Später	2736
standard	2736
cip@@	2736
regel@@	2735
mail	2735
Neuigkeiten	2735
Hierzu	2734
voran@@	2734
spi@@	2734
EUR@@	2734
Manche	2734
club	2734
zweifellos	2733
Zeilen	2733
Verpackungs@@	2733
einrichtung	2733
foto@@	2733
long	2732
vorschlagen	2731
value	2731
spieler	2731
alisten	2730
auswärtige	2730
Navigation	2730
ierungen	2729
zar@@	2729
Hindernisse	2728
Istanbul	2728
Pie@@	2728
0,5	2728
Cast@@	2728
3.jpg	2728
leute	2726
verwandelt	2726
durchschnittlich	2726
filter	2726
behoben	2725
methode	2725
chteten	2725
PC-@@	2725
Ima@@	2725
Mid@@	2724
ji@@	2724
Software@@	2723
boot	2723
vorlegen	2722
hilfreich	2722
verteilung	2722
Misch@@	2722
Gründer	2721
band@@	2721
Chicago	2721
Hochzeit	2721
ellen@@	2720
gehörte	2720
ökonomische	2720
lationen	2719
fügen	2719
täts@@	2719
Friedens	2717
Monte@@	2717
Höhen@@	2716
onia	2716
Anlagen@@	2716
etzt	2715
chtungen	2714
Aufruf	2714
Juan	2714
Louis	2714
Point	2714
24.@@	2714
cart	2714
Besonderheiten	2713
arm	2713
geber	2713
gewählten	2712
Besucher@@	2712
Bestellungen	2712
Evangelium	2712
GU@@	2711
isten	2711
Clubs	2711
Ausmaß	2710
erhöhte	2710
Wohn-	2710
eingeleitet	2709
lebenden	2709
oll	2709
132	2709
beobachtet	2708
1974	2708
anzen	2707
ausländische	2707
identifizieren	2707
erbar	2707
PD@@	2707
wär@@	2707
Schauspieler	2707
Übergangs@@	2706
Schwimm@@	2704
Grafik	2704
fahrts@@	2703
erend	2703
such@@	2703
Buchstaben	2703
Maßstab	2702
Schall@@	2702
Herausgeber	2702
basieren	2701
Very	2701
Zunahme	2700
Zwar	2700
Zufriedenheit	2700
aktionen	2700
rock@@	2700
institutionellen	2698
fes	2698
Ner@@	2698
Gur@@	2698
halb@@	2697
Vergnügen	2697
Bin@@	2696
nötigen	2696
Wetter@@	2696
again	2696
halben	2695
sie@@	2695
Krankenhaus	2694
stecken	2694
Versuche	2693
Sing@@	2693
Baum@@	2693
music	2693
verteidigen	2692
Ernst	2692
barco-@@	2692
Meilen	2691
ogra@@	2691
did	2691
schriften	2690
ord	2690
erstklassigen	2689
effektive	2688
Marketing@@	2688
stage	2688
ina@@	2688
Indonesien	2687
optimieren	2687
zeug@@	2687
AF@@	2687
abel@@	2686
zentraler	2686
sitz	2686
Pferd	2685
stab@@	2685
überwiegend	2685
Komm@@	2685
Rhein@@	2685
Touristinformationszentrums	2685
zusehen	2684
nachfolgenden	2684
bricht	2684
berühmt	2684
Inhaber	2684
м@@	2684
Auftraggeber	2683
orientiert	2683
sser	2683
Kabel@@	2683
chin@@	2683
nig	2682
Umstände	2682
ho	2682
Junge	2682
.03.@@	2682
bestimmungen	2681
hinten	2681
Athen	2681
Weiß	2681
users	2681
clu@@	2681
stete	2679
Funktion@@	2679
mikro@@	2679
Erstellen	2679
voran	2678
höchster	2678
mäßige	2678
jan	2678
ción	2678
bili@@	2677
Anbindung	2677
Marine	2677
Servi@@	2677
cle@@	2677
Gemälde	2677
änderung	2676
Vegas	2676
Verfassungs@@	2675
Informatik	2675
Nicht-@@	2675
Resultat	2674
eff@@	2674
angefangen	2673
europ@@	2673
heu@@	2673
Handbuch	2673
uer@@	2673
AUS@@	2673
Statistiken	2672
loser	2672
Bauer	2672
By	2672
.png	2672
intensive	2671
Überlegungen	2671
untereinander	2671
ringen	2671
Project	2671
ring	2671
2008-@@	2671
einiges	2670
reagiert	2670
High@@	2670
ł@@	2670
s1600	2670
xn--12ca8j2al6k.net	2670
Million	2669
wander@@	2669
psych@@	2669
gehenden	2668
ca-@@	2668
pl	2668
wirtschaft@@	2667
lief	2667
Wanderung	2667
zuverlässige	2666
Stoff	2666
reser@@	2666
1977	2666
muster	2666
befasst	2666
Stro@@	2665
Reichweite	2664
geld	2664
ín	2664
dé@@	2664
modernes	2664
gelang	2664
Schmerzen	2664
low	2664
gest	2664
struktur@@	2663
wesentlicher	2663
ka-@@	2663
Hier@@	2663
meet	2663
Bedrohung	2662
Avenue	2662
Rezept	2661
Ausflug	2661
Rande	2660
Beschwerden	2660
Wit@@	2660
River	2660
abschluss	2660
Es@@	2660
Taten	2659
155	2659
oftmals	2659
trocken	2659
FO@@	2659
tatsächlichen	2658
pati@@	2658
supp@@	2658
wachen	2657
chi	2657
Wellness@@	2657
CT	2657
8-0@@	2657
investiert	2656
ysi@@	2656
Chinas	2655
beseitigen	2655
Para@@	2655
aff@@	2655
Studierenden	2655
13-@@	2655
Veranstaltungs@@	2655
Begriffe	2654
raum@@	2654
Halbjahr	2653
gemütlich	2653
davor	2652
Gegen	2652
Mechanismen	2651
aufeinander	2651
schulen	2651
iere	2651
bon@@	2651
IB@@	2651
Habana	2651
betriebe	2650
sicherung	2650
eht	2650
bücher	2650
ungsmittel	2650
Füße	2650
Hyper@@	2650
Wilhelm	2650
Kürze	2649
militärische	2649
verwendete	2649
menten	2649
gerä@@	2648
täten	2648
änge	2648
Audi	2648
chinesische	2647
isti@@	2647
Sche@@	2647
rollen	2647
dichte	2646
Apostel	2646
A1	2645
Frucht	2645
Quar@@	2645
RO	2645
ungsverfahren	2644
angeben	2644
Stuhl	2644
Bogen	2644
Hän@@	2643
laufende	2643
programms	2643
Feder@@	2643
regelmässig	2643
Deswegen	2642
Genauigkeit	2642
Zeugen	2641
Gerichts@@	2641
Privatsphäre	2640
126	2640
wind	2640
Tak@@	2640
arts	2640
Erfahren	2640
25H	2639
IK@@	2638
Ou@@	2638
IL@@	2638
Konsum@@	2637
japanischen	2637
Cab@@	2637
restaurant	2637
umfassend	2636
zigen	2636
Offen@@	2636
böden	2636
cy@@	2635
geteilt	2634
verarbeitung	2634
benutzer@@	2634
Widerspruch	2633
Häusern	2633
Übungen	2633
FL@@	2633
leistet	2632
Gebäude@@	2632
industri@@	2632
Platten@@	2632
Ibiza	2632
Verfolgung	2631
Entdeckung	2631
wusste	2631
abgegeben	2630
entscheidet	2630
Hintergrund@@	2630
ska@@	2630
Haar	2630
165	2630
fig@@	2630
ath	2630
geniessen	2629
gischen	2628
unterhalb	2628
Ortschaft	2628
include	2628
Komponente	2627
bewältigen	2627
gelb	2627
haut	2626
älteste	2626
Energi@@	2626
u-@@	2626
Anmerkung	2625
pel@@	2625
kurz@@	2625
ero	2625
kind	2624
Schreibtisch	2624
bene	2623
Chef	2622
beinahe	2622
vielfältige	2622
Bischof	2622
Rem@@	2622
bay@@	2621
mot@@	2621
versorgt	2621
zeige	2621
21.0@@	2621
games	2621
stie@@	2620
AP	2620
wertung	2619
Jean	2619
Heu@@	2619
atur	2619
Festung	2618
eingerichteten	2618
herstellen	2618
GrÃ	2618
Reaktionen	2617
wach@@	2617
Liberalisierung	2617
Gefühle	2617
Seelen	2617
Binnen@@	2616
hö@@	2616
zent@@	2616
töten	2616
Leib	2616
antiken	2616
Informieren	2616
2011-0@@	2616
wonach	2615
regionen	2615
dei	2615
teure	2614
lob@@	2614
kür@@	2614
deli@@	2614
Radio@@	2614
ensystem	2613
sou@@	2613
II@@	2613
Dia@@	2613
ermitteln	2612
Dienstleistung	2612
Mir@@	2612
Grün	2612
Erstausstrahlung	2612
BvR	2612
neueste	2611
INTER@@	2610
Dritt@@	2610
Motoren	2610
Spin@@	2610
But	2610
Chemie	2610
energie@@	2608
such	2608
CO2-@@	2607
255	2607
Stufen	2607
wuchs	2607
han	2607
Mail@@	2607
Programmierung	2606
Muss	2606
think	2606
Bundesrepublik	2605
sitzt	2604
optimiert	2604
zulässig	2603
gesunden	2603
englischer	2603
ester@@	2603
Finden	2602
ney	2602
saal	2601
Wünschen	2601
agen@@	2601
Abreise	2601
Key@@	2601
Theater@@	2601
hu	2601
Kapelle	2601
drin@@	2600
Operationen	2600
aufnahmen	2600
Standorte	2600
Präsentationen	2600
Chr@@	2599
Hof@@	2599
Pferde	2599
SQL	2599
vorge@@	2598
örtlichen	2598
modelle	2598
kanischen	2598
Aktuell	2598
schein	2597
io	2597
richt@@	2596
Konzer@@	2596
analysieren	2596
freund@@	2596
energie	2596
Sant@@	2596
menü	2596
Berat@@	2595
Cla@@	2595
one@@	2595
Jahrhunderte	2594
komplex	2594
Gastronomie	2594
bedingt	2593
beliebigen	2593
Rad	2593
dankbar	2593
DVD-@@	2593
UM	2593
mitglied	2592
refer@@	2592
hütte	2592
ältere	2591
Please	2591
echt	2591
Amp@@	2591
met	2591
26.@@	2591
zweiter	2590
Alters@@	2590
IP-@@	2590
stil@@	2589
SF@@	2589
Fortsetzung	2588
nein	2588
Zertifizierung	2588
Datenzugänge	2588
Nahrungsmittel@@	2587
ye	2587
Pflege@@	2587
beru@@	2586
glas	2586
Kant@@	2586
full	2586
eingehalten	2585
geholfen	2585
Zuschauer	2585
TE@@	2585
farb@@	2585
omp@@	2584
Computers	2584
water	2583
Politik@@	2582
Aktionsplan	2582
127	2582
morgens	2581
Deck@@	2581
pur	2581
sli@@	2581
vereinbarten	2580
anwendungen	2580
Nichtraucherunterkunft	2580
prices	2579
AAAAAAAA@@	2579
überwachen	2578
Kontinent	2578
emin@@	2578
Black@@	2578
angemessenen	2577
erwähnen	2577
breites	2577
eingetragen	2577
Hot@@	2577
erfassen	2576
Flasche	2576
Times	2576
Strei@@	2576
cop@@	2576
Petrus	2576
legten	2575
behauptet	2574
platz@@	2574
Updates	2574
album	2574
HER@@	2573
runde	2572
touristischen	2572
Ciudad	2572
änderungen	2571
Diensten	2571
118	2571
informa@@	2571
arte	2571
neg@@	2570
alternative	2570
deck@@	2570
festzustellen	2570
little	2570
lovely	2570
az@@	2569
heutzutage	2568
diesmal	2568
ED	2568
tele@@	2568
Rubrik	2567
proje@@	2567
montiert	2567
zahlung	2566
blei@@	2566
Front	2566
bot@@	2566
Lade@@	2566
2009-0@@	2566
Verlängerung	2565
Mün@@	2565
Ehe@@	2565
Ñ@@	2565
Lagerung	2564
NE	2564
Dom	2564
wirft	2563
Visa	2563
Süß@@	2563
comm@@	2563
entnehmen	2562
Simon	2562
zed	2562
800@@	2562
600@@	2562
entry	2562
wozu	2561
Emissions@@	2561
fischen	2561
Klassen@@	2561
she	2561
gehandelt	2560
beliebten	2560
Generiert	2560
betragen	2559
entscheidenden	2558
kehren	2558
ik	2558
Labor	2557
mmern	2557
sty@@	2557
zurückkehren	2556
teilte	2555
gesichert	2555
eto	2555
orn	2555
Josef	2555
Gemeinschaft@@	2554
begründet	2554
här@@	2554
ques	2554
1969	2554
jedenfalls	2553
Phoenix	2553
Wände	2553
wettbewerbs@@	2552
stands@@	2552
exzellenten	2552
perfekten	2552
Ausübung	2551
untergebracht	2551
besuchte	2551
entscheidender	2550
Uhren	2550
ien@@	2550
Oh	2550
Africa	2549
Blumen@@	2549
stärksten	2548
befreit	2548
land-@@	2548
114@@	2548
letztendlich	2547
irgendwo	2547
Fußball@@	2547
Singapur	2547
Leinwand	2547
1968	2546
French	2546
ständiger	2545
Lebensmitteln	2545
messages	2545
gy	2545
teilzunehmen	2544
befand	2544
ardo	2543
Diagno@@	2542
290	2542
revolutionäre	2542
Dutch	2542
operativen	2541
anzuwenden	2541
König@@	2541
Zahlreiche	2540
rein@@	2540
herz@@	2540
Saf@@	2540
separates	2540
Glaubens	2539
einstellungen	2539
front	2539
wirk@@	2538
lang@@	2538
ßer	2537
Geschirr	2537
halb	2536
überwacht	2535
wes@@	2535
extra@@	2535
sign@@	2535
Tasche	2535
anwesend	2534
129	2534
Kopenhagen	2534
Auswertung	2534
Platz@@	2534
küste	2533
ander	2533
Hon@@	2533
lokaler	2532
üblich	2532
eigenschaften	2532
Fenster@@	2532
.exe	2532
guia	2532
zerstören	2531
aqu@@	2531
Cagliari	2531
Tit@@	2530
Fig@@	2530
stützen	2529
Stil@@	2529
müsste	2529
Machen	2528
anten@@	2528
zy	2528
22-@@	2528
Herdplatten	2528
zwanzig	2527
Diagnose	2527
sure	2527
mehrfach	2526
fortsetzen	2526
Radfahren	2526
umsetzen	2525
angekommen	2525
Denk@@	2525
Gerne	2525
Genua	2525
zte	2525
ols	2524
Bike	2524
Mahlzeiten	2523
Dri@@	2523
Aluminium@@	2523
irgendwelche	2522
133	2522
Muskel@@	2522
Van@@	2521
ad-@@	2521
ungs-@@	2521
results	2521
fers	2520
.01.@@	2520
Schiffs@@	2519
Tech@@	2519
Quer@@	2519
ati	2519
Reparatur	2519
wood	2518
produkt	2518
kation	2518
Heilung	2518
Persönlichkeit	2517
union	2517
CDs	2517
auto	2517
Alliance	2517
Button	2517
jährliche	2516
Wille	2516
geplante	2516
134	2516
Kamer@@	2516
Quali@@	2515
Hierbei	2515
gi	2515
225@@	2515
20,00	2515
Ehr@@	2514
Oster@@	2514
Real@@	2514
Genuss	2514
verwaltet	2513
körper@@	2513
automatischen	2513
lass	2513
gst	2512
staff	2512
Problem@@	2511
gemeinsames	2511
diagno@@	2511
sing@@	2511
Jünger	2511
berat@@	2510
Landwirte	2510
verhältnisse	2510
om-@@	2510
Zertifikat	2510
metall@@	2510
folgender	2509
Instituts	2509
Oberflächen	2509
Schwestern	2508
setzten	2507
basierten	2507
research	2507
Tauchen	2507
Nachbarschaft	2506
rec@@	2506
п@@	2506
momentan	2505
gefähr@@	2505
Michel	2505
Set@@	2505
change	2505
orientierten	2504
Rec@@	2504
Edit	2504
Vin@@	2503
e.	2503
allzu	2502
Schriften	2502
Block	2502
Kno@@	2502
lock@@	2502
soon	2502
Number	2502
Riviera	2502
gezielt	2501
Frieden@@	2501
tech@@	2501
lit@@	2501
Künstler@@	2501
Auslegung	2500
macher	2500
Breakfasts	2500
abgesch@@	2499
klassi@@	2499
ito	2499
Santiago	2499
personenbezogenen	2498
Gesetz@@	2498
fotos	2498
Med@@	2498
Gebirge	2498
perfect	2498
British	2497
übrig	2497
kab@@	2497
Dampf@@	2497
aufbauen	2496
large	2496
Handels	2495
konto	2495
Comm@@	2495
Stan@@	2495
fb@@	2495
körper	2494
eus	2494
Reit@@	2494
merken	2493
verleiht	2493
fuhren	2492
ami	2492
langjährige	2492
versuchte	2492
town	2492
Ludwig	2492
vorkommen	2491
reifen	2491
ausführen	2491
Prote@@	2491
Gem@@	2491
Befreiung	2491
Kö@@	2491
regionaler	2490
offen@@	2490
Erzeugung	2490
türkischen	2490
Rap@@	2489
Behandlungen	2489
Bügelservice	2489
leuchten	2488
fehler	2488
Lied	2488
mÃ	2488
zit@@	2487
Weiterlesen	2487
news@@	2487
späten	2486
räu@@	2486
gefährlich	2485
nahen	2485
223@@	2485
gy@@	2485
vorhaben	2484
Liber@@	2484
realen	2484
Schritten	2484
Träger	2484
fortgesetzt	2484
Print	2484
Dialogs	2483
Datenbanken	2483
visi@@	2483
bewundern	2483
Kette	2482
zeich@@	2482
familie	2481
umgehen	2480
blieben	2480
ver-@@	2480
Netzwerke	2480
Editor	2480
glichkeit	2479
weisung	2479
Trennung	2479
tifi@@	2479
sw@@	2479
Hochschulen	2479
servi@@	2479
141	2478
zunehmen	2477
ahn@@	2477
Problems	2477
pon@@	2477
t.	2477
schenken	2476
Phänomen	2476
Abbildungen	2476
initi@@	2475
punkten	2475
142	2475
Ann@@	2475
heilige	2475
zwingen	2474
Wohnsitz	2474
Grundrechte	2474
zugs@@	2474
ep	2474
Dublin	2473
Klang	2473
kali@@	2473
Immun@@	2473
computer@@	2472
ausgegeben	2471
währ@@	2471
ganzes	2471
ziger	2471
Modellen	2471
auswahl	2471
finanzierung	2470
Ah@@	2470
Bereitschaft	2470
öse	2470
Pel@@	2470
diesjährigen	2470
ups	2470
anbieter	2469
istische	2469
einsatz	2469
Schloss@@	2469
decke	2468
Petersburg	2468
gestärkt	2467
schlüsse	2467
irgendwie	2467
Mehrere	2467
Chin@@	2467
Rica	2467
Metro@@	2467
Silber@@	2467
using	2467
einheitliche	2466
Gerichten	2466
steine	2466
mals	2466
zukunfts@@	2466
me-@@	2466
Schwar@@	2466
ration	2466
Mechanismus	2465
Solutions	2465
Search	2465
Sty@@	2465
nü@@	2464
löst	2464
brücke	2464
Italia	2464
gefüllt	2464
ftung	2464
Moder@@	2463
hellen	2463
origin@@	2462
Reform@@	2462
Indem	2462
vermieden	2462
Zauber@@	2461
fied	2461
play@@	2461
Kontaktieren	2461
Heimat@@	2460
verliert	2460
äch@@	2460
o.com	2460
hinein@@	2459
age@@	2459
Betracht	2458
deckt	2458
Amerikaner	2458
Tem@@	2458
Dubai	2458
CET	2458
Neg@@	2457
Dauer@@	2457
Vorder@@	2457
27.@@	2457
Kuchen	2457
Vide@@	2457
Regulierung	2456
main@@	2456
ume	2456
idealen	2456
ria	2456
Drittländern	2455
VE	2455
geredet	2455
Estland	2455
operative	2455
künstlerische	2455
Distribution	2455
höchst	2454
biologischen	2454
ungspolitik	2454
stisches	2454
gutem	2454
-Email	2454
nischer	2453
freu@@	2453
Brü@@	2453
Vir@@	2453
Food	2453
Gall@@	2453
Objekt@@	2453
reinen	2452
5.000	2452
Lehren	2452
benannt	2452
Komplex	2452
verglichen	2452
Maß@@	2452
Cham@@	2452
Symbole	2452
oto	2452
Busse	2452
Markus	2452
1967	2452
terra@@	2452
2.5	2452
ellem	2451
Netze	2451
gste	2451
Siemens	2451
Digital@@	2450
Taiwan	2450
komponenten	2450
fit	2450
Tag@@	2450
comment-@@	2450
sichts@@	2449
kehr@@	2449
Emi@@	2449
mut	2449
komfortablen	2449
Chemische	2449
westlich	2448
tumblr.com	2448
herunter@@	2447
geschlossenen	2447
gesteuert	2447
Gru@@	2447
Portfolio	2447
tical	2447
gesellschaftliche	2446
Aufstieg	2446
Kleider	2446
message	2446
mehrerer	2445
generell	2445
vorsichtig	2445
gebo@@	2445
Begründung	2444
Male	2444
handels@@	2444
Kle@@	2444
Lieder	2444
comfortable	2444
einig	2443
Argument	2443
bedeutendsten	2443
schrei@@	2443
Aut@@	2442
erforderliche	2442
Versicherung	2442
sun@@	2442
ph	2442
Alten	2442
eigentliche	2441
widmen	2441
Argumente	2441
erfreut	2441
Weiterhin	2441
Bür@@	2441
Stränden	2441
380	2441
look	2441
±	2441
Jungfrau	2441
Ausarbeitung	2440
27-@@	2440
Beschlüsse	2439
besorgt	2439
aufweisen	2439
eile	2439
FC	2439
Intel	2439
schlechte	2438
rang	2438
Implementierung	2438
Empf@@	2438
Wachstum@@	2438
chem	2438
Aires	2438
malerischen	2438
kö@@	2437
generiert	2437
www.m@@	2437
Ide@@	2436
lichste	2436
offenbart	2436
Last@@	2436
Opposition	2436
5000	2436
Lobby	2436
Kapitalismus	2436
William	2436
zurzeit	2436
Buenos	2436
mittelalterlichen	2436
even	2435
kapazität	2435
Stress	2435
wl.static.fotolia.com	2435
Cle@@	2434
Polyester	2434
KL@@	2433
Sebastian	2433
Gemäß	2432
Zeitalter	2432
Kanäle	2432
enorme	2432
par	2432
effe@@	2432
Arena	2432
Alte	2432
Zit@@	2432
499	2432
schon@@	2431
Trainer	2431
Camp	2431
basierend	2431
Alternativen	2430
Beruf@@	2430
-out	2430
Gitarre	2430
Lebensqualität	2429
modi@@	2429
Training@@	2429
tiver	2428
Aufenthalts@@	2428
schungen	2428
rechnung	2428
stuhl	2428
mitgeteilt	2427
Momente	2427
sale	2427
pic@@	2427
Foren	2426
holz@@	2426
ting	2426
UB@@	2426
Over@@	2426
Vitamin	2425
Swimmingpool	2425
sozial@@	2424
anzunehmen	2424
heb@@	2424
Väter	2424
slo@@	2424
matischen	2424
Stockholm	2424
Beachten	2424
Uhr@@	2424
SH@@	2424
р@@	2424
Kapazitäten	2423
regelmäßige	2423
Eng@@	2423
sia	2423
Regisseur	2423
pet@@	2423
Mode@@	2423
sens@@	2422
Arzneimittel	2422
termin@@	2422
Konzeption	2422
horn	2422
Klassi@@	2422
Aussch@@	2421
Ganze	2421
Schöne	2421
ures	2421
ausgerüstet	2421
PE	2421
NATO	2420
Ball	2420
ott	2420
dü@@	2420
mat	2420
Shows	2420
01.0@@	2420
straßen	2419
spiegelt	2419
Kart@@	2419
VI	2419
arischen	2419
Versuchen	2419
Figur	2419
tionspro@@	2418
zü@@	2418
Endlich	2418
polis	2418
funktion@@	2417
Viel@@	2417
Pakistan	2417
unbegrenzten	2417
Hard@@	2417
Suites	2417
stoppen	2416
215@@	2416
cas	2416
wü@@	2415
pp	2415
Afri@@	2415
regelmäßigen	2415
Zir@@	2415
müssten	2415
Director	2415
Aktualisiert	2415
ysteme	2414
gefühl	2414
ENT	2414
schwei@@	2414
mithilfe	2414
abends	2413
gkeit@@	2412
WTO	2412
mpf@@	2412
festival	2412
Güter	2411
umgehend	2411
konsequent	2411
Verschie@@	2411
matisch	2411
Action	2411
pers	2411
überlassen	2410
Bach	2410
verzeichnis	2410
Stri@@	2410
CO2	2409
Gesetzes@@	2409
beschleunigen	2409
Import	2409
er-	2409
esp	2409
Geburts@@	2408
Vorträge	2408
Unterkategorien	2408
äußern	2407
dicht	2407
ental	2407
SB@@	2407
beider	2406
Bedingung	2406
starker	2406
Panoramablick	2406
.com.	2406
Pad@@	2405
organisierten	2404
Pass	2404
Bewegungs@@	2404
Junior	2404
Füßen	2403
Jeden	2402
Pierre	2402
differen@@	2401
Export@@	2401
Universitäts@@	2401
hieß	2400
ass	2400
jenem	2399
wu@@	2399
Versand@@	2399
Professional	2399
Blogs	2399
Cirque	2399
religiöse	2398
bauer	2398
Hydro@@	2398
Interface	2398
Sandstrand	2398
tum	2397
zusetzen	2396
Kü@@	2396
GE@@	2396
9001	2396
Vermittlung	2395
ual	2395
Fle@@	2395
betonte	2395
Conference	2395
each	2395
nisch	2394
Beine	2394
Sendung	2394
Wohlbefinden	2394
jas	2394
Rot	2394
Erfolgs@@	2393
Ring@@	2393
forderte	2393
landwirtschaftlichen	2392
mitteilen	2392
vorhandene	2392
bab@@	2392
Fru@@	2391
AI@@	2391
Keramik	2391
Provence	2391
chtige	2390
eigentlichen	2390
idealer	2390
Bell@@	2390
tun@@	2389
nördlichen	2389
stabil	2389
lagern	2389
Vier	2389
umso	2389
NL	2389
Up@@	2389
s.de	2389
Angriffe	2388
otes	2388
roll@@	2388
Bier@@	2388
Gläubigen	2387
bibliothek	2387
details	2387
29-@@	2386
einzelner	2385
eurem	2385
sst	2385
fur	2385
Fahrzeugen	2384
unglaublich	2384
dynamische	2384
College	2384
Record	2384
Hi	2384
portfolio	2384
lbs	2384
Schweiß@@	2384
database	2384
Management@@	2383
dio@@	2383
gestorben	2383
124	2383
Atem@@	2383
Explorer	2383
mit-@@	2383
Ø	2383
1.1	2382
U-Bahn	2382
GT@@	2382
ueber	2382
Kanarische	2382
konvertieren	2382
durchschnittliche	2381
Welle	2381
Adam	2381
Erwachsenen	2381
Winkel	2381
nig@@	2380
wat@@	2380
küche	2380
vorzulegen	2379
brei@@	2379
Beachtung	2379
Bemerkungen	2379
ario	2379
ements	2379
schli@@	2378
eiter	2378
Griff	2378
Store	2378
1.5	2378
blaue	2377
ein-@@	2377
erfahrenen	2377
verteilen	2376
Ankündigung	2376
Begleitung	2376
Jes@@	2376
etti	2376
phi@@	2375
Nächste	2375
doppel@@	2374
Andererseits	2374
eilen	2374
Vorschlägen	2374
pie@@	2374
Massen	2374
film@@	2374
17-@@	2374
chen-@@	2373
geräumigen	2373
riesige	2372
dene	2372
spanische	2372
graphi@@	2371
SL@@	2371
Stille	2371
EG-@@	2370
assi@@	2370
häufigsten	2370
Peru	2370
tzen	2370
Rückseite	2369
Nutzungs@@	2369
het	2369
faktor	2368
ums@@	2368
umgekehrt	2368
parti@@	2368
lie	2368
eingang	2368
Hong	2368
UC@@	2367
Handlung	2367
män@@	2367
330	2367
2.000	2367
stock	2366
geni@@	2366
10.000	2366
entation	2366
2010-0@@	2366
bezeichnen	2365
matik	2365
virtu@@	2365
rol@@	2365
linke	2364
vorherigen	2364
Gewinne	2364
schau	2364
Administration	2364
Poker@@	2364
vorschläge	2363
sozi@@	2363
zun@@	2363
erzielte	2363
gegenseitig	2363
inischen	2362
Mann@@	2362
Beschwerdeführerin	2362
PDF-@@	2362
Hohen	2361
Bilder@@	2361
Charta	2360
lings@@	2360
zah@@	2360
wort	2360
ages	2360
Language	2360
Webcam	2360
Einzelnen	2359
Freie	2359
serie	2359
Libanon	2358
Barb@@	2358
vin	2358
stel@@	2358
cache	2358
klären	2357
Minimum	2357
außerordentlich	2356
damaligen	2356
gerechnet	2356
verständlich	2356
Hunger	2356
Kameras	2356
185	2356
136	2356
Gemein@@	2355
wünscht	2355
gang@@	2355
grund	2355
kos	2355
any@@	2355
Helsinki	2354
Kurs@@	2354
deutet	2354
gerte	2354
Leucht@@	2353
herausfinden	2353
waschen	2353
stren@@	2352
Staatsan@@	2352
Stau@@	2352
Erinnerungen	2352
Reiten	2352
festlegen	2351
telefonieren	2351
vice	2351
folgten	2350
klu@@	2350
Anordnung	2350
196	2350
MON@@	2350
Zentrums	2349
erwärmt	2349
Erlaubnis	2349
brin@@	2348
Krieg@@	2348
Bul@@	2348
Telefax	2348
Fels@@	2348
Erscheinung	2347
derzeitige	2347
englische	2346
sexuellen	2346
Á@@	2346
Proje@@	2346
Leder@@	2346
liefer@@	2346
ym@@	2346
read	2346
ř@@	2346
Mängel	2345
Netto@@	2345
Bauteile	2345
Produzenten	2345
strecke	2345
Category	2345
Wichtig	2344
lehr@@	2344
singen	2344
Bibione	2344
gor@@	2343
Zentrale	2343
sex	2343
close	2343
.02.@@	2343
ater@@	2342
3.0	2342
Holding	2342
Matthias	2342
überra@@	2341
Zucker@@	2341
tü@@	2341
Jahreszeit	2341
wunderbaren	2340
stücken	2340
cla@@	2339
President	2339
wenigstens	2338
Landschafts@@	2338
Werkzeug@@	2338
Executive	2337
144	2337
Abraham	2337
org	2337
2015-@@	2337
Anregungen	2336
mitzu@@	2336
Kompromiss	2336
zusammengestellt	2336
B.@@	2336
Excel	2336
к@@	2336
geregelt	2335
Gemeinde@@	2335
UNGEN	2335
Harmonie	2335
Prüfungen	2334
hiermit	2334
Gesellschafts@@	2334
schlimmsten	2334
umliegenden	2334
Tschechien	2334
WE@@	2334
wohin	2333
ruf	2333
Meiner	2332
erhielten	2332
erheblichen	2332
eau	2332
Loch	2332
Call	2332
gabe@@	2332
09.@@	2332
53.@@	2332
Auswahl@@	2331
nö@@	2331
Stamm	2331
kopf	2331
ae@@	2331
Arbeitsgruppe	2330
Strafe	2330
tigem	2329
Beratungen	2329
besetzt	2329
Mod@@	2329
Gratis	2329
ausgebaut	2328
steigenden	2328
kle@@	2328
fa	2328
†	2328
Vall@@	2327
of@@	2327
älter	2327
größter	2327
Dal@@	2327
Terra@@	2327
Mich@@	2327
kon	2327
26-@@	2327
technologischen	2326
greif@@	2325
medien	2325
sicherer	2324
lex@@	2324
dieselben	2324
lle	2324
Haltestelle	2324
explo@@	2323
Single	2323
kritischen	2322
Ep@@	2322
exakt	2322
Mineral@@	2322
21,@@	2322
Schicht	2322
Schulungen	2321
Einschränkungen	2321
Sekunde	2321
camp@@	2321
num@@	2321
dorthin	2320
Stei@@	2320
Neuseeland	2320
run@@	2320
Freiburg	2320
ice	2320
Terrassen	2320
erarbeitet	2319
aufer@@	2319
papier	2319
Good	2319
unen	2319
Torre	2319
raums	2318
erwiesen	2318
Neur@@	2318
228	2318
lon@@	2318
Reisezielen	2318
beschränken	2317
engagiert	2317
Jean-@@	2317
Pflanze	2317
1971	2317
Kong	2317
gia	2316
Guest	2316
P.@@	2316
у@@	2316
veröffentlichten	2315
ehrlich	2315
Verteidigungs@@	2315
Flotte	2315
Spa@@	2315
Fahrräder	2315
ship	2315
fM	2315
Verband	2314
Königin	2314
zertifiziert	2314
fir@@	2314
inclusive	2314
solide	2313
spannung	2313
beoordelingen	2313
schwache	2312
geschlossene	2312
ahn	2312
Rosa	2312
Reifen	2312
Meister@@	2312
Zorn	2312
Minderheiten	2311
lös@@	2311
Ank@@	2311
go-@@	2311
Metal	2311
zielt	2310
teilgenommen	2310
Fabrik	2310
ul	2310
Kron@@	2310
www.facebook.com	2310
100g	2310
catalog	2310
endete	2309
üt@@	2309
elegant	2309
Sensoren	2309
added	2309
Lot@@	2308
Wellen@@	2308
auftritt	2308
tiefer	2308
Valle	2308
Passagiere	2308
strand	2308
M.@@	2307
PER@@	2307
denjenigen	2306
Fleisch@@	2306
günstigsten	2306
FR@@	2306
kultur@@	2305
Entwicklungsländer	2305
Auseinandersetzung	2305
Messer	2305
PA@@	2305
Brust@@	2305
Decke	2305
Vietnam	2304
Os@@	2304
verwirklichen	2303
illegalen	2303
schü@@	2303
rie	2303
geschi@@	2303
Verkehrsmittel	2303
Sierra	2303
clean	2303
ort-@@	2303
10.00	2303
beantwortet	2302
Katastrophe	2302
städtischen	2302
ausgewählte	2302
info@@	2302
Harmonisierung	2301
voraussichtlich	2301
womit	2301
enten@@	2301
kombinieren	2301
Ay@@	2301
Veranstalter	2301
HR@@	2301
Rohstoffe	2300
Tempo	2300
Alb@@	2300
Rezep@@	2300
Angesicht	2300
Psych@@	2300
erschaffen	2300
zäh@@	2299
Ehe	2299
nördlich	2299
contact	2299
Victoria	2299
Co	2299
Ebenfalls	2298
dauerhaft	2298
kran@@	2298
Norm	2298
Bä@@	2298
Klinik	2298
away	2298
ec	2298
embed	2298
10.0@@	2297
anstelle	2296
Aspekten	2296
Behandlungs@@	2296
CSS	2296
5909@@	2296
chtete	2295
Schichten	2295
ktiven	2295
soli@@	2295
Bäder	2295
Knecht	2295
kanotix.com	2295
mäßigen	2294
anger@@	2294
21-@@	2294
Öffnen	2294
zel	2294
ausgehen	2293
Investitionsbank	2293
pers@@	2293
kochen	2293
Dubrovnik	2293
book@@	2293
Segen	2292
Min.	2292
umzu@@	2291
850	2291
are@@	2291
2013-0@@	2291
gestiegen	2290
gegenwärtige	2290
vertrieben	2290
UK@@	2290
ta-@@	2290
Converter	2290
günstiger	2289
Ersatz	2289
großartige	2289
meister@@	2289
hang	2289
Münzen	2289
östlich	2289
vertreter	2288
größen	2288
Politi@@	2287
körperliche	2287
ity@@	2287
before	2287
Wirtschaftswachstum	2286
uk	2286
Haupt	2286
Dame	2286
offers	2286
Sofern	2285
Nachweis	2285
Archive	2285
Smart	2285
starkes	2284
füllt	2284
cin@@	2284
Bakterien	2284
kabel	2284
Abbau	2283
katholischen	2283
derten	2283
wick@@	2283
Merk@@	2283
Village	2283
rup@@	2282
Verletzungen	2282
gkeits@@	2282
Blan@@	2282
brand@@	2282
Medical	2282
überaus	2281
Budget	2281
Domini@@	2281
Persönlichkeiten	2281
leiste	2281
Wettbewerbs	2280
Pflichten	2280
streng	2280
Absol@@	2280
Gastfreundschaft	2280
ule	2280
Applikationen	2280
Halbpension	2280
Aufforderung	2279
mechanische	2279
ake	2279
höfe	2279
30.@@	2279
Jürgen	2279
utes	2278
ı@@	2278
vorliegen	2277
sien	2277
tain@@	2277
boo@@	2277
ssern	2276
zes@@	2276
langem	2276
Somm@@	2276
mündlichen	2275
dynamischen	2275
drückt	2275
Lis@@	2275
u00@@	2275
At	2275
maß@@	2274
utz@@	2274
physischen	2274
stitu@@	2274
definierten	2274
Architektur@@	2274
www.i@@	2274
Volk@@	2273
Schalter	2273
Rose	2273
16.08.2015	2273
zügen	2272
Auftritt	2272
Sicht@@	2271
verläuft	2271
Aur@@	2271
Edel@@	2271
LES	2271
isierung	2270
wirkliche	2270
sson	2270
unterschiedlichsten	2270
Planet	2270
Highlights	2270
Transpor@@	2269
ktiv@@	2269
bten	2269
Werner	2269
git@@	2269
Bit@@	2269
cky	2269
Heinrich	2269
Eisen	2268
Aktien@@	2268
By@@	2268
Etappe	2268
Textil@@	2268
inst@@	2268
ico	2268
Statt	2267
sprech@@	2267
Schwei@@	2267
hinterlassen	2266
relevant	2266
Governance	2266
Sla@@	2266
Erreichung	2265
Schwerpunkte	2265
rechtlich	2264
nahme@@	2264
pflege	2264
being	2264
kommunizieren	2264
arti@@	2264
auseinander	2263
anbietet	2263
Mitt@@	2263
haftet	2263
Komponist	2263
n.@@	2263
gegebenen	2262
Vertrages	2262
kommerzielle	2262
Archi@@	2262
Zeichen@@	2262
Absendung	2262
unvergesslichen	2262
ICH	2262
4-ch.net	2262
Störungen	2261
err@@	2261
Infrastruktur@@	2261
Blau@@	2261
High-@@	2261
Raums	2260
Quad@@	2260
lebendig	2260
strategien	2259
tier	2259
ita@@	2259
Thanks	2259
schwe@@	2258
Wassers	2258
Zeitplan	2258
Vorsitzende	2258
ppt	2258
Impf@@	2258
brach	2258
Bran@@	2258
mehrmals	2257
Niemand	2257
365	2257
250@@	2257
genügt	2256
beri@@	2256
care	2256
Our	2256
benötigten	2255
oph@@	2255
Hoh@@	2255
Gon@@	2255
player	2255
mol@@	2255
Monitor	2255
aks	2255
im-@@	2255
woh@@	2254
kehrte	2254
Blin@@	2254
Cop@@	2254
Cafés	2254
227@@	2254
ital	2253
Ansätze	2253
verwöhnen	2253
stop@@	2252
gru@@	2252
Delta	2252
Ads	2252
reviews	2252
blog.@@	2252
Wirk@@	2251
rien	2251
224@@	2251
WohnflÃ	2251
Heidelberg	2251
sender	2250
intensiven	2250
147	2250
Eg@@	2250
CF@@	2250
zi	2250
Mühe	2249
Vorbild	2249
emi@@	2249
ish	2249
FAQ	2249
Bemerkung	2248
Streit@@	2248
steller	2248
egi@@	2248
aly@@	2248
Rücken@@	2248
family	2248
Desktop	2248
Kreuzung	2248
ing.com	2248
UN	2247
Missbrauch	2247
Vil@@	2247
Schnittstellen	2247
Stämme	2247
hard@@	2247
DES@@	2247
endgültig	2246
agi@@	2246
xe	2246
shown	2246
Jer@@	2246
ans@@	2246
www.t@@	2246
ausrüstung	2245
einzeln	2245
Rest@@	2245
315	2245
28.@@	2245
Flusses	2245
Schach@@	2245
Ringe	2245
zeigten	2244
tations@@	2244
schaut	2244
Force	2244
Me	2244
en.de	2244
stattgefunden	2243
zahlt	2243
Aller@@	2243
anfangen	2243
Ansprüchen	2243
verantwortungs@@	2243
Sign@@	2243
Eltern@@	2243
Anbau	2243
XML	2243
MTU	2243
organisierte	2242
erneuerbaren	2242
got	2242
herkömmlichen	2242
ber-@@	2242
mah@@	2241
Verhältnisse	2241
stärkere	2241
einmalige	2241
weis@@	2241
Produ@@	2241
Parti@@	2241
without	2241
ction@@	2241
DER@@	2241
Windows-@@	2241
zugreifen	2240
Drogen	2240
faktoren	2240
146	2240
Residenz	2240
Sonnenterrasse	2240
Revision	2239
PT@@	2239
keineswegs	2238
Zivilisation	2238
Verluste	2238
Sto@@	2238
begannen	2238
studi@@	2238
IC	2238
226@@	2238
Haft@@	2237
Finanzkrise	2237
Herstellern	2237
mach@@	2237
geschützten	2237
137	2237
mod@@	2237
unzählige	2237
oberhalb	2237
385	2237
Report	2237
29.@@	2237
provided	2237
Erneuerung	2236
motor@@	2236
palästinensischen	2235
Nachfolger	2235
Exposition	2235
Kammer@@	2235
2012-@@	2235
,5	2234
kommende	2234
zten	2234
teur	2234
Herunterladen	2234
cul@@	2234
Classic	2234
endgültige	2233
Schlacht	2233
Frankfurter	2233
left	2233
ash@@	2233
Zuständigkeit	2232
Analy@@	2232
jahre	2232
Leh@@	2232
verschaffen	2231
Ergebnis@@	2231
Florida	2231
erre@@	2230
versicher@@	2230
Befestigung	2230
es.htm	2230
handlung	2229
hte	2229
gur@@	2229
erlassen	2228
lich-@@	2228
versetzt	2228
Tore	2228
gan	2227
Strecken	2227
schmerz@@	2227
Dortmund	2227
außergewöhnliche	2226
privater	2226
Est@@	2226
Now	2226
Al-@@	2226
überwachung	2225
Is	2225
Area	2225
ographie	2224
Mittelmeer@@	2224
card	2224
Kie@@	2224
Blumenstrauss	2224
bewirkt	2223
Hostels	2223
Grösse	2223
rer	2222
schuldig	2222
Hitze	2222
Initi@@	2222
Höhle	2222
su	2222
VW	2222
49-@@	2222
ausgaben	2221
mö@@	2221
rieb@@	2221
ires	2221
Mondwechsel	2221
Mikrowellenherd	2221
abgesehen	2220
Distanz	2220
1943	2220
Fair@@	2220
Asi@@	2220
OC@@	2220
Baujahr	2220
.ypages@@	2220
Arm	2219
ös	2219
elo@@	2219
Obje@@	2219
Holiday	2219
israelischen	2218
endem	2218
ggf.	2218
tica	2218
Spritz@@	2218
Green@@	2218
p.	2218
because	2218
dokumentiert	2217
fehler@@	2217
sur-@@	2217
Universum	2217
zustimmen	2216
bür@@	2216
Waffen@@	2216
Hubert	2216
cf@@	2216
abend	2215
Schulden	2215
zucht	2215
iden@@	2215
Feedback	2215
Beschäftigten	2214
gleicher	2214
Mannschaft	2214
Oft	2214
Hamas	2214
tech	2214
180@@	2214
Interpretation	2213
mächtigen	2213
Wahrscheinlichkeit	2213
Besichtigung	2213
NY-@@	2213
PAR@@	2212
verlängert	2212
Staatssekretär	2212
transport	2212
Back	2212
Dorfes	2212
wohnung	2212
betreibt	2211
Darin	2211
hervorgehoben	2211
Infrastrukturen	2211
Plattformen	2211
stik@@	2211
Sha@@	2211
Manhattan	2211
Red@@	2210
kehrt	2210
Interviews	2210
unbegrenzte	2209
jen	2209
during	2209
tics	2209
function	2209
tätigen	2208
erfolg@@	2208
Kali@@	2208
Main@@	2207
gebrochen	2207
Sper@@	2207
Chris	2207
-System	2207
CP@@	2207
gebenen	2206
dring@@	2206
Mazedonien	2206
sischen	2206
Reser@@	2206
Prüfungs@@	2206
Christoph	2206
Tastatur	2206
IST@@	2206
Handhabung	2205
cos	2205
Chan@@	2205
Key	2205
Kru@@	2205
freies	2204
gerten	2204
Sammel@@	2204
medizin	2204
bank@@	2204
Berichten	2203
Europa-@@	2203
anteil	2203
gesendet	2203
kalt	2203
formular	2203
äure	2203
ÿÿÿÿ	2203
Infektionen	2202
Well@@	2202
lok@@	2202
abgelegt	2202
Travel	2202
Administrator	2202
ähr@@	2201
Umfrage	2201
Welten	2201
usr	2201
kritische	2200
Sex@@	2200
Feststellung	2200
verordnung	2200
sem@@	2200
kas	2200
gewinn	2200
nette	2200
Ganz@@	2200
Society	2200
DM@@	2200
2015@@	2200
Howdy	2200
chung	2199
berührt	2199
Plätzen	2199
must	2199
Dampfbad	2199
bewahrt	2198
unterhalten	2198
Ersten	2198
Publi@@	2198
Bö@@	2198
bst@@	2198
familien@@	2198
Ticket	2198
ando	2198
ffer@@	2198
05.@@	2198
technologische	2197
Instrument@@	2197
Kommen	2197
Bosnien	2197
Guten	2197
Auferstehung	2197
Duft	2197
ausgliefert	2197
erneuerbare	2196
fter	2196
ì@@	2196
zo	2195
deutliche	2194
stimm@@	2194
achtet	2194
152	2194
kationen	2194
verz@@	2194
gewohnt	2194
food	2194
Sorgfalt	2193
staat@@	2193
geworfen	2193
work@@	2193
Host@@	2193
Vorsitzenden	2192
gezählt	2192
vs	2192
Mund@@	2192
Turnier	2192
Solarium	2192
Opera	2192
MySQL	2192
betreut	2191
Einleitung	2191
direkter	2191
lenken	2191
149	2191
Sony	2191
fielen	2190
dies@@	2190
Steuer	2189
anzusehen	2189
erfahr@@	2189
jahr@@	2189
häu@@	2189
Graz	2189
Entertainment	2189
itz	2189
würdigen	2188
Aufenthalts	2188
Banken@@	2188
nett	2188
DEN	2188
Gummi@@	2187
gültigen	2187
gefeiert	2187
HP	2187
Spur	2187
130@@	2187
Übernachtungen	2187
widmet	2186
packen	2186
identifiziert	2186
Bozen	2186
Clo@@	2186
4.0	2186
ì	2186
optimized	2186
saf@@	2185
Herzlich	2185
Inbetriebnahme	2185
Franken	2185
Drive	2185
beabsichtigt	2184
Senkung	2184
fügte	2184
fabrik	2184
eum	2184
Beschwerdekammer	2184
138	2183
modus	2183
erkennbar	2183
Dimensionen	2183
225	2183
Stoff@@	2183
print	2183
Lyon	2183
Hrsg	2183
displayimage.php	2183
ehrt	2182
herum@@	2182
Besondere	2182
springen	2182
Bäumen	2182
Gramm	2182
er.@@	2182
zungen	2181
Logistik@@	2181
ila	2181
attraktive	2181
Tech	2181
beurteilen	2180
zö@@	2180
einfaches	2180
Fund@@	2180
Einkauf	2180
22,@@	2180
Anmerkungen	2179
bedien@@	2179
lieferung	2179
west	2179
Prophet	2179
MwSt	2178
burg-@@	2178
steigerung	2178
Richtungen	2178
onal	2178
Politiken	2177
hinaus@@	2177
Unterzeichnung	2177
Schafe	2177
Südamerika	2177
festzulegen	2176
qualifizierten	2176
Link@@	2176
probieren	2176
Ablehnung	2175
Krebs	2175
sammlung	2175
Spielern	2175
Net	2175
Ein-	2175
essel@@	2175
sprogramm	2174
stan	2174
Uns	2174
kopieren	2174
kk@@	2174
neuem	2174
einnehmen	2173
Materials	2173
stiegen	2173
Schlafzimmern	2173
Sozi@@	2172
Phasen	2172
Pilot@@	2171
verarbeiten	2171
Substanzen	2171
restlichen	2171
E-Mail-@@	2171
Vorjahres@@	2171
bie@@	2171
Spann@@	2171
dis	2170
Bio-@@	2170
Züge	2170
19-@@	2170
Informationsschalter	2170
Vorfeld	2169
Präzision	2169
max@@	2169
annt	2168
wählt	2168
elf	2168
gold	2168
eite	2167
Spekt@@	2167
schiff	2167
KW	2167
ebo@@	2167
Premierminister	2166
Wiederaufbau	2166
ral	2166
Ofen	2166
Review	2166
räder	2166
Datenbank@@	2166
einziges	2165
einzig	2165
diversen	2165
deu@@	2165
avi@@	2165
manuell	2165
easy	2165
ABl	2165
Agenturen	2164
gefäl@@	2164
strengen	2164
jemanden	2164
stün@@	2164
Wär@@	2164
das-@@	2164
every	2164
Check-in	2164
nachzu@@	2163
Kriminalität	2163
Sprecher	2163
luft	2163
erweiterten	2162
Fett@@	2162
lat	2162
Wolf	2162
Lieferumfang	2162
gter	2161
denselben	2161
Nizza	2161
haus-@@	2161
endgültigen	2160
fließen	2160
eingebunden	2160
nie@@	2160
Staub	2160
TT@@	2160
LED-@@	2160
stützt	2159
versorgen	2159
1960	2159
Andrea	2159
Type	2159
wahl@@	2158
Anträge	2158
bedient	2158
Just	2158
1966	2158
vorgeschlagene	2157
sum@@	2157
4,5	2157
Antrieb	2157
anu@@	2157
Amts@@	2156
Potential	2156
anschließen	2156
traditionell	2156
master	2156
21.08.2015	2156
gelebt	2155
kart@@	2155
lis	2155
unterteilt	2155
Ris@@	2155
28-@@	2155
Work@@	2155
schnei@@	2154
ples	2154
IP-Adresse	2154
00PM	2154
berater	2153
Mitgliedsstaaten	2153
Human	2153
Domain	2153
Penis	2153
Meran	2153
sprachige	2152
Zü@@	2152
109@@	2152
Obst@@	2152
ality	2152
Maustaste	2152
4.jpg	2152
Partei@@	2151
och@@	2151
spritz@@	2151
Softwar@@	2151
cr@@	2151
obje@@	2151
carte	2151
xx@@	2151
Tab	2151
frem@@	2150
itali@@	2150
Kro@@	2150
Kletter@@	2150
Richtigkeit	2149
überein	2149
schwerer	2149
201	2149
231	2149
Studierende	2149
stetig	2149
GEN@@	2149
beherbergt	2149
verbreiten	2148
leer	2148
Bandbreite	2148
Zeichnung	2148
Gewässer	2147
verwirklicht	2147
wiederherzustellen	2147
ope	2147
Olivenöl	2147
Hölle	2147
Honduras	2147
gründete	2147
Wart@@	2147
gemeinschaftlichen	2146
Ander@@	2146
Benutz@@	2146
Sus@@	2146
Magazine	2146
160@@	2146
result	2146
Fraktionen	2145
renommierten	2145
innen@@	2145
Religionen	2145
scheibe	2145
störungen	2144
Finger	2144
works	2144
Basic	2144
Eleganz	2144
Modern	2144
wirksamen	2143
Beschränkungen	2143
betrag	2143
verknüpft	2143
biologische	2143
Ohr@@	2143
Alter@@	2143
mental	2143
Otto	2143
Prozeß	2142
bemerkt	2142
thei@@	2142
genauen	2142
Brand	2141
Reu@@	2141
Tunesien	2141
Besonderes	2141
Trieb@@	2141
stur@@	2141
blau@@	2141
340	2141
Square	2141
aufgehoben	2140
Gastgeber	2140
Antrieb@@	2140
uti@@	2140
Formate	2140
1,2	2138
E-Mails	2138
Jh	2138
Künstlerin	2138
Geschäftsordnung	2137
Räumlichkeiten	2137
geltend	2136
EURO@@	2136
il-@@	2136
Reisenden	2136
beach	2136
führungs@@	2135
Impulse	2135
Agrarpolitik	2135
ro-@@	2135
Hill	2135
ý	2135
würdig	2134
Reinig@@	2134
Fürsten	2134
GF@@	2133
Aro@@	2133
Sea	2133
Maler	2133
ku	2133
kum	2133
Bevölkerungs@@	2132
zonen	2132
Glaubens@@	2132
ruf@@	2132
does	2132
Wasserkocher	2132
training	2132
TER@@	2132
texas	2132
genes	2131
Monta@@	2131
Anfahrt	2131
HD-install	2131
verweisen	2130
artige	2130
regierung	2130
kunde	2130
Branchen@@	2130
schnellste	2130
case	2130
optionen	2130
san-@@	2130
Freiheiten	2129
Eier	2129
Erz@@	2129
telefonisch	2129
Ji@@	2129
Bisher	2128
kenntnisse	2128
satz@@	2128
Gemü@@	2128
Aussen@@	2128
Heiden	2128
spei@@	2127
unterstütze	2127
deut@@	2127
Cha@@	2127
Ange@@	2127
Gewebe	2127
Schl@@	2127
He	2127
nat@@	2127
grau	2127
vorzunehmen	2126
Transaktionen	2126
Soweit	2126
schuhe	2126
Telefonnummer	2126
CS	2126
treff@@	2125
messung	2125
Tirol	2125
sper@@	2124
bedeckt	2124
Kör@@	2124
a.htm	2124
ausgelöst	2123
Mehrwert	2123
1,6	2123
archive	2123
zza	2123
Run@@	2123
Dü@@	2123
Wahr@@	2122
gegenüber@@	2122
arme	2122
106@@	2122
Entscheidungs@@	2121
demselben	2121
qualifizierte	2121
bedroht	2121
Hall@@	2121
Residen@@	2121
warf	2120
Az@@	2119
gebnis	2119
peri@@	2119
städte	2119
din	2119
2007-@@	2119
ernsthaft	2118
Aufhebung	2118
kat	2118
motor	2118
.co.uk	2118
California	2118
Mini-@@	2118
vorliegende	2117
schar@@	2117
Smart@@	2117
reicher	2116
Ré@@	2116
Mario	2116
doppelt	2116
Füll@@	2116
Komponisten	2116
cking	2116
schießen	2115
Zentralbank	2115
iniert	2115
insel	2115
intelligente	2115
Serien@@	2115
ré@@	2115
fo	2115
½	2115
ativ@@	2114
vorliegt	2114
unverändert	2114
Erweiterungen	2114
Mittelalter	2114
399	2114
harmoni@@	2113
Posi@@	2113
hof@@	2113
Giovanni	2113
amazing	2113
202	2112
Ruinen	2112
moder@@	2112
Out	2112
einschlägigen	2111
Schwe@@	2111
berechnen	2111
fel	2111
Blau	2111
EWG	2110
alisierten	2110
kinder@@	2110
gat@@	2109
erz@@	2109
Sports	2109
Valley	2109
.ru	2109
kostenfreiem	2109
niedrige	2108
geführten	2108
netze	2108
sog.	2108
ometer	2108
Komp@@	2108
dimension@@	2107
ille	2107
Werkstatt	2107
Begeisterung	2107
Dec@@	2107
Ehren@@	2107
Morgen@@	2107
sin	2107
send	2106
Ausnahmen	2106
be-@@	2106
Leid	2105
zehnten	2105
Bak@@	2105
Kil@@	2105
frequ@@	2105
entfernten	2105
172	2105
color	2105
Tel@@	2105
Automobilindustrie	2104
ziehung	2104
Erziehung	2104
kro@@	2104
140@@	2104
ahr@@	2103
Einwohnern	2103
aka	2103
-07-@@	2103
sse@@	2102
bungen	2102
alist	2102
Joe	2102
Financial	2101
say	2101
Onlin@@	2101
Flughafentransfer	2101
nächster	2100
ökologische	2099
Logik	2099
Ultra@@	2099
ungeh@@	2099
verschieden	2099
aler@@	2099
Starten	2099
Klarheit	2098
auswirken	2098
bereichs	2098
Arb@@	2098
Aktie	2098
That	2098
Verhandlungs@@	2097
schön@@	2097
ringe	2097
Quart@@	2097
Ecologic	2097
ðAwww.immobilsarda.com	2097
Bour@@	2096
wiesen	2096
PLUS	2096
gerin	2096
Schli@@	2096
Etwa	2096
Flügel	2096
Schneider	2096
gross@@	2096
08.@@	2096
flug	2095
Sydney	2095
cien@@	2095
UNESCO	2095
OS@@	2095
-1	2095
cb@@	2095
sied@@	2094
Berufung	2094
erhebt	2094
Miete	2094
onne	2094
MB@@	2094
Vereinfachung	2093
bewußt	2093
Kriege	2093
angemeldet	2093
2-3	2093
handels	2092
Lad@@	2092
check	2092
head	2092
Nuraghe	2092
ungen.htm	2092
häufiger	2091
harte	2091
Zähne	2091
ausgestatteten	2091
82@@	2091
Ensemble	2091
,000	2091
а	2091
erweiterte	2090
Rechtsprechung	2090
sert	2090
angaben	2090
AD	2090
Boo@@	2090
RSS	2090
Besteller	2090
Völkern	2089
ausüben	2089
betreiber	2089
Azur	2089
module	2089
Sri	2088
derungen	2088
alitäten	2088
gebung	2088
Kostenloser	2088
near	2088
03.05.2016	2088
repräsentiert	2087
Feind	2087
dans	2087
von-@@	2087
including	2087
entschied	2086
alls	2086
winkel	2086
Meeres	2085
kräften	2085
landes	2085
Flexi@@	2085
2021	2085
ur-@@	2085
helle	2085
Fitnesscenter	2085
aussch@@	2084
spannende	2084
virtuellen	2084
thi@@	2084
229-@@	2084
konkret	2082
abili@@	2082
heil@@	2082
frühere	2082
humanitären	2082
Allein	2082
exc@@	2082
å	2082
sid	2082
Generalsekretär	2081
mie	2081
HR	2081
face	2081
CM@@	2080
DT@@	2080
01@@	2080
0.014@@	2080
Beweise	2079
Baby@@	2079
Profile	2079
Chat	2079
adresse	2079
-con@@	2079
veranstaltung	2078
jetzigen	2078
III.	2078
table	2078
Effe@@	2078
rom@@	2078
building	2078
feldern	2077
vertritt	2077
diskrimini@@	2077
Wirtschaftskrise	2077
José	2077
cast	2077
Stockbetten	2077
Ältesten	2077
kä@@	2076
befreien	2076
End	2076
experience	2076
Biegen	2076
Einnahmen	2075
rede	2074
Büchern	2074
firma	2074
script	2074
MAN@@	2074
reserved	2074
Consulting	2074
Rußland	2073
fürs	2073
Bilanz	2073
gend@@	2073
studium	2073
üben	2072
Furcht	2072
Beihilfe	2072
Country	2072
D.@@	2072
angeblich	2071
Tot@@	2071
egelung	2071
Zurück@@	2071
atzes	2071
Flucht	2071
cto@@	2071
Messe@@	2071
a7@@	2071
Kennzeichnung	2070
digte	2070
Lange	2070
beziehungen	2070
Vorgang	2070
Routen	2070
heruntergeladen	2070
Tasten	2070
sinn	2069
begrenzte	2069
inspiriert	2069
Meldung	2069
iges	2069
Fußball	2069
Teufel	2069
Jh.	2069
verbrauch	2068
harten	2068
toll	2068
cations	2068
ories	2068
quali@@	2068
category	2068
persönlicher	2067
beseitigt	2067
18.00	2067
Beu@@	2067
bevorzugen	2067
Gehe	2067
Mini	2067
gesamt	2067
entscheidung	2066
Haag	2066
Informa@@	2066
Kel@@	2066
Sunrise	2066
verschieben	2065
trags	2065
Rasse	2065
Tabellen	2065
Nase	2065
redete	2065
gerechten	2064
Forschungs-	2064
Fanta@@	2064
.05.2015	2064
gängigen	2063
erwähnten	2063
verschwinden	2063
rand	2063
Bearbeitungs@@	2063
Mannes	2063
Achse	2063
Mauern	2063
Ewigkeit	2063
bezogenen	2062
gau	2062
kontroll@@	2062
kno@@	2062
Flach@@	2061
ml@@	2061
Liegeplatz	2061
Cir@@	2060
Traum@@	2060
Chor@@	2060
course	2060
Reisende	2059
pläne	2059
Zeitschriften	2059
tollen	2059
Referenz	2059
schiff@@	2058
schwierige	2058
pflegen	2058
Lieferungen	2058
ür	2058
en.	2058
warme	2058
Füllen	2058
E.ON	2058
angewiesen	2057
275	2057
variieren	2057
endorf	2057
Kass@@	2057
Kirch@@	2057
Länder@@	2056
Albert	2056
.09	2056
histori@@	2056
Referenzen	2056
Belarus	2056
Ross@@	2056
feinen	2056
Can	2056
double	2056
FT	2056
ländliche	2055
all-@@	2055
Schau	2055
herausge@@	2055
ctor@@	2055
DB	2055
class	2055
Jazz@@	2055
internationales	2054
Regierungschefs	2054
bewegungen	2054
reif@@	2054
zeichnete	2054
Cr@@	2054
Götter	2054
guests	2054
Campingplätze	2054
maximalen	2053
mak@@	2053
schwieriger	2052
zielen	2052
Objekten	2052
ano@@	2052
Fitnessraum	2052
gefährdet	2051
sandte	2051
alli@@	2051
Event@@	2051
Tipp	2051
GOtt	2051
auseinander@@	2050
sierungs@@	2050
rest	2050
ol-@@	2050
Lausanne	2050
strahl@@	2050
EIT	2050
Vermögens@@	2049
Tode	2049
lernt	2049
traten	2049
äußeren	2049
999	2049
shop@@	2049
zunehmende	2048
po	2048
bogen	2048
Variablen	2048
Legende	2048
neun@@	2047
Schokolade	2047
reichlich	2047
Zeich@@	2047
etto	2047
ELL@@	2047
Telekommunikation	2046
unterstreicht	2046
streben	2046
tti	2046
studieren	2046
Angeboten	2046
92@@	2046
derart	2045
bezogene	2045
Übersetz@@	2045
herab@@	2045
uth	2045
23,@@	2045
Wuppertal	2045
ätze	2044
205	2044
nahm@@	2044
ktiv	2044
indischen	2044
Vienna	2044
things	2044
Sound@@	2044
al.com	2044
Fehlermeldung	2044
199	2043
halten@@	2043
Paare	2043
seitdem	2043
Nan@@	2043
Product	2043
Betra@@	2042
Fett	2042
Emotionen	2042
Vorbereitungen	2041
lebten	2041
Fassade	2041
dom@@	2041
resources.php	2041
Parlament@@	2040
Herzens	2040
Jahrzehnte	2040
orium	2040
revolutionären	2040
presse	2040
Russlands	2040
Töchter	2040
¡	2040
.pdf	2040
ßten	2039
jüngste	2039
gels	2039
ign@@	2039
Grande	2039
property	2039
exe	2039
hah	2039
Strukturfonds	2038
Ausweitung	2038
Prozessen	2038
erb@@	2038
Audio-@@	2038
Ziffer	2037
kations@@	2037
esa	2037
Superior	2037
fahrzeugen	2036
Bestandteile	2036
finanzieren	2036
Anmelde@@	2036
stung	2036
Buffet	2036
Hot	2036
Aaron	2036
scheinbar	2035
einzel@@	2035
issen	2035
Botschaften	2035
Abwicklung	2035
bst	2035
cl@@	2035
Free@@	2035
letz@@	2034
Fremden@@	2034
Chemikalien	2034
Demo	2034
eds	2033
Mak@@	2033
Neapel	2033
Reader	2033
Barbara	2032
reinigen	2032
Business-@@	2031
vermieten	2031
436@@	2031
erwar@@	2030
Etwas	2030
lio	2030
hot@@	2030
350@@	2030
Produktion@@	2029
halbe	2029
Act	2029
stehend	2029
bloß	2028
Durchsetzung	2028
Ath@@	2028
Magnet@@	2028
index.htmlwww.immobilsarda.com	2028
außergewöhnlichen	2027
griechische	2027
3.5	2027
Partnerschaften	2026
former	2026
Roman@@	2026
32-@@	2026
hotel@@	2026
Stell@@	2025
nützliche	2025
reiches	2025
fremden	2025
Favoriten	2025
Touch	2025
È@@	2025
Saul	2025
ssicherheit	2024
wass@@	2024
EK@@	2024
attra@@	2024
eingereichten	2023
Verstand	2023
Gew@@	2023
Bushaltestelle	2023
Balearische	2023
verstärkte	2022
Texten	2022
Mart@@	2022
Modi@@	2022
Physi@@	2022
DI	2022
belegen	2021
Häufig	2021
PT	2021
dierung	2021
kontakt	2021
geschnitten	2020
intensi@@	2020
Auslands@@	2020
nar@@	2020
eingeb@@	2019
Bestand	2019
block@@	2019
uch	2019
Kau@@	2019
undes	2019
151	2019
böse	2019
Konsens	2018
schal@@	2018
Ameri@@	2018
hip	2018
Schienen@@	2017
Besten	2017
ohn	2017
Anton	2017
Miß@@	2016
fällig	2016
rolle	2016
jahres@@	2016
Listen	2016
negativ	2015
Hamburger	2015
Organisations@@	2015
etz	2015
Hals	2015
Côte	2015
Mé@@	2015
development	2015
Wichtigkeit	2014
Zahl@@	2014
CE@@	2014
element	2014
possible	2014
.06	2014
Besorgnis	2013
Fir@@	2013
Schnitt	2013
Helden	2013
UNG@@	2013
Speed	2013
Einschätzung	2012
Ressourcen@@	2012
Säulen	2012
Eure	2012
lagen@@	2012
sig@@	2012
ktors	2011
kenne	2011
wirklichen	2011
hrt	2011
Speichern	2011
archiv	2011
spreche	2010
eriert	2010
Noten	2010
Program	2010
Controller	2010
8th	2010
0.015@@	2010
begangen	2009
Kämpfe	2009
Sofa	2009
Py@@	2009
masse	2009
anne	2009
aufen	2008
irgend@@	2008
strahlen	2008
Publikation	2008
125@@	2008
Ereignissen	2007
Ry@@	2007
submitted	2007
zustande	2006
probe	2006
Möbel@@	2006
Proben	2006
rel@@	2006
spr@@	2006
XX@@	2006
Erhebung	2005
Konsultation	2005
Vernetzung	2005
glo@@	2005
soviel	2005
galt	2005
verein@@	2005
Erb@@	2005
strah@@	2005
SMS	2005
einzuführen	2004
irgend	2004
Verkehrsmitteln	2004
filme	2004
Balance	2004
vere	2004
rücken	2004
eingeschaltet	2004
güter	2004
musikalischen	2004
wein	2003
arm@@	2003
Katzen	2003
Physik	2003
THE	2003
itu@@	2002
Tendenz	2002
ordnen	2002
Freundschaft	2002
touristische	2002
Glu@@	2002
Vollkaskoversicherung	2002
Light	2001
Klein	2001
ý@@	2001
kB	2001
give	2001
ersucht	2000
bran@@	2000
beruhen	2000
aufbau	2000
108@@	2000
Stars	2000
ston	2000
Wohnungs@@	1999
Peking	1999
verein	1999
stück@@	1999
Internetseiten	1999
1965	1999
wall@@	1999
schwedischen	1998
passi@@	1998
arta	1998
Nationale	1998
Tabak@@	1998
durchmesser	1998
Finale	1998
dom	1998
Rathaus	1998
übermitteln	1997
Schriftsteller	1997
verdi@@	1997
geg@@	1997
ausgabe	1997
tze	1997
Rum@@	1997
PL	1997
Anders	1996
Ministerin	1996
Bewer@@	1996
gna@@	1996
Schauen	1996
Spalte	1996
villa	1996
Hilfsmittel	1995
erarbeiten	1995
Einwanderung	1995
TA@@	1995
usen	1995
Films	1995
Made	1995
enormen	1994
anspruchsvolle	1994
bekräftigt	1994
Vermeidung	1994
dend	1994
-Funktion	1994
fache	1993
DM	1993
Agriturismo	1993
Mietwagenservice	1993
Versorgungs@@	1992
Verstärkung	1992
Demo@@	1992
ausgenommen	1992
unmittelbaren	1992
Flan@@	1992
gratu@@	1992
Fluss@@	1992
Tunnel	1991
ckel@@	1991
Optimi@@	1991
Bands	1991
run	1991
и	1991
Goisern	1991
Liebhaber	1990
Aufrufe	1990
Zoo	1990
fantasies	1990
Sektors	1989
Merkmal	1989
Prävention	1989
Wissenschafts@@	1989
2010-@@	1989
Quality	1989
Übernahme-	1989
Malaysia	1988
MD-Board	1988
puertorico.gui@@	1988
probleme	1987
zahlreicher	1987
grei@@	1987
eti@@	1987
ungarischen	1987
Loo@@	1987
maschinen@@	1987
Mitarbeiter@@	1986
Sämtliche	1986
drän@@	1986
Speicherung	1986
deutsch@@	1986
ansicht	1986
Konflikt@@	1985
wertvollen	1985
beauftragt	1985
langjährigen	1985
Ment@@	1985
social	1985
bewirken	1984
einstellung	1984
Börse	1984
übernahm	1984
Medizinische	1984
Internetanschluss	1984
error	1984
wehr@@	1983
ere@@	1983
ets@@	1983
dest	1983
Wie@@	1982
bewiesen	1982
Dür@@	1982
hinunter	1982
Rezension	1982
900@@	1982
Justiz@@	1981
richtlinien	1981
Besetzung	1981
kristall@@	1981
dor	1981
Üernahmebüros	1981
ausreichende	1980
PP	1980
Sli@@	1980
Rückgabeort	1980
beantragt	1979
Übereinkommens	1979
Total	1979
Schwimmen	1979
-08-@@	1979
versichern	1978
entsch@@	1978
Geduld	1978
foto	1978
bürgerlichen	1978
Stern@@	1978
Kaution	1978
ewigen	1978
OM@@	1978
stätigkeit	1977
Krebs@@	1977
Krone	1977
light@@	1977
Max@@	1977
Instrumenten	1976
marke	1976
Trag@@	1976
Jagd	1976
Batterien	1976
Grupp@@	1976
share	1976
cion@@	1976
Roboter	1976
Jon@@	1975
Flora	1975
krimin@@	1975
Häu@@	1975
2.2	1975
attraktiven	1975
ables	1975
Bug@@	1975
lations@@	1974
klingt	1974
deckung	1974
Träume	1974
Abu	1974
late	1974
row	1974
Lon@@	1974
finanzi@@	1973
glei@@	1973
them@@	1973
ansonsten	1973
Aufnahme@@	1973
größeres	1973
gelände	1973
Bonus@@	1973
design@@	1973
Versprechen	1972
ont	1972
ente@@	1972
forums	1972
Massi@@	1972
Münster	1972
Batterie	1972
e-mail	1972
er.htm	1972
Schulung	1971
GA@@	1971
Auskunft	1971
eingeschränkt	1971
stens	1971
handwerk@@	1971
Nit@@	1971
kus	1971
Edi@@	1971
Gehirn	1971
Sem@@	1971
zukünftig	1970
unterrichtet	1970
uten@@	1970
216@@	1970
Konzert@@	1970
Gesang	1970
betriebs@@	1969
ungsprozesses	1969
stü@@	1969
gerung	1969
block	1969
Mix	1969
everything	1969
1964	1969
Camping@@	1969
Ê@@	1969
Wellnessbereich	1969
selek@@	1968
Exp@@	1968
centre	1968
zige	1968
sprüfung	1968
verlauf	1968
CC	1968
Netherlands	1968
Bürgermeister	1967
limi@@	1967
Wissenschaft@@	1967
aust@@	1967
Deu@@	1967
braun	1967
Sz@@	1967
eintreten	1966
195	1966
zip	1966
Tsch@@	1966
Daneben	1966
stattdessen	1966
Haf@@	1966
Knoten	1966
kostenfreien	1966
US-Dollar	1965
Stru@@	1965
wesens	1965
wissenschaft@@	1965
grafi@@	1965
128@@	1965
23-@@	1965
03.@@	1965
Gültigkeit	1964
saubere	1964
Dienstleister	1964
Heb@@	1964
wolle	1963
Ernte	1963
dings	1963
Katze	1963
chron@@	1963
Messungen	1962
gets	1962
Council	1962
DN@@	1962
Benjamin	1962
blog@@	1962
Außenpolitik	1961
niedrig	1961
zelle	1961
25,@@	1961
Geo@@	1961
German@@	1961
Bogen@@	1961
Ozean	1960
vic	1960
pour	1960
They	1960
Sänger	1960
Carl	1960
ausführlich	1959
liber@@	1959
dachten	1959
kreativen	1959
hir@@	1959
kolle@@	1959
Todes	1959
mind	1959
index.html	1959
02.@@	1959
Übergabebüro	1959
enorm	1958
Betroffenen	1958
wissenschaftlicher	1958
schläge	1958
nehmer	1958
Studi@@	1958
Cruz	1958
06.@@	1958
DES	1958
These	1957
ebenen	1957
256	1957
Kommunikation@@	1957
umgewandelt	1957
nik	1957
y.@@	1957
diensten	1956
institutionelle	1956
fair	1956
tika	1956
geführte	1956
reiten	1956
keit	1956
Gat@@	1956
Kochen	1956
b.@@	1956
Siena	1956
eo	1956
errichten	1955
Mana@@	1955
umfassendes	1954
Ratspräsidentschaft	1954
Vermarktung	1954
Herd	1954
entin	1954
SN@@	1954
currentAverageRating	1954
steuert	1953
Rohstoff@@	1953
chemi@@	1953
Sardegna	1953
Express-Check-in	1953
Muß	1952
Beri@@	1952
Treppe	1952
Installationen	1952
day@@	1952
turniere	1952
Außenpool	1952
Gegebenheiten	1951
235	1951
onie	1951
lack@@	1951
thing	1951
Lodge	1951
210@@	1951
Knechte	1951
gemeinsamer	1950
Voraus@@	1950
atives	1950
gangs@@	1950
gast@@	1950
C.@@	1950
ć	1950
d.com	1950
Weib	1950
strä@@	1949
institu@@	1949
veränder@@	1949
fikation	1949
Veröffentlichungen	1949
Reihen	1949
zweier	1949
nä@@	1949
CAD	1949
zweck@@	1948
herauszu@@	1948
IA@@	1948
uhr	1948
Verbesser@@	1948
ulation	1948
para	1948
Results	1948
AE	1948
Highlight	1948
Highway	1948
archite@@	1948
teu@@	1947
missionen	1947
vorwiegend	1947
glas@@	1947
vorgang	1947
Signal@@	1947
104@@	1947
Conne@@	1947
Fitness@@	1947
NAS	1947
www.p@@	1947
allmählich	1946
Ce@@	1946
Komplexität	1946
kreative	1946
transportiert	1945
formuliert	1945
base	1945
belie@@	1945
Echtzeit	1945
Class	1945
project	1945
Arme	1944
beibehalten	1944
ud	1944
Boots@@	1944
Warschau	1944
04-@@	1944
mali@@	1943
Audi@@	1943
rock	1943
A4	1943
Künstlers	1943
Win32	1943
o.	1942
Profi@@	1942
Resolution	1942
hundert@@	1942
umgebung	1942
mischer	1942
doppelte	1941
Tagungs@@	1941
Schü@@	1941
atte	1941
Immobili@@	1941
Praxis@@	1941
Konstru@@	1940
Angeln	1940
Bli@@	1940
Å@@	1940
Montage@@	1940
honduras.amarillas	1940
beeinträchtigt	1939
Adria	1939
Beendigung	1939
Botschafter	1939
mp	1939
Til@@	1939
Kais@@	1939
erInnen	1939
rapidshare.com	1939
gesetzte	1938
kontinuierliche	1938
Probe	1938
Sektion	1938
TRI@@	1938
schne@@	1938
Detail@@	1937
anspruchsvollen	1937
Wat@@	1937
lichung	1937
liest	1937
Gö@@	1937
229@@	1937
schuss	1937
letztes	1936
beschädigt	1936
meer	1936
Gen	1936
Evangel@@	1936
lou@@	1936
.0.@@	1936
dien	1935
studie	1935
ards	1935
cab@@	1935
past	1935
twitter	1935
Joomla	1935
Ladung	1934
lierte	1934
Unterstütz@@	1934
zio	1934
Shopping	1934
Satan	1934
480	1934
TRA@@	1934
Experten@@	1933
ECU	1933
baute	1933
Mountain	1933
etes	1933
ination	1933
tschechischen	1933
mechanischen	1933
Aufsichtsrat	1933
Pisten	1933
Schar@@	1932
stabile	1932
Instanz	1932
dam	1932
Stärken	1932
ausgesch@@	1932
Academy	1932
Mannheim	1932
Booking.com	1932
Streit	1931
Koordination	1931
streifen	1931
eme	1931
Bibliotheken	1931
Ortes	1931
YouTube	1931
Berlinale	1931
www.bibione.net	1931
ambient.cache	1931
ssystems	1930
zweites	1930
dunklen	1930
Schalten	1930
Bass@@	1929
schriftlichen	1929
Arbeitsk@@	1929
herstellung	1929
Magi@@	1929
Cup	1929
12.00	1928
stärkt	1928
Ihn	1928
gif	1928
5.jpg	1928
Beamten	1927
schlü@@	1927
2006-@@	1927
Gy@@	1927
Schmuck	1927
below	1927
Rate	1926
eingebaut	1926
ways	1926
Morgens	1926
woman	1926
Treffpunkt	1926
seit@@	1926
OKtext	1926
toolani	1926
Universi@@	1925
Department	1925
CT@@	1925
Spezialist	1925
Stb	1925
kommunikation	1924
Wohl	1924
ema	1924
Thi@@	1924
dl	1924
vereinbarung	1923
schwach	1923
boote	1923
kost@@	1923
ics	1923
4.5	1923
1.2	1923
Materie	1922
ef	1922
Futter@@	1922
Produktionen	1922
Kingdom	1922
verschoben	1921
Dun@@	1921
firmen	1921
lah	1921
Qui@@	1921
Konzerns	1921
books	1921
Vulkan@@	1921
Kell@@	1921
turned	1921
zunehmenden	1920
umfang	1920
Schmerz	1920
ätzen	1920
Standort@@	1920
cated	1920
Adapter	1920
partner@@	1919
banken	1919
Zukunfts@@	1919
schrittweise	1919
draht@@	1919
working	1919
123@@	1919
vergleichbar	1918
Sowjetunion	1918
mien	1918
Eh@@	1918
ts-@@	1918
Veranda	1918
Kräften	1917
Motivation	1917
Jahrhunderten	1917
Produk@@	1917
strecken	1917
Cit@@	1917
kostenfreie	1917
verträge	1916
kriterien	1916
Zwecken	1916
Immobilie	1916
Estate	1916
Lasten	1915
renn@@	1915
Barmherzigkeit	1915
tain	1915
Animation	1915
ity-@@	1915
1000@@	1915
.amarilla@@	1915
rin	1914
Motiv	1914
Abends	1914
IV@@	1914
better	1914
pajak	1914
akzep@@	1913
Vorgehensweise	1913
schutzes	1913
unds	1913
malen	1913
Ts-213,@@	1913
oten	1912
vorzubereiten	1912
Bewerbung	1912
enburg	1912
sche-@@	1912
blätter	1912
Jack	1912
musica	1912
Rede@@	1911
Abschaffung	1911
ethi@@	1911
rats	1911
vorbereiten	1911
Stromversorgung	1911
Brief@@	1911
cum	1911
Plugin	1911
kühlen	1910
ttung	1910
143	1910
Commodore	1910
Speci@@	1910
11.2015	1910
beachtet	1909
still@@	1909
Vermögen	1909
Albanien	1909
Herkunfts@@	1909
typ	1909
dition	1909
dus	1909
Convention	1909
When	1909
feh@@	1908
vertei@@	1908
national	1908
Schei@@	1908
Fliesen	1908
Seien	1907
aktiver	1907
Reich@@	1907
Versicher@@	1907
Lack@@	1907
platziert	1907
Fakultät	1907
Komplett@@	1907
try	1907
vertret@@	1906
ium	1906
Schä@@	1906
Wirkungen	1906
geren	1906
etabliert	1906
höh@@	1906
Broschüre	1906
reib@@	1906
Beta	1906
stellbar	1905
Diesel@@	1905
chens	1905
format@@	1905
wan	1905
ais	1905
feiert	1905
Lichts	1905
respond	1905
Kollege	1904
Ortschaften	1904
herrschenden	1903
gestal@@	1903
ank	1903
Thermal@@	1903
Brandenburg	1902
Reis@@	1902
zierung	1902
kreis@@	1902
mis	1902
Mitglieds@@	1901
Linken	1901
vorzeitig	1901
Sul@@	1901
beweg@@	1901
BCO-RentaCar.com	1901
gesetzlich	1900
Wäldern	1900
herauszufinden	1900
hoffentlich	1900
Kompetenz@@	1900
Sieger	1900
Titel@@	1900
Installations@@	1900
marktes	1899
Führungen	1899
Kernel	1899
Gepäck	1898
15,00	1898
Home@@	1898
Pack	1897
CAR@@	1897
oti@@	1897
Siedlung	1897
pler	1897
Gebot	1896
kompetenz	1896
krise	1896
Signale	1896
Viren	1896
freundlicher	1896
ktivität	1896
1950	1896
beständig	1896
befestigt	1896
schlechter	1895
stati@@	1895
Nachrichten@@	1895
0049	1895
►	1895
partei@@	1894
jung	1894
gehei@@	1894
cht-@@	1894
Einstieg	1894
cool	1894
ö	1894
for-@@	1894
Down	1894
sichti@@	1893
preisen	1893
Tagungen	1893
Nä@@	1893
Marx	1893
Dicke	1893
Heft	1893
FS	1893
2x@@	1893
kommission	1892
nächstes	1892
ression	1892
Canaria	1892
event@@	1892
suite	1892
Virtu@@	1892
51@@	1892
heisst	1892
Einfluß	1891
glück@@	1891
mechanismus	1891
Galerien	1891
239@@	1891
Artikelnummer	1891
verpflichten	1890
lichkeits@@	1890
s-	1890
ovo	1890
besuchten	1890
spitze	1890
terrasse	1890
dul@@	1889
cha	1889
zentrums	1889
elektri@@	1889
Skulpturen	1889
Fuss	1889
Ausbeutung	1888
trafen	1888
deutschland	1888
deln	1888
weitergegeben	1887
verwiesen	1887
anzi@@	1887
Übersetzer	1887
squ@@	1887
grafische	1887
Honig	1887
Australia	1887
.com.@@	1887
steck@@	1886
stadt@@	1886
Mathematik	1886
wende	1885
Bewältigung	1885
Folge@@	1885
antes	1885
Supermarkt	1885
1962	1885
NT	1885
dt@@	1885
Gän@@	1884
längeren	1884
Individu@@	1884
Sevilla	1884
Sorten	1884
Pop	1884
EX	1884
Bie@@	1884
Vorschlags	1883
durchgeführten	1883
Telekommunikations@@	1883
Anmelder	1883
musikalische	1883
binden	1882
wände	1882
mieren	1882
put@@	1882
Rollen@@	1882
221	1882
blickt	1882
Rol@@	1882
bürger@@	1881
Haushalte	1881
Diener	1881
Zinsen	1881
Astron@@	1881
privat	1881
dit@@	1881
04.@@	1881
herunterzuladen	1881
s1.addParam	1881
Tragen	1880
trägen	1880
med@@	1880
Zent@@	1879
besseres	1879
Kooperations@@	1879
maßgeblich	1879
Nationalen	1879
In-@@	1879
vertrau@@	1878
stran@@	1878
discher	1878
Tren@@	1878
Erkrankung	1878
Ero@@	1878
alisierungs@@	1878
Refer@@	1878
Panel	1878
Policy	1878
wi	1878
India	1878
Style	1878
Robo@@	1878
gerettet	1877
terie	1877
ßte	1877
Marie	1877
erisches	1877
Senden	1877
157	1877
Juli@@	1877
Tie@@	1877
lebendigen	1877
Obama	1877
garanti@@	1876
Milli@@	1876
Golden	1876
440	1876
Ema@@	1876
Innsbruck	1876
Wirtschaftspolitik	1875
rise	1875
enberg	1875
yn	1875
geschäfte	1874
freiwillig	1874
Schlacht@@	1874
herausgegeben	1874
agu@@	1874
EIN	1874
8,00	1874
Anbetracht	1873
Erdbeben	1873
Human@@	1873
vy	1873
Cour@@	1873
internet@@	1873
famili@@	1873
Utrecht	1873
Einbau@@	1873
Bielefeld	1873
Alpha	1873
getreten	1872
landes@@	1872
digital	1872
Streifen	1872
Ingenieure	1872
strong	1872
Word@@	1872
glaub@@	1871
verwandeln	1871
vergleich@@	1871
Folgenden	1871
203	1871
Wohnraum	1871
Baureihe	1871
Informations-	1870
Fünf@@	1870
Schulden@@	1870
sle@@	1870
gui@@	1870
steil	1870
verse	1869
Aff@@	1869
Marathon	1869
mine	1869
lied	1869
Berlin-@@	1869
Behindertenfreundlich	1869
1957	1868
irre@@	1868
instru@@	1868
größerer	1868
nannte	1868
Dy@@	1868
211	1868
beliebte	1868
gelte	1867
rund@@	1867
bungs@@	1867
Track@@	1867
herrschen	1866
Span@@	1866
Koordinaten	1866
.07.2015	1866
Spitz@@	1865
äne	1865
spiegel	1865
park@@	1865
Neubau	1865
jan@@	1865
wohnt	1865
With	1865
gl	1865
Zusammenhalt	1864
Rang	1864
TC@@	1864
Lä@@	1863
NICHT	1863
drück@@	1863
Donau	1863
ès	1863
kund@@	1863
zauber@@	1863
Deutsch@@	1863
portal	1863
Schnee@@	1863
Verpflegung	1863
Gelegenheiten	1862
jahren	1862
Kolumbien	1862
Flachbild-TV	1862
Wollen	1861
mierung	1861
operation	1861
zeile	1861
FreeBSD	1861
nel	1860
arab@@	1860
Tank@@	1860
unterstreichen	1860
illegale	1860
Tageszeitung	1860
Zwi@@	1860
Laufwerk	1860
2013-@@	1860
Pak@@	1859
OT@@	1859
studien	1859
eger	1859
IE	1859
Poems	1859
Puzzle	1859
tenden	1858
kulation	1858
Wortes	1858
zie@@	1858
Ecken	1858
Fot@@	1858
0.00	1858
ohlen	1858
Deutscher	1858
Wahrung	1857
fähi@@	1857
innovativer	1857
Wochen@@	1857
paper	1857
Schätze	1857
mode	1857
Straßburg	1856
bereitschaft	1856
Geschenke	1856
samm@@	1856
rh@@	1856
asiatischen	1856
related	1856
zugute	1855
pau@@	1855
Stolz	1855
Staats-	1855
Völker@@	1855
prüft	1855
ritten	1855
ischem	1855
ähn@@	1855
310	1855
Denkmal	1855
Ringversuchs	1855
ierungs@@	1854
Bron@@	1854
metho@@	1854
Montenegro	1854
Freundin	1854
Ï@@	1854
Library	1854
Gesundheitswesen	1853
schlu@@	1853
Eingangs@@	1853
Ersatzteile	1853
zione	1853
Applikation	1853
reali@@	1852
Sitzungen	1852
dauerte	1852
belastet	1852
stö@@	1852
Himmels	1852
ster-@@	1852
div	1852
command	1852
terin	1851
staatlicher	1851
blüh@@	1851
studio	1851
hing	1851
Are@@	1851
tzer	1851
31-@@	1851
heart	1851
03-@@	1851
Id	1851
Fusion	1850
gegenseitigen	1850
children	1850
job	1850
Darsteller	1850
Y-@@	1850
Hauptt@@	1849
162	1849
öhn@@	1849
profil	1849
lein	1849
.08	1849
duckduckgo.com	1849
niederländischen	1848
unterliegt	1848
Chaos	1848
Fähr@@	1848
zusammengefasst	1848
Baden	1848
Begleit@@	1847
ox@@	1847
äußer@@	1847
1949	1847
unterlagen	1847
ansprüche	1847
Kindheit	1847
Wis@@	1847
Sammlungen	1847
Cin@@	1847
los-angeles.amaril	1847
programm@@	1846
Gedächtnis	1846
korrekte	1846
fühlte	1846
gän@@	1845
begreifen	1845
geachtet	1845
Fähre	1845
Spielplatz	1845
Dien@@	1844
Nation@@	1844
ösen	1844
Erreichen	1844
steilen	1844
sichtbaren	1844
weisungen	1843
rea@@	1843
Betrieben	1843
vorn	1843
kan	1843
Zei@@	1843
something	1843
hours	1843
while	1843
DF@@	1843
fehl@@	1842
1963	1842
Weile	1842
Law	1842
tus	1842
7-11	1842
Flor@@	1841
eger@@	1841
bestimmtes	1841
eisen	1841
begriff	1840
control	1840
Harry	1840
Menü@@	1840
dürften	1839
nachdrücklich	1839
beantragen	1839
Ira@@	1839
graben	1839
Profis	1839
ess-@@	1839
eling	1839
add	1839
betet	1838
beziehungsweise	1838
Schmidt	1838
Trauben	1838
Pfei@@	1838
door	1838
Sizilien	1838
Anwend@@	1838
ove	1838
Blog@@	1838
vereinfacht	1837
ständiges	1837
rennen	1837
enza	1837
2.1	1837
anbelangt	1836
aussieht	1836
Zitat	1836
ierter	1836
Klassiker	1836
ries	1836
Bam@@	1836
languages	1836
count	1836
jpeg	1836
erteilen	1835
Opern@@	1835
sons	1835
erischer	1835
mmel@@	1835
dn@@	1835
Befehle	1835
sen-@@	1835
schallisolierte	1835
Unterkünften	1834
Inspiration	1834
san	1834
Chalet	1834
erörtert	1833
tes@@	1833
durfte	1833
räum@@	1833
Spannungen	1833
ewig	1833
Fischer@@	1833
Langzeit@@	1833
geho@@	1833
chil@@	1833
mari@@	1833
Snacks	1833
Inzwischen	1832
begeben	1832
sierter	1832
ereien	1832
Römer	1832
iss	1832
ungsprogramme	1831
beizutragen	1831
Friede	1831
She@@	1831
schale	1831
neur@@	1831
Segelboot	1831
reale	1830
Unions@@	1830
gemeint	1830
183	1830
Gästezimmer	1830
116@@	1830
Frankreichs	1829
Beobachtung	1829
Soft@@	1829
1961	1829
schließ@@	1828
zell@@	1828
Einreichung	1828
Stadium	1828
defin@@	1828
Klage	1828
wn	1828
höre	1827
üste	1827
aktuelles	1827
Himmel@@	1827
Landhaus	1827
maß	1826
schreibung	1826
fts@@	1826
Evolution	1826
Attention	1826
drängen	1825
Blick@@	1825
Krei@@	1825
entr@@	1825
brau@@	1824
kampf	1824
352	1824
versteckt	1824
chronologisch	1824
Holen	1824
bra	1824
event	1824
41@@	1824
box@@	1824
schalter	1824
www.amarillasestadosunidos.com	1824
reißen	1823
Tatsachen	1823
Fang@@	1823
walk	1823
gratulieren	1822
Division	1822
quer@@	1822
Hügeln	1822
SDL	1822
flexiblen	1821
Alkohol@@	1821
geistige	1821
Cyc@@	1821
Bildes	1821
-4@@	1821
Wur@@	1820
ungsphase	1820
bigen	1820
Zelt	1820
punkt@@	1820
Sep@@	1820
stad	1820
avec	1819
tari@@	1819
Instandhaltung	1819
abe	1819
einigung	1819
erstaunliche	1819
215	1819
weich	1819
industrie.htm	1819
gemein@@	1818
lege	1818
gert	1818
definierte	1818
beschriebenen	1818
Kongo	1818
vil	1818
este	1818
1900	1818
Jordan	1818
Laser	1818
ativer	1817
führend	1817
intern	1817
freiem	1817
disch	1817
Freund@@	1817
göttlichen	1817
NT@@	1817
oma	1817
dunkel@@	1817
Č@@	1817
Epoche	1816
Zy@@	1816
romantische	1816
1939	1816
geb	1816
sto	1816
UV-@@	1816
cent@@	1816
druckt	1815
Frü@@	1815
Öffentliche	1815
Young	1815
files.wordpress.com	1815
Grö@@	1814
kümmert	1814
rans@@	1814
ares	1814
Glei@@	1814
Zeu@@	1814
Supp@@	1814
speisen	1813
tue	1813
Ermittlung	1813
einzustellen	1813
ves@@	1813
cks@@	1813
Auszeichnungen	1813
hts	1813
Gedanke	1812
einzigartiges	1812
tlicher	1812
TV@@	1812
bedeutendste	1812
klimatisierte	1812
Solo@@	1812
vention	1811
Integra@@	1811
Krisen	1811
zeitgenössischen	1811
christ@@	1811
GS@@	1811
omie	1811
Fotografien	1811
Asia	1811
3.000	1811
Beton@@	1811
Days	1811
abger@@	1810
Einbindung	1810
ying	1810
hofs	1810
PK@@	1810
Gig@@	1810
Bag@@	1810
reform	1809
Wieder	1809
Holl@@	1809
Lieferant	1809
bekannter	1808
einheimischen	1808
Energieversorgung	1808
ato@@	1808
Water@@	1808
sv@@	1808
Luzern	1808
marken	1807
Frequenz@@	1807
Patents	1807
I.@@	1807
Kinderspielplatz	1807
red@@	1806
definitiv	1806
Fäl@@	1806
Gebote	1806
onien	1806
wachstum	1805
Sanierung	1805
Rettungs@@	1805
Wass@@	1805
mem@@	1805
leist@@	1805
hung@@	1805
bindung	1805
LP	1805
herausragende	1805
386	1805
Welcome	1805
erweisen	1804
Aussichten	1804
stütz@@	1804
strom@@	1804
cour@@	1803
special	1803
christliche	1803
virtuelle	1803
CB@@	1803
Dan	1803
arnebab	1803
Gelder	1802
Schaf@@	1802
fein	1802
ax@@	1802
rün@@	1801
homo@@	1801
139	1801
Buches	1801
fasst	1801
Grab@@	1801
IL	1801
scheiben	1801
uche	1800
Mandat	1800
Null	1800
leger	1800
Linien@@	1800
Nutzungsbedingungen	1800
Long	1800
gewünscht	1799
ement@@	1799
Punk@@	1799
Jungs	1799
CHT	1799
700@@	1799
verzeichnen	1798
kna@@	1798
fürchten	1798
Rh@@	1798
Villa@@	1798
fully	1798
3.1	1798
SR@@	1798
ii	1798
zimmern	1797
erwarteten	1797
haltungs@@	1797
ände	1797
Bungalows	1797
Rig@@	1797
359	1797
Mira@@	1797
beeinträchtigen	1796
Rettung	1796
List	1796
Benutzern	1796
Vollständigkeit	1796
Lieferzeit	1796
String	1796
selb@@	1795
Nahrungsmittel	1795
erreichten	1795
stän@@	1795
geschle@@	1795
leeren	1795
höchstem	1795
Gewin@@	1795
parks	1795
3.2	1795
erkran@@	1794
Frau@@	1794
ungsprozesse	1794
Zwangs@@	1794
Verpackungen	1794
Arizona	1794
report	1794
237	1794
worl@@	1794
WM	1794
.11.2015	1794
tol@@	1793
159	1793
griff@@	1793
Pariser	1793
spä@@	1793
änden	1793
Look	1793
politisches	1792
österreichische	1792
soci@@	1792
temp@@	1792
opf	1792
Campus	1792
Awards	1792
erzielten	1791
Gesetzen	1791
Umwandlung	1791
hes	1791
endung	1791
Geheimnisse	1791
ussi@@	1791
Technologies	1791
Lm	1791
Bou@@	1790
oi@@	1790
berichtete	1790
Wen@@	1790
Programmier@@	1790
Í@@	1790
1600	1790
description	1790
pliki	1789
fizieren	1788
Reinigungs@@	1788
Einmal	1788
Kupfer	1788
story	1787
küh@@	1787
digten	1787
frie@@	1787
ausgedrückt	1787
370	1787
zon@@	1787
prozess@@	1787
Consultant	1787
Pula	1787
grenzüberschreitenden	1786
erien	1786
power	1786
ctur@@	1786
Kleb@@	1786
abgeben	1785
Übung	1785
soeben	1785
wärts	1785
Kinderbetreuung	1785
EZ@@	1785
Stadtt@@	1785
Trade	1785
Vill@@	1785
Außer	1784
Jün@@	1784
ical	1784
mann-@@	1784
istik	1784
Erteilung	1783
Grill@@	1783
107@@	1783
188@@	1783
erotic	1783
Betrug	1782
kurzfristig	1782
saß	1782
zeugt	1782
fleisch	1782
beauftragte	1782
Eurozone	1782
feier	1782
kalten	1781
Oh@@	1781
Angestellten	1781
motoren	1781
ale@@	1781
Höhen	1780
Verantwortlichen	1780
üb@@	1780
kasten	1780
Martin@@	1780
anal	1780
Gab@@	1780
mächtig	1780
entdeckte	1780
Funktionieren	1779
Gewähr	1779
angeordnet	1779
Jul@@	1779
tting	1779
zation	1779
Urlaub@@	1779
line-@@	1779
Jersey	1779
Yoga	1779
2-Zimmer-Appartment	1779
beeindruckt	1778
kontrollen	1778
laß	1778
Fernando	1778
dent	1778
4000	1778
Komposition	1778
übersetzen	1777
treu	1777
Tische	1777
fortzusetzen	1776
justi@@	1776
anschluss	1776
ley@@	1776
IH@@	1776
105@@	1776
tret@@	1775
Anzeichen	1775
fertig@@	1775
Mai@@	1775
entzün@@	1775
arz@@	1775
www.ypages@@	1775
Gleichstellung	1774
Sele@@	1774
gelö@@	1774
ministeriums	1774
AB	1774
Gun@@	1774
Aero@@	1774
freundliches	1774
50,00	1774
Behälter	1773
ausgegangen	1773
versammlung	1773
Daraus	1773
Betrachtung	1773
gewerblichen	1773
Konjunktur@@	1773
plo@@	1773
cca	1773
Produktes	1772
stunde	1772
ungspro@@	1772
CHE	1772
KE	1772
thr@@	1772
Pharao	1772
vous	1772
Binnenmarktes	1771
Entschließungsantrag	1771
zwischen@@	1771
radio@@	1771
9.00	1771
tas	1771
19.00	1771
jüdische	1771
192	1771
separaten	1771
Layout	1771
29,@@	1770
reise@@	1770
ght	1770
anschauen	1770
Tochtergesellschaft	1770
Unterhaltungs@@	1770
Buddha	1770
sieben@@	1769
sensi@@	1769
Lohn	1769
Ami@@	1769
Arbeitsbedingungen	1769
148	1769
vens@@	1769
Ron@@	1769
sys	1769
Betrachter	1769
MP	1769
ausbildung	1768
Na	1768
NY	1768
cd@@	1768
KBA	1768
IBM	1767
Oper@@	1767
Autor@@	1767
ativen	1767
129@@	1767
-40	1767
Studies	1767
0.013@@	1767
abgehalten	1766
Gefangenen	1766
Flü@@	1766
Handwerk	1766
ez@@	1766
Color	1766
etliche	1765
gewinnung	1765
Renaissance	1765
Ana@@	1765
Samuel	1765
Alber@@	1765
Hinter	1764
simp@@	1764
erhöhten	1764
chten@@	1764
eri	1764
Finsternis	1764
Off	1764
anci@@	1763
Heraus@@	1763
Gan@@	1763
Spiegel@@	1763
reinigung	1763
Dä@@	1763
iler	1763
modul	1763
Spannungs@@	1762
arium	1762
aufrecht	1762
eichen	1762
Riesen@@	1762
bohr@@	1762
controller	1762
Weisen	1761
Arbeitsweise	1761
heilig	1761
stol@@	1761
beit@@	1761
etter	1761
Family	1761
kir@@	1761
generi@@	1761
ciudad-de-la-haban	1761
hn@@	1760
stars	1760
[...]
