"	24736146
,	21270602
.	15354944
der	9385292
/	9135943
und	8487218
die	7926895
)	6423772
(	6244725
:	6217656
von	5069313
in	4815210
mit	4465418
zu	3016511
den	2707067
ist	2676196
Sie	2607144
-	2554314
für	2475101
oder	2270336
bei	2224775
eine	2223160
des	2204756
auf	2151320
werden	2112252
Die	2011454
1	2000758
das	1938913
nicht	1862401
einer	1777371
im	1680162
er	1544284
Patienten	1512522
ein	1507583
mg	1486015
s	1462331
wird	1443214
es	1415870
t	1378639
dem	1367847
an	1366023
%	1315154
20@@	1266958
als	1257382
sich	1197817
sind	1178575
zur	1134200
-@@	1074151
nach	1073474
te	1048792
e	1029052
um	985669
s@@	973146
dass	967861
W@@	924090
2	917569
10	916771
d	915488
S@@	898653
über	882846
?	880106
un@@	879024
wurde	877341
a	856462
aus	855431
kann	835899
bis	830696
einem	827595
auch	813355
.@@	798810
k@@	770424
m	769088
w@@	767349
+	761532
Behandlung	757933
e@@	757457
en	753098
er@@	733452
einen	728951
d@@	719421
P@@	717754
ten	710518
g@@	697448
haben	690652
ch	683598
wie	682434
t@@	679504
H@@	676770
16	664584
M@@	662763
y	657772
ml	656989
o	652750
B@@	651803
ver@@	650454
n@@	647135
Der	643703
c@@	640198
;	638614
3	638161
wenn	636453
p@@	635389
durch	630665
de	624796
http	621803
EU	618087
können	617789
f@@	616930
K@@	616265
m@@	607566
sie	607345
en@@	602668
an@@	594465
wurden	594076
zum	583431
vor	581198
_	576457
•	575294
15	570676
on	561492
Es	560962
am	557921
Das	556364
G@@	554978
In	551673
h@@	543007
b@@	542556
a@@	542556
12	541488
F@@	541407
T@@	540314
o@@	540066
hat	537769
l	536601
4	535793
st@@	530029
Anwendung	526953
00	523154
k	520984
unter	520849
5	520703
n	517831
i@@	515423
g	512598
in@@	509515
be@@	507188
i	501147
N@@	496366
L@@	495656
Bei	486654
I@@	480817
y@@	475359
An@@	475162
=	474892
20	470811
l@@	470522
D@@	459618
wir	459232
keine	457123
li@@	455344
sch@@	452384
nur	450175
11	448899
ge@@	447950
“	446850
ar@@	445924
7	445718
war	443208
ot@@	427706
r@@	426603
30	418867
–	415146
Dosis	414403
sollte	410917
!	410916
siehe	409662
Ver@@	405862
„	405247
C	400407
14	398129
*	396504
z@@	394023
Wenn	392743
Arzneimittel	387097
so	386794
A@@	385742
]	385538
v@@	381298
R@@	380228
Arzt	378645
>	377388
€	376509
C@@	375814
6	374787
and	373927
the	373445
www.@@	373178
mehr	372584
E@@	372473
100	372353
anderen	372248
p	370647
St@@	370266
ich	369913
J@@	368701
di@@	368523
ein@@	368521
sein	368054
0	367889
dieser	367853
Studien	365592
u@@	360146
diese	359434
[	357712
ur@@	355712
am@@	355283
was	353495
te@@	352120
angewendet	351924
O@@	348148
Be@@	344146
eines	342352
ge	341268
50	340857
13	339577
alle	337973
al@@	332775
17	331904
ab@@	330550
Nebenwirkungen	330491
enthält	328833
si@@	327930
Sch@@	327066
de@@	326154
gen	326015
während	323025
on@@	322854
ch@@	322502
ent@@	322211
Abschnitt	321832
re@@	321436
or@@	319926
'	317004
ter	311802
of	310662
es@@	308341
18	308003
aber	304850
ti@@	303963
8	303006
z	300417
j@@	299852
sowie	299731
Un@@	299322
x	298280
la@@	298258
aus@@	297821
<	296211
ma@@	296004
&	295793
au@@	295068
V@@	291581
at@@	291432
...	290788
Aus@@	287710
il@@	287261
mm@@	286976
B	286613
19@@	284065
ser@@	282869
noch	282788
vom	282673
Ab@@	282278
gegen	281725
.com	279421
25	279131
h	278603
Eine	276412
ü@@	274721
b	270342
3@@	270158
ad@@	270143
Tabletten	268919
da@@	265551
w	264126
07	263709
ung	262456
auf@@	261745
5@@	261599
sollten	261476
ie@@	261222
st	261020
Wie	257132
ä@@	256936
mi@@	254969
ungen	254021
sehr	252693
da	250387
müssen	250302
Ihnen	249676
6@@	249532
al	248466
zwischen	247566
01	247159
2@@	246601
is	246090
24	245305
Ein@@	245054
den@@	245017
06	242048
Daten	241643
ei@@	241527
muss	241305
Ihr	241010
Tel	238969
#	237850
Tag	237580
nen	237428
4@@	236281
ern	235973
ste@@	235816
21	235767
Re@@	235161
ab	234050
08	233329
man	233268
ol@@	231744
Er@@	231660
täglich	231087
kg	231069
02	230505
lo@@	230430
Sp@@	229938
7@@	229305
M	229213
ra@@	229134
el@@	228767
andere	228094
»	227906
waren	226096
A	226048
ir	224284
9@@	222168
ger	221651
Ihre	221595
zwei	221560
to	221369
zi@@	221202
c	221151
et@@	220841
tes	219344
19	219241
22	217790
Jahren	217782
sp@@	217300
el	216112
Diese	215307
schen	214899
us@@	214717
äch@@	214108
at	213309
Ma@@	212728
Stunden	212404
Studie	212344
klinischen	212169
tel	212053
ohne	210921
f	210531
8@@	210027
Im	209657
Informationen	209341
Z@@	208544
r	207893
40	206456
Wochen	206456
um@@	205903
is@@	205797
it@@	205747
04	205056
u	203970
le	203097
as	202868
ere	202675
In@@	202537
I	201813
03	201471
ungs@@	199241
ck@@	198499
Ihren	197583
9	196159
Nach	195261
The	194909
qu@@	194893
ir@@	192983
ut@@	192695
ed	192427
gibt	192120
om@@	191645
ischen	191465
eb@@	191120
darf	189667
schaft	189571
or	189537
ation	188933
05	188345
ho@@	188212
Ho@@	188178
23	188125
vor@@	188057
zu@@	187878
denen	187711
Lösung	187637
28	186522
°	185530
ne	184954
hier	184425
beobachtet	183852
ter@@	182189
gen@@	182161
pro	181720
ar	181626
me	181207
us	180053
über@@	179975
ri@@	179676
0@@	178608
ul@@	178513
diesem	178503
rei@@	178345
ö@@	177779
lich	177206
Zeit	176760
empfohlen	176636
che	176184
dieses	176155
jedoch	176046
ly	175671
Einnahme	174827
wer@@	173894
Menschen	173523
diesen	173465
ts@@	173371
Wirksamkeit	173185
U@@	172889
09	172586
erhalten	172359
ersten	172338
Jahre	171978
Po@@	171121
ts	169370
ber@@	169113
Risiko	169000
ht@@	168680
Vor@@	167989
dann	167538
daß	167266
ro@@	167214
os	166963
Al@@	166301
der@@	165902
ihre	165544
ob@@	165368
op@@	165228
uns@@	164233
ale	164146
ste	163204
60	163195
unter@@	163110
se	163060
Durchstechflasche	162401
Kombination	162011
and@@	161945
untersucht	161914
ko@@	161689
as@@	161479
E	161137
vi@@	160644
sche	160634
einmal	159832
ck	158378
behandelt	157921
Seite	156529
ce	156475
EMEA	156292
le@@	155708
kommen	155222
elle	154681
Therapie	154672
ten@@	154623
immer	154086
Kommission	152821
Kon@@	152431
Ein	152363
innerhalb	151544
beim	150882
Zi@@	150731
bi@@	150205
Was	149840
ac@@	149366
verabreicht	148335
Für	148273
Jahr	148245
tr@@	148208
Injektion	147979
Auf@@	146998
ni@@	146454
einschließlich	146194
all@@	146175
ische	145195
ger@@	145047
finden	144783
lichen	144758
erforderlich	144669
gegenüber	144415
Filmtabletten	144304
Li@@	143784
Tage	143698
ex@@	143571
März	143264
sch	142405
Arzneimitteln	142317
e-@@	141642
wieder	141249
os@@	141018
dies	140396
Kindern	140029
Europäischen	139366
Ihrem	138638
ag@@	138604
em	137819
allen	137721
26	137414
liche	137132
1@@	136943
2008	136723
enden	136572
ob	136466
ta@@	136164
th@@	136099
cht	135968
sen	135829
gt	135761
auftreten	135687
Wirkung	135307
zusammen	135120
eren	135056
tra@@	134881
do@@	134657
ur	134647
els	134201
seine	133842
S	133550
80	133472
stag	133404
Zu@@	133078
ph@@	132768
chen	132567
Injektionslösung	132412
Ge@@	132162
sa	132022
führen	131933
eingenommen	131777
De@@	131692
«	131664
em@@	131624
Symptome	130985
Gabe	130438
damit	130226
eh@@	130198
ieren	130104
sten	130040
Anzahl	129940
ing	129916
ster	129800
2009	129617
45	128906
x@@	128806
27	128624
DER	128557
Dosierung	128520
ver	128458
drei	128077
Ar@@	126588
nung	126313
D	126133
ak@@	125609
se@@	125546
pro@@	125314
Wasser	124874
ne@@	124776
2007	124767
Mar@@	124433
her@@	123914
lassen	123451
Pulver	123225
ihr	123161
Se@@	123157
Kinder	123133
neue	123108
berichtet	122779
ange@@	122297
49	122210
Mit	122175
48	121744
Frauen	121533
Unternehmen	121469
29	121384
10@@	121019
elt	120703
31	120578
for	120533
bereits	120501
Y@@	120215
ach@@	119852
ie	119744
bzw.	119421
eu@@	119401
To@@	119166
lin@@	119105
32	118127
Her@@	117667
fer@@	117525
Zusammenhang	117291
Woche	117245
liegen	117124
200	116891
ende	116819
ine	116568
men	116486
af@@	116391
Pro@@	116348
Entwicklung	116284
2006	116063
≥	116047
Woh@@	115884
for@@	115635
ges@@	115522
et	115467
33	115459
90	115229
gel@@	115111
Su@@	114743
Inverkehrbringen	114640
gi@@	114475
Haut	114346
ut	114082
folgenden	113893
not	113712
durchgeführt	113621
weniger	113607
ert	113160
35	113046
Genehmigung	112766
Uhr	112502
mindestens	112375
Über@@	112219
56	112173
weitere	111508
oli@@	111463
Verabreichung	111420
soll	111400
etwa	111297
tag	111251
Dosen	111041
ent	110613
Dies	110568
Herstellung	110558
ken	110411
ster@@	110160
Vergleich	110044
Da	109846
einnehmen	109829
Unter@@	109812
verwendet	109632
Personen	109439
geb@@	109403
end	109106
Bereich	108752
Einnehmen	108609
liegt	108557
no@@	108431
kon@@	108346
ap@@	108157
neuen	108136
this	107964
T	107838
F	107816
tion	107776
ali@@	107763
Schwangerschaft	107708
Vorsicht	107705
ür@@	107239
Erkrankungen	107008
stellen	106087
Au@@	105935
I.E.	105902
bekannt	105894
je@@	105838
L	105635
44	105467
art@@	105330
gs	105305
ell@@	105155
hab@@	105136
Deutschland	105068
all	105027
ve	105015
ges	104826
nehmen	104619
Ta@@	104442
Insulin	104401
4.4	104394
beträgt	104306
age	104196
Sicherheit	104162
98	103954
möglich	103948
tung	103726
Di@@	103610
-2@@	103581
fi@@	103523
net	103498
ati@@	103308
v	103221
Da@@	102945
geben	102595
hatten	102401
seit	102353
Fre@@	102342
ihrer	102318
erhielten	101899
Nach@@	101812
Alter	101687
ser	101581
Frei@@	100924
V	100903
”	100847
gut	100586
ol	100163
12@@	100113
34	100107
deren	99986
Me@@	99913
iert	99875
stehen	99785
du	99737
zen	99547
Mikrogramm	99232
75	99223
P	99096
X@@	98943
worden	98940
kt	98531
Union	98485
gesch@@	98421
ke	98416
bietet	98225
Ã	98222
300	98219
Art	97960
ün@@	97950
ort	97835
Bestandteile	97823
0,5	97694
Bu@@	97501
sta@@	97461
gegeben	97335
men@@	97278
39	97190
seiner	97061
Placebo	96844
ru@@	96778
möglicherweise	96749
häufig	96649
kein	96634
fen	96457
s-@@	96413
con@@	96351
UT@@	96297
00@@	96221
18@@	96217
Bo@@	96089
tigen	96016
36	96014
ner	95976
Do@@	95962
hatte	95871
besteht	95831
Monate	95807
Kom@@	95737
dürfen	95733
darauf	95568
we@@	95298
Mon@@	94824
Packung	94775
500	94574
mo@@	94537
Qu@@	94043
na@@	93941
Er	93921
tet	93786
ah@@	93703
insbesondere	93439
je	93422
ellen	93366
Infektionen	93099
Prä@@	93098
Reaktionen	93066
per@@	92060
bitte	91952
Blut	91827
Aut@@	91786
ori@@	91730
alen	91722
ner@@	91699
Par@@	91688
selbst	91620
wi@@	91589
Str@@	91517
43	91444
70	91439
mit@@	91307
aufgrund	91211
Teil	91172
Ergebnisse	91111
Tablette	91054
to@@	91048
bar	90931
O	90899
sehen	90884
are	90873
cken	90819
URL	90714
ds	90581
lu@@	90573
heit	90565
16@@	90476
las@@	90466
pg	90444
August	89989
September	89838
hi@@	89679
og@@	89084
ens	88961
hr@@	88940
zweimal	88929
Arzneimittels	88883
Ritonavir	88815
Minuten	88783
Rep@@	88742
150	88500
gr@@	88480
res@@	88465
41	88451
CHMP	88365
lei@@	88233
fo@@	88070
2005	87955
daher	87764
beiden	87752
14@@	87752
GmbH	87316
kan@@	87207
machen	86930
42	86860
ess@@	86763
Ro@@	86685
IST	86495
Rahmen	86482
Win@@	86417
Gruppe	86343
ft	86313
wo	86289
co@@	86188
be	86036
ier@@	85915
ic@@	85691
a.@@	85566
enthalten	85500
by	85458
nach@@	85353
Alle	85352
ep@@	85220
viele	85208
sondern	85187
13@@	85167
November	84967
17@@	84965
gung	84781
wor@@	84685
ber	84649
fre@@	84635
Auf	84595
sten@@	84509
zeigen	84495
46	84490
400	84460
Ihrer	84156
Lösungsmittel	84150
unden	84147
Inhalt	83988
one	83955
Spiel@@	83952
²	83923
AM	83882
Tagen	83881
95	83805
oh@@	83684
Artikel	83635
gezeigt	83627
sti@@	83581
entsprechend	83472
Ex@@	83337
Ende	83320
Flu@@	83313
ön@@	83291
Jede	83256
ierung	83232
ou	83192
1.@@	83152
fe	83082
Fer@@	83020
ben	82954
cur@@	82913
ka	82665
…	82548
ationen	82544
sk@@	82524
ass@@	82524
behandelten	82463
schaf@@	82347
bet@@	82214
Inter@@	82153
AUF	82068
15@@	82005
einige	81960
Gesch@@	81699
Fall	81662
H	81649
ub@@	81523
min	81482
97	81433
denn	81394
isch	81209
gehen	80977
Beginn	80753
str@@	80669
Fällen	80648
Mi@@	80647
Lin@@	80581
man@@	80506
000	80434
ad	80221
par@@	80172
bu@@	80096
Schmerzen	79822
En@@	79782
Falls	79768
Von	79635
Wirkungen	79582
kom@@	79564
fast	79276
ran@@	79273
Ba@@	79225
schon	79082
47	78994
hin@@	78924
37	78865
erhöht	78832
ci@@	78743
mes	78695
viel	78526
dazu	78491
war@@	78470
land	78374
up@@	78140
html	78031
Sam@@	77926
99	77726
weiter	77719
mir	77665
ung@@	77628
1,@@	77606
ov@@	77582
erreicht	77453
gh@@	77453
Ch@@	77407
Fertigspritze	77139
Wor@@	77087
hin	77068
52	77008
Europäische	76931
Ger@@	76927
Monaten	76836
55	76826
38	76776
a-@@	76719
plat@@	76662
woh@@	76619
welche	76612
fe@@	76377
ganz	76268
mm	76229
geht	76210
April	76157
anti@@	76100
är@@	76090
2000	76078
Rei@@	76016
letzten	76007
Mit@@	76001
ßen	75947
eg@@	75870
N	75853
Tra@@	75831
und@@	75785
Gr@@	75595
gs@@	75552
ihren	75538
zer@@	75319
Zur	75243
2004	75199
imm@@	75187
ß	74936
Körpergewicht	74932
Menge	74912
nis	74910
G	74805
o-@@	74732
’	74658
Um@@	74299
1.	74286
tri@@	74274
Verfügung	74235
Sa@@	74205
á@@	74169
kommt	74096
Ju@@	73911
Erwachsenen	73840
lagen	73840
84	73822
tt@@	73805
ment	73751
Verbindung	73327
anwenden	73326
sofort	73262
führt	73220
Weitere	73178
mer@@	73130
Infusion	73063
Erkrankung	73051
Um	73029
R	72989
2.@@	72969
it	72801
oll@@	72700
wil@@	72514
heute	72473
vier	72319
µg	72216
tin@@	72154
Wirkstoff	71968
weil	71951
@	71861
of@@	71763
ers	71760
lage	71742
gu@@	71637
Nutzen	71617
erung	71355
gleichzeitig	71328
2001	71308
inter@@	71121
lan@@	71057
bo@@	71050
min@@	71020
jetzt	71017
Ber@@	71016
keinen	70952
....	70879
Maßnahmen	70826
jeder	70792
sonstigen	70718
stra@@	70640
Herr	70636
steht	70474
ks	70453
etwas	70448
halten	70375
Oktober	70324
alt	70317
seinen	70286
Europa	70269
tige	70240
eiten	70178
Erbrechen	70088
51	70082
lang	70080
selten	69966
Übelkeit	69580
wei@@	69535
Dieses	69432
War@@	69423
bevor	69331
cm	69188
sowohl	69086
könnte	69050
Ent@@	69008
Fl@@	68768
edi@@	68663
verschiedenen	68517
zen@@	68466
ehr@@	68345
65	68083
bel@@	68011
det	67960
d-@@	67901
sa@@	67839
verb@@	67729
Nor@@	67699
erhöhte	67649
Mai	67625
Thi@@	67613
Typ	67575
3-@@	67520
su@@	67468
Bitte	67376
th	67357
einfach	67303
Häufigkeit	67294
erste	67229
Auch	67106
Mitgliedstaaten	67075
Zum	67035
UND	66843
200@@	66718
mal	66695
Form	66661
54	66652
allem	66647
Spritze	66594
Hei@@	66305
So	66231
Geb@@	66222
schweren	66157
dern	66155
sion	66099
ok@@	66088
Th@@	66068
Als	66048
meisten	65930
jedem	65927
Tabelle	65916
Daher	65887
Con@@	65857
licher	65828
leicht	65783
Produkte	65680
tern	65626
hal@@	65495
ente	65451
ler	65337
ate	65325
Juni	65276
hei@@	65174
zeit	65121
Packungsbeilage	65096
ast@@	65063
om	64996
wo@@	64969
Maschinen	64963
besonders	64947
usi@@	64860
ary	64836
mp@@	64807
ihn	64784
ausge@@	64777
Eur@@	64768
ihm	64645
esse	64643
Fragen	64632
Haupt@@	64630
po@@	64596
Anstieg	64447
lung	64445
sollen	64444
verbunden	64426
dabei	64424
La@@	64311
scher	64186
Nierenfunktion	64183
Ur@@	64115
W	64073
äu@@	63989
fahr@@	63981
58	63948
27@@	63916
len	63864
en-@@	63859
Suspension	63850
ast	63835
Ereignisse	63806
59	63783
ure	63699
fin@@	63692
Ser@@	63612
gesamten	63465
z.B.	63458
96	63407
53	63382
Juli	63374
nt	63326
Sta@@	63279
Co@@	63217
Kar@@	63170
Bl@@	63162
entfernt	63097
sen@@	63077
tu@@	62936
betrug	62904
Mo@@	62893
{	62793
ill@@	62791
aller	62611
nun	62529
ell	62524
end@@	62521
Bi@@	62438
PVC	62415
Land@@	62297
aler	62289
1-@@	62277
stellung	62152
gang	62147
Ap@@	62107
bieten	62069
Während	61842
kt@@	61803
2003	61789
Ti@@	61779
onen	61777
Ges@@	61753
oben	61689
ven@@	61688
Hi@@	61667
ett@@	61625
Verwendung	61604
Pharmakokinetik	61590
Verfahren	61561
ihnen	61552
ations@@	61547
ÿ@@	61511
Gar@@	61421
davon	61385
ec@@	61383
gleichzeitige	61329
57	61328
tischen	61309
einigen	61300
bar@@	61255
fa@@	61228
bringen	61197
fl@@	61191
du@@	61190
Hand@@	61150
kr@@	61111
Lage	60974
ins	60821
me@@	60732
großen	60618
Br@@	60612
kam	60602
est@@	60524
Rest@@	60472
har@@	60399
}	60398
große	60397
konnte	60396
Infektion	60355
befindet	60238
mon@@	60209
Pla@@	60184
schwerer	60091
oc@@	60048
ör@@	59916
0,@@	59876
üh@@	59839
Arbeit	59829
Vi@@	59750
eingesetzt	59748
stand	59732
verwenden	59708
isch@@	59651
Ter@@	59627
So@@	59590
ebenfalls	59570
pp@@	59557
enk@@	59499
g-@@	59445
direkt	59411
Zahl	59396
Namen	59355
m2	59345
25@@	59312
pri@@	59215
EUR	59168
alt@@	59120
Eng@@	59084
Si@@	59031
fu@@	58998
ma	58954
Rat	58906
Neu@@	58855
Don@@	58713
For@@	58677
Son@@	58656
Beispiel	58650
Impfstoff	58641
mu@@	58641
ted	58637
Ratten	58419
insgesamt	58402
nungen	58366
gar@@	58344
leiden	58336
Nicht	58320
WIE	58306
verglichen	58168
art	58139
Grund@@	58012
Hepatitis	57967
AUC	57951
setzen	57872
cher	57859
Anzeichen	57844
sei	57833
Körper	57824
Le@@	57772
1000	57705
alles	57661
Sehr	57584
so@@	57535
ari@@	57529
hand@@	57493
11.@@	57438
Fax	57328
Reg@@	57300
hinaus	57261
haf@@	57249
Chr@@	57246
Ç@@	57215
dr@@	57185
ze	57145
ef@@	57139
Ko@@	57132
wegen	57065
250	57055
genau	57052
Ri@@	57047
2002	56855
tig	56850
III	56839
ff@@	56605
Person	56535
2-@@	56526
Or@@	56517
ja	56516
rech@@	56512
zeigte	56472
System	56404
arbeiten	56399
Leben	56253
600	56215
Möglichkeit	56177
ei	56095
Gel@@	56025
eben	56019
alfa	56015
erhältlich	56005
ca.	55982
bereich	55958
bin	55905
sagen	55680
klinische	55642
Unterstützung	55587
Veränderungen	55513
Arbeits@@	55496
4-@@	55492
her	55431
001	55401
Ort	55374
30@@	55308
wirkt	55285
br@@	55203
Exposition	55124
Dat@@	55112
siert	55103
Auswirkungen	55071
74	55060
Blisterpackung	55046
Pri@@	55038
durch@@	55021
line	54999
Durchstechflaschen	54999
reise	54925
kl@@	54897
mar@@	54841
ech@@	54826
5-@@	54807
empfohlene	54775
fro@@	54709
ps	54708
also	54684
Zeitraum	54651
folgende	54635
dar@@	54586
Ausschuss	54574
Dauer	54530
än@@	54524
D-@@	54255
erk@@	54237
Vol@@	54219
9.	54152
WAS	54138
Kopfschmerzen	54127
cke	54123
Fri@@	53974
informieren	53942
klinisch	53873
entweder	53840
cal@@	53788
6-@@	53754
deut@@	53633
dessen	53630
Men@@	53590
treten	53550
schnell	53542
wichtig	53518
doch	53473
möchte	53470
Winthrop	53440
iel	53426
los	53399
Ru@@	53393
$	53393
fer	53377
mel@@	53374
führ@@	53344
Poli@@	53337
B.	53337
Te@@	53308
dafür	53224
Dieser	53171
falls	53071
Risiken	53037
allein	53027
Fieber	52974
Nehmen	52956
darüber	52920
schwere	52917
Website	52883
bestimmt	52859
Ad@@	52824
zurück	52815
Fin@@	52792
Erfahrungen	52787
würde	52743
Land	52669
sicher	52659
per	52658
notwendig	52643
-C@@	52624
lange	52546
Frau	52475
alten	52459
No@@	52449
Flasche	52425
Weise	52419
On@@	52391
II	52377
Januar	52368
Jahr@@	52351
fri@@	52259
Lei@@	52235
Kli@@	52154
Rech@@	52137
U	52106
é@@	52089
weiteren	51989
eri@@	51986
ich@@	51967
Zu	51910
Gen@@	51902
erst	51876
gew@@	51859
K	51815
ziehen	51769
A-@@	51755
ment@@	51732
3.@@	51724
Version	51693
Den	51671
Kind	51453
Kü@@	51434
ba@@	51422
USA	51392
2,5	51383
Man@@	51358
gemäß	51329
Frankreich	51285
oren	51277
120	51251
Probanden	51199
zeigten	51130
dan@@	50997
wobei	50989
ort@@	50950
jeden	50943
europäischen	50864
ott	50859
ome	50795
under@@	50698
stellt	50670
Vor	50670
zeu@@	50656
Injektionsstelle	50645
ischer	50574
gleich	50567
wa@@	50559
eng@@	50557
ation@@	50530
tische	50524
Hartkapseln	50369
ct	50352
bewer@@	50286
ß@@	50239
Wer@@	50223
Auftreten	50215
la	50153
tete	50152
0.@@	50114
Besondere	50084
Dezember	50039
Bild	50031
12.@@	50026
essen	50020
spr@@	50015
Dan@@	50010
del	50009
Internet	49994
rau@@	49992
system	49977
tem	49956
Wei@@	49932
Bür@@	49914
4.@@	49817
08@@	49782
enz	49765
führte	49555
ron@@	49553
Am	49542
Kun@@	49526
..	49499
Weg	49448
ren@@	49447
zeigt	49419
Mark@@	49417
via	49401
Reaktion	49397
pe	49376
anderer	49327
Irbesartan	49323
Vorteile	49299
ID	49281
ack@@	49261
bestimmte	49261
Überwachung	49241
erte	49193
t-@@	49189
bl@@	49117
ichte	49062
Ac@@	49022
ien@@	49015
Kapseln	48997
oni@@	48937
kte	48935
hohen	48916
zurück@@	48892
Erfahrung	48871
Jo@@	48868
ca	48865
gleichen	48852
Ziel	48794
Patient	48745
gelbe	48743
indem	48723
12.	48698
Qualität	48664
sierung	48556
Frage	48500
Is@@	48417
handelt	48406
sil@@	48342
com@@	48329
zweiten	48311
erreichen	48286
pf@@	48265
10.	48243
erfolgen	48241
gab	48203
Nadel	48187
ess	48181
Fahr@@	48166
4.2	48153
ens@@	48119
ons@@	48072
EU-@@	48069
hof	48068
Vide@@	48064
Fälle	48009
Kri@@	47981
tik@@	47969
gestellt	47964
Verbesserung	47954
pl@@	47953
Ö@@	47938
tz@@	47887
El@@	47858
he@@	47855
11.	47847
überwacht	47841
IN@@	47784
wollen	47781
gl@@	47753
lau@@	47693
sh@@	47640
Ihres	47626
tun	47570
28@@	47544
masch@@	47465
aten	47456
Produkt	47436
ek@@	47432
ück@@	47428
Per@@	47395
Millionen	47364
Bericht	47346
gef@@	47335
vergessen	47265
Q@@	47245
1.000	47204
hoch@@	47169
Telef@@	47149
Filmtablette	47148
Aktivität	47089
mer	47049
wirtschaf@@	46998
Name	46943
au	46927
Blutungen	46883
Pharma	46879
gel	46876
Durch	46805
ums	46789
Interferon	46781
suchen	46730
nachgewiesen	46716
sel@@	46708
Ob@@	46707
Nähe	46686
gener@@	46681
pen@@	46677
gan@@	46645
go@@	46640
ern@@	46629
dy@@	46589
Kontrolle	46565
10-@@	46528
Geschäfts@@	46502
gin@@	46495
zugelassen	46469
Jugendlichen	46429
Infusionslösung	46390
with	46388
Schwindel	46377
do	46376
signifikant	46314
seinem	46290
Wa@@	46287
9-@@	46217
schaften	46174
Impfung	46161
erg@@	46145
ender	46138
macht	46135
tungen	46130
Pen	46126
ard	46107
schwanger	45993
Patientinnen	45988
pres@@	45975
jede	45964
ker	45959
ce@@	45950
entwickelt	45941
2.	45848
eigenen	45767
Zusammenfassung	45765
5.@@	45736
-H@@	45735
Mittel	45734
stell@@	45722
ue	45686
ater	45676
dar	45665
jeweils	45646
y-@@	45631
eln	45622
verursacht	45616
vermeiden	45595
tragen	45569
Schlaf@@	45550
tlichen	45543
gro@@	45481
Hilfe	45436
enen	45394
Por@@	45365
gehört	45265
Blutdruck	45236
tion@@	45041
Com@@	45006
dert	44980
lichkeit	44980
2,@@	44976
Februar	44929
ban@@	44929
des@@	44824
Kontakt	44783
Am@@	44783
CPMP	44673
ebe	44656
Wechselwirkungen	44645
pi@@	44644
Erhöhung	44581
Sti@@	44569
sich@@	44569
az@@	44561
allergisch	44544
Du@@	44526
ated	44475
sprechen	44459
Zusammenarbeit	44454
Apotheker	44442
vielen	44417
Stillzeit	44409
Monat	44406
stark	44390
ierte	44386
einzelnen	44384
unten	44303
län@@	44283
din@@	44266
Daten@@	44258
dung	44250
stri@@	44216
1,5	44175
trag	44114
64	44091
Einzel@@	44043
lag	44013
han@@	44009
kten	43986
Rück@@	43928
er-@@	43914
Probleme	43911
od@@	43873
oftware	43866
prä@@	43799
gest@@	43789
Merkmale	43769
off@@	43760
Injektionszwecke	43717
sin@@	43707
\	43673
tei@@	43628
Ansprechen	43611
Ribavirin	43604
leben	43593
tieren	43565
vollständig	43542
gebracht	43506
Bes@@	43467
Pal@@	43282
Gesell@@	43244
bare	43242
oft	43216
Lan@@	43208
76	43176
kri@@	43168
fragen	43137
Einfluss	43111
in-@@	43068
Kat@@	43014
tin	42987
dort	42984
pla@@	42956
ng	42954
35@@	42932
Pflaster	42922
Augen	42918
Pa@@	42914
We@@	42815
gte	42774
Grund	42772
ungefähr	42733
uren	42712
äf@@	42706
weiterhin	42705
äl@@	42697
gten	42691
moder@@	42647
fil@@	42645
Bal@@	42608
85	42583
Programm	42565
Überdosierung	42542
ene	42519
002	42472
ES	42468
erhöhten	42456
Gew@@	42442
ase	42436
ing@@	42342
ers@@	42329
Berlin	42282
4.8	42256
angezeigt	42185
Dosisanpassung	42146
überempfindlich	42125
Hoch@@	42116
36@@	42116
ANGABEN	42114
Bei@@	42082
61	42079
wissen	41974
yp@@	41963
800	41955
Phase	41891
89	41869
festgestellt	41866
gesunden	41819
FÜR	41815
zusammen@@	41747
91	41698
erhöhen	41695
72	41693
37@@	41692
Bli@@	41659
Lie@@	41633
Hol@@	41623
Anhang	41608
Wasser@@	41576
Bedeutung	41556
Inhaber	41553
Grundlage	41550
.org	41524
sorgfältig	41499
form@@	41469
cht@@	41465
−	41447
new	41397
nächsten	41316
ct@@	41303
kleinen	41290
fest	41287
Bar@@	41275
50@@	41235
ien	41222
Außerdem	41206
.0@@	41184
Kir@@	41170
hinsichtlich	41170
ule	41160
he	41138
Produ@@	41117
enten	41079
chen@@	41059
AG	41049
Anämie	41027
mor@@	41024
ev@@	41024
Kap@@	40985
10.@@	40973
4.5	40963
Aus	40952
Cmax	40926
Diabetes	40926
tionen	40921
mehrere	40914
stu@@	40908
zeit@@	40882
olitik	40866
zeich@@	40843
Zeit@@	40802
besten	40776
höher	40736
Dem@@	40703
Hinweise	40699
voll@@	40695
av@@	40674
spiel@@	40664
uss@@	40659
Zeitpunkt	40600
äre	40557
4.3	40550
Deshalb	40540
einge@@	40536
entwickeln	40501
gabe	40392
EN	40372
Bildung	40353
Fr@@	40303
Zei@@	40269
¼	40269
fr@@	40267
Italien	40227
Leber	40220
kunft	40191
entspricht	40168
ist@@	40157
Warum	40059
Abschnitte	40050
ord@@	40029
ot	39972
Antikörper	39921
Inv@@	39921
aut	39895
vollständige	39893
gezogen	39866
Gi@@	39855
5.2	39848
tik	39847
zwei@@	39841
stelle	39839
könnten	39834
12-@@	39822
Ländern	39816
Gebrauch	39805
weiß	39802
Fir@@	39774
rund	39724
Res@@	39707
CH@@	39705
co	39654
X	39637
07@@	39626
nisse	39624
Konzentration	39620
möchten	39589
alfa-2b	39588
Break@@	39585
©	39535
Go@@	39503
IE	39484
Glas	39480
öh@@	39479
Regi@@	39427
Agentur	39421
ents	39416
ha@@	39398
bedeutet	39338
He@@	39337
Star@@	39310
erwarten	39302
Bezug	39301
zwar	39300
ven	39255
88	39251
ST@@	39240
Kur@@	39192
ft@@	39171
berichteten	39146
häufigsten	39146
kleine	39124
unde	39124
ton	39112
67	39088
günsti@@	39085
Dien@@	39045
ihrem	39010
com	38977
Untersuchungen	38969
sig@@	38944
chten	38924
Lu@@	38906
Seiten	38892
Kühlschrank	38891
6.	38882
Pi@@	38879
Car@@	38877
Na@@	38873
Aufgrund	38832
aufen	38818
Erwachsene	38810
Toxizität	38810
1998	38809
größere	38808
Hautausschlag	38787
Bro@@	38769
RE@@	38725
statt	38718
form	38714
Bedienen	38701
älteren	38692
eingeschränkter	38691
Werte	38681
s.@@	38663
Mus@@	38609
24@@	38595
gefunden	38573
Region	38549
App@@	38542
eter	38542
ken@@	38534
Zellen	38517
Ä@@	38512
reich@@	38510
tlich	38498
-P@@	38491
internationalen	38485
gemacht	38480
Niereninsuffizienz	38468
Problem	38461
10.000	38460
66	38419
weit	38403
Dar@@	38324
kti@@	38216
sieren	38208
VON	38175
eller	38171
Bedingungen	38170
verfügbar	38154
ze@@	38110
aufgenommen	38089
Schluss	38080
nationalen	38024
gleichzeitiger	37993
on-@@	37979
tl@@	37976
fahren	37974
sion@@	37941
Krankheit	37908
73	37895
tel@@	37867
Tri@@	37855
Lo@@	37845
Einsatz	37819
q@@	37810
liches	37769
besser	37765
let@@	37755
bil@@	37715
bt	37695
agen	37692
Reihe	37674
raum	37654
Sei@@	37586
ative	37572
teten	37568
5.1	37509
Service	37489
Kr@@	37457
New	37421
23@@	37392
At@@	37388
Geh@@	37322
45@@	37316
Steu@@	37313
solche	37273
Tex@@	37244
kli@@	37234
S.	37229
ausreichend	37193
gilt	37160
Fü@@	37152
Ban@@	37147
Gesamt@@	37120
teil	37106
äd@@	37102
Hunden	37056
Rolle	37029
baren	37016
Monotherapie	37015
tigung	37012
Parlament	37000
traten	36992
bestimmten	36971
Tre@@	36969
Veran@@	36939
sel	36930
rn	36929
Kl@@	36903
verschiedene	36899
wäre	36895
halt	36887
zei@@	36872
wirksam	36849
Mittel@@	36832
Bet@@	36783
erh@@	36775
fan@@	36747
Pr@@	36744
uni@@	36740
isten	36732
mini@@	36654
gute	36644
bau@@	36639
gend	36632
mb@@	36611
bleiben	36601
All@@	36587
verursachen	36541
sam@@	36534
Analyse	36525
Leberfunktion	36510
hohe	36489
Über	36471
beginnen	36466
net@@	36451
Sol@@	36451
eti@@	36429
bel	36418
ER@@	36416
sechs	36412
Fehl@@	36411
Bil@@	36404
lit@@	36396
Bayer	36394
Gu@@	36394
Fran@@	36385
Mal	36384
ausgeschieden	36369
003	36350
Stra@@	36332
frei	36289
Durchfall	36272
fünf	36215
empfohlenen	36214
gebo@@	36195
Köni@@	36194
wert	36192
Konzentrationen	36176
di	36125
Schul@@	36104
Wert	36087
Belgien	36060
öff@@	36058
UMHÜLLUNG	36049
bau	36044
Arztes	36023
Ni@@	36001
esen	35994
AT@@	35971
Thema	35971
Mehr	35966
62	35961
Ne@@	35946
del@@	35938
befinden	35851
sag@@	35843
Medi@@	35841
anzu@@	35838
Immobili@@	35838
tliche	35814
ät@@	35699
Entscheidung	35692
erfolgt	35680
weisen	35665
Stunde	35605
beschrieben	35587
Besu@@	35574
Urin	35569
gern	35564
Einheiten	35499
kun@@	35493
Schutz	35458
Arch@@	35453
Blister	35393
Datum	35388
tic@@	35330
entnehmen	35300
Hypertonie	35285
Fe@@	35285
Kan@@	35271
Zentrum	35265
sogar	35256
außerdem	35237
rant	35203
deshalb	35197
gkeit	35108
B-@@	35108
lungen	35090
68	35088
Chemotherapie	35081
S-@@	35075
Platz	35074
enz@@	35051
ales	35050
Ben@@	35048
Blut@@	35023
etz@@	35017
EN@@	35007
esti@@	35005
Spanien	34979
Fi@@	34976
Humalog	34964
Alu	34953
Hau@@	34941
Lebens@@	34912
est	34902
Sicherheits@@	34900
unabhängig	34895
here	34878
93	34874
Inzidenz	34823
Zwei@@	34820
Müdigkeit	34819
amp@@	34818
tex@@	34786
tal	34785
Liste	34783
7-@@	34782
allergische	34763
±	34736
rin@@	34723
Herz@@	34722
ierten	34709
aub@@	34707
ss@@	34653
Fähigkeit	34624
fra@@	34620
Metformin	34597
weg	34596
tiert	34587
Dis@@	34580
Gra@@	34566
ben@@	34563
wür@@	34560
La	34545
ckt	34515
ging	34497
tan@@	34494
Blutkörperchen	34460
82	34433
Mor@@	34419
Richtlinie	34403
sub@@	34393
omi@@	34382
bei@@	34377
Chin@@	34359
Allgemeinen	34352
004	34347
8.@@	34308
69	34299
lesen	34286
Sal@@	34284
AN	34269
fort	34259
neu	34254
spielen	34243
stan@@	34236
AR@@	34230
3.	34229
ähnlich	34218
®	34205
reduziert	34179
spro@@	34178
Regel	34158
Hand	34147
able	34137
hauptsächlich	34122
richten	34101
-M@@	34086
nichts	34077
neu@@	34056
ose	34038
Störungen	34025
9.@@	34010
chte	33960
Welt@@	33956
Häufig	33956
zin@@	33945
86	33943
teilen	33933
ätz@@	33933
star@@	33927
kin@@	33909
Eigenschaften	33891
erten	33877
beachten	33844
lässt	33816
daten	33810
ef	33809
econ@@	33800
gungen	33799
Mahlzeit	33791
geboten	33789
tigkeit	33777
ÄUSSEREN	33751
Faktor	33736
berg	33702
eite	33684
hergestellt	33677
Österreich	33674
E-@@	33673
ige	33655
ans	33643
Änderungen	33619
Augen@@	33617
France	33614
Königreich	33614
zusätzlich	33557
helfen	33555
ide@@	33551
71	33484
Unter	33467
daran	33451
our@@	33445
77	33432
AL@@	33419
Gei@@	33413
mittlere	33406
wirklich	33400
Comp@@	33396
ül@@	33395
ologie	33380
aussieht	33378
ki@@	33280
gesamte	33266
ote	33255
gleich@@	33245
83	33210
kre@@	33209
Luft@@	33174
Mini@@	33170
angegebenen	33134
später	33130
info	33097
wer	33037
t.@@	33032
legen	33022
utz@@	33019
burg	33005
zusätzliche	32983
griffe	32977
werte	32972
bekommen	32965
81	32964
zer	32962
z.	32942
oralen	32877
pr@@	32861
Koll@@	32861
ismus	32850
enn@@	32849
arbeitet	32829
inn@@	32803
Char@@	32778
weder	32764
Aktivitäten	32761
mischen	32747
Farb@@	32744
üt@@	32726
San	32707
findet	32667
Stand@@	32648
autom@@	32640
Gelegentlich	32624
regi@@	32615
Doppel@@	32603
Eigen@@	32596
Fach@@	32591
sionen	32581
Substanzen	32567
Wirt@@	32561
AN@@	32543
.c@@	32536
Ciprofloxacin	32520
Ste@@	32515
Olanzapin	32473
druck@@	32456
Rechts@@	32452
Ka@@	32444
Germany	32432
í@@	32421
anzuwenden	32415
uter	32390
gehören	32390
8-@@	32385
79	32384
san@@	32378
dex@@	32374
vollständigen	32366
gerade	32348
International	32314
deutlich	32307
Efavirenz	32292
schen@@	32265
Clearance	32245
Plasma	32237
Ziel@@	32236
Darüber	32228
king	32212
tur	32192
verk@@	32191
Schl@@	32158
lungs@@	32140
fort@@	32138
Liprolog	32132
folgt	32121
länger	32117
Injektionssuspension	32105
Sh@@	32098
Som@@	32077
weise	32072
bisher	32046
lik@@	32045
voll	32039
Gemein@@	32008
Fu@@	31982
Hersteller	31961
nimmt	31944
konnten	31934
od	31928
seltenen	31923
chung	31919
Dosierungen	31906
bleibt	31894
ungsp@@	31890
1997	31890
New@@	31837
schl@@	31821
63	31802
abge@@	31801
Mitarbeiter	31782
dien	31781
C-@@	31772
tritt	31762
tigt	31761
Verkehrstüchtigkeit	31755
benötigen	31745
ty	31730
altung	31728
aktiven	31711
top@@	31709
span@@	31704
wirt@@	31699
Neutropenie	31699
SIE	31689
amb@@	31687
na	31684
Nr.	31664
ktion	31647
Europ@@	31646
ktionen	31644
mögliche	31614
Kre@@	31607
ant	31599
ters	31599
Leu@@	31594
ed@@	31591
erwartet	31565
EP@@	31560
Ph@@	31536
Tieren	31530
ca@@	31526
ra	31522
ähr@@	31516
fache	31462
Besch@@	31439
Plasmakonzentrationen	31415
sozi@@	31411
lie@@	31393
Anteil	31386
Zukunft	31378
regelmäßig	31358
Gl@@	31344
d.	31319
urg	31284
0,9	31281
lich@@	31278
Sy@@	31251
klar	31232
An	31227
jedes	31191
Licht	31172
wit@@	31153
mann	31150
Bestandteil	31120
Stu@@	31119
ll@@	31112
genannten	31093
Muttermilch	31088
,@@	31079
Gewicht	31078
weiter@@	31053
Lamivudin	31037
Ide@@	31030
3,@@	31013
The@@	30983
mittels	30970
Fel@@	30970
va	30970
Bilder	30948
zweite	30939
bezüglich	30924
78	30923
Anti@@	30899
viel@@	30888
og	30881
Untersuchung	30867
Unterneh@@	30849
Haut@@	30848
wenden	30841
Pre@@	30810
-W@@	30771
Abnahme	30753
UN@@	30731
ermöglicht	30708
Dr.	30700
geh@@	30697
orale	30694
Entzündung	30690
180	30687
p-@@	30656
sor@@	30651
ktions@@	30648
Wi@@	30627
inen	30627
re	30591
mis@@	30586
Energie@@	30581
Markt	30579
gelegentlich	30566
genommen	30551
Beurteilung	30531
stellungen	30518
San@@	30506
sches	30472
wählen	30470
land@@	30469
dien@@	30466
Metaboliten	30462
Limited	30445
lose	30438
stillen	30427
begonnen	30411
Grad	30407
Staaten	30405
Absetzen	30405
Familie	30367
Sc@@	30361
wenig	30342
Europe	30325
ia	30325
Park@@	30323
einzunehmen	30322
unterstützt	30321
beispielsweise	30316
ktor	30314
160	30288
solchen	30287
behandlung	30286
CVMP	30280
pharmakokinetischen	30267
29@@	30261
num@@	30255
Basis	30248
MINDESTANGABEN	30246
isches	30229
Veränderung	30215
Verringerung	30211
zuvor	30165
Länder	30118
trat	30113
Ha@@	30084
hervor@@	30081
geeignet	30078
stern	30075
Folge	30070
-A@@	30061
recht	30052
bac@@	30042
Andere	30013
natürlich	29997
fest@@	29987
bedingungen	29975
eli@@	29964
Bri@@	29949
aren	29940
ganzen	29933
gele@@	29926
Behörden	29920
gende	29910
ise	29900
Ak@@	29899
empfahl	29894
Projekt	29869
IS@@	29862
sei@@	29839
Größe	29823
Pan@@	29815
vergleichbar	29811
verfügt	29801
träge	29774
gelangte	29735
tungs@@	29728
danach	29723
ath@@	29722
13.	29718
unterstützen	29716
leb@@	29707
Hypotonie	29703
Sozi@@	29703
Mod@@	29696
tre@@	29667
Zugang	29622
Stelle	29598
comp@@	29570
·	29567
4.	29559
Anforderungen	29511
innen	29478
kontraindiziert	29470
oti@@	29464
Ergebnis	29456
6.@@	29449
Sin@@	29446
öl@@	29433
Bel@@	29431
ments	29418
Hunde	29418
Gruppen	29414
ganze	29386
Einige	29378
ks@@	29368
Bewertung	29364
Teva	29364
ität	29359
erwachsenen	29340
miss@@	29338
Druck@@	29326
verringert	29276
bli@@	29255
Humanarzneimittel	29248
unverzüglich	29240
Hinblick	29236
Tierarzneimittel	29234
öffentlichen	29226
frei@@	29223
punkt	29202
setzt	29197
Pu@@	29191
Tr@@	29186
lat@@	29172
versch@@	29149
Hydrochlorothiazid	29143
rasse	29131
un	29105
08.@@	29096
unerwünschten	29092
mittel	29073
005	29045
zep@@	29041
win@@	29029
oraler	29004
Y	28988
dl	28977
te-@@	28962
Richtung	28958
7.@@	28926
Lösungen	28900
Angaben	28892
92	28885
teil@@	28883
tiv@@	28854
Ra@@	28844
Herzinsuffizienz	28826
erkennen	28814
kosten	28813
Höhe	28800
Überempfindlichkeit	28789
injiziert	28782
tä@@	28771
fes@@	28760
Ansicht	28747
Produktion	28741
Einzeldosis	28732
Gro@@	28727
ting	28724
rate	28700
auszu@@	28694
Man	28693
las	28669
tät	28658
dir	28645
11-@@	28639
dri@@	28629
maximale	28627
zw@@	28626
kar@@	28624
sit@@	28616
ander@@	28582
Bad	28573
zentrum	28573
Finanz@@	28572
hen	28566
uch	28559
Wortlaut	28547
techni@@	28537
ös@@	28495
bereit	28489
Patronen	28488
id	28487
Änderung	28476
niedriger	28465
Nacht	28459
sonstige	28432
Nur	28428
Wirkstoffe	28425
Kosten	28412
007	28389
Informieren	28386
Dienstleistungen	28374
leichter	28369
kur@@	28367
Patrone	28367
Umgebung	28337
Juckreiz	28334
va@@	28313
Human	28303
OR@@	28291
ys	28255
WIRD	28243
che@@	28239
schwer@@	28231
oral	28218
008	28213
Aluminium	28191
Früh@@	28185
ebenso	28176
sicht	28163
fun@@	28153
ons	28151
entsprechenden	28148
days	28147
nte	28142
Dabei	28121
nutzen	28120
ese	28084
DE	28081
post@@	28073
höhere	28068
nie	28065
ind@@	28057
Unterschiede	28031
ahl@@	28016
erhöhtes	28007
erteilen	27992
alter	27956
87	27941
VOR	27923
wofür	27901
ette	27893
wahrscheinlich	27888
nahmen	27855
ance	27852
enzen	27851
Natur	27848
Wofür	27839
Schw@@	27839
0,3	27811
Schwellung	27783
ve@@	27762
ang	27761
ta	27739
weiße	27727
häufiger	27725
dor@@	27717
1999	27695
überwiegen	27680
dadurch	27679
Packungen	27678
vers@@	27677
jeweiligen	27623
Umwelt@@	27605
Aufnahme	27598
entsprechende	27595
griff	27594
nahm	27590
bre@@	27583
AUFZUBEWAHREN	27574
7,5	27527
spor@@	27525
Betracht	27516
006	27515
12,5	27514
ets	27510
fel@@	27496
0,1	27463
Gebiet	27455
enti@@	27447
04@@	27429
Effekt	27428
London	27413
kontrollierten	27398
Behandlungs@@	27382
hoch	27367
Portugal	27339
h.	27326
ses	27310
Verb@@	27266
ativen	27253
ANGEWENDET	27240
5,@@	27238
folgen	27219
Mal@@	27208
Schritt	27205
Beschwerden	27179
Sonnen@@	27168
Har@@	27167
welches	27149
Ltd	27145
yl@@	27140
steu@@	27138
TI@@	27103
weltweit	27086
grün@@	27081
zeige	27078
vorhanden	27078
mens	27074
nten	27070
mmol	27065
Universität	27062
vier@@	27053
SP@@	27042
WOFÜR	27041
Park	27031
arten	27022
MÜSSEN	27013
gem@@	27010
oberen	27001
Seit	26994
rach	26990
Falle	26971
go	26957
nachdem	26955
Funktion	26942
nicht-@@	26935
ernen	26918
enh@@	26918
26@@	26915
02@@	26903
ini@@	26887
Arthritis	26880
1,0	26873
jahr	26872
Met@@	26862
Beschreibung	26856
ln	26825
Wirtschafts@@	26820
use	26803
führung	26800
nen@@	26797
BEACHTEN	26791
ER	26782
E-Mail	26770
dlich	26765
ff	26759
stall@@	26752
schi@@	26743
wirksame	26738
alog	26738
Auswahl	26731
mus@@	26726
nes	26725
AS@@	26717
sicher@@	26709
schließen	26689
bes@@	26688
za	26684
tiges	26683
de-@@	26652
mat@@	26643
T-@@	26638
neben	26635
ligen	26631
normalerweise	26625
ins@@	26617
Imp@@	26601
bestehen	26577
Karte	26576
Vorsichtsmaßnahmen	26545
möglichen	26530
ding	26529
gungs@@	26517
atische	26513
Injektionsnadel	26511
angeb@@	26509
S.A.	26508
Mikro@@	26492
reis@@	26483
derzeit	26479
auer	26475
Zulassung	26470
itali@@	26466
ana	26438
Kinder@@	26368
HER@@	26366
fachen	26357
Flüssigkeit	26352
Docetaxel	26351
Durch@@	26333
no	26329
intravenöse	26326
unmittelbar	26319
Natur@@	26274
schw@@	26246
best@@	26225
Ster@@	26183
hält	26181
Umkarton	26169
zier@@	26151
Kin@@	26142
tig@@	26132
trans@@	26131
Fertigspritzen	26113
beide	26108
Katzen	26103
Pos@@	26088
aufge@@	26085
100@@	26071
22@@	26059
höheren	26042
PD@@	26042
anz	26011
einzi@@	26008
Design	26006
Rekonstitution	25997
é	25995
Webseite	25986
0-@@	25969
Wachstum	25945
Lux@@	25933
Tod	25921
beeinflusst	25879
außer	25867
herr@@	25850
gruppe	25843
schutz@@	25841
signifikante	25828
ils	25817
stand@@	25802
schutz	25801
01.@@	25793
BE@@	25773
Zustand	25763
125	25752
genannt	25726
—	25713
licht	25691
Anfangsdosis	25688
Schweiz	25686
bemerken	25685
Anfang	25666
signifikanten	25639
line-@@	25637
wichtige	25629
tem@@	25604
enn	25602
atischen	25592
UK	25588
Innen@@	25559
Produkt@@	25543
Senkung	25536
erlaubt	25534
Trans@@	25515
Min@@	25513
nungs@@	25510
4,@@	25505
eingeleitet	25497
ear@@	25496
030	25495
darin	25492
pre@@	25491
DE@@	25489
satz	25480
ore	25447
volle	25442
Zeichen	25442
würden	25427
gemeinsam	25422
Nut@@	25421
Pe@@	25411
15-@@	25410
testen	25400
Hal@@	25397
Proje@@	25395
beeinflussen	25386
muß	25378
stet	25375
werk	25373
mil@@	25360
erneut	25359
nete	25344
vitro	25327
ms	25321
mat	25319
hol@@	25317
Jahres	25316
‘	25316
integr@@	25308
Wien	25305
CO@@	25291
olu@@	25288
wichtigsten	25283
United	25266
que	25252
ox@@	25224
por@@	25220
äude	25217
EPAR	25198
mod@@	25189
Techn@@	25175
Des@@	25162
Tages@@	25152
ßt	25151
US	25144
fü@@	25143
Kreatinin-Clearance	25140
Reduktion	25133
allerdings	25103
010	25090
genden	25080
zn	25075
ug	25071
Auß@@	25070
verhindern	25069
seltene	25055
Dor@@	25055
wissenschaftlichen	25041
Ven@@	24994
Unterschied	24983
Paris	24981
mäßig	24965
ank@@	24949
ww@@	24948
definiert	24939
Anerkennung	24933
achten	24920
Pl@@	24918
≤	24909
pa@@	24907
Fil@@	24907
Tur@@	24905
1996	24900
Studi@@	24893
bung	24870
Amer@@	24870
cyc@@	24846
zunächst	24816
sierte	24814
tage	24812
igen	24809
Wil@@	24794
Auge	24791
Dann	24783
asi@@	24770
feld	24754
Umsetzung	24742
kurz	24740
ausgeschlossen	24731
geführt	24718
90@@	24710
F-@@	24705
Obwohl	24691
scheint	24690
reisen	24662
-Gruppe	24658
op	24657
Operation	24647
weißen	24635
Ebene	24616
orti@@	24614
somit	24599
epti@@	24594
ändern	24592
ON@@	24563
Welchen	24561
sucht	24560
94	24549
intravenös	24541
Tiere	24537
Bra@@	24509
Klasse	24485
il	24480
pen	24479
fall	24452
dur@@	24449
asti@@	24432
Raum	24425
up	24394
bildung	24387
eg	24386
car@@	24383
schul@@	24332
Loc@@	24313
CYP3A4	24294
plus	24294
ces	24282
Kunst@@	24282
ret@@	24277
gemessen	24275
IN	24275
Bild@@	24268
dition@@	24262
angepasst	24262
Resorption	24247
Systems	24247
Sprache	24243
mal@@	24242
egen	24239
erteilte	24228
zentr@@	24227
hl@@	24225
sagt	24221
Prin@@	24220
Herzen	24219
treffen	24219
decken	24209
welt@@	24200
zeichnet	24194
¤	24180
stoffe	24163
Leber@@	24152
Möglichkeiten	24152
verfahren	24149
20.	24142
Situation	24132
Spiegel	24104
wis@@	24102
met@@	24097
ant@@	24097
Pra@@	24092
Auflistung	24090
Nebenwirkung	24078
Industri@@	24073
glob@@	24059
tro@@	24055
Notwendigkeit	24053
Information	24031
Zusammen@@	24023
betr@@	24008
empfehlen	24003
akuten	23999
gene	23989
P-@@	23979
neuer	23975
ust	23965
LI@@	23962
alli@@	23951
hoher	23949
Mitglieder	23946
besondere	23944
medi@@	23940
Can@@	23933
aufgeführt	23931
Rates	23915
Kal@@	23901
Bioverfügbarkeit	23896
Z	23886
spiegel	23882
ße	23873
Gesundheit	23871
Unbedenklichkeit	23868
Depression	23866
Welche	23857
verfügbaren	23857
Camp@@	23846
Welches	23829
bri@@	23819
↓	23806
Gemeinschaft	23798
Eisen	23783
Jun@@	23779
gesehen	23771
ats	23770
Partner	23770
Bereichen	23768
Mehr@@	23756
Lilly	23755
onal	23734
nam@@	23725
zahlen	23721
rä@@	23706
atisch	23688
zug	23686
freien	23685
Syndrom	23681
fach	23668
langsam	23664
Wissenschaf@@	23655
44-20	23650
fach@@	23644
ain	23634
Jugendliche	23632
tägliche	23631
fen@@	23623
Insuman	23622
mei@@	23621
org	23612
Yor@@	23606
dis@@	23606
AP@@	23596
ANWENDUNG	23579
ory	23576
ig@@	23574
Stellen	23520
eher	23509
mt	23485
schwer	23461
fühlen	23459
nächste	23453
can	23438
kontrolliert	23438
brauchen	23436
Antwort	23426
schwerwiegende	23424
IT@@	23416
hä@@	23413
setzung	23405
entscheiden	23400
gesagt	23387
ungs-	23387
Verhältnis	23382
Kor@@	23377
Vereinigtes	23369
atin@@	23362
wir@@	23359
enter	23356
vo@@	23352
abzu@@	23331
Effekte	23328
ktion@@	23303
Zer@@	23296
cien@@	23281
Tu@@	23257
assen	23256
Fest@@	23248
studie	23247
Voll@@	23244
einzu@@	23243
Mio.	23236
reg@@	23224
eten	23214
rit@@	23206
sierten	23204
d.@@	23184
Nutzung	23183
0,6	23182
phot@@	23163
kor@@	23146
Deta@@	23143
dient	23138
Wahl	23132
Sach@@	23130
Wun@@	23130
Test	23121
wand@@	23085
aria	23085
dete	23079
mehreren	23070
HIV	23063
chronischer	23061
15.	23048
Beitrag	23046
Entwicklungs@@	23040
32@@	23035
Körper@@	23034
sy@@	23017
Beratung	22997
schützen	22987
kal@@	22977
Tél	22953
Arten	22949
Nieren	22933
Siehe	22925
mittel@@	22919
Retardtabletten	22912
neten	22906
ors	22894
trei@@	22877
Husten	22873
dreimal	22868
Mann	22863
Verschlechterung	22857
en-	22852
stre@@	22843
Markteinführung	22838
Selbst@@	22833
j	22827
al-@@	22825
stru@@	22797
Nahrung	22795
Schläfrigkeit	22793
Symptomen	22791
ären	22773
PVDC	22768
Text	22765
Virus	22760
relevanten	22760
Umständen	22753
vorliegen	22753
AB@@	22745
zö@@	22735
Arbeitsgruppe	22733
Punkte	22728
Zentr@@	22725
eingestellt	22720
Ev@@	22720
Team	22720
Bauchschmerzen	22715
begr@@	22710
gän@@	22703
60@@	22700
anderes	22696
komp@@	22693
Inno@@	22693
Ober@@	22692
eigene	22683
esi@@	22675
stin@@	22660
Management	22642
Instrum@@	22641
Fläche	22638
get	22630
Insulin@@	22611
unterschiedlichen	22609
Hemmung	22606
Comb	22595
ziert	22594
mark@@	22585
fran@@	22583
Mund	22581
Industrie	22574
raten	22560
Leberfunktionsstörung	22559
Zubereitung	22545
Prozent	22545
bilden	22541
Dosis@@	22541
ties	22531
SS@@	22529
abe@@	22525
Empfehlungen	22518
44@@	22516
AD@@	22515
5.	22514
ück	22512
110	22512
DIE	22496
Verlängerung	22487
Zunahme	22482
As@@	22479
subkutan	22474
Damit	22474
los@@	22474
legt	22470
abgesetzt	22465
kat@@	22459
fol@@	22451
Hinweis	22449
Hin@@	22430
internationale	22429
sieht	22409
DL@@	22407
ace	22402
wirksamen	22401
Energie	22392
Viel@@	22376
hil@@	22363
48@@	22357
End@@	22343
.000	22334
d.h.	22328
oi@@	22320
Forschung	22318
stat@@	22308
zü@@	22294
Groß@@	22272
Bezeichnungen	22268
Indikation	22259
05@@	22229
tions@@	22208
endes	22207
maximal	22183
A.	22170
kultur@@	22170
wohl	22159
ile	22157
produ@@	22146
gn@@	22128
Markt@@	22123
angegeben	22122
AC@@	22092
ats@@	22086
Parameter	22073
bew@@	22072
05.@@	22069
amm@@	22066
richtig	22066
schnit@@	22058
MP@@	22054
0,0@@	22025
tiger	22020
0,4	22015
ame	22015
Komp@@	22013
Kombinationstherapie	22004
Chan@@	22002
Beim	21990
ade	21979
....@@	21950
Verfalldatum	21947
klinischer	21943
ogen	21943
Tagesdosis	21937
ausgestattet	21926
ss	21921
menschlichen	21911
wle@@	21908
äs@@	21904
Cas@@	21904
Phantasiebezeichnung	21899
Al	21896
Interesse	21886
Val@@	21884
systemische	21871
nahe	21869
Anweisung	21865
sicherzustellen	21863
Plazebo	21858
Zell@@	21851
Bü@@	21833
Gal@@	21832
ücke	21832
Informations@@	21831
Mahlzeiten	21829
spielt	21820
vorgesehen	21818
kam@@	21812
I-@@	21805
Blisterpackungen	21804
Bundes@@	21799
ä	21792
Frühstück	21785
klare	21777
Konzentrat	21775
Injektionen	21775
39@@	21760
geeignete	21747
abhängig	21744
Din@@	21719
oten	21718
Gri@@	21710
sta	21707
therapeutischen	21681
verringern	21674
vollen	21668
Anfrage	21664
67@@	21621
gsten	21619
Je@@	21619
gra@@	21611
schluss	21609
8.	21603
ähnliche	21583
Span@@	21568
enan@@	21566
Mutter	21565
mellitus	21554
Col@@	21553
veran@@	21548
peri@@	21542
Ist	21528
fortgesetzt	21528
wieder@@	21526
Epoetin	21526
Tel@@	21519
aufzu@@	21509
Republik	21497
tive	21496
eim	21494
zeiten	21484
Vorschlag	21473
Arzneimittel@@	21464
Gast@@	21463
starke	21459
genen	21438
Ltd.	21429
Schwierigkeiten	21429
Männern	21428
stei@@	21427
MIT	21427
Thrombozytopenie	21421
intravenösen	21399
Adr@@	21395
Montag	21394
leichte	21393
Pfizer	21351
Vertreter	21346
Standard@@	21340
metabolisiert	21335
auen	21333
wenige	21310
studien	21302
hau@@	21294
Pres@@	21273
Ausgangswert	21265
gl	21265
besonderen	21255
seines	21243
ruhi@@	21225
darunter	21216
bezeichnet	21214
fläche	21206
mische	21205
Sub@@	21191
iss@@	21189
ona@@	21185
MA@@	21179
Gesam@@	21179
Insgesamt	21171
ach	21168
barkeit	21160
verantwortlich	21159
012	21156
AB	21150
fähigkeit	21143
tier@@	21137
anhand	21132
qui@@	21125
organi@@	21125
Ku@@	21109
Filgrastim	21107
europäische	21099
Erfolg	21087
seln	21085
chs@@	21073
Glas@@	21064
-Dosis	21059
gien	21048
Indi@@	21040
vir@@	21034
bekannten	21034
bah@@	21032
Hel@@	21030
Fen@@	21011
Han@@	21006
Injektor	20995
wöchentlich	20994
Seh@@	20994
Bedarf	20988
ständi@@	20987
zusätzlichen	20983
vielleicht	20982
Verlauf	20979
hör@@	20979
imp@@	20953
Position	20947
erst@@	20942
gruppen	20934
Prüfung	20925
erfahren	20914
Ren@@	20914
denken	20906
KG	20905
o.@@	20903
gleiche	20903
ml@@	20890
Farbe	20875
heiten	20869
stoff@@	20859
Männer	20855
auftritt	20854
Substanz	20844
aktuellen	20837
heraus@@	20834
Titel	20833
groß@@	20821
lieb@@	20820
ni	20819
hr	20818
7.	20807
flu@@	20806
ami@@	20799
paar	20797
Indinavir	20783
Mass@@	20774
E-mail	20767
statistisch	20761
Jeder	20739
richt	20731
sozialen	20720
verw@@	20715
Beendigung	20710
ausschließlich	20697
Net@@	20682
Folgende	20680
uss	20680
hän@@	20679
Uni@@	20668
ani@@	20637
16.	20636
begrenzt	20631
Form@@	20630
kap@@	20627
009	20623
Betr@@	20619
Anweisungen	20619
spezifische	20618
Bor@@	20610
Projekte	20609
dauer	20605
affe@@	20602
glich	20600
systeme	20599
5.3	20584
Merck	20583
Bio@@	20578
geboren	20578
03@@	20576
offenen	20571
Praxis	20568
s-	20563
Integr@@	20562
übliche	20550
etw@@	20542
IC@@	20538
Beru@@	20537
überwachen	20530
Themen	20527
Sar@@	20526
uten	20519
ihres	20515
chronischen	20503
Post@@	20497
368	20494
Gegen@@	20491
Lansoprazol	20490
Mag@@	20487
dro@@	20485
medizinische	20471
Natriumchlorid	20465
ard@@	20462
erweiter@@	20460
L-@@	20441
elles	20441
à	20440
vorsichtig	20440
verbessern	20438
ODER	20431
ieb	20425
zehn	20420
oft@@	20418
rich@@	20397
hö@@	20390
mittleren	20385
9,@@	20370
Kopien	20370
langen	20364
Mitte	20353
spezifischen	20350
dritten	20341
the@@	20332
gebiet	20319
niedrigen	20317
Benutz@@	20313
My@@	20289
wirken	20281
stes	20279
formen	20277
CI	20262
arbei@@	20261
blick	20254
nor@@	20247
Nierenfunktionsstörung	20222
Ton@@	20214
richtige	20211
son@@	20209
schafts@@	20203
Kaninchen	20202
betrifft	20192
wahr@@	20191
Wieder@@	20189
109	20188
hist@@	20180
Anpassung	20178
013	20163
Ca@@	20160
kün@@	20153
ke@@	20147
iger	20140
gkeiten	20140
Levodopa	20132
22.	20130
olle	20127
Alkohol	20123
Hypoglykämie	20115
frage	20106
Letz@@	20101
Linie	20098
nei@@	20092
Titandioxid	20092
can@@	20077
ator	20075
besitzt	20068
osi@@	20060
Verkehr@@	20041
tsp@@	20037
Durchführung	20031
stellte	20027
ns@@	20018
75@@	20016
Material	19997
Ü@@	19991
-S@@	19990
störungen	19979
zell@@	19975
17.	19969
Inf@@	19968
Clopidogrel	19964
wider@@	19962
Road	19961
Co.	19960
Ziele	19958
drücken	19949
bestätigt	19948
lagern	19947
anders	19943
ren	19942
Test@@	19928
besch@@	19925
Behandlungsdauer	19924
heißt	19922
Che@@	19922
zahl@@	19921
Länge	19916
Kons@@	19900
wär@@	19888
wel@@	19887
Neben	19879
kts	19878
CD@@	19877
ener	19874
offen	19866
ig	19864
Immun@@	19861
Bereiche	19859
gens	19829
Wahr@@	19818
Auto	19815
stoff	19815
Film	19814
hätte	19809
Vene	19807
Plan@@	19798
eit	19794
ker@@	19783
BMS	19779
Erd@@	19769
Nieder@@	19769
24.	19767
Niederlande	19765
Lebererkrankung	19763
app@@	19749
Pers@@	19742
Mitglied	19723
unerwünschte	19723
Wis@@	19717
öffnen	19717
cre@@	19715
ober	19702
neues	19695
hop	19689
Blutung	19687
6,@@	19686
richtet	19683
amerikan@@	19683
normalen	19681
begrenzte	19681
Ei@@	19677
49@@	19663
pt@@	19657
eich@@	19652
TE	19650
speziell	19640
berücksichtigt	19631
99@@	19630
beginnt	19624
MI@@	19621
guten	19605
Schwere	19601
Haus@@	19601
ea	19590
ht	19589
↑	19589
Stand	19587
Urtikaria	19587
US@@	19580
beeinträchtigt	19571
Enbrel	19559
bestehenden	19547
ak	19541
AS	19534
Ó@@	19534
É	19532
ände	19523
scht	19498
dosis	19494
Zidovudin	19491
Mess@@	19490
ON	19487
Opti@@	19486
25.	19460
täten	19452
gram@@	19443
Verf@@	19441
wirksamer	19436
Berichte	19434
Verkehr	19427
vorgelegt	19423
heraus	19418
ption	19409
eigen@@	19403
Arbeiten	19392
Teile	19389
Studien@@	19385
sprache	19384
fand	19382
Verordnung	19381
anderem	19381
Pen@@	19372
Ab	19372
roten	19369
Straße	19368
Herz	19363
wirk@@	19351
Abbildung	19347
artige	19337
tan	19331
zählen	19322
Luft	19321
randomisierten	19319
ns	19318
g.@@	19314
sto@@	19313
drei@@	19312
funktion@@	19299
hemmt	19292
obwohl	19288
Kö@@	19288
geringe	19288
80@@	19275
18.	19262
vel	19253
at-@@	19253
gesetzt	19252
Antragsteller	19251
DES	19245
ute	19244
plan@@	19242
0,2	19238
fällt	19237
Kult@@	19235
bringt	19235
teilung	19225
erhöhter	19222
rechts	19207
011	19203
Faltschachtel	19199
affen	19188
aktive	19172
bedienen	19168
leu@@	19151
65@@	19150
erin	19142
äumen	19140
int	19128
ling	19097
ald	19092
Lesen	19079
MB	19077
teri@@	19066
09@@	19053
gefolgt	19046
Leben@@	19042
Einführung	19034
Bur@@	19021
Rom@@	19020
AG@@	19020
GM@@	19016
sph@@	19009
Meter	19008
Ausschlag	19007
33@@	19000
KLEINEN	18998
Anträge	18993
gemeinsame	18978
eben@@	18976
Meinung	18974
test	18965
0,8	18962
Förderung	18950
sions@@	18949
cs	18948
aufbewahren	18944
spricht	18939
ow@@	18938
Ar	18937
Gefühl	18931
zon@@	18926
Rot@@	18926
lige	18924
Verfügbarkeit	18923
bur@@	18914
●	18907
gewährleisten	18903
gar	18896
itte	18884
SA	18879
barer	18864
freie	18862
gre@@	18862
smus	18859
Hyper@@	18856
55@@	18853
hören	18846
Punkt	18841
Dec@@	18840
entfernen	18827
Technologie	18824
Regel@@	18821
EI@@	18805
arbeit	18804
beh@@	18803
nämlich	18793
systemischen	18793
grund@@	18789
Selten	18788
Kategorie	18787
versuchen	18785
Kraft	18778
Methotrexat	18777
Leberfunktionsstörungen	18767
gelegt	18766
Aufgaben	18762
trä@@	18754
opti@@	18752
Fo@@	18751
cen@@	18749
zept	18738
München	18737
Hälfte	18728
gaben	18728
Sil@@	18724
meinen	18721
üb@@	18721
verfügen	18718
großer	18714
Griechenland	18713
Frankfurt	18709
Aufgabe	18707
Gefahr	18703
Betriebs@@	18699
erl@@	18691
RI@@	18690
xi@@	18684
gemischt	18661
reduzieren	18660
aut@@	18645
möglichkeiten	18640
teile	18639
sobald	18636
erv@@	18632
	18631
Verkauf	18630
schla@@	18624
verordnet	18611
kurzem	18605
arb@@	18603
anten	18600
Plasmakonzentration	18593
derung	18587
Pf@@	18583
nis@@	18578
Nahrungsmitteln	18568
76@@	18560
ga	18554
weist	18552
21.	18550
verabreichen	18546
glau@@	18533
Stärke	18529
40@@	18516
Abschluss	18516
fallen	18513
Cor@@	18509
Personal	18508
Kapsel	18508
ty@@	18505
belieb@@	18500
jungen	18496
ermöglichen	18474
ember	18472
Mei@@	18463
vermieden	18460
wand	18460
EL@@	18448
Verlust	18445
Gebrauchsinformation	18434
Protein	18434
Prüf@@	18422
04.@@	18422
Gesundheits@@	18417
el-@@	18410
wen@@	18406
hinter	18399
anschließend	18397
Verwenden	18390
Überempfindlichkeitsreaktionen	18386
OS	18384
46@@	18383
hängt	18378
lokalen	18375
Ori@@	18374
fs@@	18353
Leitlinien	18352
zierung	18350
wes@@	18325
Sekunden	18322
betrachtet	18320
Pap@@	18314
ular	18313
Wichtige	18312
Termin@@	18299
angenommen	18290
Heu@@	18287
alte	18282
mern	18270
Funktionen	18266
Barcelona	18264
14.	18263
Ú@@	18247
haltigen	18245
15.@@	18242
aufweisen	18238
werten	18233
eit@@	18232
Projekt@@	18226
Gutachten	18215
Fa@@	18202
bauen	18193
Wider@@	18190
geringer	18188
sofern	18183
Umwelt	18181
way	18174
an-@@	18170
Gleich@@	18165
starken	18163
Wird	18162
allgemeinen	18149
ko	18134
Technik	18130
zellen	18121
ppen	18120
spiel	18119
pädiatrischen	18110
dam	18108
Tor@@	18104
überprüfen	18103
Bon@@	18102
Tro@@	18099
ations	18097
Halbwertszeit	18096
06.@@	18091
erseits	18086
13-@@	18079
IV	18065
ffen	18065
Pau@@	18060
ire	18056
technischen	18052
indu@@	18051
r.@@	18050
Verträglichkeit	18046
Poly@@	18044
zuständigen	18036
ware	18031
GE@@	18029
alität	18024
sie@@	18021
acht	18016
Risikos	18012
Methode	18006
13.@@	18006
hel@@	17994
verändert	17993
Exper@@	17991
Log@@	17988
erster	17984
nahme	17983
MS	17983
Verhalten	17983
Leber-	17979
wert@@	17979
AM@@	17979
arzneilich	17978
Rate	17977
ativ	17974
130	17968
Organisation	17960
Ausschusses	17957
elli@@	17956
karte	17956
mail	17952
speziellen	17946
Kam@@	17938
Via	17936
Dazu	17935
AU@@	17932
Stim@@	17925
größten	17925
einander	17917
erzielt	17914
medizinischen	17908
Amlodipin	17904
stal@@	17898
Tests	17898
e-	17898
Arbeit@@	17884
Therapie@@	17884
ey	17882
bald	17878
Â@@	17866
son	17863
Fuß@@	17860
oper@@	17849
Schwellungen	17839
PC	17832
47@@	17828
wichtigen	17827
Antibiotika	17824
ano	17820
einzige	17815
lt	17811
außerhalb	17805
cia	17804
Geschäf@@	17796
manchmal	17792
Dom@@	17791
ordnung	17790
11@@	17785
führten	17785
Kil@@	17777
Cl@@	17772
Tacrolimus	17770
Strategie	17761
Produkten	17749
künfte	17748
Weiter@@	17738
m-@@	17735
ME@@	17724
erb@@	17721
Mer@@	17720
neh@@	17714
Business	17714
Muskel@@	17713
täglichen	17711
Kosten@@	17710
-Therapie	17683
Gem@@	17670
Abacavir	17659
vil@@	17637
Allerdings	17624
Krankheiten	17623
Vereinigten	17613
Bot@@	17605
gemeinsamen	17604
vin@@	17602
rasch	17599
durchzuführen	17591
ierungs@@	17584
0,0	17582
gewöhnlich	17579
Verk@@	17577
Rich@@	17572
seite	17571
Bewer@@	17568
systems	17568
les	17566
Verstopfung	17565
verhindert	17564
Druck	17563
Zusätzlich	17551
größte	17548
legte	17544
M.	17543
Standard	17538
Chi@@	17534
orische	17533
maximalen	17529
Nieren-	17521
sicherung	17516
gehalten	17514
38@@	17501
Bewegung	17500
sage	17491
abel	17489
Plasmaspiegel	17488
ik@@	17480
hervorrufen	17480
Tätigkeit	17472
geändert	17470
alem	17463
glauben	17462
Nat@@	17459
Viraferon	17457
Anwendungen	17456
Rev@@	17453
Benommenheit	17452
beobachten	17443
erfolgreich	17436
veröffentlicht	17435
usw.	17433
Saquinavir	17427
infolge	17424
BEHÄLTNISSEN	17409
altet	17400
Einrichtungen	17390
struktur	17387
tens	17363
weiterer	17354
etc.	17353
Ausscheidung	17344
Raumtemperatur	17339
Knochen@@	17338
Hu@@	17320
intravenöser	17313
Bis	17307
geringen	17305
Sitzungen	17304
Gesicht	17302
Oberfläche	17292
satz@@	17282
Et@@	17279
Atemwege	17269
Radi@@	17259
Flaschen	17258
Dol@@	17258
Hartkapsel	17258
ANHANG	17256
Getränken	17253
Injektionsnadeln	17253
Fort@@	17248
Allgemeine	17235
Forschungs@@	17231
trägt	17228
schung	17222
benötigt	17215
Proz@@	17214
Jahres@@	17198
cks	17197
vorher	17195
ina	17190
Bus@@	17189
ften	17181
w.@@	17180
Leiden	17180
verbessert	17179
schreiben	17176
1995	17174
zung	17163
enver@@	17161
Teil@@	17160
Schutz@@	17159
ume	17147
niedrig	17133
Febru@@	17133
Metabolismus	17124
Folgen	17115
Ausmaß	17108
tisch	17105
Etikett	17100
Halten	17099
log@@	17090
gewesen	17089
dienen	17088
TR@@	17088
aben	17088
pers@@	17086
85@@	17086
gelten	17086
beste	17082
014	17070
Klinische	17052
Feu@@	17050
zieh@@	17043
leichten	17040
Haushalts@@	17038
J	17033
betroffenen	17029
geworden	17024
Essen	17024
sitz@@	17024
Rötung	17022
funktion	17018
una	17005
gesetz@@	17003
Krebs	16994
innov@@	16992
28.	16977
Familien@@	16971
tions	16962
heu@@	16960
Verantwortung	16958
ai	16951
TE@@	16949
beteiligt	16948
indiziert	16945
EG	16943
älter	16940
cor@@	16920
Bas@@	16915
CD	16908
015	16907
Vitamin	16906
cial	16896
erklärt	16885
zel@@	16876
gebunden	16868
Luxemburg	16863
atz	16863
kenn@@	16847
zuletzt	16841
ständig	16841
trotz	16831
beschäf@@	16829
tar@@	16825
struktur@@	16814
lin	16814
sätze	16813
Verbrauch@@	16813
zahlreiche	16809
09.@@	16807
verminderte	16807
laufen	16804
ergab	16778
PR@@	16774
69@@	16766
zieren	16761
bert	16747
Betrieb	16743
anz@@	16742
Stück	16735
bro@@	16731
Verwaltung	16730
stets	16724
Lauf@@	16723
einnahmen	16721
dem@@	16716
Polysorbat	16716
aufgeführten	16714
Arbeitsp@@	16710
Bevölkerung	16704
gegenseitigen	16702
welcher	16697
Organis@@	16691
ST	16691
hy@@	16689
V-@@	16679
aust@@	16678
Gele@@	16676
rat	16675
Hy@@	16674
Abstand	16672
ständ@@	16669
Handhabung	16667
Famili@@	16666
letz@@	16660
ction	16658
oph@@	16652
Vergangenheit	16648
Pharmaceuticals	16641
öse	16640
entwicklung	16632
stein	16630
Humira	16627
Nespo	16619
benutzen	16618
Del@@	16614
abbrechen	16613
max	16613
Parlaments	16610
14-@@	16604
Bakterien	16596
Hom@@	16595
üch@@	16595
unbedingt	16592
Wel@@	16588
richtung	16585
21.@@	16579
ologische	16575
sol@@	16574
angeboten	16574
ologien	16569
Janu@@	16564
spe@@	16539
nah@@	16539
aktiviert	16526
Packungsgrößen	16526
therapie	16523
stehenden	16523
Qualitäts@@	16519
Temperatur	16515
Morbus	16511
Verfahrens	16505
spezielle	16479
8,@@	16479
ET@@	16477
Milch	16474
Well@@	16473
wiederholter	16466
bin@@	16460
Health	16452
Mäusen	16450
elektr@@	16450
GEBRAUCHSINFORMATION	16444
belegt	16440
lichkeiten	16437
Vorbereitung	16425
überprüft	16424
amin@@	16420
Tatsache	16411
Speich@@	16399
Entfernung	16392
liert	16392
EC@@	16392
arbeitung	16376
Eisen@@	16366
ES@@	16361
tax@@	16360
Regionen	16354
auftraten	16353
European	16351
Pflan@@	16350
vorgenommen	16350
Natriumhydroxid	16348
haltige	16341
140	16337
richtigen	16331
ore@@	16326
Faktoren	16323
Rat@@	16317
370	16313
Sonder@@	16313
Klicken	16302
OP@@	16300
genheit	16299
.09.@@	16299
gesp@@	16294
ates	16293
Jedoch	16286
sieben	16286
Natrium	16282
Hände	16281
AL	16280
Maße	16259
gering	16254
14.@@	16248
behandeln	16241
Mu@@	16235
ät	16235
omb@@	16231
hohem	16230
34@@	16229
fte	16228
Dir@@	16224
menge	16223
merk@@	16219
k-@@	16216
era	16216
Geschwindigkeit	16211
gekommen	16209
88@@	16200
Emtricitabin	16189
üs@@	16186
entwickelten	16180
ungsan@@	16179
im@@	16179
Blutzuckerspiegel	16175
US-@@	16173
abgebrochen	16167
sat@@	16164
cin@@	16151
ampf	16150
empf@@	16149
schneller	16147
schließlich	16137
prakti@@	16134
sal@@	16127
Mengen	16123
Zah@@	16114
allgemeine	16112
us-@@	16109
Viele	16107
schrei@@	16106
geln	16099
lar	16096
ole	16096
Ärzte	16087
f-@@	16082
Mos@@	16068
fir@@	16062
Lactose	16061
products	16054
NovoMix	16052
git@@	16052
letzte	16050
Bestimmungen	16047
Bre@@	16047
adi@@	16046
30-@@	16038
schrift	16036
Gründen	16035
Patienten@@	16029
n-@@	16023
Inhibitoren	16020
C.	16019
Viren	16017
Milli@@	16017
Peginterferon	16016
Forum	16012
Film@@	16010
ode	16009
Fertigpen	16006
jährigen	16001
trieben	15993
ierungen	15988
früher	15987
ity	15982
technische	15977
Angst	15966
Ir@@	15966
gri@@	15955
Internationale	15946
speich@@	15944
Schwäche	15940
Pens	15940
ermittelt	15938
City	15936
SD	15924
Abend	15923
Vorbeugung	15919
Einstellung	15909
umfasst	15908
Nex@@	15907
dungs@@	15906
störung	15904
Ten@@	15899
Universi@@	15898
only	15897
Dienst@@	15895
Rel@@	15891
Erweiterung	15886
30.	15872
Ant@@	15871
Entfernen	15866
Ireland	15860
genug	15853
produziert	15852
HIV-@@	15850
MG	15849
tierte	15840
sicherheit	15838
erstellt	15836
Beziehungen	15836
7,@@	15831
ust@@	15816
mut@@	15814
verpflichtet	15812
kla@@	15811
Kern@@	15808
agen@@	15806
Valsartan	15799
innen@@	15796
zugehörige	15791
hilft	15790
Gest@@	15778
bef@@	15778
Status	15776
Gre@@	15775
mö@@	15774
Methoden	15773
Dadurch	15764
beendet	15758
zig	15755
eur@@	15754
file	15754
lösen	15745
geöffnet	15745
völlig	15736
pu@@	15733
μ	15731
1,2	15730
zurückzuführen	15727
Kanüle	15727
finanzi@@	15721
rück@@	15718
Immunsystem	15717
steller	15713
zählt	15711
371	15704
fall@@	15698
effizi@@	15693
Tie@@	15686
antiretroviralen	15682
größer	15660
24-@@	15652
aktiv	15651
umgehend	15648
rep@@	15648
sorgen	15643
ktur	15641
abl@@	15627
02.@@	15627
mäßiger	15626
RO@@	15623
Program@@	15622
--	15622
22.@@	15618
Nase	15603
Mix25	15594
id@@	15592
gem	15590
Nieren@@	15589
atten	15588
ograf@@	15588
trop@@	15585
Lyophilisat	15583
Schri@@	15580
Sehen	15573
Edi@@	15572
lichem	15565
016	15562
N-@@	15561
Spritzen	15553
210	15552
Ödeme	15550
zudem	15544
ring	15543
Fun@@	15542
istischen	15538
ssen	15537
ence	15523
Kriterien	15518
konzentration	15515
SU@@	15513
ded	15512
gentlich	15503
Institut	15501
betreffen	15496
vari@@	15489
benutzt	15483
Leistung	15482
spar@@	15481
abgeschlossen	15481
Schmelztabletten	15474
entsprechen	15468
Schweden	15468
Programme	15468
lang@@	15467
ic	15466
sur@@	15460
è@@	15457
historischen	15457
öch@@	15456
gänge	15455
fal@@	15455
Aranesp	15452
dex	15451
keiner	15449
stieg	15443
ünd@@	15436
ena	15431
Prophylaxe	15430
Warfarin	15428
onen@@	15425
richtungen	15419
Fern@@	15417
OL@@	15416
Sprach@@	15415
für@@	15415
Prägung	15412
Schla@@	15410
lokale	15406
Prüfungen	15400
Trudexa	15399
beenden	15397
Klein@@	15389
Gran@@	15387
durchführen	15384
brechen	15384
republika	15379
Sor@@	15376
172	15369
wik@@	15362
Gewebe	15360
Kaletra	15357
männlichen	15356
Leberinsuffizienz	15351
NovoLet	15348
üblicherweise	15341
Behandlungsbeginn	15336
Fla@@	15336
schlag	15335
pass@@	15327
Zwei	15320
stimmen	15317
geschützt	15316
Ki@@	15313
Schrei@@	15312
Fraktion	15309
Mix50	15306
möglichst	15304
schließ@@	15301
Ereignis	15301
verringerte	15300
lauf@@	15291
Multi@@	15287
lediglich	15286
25.@@	15280
my@@	15266
kali@@	15264
nötig	15259
EL	15258
Vir@@	15256
Ros@@	15250
Seine	15243
ämie	15242
Cozaar	15241
haltung	15236
teilweise	15235
06@@	15232
Bestimmung	15231
ViraferonPeg	15228
Volumen	15227
date	15227
opp@@	15225
lä	15220
indi@@	15213
leistungs@@	15205
beeinträchtigen	15196
maßnahmen	15186
Prozess	15184
selbst@@	15178
gegebenenfalls	15178
är	15175
zeichen	15173
Bran@@	15172
Neue	15167
Amprenavir	15164
Dies@@	15161
Impfstoffen	15161
ktur@@	15160
ANZUWENDEN	15158
BI@@	15148
aufgetreten	15140
Inhal@@	15137
positiv	15135
äus@@	15126
Wenden	15119
größeren	15114
3,5	15113
Formen	15107
о@@	15103
ante	15099
Mis@@	15098
st-@@	15096
¶	15086
istische	15086
zäh@@	15085
Schnit@@	15084
Serum@@	15082
mali@@	15077
aufbewahrt	15073
Ciclosporin	15072
ó@@	15068
Mes@@	15057
gek@@	15047
flexi@@	15046
kno@@	15044
Zur@@	15041
Vorschriften	15037
hren	15033
Verteilung	15028
Ach@@	15017
Tlf	15017
112	15017
Beutel	15016
Überprüfung	15012
cal	15010
ollen	15006
fördern	15004
Phot@@	15004
sischen	15002
23.	14998
stän@@	14996
kul@@	14988
Sonne	14975
trieb@@	14975
Teilen	14973
q	14963
Organ@@	14955
Übertragung	14955
Resistenz	14954
RISPERDAL	14954
PegIntron	14954
ungspro@@	14953
Systeme	14953
ki	14951
wodurch	14940
Wirk@@	14927
Aben@@	14914
ausgesetzt	14899
Asthma	14894
x-@@	14893
deten	14892
ls	14889
Tier@@	14886
Fentanyl	14880
Stre@@	14879
Voriconazol	14869
Mangel	14865
HIV-Infektion	14857
wasser@@	14846
weis@@	14842
human	14830
klassi@@	14828
alleine	14827
beru@@	14826
or-@@	14826
rechten	14822
Sit@@	14819
nien	14818
Licht@@	14805
Partikel	14801
Sitagliptin	14800
druck	14797
ams	14794
rachen	14793
one@@	14787
solange	14787
injizieren	14786
Irland	14782
Entzündungen	14769
Diagnose	14767
Empfindlichkeit	14765
beitragen	14764
Erst@@	14763
persönlichen	14760
Dep@@	14754
but@@	14753
angen	14748
rel@@	14747
Pioglitazon	14746
flü@@	14746
positiven	14743
Mensch	14732
Ausbildung	14728
900	14727
untersuchen	14723
omen	14718
ino	14714
Kol@@	14714
len@@	14709
meist	14708
Störung	14707
ahl	14696
Jetzt	14696
Hil@@	14689
unwahrscheinlich	14687
Neuropathie	14685
Änder@@	14674
Handel	14668
Box	14667
stein@@	14658
Polen	14655
171	14654
GlaxoSmithKline	14653
ement	14653
anc@@	14650
1,3	14642
Gewichtszunahme	14637
0,7	14634
bild@@	14625
individuellen	14625
management	14618
Ga@@	14617
geprüft	14604
Madrid	14589
Entwick@@	14581
periphere	14580
hu@@	14578
O-@@	14576
Rin@@	14567
Sildenafil	14560
groß	14558
ry	14556
Verminderung	14554
lispro	14547
mag@@	14539
Vo@@	14537
künf@@	14536
BASAL	14527
gei@@	14527
Haar@@	14516
deckt	14514
450	14510
forderung	14507
Kn@@	14505
gemein@@	14500
Schwitzen	14498
akute	14494
Leiter	14490
16.@@	14487
Anschluss	14485
Konferenz	14485
geschrieben	14473
subkutane	14469
Auffassung	14468
01-@@	14465
tec@@	14464
reichen	14463
Es@@	14463
ktes	14451
irgend@@	14449
Schritte	14444
-Studie	14442
berech@@	14440
wachsen	14438
Vertrau@@	14436
habt	14431
Umfang	14431
Servi@@	14422
AV@@	14419
gebie@@	14416
trag@@	14414
individuell	14412
Lactose-Monohydrat	14411
DEN	14411
-Behandlung	14405
Nachdem	14394
Italia	14386
stoffen	14384
straße	14379
Gerä@@	14378
132	14378
Kommunikation	14377
char@@	14377
Prävention	14369
basiert	14368
ücken	14366
Angina	14364
erscheint	14363
fälle	14357
ille	14357
uli@@	14356
Komponenten	14352
feststellen	14340
Leistungs@@	14340
ähnlichen	14339
Anwendungs@@	14338
liefer@@	14326
89@@	14326
Blutzellen	14325
Ressourcen	14321
inv@@	14313
reagieren	14310
Zeiten	14308
Keine	14300
Rifampicin	14297
Pruritus	14296
verteilt	14290
Fra@@	14287
Hautreaktionen	14284
Umstellung	14278
0,25	14276
unverändert	14271
üblichen	14270
SP	14268
tern@@	14264
Tren@@	14264
Einrichtung	14260
Johan@@	14257
Modul	14256
warten	14247
SS	14246
unterschiedliche	14246
EU@@	14241
bit@@	14234
Komplikationen	14233
Akt@@	14230
mess@@	14230
Ord@@	14218
wä@@	14217
ogen@@	14216
Cre@@	14209
Fol@@	14207
ALT	14201
Halb@@	14193
Öffnen	14192
warum	14191
lösung	14183
dienst	14182
IntronA	14182
Berücksichtigung	14175
getestet	14174
beschrei@@	14171
VI@@	14163
Materialien	14163
NE@@	14162
Kingdom	14155
uri@@	14150
07.@@	14148
Elimination	14147
Cisplatin	14143
MabThera	14143
Etoricoxib	14139
Tal@@	14135
Modell	14132
70@@	14132
genutzt	14123
steh@@	14121
wenigen	14119
Dr@@	14119
ros	14119
schwerwiegenden	14112
Hun@@	14111
700	14107
Injektions@@	14107
schlagen	14091
Aufmerksamkeit	14089
Cal@@	14089
lan	14083
eting	14082
erhält	14079
ches	14078
Haup@@	14073
bild	14071
achte	14066
Nierenerkrankung	14065
dium	14063
Sitzung	14063
vergangenen	14062
konzentr@@	14058
relativ	14057
eden@@	14055
ett	14049
Gerät	14049
Blutzucker	14042
verschrieben	14039
ø	14026
tatsächlich	14022
Bos@@	14019
asen	14005
Ergebnissen	14005
Alkoholtupfer	14003
gekennzeichnet	13995
Publi@@	13992
Glau@@	13991
kamen	13990
Pol@@	13988
einiger	13986
H2O	13985
Infusions@@	13983
diejenigen	13982
morgens	13977
erkrankung	13976
Sinne	13976
künst@@	13974
Mär@@	13973
24.@@	13970
engmaschig	13961
u.	13960
01@@	13956
Laufe	13947
zeugen	13946
lig	13944
Nachweis	13937
Rhinitis	13937
IL@@	13937
aktuelle	13933
04-@@	13930
plan	13925
Leistungen	13919
ris@@	13919
farblose	13918
etzt	13917
Kapitel	13910
Rosiglitazon	13910
Cap@@	13907
vertragen	13900
esses	13898
Morgen	13893
festgelegt	13889
Ci@@	13888
fung	13885
LL@@	13883
ehen	13883
griffen	13882
Kenn@@	13879
gum@@	13878
Vil@@	13877
niedrige	13867
eig@@	13867
Geschlecht	13861
ux	13860
ativ@@	13860
produkte	13855
Schlaflosigkeit	13848
Dosisreduktion	13846
pfer	13845
tü@@	13843
Geburt	13834
dargestellt	13830
Rasilez	13828
Verpflich@@	13823
Kopf	13820
KI	13820
linie	13819
VER@@	13816
eingerichtet	13816
02-@@	13811
AT	13810
ro	13808
6.6	13807
et-@@	13805
Simvastatin	13801
Hydrochlorothiazide	13798
Schwei@@	13796
Erhaltungsdosis	13788
ology	13787
gebildet	13785
ele@@	13785
Center	13777
ass	13772
dent@@	13770
durchschnittliche	13769
Infra@@	13767
ID@@	13766
entschei@@	13751
soll@@	13744
tran@@	13743
Ausdruck	13742
beta	13742
reich	13739
denden	13739
Dänemark	13738
sien	13736
sche@@	13734
ichten	13722
zahlreichen	13722
Ker@@	13705
funktioniert	13699
behalten	13697
programm	13696
wann	13695
Vielzahl	13693
Boden	13691
4.6	13687
Le	13677
registr@@	13661
angesprochen	13658
ark@@	13658
c-@@	13657
Ziehen	13647
Nichtrau@@	13647
UNG	13635
Stabilität	13631
240	13628
Fon@@	13627
185	13627
Erklärung	13625
thr@@	13623
zur@@	13623
Wege	13622
unver@@	13615
tischer	13615
entstehen	13612
antwor@@	13611
vorher@@	13611
Lopinavir	13607
gerich@@	13603
mitglie@@	13589
IS	13587
mi	13582
Abständen	13581
Teilnehmer	13577
ED@@	13571
klein@@	13570
odi@@	13569
nieder@@	13561
schmerzen	13558
nehmer	13556
rote	13556
Initiative	13550
Rebetol	13547
Super@@	13541
Pharmakovigilanz	13539
sicheren	13537
arz@@	13525
Einleitung	13520
bildet	13516
SO@@	13515
hing	13512
regel@@	13512
Q	13505
entation	13504
kons@@	13504
weite	13502
üssel@@	13500
Knochen	13498
ack	13494
din	13494
part@@	13494
ü	13493
gangs@@	13490
eindeutig	13488
α	13477
weiten	13474
420	13471
öffentliche	13470
aller@@	13463
ervier@@	13463
750	13461
Schu@@	13457
§	13456
pack@@	13451
häufige	13447
16-@@	13447
beg@@	13444
Stamm	13443
Lungen@@	13439
beobachteten	13432
ds@@	13427
dd@@	13427
n.@@	13423
lle	13423
version	13422
bestand	13421
voller	13415
26.@@	13414
kop@@	13407
aktiver	13402
Sant@@	13401
berücksichtigen	13398
esten	13396
erfüllt	13396
fordert	13394
chemische	13388
Heraus@@	13387
tis	13384
Hypromellose	13383
liegenden	13382
stitu@@	13378
Dig@@	13372
w-@@	13369
steigen	13366
Erwägung	13365
Ereignissen	13364
372	13355
seh@@	13349
zah@@	13348
Inhibitor	13348
keiten	13345
tnisse	13343
ck-@@	13341
verein@@	13340
bindet	13339
ausreichende	13333
prüfen	13329
Bedenken	13329
stärker	13328
Salz@@	13326
Sollten	13323
59@@	13315
breite	13311
recht@@	13309
Psych@@	13309
dig	13308
punkte	13299
Anleitung	13298
begann	13294
gerä@@	13291
Puregon	13290
Audi@@	13290
gewicht	13289
Basierend	13282
gleichzeitigen	13282
age@@	13282
greifen	13281
asst	13277
Elektr@@	13276
bestimmter	13276
4,5	13275
ols	13267
77@@	13261
bahn	13258
sprachen	13255
Mari@@	13254
eini@@	13251
Schlaganfall	13245
101	13245
Mat@@	13241
Schwangeren	13238
ppe	13236
Eesti	13234
geliefert	13232
ober@@	13227
provided	13224
Tumor@@	13223
pap@@	13215
Will@@	13211
System@@	13211
erfordert	13207
nachfolgenden	13207
Enzym	13206
Wählen	13204
19.@@	13195
kleiner	13183
Rezeptoren	13182
ergeben	13175
drin@@	13173
Wechselwirkung	13169
dende	13164
Harn@@	13164
berechnet	13162
Unternehmer	13155
wichtiger	13154
Atripla	13152
jahr@@	13149
Magnesiumstearat	13148
verstärkt	13146
tätig	13144
Dokumente	13143
bessere	13142
Salzsäure	13142
präsen@@	13141
ösen	13136
le-@@	13128
tigten	13125
humanen	13122
erhielt	13121
Pegasys	13118
Versch@@	13108
Verdünnung	13107
Endpunkt	13105
Mil@@	13104
Ele@@	13102
einzelne	13098
17.@@	13097
Myokardinfarkt	13092
Rah@@	13088
DEM	13086
Schmelztablette	13084
zuerst	13082
ergaben	13081
Micro@@	13080
vorliegenden	13079
Unwohlsein	13079
Schüttelfrost	13075
Arbei@@	13071
vorbehandelten	13067
UR@@	13061
zip@@	13058
Rec@@	13057
normale	13055
erheblich	13052
.05.@@	13051
kräf@@	13051
zwe@@	13051
transpar@@	13050
Wes@@	13048
Min	13044
auch@@	13043
solcher	13033
ju@@	13030
primäre	13024
ining	13023
nahezu	13021
nern	13020
Tadalafil	13019
Sollte	13015
Belgique	13013
West@@	13009
eventuell	13009
es-@@	13006
Wür@@	13004
Antrag	13003
verstärken	12999
stati@@	12998
Netzwer@@	12996
Ampulle	12995
liefern	12989
ti	12982
vorübergehend	12980
Tau@@	12978
Hintergrund	12978
Avastin	12973
entlich	12971
hinzu@@	12968
ara	12965
viert	12965
folge	12965
Anspruch	12963
vation	12956
Leukämie	12946
Schweregrad	12945
sonst	12945
weg@@	12939
früheren	12934
Öffentlichkeit	12932
deck@@	12932
Group	12925
Abhängigkeit	12918
Beeinträchtigung	12913
Medikamente	12909
Vis@@	12907
ologischen	12901
111	12897
erfüllen	12894
asp@@	12891
ella	12888
entlang	12885
legung	12884
kaum	12882
sammlung	12879
Behandlungen	12876
zumindest	12875
Jedes	12875
Magen@@	12871
ffer	12868
weiblichen	12864
dennoch	12863
Agenerase	12860
1,1	12855
holen	12851
pan@@	12847
bereit@@	12840
bank	12837
durchschnittlich	12835
konzentrationen	12833
Macrogol	12833
tenden	12831
Werkzeu@@	12829
bestimmen	12826
öpf@@	12823
gelangen	12819
127	12817
360	12811
val@@	12811
elen	12809
gegen@@	12809
Blu@@	12807
Bru@@	12805
persön@@	12802
mitteln	12800
1,4	12799
tlicher	12794
2,0	12793
asse	12792
Zudem	12787
gelöst	12782
Fertig@@	12779
verbundene	12776
machte	12773
last@@	12770
0,001	12766
De	12765
Serum	12762
Einzeldosen	12760
AA@@	12749
brin@@	12742
mus	12729
nat@@	12728
industrie	12726
eden	12722
wiesen	12710
Epilepsie	12708
tierten	12706
inklusive	12699
PE	12696
alu	12693
Impfstoffs	12692
Finland	12691
vermindert	12690
sichere	12690
EG@@	12689
Muskelschmerzen	12687
APTIVUS	12679
102	12677
Τηλ	12675
rest@@	12672
regelmäßige	12670
Krise	12664
Imm@@	12662
wissenschaf@@	12660
tere	12659
Vorschläge	12658
Code	12657
Rom	12654
drehen	12653
kontrollieren	12649
jährlich	12648
Fahrzeug	12645
Blutplättchen	12645
Natrium@@	12641
heb@@	12638
ost@@	12636
Ödem	12636
präsentiert	12634
Paroxetin	12633
chs	12633
Fondaparinux	12632
derte	12631
iner	12630
liste	12629
therapeutische	12626
022	12614
pal@@	12611
blieb	12609
´	12602
020	12600
Rue	12597
genauso	12591
jemand	12590
gewählt	12590
gela@@	12590
orienti@@	12587
Spitze	12586
Zunge	12586
ect	12585
reli@@	12585
IR@@	12585
kraft	12579
Sicht	12578
log	12567
verabreichten	12565
Verschluss	12561
natürlichen	12560
Institutionen	12553
wesentlich	12553
far@@	12552
B.V.	12550
Wochen@@	12543
atik	12540
358	12539
zentralen	12539
IX	12538
Kolben	12528
Diät	12526
zentrale	12524
sau@@	12523
Antikörpern	12522
Nierenversagen	12521
ansprechen	12521
verbundenen	12516
öt@@	12510
oms	12510
stimmt	12509
Mehrheit	12507
läs@@	12502
informiert	12501
31.@@	12499
ex	12499
wechsel@@	12493
Verteilungsvolumen	12493
ampf@@	12488
geeigneten	12487
unterbrochen	12480
berei@@	12480
planen	12467
tra	12467
qualität	12467
danken	12459
lass	12458
EX@@	12457
fekt	12454
ide	12453
Johanniskraut	12450
IT-@@	12450
aum@@	12443
besu@@	12442
Actraphane	12441
Osteoporose	12439
184	12435
ATC-Code	12431
Plasma@@	12429
Reisen	12428
Drei@@	12428
Japan	12416
Ungarn	12407
dra@@	12403
geord@@	12399
sier@@	12397
Tumoren	12394
Lassen	12393
Einschränkung	12393
PA	12387
Kreuz@@	12386
Cy@@	12384
ie-@@	12379
p.@@	12379
Brüssel	12378
Supp@@	12377
ktiv@@	12376
ous	12371
ora	12366
yc@@	12365
nit@@	12361
TA@@	12359
ütz@@	12359
verändern	12354
grenz@@	12354
melden	12350
58@@	12346
bekannte	12345
getroffen	12343
Je	12341
ha	12340
Mixtard	12335
aktiv@@	12334
liefert	12332
geimpft	12332
Applikation	12331
akuter	12326
Breite	12320
Vorgeschichte	12320
Sur@@	12320
Paclitaxel	12319
Netz@@	12317
erzielen	12314
lip@@	12309
Krampfanfälle	12309
glichen	12305
-1@@	12305
Danach	12303
Ins@@	12290
87@@	12289
will@@	12285
enthal@@	12276
Zusatz@@	12272
allergischen	12271
Sharp	12267
Cellulose	12266
pol@@	12265
räume	12263
Street	12262
Vorteil	12261
angemessene	12260
außer@@	12260
subkutaner	12258
Sand@@	12254
operation	12254
Ag@@	12253
program@@	12250
Flei@@	12250
CellCept	12246
reicht	12244
säure	12242
ax@@	12242
kön@@	12236
104	12234
Straß@@	12232
schläge	12228
EINZUNEHMEN	12223
abends	12216
leistung	12209
Tropfen	12192
verkehr@@	12190
erneu@@	12184
Zahlen	12182
vorgefüllten	12181
komplett	12176
ly@@	12173
115	12168
VIRAMUNE	12166
vorwiegend	12166
braucht	12163
Warnhinweise	12158
Herceptin	12154
national	12151
nische	12146
Statisti@@	12146
aci@@	12146
Gemeinschafts@@	12142
lien	12138
Mö@@	12136
-Werte	12136
Geor@@	12136
Wegen	12136
Ausnahme	12135
Luxembourg	12131
pharmakokinetische	12129
genaue	12128
onalen	12124
-oxid	12124
gewährleistet	12123
erklär@@	12118
Hauptindikator	12117
Ausgangs@@	12116
etr@@	12115
onale	12114
verschiedener	12111
gerät	12107
übertragen	12100
Sobald	12100
regelmäßigen	12099
Danmark	12095
bedarf	12093
überhaupt	12087
bestehend	12086
Risperidon	12086
EF@@	12086
assoziiert	12085
ate@@	12084
keit	12082
IT	12082
wissenschaftliche	12080
amin	12077
schließt	12075
BO@@	12072
versucht	12066
House	12057
Enzyme	12055
primären	12054
Profil	12053
Eli	12048
positive	12044
jederzeit	12043
Spei@@	12042
Dialog	12033
non	12032
Email	12031
Michael	12031
Ketoconazol	12027
Magen	12021
Atazanavir	12017
hilfe	12010
Episoden	12008
geschlossen	12007
wiederholt	11998
Hund	11995
standen	11994
Sich@@	11992
Saf@@	11989
IP@@	11983
jün@@	11981
tief@@	11979
Nadeln	11979
Wo@@	11979
105	11975
stück	11975
örtlichen	11975
ergibt	11968
welchen	11963
trinken	11963
herz@@	11962
Cmin	11961
senken	11959
Diarrhö	11956
KwikPen	11949
ierter	11946
►	11940
Ältere	11926
alog@@	11925
absolute	11925
Aspekte	11923
täts@@	11919
Reduzierung	11915
fas@@	11915
spritzen	11912
ult@@	11907
infiziert	11907
Atorvastatin	11906
ble	11904
Impfstoffes	11903
gebärfähigen	11897
Bluthochdruck	11896
zahl	11895
Relevanz	11888
iel@@	11886
Kontroll@@	11878
Potenzial	11878
Gehirn	11874
Latvija	11870
Sehstörungen	11864
hätten	11860
media	11850
feu@@	11849
tigte	11848
FALTSCHACHTEL	11840
schlossen	11839
Gep@@	11839
pra@@	11838
gingen	11836
Wahrscheinlichkeit	11833
sili@@	11831
Centre	11830
Metabolisierung	11825
03.@@	11825
AF	11821
um-@@	11821
350	11820
beinhaltet	11814
Zwischen@@	11810
Langzeit@@	11802
mati@@	11798
renale	11794
quali@@	11792
überzeu@@	11788
UM@@	11785
basierend	11784
rufen	11781
Richtlinien	11777
EINNAHME	11771
azi@@	11769
darstellen	11769
Kontrazeptiva	11768
Enter@@	11768
leisten	11764
fur@@	11763
kombiniert	11761
sig	11761
hl	11756
Fortschritte	11756
natürliche	11756
Tachykardie	11751
Diskussion	11750
ache	11750
vorgelegten	11748
doppelblinden	11747
Struktur	11745
Hän@@	11745
optimale	11745
unteren	11742
staat@@	11742
Innerhalb	11741
Aprepitant	11741
mg-@@	11738
Services	11734
PL@@	11733
bewertet	11732
DI@@	11729
derselben	11727
Lunge	11724
Gedanken	11724
acht@@	11723
rheumatoider	11717
sch-@@	11717
Asthenie	11716
höchste	11716
offene	11714
droh@@	11713
ratiopharm	11712
Annahme	11710
Händen	11709
Oli@@	11707
Auswirkung	11700
Kenntnis	11699
heim	11698
größe	11698
Itali@@	11695
ka@@	11694
mmHg	11694
höchsten	11689
aufnahme	11687
sth@@	11686
tom@@	11681
Ket@@	11680
Bevor	11675
Gener@@	11674
RMP	11673
ock	11671
Dohme	11664
beurteilt	11660
20-@@	11659
zy@@	11659
Annex	11654
Körperoberfläche	11653
gerech@@	11647
2.5	11647
Blutdrucks	11646
Finnland	11646
Gel	11643
erkrankungen	11640
Fachpersonal	11639
stehende	11634
ane	11631
verwendeten	11626
angesehen	11624
ange	11622
vis@@	11622
netz@@	11620
Novartis	11617
leitung	11613
Humaninsulin	11606
genügend	11605
66@@	11603
Sm@@	11593
018	11592
Aerius	11591
Remission	11585
antra@@	11584
Herausforderungen	11584
virus	11581
bericht	11579
Ü	11577
Op@@	11575
van	11573
NICHT	11571
Strukturen	11570
schnelle	11569
Sicherheitsprofil	11569
www.emea.europa.eu	11568
ems	11566
Bedürf@@	11562
sum	11562
Tier	11560
sprech@@	11552
Datenbank	11552
eres	11551
Läsionen	11550
zuge@@	11550
onali@@	11549
Plan	11543
zukünf@@	11541
relevante	11540
Peter	11538
in-	11538
verlängert	11533
Schwer@@	11532
mediane	11531
Hist@@	11528
Tätigkeiten	11527
ies	11523
ause	11523
tit@@	11521
Quali@@	11520
Mau@@	11519
Ursache	11516
verkehr	11514
Typ-2-Diabetes	11503
Schmerz	11501
Umgang	11494
fehl@@	11488
äten	11488
Wur@@	11485
itt	11484
h-@@	11480
erwogen	11478
vorliegt	11477
0,00@@	11467
ünsti@@	11459
hielt	11459
klasse	11458
subkutanen	11457
BR@@	11456
entschieden	11456
Stat@@	11454
56@@	11451
heits@@	11450
sation	11450
Malta	11449
versehentlich	11448
Antworten	11439
386	11436
Eu@@	11430
länder	11425
Population	11424
breiten	11422
Dosier@@	11421
üsse	11419
überzogene	11419
Behandelten	11418
sour@@	11415
jene	11414
Brustkrebs	11412
FA@@	11412
Empf@@	11411
ull	11410
glich@@	11410
Eis@@	11409
pectoris	11404
Drücken	11399
ili@@	11396
ensi@@	11395
351	11393
Teilnahme	11384
individuelle	11382
vorübergehende	11380
R-@@	11379
authorised	11373
rip@@	11370
Vildagliptin	11364
beziehen	11363
Sprechen	11360
Raum@@	11359
е@@	11359
setz@@	11355
131	11355
zende	11352
Bindung	11351
altungs@@	11351
erer	11351
106	11347
reduzierte	11344
äh@@	11341
Alb@@	11341
ließ	11331
bez@@	11325
entspan@@	11324
randomisiert	11323
Labor@@	11319
schei@@	11319
Lamotrigin	11312
vielfäl@@	11311
hier@@	11311
Atem@@	11311
Darbepoetin	11306
dal@@	11306
Note	11305
i.@@	11299
Die@@	11297
Programms	11296
nommen	11295
material	11291
oxi@@	11290
Auflösung	11288
Risikofaktoren	11286
last	11286
techn@@	11284
Aufbau	11283
Transparenz	11279
Cli@@	11279
Beh@@	11277
Eli@@	11276
erwiesen	11274
.01.@@	11269
Gründe	11268
begrenzten	11268
emi@@	11263
station	11263
erklären	11262
2,4	11252
langt	11252
Netzwerk	11249
.06.@@	11247
129	11247
3,0	11245
Far@@	11244
sse	11243
versorgung	11241
Rückgang	11241
jährige	11241
mittelschwerer	11240
Ran@@	11240
Zahn@@	11236
o-	11233
Körpers	11231
erinn@@	11221
Spezi@@	11221
ada	11215
Transport	11213
ont	11212
Brust	11210
gerecht	11208
Nummer	11207
Beiträge	11207
nummer	11205
Xeloda	11203
Zweck	11203
Empfehlung	11200
Ther@@	11199
Rund@@	11199
bewusst	11197
normaler	11196
Rest	11190
vs.	11188
gewonnen	11181
Aktualisierung	11181
ebene	11178
Creme	11178
wesentlichen	11174
iertes	11174
internation@@	11170
tende	11169
u.a.	11168
1st	11166
Handels@@	11165
Tran@@	11163
Basi@@	11161
jun@@	11160
rand	11156
Azomyr	11153
tl	11153
volumen	11152
Roll@@	11149
mäßigen	11146
Allergie	11141
Fahrzeu@@	11139
Losartan	11133
junge	11133
Geschmack	11133
00-@@	11128
Formulierung	11128
yn@@	11125
Penfill	11124
soweit	11117
verloren	11115
niedrigere	11113
ole@@	11113
Fertilität	11111
normal	11108
G-@@	11107
fügen	11103
triebs@@	11094
direkte	11094
Sverige	11094
Hirn@@	11093
017	11083
selb@@	11081
Entscheidungen	11075
108	11075
Bereichs	11074
Prof@@	11070
stens	11066
Neben@@	11066
angemessen	11066
radi@@	11064
zt	11061
film	11059
1,6	11058
kel	11055
Neoclarityn	11053
Betaferon	11048
ündung	11044
Reproduction	11042
Arm	11040
128	11039
brei@@	11035
Doxazosin	11034
fla@@	11032
gewi@@	11031
emp@@	11031
Zyklus	11029
pp	11019
Phenytoin	11017
a.	11015
einger@@	11014
don@@	11009
HI@@	11003
103	10999
BLISTERPACKUNGEN	10996
Schaffung	10996
Koh@@	10992
leistungen	10991
aktualisiert	10987
gebung	10987
miteinander	10987
Darm@@	10981
Diuretika	10979
Nicht@@	10977
erforderlichen	10975
entan@@	10973
Dreh@@	10969
erungen	10967
Referenz@@	10966
unterziehen	10964
Ersatz@@	10964
gener	10958
Bestätigung	10958
führenden	10956
assung	10954
Ausstattung	10953
eins	10952
kontaktieren	10949
Bekämpfung	10946
Mycophenolatmofetil	10944
mehr@@	10930
18.@@	10927
allgemein	10923
zogen	10921
öffent@@	10918
nd	10918
fähi@@	10914
elb@@	10910
sis	10908
Gegensatz	10906
europ@@	10903
kürzlich	10902
MIRCERA	10901
drück@@	10900
nden	10898
ameri@@	10896
Nierenfunktionsstörungen	10892
Tenofovirdisoproxilfumarat	10891
spp.	10885
nationale	10884
kurze	10880
medicinal	10877
Station	10875
Polska	10875
τ@@	10874
Wirkstoffen	10874
intensi@@	10870
Mädchen	10869
Plat@@	10867
Ret@@	10867
orie	10865
Grün@@	10864
REYATAZ	10864
sodass	10860
Direkt@@	10857
Abbruch	10856
Genehmigungen	10855
Indikationen	10847
Großbritannien	10841
ock@@	10835
dir@@	10835
vivo	10831
Stuhl	10826
Analy@@	10824
84@@	10823
280	10820
rüstung	10820
bedingte	10819
gramm	10819
bewegen	10818
Muskeln	10817
entsteht	10815
sters	10811
Off@@	10810
Telmisartan	10797
E172	10793
Reise@@	10791
digit@@	10790
mot@@	10788
beruht	10786
Gru@@	10785
z.@@	10784
395	10782
Out@@	10779
angeneh@@	10775
resorbiert	10773
Arbeitsgruppen	10771
Novo	10768
yl	10765
hängen	10764
BEHÄLTNIS	10763
äußerst	10762
ulation	10762
Niveau	10762
immun@@	10761
Animal	10757
ologischer	10756
Original@@	10755
mate	10754
Eingriff	10750
20.@@	10742
Eltern	10742
Fett@@	10740
markt@@	10739
Ol@@	10738
rauch	10737
Dennoch	10735
Dokumentation	10733
Mitgliedstaat	10732
ZYPREXA	10731
H.	10731
135	10730
icht@@	10729
Bibli@@	10727
ischem	10726
Band@@	10724
ML	10723
West	10723
gut@@	10721
Nelfinavir	10721
grei@@	10721
rank	10718
foli@@	10716
Prof.	10714
multi@@	10712
Sucrose	10710
grad	10710
gst	10705
angewandt	10704
sterile	10696
Herzinfarkt	10696
Wind@@	10692
document	10690
Soli@@	10686
Verw@@	10684
Ampullen	10683
d-	10679
ku@@	10674
überwiegend	10673
Pramipexol	10668
mäßige	10665
verlust	10662
wege	10657
ol-@@	10654
CH	10648
Brü@@	10647
publi@@	10637
ET	10637
set	10633
mie	10633
België	10631
KOGENATE	10631
angebracht	10628
Wo	10628
urs	10626
AST	10622
ktive	10620
Hämodialyse	10619
Schließ@@	10618
ath	10617
unterhalb	10616
Verwirrtheit	10603
ark	10601
-D@@	10596
ehe	10591
Tages	10590
runde	10590
wirkung	10589
nissen	10588
Aufsicht	10587
Interv@@	10586
atch	10585
üssen	10582
olog@@	10578
Coun@@	10578
SCH@@	10577
zeh@@	10576
Angelegenheiten	10574
eingeführt	10573
aufweist	10572
unterschiedlich	10572
karten	10570
unbekannt	10570
kol@@	10569
Abstimmung	10568
Einheit	10566
entzündung	10564
zunehmen	10561
vertrau@@	10553
Grenze	10552
Trau@@	10551
menschliche	10549
Stopfen	10544
�	10543
fass@@	10543
Nah@@	10541
PREZISTA	10540
ç@@	10539
8000	10539
entsorgen	10539
trägen	10539
erfordern	10538
sts	10534
linken	10534
einmaligen	10532
и@@	10530
gegangen	10524
Verdacht	10523
Schwe@@	10522
Krankheits@@	10521
heben	10521
produktion	10519
phase	10518
Beteiligung	10517
ppen@@	10515
But@@	10508
Mischung	10508
übt	10507
kräfte	10504
Denk@@	10503
300@@	10501
pon@@	10496
M-@@	10493
Frank@@	10492
notwendigen	10491
Reinigungstupfer	10488
Ess@@	10486
frühen	10485
HEXAL	10482
Ander@@	10479
anspru@@	10479
Update	10477
ε@@	10476
Mannitol	10475
das@@	10469
tigungs@@	10468
transp@@	10466
dagegen	10466
l-@@	10464
Refer@@	10462
gewähr@@	10462
Fein@@	10454
am-@@	10454
bereiche	10453
Vari@@	10452
Serum-@@	10451
schwangeren	10447
umgestellt	10447
Affen	10447
Anamnese	10446
Dienste	10446
Dyspnoe	10443
plötzlich	10442
Tit@@	10441
Punkten	10441
darstellt	10438
verstanden	10437
beschriebenen	10436
dy	10435
IV@@	10434
357	10432
ms@@	10431
Beide	10429
guter	10428
typ@@	10424
ola	10420
gerufen	10415
Gas@@	10414
sam	10413
Krankenhaus	10413
cy	10411
Lieferung	10410
omie	10409
Ly@@	10407
bis@@	10407
Rückenschmerzen	10403
schwier@@	10403
mm3	10400
Up@@	10398
Schock	10395
kurzen	10393
Absatz	10392
einzigen	10392
formationen	10391
Kunststoff@@	10390
ating	10389
TEN	10387
Hormon	10386
Thom@@	10385
Tei@@	10384
Telzir	10383
No	10382
Nederland	10379
assi@@	10378
Hor@@	10375
Aussch@@	10375
Phi@@	10370
Mutationen	10369
Aluminium@@	10368
gastrointestinale	10367
teilungen	10365
Spr@@	10365
ergriffen	10364
AD	10360
Nervensystems	10359
agement	10359
Lebensmittel@@	10356
Zittern	10351
Exelon	10350
Schlüssel@@	10349
Carbamazepin	10347
dauert	10345
Mel@@	10342
kardiovaskulären	10342
Stellungnahme	10339
Mundtrockenheit	10337
Berichterstatter	10335
Impfstoffe	10332
Aufdruck	10330
Standards	10330
zustellen	10327
vo	10326
cken@@	10322
Sel@@	10321
international	10318
verlei@@	10317
PO@@	10310
Herzschlag	10308
Va@@	10307
diert	10306
×	10305
ür	10303
Steigerung	10302
Ausgang	10302
Art.	10299
GONAL-f	10298
Aufrechterhaltung	10298
lebens@@	10295
fanden	10295
Allgemein	10294
gefähr@@	10292
ho	10287
manchen	10287
entr@@	10281
Kurzatmigkeit	10277
orp@@	10277
akter	10277
Caelyx	10276
ezi@@	10275
theit	10272
Immunantwort	10272
Kribbeln	10271
bestehende	10271
distribution	10265
eignet	10264
tau@@	10263
Gemcitabin	10260
Einhaltung	10257
schrif@@	10256
ersetzt	10255
versus	10254
Forsch@@	10253
gres@@	10252
acknowledged	10250
Besserung	10249
sichtbar	10248
präklinischen	10246
ausreichenden	10245
verdünnt	10244
Transport@@	10240
aden	10237
systemen	10237
Tuberkulose	10229
b-@@	10227
hinter@@	10224
Piroxicam	10218
mes@@	10215
schu@@	10212
selben	10211
niemals	10209
hinweisen	10205
Auftrag	10204
loss	10204
hell@@	10197
Verpackung	10196
Mortalität	10185
erinnern	10183
Mio	10183
iv@@	10182
einheit@@	10176
eigenes	10176
a-	10174
besitzen	10174
199@@	10171
IG@@	10171
les@@	10165
427	10165
Ibandronsäure	10161
welt	10154
unterzogen	10153
Personal@@	10151
Neugeborenen	10150
hingewiesen	10149
Bewegungen	10145
Cop@@	10143
orte	10141
Hyperglykämie	10139
erzi@@	10135
dge@@	10133
betragen	10130
Global	10130
á	10129
Masch@@	10123
Übersicht	10121
wechseln	10115
erlauben	10115
Therapien	10115
oly@@	10113
019	10109
400@@	10107
K-@@	10103
gelb	10099
cep@@	10096
band@@	10087
genehmigt	10087
Acetylsalicylsäure	10086
Buch@@	10084
Hauptstudien	10084
intra@@	10083
gst@@	10083
Cam@@	10083
vorzugsweise	10081
Viruslast	10081
ältere	10080
Grundimmunisierung	10078
Harmonisierung	10077
ergebnisse	10076
SI@@	10076
angesichts	10074
ofen	10074
ktoren	10074
Lietuva	10072
bruch	10070
|	10070
Entacapon	10053
Hig@@	10053
Abfall	10051
geschichte	10048
Situationen	10047
äß@@	10045
stände	10044
bezogen	10041
Patientengruppe	10039
unmittel@@	10035
ray	10029
grund	10024
defin@@	10024
küh@@	10023
Ingelheim	10020
Tierarzneimitteln	10019
Abgabe	10017
sive	10015
1994	10015
schem	10014
än	10012
itäten	10005
Ke@@	10001
lings@@	9998
Ob	9997
Mehrzahl	9995
haft	9994
Digoxin	9993
mpf@@	9992
CI@@	9990
Anwender	9987
Dyspepsie	9984
bekann@@	9984
Gelenkschmerzen	9983
Tenofovir	9983
une	9981
entnommen	9977
146	9977
analy@@	9976
Click	9975
stam@@	9975
näch@@	9974
Avenue	9972
keinerlei	9969
Start@@	9968
Setzen	9968
verwendete	9966
Säuglingen	9966
Reproduktionstoxizität	9966
eni@@	9964
ten-@@	9959
mier@@	9957
berichten	9954
spunkt	9954
erscheinen	9952
Dra@@	9950
gefühl	9949
LE@@	9949
John	9948
abhängigen	9945
großes	9944
bes	9940
Generation	9937
Initialdosis	9935
Mitteilung	9934
begleitet	9934
knü@@	9932
miert	9931
225	9921
Fläschchen	9920
mäch@@	9917
Fas@@	9917
Myalgie	9912
Veröffentlichung	9911
Beziehung	9911
Immunsystems	9904
2,6	9904
Niere	9899
Kraft@@	9894
Minute	9893
Schweine	9891
dische	9890
ester	9888
kontrolle	9882
Ernährung	9881
021	9880
kommenden	9879
Konferenz@@	9875
National	9872
tnis	9870
erungs@@	9870
tal@@	9863
teilnehmen	9862
NovoRapid	9861
kö@@	9850
Literatur	9850
ase-@@	9849
Verwaltungs@@	9848
123	9846
Influenza	9842
gliche	9838
bedeut@@	9837
Midazolam	9837
ReFacto	9835
ktivität	9834
cri@@	9833
sin	9833
Il@@	9831
Milch@@	9831
ferner	9825
laufenden	9824
beschädigt	9824
MAR@@	9823
schnellen	9822
tritts@@	9820
setzte	9820
vorhandenen	9814
sicherstellen	9811
zir@@	9810
Main	9809
Erstellung	9802
zufolge	9797
126	9796
bedingten	9794
1,8	9792
commercial	9790
Lang@@	9789
aden@@	9789
keinem	9777
Ul@@	9777
Prakti@@	9776
Dokument	9774
Fassung	9773
att@@	9768
FOLIENSTREIFEN	9768
hrung	9762
Nicht-@@	9762
Identi@@	9760
geplant	9756
zieht	9754
España	9754
VIII	9752
versu@@	9752
~	9749
Atmen	9746
veränderungen	9743
erreichten	9742
mäßi@@	9739
68@@	9738
Kurz@@	9737
flasche	9736
cen	9733
rue	9730
geschehen	9728
CELSENTRI	9726
Mitteln	9722
bitten	9721
Kontakt@@	9721
Agen@@	9717
hen@@	9716
bilität	9716
.04.@@	9713
betreu@@	9707
gon@@	9702
üssel	9699
.03.@@	9697
famili@@	9697
Sitz@@	9696
llen	9695
Pneumonie	9694
Werten	9693
unzureichend	9692
dyna@@	9692
angewiesen	9687
Minister@@	9685
Maß@@	9685
sing	9685
Extavia	9684
sach@@	9681
För@@	9680
Calcium@@	9679
teren	9678
Somatropin	9677
gelei@@	9676
Xolair	9673
GR@@	9673
Zwe@@	9671
läuft	9667
Glob@@	9664
euch@@	9662
ativer	9661
häufigste	9660
iz@@	9660
ves	9658
rot	9658
MT@@	9658
Häufigkeiten	9656
beein@@	9655
Auswertung	9649
Abb	9648
einsch@@	9645
KO@@	9642
Komponente	9639
Roche	9637
Jugend@@	9637
175	9637
sign@@	9637
421	9637
rö@@	9637
Unterbrechung	9635
Somnolenz	9634
system@@	9628
fällen	9624
bra@@	9623
Clo@@	9622
Ausschuß	9621
Schweinen	9619
H-@@	9614
Mün@@	9613
resul@@	9609
statt@@	9609
Human@@	9609
beschränkt	9608
stabil	9608
musste	9608
E171	9605
erfolgte	9604
Av@@	9604
Übereinstimmung	9602
Gall@@	9602
fizierung	9597
entwickelte	9591
transdermale	9589
Erhöhungen	9586
aum	9583
orischen	9582
speziali@@	9576
emul@@	9574
Maschine	9571
118	9566
kturen	9566
ursprünglich	9563
Zahl@@	9563
Ansatz	9555
purposes	9551
Stimm@@	9551
Der@@	9550
Cat@@	9549
Dro@@	9548
ura	9547
Problemen	9547
BYETTA	9539
nicht@@	9534
eng	9532
Planung	9529
Vimpat	9527
142	9527
1992	9525
850	9524
tot@@	9524
els@@	9521
Angioödem	9521
gers	9517
Induktion	9517
Überempfindlichkeitsreaktion	9517
OR	9516
Prometax	9515
Neupro	9506
dio@@	9500
Entschei@@	9500
Lippen	9500
gewinn@@	9499
relevant	9499
chirurgischen	9498
betroffen	9497
dauern	9496
wie@@	9492
Zy@@	9491
beschwerden	9491
ay	9491
gh	9489
.02.@@	9489
erin@@	9486
gewebe	9486
Atemnot	9483
weißer	9482
Itraconazol	9477
sorgt	9474
weiteres	9472
NA@@	9472
Eindruck	9471
Medizin@@	9470
Stoffwechsel@@	9469
2,3	9469
spiegeln	9468
Schlafstörungen	9467
endem	9464
Verbindungen	9462
.07.@@	9461
България	9460
Keppra	9460
Rapamune	9458
Rechtsvorschriften	9457
atoren	9457
MO@@	9454
etzung	9448
schwerwiegend	9448
Konzep@@	9447
zösischen	9447
Verwaltungsrat	9446
Eingeben	9438
to-@@	9437
nö@@	9436
ml-@@	9435
Celecoxib	9430
Pharma@@	9429
Arbeitsprogramm	9426
107	9421
Tracleer	9420
cap@@	9420
coli	9418
dringend	9418
zugelassenen	9416
Verein@@	9413
Infliximab	9411
igkeit	9411
E.	9409
sichts@@	9409
steigt	9408
Immunisierung	9406
Cro@@	9402
ologisch	9400
Potential	9399
Anorexie	9393
bili@@	9392
nde	9389
Darunavir	9388
atz@@	9387
blockiert	9387
lock@@	9387
kämpf@@	9387
WE@@	9387
verläs@@	9384
peripheren	9383
profitieren	9382
füllen	9381
н@@	9381
nal	9378
Tru@@	9377
bestätigen	9376
å@@	9376
empfiehlt	9365
haften	9362
Studienbeginn	9361
3,3	9361
exis@@	9360
vorherige	9357
Norwegen	9354
erzeugen	9353
Blutes	9353
umfassende	9352
Rebif	9350
längere	9350
bereiten	9350
bas@@	9345
haup@@	9342
liegende	9338
CP@@	9336
Inc	9332
bindung	9328
sist@@	9328
Aliskiren	9328
ð@@	9328
spiegels	9327
daraus	9327
Pil@@	9325
DAS	9318
Norge	9317
aufrecht	9317
Zusammenfassungen	9314
erachtet	9313
offiziellen	9313
kel@@	9312
Rh@@	9311
Ferner	9309
Zulassungs@@	9306
wur@@	9305
zugrunde	9303
Kappe	9302
OJ	9300
schwach	9300
Fosamprenavir	9300
orien	9300
Auftretens	9298
78@@	9297
Bereitstellung	9296
359	9292
Linderung	9290
Drit@@	9289
G3	9289
kern	9285
Depressionen	9280
gie@@	9279
Parästhesie	9277
omp@@	9277
leben@@	9276
Gef@@	9271
Appetitlosigkeit	9270
sammeln	9270
lands	9263
Durchmesser	9263
DNA	9261
Ceftriaxon	9261
Helixate	9259
bewirkt	9255
Wechsel	9252
Vereinbarung	9250
230	9250
besonderer	9249
Verwendbar	9247
Fluoxetin	9247
werfen	9244
Not@@	9244
Ramipril	9241
hom@@	9240
ths	9239
Flexi@@	9238
50-@@	9237
Zalasta	9235
spannung	9232
Bir@@	9226
überschreiten	9224
antiviralen	9223
übergeht	9222
stärken	9221
bekannter	9221
Internationalen	9219
Schwar@@	9219
tum@@	9210
fekte	9209
allergischer	9204
Tat@@	9198
Mand@@	9197
heit@@	9192
losigkeit	9192
Duloxetin	9191
Pankreatitis	9190
Präparat	9190
eil@@	9185
glie@@	9183
1,7	9177
Hör@@	9175
inhal@@	9172
zufrieden	9172
stechnik	9170
festzustellen	9169
↔	9168
OM@@	9166
mittl@@	9165
lar@@	9165
MA	9164
verl@@	9160
konventionellen	9159
Glivec	9157
FlexPen	9157
Remeron	9154
reversibel	9154
Bay@@	9153
wasser	9153
Überleben	9152
ann	9152
cy@@	9150
ρ@@	9150
260	9144
Ziagen	9142
stiegen	9139
Gelenk@@	9137
rz	9136
schrittweise	9136
eingeschlossen	9134
Inhalation	9130
klusi@@	9129
Reinigung	9127
Bedienungsanleitung	9125
trockene	9123
Ph.Eur.	9121
Hinter@@	9121
ik	9119
mas	9114
Arm@@	9113
IB@@	9113
Antagonisten	9113
Brustschmerzen	9110
Impf@@	9109
aufzubewahren	9107
NexGen	9106
Invirase	9105
lokal	9105
Aripiprazol	9105
Erhöhte	9104
Europä@@	9104
gespritzt	9104
nali@@	9103
Virus@@	9102
Infektions@@	9101
Erreichen	9098
54@@	9097
­	9095
ausch	9094
zentral	9094
Terfenadin	9094
0,75	9093
Boehringer	9091
161	9090
ky@@	9090
gen-@@	9089
Effentora	9087
ñ@@	9083
dritte	9082
bedingt	9079
direkten	9079
‚	9078
ehrt	9078
Wich@@	9075
Entsorgung	9067
Stru@@	9064
Bereit@@	9063
graf@@	9062
ersetzen	9060
deuten	9059
PRO@@	9057
gewünscht	9055
nahm@@	9051
onal@@	9051
wären	9049
Volibris	9047
dens	9046
PH@@	9044
ART	9044
Transplantation	9043
kombinierten	9031
Syste@@	9030
Ebenso	9029
cer@@	9027
placebokontrollierten	9023
fordern	9023
freies	9022
Literatur@@	9022
wiederum	9022
wöchigen	9020
versi@@	9020
körper@@	9019
Rapinyl	9016
data	9016
fertig	9014
dienste	9012
Moti@@	9011
Kab@@	9008
151	9008
schri@@	9006
Austria	9005
gesunde	9005
sä@@	9004
komplette	9003
omm@@	9002
ata	8999
Progression	8998
Bondenza	8997
kation	8996
Lich@@	8994
lös@@	8992
Anfälle	8990
niedrigeren	8988
Rechnung	8984
gie	8984
echte	8983
behandelnden	8981
enge	8975
geräu@@	8975
eingereicht	8973
erenden	8971
erstmals	8968
Bef@@	8965
Schaf@@	8963
Rivastigmin	8959
leiten	8959
Bett	8956
Bab@@	8955
stim@@	8955
opf	8954
Heparin	8952
umfassen	8952
Zevalin	8950
temperatur	8947
erwies	8947
Oper@@	8947
erw@@	8945
stro@@	8945
gion	8941
Leitung	8938
wichtigste	8938
Dass	8938
ologi@@	8938
Tasmar	8938
Kindes	8933
Tarceva	8931
Schäden	8926
endung	8924
chronische	8924
erforderliche	8924
urop@@	8917
Ham@@	8916
Bemühungen	8916
ier	8915
.-@@	8900
Kno@@	8895
Ausgaben	8895
353	8893
verursachte	8893
Pro	8891
arbeitete	8889
betreffenden	8887
schie@@	8884
gste	8883
Lat@@	8883
Besonder@@	8880
tren@@	8878
Bezeichnung	8877
offen@@	8874
res	8869
assen@@	8869
reiche	8866
Anstren@@	8865
Silapo	8865
messen	8864
Zwischen	8863
IF@@	8862
134	8861
bus@@	8860
beraten	8860
Herzrhythmusstörungen	8860
Schilddrüsen@@	8859
günstig	8859
getragen	8858
Patientin	8855
som@@	8855
alternative	8854
eingeschränkt	8853
starker	8853
ungen@@	8853
jen@@	8851
zeichnung	8850
Gefahren	8847
Mein@@	8846
Fertavid	8845
Mac@@	8845
Dermatitis	8845
Laktatazidose	8841
kehr@@	8838
ebenen	8837
zierte	8836
packungen	8834
Wä@@	8831
Mechanismus	8830
Gewichtsverlust	8827
rein	8826
wick@@	8824
schwierig	8823
Kanada	8822
Budapest	8821
tö@@	8819
Initiativen	8816
Temodal	8816
HCT	8815
passiert	8815
sia	8813
AZ@@	8811
0,0001	8808
don	8806
onien	8805
handeln	8805
Karvezide	8804
status	8803
QU@@	8797
ritten	8796
VFEND	8796
dun@@	8795
alan@@	8793
kos@@	8791
Cons@@	8789
ffer@@	8788
Dosierungs@@	8787
equ@@	8785
95@@	8784
114	8782
FL@@	8781
eliminiert	8781
organ@@	8781
CoAprovel	8780
Austausch	8776
Rapid	8775
Suomi	8774
ter-@@	8774
verstärkte	8768
rekonstituierte	8767
Zyklen	8766
belegen	8765
blutungen	8765
veränderter	8764
zes	8762
3000	8762
Vier@@	8761
Schmerz@@	8758
Beispiele	8755
auftretende	8753
Versuchen	8753
läu@@	8748
Basal	8748
eme	8746
Erythem	8744
untersuchten	8744
Blutuntersuchungen	8743
negativen	8742
likationen	8737
Kali@@	8737
ón	8735
strum@@	8734
Island	8733
sierter	8727
Messung	8727
produzieren	8725
Bearbeitung	8725
Patientengruppen	8723
Vorder@@	8721
gin	8719
Clarithromycin	8717
chin@@	8717
Ausgang@@	8716
DURCHSTECHFLASCHE	8710
halb@@	8710
Halluzinationen	8709
Stillen	8705
Blutgefäße	8704
sz@@	8702
mittelschweren	8698
ENT@@	8696
DO@@	8694
1993	8688
ahren	8688
schlucken	8687
geschieht	8685
ô@@	8685
meti@@	8685
misch	8684
†	8681
dün@@	8681
elten	8679
CE@@	8678
Kopf@@	8677
gestellten	8675
lia	8668
Hämoglobin	8667
Auftra@@	8666
verlieren	8666
ova	8666
Inspektionen	8666
ebung	8664
BeneFIX	8662
gender	8659
Kontrollgruppe	8651
int@@	8650
Verschlusskappe	8650
Glimepirid	8649
esp@@	8644
Treatment	8641
bern	8641
stammen	8641
trau@@	8638
opf@@	8637
olin@@	8635
J.	8632
körperliche	8631
Aussehen	8631
152	8630
vereinbart	8630
soli@@	8630
irchen	8628
ausdrücklich	8627
NO@@	8627
vorgeschlagenen	8624
astro@@	8623
Retacrit	8621
SPC	8620
urie	8618
Haltbarkeit	8617
Topotecan	8616
Erholung	8614
Kann	8613
Sorbitol	8611
Grenz@@	8611
Remicade	8610
š@@	8609
а@@	8607
Prop@@	8606
Schei@@	8606
Aufbewahrung	8602
nehm@@	8601
üll@@	8599
42@@	8595
220	8590
157	8588
AR	8587
mission	8580
Sowohl	8579
Zube@@	8578
Purevax	8572
sorgfältige	8568
Psoriasis	8568
tral	8567
hat@@	8565
erhal@@	8564
anzi@@	8563
physi@@	8563
Ursachen	8563
România	8562
gig	8559
116	8559
Stadium	8558
Lau@@	8557
Überblick	8557
HANDELSNAME	8555
mals	8550
versehen	8549
weißes	8547
gangs	8546
18-@@	8544
täglicher	8544
lo	8543
HDPE	8540
dosiertem	8540
durchgeführten	8537
verhalten	8534
atr@@	8534
infizierten	8533
Arthralgie	8533
fortgeschrittenem	8532
unterscheiden	8532
se-@@	8532
fs	8531
Medikament	8530
Thr@@	8528
ierende	8527
Erwar@@	8526
ac	8526
schnei@@	8525
Rhabdomyolyse	8523
Α@@	8522
reaktionen	8518
probleme	8515
flächen	8515
ders	8514
Geben	8511
machten	8510
überschritten	8505
331	8504
packung	8500
effe@@	8498
gerin@@	8492
9,5	8491
Leberenzyme	8491
Ceplene	8489
Thrombozytenzahl	8489
Deleg@@	8486
pun@@	8484
Dem	8484
1200	8483
trifft	8483
Frakturen	8482
teilt	8481
hafte	8481
sicht@@	8481
fiziert	8481
org@@	8479
1990	8477
Alex@@	8474
General@@	8473
strategie	8473
zierten	8473
Alternative	8473
Stavudin	8472
122	8472
auslösen	8469
gend@@	8469
Fet@@	8468
Str	8465
eter@@	8464
Erinn@@	8463
Häufige	8462
4,8	8462
FSH	8460
Konfidenzintervall	8458
Partner@@	8456
Hydroxy@@	8455
Fähigkeiten	8454
schnell@@	8452
schluss@@	8449
Antidepressiva	8446
MSD	8444
umgesetzt	8443
Research	8442
con	8440
Schwerpunkt	8439
beider	8439
Futter	8438
verschlossen	8437
Benutzen	8434
170	8431
Pir@@	8431
Angesichts	8428
Haarausfall	8427
Erteilung	8425
Shar@@	8425
aufeinander	8425
Einklang	8424
verschreibungspflichtige	8423
ga@@	8423
5,0	8423
Fortschreiten	8422
Bonviva	8422
bisherigen	8421
Gehen	8421
neun	8421
Berich@@	8418
beschlossen	8417
ille@@	8408
Nov@@	8408
119	8407
Orphan	8407
ergän@@	8404
Metabolit	8402
Gebieten	8402
tiefe	8400
Frü@@	8399
malignen	8398
Operationen	8397
Substrat	8395
IA	8391
enthaltenen	8390
position	8387
eme@@	8386
ox	8380
Kalium@@	8376
57@@	8374
231	8370
Sepsis	8368
Schn@@	8368
bislang	8367
näher@@	8366
aktivität	8359
Öff@@	8358
atischer	8357
BER@@	8355
negativ	8355
ket@@	8355
ständige	8354
Miss@@	8353
human@@	8352
Produktes	8352
Syn@@	8351
Kategorien	8351
Antibiotikum	8347
cl@@	8346
Proteine	8338
fähig	8337
dies@@	8335
Nevirapin	8335
senkt	8334
schien	8332
320	8331
MI	8328
ursprünglichen	8328
schlä@@	8327
183	8326
domin@@	8318
mung	8317
derzeitigen	8317
Pin@@	8316
richt@@	8315
err@@	8314
Feld@@	8313
supp@@	8311
Sulfonylharnstoff	8311
State	8308
gesenkt	8308
fassen	8307
ergi@@	8304
Nasen@@	8301
farblos	8300
behandelte	8299
Leukopenie	8298
Diarrhoe	8297
Pilzinfektionen	8297
Zometa	8296
Merk@@	8294
Mich@@	8293
Anbruch	8291
InductOs	8290
zuverlässige	8290
anger@@	8288
Durchschnitt	8285
Gallen@@	8283
stillenden	8282
zutrifft	8280
InnoLet	8278
Schwindelgefühl	8277
Konfi@@	8277
Κύπρος	8276
feste	8274
Speziali@@	8273
SC@@	8269
Cytochrom	8268
74@@	8267
hinzugefügt	8266
ZUSAMMENFASSUNG	8266
-Wert	8264
ang@@	8264
Schlussfolgerungen	8264
dos	8263
Entwickl@@	8262
zo	8260
weiß@@	8258
bemüh@@	8258
vierten	8258
veränderte	8256
Dublin	8254
übrigen	8254
Anti-@@	8251
Blutgerinnsel	8250
Dysfunktion	8248
dieren	8248
Sing@@	8243
2,7	8236
sek@@	8236
näher	8236
fän@@	8236
gewünschte	8231
Schutzkappe	8231
Infanrix	8230
entstanden	8230
stellten	8227
144	8226
Gemäß	8223
Retardtablette	8222
Armen	8220
t.	8217
ø@@	8217
Tremor	8212
Hautrötung	8211
üdi@@	8209
cam@@	8207
low	8204
bach	8201
-R@@	8199
2,8	8199
27.@@	8199
erzeu@@	8197
Nu@@	8196
Abteilung	8195
Behältnis	8195
erfahr@@	8194
Koordinierung	8193
Ελλάδα	8191
Aclasta	8191
Pharmazeutischer	8191
gehalt	8189
usses	8187
kn@@	8185
Genotyp	8185
arm	8183
Puh	8182
er-	8180
gemeldet	8178
Mindest@@	8177
AC	8177
fortgeschrittenen	8176
bus	8175
hervor	8174
Des	8172
chil@@	8170
vermutlich	8169
führende	8167
osa	8165
Fremd@@	8164
Nutzen-Risiko-Verhältnis	8164
itäts@@	8164
Lon@@	8160
erreich@@	8160
enter@@	8160
emb@@	8157
mitteilen	8155
information	8154
Median	8151
Anwendungsgebiete	8145
Fachinformation	8144
α@@	8144
CA	8142
Tipranavir	8142
en.	8140
olo@@	8140
,4	8137
monatlich	8137
Ty@@	8136
Ali@@	8131
nationaler	8128
toxische	8128
bares	8125
gran@@	8125
Injektionszubereitung	8124
Lip@@	8124
Polypropylen	8123
Insbesondere	8122
Nich@@	8121
nahme@@	8118
EWG	8117
genannte	8117
klin@@	8116
Loratadin	8116
üf@@	8113
168	8112
bezieht	8111
és	8105
Em@@	8104
Karton	8104
größ@@	8104
Spielen	8103
143	8102
schütteln	8101
erzeugt	8101
Mischen	8096
121	8096
akzeptiert	8095
schlüsse	8092
struktion	8086
stärke	8086
Kop@@	8086
spru@@	8086
weisung	8084
OC@@	8082
Desloratadin	8081
Tschech@@	8079
Stoffe	8078
vol@@	8077
Vergleichs@@	8075
™	8075
Firmen@@	8074
fikation	8070
Reserv@@	8068
Ablauf	8067
proz@@	8067
urt	8066
pul@@	8065
persönlich	8062
Karvea	8061
Gewährleistung	8061
tödlich	8059
prin@@	8058
jüngeren	8056
potenzielle	8053
line@@	8052
gegenwärtig	8051
Amts@@	8051
behin@@	8051
Salbe	8048
Typ@@	8046
30.@@	8044
TS@@	8044
fünf@@	8043
box	8043
lingen	8042
Mikrokristalline	8042
zenden	8042
2,1	8041
ETIKETT	8039
Hoh@@	8039
Dexamethason	8036
Gummistopfen	8035
Kombinationen	8034
Immunogenität	8033
Seretide	8026
Einzelheiten	8025
Spezies	8024
024	8022
à@@	8022
zurückzu@@	8020
provi@@	8018
inneren	8018
dat@@	8017
qualit@@	8013
Ve@@	8013
i.v.	8010
Spitzen@@	8007
Empfängnisverhütung	8006
Unruhe	8005
Sonstige	8003
Cer@@	8003
Lar@@	8003
Prozesse	8003
modi@@	8002
Referat	8001
Saison	7999
product	7999
zyklus	7999
s.	7996
symptomatischen	7995
--@@	7995
Verschiedene	7995
absolut	7993
Effizienz	7990
Rau@@	7985
ktiven	7985
aufgeteilt	7984
terie	7983
Anschließend	7981
mieren	7979
positi@@	7978
ani	7975
Techni@@	7974
Auflösen	7973
Mutter@@	7972
zine	7972
96@@	7970
Gegenstand	7970
öl	7970
oten@@	7967
Wirkstoffs	7967
sämtliche	7965
Einen	7965
Stock@@	7964
ford	7963
schritt	7962
Kanülen	7961
cu@@	7960
gische	7958
rec@@	7954
ahr@@	7953
gefallen	7952
beantwor@@	7952
ablen	7951
Wirkstofffreisetzung	7948
dia	7946
geringeren	7945
Placebo-Gruppe	7945
Mobili@@	7944
Darstellung	7944
Kein	7944
,5	7942
Dun@@	7941
set@@	7939
aufnehmen	7936
Trotz	7935
Lamictal	7934
act	7934
dan	7933
Hämophilie	7933
Etikettierung	7931
koll@@	7931
Definition	7930
eur	7930
europäischer	7929
Herpes	7929
Bondronat	7929
koordin@@	7926
trock@@	7925
etzen	7925
einigung	7924
disp@@	7923
emea.europa.eu	7923
Muskelschwäche	7923
Aktiv@@	7922
98@@	7921
Gute	7921
Analysen	7920
Fak@@	7919
endi@@	7919
375	7915
EMEND	7914
unterstütz@@	7911
onalität	7911
identi@@	7909
ull@@	7907
sensi@@	7906
Mitarbeitern	7905
gas@@	7905
schätzen	7900
und-@@	7899
gerichtet	7898
stärk@@	7898
anpassen	7898
komplex@@	7894
ZU	7894
irgendwelche	7890
Verbesserungen	7890
stattung	7889
hierzu	7889
terin	7886
NovoSeven	7885
gelagert	7884
kehr	7884
gal	7883
konstru@@	7883
eingeschränkte	7882
mar	7882
erwähnt	7881
gigen	7880
Tamiflu	7879
vel@@	7879
Km	7879
Energ@@	7878
cat@@	7877
stattet	7876
Zucker	7873
identifiziert	7870
Altersgruppe	7869
Stimulation	7869
gere	7869
Regelung	7868
folgender	7867
negative	7867
Klin@@	7866
2,2	7865
pfen	7863
erter	7860
53@@	7856
vermuten	7856
IM@@	7854
Herzerkrankungen	7854
Hen@@	7850
azin	7850
Sum@@	7849
Dialyse	7848
symptomatische	7848
design	7847
binden	7847
geraten	7847
Af@@	7846
Slovenija	7843
tor	7841
ots@@	7833
Viani	7832
Obstipation	7831
Präparate	7830
Omnitrope	7830
gert	7829
reaktion	7826
RA@@	7824
extrem	7822
Herzfrequenz	7822
aufgefordert	7821
Mann@@	7821
Befunde	7820
vention	7819
Twinrix	7819
beinhalten	7819
Websi@@	7819
vas@@	7819
Adapter	7817
Injektions-	7816
wechsel	7814
aufgelistet	7813
abzusetzen	7813
schwerem	7812
Ohne	7812
Polyethylen	7811
bezogenen	7810
î@@	7810
Risiko@@	7810
verbesserte	7809
-1	7806
orts	7806
Entstehung	7804
Fortsetzung	7802
4,0	7800
AIDS	7799
Neur@@	7797
schein@@	7794
Gleichzeitig	7793
Hals	7791
sogenannten	7789
Lager@@	7787
Vit@@	7786
Lam@@	7786
Las@@	7786
ARZNEIMITTELS	7784
manu@@	7782
blu@@	7782
möglich@@	7781
Norvir	7780
500@@	7778
gelangt	7777
eth@@	7776
bein@@	7774
Advagraf	7771
CR@@	7770
Überein@@	7769
sais@@	7765
basieren	7763
ones	7762
Comp	7761
blin@@	7759
för@@	7759
reifen	7757
usten	7753
TH@@	7753
174	7752
fehlt	7752
zugänglich	7752
reib@@	7750
TAXOTERE	7749
betrachten	7748
entgegen@@	7746
PS	7745
Nahrungsaufnahme	7744
Natriumchloridlösung	7743
SD@@	7743
herzustellen	7743
82@@	7742
mü@@	7742
Hier@@	7740
deckung	7739
kehren	7738
psych@@	7737
Appetit	7736
Werkzeuge	7736
einsetzen	7736
RA	7735
dieselbe	7734
HR	7733
Hemmer	7732
Liter	7729
hemmen	7728
SUSTIVA	7727
uk@@	7724
Protopy	7723
Helicobacter	7723
radioaktiv	7722
sigen	7718
kum	7718
beurteilen	7717
Voraussetzungen	7715
Didanosin	7715
-2-@@	7715
Holl@@	7714
Partnerschaft	7714
CONSTA	7713
т@@	7711
passt	7710
auszufüllen	7707
strasse	7706
Dosisanpassungen	7702
verschreiben	7701
Einstichstelle	7701
,6	7699
Besonders	7699
spä@@	7699
arin	7698
namens	7698
dene	7698
ICH	7696
Zustimmung	7695
ai@@	7692
Benutzung	7691
ansteigen	7689
Erweiter@@	7688
ändi@@	7686
Nic@@	7686
Vardenafil	7684
1,9	7681
ona	7681
Wir@@	7679
Trizivir	7679
Professor	7678
Infusionen	7676
ärztliche	7675
Sanofi	7673
problem@@	7673
chtigkeit	7671
BM@@	7670
Brust@@	7668
EMEA-@@	7667
â@@	7667
Maß	7667
stech@@	7666
Standard-@@	7665
läne	7664
206	7664
Füßen	7659
dierte	7657
leiter	7656
Koma	7656
geringere	7654
bie@@	7652
Radioaktivität	7652
CHAMPIX	7652
ergreifen	7651
mas@@	7651
ovale	7650
CL@@	7650
kette	7648
CML	7647
Oste@@	7646
welchem	7646
Protein@@	7646
spezi@@	7645
gesprochen	7645
,3	7644
4,6	7642
Efexor	7639
berichte	7637
Kontrollen	7636
Belastung	7636
uner@@	7635
elte	7634
stattfinden	7630
elektronische	7630
Talkum	7630
Soliris	7629
chinesischen	7628
-Syndrom	7627
354	7627
etische	7625
Py@@	7624
vit@@	7624
stren@@	7623
ktiv	7621
Stalevo	7618
Vereinigte	7618
270	7618
Spuren	7616
tos	7616
Raptiva	7616
CT@@	7614
Pelzont	7614
fet@@	7614
risiko	7613
Povidon	7612
beauftra@@	7611
cts	7610
klärung	7609
Gefäß@@	7607
Computer@@	7598
dosen	7598
azität	7594
stor@@	7594
terminale	7593
voraus@@	7590
6.1	7590
limm@@	7589
Plasmaproteine	7588
113	7588
Ec@@	7587
ba	7587
³	7585
,9	7584
praktisch	7584
South	7582
Antikörper@@	7579
oralem	7578
bor@@	7578
herum	7575
2-mal	7575
X-@@	7574
sierungs@@	7572
1-	7571
Sirolimus	7569
hef@@	7565
aufgelöst	7563
TORISEL	7561
Gen	7561
IM	7560
sigkeit	7558
TER@@	7557
373	7557
Nervosität	7552
aly@@	7545
Papier	7541
vorzu@@	7540
Schritten	7538
Ohr@@	7537
UL@@	7537
Antidiabetika	7532
Lagerung	7528
Prote@@	7528
Urin@@	7528
einheit	7527
EV@@	7527
Venlafaxin	7527
wa	7527
Hä@@	7525
wahl@@	7525
Kortikosteroiden	7525
rieben	7525
Mas@@	7524
Prior@@	7521
mmen	7516
Führen	7516
trotzdem	7511
Abseamed	7509
vorgesch@@	7507
Mir@@	7506
verminderter	7502
mögen	7502
Index	7501
RoActemra	7500
Ort@@	7499
ierenden	7499
mussten	7498
freiem	7498
Rö@@	7498
langfristige	7496
verbinden	7496
ungsprozess	7495
A-	7494
Pferde	7493
zustand	7491
Gebie@@	7491
wahl	7491
schlecht	7491
Größ@@	7490
laut	7489
S.@@	7488
WA@@	7486
modu@@	7483
Weiße	7483
Siliciumdioxid	7482
NSAR	7480
dliche	7479
kleines	7478
angel@@	7478
Tredaptive	7477
OptiSet	7475
S.p.A.	7474
Erythropoetin	7470
Schädigung	7469
besprechen	7468
CA@@	7468
CE	7468
ley	7468
ola@@	7467
klein	7465
etin@@	7465
schätz@@	7465
Üb@@	7464
slich	7463
sent@@	7462
Binocrit	7462
müs@@	7460
weshalb	7458
ärer	7455
co-@@	7455
Überprüfen	7452
Previ@@	7450
wähl@@	7449
tikel@@	7445
Ärzten	7443
Nicotinsäure	7443
-Patienten	7442
Zun@@	7438
LAN@@	7438
Atmung	7436
25-@@	7435
Wechsel@@	7435
Drei	7434
Patientenjahre	7434
GP@@	7431
ebs@@	7428
zuständig	7426
Ot@@	7426
artigen	7426
umgewandelt	7424
vermindern	7423
Büro@@	7423
ABILIFY	7422
046	7414
Vertret@@	7413
orten	7410
erhoben	7407
Sklerose	7401
Gemfibrozil	7401
region	7400
Protopic	7399
Zul@@	7397
Insulin-@@	7397
Granulat	7396
ständigen	7396
Elektro@@	7395
Abbau	7394
Verletzung	7394
blaue	7393
ausgewählt	7393
Papier@@	7393
Atembeschwerden	7392
PT@@	7389
onder@@	7387
Emtriva	7386
abhängigkeit	7386
produkten	7384
Verantwor@@	7384
m.	7382
Wah@@	7382
Part	7378
INFORMATION	7376
Arzneimittelwirkungen	7374
akzep@@	7374
Healthcare	7370
dürfte	7369
Magyarország	7369
β	7368
Zonegran	7366
stimm@@	7365
Tar@@	7365
Selbst	7363
Jan@@	7361
g.	7359
atives	7359
Verstärkung	7357
TEXT	7355
muni@@	7354
getrennt	7352
verschieden@@	7352
m.@@	7351
Seiten@@	7351
ν@@	7350
Notfall@@	7350
Wär@@	7348
Hinsicht	7345
5000	7344
Wirkstoff@@	7344
Kochsalzlösung	7344
Ris@@	7343
vertret@@	7340
Typen	7340
ließ@@	7340
möglicher	7340
Lda	7336
inaktiviert	7333
Dur@@	7333
р@@	7332
kammer	7332
amm	7330
Entwurf	7328
STOCRIN	7328
133	7326
identisch	7324
	7323
Flecken	7321
stör@@	7320
dge	7319
Extra@@	7319
derartige	7318
lei	7317
Kivexa	7314
Jos@@	7311
SC	7309
EVRA	7308
NeoRecormon	7308
28.@@	7307
ires	7307
asten	7306
Calcium	7305
geisti@@	7300
dungen	7298
aufmerksam	7298
elektronischen	7293
Versuch	7289
2x	7289
deta@@	7287
Lor@@	7283
tiv	7283
Belgium	7281
sichergestellt	7278
alu@@	7277
Beteili@@	7276
quellen	7276
wiederholen	7276
Top@@	7275
Photo	7274
itis	7273
kardiovaskuläre	7272
fiel	7268
avi@@	7268
BV	7268
Dek@@	7267
VIRACEPT	7267
Rumänien	7267
analyse	7266
Tabletten@@	7266
ungsverfahren	7265
ase@@	7264
stoßen	7264
rekombinantes	7264
Januvia	7263
gangen	7263
ls@@	7263
Heilung	7263
ums@@	7262
kurz@@	7260
Truvada	7259
Brennen	7258
assoziierte	7252
Fett	7251
roter	7251
wachstum	7250
031	7249
fördert	7248
Gelbsucht	7245
→	7244
verse	7243
chron@@	7240
jet@@	7240
operativen	7238
angemessenen	7233
Langzeitbehandlung	7233
Nerven@@	7232
bot@@	7231
wies	7228
Posaconazol	7228
Impfungen	7228
tert	7226
190	7225
Tierarzneimittels	7219
218	7219
betrugen	7218
Reizbarkeit	7218
Nifedipin	7218
Ep@@	7217
visi@@	7217
CYP2C9	7217
Getränke	7217
din-@@	7217
doppelte	7214
jener	7214
wich@@	7213
alis	7213
verminderten	7212
fusion	7211
obje@@	7207
ausgeprägt	7206
Albumin	7206
erwarteten	7205
Beobachtung	7205
Schlucken	7203
beglei@@	7202
Stärken	7201
off	7200
beachtet	7200
Medikamenten	7199
besseren	7195
are@@	7195
datum	7195
start	7195
nochmals	7193
Viertel	7193
erheb@@	7192
Abbott	7191
Van@@	7191
BL@@	7187
Stunden-@@	7187
Stämme	7186
Doxorubicin	7184
eingereichten	7184
Fall@@	7183
Ram@@	7183
027	7180
indet	7178
ection	7178
ungs	7177
city	7177
EXUBERA	7177
arbeitungs@@	7176
Denken	7175
Knochenmark	7175
ssen@@	7172
lauf	7172
gerung	7169
Gegenanzeigen	7169
onie	7167
Bauch	7166
Herstell@@	7166
funktionen	7166
3,4	7164
Vic@@	7162
hinweg	7161
CIALIS	7161
hervorgerufen	7160
Trevaclyn	7159
gründlich	7157
ahr	7157
219	7156
tigem	7156
erfahrenen	7156
Unverträglichkeit	7153
Ani@@	7152
Drittel	7151
bess@@	7151
ZUR	7147
MabCampath	7146
Best@@	7145
vidu@@	7142
zusetzen	7142
Emulsion	7141
Markierung	7141
Resistenz@@	7140
049	7140
2-	7139
korrekt	7138
schar@@	7137
Gelatine	7136
verbrei@@	7135
gige	7134
ι@@	7134
massi@@	7133
Bauch@@	7132
wider	7132
spre@@	7132
Behin@@	7131
ome@@	7130
94@@	7128
omer	7128
ne-@@	7128
Demenz	7127
erende	7126
ge-@@	7125
Kommunikations@@	7123
verzögert	7123
lichsten	7123
schwarz	7121
ekt@@	7121
ege	7120
025	7119
pur@@	7119
ekt	7117
137	7116
Fuzeon	7114
Cholestagel	7113
LD@@	7113
Actrapid	7113
OPA	7109
kations@@	7108
MR@@	7105
änder@@	7104
krank@@	7102
scheinen	7102
Eliminationshalbwertszeit	7101
Filter	7101
Mitgliedern	7099
gelassen	7096
Insulatard	7094
ähnliches	7093
Bauchspeicheldrüse	7093
Protokoll	7091
hohes	7087
Management@@	7087
wendungen	7087
Verhinderung	7087
ew@@	7082
Lebensmittel	7081
aufrechterhalten	7078
infektion	7078
gter	7076
229	7074
Blutdruckabfall	7074
v.@@	7073
ungewöhnliche	7073
Beinen	7072
randomisierte	7072
aft	7072
Dosierungsschema	7070
anzupassen	7069
Strahlentherapie	7067
pti@@	7066
licht@@	7066
Č	7065
3,6	7064
Development	7063
krankheit	7061
utsch@@	7061
tags@@	7060
litten	7059
come	7058
orb@@	7058
linien	7056
Slovenská	7054
fälli@@	7053
Messlöffel	7052
63@@	7052
ungsmittel	7051
Alkohol@@	7051
and-@@	7050
bewertung	7049
einfacher	7048
Haushalt	7046
Star	7046
fizier@@	7046
olen	7045
arium	7044
Gau@@	7041
Protaphane	7040
angewendeten	7040
rank@@	7039
erinnen	7039
griff@@	7038
terung	7037
Vorsitzender	7036
uk	7035
inform@@	7034
Company	7034
Unterteil	7031
A.@@	7031
üse	7026
akt@@	7025
cell@@	7021
Beglei@@	7017
201	7017
Todesfälle	7017
Wann	7016
Rein@@	7015
Vielleicht	7014
124	7014
nachfolgend	7012
Capecitabin	7011
196	7005
gefüllt	7004
hlen	7003
Unterlagen	6999
â	6998
Zavesca	6997
erleichtern	6994
gere@@	6990
AF@@	6985
ausgelöst	6985
General	6985
ect@@	6984
DA	6980
initi@@	6977
max@@	6977
scher@@	6977
änden	6973
tief	6972
tierung	6972
026	6972
NutropinAq	6972
spezifisch	6971
Part@@	6970
Lebererkrankungen	6967
ame@@	6967
Enviage	6966
Laboratories	6965
Berichterstat@@	6965
umfassenden	6962
Immunität	6960
länge	6959
Rab@@	6959
Follitropin	6959
Baby	6957
blatt	6956
Monats	6954
hit@@	6953
sterilen	6953
spektive	6950
Eingriffen	6949
Erhaltungstherapie	6947
uti@@	6946
Verzögerung	6946
Pasteur	6944
rt@@	6941
ACE-Hemmer	6938
Office	6936
gat@@	6934
12,@@	6933
indungen	6932
parti@@	6930
ungsprogramm	6929
körper	6928
prop@@	6925
sterben	6925
Blutgerinnung	6923
TESAVEL	6922
thi@@	6920
blutung	6920
Sirup	6917
Telithromycin	6915
log10	6913
ton@@	6910
Dokumenten	6909
Neulasta	6907
wertes	6907
Versagen	6906
zerti@@	6905
Dynepo	6904
tili@@	6904
Jung@@	6904
gegenwärtigen	6904
bemer@@	6902
Slowenien	6902
männliche	6901
rekombinanter	6901
Diovan	6900
rän@@	6899
schuss	6898
alli	6898
al-	6893
mass@@	6892
Verfärbung	6892
ogene	6885
023	6884
Träume	6884
r-@@	6884
ras@@	6884
üren	6882
Sandoz	6881
uliert	6880
verantwor@@	6878
Oberschenkel	6878
durchschnittlichen	6878
grü@@	6877
oxy@@	6877
Harn	6877
205	6875
mangel	6875
Mg	6873
geklärt	6870
ellen@@	6870
metastasiertem	6868
Nierenproblemen	6865
INTELENCE	6862
beobachtete	6861
Kart@@	6858
antiretrovirale	6858
klassischen	6857
gewisse	6855
ULN	6852
längeren	6852
entfer@@	6851
sed	6850
verwaltung	6850
MIRAPEXIN	6848
differ@@	6846
Aktivierung	6846
ji@@	6845
var@@	6840
akt	6840
pharmakologischen	6838
haber	6838
Bin@@	6838
UMKARTON	6837
Technische	6837
stands	6836
203	6833
boden	6831
Wyeth	6831
Folgenden	6829
versor@@	6829
Voraussetzung	6826
bildungs@@	6826
japan@@	6826
ump@@	6825
ul	6825
Kilogramm	6822
Organe	6821
Amp@@	6821
MB@@	6819
Fru@@	6818
Glustin	6817
zugs@@	6816
IONSYS	6816
abgegeben	6814
Vermeidung	6812
bewähr@@	6811
hämatologischen	6811
Schizophrenie	6811
erkennt	6809
1500	6808
postmenopausalen	6807
physikalische	6806
inzwischen	6805
markierten	6805
Etravirin	6804
Leit@@	6802
4,4	6800
staatlichen	6799
Injizieren	6799
gram	6798
Sprimeo	6797
biologischen	6796
Medizin	6795
zwölf	6794
vorgesehenen	6793
Phosphatase	6792
adr@@	6790
195	6790
Hypoglykämien	6789
May@@	6787
Beseitigung	6785
vermögen	6784
SL@@	6784
jegliche	6784
Revlimid	6782
Stärkung	6781
415	6781
155	6780
bewirken	6779
Drehen	6778
entsorgt	6777
isation	6776
späteren	6776
chern	6774
innere	6774
Valtropin	6773
weitgehend	6771
Behandlungsgruppen	6771
alb@@	6771
passen	6770
früh	6769
frem@@	6768
SA@@	6766
Verabreichungsort	6764
urit@@	6764
wesentliche	6763
HD	6762
tisches	6762
Dub@@	6761
fikationen	6761
geschi@@	6761
Partnern	6761
oren@@	6761
geltenden	6760
Wiederaufnahme	6759
Unterzuckerung	6758
maß@@	6756
Hypokaliämie	6755
malige	6754
Direktor	6754
ähnlicher	6753
ake	6753
ander	6752
Offen@@	6752
Scre@@	6751
empfindlich	6748
Verhaltens@@	6745
stem	6745
Vergleich@@	6744
s.r.o.	6742
verh@@	6740
Gesichts@@	6740
elem@@	6740
Fahren	6740
steigern	6740
äuse	6740
befolgen	6738
Hir@@	6735
verringerten	6735
028	6735
Ath@@	6734
untersuchungen	6731
Lebensqualität	6730
Gelenke	6729
Oy	6726
entes	6725
CO	6724
rechnen	6720
Kineret	6720
Möglicherweise	6719
LO@@	6718
orm@@	6711
fassung	6711
enes	6711
Subkutane	6711
allmählich	6708
Fertigpens	6708
Behandlungszyklus	6707
SUTENT	6707
Verschreibung	6705
mierung	6705
geleitet	6704
ebsi@@	6704
endo@@	6704
Std.	6702
osen	6701
aufwiesen	6696
eingesch@@	6694
Set	6694
CM@@	6694
tic	6692
Blutdrucksenkung	6689
g-	6688
Periode	6688
denjenigen	6687
5.000	6685
eská	6685
Strasse	6684
uz@@	6682
induziert	6680
Hauptstudie	6677
satzes	6675
n-	6673
wohl@@	6671
Thymanax	6671
Ansprechrate	6668
029	6667
optimi@@	6663
Maus	6663
kontinuierlich	6663
Valdoxan	6663
ebr@@	6662
kürz@@	6661
Riprazo	6660
ci	6659
Kautabletten	6656
gelö@@	6656
Trocken@@	6656
Diacomit	6653
Bradykardie	6651
ukle@@	6651
Phän@@	6650
ú@@	6649
ffi@@	6647
μ@@	6646
Wirkungs@@	6646
Quixidar	6645
extra@@	6644
anstatt	6642
Sep@@	6642
Fäzes	6642
laufende	6642
Busilvex	6642
Wör@@	6642
Kammer	6641
erat@@	6640
äußere	6639
Krank@@	6635
Schaden	6635
festen	6634
erhebliche	6632
HR@@	6632
Institute	6630
ationsp@@	6630
Erkenntnisse	6623
Os@@	6621
Blutungsrisiko	6620
Plus	6620
bereitgestellt	6620
blau	6620
ließen	6619
Tritace	6618
ALL	6618
Nie@@	6617
Oc@@	6615
hierfür	6612
Timolol	6612
Mehrfach@@	6607
Herzens	6604
Blockade	6604
korrekte	6600
Risperdal	6598
Thalidomide	6598
geschwindigkeit	6597
ßte	6595
Empfän@@	6594
KM@@	6594
23.@@	6594
gewünschten	6594
derjenigen	6593
4.1	6592
Meg@@	6592
wäss@@	6592
sprochen	6588
Heil@@	6588
zuführen	6586
leidet	6586
sein@@	6585
oma	6583
Tragen	6583
Einigung	6582
208	6580
gebli@@	6580
Erythromycin	6580
ο@@	6578
Metall@@	6576
Programmen	6576
Ange@@	6573
Blähungen	6571
eingestuft	6568
gas	6567
Höchst@@	6566
Ísland	6566
EM@@	6564
pop@@	6563
Spezial@@	6563
fortsetzen	6561
Ebixa	6560
is-@@	6558
verabschiedet	6557
ARICLAIM	6556
Â	6555
on-	6555
Granulozyten	6552
aktu@@	6552
kombinierte	6551
vorlegen	6548
212	6548
behörde	6548
Vin@@	6547
Meldungen	6546
äum@@	6545
Tasigna	6545
mol@@	6542
nüchternen	6541
κ@@	6540
externen	6540
Muskelkrämpfe	6539
Efient	6539
Kontakte	6538
Herz-	6536
279	6534
fertigt	6533
jeglicher	6532
Pferden	6532
Festlegung	6531
steri@@	6530
Velmetia	6530
zo@@	6530
Mitarbei@@	6528
Weil	6524
tetes	6523
Icandra	6523
ple@@	6522
Fabri@@	6522
ologie@@	6521
pfle@@	6521
trol	6520
3-	6518
hinreichenden	6518
0,05	6517
Phasen	6516
PP	6515
lam@@	6513
039	6513
21@@	6512
HIV-infizierten	6512
ester@@	6511
MM	6511
Gebur@@	6510
Hepatitis-B-@@	6507
uz	6507
Phenobarbital	6507
bewegt	6506
bildungen	6506
Stomatitis	6505
Den@@	6503
währ@@	6503
ham	6502
Wach@@	6500
zubereitet	6498
eits	6498
DepoCyte	6496
TER	6495
ulier@@	6495
zusammengefasst	6494
sät@@	6494
Gegenwart	6493
INCRELEX	6489
förder@@	6489
generell	6487
Gardasil	6486
Alopezie	6484
bio@@	6483
stehend	6482
Füße	6481
Lenalidomid	6481
LE	6479
P.	6479
stabilen	6478
Serumspiegel	6477
demi@@	6477
GEN@@	6475
Blutspiegel	6475
offensichtlich	6474
Fax@@	6473
Dafiro	6473
í	6472
Janumet	6470
neur@@	6468
Mineral@@	6468
ASS	6468
hierbei	6468
forderungen	6466
Bulgarien	6465
umfan@@	6463
analysiert	6463
089	6463
Genotoxizität	6459
verpackt	6459
145	6457
stungen	6456
Wild@@	6456
fasst	6455
unerwünschter	6455
Kandi@@	6455
gesteigert	6454
Plastik@@	6453
Stellung	6452
Pack@@	6452
BOEHRINGER	6452
DULOXETINE	6450
INVEGA	6450
Temperaturen	6450
GE	6450
besei@@	6448
mechan@@	6448
Aprovel	6448
Packungsgröße	6447
CYP	6447
Maraviroc	6446
unterscheidet	6445
Zomarist	6443
legten	6442
Effe@@	6442
Mund@@	6440
Entnahme	6438
unde@@	6438
Thalidomid	6435
eck@@	6434
ose-@@	6434
`@@	6434
Galvus	6432
Kos@@	6432
Parkinson-Krankheit	6432
zeitraum	6431
086	6430
sitzen	6424
Weiß@@	6422
ulat@@	6420
P450	6419
136	6417
freiwil@@	6416
kontrollierte	6416
Lucentis	6415
Hypercholesterinämie	6414
erteilt	6414
gelesen	6413
blieben	6411
delst@@	6410
gedacht	6409
147	6408
dau@@	6406
schützt	6406
IU	6406
Anaphylaxie	6405
EUR@@	6404
fizieren	6403
entliche	6402
angs@@	6402
bewerten	6401
Darreichungsform	6400
Eucreas	6396
Zerit	6396
deh@@	6395
ania	6394
Physi@@	6394
в@@	6394
Verbreitung	6393
vermittelt	6392
Anschwellen	6392
Ansprechpartner	6391
zentralisierten	6391
σ@@	6391
By@@	6390
geschluckt	6388
Pravastatin	6386
resistent	6385
fektion	6384
Invega	6383
0,01	6382
Versuchsmodellen	6382
höherer	6381
absetzen	6378
sinkt	6377
Ratio	6376
114@@	6375
dauerhaft	6375
Vas@@	6372
Flüssigkeits@@	6372
tages@@	6371
zes@@	6370
3,2	6370
Extremitäten	6369
Zen@@	6368
eingehalten	6368
angen@@	6367
tatsäch@@	6366
Mütter	6364
Nervensystem	6364
DNA-@@	6362
daten@@	6362
ala	6359
kateg@@	6359
lösungen	6359
Achten	6357
lossenen	6357
ete@@	6355
sech@@	6354
rigen	6354
geschätzt	6351
sichtlich	6351
Lit@@	6350
258	6349
aufzunehmen	6348
erfolgreiche	6348
Abatacept	6348
Tierstudien	6347
INGELHEIM	6347
lief	6343
ORENCIA	6342
Ranexa	6340
,1	6340
Myocet	6340
untersuchung	6340
mittlung	6339
Kalzium@@	6338
SE	6336
Xeomin	6335
bikonvexe	6335
uläre	6334
1-2	6334
plo@@	6334
traum@@	6334
207	6332
Akne	6332
Rezeptor	6331
unterschiedlicher	6331
188	6330
seit@@	6330
Angiotensin	6330
ax	6329
spruch	6329
Plasma-@@	6328
Alp@@	6327
tis@@	6327
uth	6327
digitalen	6326
solches	6326
isch-@@	6325
Adv@@	6324
Behälter	6322
block@@	6321
internen	6319
gehol@@	6319
Enthält	6318
nich@@	6318
pos@@	6317
bevorzu@@	6312
Freisetzung	6312
gehende	6311
hämatologische	6311
meer	6310
uß@@	6309
disku@@	6307
erwar@@	6305
Propylenglycol	6305
Augentropfen	6304
ys@@	6303
Parlam@@	6302
chungen	6300
zuzu@@	6299
,0	6299
körperlichen	6298
Vectibix	6297
Corp@@	6297
rd	6296
außen	6296
Copalia	6296
Lethargie	6295
trächtigen	6295
benötigten	6294
hinein	6293
Fluconazol	6293
fäl@@	6293
einstellen	6292
Stabili@@	6289
anaphylaktische	6289
Krebs@@	6288
verhäl@@	6287
Meloxicam	6285
Gastrointestinaltrakts	6284
Somit	6282
stete	6282
potenziell	6282
Angelegenheit	6282
intramuskulär	6281
sichtbare	6281
üß@@	6280
jähr@@	6279
ong@@	6278
Erkenn@@	6276
tnissen	6275
234	6273
Thrombozyten	6272
falsch	6272
verursachten	6268
fortgeschrittener	6268
Akkumulation	6267
4000	6267
Bedien@@	6266
Thromb@@	6266
Konzentrations@@	6266
vorbereitet	6266
unterstützende	6266
entscheidet	6266
greiche	6263
Sonnenlicht	6262
HBV	6261
Immunglobulin	6260
kbar	6258
dom@@	6258
PhotoBarr	6256
PACKUNG	6255
Taubheitsgefühl	6255
den-@@	6253
l.	6253
ausgerichtet	6252
Hein@@	6251
Levemir	6251
285	6251
221	6251
Folgendes	6251
Intel@@	6250
MicardisPlus	6249
Amt	6248
Dynastat	6247
primär	6246
trübe	6245
Luftblasen	6242
10x1	6240
koh@@	6239
Celgene	6238
Auges	6237
Strei@@	6236
Adalimumab	6236
empfän@@	6236
EWP	6236
äm@@	6235
termin@@	6235
zunehmend	6231
Termin	6231
Leitlinie	6231
EXJADE	6230
ühr@@	6230
Kortikosteroide	6230
Wirkmechanismus	6229
waschen	6229
schienen	6229
veröffentlichten	6228
CYP2D6	6226
Wachstums@@	6225
Carb@@	6225
Begründung	6225
abe	6223
Kau@@	6222
3,1	6221
stü@@	6220
Niederlanden	6219
induzierte	6213
к@@	6213
ell-@@	6212
vertra@@	6212
aufgebaut	6212
Thrombozyten@@	6211
chemischen	6209
ogenen	6209
abzubrechen	6205
vergleich@@	6205
ergänzt	6204
II-@@	6204
wachsenden	6204
höhe	6203
Finger	6203
Pradaxa	6202
bezeich@@	6201
Body	6200
schüt@@	6199
multiforme	6197
prägt	6195
Imprida	6193
Dop@@	6191
Fö@@	6190
Lev@@	6188
raft	6187
Weiteren	6186
systemischer	6185
biologische	6185
Freiwilligen	6184
gleichmäßig	6184
Ech@@	6183
treatment	6182
Etwa	6182
geplanten	6181
464	6181
tests	6180
Tube	6180
malen	6179
post	6178
Len@@	6178
anerkannt	6174
osis	6173
ZI@@	6172
Kit@@	6171
fluss	6169
Missbildungen	6168
vertraut	6166
sweise	6166
separate	6165
LU@@	6164
humanes	6164
verur@@	6163
Efficib	6163
clo@@	6160
bestehender	6159
Darm	6159
separaten	6159
werden.	6158
einheiten	6157
Therapiebeginn	6156
Ern@@	6155
Combivir	6155
hingegen	6154
effektive	6154
schicht	6153
Hemm@@	6152
Orlistat	6151
Lantus	6150
erfolgreichen	6149
optimal	6148
otischen	6147
lat	6147
Dasatinib	6147
Erythema	6146
CYP3A4-@@	6146
signifikanter	6144
2,9	6143
Axura	6142
Frem@@	6141
Nadel@@	6140
bewirkte	6140
60-@@	6139
½	6139
festgelegten	6139
Fetus	6139
überwiegt	6139
früh@@	6138
Xigris	6138
beige@@	6136
aufbewahr@@	6135
Berechnung	6131
findung	6130
Nahrungsmittel	6130
Absicht	6128
sogenannte	6126
erkannt	6124
Eintritt	6122
kose	6122
FS@@	6121
organisation	6120
162	6119
jenen	6119
blauen	6119
iler	6119
tiefen	6116
XX@@	6112
PritorPlus	6112
Ih@@	6111
gehend	6106
ican	6106
ulieren	6105
entwick@@	6105
SOMAVERT	6103
Beine	6103
blei@@	6102
Vorhandensein	6101
bewe@@	6098
Imatinib	6095
Enzyms	6095
Rinder	6093
dos@@	6092
Mail	6089
Lisinopril	6088
377	6088
Frist	6087
klaren	6087
organisationen	6086
3,9	6085
Cerivastatin	6084
enten@@	6084
abgesch@@	6084
Muster	6083
stecken	6083
Les	6083
Mimpara	6083
ov	6082
bezogene	6080
falsche	6080
nie@@	6079
Geburts@@	6078
Silgard	6077
jährlichen	6076
verpflich@@	6074
Erschein@@	6074
Dal@@	6072
Prozentsatz	6072
ARZNEIMITTEL	6071
Trächtigkeit	6069
bereichen	6068
eintritt	6068
kurzer	6067
Ethanol	6067
blut@@	6066
spüren	6065
gehei@@	6065
liger	6061
jk	6061
Nesselsucht	6060
bestimm@@	6059
dose	6059
halb	6058
chter@@	6057
höch@@	6056
Kulturen	6055
4,2	6053
Sul@@	6052
unkte	6049
,2	6049
Stei@@	6046
Spektrum	6045
erhöhtem	6044
Proben	6043
Unternehmers	6043
typ	6042
Esp@@	6039
ERN	6039
Nausea	6036
13,@@	6036
film@@	6036
SIFROL	6036
kontinuierliche	6035
Verbraucher@@	6035
Erste	6035
eta	6033
intramuskuläre	6032
mpel	6030
Auffrischimpfung	6030
n.	6028
och@@	6027
4-	6027
Nobilis	6026
Nachkommen	6026
,8	6025
elo@@	6025
356	6022
Kalium	6022
Steuer	6020
117	6019
cul@@	6018
ºC	6018
.....	6018
CR	6018
einmalige	6015
verwerfen	6014
yli@@	6014
Seltene	6010
č@@	6010
Antikoagulanzien	6009
1600	6002
sulfat	6001
D.	5997
Knochenmark@@	5997
siertes	5995
Adefovirdipivoxil	5992
Fur@@	5991
RotaTeq	5991
Cholesterin	5990
PA@@	5990
gehör@@	5989
verzeich@@	5988
Vorher@@	5988
Immunsuppressiva	5988
grundsätzlich	5987
CRIXIVAN	5986
Isotretinoin	5986
jemals	5985
Leflunomid	5985
ktors	5984
-System	5984
Referenzarzneimittel	5984
Zucker@@	5984
vorgeschlagene	5982
auswirken	5982
TRISENOX	5981
kurzfris@@	5980
u.@@	5978
ograph@@	5978
typischen	5977
GENEHMIGUNG	5976
II.	5976
aseptischen	5975
Bronchitis	5975
cro@@	5973
krankheiten	5973
5,6	5970
obi@@	5969
Dokument@@	5969
276	5967
benötigte	5963
Feuchtigkeit	5962
DR@@	5959
ünsch@@	5957
GI@@	5956
Zusätzliche	5955
5,4	5954
10,@@	5949
-Lösung	5949
INFAI	5949
verwand@@	5947
arin@@	5946
induzierten	5946
unmöglich	5945
Säuglinge	5945
Versorgung	5944
-Hemmer	5944
bakteriellen	5943
ME	5943
mik	5942
Tierexperimentelle	5942
ahlen	5941
o.o.	5941
Diskus	5941
diskutiert	5939
cti@@	5939
chti@@	5938
Rifabutin	5938
Leberversagen	5937
hinaus@@	5937
dosis@@	5935
Erreger	5935
überein	5934
Richt@@	5933
Rem@@	5930
PI@@	5928
Parareg	5927
Clofarabin	5927
Flush	5926
berichtete	5925
Vorsitz	5923
Konsult@@	5923
Injektionsspritze	5921
Zypern	5921
ProQuad	5920
Pharmazeutischen	5919
produkt	5915
unterbrechen	5914
Phar@@	5913
etischen	5913
aris	5905
Aufnahmen	5905
Zus@@	5904
errech@@	5904
Betreuung	5903
vierte	5903
oo	5903
sep@@	5900
ausgew@@	5900
schriften	5900
fix@@	5900
Muskel	5899
032	5899
ema	5898
Solche	5898
Wasserlassen	5897
6000	5895
AK@@	5893
Gewebe@@	5893
omet@@	5893
Bul@@	5892
Corporation	5892
toxischen	5891
Kleidung	5890
066	5889
ös	5889
ende@@	5887
potentielle	5887
Höchstdosis	5887
renalen	5886
bekämpf@@	5886
Verdauungsstörungen	5886
Nam@@	5885
Nasenbluten	5885
meistens	5884
Institu@@	5882
beibehalten	5882
Italy	5881
Konta@@	5879
Alg@@	5879
onia	5877
Auftropfen	5875
SoloStar	5875
manche	5874
niveau	5874
Stufe	5873
Lumiracoxib	5873
с@@	5872
OV@@	5871
Proteaseinhibitoren	5871
oval	5870
rekombinanten	5869
b.@@	5869
tret@@	5868
bewegung	5867
EIN@@	5867
TM@@	5866
stherapie	5865
unterliegen	5864
Wass@@	5862
drückt	5862
Bac@@	5861
gastrointestinalen	5859
medizinisches	5859
Transfer@@	5857
symptome	5856
202	5856
obe	5855
appli@@	5855
Schema	5852
uter@@	5852
abb@@	5852
Berat@@	5849
Kühl@@	5848
Fort	5847
ermitteln	5847
refer@@	5847
HIV-1	5846
lin-@@	5845
diagnostiziert	5844
Coll@@	5843
wend@@	5843
rh@@	5840
Ketek	5838
ubli@@	5837
rü@@	5836
Ansprechraten	5835
potenziellen	5832
field	5832
transdermales	5831
Abraxane	5831
Econor	5831
Viread	5830
Aspekt	5830
Behörde	5829
Score	5829
arbeits@@	5827
Romiplostim	5827
schäden	5826
Tetanus	5825
spitze	5825
Carbidopa	5824
enthaltene	5823
vornehmen	5823
Norm@@	5822
Rimonabant	5821
xe	5821
müh@@	5821
benen	5820
mehrerer	5818
gelung	5817
Blutgerinnseln	5816
modell	5816
Dyna@@	5815
Renagel	5814
Allergische	5813
ausgewählten	5813
wäsche	5812
Positionen	5811
HA@@	5810
Hydrochlorid	5806
Variabilität	5805
Symp@@	5803
Science	5802
vorzunehmen	5801
Rechnungs@@	5798
Behandlungszyklen	5797
vorschriften	5795
ease	5792
Gemeinschaften	5790
able@@	5790
PAH	5790
Körpertemperatur	5789
Gabapentin	5788
strahlung	5787
Haare	5787
arme	5787
Wirksamkeits@@	5784
Todes@@	5783
Ansprechens	5781
sexuellen	5781
methoden	5780
lic@@	5780
Infusionsbeutel	5779
Suboxone	5777
Kra@@	5774
tenen	5774
Repaglinid	5773
6,7	5772
strie	5770
ska	5768
drän@@	5768
behörden	5768
Beobach@@	5768
MP	5767
6,0	5766
fizierte	5766
Bilirubin	5764
5-	5763
Peri@@	5760
Staphylococcus	5760
ändert	5759
reicher	5758
ziel@@	5758
Blutungs@@	5758
High	5757
ergeb@@	5756
üben	5756
schema	5755
erniedrigt	5753
vergess@@	5753
NS@@	5752
Sofern	5752
stärkere	5751
Folge@@	5751
ot-@@	5750
aktuell	5749
99,@@	5749
3,8	5747
formation	5746
Wesentlichen	5745
Tab@@	5745
Sicht@@	5742
zerstört	5740
chmal	5740
separ@@	5739
ord	5738
langfristigen	5737
ics	5737
magensaftresistente	5736
Jalra	5734
absol@@	5734
PACKUNGSBEILAGE	5733
Sonata	5732
Epivir	5731
165	5730
gebil@@	5730
0,000	5728
handelte	5727
bedroh@@	5727
weibliche	5725
ansprachen	5725
mg-Dosis	5725
effektiv	5724
C.@@	5724
Baxter	5723
pflich@@	5723
Einer	5721
clinical	5721
schlägen	5720
geimpften	5719
tikel	5719
Vergrößerung	5718
166	5718
versteht	5716
Level	5715
vermehrtes	5713
aux	5712
glei@@	5711
mikro@@	5709
Beweis	5707
Suchen	5707
tigungen	5706
gerei@@	5705
kleinere	5702
wöchiger	5701
Lymphozyten	5700
GL@@	5700
ministerium	5699
Freien	5699
entscheid@@	5694
gegebenen	5694
OS@@	5693
I.	5693
grippeähnliche	5692
Interaktion	5692
standards	5692
3,7	5687
vorgefüllte	5686
Sim@@	5685
6,5	5684
ologen	5684
Zit@@	5683
Tekturna	5683
quenz	5683
Neupopeg	5682
Hämoglobinwert	5682
dieselben	5681
Erfüllung	5680
Dritte	5678
›	5678
vorübergehenden	5677
141	5676
relative	5676
kardi@@	5676
ständen	5673
Hitzewallungen	5673
Sedierung	5672
gerechnet	5672
Prioritäten	5671
krebs	5671
Kohlen@@	5669
5,5	5669
Vorliegen	5668
unkt	5665
Aer@@	5665
Thelin	5663
Ventavis	5663
Haemophilus	5662
sige	5661
Gegenstände	5661
tikum	5661
ographie	5661
Aktualisierungen	5660
Sorge	5659
Aluminium-Blisterpackungen	5659
ungsproz@@	5657
-5	5655
konsultieren	5655
anhaltenden	5653
Fehlens	5653
Logo	5653
Trinkwasser	5652
strom	5651
rauchen	5650
Häm@@	5649
vorzulegen	5649
Ig@@	5647
Wiederhol@@	5647
N.V.	5646
verfol@@	5646
Doxycyclin	5646
ziele	5646
othek@@	5645
tägigen	5643
Vall@@	5643
FR	5642
Antiepileptika	5636
bru@@	5635
fehlen	5633
AND@@	5633
Ethinylestradiol	5633
rekombinante	5632
ulären	5632
meldungen	5632
bestä@@	5629
avenue	5628
etab@@	5627
Optimierung	5626
ret	5626
Anwendungsgebiet	5623
UNGEN	5623
Dosierungsempfehlungen	5623
Serumkonzentrationen	5622
lymp@@	5620
Nycomed	5619
Entecavir	5619
notwendige	5619
ZOSTAVAX	5619
genehmigten	5618
π@@	5618
Actos	5617
fetale	5616
einzuleiten	5615
stechen	5615
Milano	5614
gkeits@@	5614
INVERKEHRBRINGEN	5614
Proteasehemmern	5614
CYP1A2	5613
Lapatinib	5611
üblich	5611
Plavix	5610
Bewusstsein	5607
diabetischen	5607
teils	5605
verstärkten	5604
gerungen	5603
teur	5602
Misch@@	5601
Hyperkaliämie	5600
fluss@@	5599
dreh@@	5599
rasch@@	5599
stützen	5598
flaschen	5597
hyper@@	5597
sinn@@	5595
5,7	5595
personen	5594
oli	5594
319	5593
Einschränkungen	5593
Produkts	5591
Bol@@	5591
Reich@@	5590
lex	5588
East	5588
kür@@	5587
Micardis	5586
Klassi@@	5586
vermittel@@	5586
stöß@@	5586
vergleichbare	5585
Katze	5584
Schwächegefühl	5583
Mitglied@@	5583
FABLYN	5582
301	5580
kappe	5579
anti-@@	5579
405	5579
Isoenzyme	5578
ausgenommen	5578
sk	5576
anhaltende	5575
Mitgliedsstaat	5575
Ausschüsse	5575
-21	5574
ry@@	5572
Lun@@	5571
Aluminium-@@	5571
BEDINGUNGEN	5571
wech@@	5571
Berech@@	5570
Stich@@	5567
Myopathie	5567
rige	5566
syl@@	5563
Still@@	5561
Anbetracht	5561
Rotarix	5561
essen@@	5561
beteiligten	5561
ADROVANCE	5561
ginnen	5559
gefügt	5559
Konservierungsmittel	5558
faktor	5558
bezieh@@	5558
vorkommen	5558
Gummi@@	5555
Sachverständigen	5554
erfasst	5552
wach@@	5552
verlängerte	5551
Performance	5551
Cel@@	5550
einhergehen	5547
Regelungen	5547
Inform@@	5546
Hydro@@	5546
1987	5545
Tandemact	5541
Insulins	5541
behältnis	5540
materialien	5540
Kompon@@	5538
Sig@@	5537
Tierarzt	5537
ffizienz	5533
Pharmakokinetische	5533
ehr	5533
entsprechender	5533
PP@@	5532
teilte	5532
assoziierten	5531
Beachten	5531
BP@@	5530
ent-@@	5530
Psoriasis-Arthritis	5529
direkter	5529
zugunsten	5528
äußeren	5528
Doribax	5528
412	5527
Rückseite	5527
ärztlichen	5526
Inovelon	5526
Sodbrennen	5526
Erklärungen	5525
phen	5524
085	5524
29.@@	5524
Pregabalin	5524
Herkunft	5524
nehmen@@	5524
Industrial	5523
In-vitro-Studien	5521
OSSEOR	5521
unge@@	5521
Ersatz	5521
ätigkeit	5519
mid@@	5519
AI@@	5517
ih@@	5517
HBVAXPRO	5516
chens	5515
abgebaut	5515
limi@@	5514
Infusat	5511
beizu@@	5511
auftretenden	5510
214	5508
Kranken@@	5506
abschätzbar	5506
Trock@@	5506
Kath@@	5505
Urspr@@	5503
Kommissions@@	5503
amo@@	5503
me-@@	5502
Emp@@	5502
stär@@	5500
Hef@@	5500
Gemeinsamen	5500
Steady	5497
getr@@	5494
ines	5494
geren	5493
Flo@@	5492
äuß@@	5491
ffizi@@	5491
Gelegentliche	5490
Transpor@@	5490
213	5490
Bosentan	5490
AND	5490
Vö@@	5489
Erforder@@	5489
Beobachtungs@@	5488
Antipsychotika	5487
langer	5487
bewäl@@	5486
Maßnahme	5486
Schlei@@	5485
Cubicin	5483
Lithium	5482
pel@@	5482
all-@@	5481
Blisterstreifen	5481
Zerene	5480
Hautausschläge	5480
Lacosamid	5479
Ohnmacht	5478
Saint	5478
Leberproblemen	5477
Rauchen	5477
zwin@@	5477
geänderten	5475
550	5472
Gutachtens	5471
lichkeits@@	5470
Pur@@	5469
DC	5469
40-@@	5468
gesetzten	5468
anerkan@@	5468
offizielle	5467
ix	5467
Royal	5467
freier	5466
Weiterhin	5465
Wand	5465
Proteinurie	5464
Ivabradin	5464
Az@@	5462
ACE-Hemmern	5462
sexuelle	5461
Wiederherstellung	5460
Kinzalkomb	5460
schädigen	5459
befri@@	5458
Anwesenheit	5457
Revision	5456
dag@@	5455
NV	5454
Iscover	5453
obili@@	5452
klar@@	5451
Pritor	5451
ée	5450
EU-Mitgliedstaaten	5449
Takeda	5448
Absorption	5448
nia	5447
detaillierte	5445
Rituximab	5443
öser	5443
schwarzen	5442
As	5441
Gebühren	5439
Oran@@	5439
glas	5436
bedingter	5436
Bewegungs@@	5436
Hemmern	5434
Weiterentwicklung	5433
spezifischer	5433
Wirkdauer	5433
sierende	5432
37,5	5431
Interessen@@	5431
Gy@@	5430
Sign@@	5429
voraussichtlich	5429
UAB	5428
blutdrucksenkende	5427
von@@	5427
HP@@	5427
ku	5426
auftrat	5426
SR@@	5424
¬	5424
zerstör@@	5423
Klassen	5422
Prevenar	5421
Ind@@	5421
KL@@	5420
Antigen	5420
fortgeführt	5419
bedürf@@	5418
Fle@@	5417
Erhalt	5417
tikeln	5416
optimalen	5416
Komplex	5416
BA	5415
Pflege	5415
Tschechische	5414
Benzylalkohol	5413
Hohe	5413
Vorlage	5412
mitgelieferten	5411
ungsphase	5411
Slowakei	5411
10000	5411
0,03	5410
Diagnosti@@	5410
Gewichtsabnahme	5410
Cour@@	5410
Cefuroximaxetil	5408
unabhängige	5407
Bein@@	5406
seitens	5403
wachs@@	5403
Gesamt-@@	5401
erre@@	5400
Entsorgen	5400
Embry@@	5399
Grunde	5399
Rücken	5399
Dichte	5397
behandlungs@@	5397
4,7	5397
Affinität	5395
.V.	5395
pin@@	5393
blas@@	5393
Einnahmen	5391
Buprenorphin	5391
UB@@	5390
211	5389
Cedex	5388
153	5387
umgeb@@	5384
wurf	5384
leitet	5384
wun@@	5384
proportional	5383
gewissen	5383
verhältnis	5382
Trend	5381
650	5381
1,25	5380
FR@@	5379
schlug	5379
rekonstituierten	5379
ALL@@	5379
dosisabhängig	5378
Rating	5376
erwäh@@	5376
zunehmende	5375
Cervarix	5375
а	5375
EC	5375
verträ@@	5374
Myfenax	5374
geringfügig	5373
konzipiert	5373
330	5372
Erlotinib	5371
empfindliche	5371
ā@@	5370
farb@@	5369
.......	5367
0,15	5367
aer@@	5367
med	5366
Hündinnen	5365
Xiliarx	5363
Erhaltung	5363
AUF@@	5362
gedrückt	5362
OLANZAPIN	5362
Kuvan	5360
AE	5360
4,1	5360
überlegen	5359
not@@	5358
keit@@	5358
Verwirrung	5358
sichtbaren	5358
TYSABRI	5357
2-3	5355
Nordisk	5355
vali@@	5354
niedrigem	5353
stab@@	5351
Bruxelles	5349
nachweisbar	5348
JJJJ	5347
einzeln	5345
5,8	5343
verschoben	5342
verschwinden	5342
Gang	5342
kräftig	5338
opathie	5338
Lov@@	5337
Akute	5334
oth@@	5334
spülen	5334
Rand	5334
Gesamtdosis	5333
Placebogruppe	5332
Posi@@	5332
za@@	5332
brau@@	5332
tend	5331
GANFORT	5330
verschwommenes	5330
Schlu@@	5329
Berichten	5329
Funktions@@	5329
poly@@	5329
iron@@	5329
Hexal	5328
Geschmacks@@	5326
Litauen	5326
Starlix	5324
usk@@	5324
Paxene	5324
iertem	5323
Ambirix	5322
Müttern	5322
Tom@@	5321
8,8	5321
löst	5321
fung@@	5320
karzinom	5318
Kleinkindern	5318
Cetrotide	5317
Bedienung	5317
167	5316
erstes	5315
Panretin	5313
Sauerstoff@@	5313
ò@@	5312
6,2	5311
gestellte	5309
hle	5308
SPRYCEL	5308
Proteasehemmer	5308
PRE@@	5307
Atemdepression	5307
faßt	5306
vorhandene	5306
Migräne	5306
bedeuten	5306
toler@@	5305
Variante	5305
denz	5304
verfahrens	5304
poin@@	5304
Mechanismen	5303
Verschlimmerung	5302
ein-	5302
gehenden	5300
Erbitux	5299
tene	5299
Virus-@@	5297
itzen	5295
410	5294
defini@@	5294
Stockholm	5294
stil@@	5293
mischer	5289
Schwerwiegende	5288
Lab@@	5287
guidance	5287
Exanthem	5286
In-vitro-@@	5286
opath@@	5283
unterliegt	5282
Thyrogen	5280
schädigung	5280
bekämpfen	5280
reagiert	5280
Manu@@	5279
µ@@	5279
blem@@	5279
NSAID	5278
1.200	5277
Alters@@	5276
reduzierten	5276
fehler	5275
SINGULAIR	5274
geschw@@	5274
Siklos	5273
Cetuximab	5273
149	5272
flei@@	5272
Maximaldosis	5271
Block@@	5271
äußer@@	5269
Johnson	5269
änge	5269
Zuge	5269
umfasste	5267
gewöhnliche	5267
Vel@@	5267
intramuskulären	5267
INHABER	5266
Ergänzung	5263
erreichte	5262
tnis@@	5261
DuoTrav	5260
BE	5260
Organen	5259
Sek@@	5258
schwe@@	5257
ungst@@	5256
str	5256
lagerung	5256
pylori	5256
Pädiatrische	5255
halten@@	5255
Ink@@	5253
kum@@	5252
halbe	5252
stufe	5252
enger	5251
Workshops	5251
kardiale	5251
Orale	5248
eci@@	5247
CYMBALTA	5247
nachzu@@	5244
ächst	5242
cel	5242
tabletten	5240
enen@@	5240
Krämpfe	5239
Präparaten	5238
Glasfläschchen	5238
chtet	5236
gründen	5235
033	5234
245	5234
Sab@@	5234
at-	5233
emm@@	5232
Sebivo	5230
PROCOMVAX	5230
Hypericum	5229
Masse	5229
umfass@@	5229
Ketoazidose	5228
ula@@	5228
Diskussionen	5228
Übergang	5227
perforatum	5226
Kammer@@	5226
fenster	5226
Pipette	5226
ktiver	5225
geachtet	5224
Glaxo	5224
brauch	5223
Filter@@	5223
gültig	5222
SW@@	5221
Typs	5220
artig	5220
Anfällen	5219
basis	5219
wu@@	5217
Erarbeitung	5217
Säugling	5216
369	5216
Pulvers	5215
Pun@@	5215
sul@@	5214
Selbstinjektion	5214
Hycamtin	5213
115@@	5213
PROTELOS	5212
AST@@	5212
folgendes	5210
Sauerstoff	5210
Raltegravir	5209
VELCADE	5209
Unterhautzellgewebes	5209
sanofi-aventis	5209
kro@@	5209
Normal@@	5209
Dosisbereich	5208
150@@	5206
Stau@@	5205
Ring	5204
assungs@@	5204
ORACEA	5204
ez@@	5203
höchstens	5202
MRT	5201
vereinbar@@	5201
icht	5201
bestanden	5201
langsame	5200
fähigen	5199
antivirale	5198
forderte	5198
Laser@@	5196
Konsequenzen	5196
Krka	5195
Ausführliche	5195
grüne	5194
ektion	5192
Bündelpackung	5188
70-@@	5188
ausch@@	5185
Tas@@	5184
Streptococcus	5184
verbindung	5182
erlangen	5182
Synkope	5182
Lymphsystems	5181
aufsuchen	5180
Titer	5180
Brei@@	5179
4,9	5179
Zw@@	5179
illi@@	5177
syndrom	5177
spiegelt	5177
reitet	5176
basierte	5171
Replagal	5171
tauchen	5171
tin-@@	5171
alk@@	5170
ug@@	5169
eld	5168
PCTFE	5167
Levetiracetam	5167
Arixtra	5166
tiere	5166
ae	5166
besor@@	5166
294	5165
Ausgangswerte	5165
BMD	5162
acet@@	5162
kultur	5161
45-@@	5160
ells	5160
ernannt	5160
Sekretion	5159
offiziell	5158
primärer	5158
annehmen	5157
PSURs	5156
ere@@	5156
Tax@@	5156
Telbivudin	5155
Stamm@@	5154
Entsprechend	5153
Wachstumshormon	5152
ausgedeh@@	5152
Products	5151
035	5151
Sicherheitsdaten	5150
speci@@	5149
AUC@@	5149
Herzerkrankung	5147
auer@@	5147
ärztlicher	5146
163	5146
HIV-	5146
unterschied@@	5145
PCI	5145
oberfläche	5144
enswert	5143
lebensbedrohlichen	5143
Gesichts	5143
ausgeb@@	5142
folie	5142
erfolg@@	5140
Impul@@	5140
Tox@@	5139
HBV-@@	5139
aufgetragen	5139
460	5139
schloss	5138
1x1	5136
erleichtert	5136
stung	5135
aps	5135
bod@@	5135
ough	5134
Medicines	5132
00.@@	5132
Hämoglobin@@	5131
betreffend	5130
LA	5130
Roma	5130
Busin@@	5128
Zusammen	5128
jünger	5127
Scheinmedikament	5126
LeukoScan	5126
Blutdruck@@	5126
D3	5125
Dy@@	5124
cum@@	5124
engmaschige	5123
Prot@@	5123
vergröß@@	5122
Unerwünschte	5122
zender	5121
Pflasters	5121
kombin@@	5121
tie	5120
Ass@@	5120
entsprach	5119
ertes	5117
let	5117
erheblichen	5116
säch@@	5115
tötet	5115
festlegen	5114
Leberschädigung	5114
Angabe	5113
Arava	5112
Veröffentlichungen	5110
Yondelis	5110
XERISTAR	5110
055	5109
mul@@	5109
abgewogen	5108
ekti@@	5107
nas@@	5107
teter	5106
schwarzer	5106
Methoxy-Polyethylenglycol-Epoetin	5105
stabili@@	5104
endgültige	5104
kompletten	5103
Vern@@	5103
HCV	5102
Preotact	5099
abgestimmt	5098
15,@@	5098
cio	5098
elemente	5097
Ze@@	5097
Ekzem	5097
.f@@	5097
Harnwegsinfektionen	5093
zusätzlicher	5091
usst@@	5089
299	5088
Erb@@	5087
-2	5086
ar-@@	5086
Nierentransplantation	5085
Legen	5085
Altern@@	5084
wertung	5083
schwarze	5083
Purpura	5082
III@@	5082
NL	5081
Untersuchungs@@	5080
füll@@	5079
Beta-@@	5079
zugelassene	5078
nier	5077
ger-@@	5076
Gerinnungs@@	5076
Zeffix	5074
lexe	5074
thromb@@	5073
se-	5073
mechanismus	5072
Kinzalmono	5071
PT	5070
endgültig	5069
gesetzlichen	5069
Pemetrexed	5068
Xyrem	5068
state	5068
Simulect	5067
Tabellen	5067
Lou@@	5065
INOmax	5065
431	5064
GSK	5064
Sicherheitspharmakologie	5063
1.5	5063
Lettland	5063
Laborwerte	5062
Fabrazyme	5062
Tygacil	5061
Krankenschwester	5060
Basis@@	5060
OX@@	5059
177	5058
Pflege@@	5057
Gefäßerkrankungen	5056
itä@@	5055
Hum@@	5055
keits@@	5055
Rapilysin	5055
Ovitrelle	5050
bezug	5044
176	5044
rechtliche	5043
Manche	5040
situation	5038
DF	5038
Pul@@	5038
Hierzu	5038
Biotechnologie	5037
atin	5035
po	5035
Sche@@	5035
Zenapax	5032
vorherigen	5030
Croscarmellose-Natrium	5030
glichkeit	5030
tödlichem	5029
iges	5029
wirkendes	5029
abhängige	5028
einzusetzen	5028
schaden	5026
Umstände	5025
zin	5024
Caspofungin	5023
ZYPADHERA	5023
Schicht	5022
Behandlungsschema	5022
beobach@@	5022
Futter@@	5021
oide	5020
Myozyme	5019
übung	5018
Differenz	5017
ë@@	5017
blen	5017
kologische	5015
Baraclude	5015
Endpunkte	5014
seitig	5014
stufen	5014
p.	5012
Sprech@@	5012
fle@@	5012
schriftliche	5012
Alph@@	5011
NeuroBloc	5010
Techniken	5010
036	5009
tierende	5007
interne	5005
Offi@@	5005
Erfolgs@@	5005
Wiederauf@@	5004
ère	5004
feline	5003
gewebes	5002
gru@@	5002
Bezüglich	5001
standard	5000
lem@@	5000
nier@@	4999
meter	4998
akzeptabel	4997
Verletzungen	4997
pH-Einstellung	4997
steten	4996
gmen@@	4996
Einzelfälle	4995
fes	4994
182	4994
außergewöhnlichen	4994
Vorsitzenden	4994
mg-	4993
CP	4993
192	4993
mengen	4992
Ari@@	4991
Milliliter	4989
Anfangs@@	4989
Temperatur@@	4989
hinreichend	4989
langfristig	4989
138	4989
Derzeit	4988
Alendronat	4988
betroffene	4987
Konjunktivitis	4985
berechnen	4984
völker@@	4982
Aktuali@@	4981
äußern	4980
Formel	4978
schwerwiegender	4978
Anlass	4977
Seb@@	4977
fende	4977
effizient	4972
überschrei@@	4971
genü@@	4971
Tocilizumab	4970
gewiesen	4970
STELARA	4970
missions@@	4970
UM	4969
Metacam	4969
Präklinische	4968
beruhen	4968
л@@	4967
schwäche	4967
ê@@	4966
stag@@	4966
Weichkapseln	4966
DA@@	4966
gefü@@	4965
Apidra	4965
600@@	4965
ALIMTA	4964
Moxifloxacin	4964
gsk.com	4963
worfen	4963
Zeh@@	4962
fehlende	4961
passieren	4961
v.	4961
Kreislauf	4960
NSAIDs	4960
Straßenverkehr	4960
Sugammadex	4959
häl@@	4958
Sciences	4958
kologischen	4958
grenzen	4957
156	4957
Monohydrat	4957
UCB	4956
stunden	4955
Gleichzeitige	4955
farbe	4955
tierenden	4955
TachoSil	4954
Implementierung	4953
GA	4952
wirkenden	4952
Abweichungen	4952
ques	4949
wiegen	4949
t-	4949
Funktion@@	4949
tica	4948
lab@@	4948
Biograstim	4947
rat@@	4945
Lyon	4944
gab@@	4943
Major	4942
bakterielle	4942
ACH@@	4942
markiertem	4939
wiederholten	4939
Winkel	4938
otische	4937
,000	4936
Dauer@@	4933
Tumor	4930
hindeuten	4928
teiligen	4928
kleineren	4926
469	4923
doppelt	4923
Cir@@	4922
engen	4922
7,2	4922
Dev@@	4922
verlauf	4921
BEURTEILUNG	4920
ometr@@	4919
-Clearance	4919
hCG	4918
hydrochlorid	4918
Fahrzeugs	4918
sinnvoll	4917
Bun@@	4917
Dire@@	4917
Verdünnungsmittel	4916
OPTISON	4915
0,5@@	4915
einbezogen	4915
senk@@	4915
6,6	4915
Spondylitis	4913
grün	4913
tec	4913
sem@@	4912
Trazec	4912
beginn	4911
Magenschmerzen	4911
prüf@@	4911
annähernd	4910
ISENTRESS	4910
5,3	4910
nützlich	4909
Injektionsstellen	4909
-23	4908
stechni@@	4908
uc@@	4907
340	4905
tigkeits@@	4905
Zusammensetzung	4905
kleidung	4903
förmige	4903
ellem	4902
Tevagrastim	4902
Mittl@@	4901
infektionen	4899
säur@@	4898
unzugänglich	4898
orisch	4898
hielten	4897
Menitorix	4896
γ@@	4895
hebung	4894
seitige	4894
verleihen	4893
IC	4892
CO2-@@	4892
Rap@@	4890
Hühnern	4889
Ibuprofen	4888
druckt	4888
Aufla@@	4886
gesetzte	4885
tliches	4885
id-@@	4881
5,1	4880
RS@@	4880
ktieren	4878
Zustände	4875
169	4875
Durst	4874
sofortige	4874
halt@@	4874
0,18	4873
PSUR	4873
Entzündungs@@	4872
ummer	4872
dauerte	4872
19-@@	4872
kus	4872
4,3	4871
Beschränk@@	4871
Blei@@	4871
QUADRAMET	4871
Engegefühl	4871
MEN@@	4871
Spritzen@@	4870
28-@@	4869
inta@@	4866
Rindern	4866
Ox@@	4866
läufi@@	4866
pneumoniae	4865
lebensbedrohliche	4865
ps@@	4865
Arz@@	4865
Impfdosis	4865
Einmalgabe	4865
FeLV	4864
INVANZ	4863
setzungs@@	4862
beten	4862
olli@@	4861
Zulassungsantrags	4861
aufgeklärt	4860
kurr@@	4859
CANCIDAS	4859
Enfuvirtid	4858
kompatibel	4855
klassen	4854
tech@@	4852
weichen	4851
iegen	4850
Ratiograstim	4849
forder@@	4849
setzten	4849
refle@@	4848
Herzkrankheit	4848
besonderes	4848
Avonex	4848
situ@@	4848
233	4848
Zäh@@	4848
Gan@@	4845
Antihistaminika	4844
offener	4842
rop@@	4842
deutliche	4841
sierenden	4841
automatischen	4841
SF	4840
Antazida	4838
frühestens	4836
rei	4835
TRITACE	4835
kontinuierlichen	4834
gemäß@@	4830
vereinbarten	4827
akte	4827
ündi@@	4827
Aldurazyme	4824
misch@@	4823
ehmen	4822
Naglazyme	4821
Hierbei	4821
ã@@	4820
schlag@@	4819
HD@@	4819
Crohn	4819
mani@@	4817
mand	4817
Intravenöse	4817
erlitten	4817
HY@@	4817
Regime	4816
KRKA	4815
EB@@	4814
Flüssigkeitsretention	4813
Insulinen	4813
158	4813
Leistungsfähigkeit	4812
omat@@	4812
teln	4811
Mittelwert	4811
dine	4810
gerechtfertigt	4810
Activelle	4808
einher	4808
BEZEICHNUNGEN	4807
NI@@	4806
oxid	4806
ausgelegt	4805
Nexavar	4805
Ljubljana	4801
Xarelto	4801
stabile	4801
verbli@@	4800
abili@@	4800
wuchs	4800
irgendeinem	4799
321	4798
Haushal@@	4798
blem	4796
Harnwege	4795
Appetitverlust	4795
Komplex@@	4795
JANSSEN-CILAG	4795
schwä@@	4794
nephr@@	4794
station@@	4794
eas@@	4794
Dingen	4793
Grapefruitsaft	4792
pH-Wert	4792
ž@@	4791
η	4790
oberhalb	4789
onaler	4788
Einreichung	4788
maßgeb@@	4787
kapazität	4786
existieren	4786
anstelle	4785
Anträgen	4784
Das@@	4784
selektiven	4783
leit@@	4783
Nierenprobleme	4782
samm@@	4779
zess	4779
Block	4778
Mikroorganismen	4778
markiert	4777
verläuft	4776
Ratte	4773
3A4	4772
esung	4772
agn@@	4772
einmaliger	4771
otherapie	4770
Trinken	4769
Glycerol	4769
aktuali@@	4768
Aspartam	4767
dunkel@@	4766
Anschrift	4765
Laktation	4764
NovoFine	4764
gebrochen	4764
Optisulin	4764
199	4764
Arzneispezialitäten	4762
Arrhythmien	4760
raschen	4760
Ε@@	4760
ese@@	4760
anteil	4759
cop@@	4759
anen	4759
Teilchen	4758
Metforminhydrochlorid	4758
wol@@	4757
In-@@	4757
Zugehörigkeit	4756
FOR@@	4756
deutlichen	4756
TABLETTEN	4755
Rücksprache	4755
Vigabatrin	4755
Iso@@	4754
medizinischer	4754
fuhr	4754
Gliedmaßen	4752
Osigraft	4751
übertritt	4751
Augeninnendruck	4750
ausführ@@	4749
pflanz@@	4749
Verfallsdatum	4747
Profender	4746
215	4745
jo	4743
prüfung	4741
Myelom	4741
TS	4740
nation@@	4740
Lungenentzündung	4739
Warn@@	4737
Bisher	4736
DaTSCAN	4735
verf@@	4735
aufgaben	4735
ith@@	4733
Spezialisten	4732
Genzyme	4732
cit@@	4731
Syndroms	4729
Blutgefäßen	4728
Eingriffe	4727
Tumore	4726
227	4726
Placebo-kontrollierten	4726
orange	4724
Zelle	4723
Neugeborene	4723
TW@@	4721
-29	4721
ced	4719
139	4717
90Y	4717
syn@@	4717
maler	4716
beherr@@	4715
vorzubeugen	4714
rosa	4714
0,35	4713
zuständige	4713
ó	4712
CYP2C19	4712
vermittelten	4711
YENTREVE	4711
Wartezeit	4711
bearbeitet	4711
Injektionsknopf	4710
operative	4706
Cidofovir	4704
535	4704
tzeit	4703
gendes	4703
dru@@	4702
Vul@@	4701
Glasflasche	4700
Escherichia	4698
rechtzeitig	4697
8,5	4697
erfor@@	4695
Privigen	4695
Equilis	4693
zulässig	4692
Isolate	4692
verabreichtem	4692
chtung	4691
Sp.	4688
Kunststoff	4688
virale	4687
fett@@	4685
gebeten	4685
passende	4685
hep@@	4683
Magnesium@@	4683
nütz@@	4682
Competact	4682
Montelukast	4681
schein	4680
depressiven	4678
Beenden	4677
muster	4676
ild@@	4676
gereinigt	4676
Gefrier@@	4675
bestimmungen	4674
1-er	4674
verworfen	4673
Nplate	4673
alters@@	4673
geteilt	4673
onat	4672
ability	4672
Intrinsa	4672
Sehschärfe	4670
mangel@@	4668
entan	4667
obere	4666
Ikterus	4665
gesammelt	4664
rot@@	4663
lis	4662
rekombinantem	4661
Ast@@	4660
Kopie	4660
Labor	4658
Dinatriumhydrogenphosphat	4657
VTE	4657
humanem	4657
Gehalt	4657
Werden	4656
verletzungen	4656
mperat@@	4656
Referenzmitgliedstaat	4655
Grades	4654
iatr@@	4653
bereichs	4653
behälter	4653
Stellen@@	4653
Glucose	4651
sachen	4651
investigation	4650
opo@@	4649
SonoVue	4648
pharmakologische	4648
NR@@	4648
Way	4648
Pyrexie	4647
cer	4647
UNGS@@	4647
TP	4646
fa	4646
erkennbar	4645
Let@@	4644
gebrauchsfertigen	4643
Enzephalopathie	4643
SARL	4642
Influenza-@@	4642
Faltschachteln	4641
fizierten	4640
Gramm	4640
opro@@	4639
0,088	4637
CV@@	4637
acken	4636
inden	4634
Ernährungs@@	4633
influenzae	4633
Wen@@	4631
Vertretern	4631
VA	4630
appliziert	4630
licherweise	4629
phen@@	4629
aussehen	4628
Phenylalanin	4628
Antiphlogistika	4628
Reizung	4627
gler	4627
338	4627
Gehirn@@	4627
VA@@	4627
Öster@@	4626
karzinoms	4623
anhalten	4623
CS@@	4623
Stell@@	4623
м@@	4622
Net	4622
255	4620
Messungen	4620
jährliche	4620
ABl	4617
berühren	4617
Nelarabin	4617
Koordin@@	4616
armen	4616
Fendrix	4615
465	4615
ledi@@	4614
rise	4614
Überlebenszeit	4614
arbeiteten	4613
Hart@@	4613
unzerkaut	4612
Revatio	4611
Synthese	4611
mien	4611
Chlor@@	4610
schluß	4610
ety	4610
-0,@@	4609
trocken	4608
FERTIGSPRITZE	4608
bedeutende	4607
Kreatinin	4607
Mutation	4607
Stufen	4606
Unterstütz@@	4604
Überdosis	4604
still	4603
TRAVATAN	4603
Korrektur	4602
later@@	4602
Signal	4602
erläutert	4601
stimmte	4601
Steady-State	4600
abnormale	4599
inner@@	4598
2.000	4598
λ@@	4598
Skala	4596
LUMIGAN	4596
senkte	4596
erwachsene	4595
val	4595
Öffnung	4594
spätestens	4593
Pipetten	4593
allgem@@	4590
Thrombin	4590
Parkinson	4588
Gesamtzahl	4588
Drogen@@	4587
management@@	4587
Mun@@	4586
6,1	4586
M-M-RVAXPRO	4586
Hormon@@	4585
lebensbedrohlich	4584
gesichert	4583
Rotigotin	4582
zehn@@	4582
054	4582
steigenden	4581
lans	4581
tät@@	4580
310	4579
plötzliche	4578
ase-	4578
unterschied	4577
Erschöpfung	4576
Orion	4576
Gehirns	4576
ão	4574
mittlerer	4574
staat	4573
PI	4572
Gadovist	4572
Ulcera	4570
5-FU	4569
faktoren	4569
Applikations@@	4568
Natriumoxybat	4568
-Werten	4568
HINWEISE	4568
übermäßige	4566
gemeinsamer	4566
ersatz@@	4564
absoluten	4562
gebühren	4562
CT	4561
p-Wert	4561
oppen	4561
Kit	4560
Bortezomib	4560
71@@	4559
Zarzio	4559
Verfärbungen	4558
Erythrozyten	4558
haltiges	4557
Schwangere	4557
Injektionsspritzen	4557
Laropiprant	4557
ausgesch@@	4556
Mylan	4556
Visudyne	4556
Plasmaproteinbindung	4556
Livensa	4555
Einzeldosis-@@	4554
Klar@@	4553
lock	4553
quir@@	4553
geworfen	4552
OT@@	4552
verzögerte	4552
Behandlungswochen	4551
ProMeris	4551
LITAK	4550
intensiv	4549
ypen	4549
Bedürfnissen	4549
Spain	4548
loss@@	4548
20x1	4548
Bevacizumab	4547
Träger@@	4546
Portu@@	4546
Schnell@@	4544
Hypot@@	4544
Exforge	4542
Dicural	4542
akutem	4541
Infusionsgeschwindigkeit	4539
DS@@	4537
infe@@	4537
vision	4537
EK@@	4536
OL	4536
209	4536
offenbar	4535
Initi@@	4535
Fün@@	4535
Varianten	4534
charakter@@	4534
1-2@@	4534
Halbwertzeit	4533
elektron@@	4533
32-@@	4532
nehmern	4532
Län@@	4532
Gluc@@	4530
klusive	4529
klassische	4528
enta@@	4528
EW@@	4528
zität	4527
kardialen	4526
zept@@	4526
intern@@	4525
-Sch@@	4525
Feten	4524
Avandamet	4524
Est@@	4523
aktivitäten	4523
Dri@@	4523
ular@@	4523
ο	4522
Abfall@@	4521
mischung	4520
Beratungs@@	4520
streichen	4520
arti@@	4520
Intensität	4520
Paste	4519
therapeutischer	4519
Deckung	4519
Evoltra	4518
Blutzuckerspiegels	4517
pepti@@	4516
316	4516
empfindlichkeit	4514
ACT	4514
asy@@	4513
pulmonale	4513
Lap@@	4513
lack@@	4512
Erleichterung	4512
164	4511
kleben	4511
Od@@	4511
Flatulenz	4510
UR	4510
Verfahrens@@	4507
Sími	4507
sekundäre	4507
Amphotericin	4507
Einbeziehung	4506
034	4506
cet@@	4505
herab@@	4505
standes	4505
Schering	4504
dal	4504
363	4504
Gewichts@@	4504
Lis@@	4503
CYSTAGON	4503
änderungen	4502
Interessengruppen	4502
Bis@@	4502
entschied	4501
800@@	4500
Benzalkoniumchlorid	4499
zunehmenden	4499
Reinig@@	4498
Vaskulitis	4498
73@@	4498
in-Dosis	4498
grade	4497
Valproat	4497
8,3	4497
lossene	4497
Zyrtec	4496
Pumpe	4495
Untergruppe	4494
STAMARIL	4494
Veranschlagt	4494
voneinander	4492
spontan	4492
tiven	4492
übersch@@	4491
Großteil	4491
charakterisiert	4490
dokumentiert	4489
ziel	4489
berufen	4489
Glubrava	4489
5,9	4489
AVONEX	4488
Gemeinsame	4488
tier	4488
berührt	4488
ausgegangen	4488
CEPROTIN	4487
abnorme	4486
echan@@	4486
BP	4485
Herzklopfen	4484
Agency	4484
Ambrisentan	4483
Aussage	4483
Zusatztherapie	4482
peripherer	4481
gewis@@	4480
6.3	4480
Expositionen	4479
sekundären	4479
namen	4479
Geschlech@@	4479
wöchige	4478
umfassend	4478
kardiovaskulärer	4477
Register	4477
6,8	4477
Oseltamivir	4477
ge-	4476
glas@@	4476
Corlentor	4474
frühere	4474
Körpergewichts	4473
Association	4472
Salz	4472
LDL-@@	4472
Noti@@	4472
active	4470
Gelbfärbung	4470
ender@@	4469
minimieren	4468
Träger	4468
044	4467
stoffs	4466
mer-@@	4465
vorliegende	4465
Zulassungsinhaber	4464
höchst@@	4464
etabliert	4463
Tupfer	4463
Präzi@@	4463
Symptom@@	4462
denselben	4462
Wirbelsäule	4462
Sicherheitssystem	4462
rig	4460
Weniger	4459
variieren	4458
KOMPLETTE	4457
orischer	4457
undi@@	4457
Tigecyclin	4456
fris@@	4456
Cyclophosphamid	4456
monatigen	4456
Taubheit	4455
FOSAVANCE	4455
TOVIAZ	4454
Magen-Darm-@@	4452
äden	4452
aureus	4451
wachsende	4451
achtung	4451
Impfschema	4451
verzi@@	4451
wirkungs@@	4450
HepB	4450
Aldara	4449
Rasse	4449
Cinacalcet	4449
8,0	4447
Macugen	4447
gebrauchsfertige	4447
IX@@	4446
CK@@	4446
PAR@@	4446
arzneimittel	4445
Insulinaspart	4445
metaboli@@	4444
mark	4444
arterielle	4442
asen@@	4442
neurologische	4441
Brustkorb	4441
ά@@	4441
17-@@	4439
Finger@@	4439
umfang	4438
bilater@@	4437
sorgfältiger	4437
gewählten	4436
Mycamine	4436
still@@	4436
Cin@@	4435
wöchentlichen	4435
unklar	4433
Gab@@	4433
beziehungsweise	4433
gla@@	4432
Schellack	4432
5,2	4431
stattfindet	4430
Gastrointestinaltrakt	4428
H5N1	4428
HC@@	4427
Probenecid	4427
100.000	4427
lebenden	4426
akutes	4426
Placebo-@@	4426
ν	4426
wendung	4425
eintreten	4425
HBeAg-@@	4425
genau@@	4422
untersuchte	4422
vermindertes	4421
070	4421
Verabschiedet	4420
AX@@	4419
ie-	4419
EH@@	4419
ori	4419
Inneren	4419
ologisches	4417
eht	4415
Neutrophilenzahl	4414
Cisaprid	4413
bedeutenden	4412
Netherlands	4412
vermittelte	4411
präparate	4411
Hepsera	4408
mende	4408
schn@@	4408
Kurz	4408
EM	4407
klingen	4406
iegel@@	4406
PER@@	4406
ANG@@	4405
1.500	4404
Wilzin	4403
Resultate	4401
Kft	4400
medianen	4400
Ziconotid	4400
geschwollene	4399
vgl.	4399
ausschusses	4399
RNA	4399
Hell@@	4398
Leucht@@	4398
Lungenerkrankung	4398
micro@@	4397
atten@@	4397
ς	4397
Mitgliedsstaaten	4394
infundiert	4394
rechtfertigen	4394
Procoralan	4394
154	4393
frequenz	4393
bewegungen	4393
amma@@	4391
Alters	4391
Nekrolyse	4391
Krebspatienten	4391
Luveris	4391
Eingabe	4391
ödem	4390
schädlich	4388
erneute	4388
Ultraschall@@	4388
Mak@@	4387
288	4386
Rit@@	4384
Black@@	4384
Fluticasonpropionat	4384
Vereinbarungen	4383
resistente	4380
erlaub@@	4379
messung	4379
angehö@@	4378
352	4377
aussch@@	4377
dringen	4376
sterium	4376
0.5	4375
1400	4374
erhaf@@	4373
späten	4373
173	4373
Blutbild	4372
MERKMALE	4371
gefährlich	4371
Erythropo@@	4371
postnatale	4370
auto@@	4368
ask@@	4368
amer	4367
Poly	4367
überwachung	4367
NovoNorm	4366
ose@@	4366
chungs@@	4366
mikrokristalline	4364
osition	4364
OB@@	4364
ehl@@	4363
Erfassung	4361
Stri@@	4361
beanspru@@	4361
ii	4360
circa	4360
ernähr@@	4359
Natriumcitrat	4359
tee	4358
Prandin	4358
sible	4356
Monats@@	4356
wiederholte	4356
Circadin	4354
verbesserten	4354
Oberteil	4352
Systemorganklasse	4352
pharmakodynamischen	4351
Noxafil	4351
WISSENSCHAFTLICHEN	4349
PV@@	4349
Cerezyme	4348
Aminosäuren	4346
erworbene	4345
oplas@@	4345
ulti@@	4345
wendet	4344
Gaben	4343
Episode	4342
Dysphagie	4342
179	4342
Aro@@	4342
FE@@	4342
Hühner	4341
einzur@@	4340
rang	4340
6.2	4340
b-	4339
komplex	4338
-hydroxid-oxid	4338
Co	4338
ECALTA	4338
OPRYMEA	4338
bioäquivalent	4338
DNA-Technologie	4337
ungsmaßnahmen	4337
Eingeschränkte	4337
Sekretariat	4337
rati@@	4336
Advocate	4336
ograp@@	4336
Wat@@	4335
Fibrose	4335
ertem	4335
vorran@@	4335
ό@@	4333
reinigen	4333
Fab@@	4333
wenigstens	4332
Gut@@	4332
FO@@	4331
Neigung	4331
Normalisierung	4329
235	4329
technologie	4329
Var@@	4329
anom@@	4327
externe	4327
Uhrzeit	4326
Ñ@@	4325
gereinigtes	4325
Betablocker	4324
327	4323
isa	4322
rasche	4321
ratsam	4321
Cimetidin	4321
UV@@	4320
kontroll@@	4319
Generaldire@@	4318
Reaktions@@	4318
Jungen	4318
407	4317
Great	4316
befürwor@@	4316
Bewusstlosigkeit	4313
Stoff	4313
maligne	4311
Behinderung	4311
verstoffwechselt	4310
Folie	4310
zutreffend	4309
inte@@	4309
Fluor@@	4309
igkeiten	4307
terminalen	4307
schlechten	4306
Levviax	4306
körpereigenen	4305
heil@@	4304
Paliperidon	4304
Spar@@	4304
ADVATE	4303
ANWENDER	4301
ordnet	4301
TEVA	4300
Estland	4299
Dodge	4298
Opioid-@@	4297
visuell	4296
Rivaroxaban	4296
Toxizitäten	4295
gasse	4295
verzeichnen	4294
behandlungen	4293
pharmazeutischen	4293
MAN@@	4293
Stevens-Johnson-Syndrom	4292
weis	4292
Flä@@	4292
typische	4290
Eben@@	4290
Antidot	4290
musk@@	4290
stabilität	4289
Bronchospasmus	4288
invasiven	4288
beschädi@@	4288
Wirbel@@	4287
streng	4287
PU@@	4287
äußert	4287
graphie	4286
6,3	4286
PL	4286
bewahren	4286
afen@@	4286
Einzeldosis@@	4286
148	4285
224	4285
wässer	4285
Instand@@	4283
Trastuzumab	4282
fertigen	4282
dec@@	4282
Sexual@@	4281
inf@@	4281
Überarbeitung	4280
Molek@@	4280
Ple@@	4280
WHO	4280
V.	4279
Aerinaze	4279
gleicher	4279
verschluss	4279
Dipl@@	4277
Grupp@@	4275
Galle	4275
9,4	4275
Mittlere	4275
Rasagilin	4274
deln	4274
sorge	4274
ulärer	4274
Trotzdem	4274
starkes	4272
Stechen	4271
Chinidin	4270
äuch@@	4269
fahren@@	4268
kis@@	4268
6,4	4266
Süß@@	4266
Konferenzen	4265
organe	4264
überein@@	4264
Verg@@	4264
Hyp@@	4263
Gastroenteritis	4262
ähn@@	4262
grap@@	4261
ansprech@@	4261
Gelenken	4261
ausgeprägten	4261
ores	4259
Nachfolgend	4259
schlu@@	4259
siger	4258
tika	4257
Mögliche	4255
457	4254
pit@@	4254
ungsmittel@@	4254
Induktoren	4254
otoxische	4253
Tageszeit	4253
IL	4252
Blue	4249
Leiterin	4249
verschlimmern	4248
auszuschließen	4248
orin	4248
................................................................@@	4247
klären	4246
doppelblinde	4245
Angiox	4245
Pseudoephedrin	4245
Posaconazole	4244
Bivalirudin	4243
lau	4243
irgendeine	4242
Verhäl@@	4240
vaskuläre	4239
HIV-1-@@	4239
Proteinbindung	4238
EKG	4238
^	4237
Antigene	4236
191	4235
Norm	4235
gestör@@	4235
Zerstörung	4235
höheres	4235
umfangreichen	4234
Neurontin	4234
d.o.o.	4232
Levitra	4231
Anstiege	4231
Orgalutran	4230
embry@@	4230
---	4230
vergleichbaren	4227
öses	4227
Langzeit-@@	4227
ethyl@@	4226
Vent@@	4226
Fehlen	4226
opi@@	4225
iegel	4225
lität	4224
atri@@	4223
Candidiasis	4223
Bratislava	4221
qualifizierten	4221
Hinsichtlich	4220
Nacht@@	4219
Aden@@	4218
Tätigkeitsbericht	4218
406	4218
Ohren	4218
Zurück@@	4217
terungen	4217
laan	4216
Á@@	4216
ermaßen	4216
Antirheumatika	4215
Erektion	4215
k-	4214
Brechen	4214
skop@@	4214
Tieres	4213
eignen	4213
cult@@	4212
AX	4212
schädliche	4212
Röntgen@@	4212
Milz@@	4212
setzungen	4211
dichte	4211
Daumen	4210
Savene	4210
Wahrnehmung	4210
stimuliert	4209
Saccharose	4208
425	4208
Vorgehen	4206
paper	4206
etan@@	4206
Geschlechtsverkehr	4206
Zin@@	4205
Lös@@	4205
systemisch	4204
dere	4204
chronisch	4204
Lipodystrophie	4203
operationen	4202
8,6	4202
glat@@	4201
Patientenpopulation	4201
minimale	4201
PLUS	4200
stof@@	4200
ersatz	4200
GU@@	4200
Kie@@	4199
grenze	4198
altern@@	4198
Points	4198
Allergien	4197
ZU@@	4197
Chemie	4197
multizentrischen	4196
ämpfe	4196
TION	4195
STR@@	4195
Unterdrückung	4195
jeweilige	4194
Firazyr	4194
Umwandlung	4193
345	4192
schlech@@	4192
umfassten	4192
Insulinbedarf	4191
Parecoxib	4191
zytotoxischen	4191
beabsichtigen	4190
lieren	4190
us-	4189
Indigocarmin	4189
Nahrungs@@	4189
Natriumdihydrogenphosphat	4188
Buchstaben	4188
cus	4187
Uhrzeigersinn	4187
leer	4187
Vidaza	4186
act@@	4186
EINER	4186
Ferriprox	4186
Bedin@@	4185
Etanercept	4185
Reserve	4185
096	4184
entsp@@	4182
vertik@@	4182
Robenacoxib	4182
NEVANAC	4181
Tam@@	4180
Gilead	4180
Pfer@@	4180
NE	4179
ausscheidung	4178
beginnend	4178
Vereini@@	4177
graph@@	4177
341	4177
restlichen	4177
lokaler	4175
189	4175
Modi@@	4174
benannt	4173
leich@@	4173
366	4172
serv@@	4172
Pharmakovigilanzplan	4170
Hö@@	4169
schmerzhafte	4169
9,0	4168
Dunkel@@	4166
Estate	4166
xx@@	4166
CC	4164
herabgesetzt	4164
MAH	4164
Bakterium	4163
Z-@@	4163
zugestimmt	4163
seltener	4162
rimi@@	4161
Miner@@	4159
onas	4159
assungen	4157
arzneimittel@@	4157
Canary	4155
Zink@@	4155
entsprachen	4155
herunter	4154
Knochenerkrankungen	4153
relevanter	4153
müde	4152
vorgeschrieben	4151
pil@@	4151
TMZ	4151
Erythrozyten@@	4151
Voraus@@	4151
veröffentlichte	4149
farbene	4148
228	4148
Schiedsverfahren	4148
Formulierungen	4147
hepatischen	4146
Wharf	4146
Alternativ	4146
basierten	4146
Schachtel	4145
069	4145
Zyprexa	4145
sitzt	4144
FORSTEO	4144
PET	4144
vis	4144
23-@@	4143
sum@@	4142
abschnit@@	4141
Waschen	4140
Non-@@	4140
Tyverb	4139
Ertapenem	4139
FLASCHE	4138
31-@@	4137
niedrigste	4137
hang	4137
neter	4137
TRITAZIDE	4137
Blutzuckerkontrolle	4135
VI	4135
Signal@@	4135
gebrauchte	4134
ANC	4134
nachweislich	4133
vermischt	4129
Drotrecogin	4129
deutet	4127
411	4127
Methadon	4126
ZNS-@@	4125
patienten	4125
sage@@	4125
beach@@	4125
Krampfanfällen	4125
woche	4124
zuverlässig	4124
2-4	4123
geschlagen	4122
tablets	4122
7,9	4122
Medium	4121
Lebensjahr	4121
Kontrastmittel	4120
chem@@	4120
Expositions@@	4119
CYP3A	4119
demselben	4117
größerer	4116
Otitis	4116
trän@@	4115
Lösungsmittel@@	4114
Voraus	4114
Einsetzen	4113
gebr@@	4112
personal	4112
benutz@@	4111
Jose@@	4111
korre@@	4111
Schrauben	4110
grundlage	4110
stests	4110
Gefü@@	4108
159	4107
Zirrhose	4107
Child-Pugh	4106
Tagungs@@	4105
eriode	4105
Prasugrel	4104
terium	4103
OptiClik	4103
methyl@@	4102
ris	4102
development	4102
Serumkonzentration	4101
Halsschmerzen	4101
ï@@	4101
Pfei@@	4099
reversible	4098
21-@@	4098
antiretroviral	4098
hilfreich	4098
gesun@@	4098
NL-@@	4098
metho@@	4098
Luminity	4096
einnimmt	4096
langsamer	4096
ferung	4096
ETIKETTIERUNG	4096
Risk	4096
pot@@	4096
änderung	4095
merck.com	4095
Ergeb@@	4095
bedruckt	4094
exposition	4094
linear	4093
messer	4092
Spontan@@	4091
teili@@	4091
Prednison	4090
Quintanrix	4089
Fentanyl-ratiopharm	4089
rDNA	4089
keln	4089
100-@@	4088
η@@	4087
FC	4087
lear@@	4086
Vivanza	4086
Wachstum@@	4086
gewohnt	4085
Überlebensrate	4084
glicher	4084
kompli@@	4083
Ressour@@	4083
TP@@	4083
DD@@	4083
Sech@@	4083
herausgegeben	4082
begründet	4082
Agent@@	4082
Wunden	4082
Gadograf	4081
wies@@	4081
μg	4080
3-4	4079
partner	4079
Melphalan	4079
dargelegt	4078
Fötus	4078
derzeitige	4077
440	4076
orien@@	4076
High-@@	4075
tender	4074
Pflegepersonal	4074
Magen-	4074
yl-@@	4073
verlängern	4073
diagnosti@@	4073
232	4073
Ny@@	4072
Phosphat@@	4072
funktionsfähig	4072
1.1	4071
Praha	4071
Avandia	4070
455	4070
Langzeitstudien	4069
beantragte	4069
cin	4069
sor	4069
Amiodaron	4069
nachfolgende	4069
Blasen@@	4069
person@@	4068
mers	4068
BOX	4067
induzieren	4066
zurzeit	4066
Ulzerationen	4065
mechanismen	4065
zol@@	4065
mid	4064
Genau@@	4063
Vorgehensweise	4063
HAN@@	4062
Sinusitis	4061
therap@@	4060
Geträn@@	4060
Aufhebung	4059
erwähnten	4059
pulmonalen	4058
omer@@	4058
Erscheinungen	4057
versiegelt	4055
College	4055
Erg@@	4055
Toxizitäts@@	4055
Absch@@	4054
straat	4053
Bindegewebs-	4052
antien	4052
Vaku@@	4052
Thrombose	4052
KARTON	4051
337	4050
Tech@@	4050
behoben	4049
kriterien	4049
Schwankungen	4047
erneuten	4046
ι	4046
sprüfung	4046
appar@@	4046
spezifisches	4045
zent	4045
Kepivance	4044
hormon@@	4042
stel@@	4041
Schieds@@	4040
VISTIDE	4040
beschränk@@	4040
gegenseitige	4039
schlafen	4039
Regulierung	4039
ursprüngliche	4038
Haut-	4037
chlor@@	4036
Suizidgedanken	4036
bikonvex	4036
P.@@	4035
IVEMEND	4035
Enzym@@	4034
parameter	4034
ogenes	4034
humane	4034
222	4034
gedreht	4034
Schlussfolgerung	4032
Sorgfalt	4032
Zylinderampulle	4032
erniedrigte	4030
EVISTA	4030
Trabectedin	4029
Agranulozytose	4029
tabel	4029
Aller@@	4029
prote@@	4028
farben	4028
älen	4027
-Spiegel	4027
fließen	4026
umpen	4026
Emselex	4025
Hilfs@@	4024
Hellas	4023
Nagel@@	4022
IST@@	4021
Eier	4020
einig	4020
konserv@@	4018
mitt@@	4018
beantragt	4018
Nonafact	4018
Beachtung	4018
EE	4017
Verbindungs@@	4016
pädiatrische	4016
abilität	4015
mitgeteilt	4015
480	4015
ed-@@	4014
vertrat	4014
einhalten	4013
Antagonist	4013
eingegangen	4012
zeitlichen	4012
übermittelt	4011
dren	4011
Originalverpackung	4010
olet@@	4010
merken	4009
Zubereitungen	4008
chl@@	4008
mg@@	4006
neurologischen	4006
poten@@	4005
saf@@	4005
emen	4005
geeigneter	4003
-Tabletten	4003
Gli@@	4002
jähriger	4002
sicherer	4001
5mg	4001
Intra@@	3999
Hypokalzämie	3998
DK-2@@	3998
Redu@@	3998
Stoffwechsel-	3997
etwaige	3997
emea.eu.int	3997
Hydroxycarbamid	3997
virologisches	3996
strichen	3996
begleitende	3995
Zoledronsäure	3995
py@@	3995
п@@	3994
bereitung	3994
amid	3994
Agopton	3993
stration	3993
Verhütungsmethode	3992
5-Fluorouracil	3991
ohlen	3990
Hypo@@	3990
Abschließend	3990
einheitlich	3990
intensive	3990
Meningitis	3989
Ero@@	3989
hepatische	3989
schmerz@@	3988
Pharyngitis	3988
Vorhofflimmern	3988
vorausgesetzt	3988
Brinzolamid	3988
Epo@@	3987
Š@@	3987
Übersetzungen	3986
alin@@	3985
8,4	3985
bekanntermaßen	3985
nisch	3984
Med@@	3984
rates	3982
Hüfte	3981
tose	3981
Pharmakovigilanzsystem	3980
Zwisch@@	3979
275	3979
Epi@@	3979
Penta	3977
maß	3977
Antrags@@	3977
raucht	3977
Streifen	3977
GA@@	3976
Wirkungsweise	3976
äufe	3975
Wissenschaftliche	3975
erwor@@	3974
INE	3974
Natriumdodecylsulfat	3972
brüche	3972
Verlangen	3972
Augenerkrankungen	3971
acti@@	3970
287	3970
verschlimmert	3970
Econ@@	3970
CK	3969
Clinical	3968
individu@@	3967
OPTRUMA	3966
chene	3966
eman@@	3965
definierten	3963
Ã@@	3963
beutel	3962
berich@@	3962
Blutergüsse	3961
Serono	3960
9,7	3960
versorgt	3959
otal@@	3959
alien	3958
Verlu@@	3957
Spezielle	3955
PE@@	3955
Defizi@@	3954
hyp@@	3954
path@@	3954
dosierung	3953
Matrix	3953
syntheti@@	3953
Pferd	3952
minimal	3952
jug@@	3951
transdermalen	3951
Bexaroten	3951
Elek@@	3951
fic@@	3950
fut@@	3949
Mani@@	3949
Metr@@	3948
VIAGRA	3948
Rücken@@	3948
Kontrast@@	3948
Produktinformation	3948
Guidance	3948
Toxizitätsstudien	3946
Verwaltungsrates	3946
dasselbe	3945
tiefer	3944
ardi@@	3944
580	3943
tierexperimentellen	3942
entlicher	3941
lastung	3941
resistenten	3941
TIG@@	3940
zweier	3939
Transaminasen	3939
Ami@@	3939
и	3938
Toxin	3938
ausgewertet	3937
barem	3937
PEN	3936
Circus	3936
B.@@	3936
Partikeln	3936
ATryn	3936
Klinik	3935
Kontamination	3934
erhol@@	3934
ā	3934
bevölkerung	3933
verstopfte	3933
Maximum	3933
ungssystem	3933
Duo	3933
sper@@	3932
versuch	3932
bemerkt	3932
genommene	3932
della	3931
Primär@@	3930
TIER@@	3930
letzt	3930
alkalische	3929
ulin@@	3929
Rauch@@	3929
Garden	3928
uali@@	3926
cine	3926
zeitlich	3926
hyth@@	3925
Cyclosporin	3925
418	3925
11,@@	3925
204	3925
Magens	3924
Jucken	3924
ereig@@	3923
Implantation	3923
Aufstehen	3923
reibungs@@	3923
parallel	3923
Sus@@	3922
tex	3921
korrig@@	3921
Allgemeiner	3921
Einmal@@	3920
Sper@@	3920
237	3920
II@@	3920
Intervet	3920
Ι@@	3918
7.5	3916
Squibb	3915
kter	3914
unregelmäßiger	3914
yn	3914
Fahrzeugen	3913
Division	3913
verord@@	3912
selektive	3912
den.@@	3912
ARTIKEL	3912
behandelnde	3912
aken	3912
oge	3911
8,7	3911
FER@@	3910
normalem	3909
CHE	3909
selektiver	3909
EINEM	3909
verschlechtern	3908
Meldung	3908
geringem	3906
weit@@	3905
Absol@@	3905
nter	3905
eingeprägt	3904
9,6	3904
RT	3903
д@@	3903
Bioäquivalenz	3903
Lokali@@	3902
Adjuvans	3902
Abwägung	3902
lich-@@	3902
deter	3902
carb@@	3902
bevor@@	3901
Rachen	3901
verordnen	3901
bedar@@	3901
♦	3900
schwache	3900
Parästhesien	3900
Hertfordshire	3900
Druckknopf	3899
endgültigen	3898
gesti@@	3897
Schwä@@	3897
beschränken	3897
,7	3897
Äl@@	3896
bestätigte	3895
OG@@	3895
Pimozid	3895
Skelettmuskulatur-	3893
у@@	3893
Gebrauch@@	3891
75-@@	3891
Distribution	3889
kil@@	3889
Cyanokit	3888
dosisabhängige	3888
uman@@	3887
MON@@	3884
gemisch@@	3884
Schütteln	3883
Insulinglulisin	3883
Louis	3883
DEN@@	3880
weisungen	3880
SG@@	3879
181	3878
Omeprazol	3878
Diabetikern	3878
auton@@	3877
ADENURIC	3876
4.9	3876
idiopathischer	3875
Onsenal	3875
fortzusetzen	3874
Avaglim	3873
Ultratard	3873
Teilnehmern	3873
gastro@@	3873
manischen	3872
Vier	3871
beschich@@	3871
Kalzium	3869
positiver	3868
Harmon@@	3867
lierung	3867
1250	3867
Vorgang	3866
-Test	3865
vermutet	3865
methode	3864
präparat	3863
Vinc@@	3863
ban	3863
Cr@@	3863
198	3862
stit@@	3862
Funktionsstörungen	3861
tödlichen	3861
verwiesen	3861
epidermale	3860
kontakt	3860
zun@@	3859
Produtos	3857
erwartete	3856
resultiert	3855
Fix@@	3855
ierre	3855
metr@@	3854
EINE	3853
cam	3853
menschlichem	3853
Nä@@	3852
Krebszellen	3852
Are@@	3852
ausgewähl@@	3851
Blasenbildung	3851
Feder@@	3851
Hormons	3851
gelegte	3851
mithilfe	3851
Wärme@@	3849
ves@@	3848
Einzelfällen	3848
tensi@@	3848
schwan@@	3848
Impfstoff@@	3848
orales	3847
rekonstituiert	3847
erzielte	3846
AZOPT	3846
mol	3845
det@@	3845
stin	3844
farbi@@	3843
č	3843
ZIMULTI	3843
Genuss	3843
konkurr@@	3842
Parallel@@	3842
Tendenz	3842
Manie	3841
Induktor	3841
Palpitationen	3840
Antrags	3840
spektiven	3839
potentiell	3839
BA@@	3839
stage	3839
DN@@	3838
Langzeittherapie	3838
mulation	3838
haut	3838
e.	3837
Dosiserhöhung	3837
æ@@	3837
Kontaktlinsen	3837
zufügen	3837
abhängiger	3834
Minimum	3834
Enbrel@@	3834
ω@@	3833
Charles	3833
treff@@	3833
398	3833
Anwendern	3832
IDflu	3831
Reproduktion	3831
Vaniqa	3831
Methyl@@	3829
irgendeiner	3828
Gliolan	3827
7,0	3823
376	3822
ruhe	3820
419	3820
mir@@	3820
Ganzen	3819
leitungen	3819
Elaprase	3819
Fasturtec	3819
Safety	3818
schlechte	3818
hinweist	3818
Drive	3817
Temsirolimus	3817
Ganz@@	3817
pflanzliche	3817
folglich	3817
schech@@	3816
flüssigkeit	3816
sat	3816
Mut@@	3815
Resistenzen	3814
Grap@@	3814
Comtan	3814
wöchentliche	3813
Trin@@	3813
proben	3813
gewechselt	3812
216	3811
zon	3809
einig@@	3807
chemie	3807
tics	3807
Interferon-@@	3806
hydroxy@@	3805
Vorbehandlung	3805
allgemeines	3804
Erörterung	3804
risi@@	3804
HBV-DNA	3804
monatlichen	3803
cos@@	3803
ALT@@	3803
Ras@@	3803
Melan@@	3802
Angehörigen	3802
lierten	3801
istisch	3800
s.c.	3800
sicherheits@@	3800
komponenten	3799
8,9	3799
Verges@@	3799
Füll@@	3798
fehlenden	3797
Substrate	3797
vorübergehender	3796
Centr@@	3796
adsorbiert	3796
Hyperkalzämie	3796
depot	3795
IL-2	3795
Beta	3795
empfindlichen	3795
yr@@	3795
reb@@	3794
vorzeitig	3794
264	3793
8,2	3793
ärz@@	3792
UN	3792
formi@@	3791
É@@	3791
nM	3790
C-	3790
256	3789
VELOTAB	3788
reichlich	3788
onin@@	3788
pharmakodynamische	3788
part	3787
Nebenwirkungsprofil	3787
Menopause	3787
-Durchstechflasche	3787
teratogene	3787
ungsmitteln	3786
408	3785
Mais@@	3784
Seife	3783
Zähne	3783
Aufschrift	3783
Ibaflin	3783
Anidulafungin	3782
register	3782
Gesundheitszustand	3782
Blister@@	3782
1800	3782
beu@@	3781
Bolusinjektion	3781
u-@@	3781
Cytarabin	3781
hysi@@	3780
Brombutyl@@	3780
Tolcapon	3780
dierung	3780
erzielten	3780
artiger	3779
rheumatoiden	3779
Febuxostat	3778
456	3778
aufgezogen	3776
Pilzinfektion	3776
Kombinationsbehandlung	3776
genehmi@@	3775
Deckel	3775
MER@@	3775
erörtert	3775
Report	3775
dire@@	3775
283	3774
NRTIs	3773
Inn@@	3772
LH	3772
ungs-@@	3772
º	3771
red	3771
fter	3770
Eierstöcke	3770
Bewertungs@@	3769
Kombinations@@	3768
Tinnitus	3767
rodu@@	3766
punkten	3765
yp	3765
versagen	3764
zk@@	3763
kristall@@	3763
540	3763
medizin	3763
agli@@	3762
beliebigen	3762
Kennzeichnung	3761
Stoffwechsel	3761
plötzlichen	3761
rechtfertigt	3760
vorangegangenen	3759
383	3759
041	3758
Arzneimittel-Agentur	3758
anstieg	3758
δ@@	3756
I.@@	3755
248	3755
M.@@	3755
orth@@	3754
versuche	3754
Interaktionen	3753
223	3753
PG@@	3752
Erreichung	3752
TRI@@	3752
stabiler	3751
gültige	3751
folgendermaßen	3751
Blutwerte	3750
217	3750
gelbliche	3749
hydro@@	3749
323	3749
Klare	3748
Schein@@	3748
wirkungen	3748
Umstruktur@@	3748
Analogon	3747
Lupus	3747
SN@@	3746
diabetischer	3745
amin-@@	3743
cla@@	3742
HbA1c	3742
bakteri@@	3742
www.emea.eu.int	3740
versehentliche	3739
Metformin@@	3739
grau@@	3738
Synagis	3738
umgekehrt	3738
Million	3737
addi@@	3737
Pharmakodynamische	3737
Oberflächen	3736
sechs@@	3736
phosphat	3735
invasiver	3735
vorrichtung	3735
Marker	3734
geneti@@	3733
Darreichungsformen	3733
AIDS-@@	3732
Kentera	3732
unzureichende	3731
einfrieren	3731
spiegel@@	3731
Exazerbationen	3730
braune	3730
GUTACHTEN	3730
ortieren	3730
dev@@	3729
Xagrid	3729
dierten	3728
nä@@	3728
gentliche	3727
schleimhaut	3727
gezielt	3727
teratogen	3727
Koordination	3726
GS@@	3726
Nimesulid	3726
übrig	3724
Kör@@	3721
brauch@@	3721
CPMP-@@	3721
045	3721
35-@@	3720
fieb@@	3720
Schie@@	3720
da-@@	3720
194	3719
ira	3719
Im@@	3719
Kürze	3718
Operations	3717
kru@@	3717
Eisai	3716
Foli@@	3716
GD	3716
flusses	3714
Weich@@	3714
Versuche	3714
entzündliche	3714
ART@@	3713
Beeinflussung	3711
shop@@	3711
XXX	3710
Schilddrüse	3708
Schwangerschafts@@	3708
otoxizität	3708
Kreislauf@@	3707
Ermittlung	3707
geschätzte	3707
Hitze	3706
333	3706
Trimethoprim	3705
Insuffizienz	3705
soliden	3704
PK@@	3704
090	3702
mur@@	3702
seitigen	3701
ernsthaft	3701
Einschätzung	3701
С@@	3701
saubere	3700
drucks	3699
Behandelte	3699
wissenschaftlicher	3699
Fruchtbarkeit	3698
ausgeprägte	3696
Penis	3694
CB@@	3694
geplante	3693
Lovastatin	3693
CV	3692
ès	3692
enheit	3691
Hyperlipidämie	3691
chenen	3691
streifen	3690
Rü@@	3690
halben	3689
Tritanrix	3689
orange@@	3688
š	3688
VERFAHREN	3688
geordnet	3688
E14	3687
kreis@@	3687
Gastritis	3686
Lact@@	3686
Ang@@	3686
test@@	3686
beigefügt	3685
Geweben	3685
ab-@@	3684
transportiert	3684
Slo@@	3683
ská	3683
Beobachtungen	3683
µM	3683
Lungenembolie	3682
Base	3682
Butyl@@	3680
übertragung	3679
249	3679
male	3677
hex@@	3676
Prialt	3676
Dystonie	3676
Mukositis	3676
Wiederauftreten	3676
Porcilis	3675
sinn	3674
konta@@	3674
zungen	3674
Begriffe	3673
skri@@	3672
LYRICA	3672
Lebensmitteln	3671
Colitis	3671
Atriance	3671
Blut-	3670
fläch@@	3668
dali@@	3668
vac@@	3667
verstärkter	3667
Stütz@@	3667
Symptom	3666
Risikomanagement@@	3666
arien	3665
lant@@	3665
bedeckt	3665
derartigen	3663
verteilung	3663
ito	3662
fluß	3662
alyse	3661
konstant	3661
virus@@	3661
extr@@	3660
Immunsuppression	3660
ver-	3659
Ursprungs	3659
ст@@	3658
Geschwüre	3658
Versor@@	3658
Gedäch@@	3657
streb@@	3657
reife	3657
Obergrenze	3656
Implantat	3655
Bristol-Myers	3655
Weiß	3653
avir@@	3652
aph@@	3652
Libido	3651
pas@@	3650
anwendung	3650
weiche	3650
lob@@	3650
ér@@	3649
Stabilisierung	3649
tgl	3648
Astellas	3646
Anagrelid	3646
minimalen	3646
mehrfach	3646
COM@@	3645
Zeitraums	3644
tech	3644
bren@@	3644
Aspirin	3644
Überdosierungen	3643
-4@@	3642
vorbehandelte	3642
schwellung	3642
triebs	3642
eindeu@@	3642
Monotard	3641
040	3641
verlu@@	3640
laktierenden	3640
interv@@	3639
bo	3639
Metacresol	3639
ACOMPLIA	3638
niedrigsten	3638
Belastungs@@	3637
blutdrucksenkenden	3637
ventrikuläre	3637
Ulzera	3637
Optaflu	3637
fru@@	3636
sämtlichen	3636
Triatec	3635
Tinte	3635
rauen	3634
Tab	3634
Medikation	3634
050	3634
EP	3634
-Studien	3633
Infusionsstelle	3633
Statin	3632
Vorbereitungen	3631
schwar@@	3631
gehoben	3631
Unit	3630
alkoh@@	3630
Kupfer	3629
mato@@	3629
Í@@	3629
AGE	3628
ühren	3627
AMMONAPS	3627
kannte	3626
380	3625
dokum@@	3624
317	3623
ationale	3622
Ernährungsstörungen	3622
Erfahrungs@@	3622
teilnahmen	3622
Orfadin	3622
Wachstumshormonmangel	3622
uth@@	3621
wandeln	3620
tsy@@	3619
orthopädischen	3619
apan@@	3618
steine	3618
oration	3618
vermehrter	3618
Antimykotika	3617
freigesetzt	3617
DNS	3617
herbei@@	3615
haushal@@	3614
Mirtazapin	3614
ordin@@	3614
HA	3613
B-	3613
posi@@	3612
401	3612
49-@@	3612
267	3610
Beschaf@@	3610
Past@@	3609
protein	3609
Stress	3608
Kupfer@@	3608
yk@@	3608
forderten	3607
ACE	3607
mesto	3606
Te	3605
′	3605
NY@@	3605
mau@@	3605
Vermeiden	3604
Infe@@	3604
48-@@	3603
355	3603
die@@	3603
Rati@@	3602
0,45	3602
315	3601
Glucose-@@	3601
Kommuni@@	3600
Krankheitsgefühl	3600
Tierarten	3600
größen	3600
verbess@@	3599
herausge@@	3599
breites	3597
MRL	3597
fielen	3596
Schichten	3596
Schwangerschaften	3595
Dolmet@@	3595
einzustellen	3594
178	3594
243	3594
β@@	3592
anhaltender	3592
äuft	3591
zugeordnet	3591
Biologicals	3591
erkenn@@	3591
gepoolten	3591
tmax	3590
Jean@@	3590
Teratogenität	3589
NeoSpect	3588
schrit@@	3588
Tin@@	3588
core	3587
186	3587
eingesetzten	3586
starkem	3586
natür@@	3585
leistet	3585
egs	3584
orthostatische	3584
Ranolazin	3584
heter@@	3584
Endo@@	3584
BEZEICHNUNG	3583
WINTHROP	3583
Lymphom	3582
Proben@@	3582
MBq	3582
gründ@@	3582
anspricht	3581
fenen	3581
Arme	3581
klingt	3581
Micafungin	3580
umfang@@	3580
Pegfilgrastim	3578
432	3577
Human-	3577
Pertussis	3576
Lamivudin-@@	3576
programms	3576
jahres	3576
ί@@	3575
Eudra@@	3575
kombinierter	3574
gültigen	3574
Helsinki	3574
schmerz	3572
AZARGA	3572
Hüft@@	3571
BC	3571
modifizier@@	3570
tz	3570
Prüfen	3570
Leukozyten	3570
Strahlen@@	3569
herkömmlichen	3568
Ausarbeitung	3567
Flaschen@@	3566
Tä@@	3566
Ulcus	3565
xis	3565
oid@@	3563
redu@@	3562
Medical	3562
iden	3562
adäquate	3561
y-	3561
Mammakarzinom	3560
viermal	3559
PN@@	3559
nehmenden	3558
AstraZeneca	3558
ur-	3558
erarbeitet	3557
Schutzwirkung	3557
festzulegen	3557
ALS	3556
SIA	3556
sätz@@	3555
abgeklungen	3554
herstellt	3553
Kreb@@	3552
Clostridium	3551
einzelner	3550
enar@@	3550
Lichtempfindlichkeit	3550
glu@@	3549
versehentlicher	3547
veröffent@@	3546
Calcitonin	3545
Maxi@@	3544
Begleit@@	3544
alfa-2a	3542
vorgefüllter	3541
technisch	3541
Puls	3540
beschleunigen	3539
Π@@	3539
Therap@@	3539
MO	3539
Hyponatriämie	3539
SY@@	3538
Los@@	3538
grun@@	3538
gegenseitig	3538
bevorzugt	3537
ollt	3536
Gerinn@@	3536
Feststellung	3535
Panzytopenie	3535
Extr@@	3535
gefährdet	3535
409	3535
Bilirubin@@	3534
è	3533
geheilt	3531
geringerem	3531
Foscan	3531
mehrmals	3530
RELISTOR	3530
325	3530
Muskulatur	3530
9,3	3529
RILUTEK	3529
Lungen	3529
Talspiegel	3529
Bluttests	3529
belastung	3529
Protokoll@@	3528
Blistern	3528
mittelschwer	3528
Trink@@	3527
Comtess	3527
vorge@@	3526
urin@@	3526
Yttriga	3526
INTEGRILIN	3526
Infusionsrate	3525
thromboembolische	3525
Fluticasone	3525
92@@	3524
Tumorzellen	3523
Vietnam	3523
dämpf@@	3522
Disk@@	3522
beta-1a	3522
kei@@	3522
stattgefunden	3521
Westferry	3520
CAR@@	3519
skala	3518
Laboruntersuchungen	3518
cations	3516
Netzhaut@@	3516
olin	3514
oden	3514
verlängerten	3514
invasive	3513
bricht	3513
Verl@@	3512
insulin@@	3512
Ganzes	3512
Bakteri@@	3512
verabreichte	3511
80-@@	3511
Eiweiß@@	3511
470	3511
Beratungen	3510
asie	3510
Pharmaceutical	3510
TTP	3509
vermehrt	3508
Ovarien	3508
INR	3508
ommen	3507
entzündungen	3506
Isol@@	3506
Ph	3505
HE@@	3505
Flüssigkeitsansammlung	3504
ASS@@	3504
Narkose	3503
Alpha-@@	3503
niedri@@	3503
Chil@@	3503
Testosteron	3503
dener	3503
Days	3503
б@@	3502
trockener	3502
Oberarm	3502
gue	3501
Max@@	3500
311	3500
UV-@@	3500
Östrogen@@	3499
Intervention	3499
Vermarkt@@	3498
................................@@	3498
auflösen	3497
Tmax	3497
Tumors	3496
standardi@@	3496
medizinisch	3495
Azacitidin	3492
Gelborange	3492
Kontra@@	3491
Informationstechnologie	3491
stoß	3491
agon@@	3490
oiden	3490
Parkinson-@@	3490
Koronar@@	3489
oat	3489
antihypertensive	3488
Indem	3488
Speiseröhre	3488
uv@@	3488
Crospovidon	3487
Fareston	3487
Insulindosis	3486
strengen	3486
Substitutionstherapie	3485
Rua	3484
Fosaprepitant	3484
Serokonversion	3484
Kleinkinder	3484
Behandlungsgruppe	3483
MIT@@	3483
stest	3483
Wäh@@	3482
Synth@@	3482
Reconcile	3480
Hochdisperses	3480
olische	3479
verlaufen	3479
Gil@@	3477
arität	3477
ozy@@	3477
µl	3476
Autoimmun@@	3476
Mitotan	3476
Nap@@	3476
anaphylaktoide	3475
sitzung	3475
c.	3474
Busulfan	3474
Zucht@@	3473
etta	3473
Drittländern	3473
Triglyceride	3473
vorangegangene	3472
einmalig	3472
Inhalations@@	3470
Lokale	3469
vorange@@	3469
Blutarmut	3469
lation	3468
MER	3468
Anakinra	3468
No.	3467
transplantation	3467
trali@@	3467
differen@@	3466
tätigkeit	3466
Altersgruppen	3465
Hep@@	3465
Intervall	3464
29-@@	3464
sex	3464
0,9@@	3464
Lymph@@	3461
ugh	3461
PO	3461
fün@@	3461
Kreis@@	3461
krank	3460
EX	3460
Phase-III-Studien	3460
anbe@@	3457
7-2@@	3456
bler	3456
2.1	3456
7,8	3455
ares	3455
Körpergröße	3454
1.8.1	3453
entstand@@	3452
eisen@@	3451
MD@@	3451
virologischen	3451
terte	3450
anzunehmen	3450
Produk@@	3450
jahre	3449
förmi@@	3448
Krebserkrankung	3447
aufhören	3446
gnis@@	3446
höh@@	3446
tumoren	3445
Knochenmarktransplantation	3445
aktualisierte	3445
Dünn@@	3444
belle	3442
7,7	3442
Än@@	3442
Ansprech@@	3442
punkt@@	3441
VICH	3440
aufgesch@@	3440
utz	3440
Farmacêuticos	3440
dom	3439
andel@@	3438
Albert	3438
gefährliche	3437
Hypertrophie	3437
ausreichender	3436
andr@@	3436
Bluterguss	3436
ämischen	3436
achtet	3436
Steady-State-@@	3436
Faslodex	3435
Evaluation	3435
332	3435
terien	3434
AVANDAMET	3434
ähe	3433
topischer	3433
Tode	3433
beteili@@	3432
radioaktiven	3431
tels	3431
Mediastinums	3431
Gluko@@	3430
OHNE	3430
Angi@@	3430
gemeinsam@@	3430
orat@@	3430
Brustraums	3429
290	3429
Langzeitanwendung	3429
source	3429
ität@@	3429
Cytochrom-P450-@@	3428
3.000	3427
leitete	3427
Venen	3427
Salmeterol	3426
F-9@@	3426
Abb@@	3425
2x@@	3425
multiplem	3424
Aloxi	3424
fehlender	3423
CO2	3422
Leberzirrhose	3421
Warszawa	3419
Quad@@	3418
Flebogammadif	3418
selbe	3418
Ustekinumab	3418
Hem@@	3417
Auflagen	3417
LÖSUNGSMITTEL	3417
307	3417
probe	3416
364	3416
beabsichtigt	3414
sorb@@	3413
verlie@@	3413
Box@@	3413
transplantierten	3413
Lysodren	3413
fünften	3413
0,6@@	3413
Gicht	3413
1.2	3412
eingebracht	3412
297	3411
greift	3410
Tyrol	3410
Klebe@@	3410
Polyester	3410
gegenwärtige	3409
-Mangel	3409
ansteigt	3409
NA	3409
Beamten	3409
ological	3408
vorteil@@	3408
ovi@@	3408
scheinend	3407
Stimmungs@@	3407
gestell@@	3407
057	3405
Strahlung	3405
verbrauch@@	3405
genommenen	3405
kombination	3405
Stühle	3403
-3@@	3402
Hazard	3401
Aspekten	3400
zeta	3400
übergehen	3400
onate	3399
Beuteln	3399
RG@@	3399
masse	3399
Klu@@	3398
gif@@	3398
Rezeptor-@@	3397
Leberwerte	3397
kontrollierter	3397
Berührung	3396
EXP	3396
fils	3396
Schluckbeschwerden	3396
Modu@@	3395
PR	3395
Ate@@	3394
gewand@@	3394
bewahr@@	3394
nem@@	3393
2.2	3393
leeren	3392
Brussels	3392
UG@@	3392
arterieller	3390
gewiss@@	3390
Küh@@	3390
plas@@	3390
schuß	3390
Humanarzneimitteln	3389
d.d.	3389
20.000	3389
menten	3389
plazebokontrollierten	3388
257	3388
TEC	3388
ministration	3388
BEN@@	3387
Dru@@	3386
erwär@@	3386
etwaiger	3386
gendem	3386
Interpretation	3386
grupp@@	3385
Director	3385
39-@@	3383
akti@@	3383
Kiefer@@	3382
Glykoprotein	3381
übertra@@	3381
CD4-@@	3380
GEMÄSS	3380
Nateglinid	3380
arm@@	3380
Wassers	3380
Sir@@	3379
Lasofoxifen	3379
Suizid@@	3378
Velosulin	3378
Kaliumspiegel	3378
haltiger	3377
Biotransformation	3377
anaphylaktischer	3377
abzugeben	3376
092	3376
Interaktionsstudien	3375
Faeces	3375
Rachen@@	3375
profil	3375
Normalerweise	3374
begünsti@@	3373
Mona@@	3373
Abwehr@@	3372
OPATANOL	3372
aufgehoben	3371
geborenen	3371
Geschlechts@@	3371
Neg@@	3370
zirk@@	3370
271	3370
abnehmen	3369
ausüben	3369
Daptomycin	3369
SCHLUSSFOLGERUNGEN	3369
Co-@@	3369
Abstoßung	3369
dol	3369
NACHGANG	3369
Benz@@	3368
zufuhr	3368
Einfuhr	3367
austausch@@	3367
Refludan	3366
χ@@	3365
etu@@	3364
2500	3363
gewohnten	3363
klen	3362
Hill	3362
NRTI	3361
stich@@	3361
frucht@@	3361
ungsta@@	3361
leichtes	3361
verlangsamt	3361
Ohr	3360
umin@@	3360
korrigiert	3360
hn@@	3359
SIND	3358
001-@@	3357
Vergewissern	3357
296	3357
ränken	3356
aufgetretenen	3356
lasten	3355
Nutzens	3355
Proteinen	3354
schützende	3354
injizier@@	3353
ausgeprägter	3353
psychiatrischen	3353
sprofil	3352
Grun@@	3352
aufeinanderfolgenden	3351
übergewichtigen	3351
diesbezü@@	3350
mili@@	3350
enkt	3348
spektrum	3348
Oslo	3347
partielle	3347
Dehydratation	3346
Ataxie	3346
Soll@@	3345
liance	3344
elop@@	3344
Scores	3343
о	3343
interstitielle	3343
Dopamin	3343
onische	3343
Thy@@	3342
eta@@	3342
ggf.	3341
ARCOXIA	3341
00.00	3340
Nahr@@	3340
Injektoren	3339
7000	3339
ATE	3339
Skelett@@	3338
aal	3338
4.7	3338
ì@@	3338
äss@@	3338
tat@@	3337
hepato@@	3337
Leichte	3337
Insulintherapie	3337
Phase-@@	3336
Nadelschutzkappe	3336
fili@@	3336
Glasart	3336
thrombotische	3336
Zaleplon	3335
Kent	3335
ovariellen	3334
Null	3334
Pilot@@	3334
been@@	3334
Dosissteigerung	3334
erwartenden	3333
einschließen	3333
periode	3332
nomin@@	3332
Kreatinin@@	3331
Hundes	3331
auseinander	3331
999	3330
Leberenzymwerte	3330
nisses	3330
profi@@	3329
disk@@	3329
Cholestase	3329
gebenen	3328
Verfüg@@	3328
HPV	3328
rennen	3328
Hepatitis-B-	3327
Basiliximab	3326
313	3326
Oberflächenantigen	3326
BEGRÜNDUNG	3326
Dau@@	3325
Erwä@@	3325
metastasierten	3325
erbracht	3324
Morbidität	3323
Quin@@	3323
Sorafenib	3323
Kopfschmerz	3323
NVR	3322
ECU	3322
Cerenia	3322
Ä	3322
normales	3321
Spiegels	3321
weib@@	3321
Degarelix	3320
gewählte	3320
öhn@@	3319
269	3319
scheibe	3319
1,73	3317
Teл	3317
251	3317
alleinigen	3316
kanal@@	3316
Stadien	3315
Cri@@	3315
3.5	3314
einzuhalten	3314
anal@@	3314
Schweiß@@	3314
Water@@	3313
aan	3312
091	3312
Tablets	3311
ulär	3311
Selbstmordgedanken	3311
ux@@	3310
Maus@@	3310
hig@@	3310
Theophyllin	3310
Gaucher-Krankheit	3310
komplizierte	3309
Kardiomyopathie	3308
vorkommt	3308
José	3307
Standardtherapie	3306
frisch@@	3306
Deutsch@@	3305
Wilson	3305
SE-@@	3304
zeitpunkt	3304
SK@@	3303
ÿ	3303
Lenk@@	3303
Ersuchen	3302
7,6	3302
alternativen	3300
typischerweise	3300
kinder@@	3299
HL@@	3298
ALT-@@	3297
Harndrang	3295
Blutzucker@@	3295
Apotheke	3295
Int@@	3295
GR-@@	3294
PDE@@	3294
alls	3294
278	3292
Mindestens	3292
einzuführen	3291
193	3291
schädlichen	3291
veränderten	3290
µmol	3290
Ischämie	3290
ISS@@	3289
Rhin@@	3289
racht	3289
Erhol@@	3289
Broschüre	3289
pfei@@	3288
V-	3287
alph@@	3287
opportunistische	3286
Gesamtüberleben	3286
transfer@@	3286
Blutzuckers	3285
S.L.	3285
einschlägigen	3285
Verzehr	3284
ITT	3281
Kreatinin-	3280
harma	3280
sog.	3280
venti@@	3280
otic	3279
ordnungsgemäß	3279
Rufinamid	3279
Chargenfreigabe	3278
PML	3278
herangezogen	3278
gemeinschaftlichen	3277
gelben	3277
vu@@	3276
neutralisierende	3276
AUS@@	3276
Astemizol	3275
befolgt	3275
ovol@@	3274
pfer@@	3274
zelle	3274
Alzheimer-Demenz	3274
KIOVIG	3272
SB@@	3271
senkende	3271
TESLASCAN	3271
einander@@	3269
mono@@	3268
MTX	3268
Typ-@@	3268
ACT@@	3268
Metalyse	3267
Muskel-	3267
Organ	3267
8,1	3267
4HB	3266
alia	3265
Bridion	3265
unbehandelten	3264
PVC-@@	3264
Scheinbehandlung	3263
vorgesehene	3262
ead	3261
begannen	3259
305	3258
harmonisierten	3258
ungeachtet	3258
luft	3258
Mobilisierung	3258
Nerven	3256
Korre@@	3256
Außer	3256
facher	3256
Harnsäure	3256
Reb@@	3255
Schulung	3252
vet@@	3251
Sili@@	3251
197	3251
Ce@@	3251
verabschie@@	3250
Oberflächen@@	3249
Lebertransplantation	3248
verletz@@	3248
EME@@	3248
gtes	3247
steil@@	3247
soci@@	3245
festgestellten	3245
Krankenhaus@@	3244
50.000	3243
.fr	3242
Verkürzung	3241
te-	3241
zubereitete	3241
kulären	3240
Pimecrolimus	3240
risikos	3239
Kraftfahr@@	3239
Organismen	3239
sinken	3238
Rückfall	3236
dauerhaften	3236
viren	3236
instabiler	3235
kot@@	3235
GH@@	3233
Wund@@	3233
Cali@@	3233
kos	3232
problemen	3232
Ähn@@	3232
rig@@	3232
komplizierten	3230
Schlaf	3230
steigende	3230
zyklen	3229
Omalizumab	3229
eva	3228
Cell@@	3228
konjug@@	3228
Raten	3228
Asp@@	3227
Eur	3227
VIRBAC	3226
sprün@@	3226
Hämaturie	3225
Prepandrix	3225
enia	3225
neutrophilen	3224
Zulassungen	3224
Steady-state	3224
leere	3224
Bestandteilen	3223
Nukleosidanaloga	3223
Prothrombinzeit	3223
Protamin	3223
Komplikation	3222
1.8.2	3222
unterteilt	3222
322	3222
Leberfunktionstests	3222
prüfte	3221
Kreuzresistenz	3221
Boulevard	3219
funktions@@	3218
langsamen	3218
90-@@	3218
Diltiazem	3218
27-@@	3217
Floh@@	3217
xin	3217
dürften	3216
Natriumchlorid-Lösung	3216
Lyrica	3215
Angiotensin-@@	3215
344	3215
gestützt	3214
Vareniclin	3214
Bestandteils	3213
Üblicherweise	3213
herabsetzen	3213
neigen	3213
anter	3212
lenken	3211
viralen	3211
277	3211
wass@@	3210
210@@	3210
Daraus	3210
Angstzustände	3209
Area	3209
nachstehend	3209
Fami@@	3208
Hören	3207
antimikrobi@@	3207
AZILECT	3206
ophthal@@	3204
resi@@	3204
istischer	3204
Ax@@	3204
überwach@@	3204
Klinisch	3204
FA	3203
QT-@@	3203
multizentrische	3203
Dokuments	3201
impf@@	3201
heilen	3198
Knoten	3198
senkung	3198
durchsichtige	3197
0,7@@	3197
042	3197
Abschluß	3195
abgesehen	3195
schätzung	3194
Operations@@	3194
Benachrichtigen	3194
frühe	3194
asth@@	3193
Transplant@@	3193
linen	3192
L.	3191
Hepatitis-B-Virus	3191
befes@@	3191
E110	3190
293	3190
Tuben	3190
Verschl@@	3190
erkrankt	3189
Ovarial@@	3189
Pent@@	3189
erläu@@	3189
S-	3189
astr@@	3189
Dosierspritze	3187
TEL	3186
ZO@@	3185
3-mal	3185
Republi@@	3185
ZNS	3184
lymph@@	3184
Lakt@@	3184
elf	3183
tas	3183
7,1	3182
Arthr@@	3182
CL	3182
265	3182
verschieben	3182
Rosuvastatin	3181
compresse	3181
Wachstums	3180
640	3180
chirurgische	3179
ycin	3179
zurückgeführt	3179
tubuläre	3178
DURCHSTECHFLASCHEN	3178
Statinen	3177
virologische	3177
Dysgeusie	3177
Tropfinfusion	3177
⋅	3177
OP	3176
isen	3176
Leberentzündung	3176
abgeb@@	3176
aufgezeigt	3176
esy@@	3175
häufigen	3175
IB	3175
genes	3175
Aufgaben@@	3174
Sicherheits-	3174
transportieren	3174
operiert	3173
gramms	3173
REGRANEX	3173
vorbestehenden	3173
Blocker	3173
vul@@	3173
verdünnte	3172
fang	3172
Knochenschmerzen	3172
infizierte	3172
Hitzegefühl	3171
Pepti@@	3171
fo	3170
Daronrix	3170
Bicalutamid	3170
empfehlenswert	3169
Cephalon	3169
Pasteurella	3169
Janssen-Cilag	3169
Nierenfunktionseinschränkung	3167
Atten@@	3167
artik@@	3167
rup@@	3167
390	3166
mittelgradiger	3166
zien	3166
einstellung	3165
Lutropin	3164
Riluzol	3164
ämpf@@	3163
10x	3163
intramuskulärer	3162
Revasc	3161
Kabi	3161
inhalativen	3161
kanal	3161
insuffizienz	3160
Sämtliche	3160
BER	3160
Arzneimittelwechselwirkungen	3159
quantit@@	3159
Ausgehend	3159
nerv@@	3159
annehm@@	3159
7,4	3159
tischem	3158
Rückstands@@	3158
Gemzar	3158
Schwein@@	3157
Stehen	3157
cos	3157
monoklonaler	3157
Travoprost	3156
ßer@@	3156
spenden	3156
Überwach@@	3155
gezi@@	3154
Beschleuni@@	3154
egt	3153
sulf@@	3153
beträcht@@	3152
ektive	3152
302	3152
molek@@	3152
fact@@	3151
WO@@	3150
proto@@	3150
sistenz	3149
Serotonin-@@	3149
dienten	3148
kation@@	3148
ral	3148
VIII-@@	3147
AGEN	3147
Nierenerkrankungen	3145
consider	3145
ofern	3144
neuem	3144
sammlungen	3144
HB@@	3143
CYP@@	3143
Kolitis	3143
ausgehend	3142
Versa@@	3140
ational	3140
flache	3139
füllung	3139
radioaktive	3138
dis	3137
mind	3137
Augenschmerzen	3137
niert	3137
lebende	3137
Abgeschlagenheit	3137
6.5	3136
Dosis-@@	3136
Pilze	3136
Zugabe	3135
richtlinien	3134
Krebserkrankungen	3134
vergessene	3133
ION	3132
Gastrointestinale	3132
schläfrig	3131
rezeptoren	3131
Tenecteplase	3130
kontin@@	3130
jenigen	3129
geringfügige	3128
Sevofluran	3128
befestigt	3128
Ähnliche	3127
schlechter	3127
Leder@@	3127
336	3127
r.	3127
tial	3127
VASOVIST	3126
Eosinophilie	3126
Kommt	3126
verschw@@	3126
Verzö@@	3125
olischen	3125
MRLs	3124
asehemmer	3124
ements	3124
blät@@	3124
dist@@	3123
Dosierungsempfehlung	3123
272	3123
von-@@	3122
vorbestehender	3122
embryonale	3122
Abschnitten	3122
Stoffen	3121
AbZ	3120
312	3120
EVICEL	3120
Panitumumab	3119
wässrige	3119
sank	3119
az	3119
Intervallen	3118
Vereinfachung	3118
ül	3117
Gewichtsreduktion	3117
Angiotensin-II-@@	3117
medikation	3116
weißem	3116
Fluticasonfuroat	3116
Bimatoprost	3115
Berkshire	3115
12.5	3115
terer	3114
TN@@	3114
Einmal	3113
Phase-III-Studie	3112
respiratorische	3112
anzeige	3112
kappen	3110
G-CSF	3110
Lymphomen	3110
stopfen	3110
EWR	3110
Stickstoffmonoxid	3109
037	3109
Retinopathie	3109
enin@@	3108
gehörigen	3108
475	3108
1x	3107
säure-@@	3107
COR@@	3107
TNF-@@	3106
zuläs@@	3106
Fut@@	3105
9,1	3104
Beispiel@@	3104
isoli@@	3104
347	3104
symp@@	3103
Erkennung	3102
acke	3101
osin	3101
freigegeben	3100
wak@@	3099
Transaktionen	3099
initiale	3099
-Exposition	3099
έ@@	3099
241	3098
Hilfsmittel	3098
ansonsten	3097
Populationen	3096
direktem	3096
onat@@	3096
e-mail	3096
Peritonealdialyse	3095
aufrechtzuerhalten	3095
mac@@	3095
LOR@@	3094
ine-@@	3094
Isch@@	3094
doppel@@	3094
hibi@@	3093
Herstellers	3093
266	3093
Medicinal	3093
Zink	3093
steriles	3093
trat@@	3093
erhalb	3091
kehrt	3091
Kalender@@	3091
myel@@	3091
ernsthafte	3090
körpern	3090
typen	3090
Glycin	3089
ERS	3088
Sachverständige	3088
erem	3088
olyse	3087
acetat	3087
kologie	3087
Xenical	3086
In-vivo-@@	3086
zerebrovaskuläre	3086
ausführlich	3085
gelb@@	3084
NOV@@	3084
ischämische	3084
3.1	3082
Leberprobleme	3082
Randomisierung	3082
Stämmen	3081
trate	3081
Hautfarbe	3081
Targretin	3080
chemisch	3080
diastolischen	3079
kin	3078
parenteralen	3078
Monat@@	3078
kIE	3077
Optimark	3077
iell	3076
kanäle	3076
abgeleitet	3076
nfalls	3076
Glyc@@	3076
Suppression	3076
ausgewiesen	3076
0,8@@	3076
chro@@	3076
cholesterin@@	3076
bestimmung	3075
zirkulierenden	3075
Lungenödem	3075
Refle@@	3074
ου	3074
Prograf	3073
Visu@@	3073
─	3073
esischen	3072
Wechselwirkungsstudien	3072
fektionen	3071
Hampshire	3071
Tyrosin@@	3070
beschleunigt	3070
Applikationsspritze	3070
verschieden	3069
Corticosteroiden	3069
Sachver@@	3069
Dys@@	3069
beiträgt	3069
MYLAN	3069
beginn@@	3068
187	3068
Gallenerkrankungen	3067
isiert	3067
Applikationsstelle	3067
Mio.E.	3067
geru@@	3067
-Wertes	3067
Flüs@@	3067
Statine	3067
initialen	3066
.1	3066
Atosiban	3066
Placebos	3066
Iloprost	3066
GER@@	3066
vorbehandelt	3065
synthese	3065
längerer	3065
scheinbare	3065
verabschiedete	3065
Mitglieds@@	3065
utin@@	3064
gewich@@	3064
verschlechtert	3064
GFR	3063
bestätigten	3063
Calciumfolinat	3063
Reproduktionsstudien	3063
durchgeführte	3062
emoti@@	3061
Agalsidase	3061
chen-@@	3060
Nacken	3060
ektiv@@	3059
ία	3059
dyl@@	3059
mechanischen	3058
Myel@@	3058
stündigen	3057
Etiketten	3057
ters@@	3057
ämi@@	3056
Hydroxy-@@	3054
Bewusstseins@@	3054
Abweichung	3054
625	3053
anzur@@	3053
systematisch	3053
nol@@	3053
cum	3052
DER@@	3052
pivotalen	3052
verständigen	3052
Fristen	3051
387	3051
Verhütung	3050
positives	3050
wirkte	3050
Ø	3049
Risikominimierung	3047
MM@@	3046
standard@@	3046
MY@@	3046
O.	3045
arer	3044
Multiple	3044
nica	3044
WP	3043
äuren	3042
annt	3042
tablet@@	3042
Amb@@	3042
BN	3041
Santé	3041
428	3040
Arrhythmie	3039
venöse	3039
Inspektions@@	3039
£	3039
häm@@	3038
SureClick	3037
Geschw@@	3037
Entnehmen	3036
STE@@	3036
angewand@@	3036
Nachbeobachtung	3035
heiß@@	3033
akter@@	3032
Dün@@	3032
lineare	3032
farbigen	3032
Antikoagulantien	3032
Fingern	3032
genheiten	3031
CD4	3031
Bisphosphonate	3030
aushal@@	3030
Injektors	3029
mutagen	3029
ł@@	3029
esk@@	3028
Evohaler	3028
Altargo	3028
3.2	3028
einstell@@	3028
Unterschie@@	3027
luß	3027
Therapiedauer	3026
Athens	3026
indir@@	3026
Lane	3026
Aug@@	3026
0,02	3025
P.O.	3025
Aivlosin	3025
Bleomycin	3023
gebooster@@	3023
Lisonorm	3022
SICH@@	3022
Verstärk@@	3021
-1,@@	3021
Fünf@@	3021
1,000	3021
Grippe	3021
Abhängig	3021
topischen	3020
arben	3020
fusions@@	3019
Folglich	3019
Austausch@@	3019
Laktose	3018
-Re@@	3018
Allgemein@@	3017
Hex@@	3017
trockenen	3016
Interferonen	3016
rezept@@	3016
Hinzufügen	3015
koronare	3015
dheit	3014
intravas@@	3014
sus	3014
dauerhafte	3013
neg@@	3013
häufigkeit	3013
Nachweisgrenze	3012
P450-@@	3012
Verengung	3011
kalische	3011
oid	3011
l-	3010
Männ@@	3010
ausreicht	3009
Blutgerinnungsfaktor	3009
verwen@@	3008
QD	3007
erhöhung	3007
asmus	3007
dosisabhängigen	3006
Natalizumab	3005
Hilfsstoffe	3004
Enzy@@	3004
abgeschwächt	3003
Verhältnisses	3003
Verabschiedung	3003
Cholesterinspiegel	3003
Malaysia	3003
drit@@	3002
TES	3002
Maisstärke	3002
Angiotensin-II-Rezeptor-Antagonisten	3001
protein@@	3001
Anomalien	3000
MS-@@	2999
Arzneimittel-@@	2999
Diclofenac	2999
LA@@	2998
Sons@@	2998
ungewöhnlich	2997
Ausbreitung	2997
itor	2996
Na	2996
Solu@@	2996
Leberschäden	2995
makro@@	2995
Stellvertret@@	2994
größeres	2993
Wertes	2992
ble@@	2992
6-	2991
Fibrin@@	2991
Bindungs@@	2990
beigefügten	2990
Blutzuckerwerte	2990
diagnostische	2989
WISSENSCHAFTLICHE	2989
Servier	2989
beispiel@@	2989
sanft	2988
44-@@	2988
olar@@	2987
postnatalen	2987
414	2987
LV@@	2985
484	2984
Einzelfall	2983
verglich	2983
0,50	2982
Analoga	2982
bronchiale	2981
Effekten	2981
solution	2981
Chronische	2980
Impotenz	2980
Verapamil	2980
nov@@	2980
glomeruläre	2980
Seien	2979
übermäßiger	2979
dekompensierter	2978
deutlicher	2978
amma	2978
Hypomagnesiämie	2977
Vasodilatation	2977
agt	2977
Ausweisung	2977
regelmäßi@@	2976
eingeschränkten	2975
È@@	2975
520	2975
häufi@@	2975
Agitiertheit	2975
äres	2974
gesteigerte	2973
9,8	2973
289	2973
NEOPHARMA	2972
281	2972
effekt	2972
Dyskinesie	2972
Tagungen	2971
Eptifibatid	2971
2C9	2971
retard	2971
Crixivan	2969
dunkl@@	2969
Ritonavir-@@	2969
Organismus	2969
hemmer	2968
Eiweiß	2966
Acerbon	2966
Lock@@	2966
4-hydroxybenzoat	2966
Pandemrix	2966
stündige	2964
nicht-	2964
reichte	2964
medizinischem	2964
kleb@@	2964
EF	2964
Filmüberzug	2964
Cladribin	2964
Haushaltsp@@	2964
Probe	2963
MedDRA	2962
erhäl@@	2962
chtes	2962
9,2	2962
Einmaldosis	2962
Pharmakodynamik	2960
werts	2960
abgeben	2960
opie	2960
verbleibt	2959
Sitzen	2959
Guan@@	2959
stehender	2958
betrafen	2958
kürzer	2958
oster@@	2958
Quality	2957
Belast@@	2957
trin@@	2956
Osteonekrose	2956
wahrschein@@	2955
begeben	2955
-Agonisten	2955
H-	2955
PDT	2954
beleuch@@	2954
ktin@@	2954
-Arm	2953
Mitberichterstatter	2953
Ruhelosigkeit	2953
Haarlem	2952
Pharmakologie	2952
Dosistitration	2952
SER@@	2952
mend	2951
sko@@	2951
maliges	2950
ý	2950
TL@@	2950
Ps	2950
Lipid@@	2950
Fres@@	2950
agi@@	2949
gl.	2949
Abwesenheit	2949
rigkeit	2948
anfan@@	2948
trocknen	2947
dep@@	2947
erkrankten	2946
Phen@@	2946
Botox	2945
Einzel-	2944
erleiden	2944
Benelux	2943
austritt	2943
Funktionsweise	2942
omot@@	2942
befindlichen	2941
Atemwegs@@	2941
Bedar@@	2940
vorzubereiten	2940
fortschrei@@	2940
Tiergesundheit	2939
ausgelassen	2939
dreht	2938
Ο@@	2938
Lymphknoten	2938
ria	2937
verletzung	2937
ACR	2936
sac@@	2936
korrekten	2936
thor@@	2935
geistige	2935
benommen	2935
steigert	2934
TEL@@	2933
Ash@@	2932
renal	2932
idiopathischen	2931
Aluminium-	2931
immunsuppressiven	2930
CY@@	2930
Sweden	2930
TION@@	2930
atmen	2929
Blase	2929
Infusionsreaktionen	2929
biologisch	2929
eventuelle	2929
Proto@@	2928
Induktions@@	2927
Hypästhesie	2927
Kei@@	2927
Rotavirus-@@	2927
äte@@	2926
xen	2925
Fluvoxamin	2925
Middlesex	2925
Enoxaparin	2925
Apfel@@	2925
Exazerbation	2924
esien	2924
stützt	2924
Β@@	2924
Infusionslösungskonzentrats	2924
Cystadane	2923
WEL@@	2923
Plas@@	2923
3,75	2923
Lungenkrebs	2923
pet@@	2922
chrom@@	2922
Transamin@@	2922
Einwände	2921
Bewegungsapparates	2921
Hyprolose	2920
459	2920
Aluminiumfolie	2919
infusionsbedingte	2919
Vilnius	2919
lierte	2919
stellvertret@@	2917
örtlich	2917
Citronensäure	2917
463	2916
244	2916
gewöhn@@	2916
CD4-Zellzahl	2916
1.25	2916
Aminosäur@@	2915
Inhabern	2915
übersteigt	2915
Ps@@	2914
Plazebo-@@	2914
bedenken	2914
P-gp	2914
leichtem	2914
Karzinogenität	2914
unterdrückt	2914
Beromun	2914
WI@@	2914
BLUE	2914
antagon@@	2914
[...]
