"	13408124
,	10518228
the	9826238
.	7923457
of	5444894
:	5082466
/	4856635
and	4806834
to	3976439
in	3482115
a	2880572
)	2451713
(	2422028
is	2203879
for	1725660
The	1485651
-	1478691
on	1394114
with	1289250
that	1194913
are	1006445
be	920232
as	890108
you	869102
from	819026
by	813732
it	764449
this	740526
1	723448
not	705356
at	672403
was	662020
or	647840
I	627547
will	612905
http	601037
have	586079
an	552669
can	528635
which	502804
?	498712
we	473798
2	468496
your	467287
has	461168
_	459189
all	439667
+	417208
10	382042
our	379718
’	378581
€	370614
also	354162
s	353743
!	353644
;	347755
In	346210
7	341839
's	336136
=	336082
This	333244
3	329788
It	329379
%	324961
more	313698
one	312436
12	310344
their	304656
2016	297458
its	294874
]	290778
00	288022
11	287125
...	282140
&	279829
4	278702
'	277350
*	272946
time	268846
16	266907
they	266825
[	264981
but	264340
new	261205
17	259255
>	253447
been	241402
#	238299
he	235623
other	235381
his	235264
We	233986
about	230477
5	228632
20	223989
15	221101
“	219159
only	218733
up	218446
0	215297
A	212007
European	209977
»	209140
who	207119
–	206478
there	203734
were	198978
”	197163
us	195607
m	194470
6	193361
13	191280
out	189081
18	188846
into	188095
nights	187212
You	186532
14	184778
do	184663
07	184119
01	183694
so	182596
19	180685
30	180252
them	178320
very	177334
B	175728
people	175568
no	173111
8	173080
would	172879
08	171513
21	169192
-@@	169090
22	166776
had	164559
first	164255
if	164087
any	161324
am	160366
now	159587
like	159531
2015	157846
03	156913
use	156615
02	155628
well	154543
these	153456
04	152671
when	152148
09	151791
my	151679
de	151366
PM	151120
25	149750
23	148196
years	148111
than	146941
many	146057
9	145384
05	144975
between	144387
information	143228
most	143105
should	140665
06	140262
work	137891
such	136759
en	136745
two	134127
If	133966
what	133359
For	133283
over	132687
found	131547
24	129555
some	128739
And	128693
here	127760
km	127750
C	127486
sat	127083
2010	125470
www.@@	122697
must	119896
make	119373
2009	118981
way	118869
page	118589
system	117959
world	117661
year	117196
°	116780
May	116521
where	116129
area	115142
Commission	114568
made	114441
me	113711
through	113546
may	113213
place	112794
just	112144
28	110998
27	110992
room	110796
«	110062
take	109599
26	109584
Posted	109532
how	109378
2011	109237
t	108734
used	108581
after	107743
2008	107552
available	106045
see	105147
x	104230
i	104096
then	103085
2013	102300
day	102259
2014	101819
2012	101812
number	101658
29	101476
even	100731
right	100397
times	100281
Germany	100241
need	100139
because	100112
free	99170
Europe	98987
EU	98138
Hotel	97623
order	97584
part	97199
find	96060
currently	95880
good	95660
50	95394
hotel	94587
view	94584
her	94172
products	92968
31	92893
per	91791
same	91752
There	91730
service	91293
those	91103
him	90694
URL	90058
AM	89844
important	89038
under	88941
März	88924
different	88018
2007	87628
der	87529
being	87288
UTC	87141
since	87136
get	86738
before	86623
own	86072
data	85579
said	85318
As	85141
server	83864
without	83686
But	83635
He	83261
able	82335
offers	82123
S@@	82079
site	81838
possible	81757
All	81412
States	81015
life	80970
great	80920
development	80908
countries	80572
August	80501
rooms	80238
within	80170
high	79871
49	79803
40	79771
could	79769
T@@	78650
o	78628
support	78440
city	78092
each	77965
<	77436
2006	77357
German	77098
best	77060
und	77023
k@@	76920
market	76775
requested	76601
company	76566
services	76529
want	76516
shall	76403
during	76154
both	76023
following	75762
does	75280
November	74894
K@@	74587
re@@	74360
s@@	74316
September	73926
Mr	73393
God	73390
end	73351
quality	73343
pm	73325
against	73102
know	73074
house	72814
set	72803
back	72726
B@@	72495
D@@	72172
un@@	72124
To	71554
water	71487
Council	71160
Our	70899
P@@	70870
A@@	70180
G@@	70161
2005	70104
go	70061
every	69974
car	69820
much	69662
last	69613
small	69307
offer	68826
.@@	68656
On	68498
still	68298
in@@	68041
case	67841
es	67821
They	67742
With	67546
October	67444
't	67085
business	67076
R@@	66891
32	66378
F@@	66324
100	66285
she	66226
L@@	66224
....	65992
long	65912
Aug	65708
name	65650
E@@	65631
file	65567
international	65549
H@@	65528
d@@	65471
Member	65445
man	65297
33	65268
45	65252
Union	65192
April	65007
At	64882
e@@	64777
Reply	64626
h	64530
three	64390
²	64389
N@@	64382
New	64378
public	64273
around	64252
come	64091
already	63553
What	63510
M@@	63497
including	63375
2004	63268
level	63108
located	63055
t@@	62992
die	62971
process	62934
help	62815
children	62563
n	62265
access	62251
EUR	62092
C@@	61763
.com	61554
example	61396
product	61376
er@@	61205
course	61172
point	60663
V@@	60626
35	60547
March	60544
June	60447
$	60400
real	59787
again	59640
President	59624
mm	59604
n@@	59155
e	59064
production	58708
large	58559
always	58439
39	58244
43	58144
y@@	57748
July	57740
f@@	57557
b@@	57518
country	57506
old	57476
p	57414
z@@	57345
using	56972
open	56912
days	56716
down	56715
8@@	56695
34	56653
further	56426
41	56130
p@@	56062
social	55944
form	55895
report	55869
power	55751
based	55701
next	55681
al@@	55569
en@@	55533
energy	55408
m@@	55374
million	55368
project	55136
bed	55030
today	54978
er	54779
9@@	54602
means	54535
36	54479
When	54420
l	54305
special	54273
while	54259
away	54213
cm	54160
O@@	53970
W@@	53864
provide	53687
did	53564
economic	53489
From	53387
too	53160
i@@	52776
…	52686
ist	52628
January	52411
a@@	52297
future	51954
give	51917
group	51888
together	51711
6@@	51580
say	51474
g@@	51304
10@@	51304
results	51215
few	51070
experience	50752
full	50721
o@@	50573
Number	50536
d	50420
l@@	50366
Z@@	50240
policy	50082
person	50059
44	50050
main	49981
result	49955
areas	49666
von	49575
42	49490
ID	49479
7@@	49294
c@@	49211
working	49164
design	49152
game	49096
These	48952
systems	48944
After	48934
D	48874
48	48859
j@@	48840
change	48820
December	48666
another	48620
therefore	48554
light	48350
an@@	48292
38	48282
control	47981
English	47971
home	47659
Parliament	47612
online	47524
.htm	47171
37	47150
g	47102
United	46799
until	46790
France	46719
55	46672
No	46663
local	46534
range	46533
building	46527
less	46513
h@@	46411
v@@	46315
private	46204
second	46120
centre	46109
Home	45979
conditions	45785
contact	45703
ing	45642
above	45632
rights	45620
better	45578
left	45547
price	45509
4@@	45505
ers	45492
family	45478
TV	45334
off	45281
February	45278
um	45158
That	45134
line	45102
46	45086
become	44999
put	44992
guide	44965
management	44965
research	44961
So	44946
given	44916
present	44832
J@@	44816
side	44713
fact	44679
show	44657
Berlin	44620
r@@	44399
national	44369
52	44353
air	44305
current	44237
political	44163
hand	44085
x@@	43967
\	43909
companies	43777
law	43717
website	43645
land	43618
sea	43595
I@@	43532
stay	43473
54	43281
59	43243
human	43175
w	43160
necessary	43070
particular	43052
3@@	43023
art	43021
little	43007
field	42963
look	42716
2003	42648
visit	42567
ch@@	42552
However	42546
Internet	42475
Saturday	42369
subject	42280
things	42271
el@@	42175
47	42138
several	42101
y	42077
b	41938
position	41916
51	41911
industry	41850
Friday	41834
56	41826
ten	41695
taken	41458
16@@	41376
u@@	41342
various	41324
financial	41297
beautiful	41167
views	41112
type	41101
58	41007
cannot	41000
near	40935
2@@	40911
14@@	40879
International	40841
play	40801
technology	40781
15@@	40766
Here	40706
far	40672
whole	40647
application	40589
minutes	40575
‘	40447
5@@	40418
53	40398
state	40397
By	40395
needs	40362
start	40307
57	40304
e-@@	40242
apartment	40144
ago	40129
total	40123
60	40120
among	40119
software	39923
works	39841
.jpg	39837
really	39818
ar@@	39732
One	39731
months	39714
c	39643
17@@	39632
US	39571
region	39547
town	39523
X@@	39503
w@@	39470
activities	39458
period	39370
.de	39323
How	39255
think	39203
called	38980
GmbH	38970
al	38956
13@@	38924
ed	38844
value	38831
single	38796
S	38759
0@@	38725
Your	38696
12@@	38473
please	38441
living	38301
Please	38281
Uhr	38276
men	38198
provided	38078
food	38038
projects	37964
für	37956
according	37925
k	37886
breakfast	37835
Hotels	37763
•	37727
include	37567
den	37517
version	37511
list	37366
u	37348
close	37293
Thursday	37113
protection	37100
music	37098
generated	37083
problem	37057
Group	37055
body	36971
modern	36968
actually	36933
U@@	36875
es@@	36845
18@@	36814
common	36714
age	36697
ladysilvia	36670
night	36664
Y@@	36658
customers	36650
week	36640
hours	36566
World	36543
on@@	36475
seconds	36410
location	36409
easy	36378
action	36371
security	36317
however	36315
love	36241
clear	36213
create	36201
costs	36133
individual	36116
measures	36017
guests	35940
heart	35939
especially	35879
natural	35856
top	35821
space	35805
upon	35785
More	35681
often	35675
files	35671
came	35584
a-@@	35426
question	35298
specific	35194
addition	35099
program	35044
South	35024
general	34768
training	34688
something	34611
estate	34520
fully	34404
90	34380
Windows	34313
Italy	34285
request	34251
situation	34215
{	34176
itself	34145
trade	34143
known	34127
delivery	34125
personal	34120
ate	34109
don	34100
via	34087
ensure	34038
points	33974
making	33925
T	33849
history	33847
along	33837
images	33830
Tel	33797
prices	33775
Fax	33747
health	33730
enjoy	33712
took	33708
Then	33643
lot	33564
why	33532
text	33531
is@@	33503
rental	33471
20@@	33455
80	33427
events	33405
ad	33386
or@@	33361
road	33359
hotels	33355
basis	33261
least	33249
language	33123
four	33056
ab@@	33034
third	33026
live	32985
let	32969
due	32951
key	32941
event	32924
once	32903
size	32833
.html	32773
am@@	32745
la	32744
whether	32728
center	32723
going	32714
increase	32704
beach	32704
complete	32703
others	32666
provides	32638
problems	32621
members	32602
Sunday	32598
done	32432
environment	32394
young	32392
at@@	32378
image	32373
address	32311
might	32175
makes	32175
content	32120
certain	32003
material	31974
transport	31962
}	31919
having	31887
L	31867
book	31842
required	31815
etc	31814
te@@	31785
style	31747
performance	31711
standard	31694
San	31669
ti@@	31666
map	31663
issue	31660
games	31566
women	31454
University	31363
user	31302
nature	31298
speed	31256
created	31206
accommodation	31186
O	31181
yet	31156
computer	31121
directly	31075
@	31067
cooperation	30948
terms	30942
technical	30941
M	30937
st@@	30924
2000	30919
Sun	30891
pool	30878
customer	30855
short	30850
team	30805
In@@	30771
W	30739
believe	30737
Date	30734
account	30699
developed	30607
link	30593
click	30570
VAT	30534
State	30448
La	30419
it@@	30395
Phone	30372
ad@@	30366
1@@	30295
—	30260
visits	30237
v	30233
de@@	30227
equipment	30207
Since	30134
decision	30110
floor	30089
low	30034
updated	30014
agreement	30008
government	30002
role	30000
Lord	29965
issues	29963
growth	29945
facilities	29904
century	29878
Tuesday	29858
never	29851
network	29843
double	29811
parts	29780
towards	29734
machine	29721
ar	29705
front	29681
requirements	29668
interest	29632
continue	29629
looking	29588
major	29543
features	29495
1.@@	29442
amp	29387
dis@@	29377
ro@@	29374
kind	29322
City	29267
Price	29263
big	29226
Free	29223
F	29222
Al@@	29215
money	29199
My	29186
ation	29151
parking	29150
as@@	29127
construction	29106
requests	29060
legal	29059
son	29037
media	28902
ver@@	28865
be@@	28848
s-@@	28827
70	28785
Wednesday	28724
z	28677
users	28601
search	28594
Monday	28586
added	28565
additional	28548
ac@@	28525
f	28525
French	28518
sun	28364
board	28362
call	28336
Breakfast	28325
200	28322
sector	28274
built	28204
zu	28173
An	28140
thus	28127
date	28105
table	28104
solutions	28082
Do	28057
past	28040
Spain	28038
particularly	28019
House	27959
everything	27951
23@@	27949
original	27933
video	27931
USA	27882
25@@	27880
2002	27793
perfect	27768
true	27744
programme	27735
war	27684
E	27677
wish	27672
photos	27671
later	27665
Die	27648
ic@@	27571
et	27571
solution	27556
safety	27538
Now	27513
meet	27478
keep	27422
di@@	27411
th@@	27397
te	27326
Time	27281
el	27279
global	27198
Location	27191
allows	27185
almost	27148
station	27143
member	27142
bar	27134
His	27121
2.@@	27102
®	27085
groups	27072
General	27030
le	27013
themselves	27007
meeting	26945
care	26942
Last	26930
©	26912
comes	26883
persons	26867
below	26861
min	26839
im	26815
taking	26807
le@@	26803
China	26767
wide	26753
unique	26739
im@@	26701
knowledge	26672
R	26666
24@@	26653
equipped	26630
AG	26560
Joined	26535
words	26512
send	26508
em@@	26498
et@@	26493
held	26489
Israel	26471
tax	26458
designed	26412
cases	26404
questions	26376
ag@@	26337
beds	26300
takes	26239
related	26198
longer	26185
r	26172
read	26169
turn	26114
select	26077
immobili	26035
rate	26033
bring	26026
Re@@	25991
rules	25974
king	25881
property	25879
strong	25857
internet	25856
film	25853
ing@@	25830
walk	25813
-20	25798
N	25791
test	25768
An@@	25754
News	25727
seen	25629
V	25627
Jesus	25620
ed@@	25608
village	25608
changes	25581
matter	25577
effect	25568
includes	25555
apartments	25503
materials	25487
return	25474
holiday	25467
30@@	25443
sure	25435
uploads	25417
ter	25396
bathroom	25393
Click	25385
soon	25384
os	25373
included	25363
ts	25352
series	25342
das	25309
restaurant	25285
maps	25248
early	25131
G	25121
applications	25097
ri@@	25086
excellent	25041
shows	24986
feel	24974
beginning	24956
reason	24930
K	24923
temperature	24892
went	24880
Sch@@	24875
Airport	24871
professional	24854
quite	24852
Community	24825
cultural	24797
Switzerland	24748
head	24741
X	24736
office	24728
co@@	24710
Mon	24709
receive	24678
school	24527
summer	24437
'@@	24425
ideal	24409
Samstag	24389
di	24374
garden	24371
connection	24342
https	24305
2001	24277
capital	24275
central	24257
society	24219
rather	24215
Post	24193
forum	24145
download	24136
Committee	24126
recommend	24094
ask	24091
se@@	24076
treatment	24062
sch@@	23989
ated	23982
ever	23950
simply	23922
outside	23876
hope	23875
active	23873
wp-content	23867
lo@@	23844
staff	23839
five	23821
simple	23778
allow	23747
26@@	23702
Donnerstag	23700
t-@@	23683
als	23641
run	23631
drive	23560
respect	23554
il@@	23552
aid	23548
Ar@@	23543
Sep	23543
leading	23532
3.@@	23517
opportunity	23506
share	23506
500	23498
responsible	23478
Mar@@	23436
thing	23424
calendar	23392
reach	23347
27@@	23318
friend	23302
Ã	23205
plan	23200
famous	23195
model	23165
Dr.	23160
ol@@	23154
28@@	23127
either	23119
places	23096
step	23092
´	23086
function	23056
situated	23056
button	23043
non-@@	22999
forward	22978
choose	22964
received	22961
traditional	22960
amount	22953
li@@	22928
ted	22818
America	22806
press	22805
enough	22795
kitchen	22793
proposal	22774
cost	22711
try	22698
ap@@	22695
Republic	22691
Board	22653
success	22639
mit	22632
pages	22624
DLL	22614
web	22611
Bed	22607
entire	22595
throughout	22588
hard	22571
National	22560
www	22533
auf	22531
white	22487
half	22469
oil	22449
comfortable	22422
box	22421
Next	22417
Download	22402
index.php	22394
items	22378
Austria	22369
-10	22326
study	22314
York	22303
y-@@	22275
higher	22230
ating	22227
ine	22223
check	22220
Commissioner	22190
says	22190
Apartment	22182
wind	22173
parties	22156
sound	22151
ge@@	22138
park	22135
direct	22131
education	22126
Fri	22121
details	22120
op@@	22114
red	22091
Sie	22064
environmental	22029
existing	22005
citizens	22001
supply	21995
resources	21915
needed	21895
rest	21832
Some	21829
completely	21819
des	21814
Mar	21805
Main	21804
approach	21802
latest	21799
difficult	21779
easily	21772
sales	21759
Page	21735
pay	21732
wine	21729
She	21722
nice	21719
title	21705
luxury	21691
goods	21677
American	21667
Russia	21654
unto	21646
month	21643
across	21640
risk	21637
highly	21628
ich	21622
id@@	21576
Machine	21566
S.	21562
Name	21559
choice	21497
similar	21474
PC	21422
os@@	21418
published	21417
Freitag	21410
Wed	21399
standards	21397
established	21390
ch	21370
started	21338
capacity	21326
became	21309
peace	21297
4.@@	21294
travel	21293
born	21281
P	21274
om@@	21257
to@@	21221
Africa	21216
Games	21204
bus	21203
church	21158
Go	21112
19@@	21099
lead	21035
info	21031
attention	21017
party	20998
re	20986
us@@	20982
allowed	20970
effective	20953
St@@	20926
II	20919
Jan	20907
sp@@	20903
......	20899
island	20872
Ver@@	20862
·	20839
previous	20836
nothing	20833
coming	20827
rates	20822
face	20817
news	20812
ec@@	20793
economy	20731
brought	20727
29@@	20727
written	20706
000	20701
shower	20686
culture	20675
stage	20665
airport	20595
class	20593
ia	20585
led	20580
investment	20572
card	20527
Service	20516
exhibition	20515
charge	20511
daily	20509
Italian	20495
300	20489
Paris	20458
regional	20440
variety	20436
focus	20403
crisis	20387
During	20384
presented	20371
got	20363
ground	20326
mountain	20314
H	20294
improve	20281
suitable	20275
terrace	20247
ski	20246
communication	20225
stop	20214
75	20207
sent	20201
St.	20176
competition	20164
00@@	20157
implementation	20155
friendly	20147
port	20135
ly	20121
First	20115
markets	20110
sale	20093
ul@@	20075
encyclopedia	20075
follow	20064
Source	20030
word	20026
Church	20026
sites	20013
exchange	20012
industrial	20005
institutions	19967
message	19964
plant	19964
Thu	19955
shown	19948
operation	19923
final	19902
Version	19902
ability	19890
authorities	19887
practice	19885
idea	19852
though	19835
e.g.	19835
London	19825
welcome	19822
popular	19797
tour	19796
successful	19788
structure	19769
400	19757
analysis	19741
id	19732
operating	19727
Send	19722
ber	19668
workers	19634
visitors	19618
moment	19599
partners	19586
Day	19548
gas	19546
force	19525
Article	19520
1-@@	19518
potential	19511
del	19504
community	19498
PDF	19482
er-@@	19467
Minister	19448
ter@@	19431
ung	19430
pictures	19428
Ch@@	19428
0.0@@	19413
ina	19411
East	19407
incl	19384
quickly	19351
death	19330
understand	19313
Of	19300
target	19270
types	19261
Museum	19253
North	19235
processes	19233
Art	19227
code	19223
cheap	19215
Therefore	19214
ur@@	19203
child	19200
Oct	19151
levels	19140
bit	19126
lines	19123
Jun	19092
recent	19087
crawled	19080
ha@@	19060
students	19052
Wayback	19039
source	19031
debate	19028
considered	19021
importance	19003
green	18999
former	18986
ones	18960
basic	18939
complex	18908
surface	18908
maximum	18903
section	18891
climate	18874
con@@	18868
essential	18834
friends	18830
mind	18798
increased	18780
ways	18777
article	18770
ent@@	18747
add	18734
email	18727
note	18704
Today	18703
learn	18696
Jul	18696
and@@	18690
responsibility	18674
enter	18670
develop	18666
Park	18666
ke	18655
..	18652
involved	18621
ting	18615
Con@@	18613
Court	18603
largest	18602
effects	18601
ads	18600
nicht	18589
Total	18561
Tue	18550
positive	18528
ic	18521
transfer	18496
Sat	18495
Other	18473
Apr	18467
framework	18452
storage	18448
doing	18432
See	18424
„	18417
Management	18407
carried	18399
employees	18394
Web	18370
thousands	18363
Q@@	18343
progress	18341
regard	18340
strategy	18339
2017	18336
apply	18333
Bank	18317
gives	18310
inside	18292
Information	18290
himself	18276
move	18264
pro@@	18235
earth	18226
leave	18225
whose	18210
behind	18207
contains	18204
cart	18202
appropriate	18197
LORD	18183
term	18168
um@@	18122
partner	18121
Saved	18084
ant	18072
plus	18062
Room	18056
stand	18028
Hamburg	18027
device	18016
guarantee	18001
ig@@	17991
si@@	17976
IT	17972
se	17966
option	17954
95	17951
values	17942
expected	17926
safe	17919
links	17913
demand	17880
sh@@	17879
asked	17863
purpose	17836
restaurants	17831
Christ	17829
picture	17827
da	17823
thanks	17820
ve	17817
tools	17807
pressure	17803
40@@	17790
adopted	17783
2-@@	17778
base	17776
documents	17769
Feb	17759
street	17752
Car	17736
foreign	17725
Picture	17709
greater	17708
Services	17705
Be@@	17682
activity	17679
distance	17678
bi@@	17673
tool	17668
regarding	17666
fields	17656
38@@	17656
produced	17651
ready	17638
job	17636
ra@@	17634
Book	17633
cause	17631
Frankfurt	17606
tell	17577
Also	17568
mobile	17555
internal	17548
m2	17546
Online	17515
Vienna	17512
states	17503
Swiss	17501
0.@@	17501
fast	17498
elements	17493
length	17458
Spanish	17450
65	17434
star	17426
weight	17420
wood	17409
al-@@	17402
conference	17401
release	17393
player	17392
decided	17387
ak@@	17385
movement	17377
forms	17375
steps	17373
models	17359
Center	17320
per@@	17317
concerning	17307
en-@@	17298
black	17290
Nov	17278
ates	17276
selection	17243
thought	17215
hour	17199
numerous	17184
ana	17182
offered	17164
significant	17160
no@@	17160
metres	17160
CD	17151
shipping	17132
interested	17118
hot	17115
achieve	17109
components	17100
interesting	17092
Central	17090
commercial	17047
extremely	17039
Business	17004
phone	16978
th	16963
context	16947
remain	16931
sense	16926
99	16923
lives	16910
dem	16909
der@@	16876
seiten	16869
GMT	16864
rich	16858
immediately	16848
collection	16815
.org	16811
Dec	16809
budget	16783
direction	16778
kg	16777
opinion	16775
36@@	16774
options	16768
lower	16746
impact	16729
weeks	16719
policies	16714
pl@@	16693
clearly	16689
historical	16681
fair	16674
aim	16665
q@@	16665
processing	16661
winter	16661
're	16655
morning	16643
regions	16641
ÇáÓÇÚÉ	16639
ÇáÂä	16638
3-@@	16625
concept	16613
ka	16604
Read	16562
ations	16560
round	16559
relevant	16558
av@@	16553
vi@@	16551
offering	16530
Research	16516
sports	16483
medical	16458
six	16448
plants	16446
highest	16440
integrated	16430
Development	16422
64	16396
Only	16394
population	16393
ein	16383
deal	16351
Are	16350
topic	16335
paper	16333
advantage	16315
save	16312
season	16312
Let	16304
ir@@	16294
37@@	16293
efficiency	16290
Euro	16278
limited	16276
o-@@	16259
playing	16249
item	16248
over@@	16240
happy	16236
starting	16223
setting	16211
installation	16206
qu@@	16205
extra	16201
car@@	16196
reached	16194
En@@	16194
guest	16144
coffee	16127
Product	16124
22@@	16095
developing	16080
ge	16079
ne@@	16077
Each	16065
ing-@@	16063
fun	16052
pass	16033
principle	16009
procedure	16008
cover	16002
pre@@	16002
opened	15996
ner	15994
1,@@	15987
unit	15968
swimming	15963
concerned	15955
insurance	15948
'll	15948
.net	15938
gave	15926
tr@@	15920
yourself	15910
150	15902
feature	15892
billion	15875
ings	15866
ans	15862
display	15854
Y	15849
Centre	15840
ni@@	15836
dedicated	15827
Many	15819
remains	15812
dictionary	15804
1999	15799
instead	15782
ex@@	15776
shopping	15767
Is	15766
fire	15762
method	15760
Th@@	15744
Mon@@	15738
href	15738
digital	15736
independent	15730
external	15723
sub@@	15713
payment	15701
nor	15700
39@@	15690
meters	15681
Ro@@	15667
uses	15656
path	15641
50@@	15636
me@@	15630
format	15629
efforts	15626
screen	15620
inter@@	15618
ber@@	15612
package	15611
benefit	15603
houses	15597
mo@@	15584
John	15578
UK	15572
Institute	15566
cities	15565
reasons	15558
evening	15557
selected	15555
secure	15545
skin	15542
tes	15541
weather	15539
possibility	15516
Office	15510
Das	15479
quiet	15463
act	15439
functions	15434
employment	15430
error	15425
Google	15424
sustainable	15417
Press	15398
saying	15393
creation	15377
atmosphere	15374
st	15354
fl@@	15340
West	15334
won	15332
innovative	15332
Russian	15331
Sonntag	15328
--	15307
é@@	15304
11@@	15301
color	15296
approx	15294
everyone	15279
legislation	15275
boat	15267
5.@@	15256
ent	15253
flat	15251
-S@@	15249
machines	15231
cut	15217
e-mail	15210
produce	15194
answer	15178
fish	15171
shop	15164
providing	15149
Even	15146
Le@@	15133
glass	15131
methods	15127
father	15123
auch	15117
ator	15113
Pro@@	15110
build	15106
in-@@	15089
Use	15083
planning	15068
articles	15068
U	15064
ye	15054
placed	15053
freedom	15049
posts	15049
document	15045
train	15042
vote	15039
post	15036
Contact	15017
thank	15013
whom	15007
saw	14990
s.@@	14978
Just	14945
languages	14944
traffic	14895
bo@@	14888
ons	14873
resolution	14845
EN	14835
condition	14834
06@@	14829
reservation	14816
mon@@	14807
IN@@	14807
steel	14788
end@@	14785
est	14765
usually	14751
Not	14749
opening	14736
wipe	14735
re-@@	14731
Mo@@	14720
woman	14705
Thus	14681
Mittwoch	14665
rent	14656
Barcelona	14651
buildings	14647
on-@@	14643
buy	14643
Un@@	14612
began	14610
contract	14610
speak	14596
ice	14596
85	14594
net	14590
worldwide	14589
photo	14580
mean	14579
5-@@	14570
opportunities	14537
reports	14530
comprehensive	14517
trip	14494
story	14491
serious	14474
ev@@	14474
Di@@	14469
ale	14455
military	14449
hands	14445
clean	14440
Czech	14433
seems	14432
correct	14432
separate	14430
prepared	14422
Bar@@	14412
supported	14401
update	14375
ca	14370
goes	14366
myself	14363
sky	14362
man@@	14361
About	14356
Federal	14342
Sea	14341
average	14326
ideas	14325
covered	14324
watch	14316
entry	14314
fall	14311
interests	14302
bedrooms	14284
Bft	14284
players	14281
window	14269
closed	14262
connected	14261
height	14260
anything	14258
Deutsch	14246
bank	14237
Company	14237
35@@	14228
worked	14215
official	14213
majority	14199
distribution	14196
gi@@	14196
eyes	14191
ut@@	14186
increasing	14161
status	14155
south	14154
track	14128
growing	14124
reviews	14124
phase	14116
sind	14115
proposed	14102
reduce	14095
he@@	14094
blood	14091
door	14086
Turkey	14077
ste@@	14077
achieved	14075
Video	14063
properties	14062
detailed	14058
Back	14043
ous	14040
mentioned	14017
writing	14011
ä@@	14003
bedroom	14003
Air	14002
hold	13994
integration	13971
changed	13941
fine	13940
relations	13939
1st	13931
review	13929
De@@	13922
6.@@	13922
kinds	13916
running	13914
09@@	13914
agreed	13911
consider	13904
benefits	13890
stone	13886
ep@@	13867
par@@	13856
Treaty	13840
4-@@	13836
technologies	13832
Sp@@	13830
Description	13823
fight	13821
Search	13810
ø	13801
exactly	13795
ship	13781
07@@	13780
menu	13770
s.com	13768
the@@	13763
Why	13762
efficient	13759
Peter	13755
Its	13746
0000	13739
s.htm	13738
wonderful	13736
families	13735
While	13733
ho@@	13733
sk@@	13719
self-@@	13718
recently	13712
applied	13711
Christian	13701
au	13697
Thanks	13693
joint	13692
actions	13690
wall	13676
paid	13668
lost	13667
availability	13667
Rome	13666
Car@@	13663
According	13653
damage	13622
af@@	13617
tel	13617
Social	13614
ati@@	13604
pe@@	13597
ren@@	13595
category	13592
12th	13586
combination	13574
string	13568
sometimes	13554
beyond	13551
Directive	13543
automatically	13540
programs	13532
Netherlands	13526
devices	13515
ler	13515
installed	13515
1998	13504
booking	13501
mann	13499
ne	13496
prevent	13480
gelbe	13471
Because	13464
46@@	13455
á@@	13433
objective	13428
thou	13428
Great	13420
48@@	13420
Se@@	13417
wanted	13410
Villa	13404
told	13395
studies	13394
ja	13393
ies	13389
square	13379
49@@	13354
physical	13351
giving	13348
numbers	13346
artists	13339
ite	13323
met	13319
although	13302
Media	13300
ten@@	13296
David	13295
heard	13294
08@@	13283
fresh	13271
120	13259
é	13259
cars	13235
mainly	13229
alone	13227
Greece	13222
¼	13217
Holy	13208
author	13194
blue	13184
du	13182
era	13180
accept	13173
Accommodations	13173
po@@	13170
satellite	13162
percent	13161
goal	13152
Bo@@	13148
oc@@	13135
balance	13134
Kingdom	13133
89	13132
clients	13131
nt.html	13130
Der	13127
Poland	13124
middle	13121
bad	13117
animals	13114
47@@	13113
Ab@@	13104
finally	13102
72	13091
aspects	13078
View	13077
images.php	13062
delivered	13055
Most	13044
res@@	13019
stock	13014
huge	13011
late	13006
piece	12997
Software	12993
doesn	12989
cb	12980
Economic	12975
Content	12966
ff@@	12941
record	12939
Munich	12938
reading	12932
proposals	12930
DVD	12930
fri	12918
certainly	12912
62	12908
vehicle	12906
river	12895
voice	12894
61	12894
bu@@	12893
Photo	12890
presence	12889
carry	12888
colour	12888
require	12887
ou@@	12885
followed	12884
comfort	12878
Website	12876
programmes	12875
associated	12875
ov@@	12860
Special	12854
approximately	12853
57@@	12852
reference	12847
d-@@	12839
mar@@	12831
maintenance	12829
scientific	12820
a.@@	12818
founded	12810
Li@@	12809
sich	12809
Sh@@	12807
eine	12794
Tags	12792
useful	12791
Lake	12774
hire	12754
Co@@	12753
India	12747
600	12745
annual	12742
enable	12742
Es	12741
Association	12738
aware	12733
Co	12733
decisions	12731
minimum	12728
assistance	12720
we@@	12715
Open	12715
instruments	12714
up@@	12714
DE	12709
Affairs	12706
becomes	12706
participants	12704
Er@@	12701
getting	12695
chance	12690
normal	12689
books	12684
print	12676
sign	12669
defined	12667
Studio	12666
69	12655
cards	12651
img	12640
loss	12633
generation	12630
agree	12624
ci@@	12613
turned	12606
7.@@	12596
56@@	12575
registered	12571
units	12550
limit	12546
Par@@	12540
88	12540
store	12538
IP	12537
served	12521
object	12517
98	12516
,00	12515
purchase	12512
gallery	12508
lies	12492
Z	12481
ling	12479
na	12479
bargain	12467
played	12465
Furthermore	12461
probably	12456
bl@@	12452
59@@	12450
fundamental	12442
practical	12435
hi@@	12429
relationship	12422
ker	12415
shops	12413
System	12400
funds	12395
consists	12387
Manager	12363
Japan	12358
jobs	12357
comments	12351
overall	12342
brand	12326
statement	12321
76	12317
openx	12312
Forum	12311
banner.gitverlag.com	12306
a5a750bd	12306
ah	12302
avoid	12290
Paul	12281
protected	12280
les	12269
accordance	12265
92	12259
34@@	12255
Area	12250
mountains	12243
Comments	12240
reality	12223
blog	12222
66	12212
ino	12207
Chinese	12195
north	12193
operations	12187
Bi@@	12184
Where	12182
reduced	12181
Lo-Fi	12176
79	12173
Private	12144
cable	12143
behalf	12141
Conference	12140
serve	12136
est@@	12133
spirit	12132
electronic	12114
band	12112
credit	12111
waste	12109
protect	12107
br@@	12106
understanding	12101
heat	12094
response	12092
aus	12091
58@@	12084
Suite	12083
character	12075
listed	12067
77	12059
78	12057
04@@	12032
lack	12027
typical	12027
Design	12026
rule	12018
Very	12016
forces	12008
250	12007
Ad@@	11991
Western	11988
RE@@	11987
influence	11984
museum	11981
advance	11977
Take	11971
MwSt	11968
EN@@	11965
description	11957
requires	11954
talk	11952
promote	11949
For@@	11947
creating	11936
regulation	11929
tourist	11922
caused	11921
artist	11906
pieces	11904
j	11896
dining	11894
ph@@	11876
berg	11876
El@@	11873
em	11861
completed	11854
electric	11837
accommodations	11832
degree	11830
su@@	11821
cleaning	11820
patients	11817
ancient	11812
Wi-Fi	11811
Ex@@	11805
ta	11804
experts	11802
court	11801
engine	11798
plans	11795
05@@	11794
balcony	11792
courses	11791
faith	11788
9.@@	11777
powerful	11775
warm	11773
beauty	11766
ica	11764
browser	11762
walking	11754
Her@@	11754
commitment	11751
Restaurant	11747
regular	11746
calls	11738
gu@@	11737
ness	11736
thy	11731
Energy	11726
platform	11708
race	11708
else	11704
Mehr	11699
translation	11692
border	11689
challenges	11687
negotiations	11682
Station	11679
so@@	11659
200@@	11655
claims	11651
War	11636
discussion	11634
MB	11633
worth	11631
innovation	11629
mother	11627
Re	11625
arrival	11624
Br@@	11623
begin	11620
Seite	11616
write	11609
marketing	11608
Or@@	11601
infrastructure	11598
2,@@	11592
Mai	11592
Am@@	11591
buffet	11588
Add	11578
71	11575
claim	11572
i.e.	11569
extension	11568
contribution	11567
'm	11556
cl@@	11552
disease	11544
initiative	11532
database	11525
dates	11522
ano	11516
dieses	11516
max	11507
Per@@	11497
discover	11496
experiences	11495
rise	11490
Photos	11490
91	11486
dialogue	11478
procedures	11477
district	11475
Once	11467
patent	11465
recommended	11465
ob@@	11460
Holiday	11451
hear	11447
ard	11443
Although	11438
Asia	11436
historic	11435
enables	11435
au@@	11427
vehicles	11423
High	11421
seven	11418
task	11416
Before	11414
trees	11413
res	11412
bath	11412
pi@@	11411
principles	11406
flow	11400
deep	11388
chosen	11377
45@@	11375
objectives	11374
compared	11371
63	11370
resort	11368
Mediterranean	11351
fishing	11335
ll	11333
Ma@@	11332
appear	11331
Po@@	11325
reduction	11317
British	11314
Length	11313
eg@@	11312
locations	11300
conditioning	11299
THE	11299
Music	11296
ism	11277
labour	11268
provider	11268
telephone	11256
Ber@@	11245
consumption	11243
96	11235
Linux	11235
out@@	11233
detail	11231
route	11227
Government	11221
Inter@@	11210
84	11209
67	11208
priority	11206
volume	11197
Yes	11174
civil	11173
notice	11170
strength	11166
EC	11162
submitted	11159
truth	11149
fruit	11148
AR@@	11144
do@@	11143
ins	11140
directive	11139
accepted	11139
es-@@	11138
engineering	11137
Policy	11126
8.@@	11122
Club	11119
extensive	11107
68	11104
experienced	11102
gr@@	11102
destination	11086
6-@@	11080
CH@@	11078
74	11076
EPC	11076
ö@@	11061
entrance	11056
Spirit	11052
Finally	11044
names	11044
prior	11040
coast	11036
owners	11034
33@@	11034
output	11032
Every	11031
Lo@@	11031
introduced	11030
Mrs	11028
Data	11018
advanced	11007
8-@@	11004
93	10992
Canada	10990
í@@	10989
1997	10982
supports	10977
Le	10967
heating	10962
ER@@	10960
Bedroom	10951
76@@	10943
go@@	10942
purposes	10940
spacious	10939
ST@@	10934
width	10927
Michael	10925
indeed	10922
learning	10922
ding	10918
81	10906
desk	10902
ds	10902
Apartments	10897
Can	10896
concerns	10895
Two	10886
Cor@@	10881
gold	10880
Rooms	10880
mer@@	10868
Director	10857
driver	10854
ens	10850
objects	10838
alternative	10832
Convention	10817
ü@@	10816
Products	10812
furniture	10812
install	10812
WC	10808
her@@	10806
science	10802
fee	10797
onto	10792
core	10789
ze	10784
metal	10779
director	10775
Game	10774
People	10761
AL@@	10756
break	10739
appeal	10738
client	10737
are@@	10734
poor	10734
dr@@	10731
nearby	10731
stars	10729
tu@@	10728
ma@@	10725
touch	10722
provisions	10720
funding	10709
Tr@@	10705
continued	10704
command	10701
tions	10697
83	10696
banks	10687
spend	10682
que	10680
03@@	10679
AS@@	10675
background	10673
Ge@@	10669
wants	10668
forest	10658
interface	10657
hall	10653
agreements	10651
manner	10638
tradition	10634
73	10624
taste	10621
foot	10621
scale	10619
Security	10616
ER	10615
A-@@	10613
effort	10609
remove	10604
architecture	10585
86	10584
Find	10582
AT@@	10568
follows	10563
Technology	10563
someone	10544
skills	10544
difference	10542
feed	10534
ur	10534
Ne@@	10525
Red	10524
No.	10521
alt	10521
representatives	10520
species	10517
ay@@	10515
master	10514
AM@@	10507
sc@@	10505
sources	10505
k-@@	10502
Oktober	10501
excl	10498
votes	10493
democracy	10491
wrong	10483
Bar	10478
12.11.2016	10476
participation	10475
reform	10462
mis@@	10449
regulations	10447
monitoring	10446
ors	10444
meaning	10443
combined	10442
reliable	10440
Belgium	10431
released	10430
82	10427
win	10426
Order	10414
forget	10403
landscape	10399
of@@	10392
actual	10388
Public	10388
Life	10386
larger	10385
Man@@	10375
Members	10370
800	10365
dry	10362
improved	10359
intended	10357
bis	10348
96@@	10343
ini	10336
ach@@	10335
default	10329
stands	10328
94	10322
ance	10322
shape	10317
ES@@	10309
97	10308
Moreover	10301
ie	10297
Festival	10297
Health	10291
long-term	10286
letter	10283
wurde	10279
ke@@	10276
bar@@	10270
88@@	10270
transparent	10267
walls	10265
ungen	10259
ourselves	10257
7-@@	10251
AN@@	10247
likely	10244
bought	10241
described	10235
pers	10232
exclusive	10231
lake	10229
sets	10228
Gu@@	10223
LE@@	10207
IT@@	10203
Who	10202
outdoor	10202
KB	10193
memory	10190
leads	10189
Thank	10185
Croatia	10185
presentation	10178
animal	10176
De	10176
hair	10173
kept	10169
host	10164
thee	10156
manufacturing	10149
flight	10148
index	10141
ages	10139
cold	10133
leader	10132
UN@@	10128
sport	10123
religious	10119
Size	10112
pleasant	10109
str@@	10104
99@@	10096
ate@@	10095
instance	10090
He@@	10089
Year	10089
Law	10085
src	10085
87	10084
fixed	10079
Santa	10079
challenge	10072
pleased	10071
consumer	10066
Val@@	10066
announced	10064
association	10059
mode	10058
tags	10056
Links	10052
la@@	10050
structures	10042
consumers	10042
camera	10035
ra	10034
3D	10032
sectors	10028
load	10026
democratic	10025
Code	10018
og@@	10012
|	10012
profile	10010
radio	10008
possibilities	10003
euro	10000
demands	9997
eat	9997
shared	9994
tic	9993
perhaps	9992
agricultural	9980
an-@@	9980
Grand	9969
ell@@	9965
for@@	9962
fe@@	9955
didn	9949
exist	9948
aus@@	9943
e.@@	9939
strategic	9920
contribute	9918
Vi@@	9915
passed	9909
Father	9901
attractive	9887
Sardinia	9886
ical	9885
1996	9884
deposit	9868
eye	9865
castle	9865
all@@	9855
owner	9853
respective	9845
contents	9842
helps	9838
stability	9835
corporate	9835
returned	9835
gen@@	9832
M.	9831
Dis@@	9830
planned	9824
Su@@	9823
criteria	9822
url	9822
pre-@@	9813
31st	9812
approved	9810
administration	9808
Black	9807
66@@	9799
measure	9792
journey	9787
Islands	9785
ma	9785
draw	9784
Ukraine	9778
q	9777
p.m.	9776
elegant	9770
encounter	9767
Top	9767
offices	9764
78@@	9763
advantages	9760
School	9760
register	9759
IS@@	9758
proceedings	9753
à	9753
bike	9753
extent	9751
www.skepticalscience.com	9745
advice	9739
organization	9737
signed	9733
3Ftaxonomy	9733
committed	9732
ken	9722
valid	9714
fear	9713
Welcome	9710
2nd	9706
decide	9703
pen@@	9703
farm	9698
Preis	9695
che	9691
tree	9687
Debian	9686
magazine	9683
developments	9682
iz@@	9679
favour	9676
ships	9675
otherwise	9666
rock	9663
Egypt	9660
named	9656
Moon	9646
rec@@	9629
printing	9628
flexible	9626
inkl	9625
Both	9612
income	9612
thousand	9612
concrete	9611
201@@	9611
copy	9609
linked	9607
Rights	9604
instrument	9603
CO@@	9603
under@@	9601
relation	9596
Col@@	9589
sts	9581
organisations	9579
figure	9570
Person	9570
tasks	9567
join	9561
CHF	9559
King	9557
cuisine	9557
Place	9556
Me@@	9551
3,@@	9550
finished	9541
implemented	9539
Check	9536
've	9535
spring	9524
organisation	9515
Best	9514
maintain	9511
WiFi	9510
waiting	9508
ence	9507
generally	9504
ger@@	9504
establish	9495
modified	9494
equal	9490
Note	9489
beaches	9480
valley	9477
surrounding	9476
Category	9470
Ireland	9462
concern	9461
testing	9461
changing	9457
birth	9445
origin	9443
Good	9443
neither	9439
Children	9435
Show	9435
ks	9434
ak	9432
Middle	9426
Meer	9421
Market	9420
Family	9420
mass	9416
ich@@	9406
matters	9399
trying	9399
hier	9397
Greek	9396
Mexico	9396
Austrian	9395
railway	9392
amendments	9391
ratio	9388
tri@@	9386
77@@	9381
expect	9380
figures	9377
ari@@	9377
Eastern	9376
un	9368
Pre@@	9368
.php	9366
eth	9365
Catalogue	9365
Party	9356
Up	9353
mission	9349
ally	9344
managed	9334
UN	9331
positions	9327
evidence	9327
laws	9324
fi@@	9324
smaller	9322
easier	9322
Ko@@	9321
represents	9320
Costa	9317
Com@@	9317
wife	9311
Martin	9307
ators	9306
Presidency	9305
1995	9305
holidays	9305
Sweden	9301
mer	9295
thinking	9286
album	9277
club	9274
element	9273
sw@@	9261
registration	9260
fit	9256
fer@@	9253
Sal@@	9253
1000	9245
hat	9242
quarter	9241
OS	9241
98@@	9239
Australia	9236
sons	9235
com@@	9229
leaders	9227
Enjoy	9227
ology	9223
No@@	9223
so-called	9220
Portugal	9216
ai	9215
corner	9208
police	9199
tor@@	9199
affected	9194
Q	9191
performed	9186
55@@	9184
RO@@	9179
Saint	9176
parents	9176
businesses	9165
Living	9164
mark	9163
az@@	9161
bei	9158
financing	9157
drink	9150
Science	9147
tours	9147
medium	9146
Safety	9143
ert	9143
Rental	9139
scope	9138
displayed	9133
AC@@	9132
Mor@@	9121
File	9117
electricity	9116
contemporary	9115
overview	9109
edge	9108
continues	9105
tourism	9097
tremulous.net	9097
Another	9093
Brussels	9090
remember	9089
vacation	9088
sufficient	9079
Justice	9076
minute	9074
depending	9074
automatic	9072
gets	9071
AD@@	9070
bodies	9070
assessment	9065
feeling	9065
Pi@@	9063
Trade	9060
eb@@	9057
ring	9054
manufacturers	9053
marked	9051
handling	9051
KG	9050
outstanding	9043
ai@@	9042
sold	9039
min@@	9032
spread	9027
sides	9022
Qu@@	9022
conflict	9019
il	9015
schools	9013
Mal@@	9013
taxes	9010
plastic	9010
tive	9006
Map	9005
soft	9000
critical	8995
Deutschland	8995
till	8990
stated	8989
perfectly	8987
bottom	8987
ada	8986
biggest	8982
Report	8980
except	8978
bars	8974
wrote	8964
ach	8959
9-@@	8955
Ri@@	8954
discussed	8953
gentlemen	8950
vision	8947
wird	8944
dishes	8936
dead	8930
Cal@@	8929
factors	8922
oder	8915
ere	8910
ek	8910
Further	8909
ES	8908
controlled	8908
Foundation	8908
Review	8908
moved	8907
Dutch	8906
IC@@	8905
extended	8903
tz-otocac.hr	8901
iccaldate	8901
sigFreeId3fcf764576	8901
uc@@	8896
reception	8895
dark	8892
lin@@	8892
violence	8891
ry	8891
contain	8879
soul	8874
Street	8870
Roman	8868
boats	8866
ef@@	8861
videos	8861
networks	8852
5,@@	8852
deze	8850
Due	8848
Don	8843
Mr.	8839
ay	8834
Tour	8832
-0@@	8825
solar	8821
relax	8819
meetings	8809
appears	8804
furnished	8801
zi@@	8799
cross	8795
4,@@	8795
raised	8789
EIB	8783
surrounded	8776
aims	8773
Madrid	8773
Old	8768
multiple	8762
Beach	8762
firm	8759
We@@	8756
looks	8747
ft	8747
User	8744
orders	8737
A.	8731
authority	8725
preparation	8724
rapporteur	8723
Human	8720
Start	8719
spent	8717
removed	8713
determined	8713
ess@@	8710
ki	8710
Ministry	8706
anti-@@	8704
Christmas	8704
cooking	8701
Hungary	8700
circumstances	8697
43@@	8697
happen	8696
,000	8696
died	8689
ise	8686
pe	8686
ity	8684
resistance	8683
filled	8682
interior	8682
emissions	8679
ant@@	8676
SE@@	8671
-15	8671
Quote	8668
Earth	8667
urban	8660
feet	8656
participate	8654
messages	8639
Meeting	8637
ms	8635
ade	8634
moving	8633
den@@	8631
cells	8629
60@@	8623
errors	8616
oven	8616
deliver	8615
zone	8614
packaging	8613
El	8612
Ac@@	8610
a.com	8610
array	8607
specified	8606
Project	8605
successfully	8596
River	8591
vo@@	8583
wi@@	8583
driving	8578
Sk@@	8569
earlier	8567
festival	8567
entered	8565
east	8556
ahead	8553
frame	8553
ir	8553
Via	8552
governments	8551
existence	8549
classic	8545
Bre@@	8545
cycle	8544
trust	8540
To@@	8538
Latin	8535
fuel	8535
dance	8535
Parking	8534
ow@@	8530
west	8528
competitive	8525
Well	8519
44@@	8519
visible	8516
starts	8515
missing	8510
stored	8510
upper	8508
granted	8505
Ich	8505
ation@@	8504
colours	8504
nearly	8503
web@@	8484
Juli	8484
ub@@	8482
speaking	8477
versions	8477
tion	8472
blank	8470
anyone	8469
ac	8466
gen	8465
tic@@	8462
camp	8462
Thomas	8459
ang@@	8456
Edition	8453
hand@@	8452
ladies	8446
mon	8439
couple	8436
ton	8427
ko	8424
becoming	8422
1994	8419
97@@	8413
nations	8407
80@@	8405
artistic	8404
col@@	8401
quick	8401
sell	8400
increasingly	8399
Ger@@	8398
Deutsche	8397
As@@	8395
Their	8395
evil	8394
ta@@	8392
represent	8390
tried	8380
consequences	8379
J	8377
chemical	8377
seem	8374
inclusive	8374
Garden	8374
abroad	8373
ml	8369
stable	8364
formed	8363
examples	8357
co	8357
68@@	8357
C.	8356
healthy	8356
guarantees	8355
regards	8351
eng@@	8341
risks	8329
negative	8327
windows	8320
desire	8318
110	8314
accessible	8314
ens@@	8306
express	8298
Guests	8298
Foreign	8297
exercise	8296
felt	8295
profit	8293
mail	8292
evaluation	8291
Or	8291
belong	8285
van	8284
tion@@	8276
10-@@	8268
seek	8263
White	8263
ah@@	8261
gh@@	8259
settings	8255
ill@@	8253
supporting	8247
happened	8245
opposition	8242
flowers	8242
relating	8241
Kar@@	8240
del@@	8238
connections	8238
ek@@	8237
hundred	8231
ó@@	8231
grow	8229
IS	8229
manufacturer	8228
president	8227
10.@@	8227
introduction	8225
viewtopic.php	8223
Microsoft	8221
Several	8220
significantly	8214
homes	8212
represented	8210
sal@@	8207
sen@@	8205
absolutely	8199
organized	8194
committee	8191
ys@@	8191
audio	8191
werden	8190
III	8186
chain	8186
Quality	8186
ve@@	8182
spiritual	8177
runs	8176
heavy	8175
spa	8172
ard@@	8170
department	8165
painting	8165
partnership	8160
0,0	8160
depends	8159
IN	8159
gone	8158
pleasure	8154
Ho@@	8152
recorded	8150
30-@@	8150
skepticalscience.com	8148
sen	8145
Prague	8140
ali@@	8134
19th	8134
54@@	8131
sqm	8127
Film	8126
usual	8125
girl	8124
SP@@	8121
career	8118
ment	8115
improvement	8111
stations	8111
despite	8107
Jerusalem	8107
Systems	8107
AP@@	8103
presents	8101
Island	8096
nuclear	8095
expertise	8092
lived	8092
ko@@	8092
skilled	8091
Si@@	8091
brings	8088
Juni	8088
can@@	8087
Gallery	8085
creative	8083
implement	8080
spaces	8077
Views	8065
inner	8062
ically	8060
cell	8059
Hall	8059
ants	8058
foundation	8057
bridge	8055
laid	8054
fa@@	8054
Maria	8051
dinner	8049
streets	8048
Log	8046
var	8044
Any	8042
â	8033
Master	8029
African	8027
ger	8026
edition	8025
Stuttgart	8023
signs	8021
XP	8021
por	8016
drawn	8012
Lisbon	8011
rating	8009
expression	8007
Agreement	7998
Ref	7990
false	7987
knows	7986
waters	7986
prepare	7986
advertising	7986
So@@	7984
patient	7984
gain	7982
Green	7980
Background	7978
theme	7972
ew@@	7966
topics	7964
ara	7957
english	7957
Bal@@	7949
Under	7948
applies	7947
assembly	7947
individuals	7946
lift	7943
Star	7935
obtain	7933
3rd	7932
Society	7926
12-@@	7924
™	7921
Pl@@	7920
Finland	7916
Those	7911
broad	7907
Education	7906
dec@@	7906
Fl@@	7901
manage	7900
ps	7896
initial	7894
lu@@	7894
tests	7890
zum	7889
ports	7882
library	7879
U.S.	7877
Texas	7875
covers	7874
permanent	7870
Travel	7869
1990	7866
relaxing	7861
Kommentare	7859
Water	7857
Link	7857
dynamic	7856
flower	7851
entitled	7845
Amsterdam	7843
territory	7842
justice	7833
bas@@	7832
grounds	7831
collaboration	7829
cher	7828
portfolio	7825
Madam	7824
awarded	7821
truly	7820
expressed	7819
noch	7817
wooden	7816
Jewish	7812
Jews	7808
visited	7798
films	7796
enterprises	7795
Town	7794
establishment	7792
ded	7790
ines	7786
wait	7784
refer	7782
ore	7782
catalogue	7781
90@@	7780
fill	7779
acts	7777
categories	7776
tons	7776
multi-@@	7771
well-@@	7771
doors	7770
goals	7770
20th	7767
administrative	7766
sauna	7765
divided	7760
30th	7759
improving	7757
Such	7756
Culture	7744
ering	7743
Puerto	7742
allowing	7741
0-@@	7741
fre@@	7740
Homepage	7740
Terms	7738
component	7737
ty	7735
flexibility	7732
ball	7727
reserved	7725
proper	7723
finance	7722
Located	7717
ster@@	7716
session	7714
Get	7714
180	7712
Gr@@	7706
Har@@	7706
university	7704
ches	7700
repair	7696
pr@@	7694
motor	7693
characteristics	7693
ce	7692
OR@@	7690
draft	7689
lots	7684
forth	7682
floors	7681
Prof.	7678
villa	7677
desired	7668
Brazil	7666
Fre@@	7665
amazing	7664
informed	7663
Access	7663
1992	7660
factor	7658
previously	7655
agency	7654
constantly	7653
10H	7652
ind@@	7641
resulting	7640
reported	7633
teaching	7628
closely	7626
block	7623
surroundings	7622
cast	7619
western	7619
Non-smoking	7617
organic	7615
cr@@	7607
aimed	7604
inhabitants	7604
Over	7601
mi@@	7599
ans@@	7595
eight	7594
inform	7593
Pr@@	7592
ab	7589
perform	7585
Cas@@	7585
140	7583
constant	7579
stress	7578
southern	7575
television	7574
primary	7571
invited	7570
providers	7568
statements	7564
1.jpg	7564
specifically	7560
ass@@	7555
Region	7541
0,@@	7541
doubt	7539
co-@@	7539
Him	7538
sm@@	7536
ends	7534
configuration	7529
log	7524
therapy	7522
Â	7522
initiatives	7520
è@@	7519
euros	7516
land@@	7516
greatest	7513
clock	7512
rural	7508
ISO	7506
Max	7506
strengthen	7505
expert	7500
proof	7498
impossible	7498
manager	7498
nach	7498
AT	7497
ary	7495
ung@@	7492
award	7490
discuss	7489
des@@	7488
cutting	7487
ff	7478
ses	7477
Pal@@	7476
attractions	7471
Type	7469
referred	7466
Department	7466
confirmed	7465
Ste@@	7462
Polish	7460
Fund	7456
9,@@	7455
www.rau-consultants.de	7452
els	7451
AC	7450
32@@	7445
musical	7440
reservations	7439
residence	7439
organizations	7438
practices	7433
USB	7433
ics	7432
.at	7430
immediate	7429
launched	7428
serves	7423
.dll	7421
seat	7419
bright	7417
attack	7414
module	7414
differences	7409
mal	7406
ona	7405
campaign	7398
Euro@@	7395
miles	7394
investments	7393
reserve	7391
unless	7391
int	7390
impressive	7386
song	7383
pol@@	7380
Power	7377
corresponding	7375
conclusion	7374
1993	7371
issued	7371
fin@@	7370
sight	7369
wed	7367
Los	7364
tim@@	7363
facility	7359
700	7356
Pol@@	7356
de-@@	7350
Flash	7349
arms	7348
bear	7343
powers	7342
air@@	7342
ME@@	7339
Guest	7339
sort	7337
ty@@	7335
domestic	7335
appearance	7335
concert	7333
keeping	7331
straight	7331
Live	7330
ha	7322
le-@@	7322
carefully	7320
,@@	7319
peaceful	7317
AG@@	7316
facing	7313
leaves	7313
chen	7307
Besides	7306
row	7302
Bl@@	7301
Global	7299
suffering	7298
connect	7298
raw	7297
contrast	7295
Image	7294
comment	7293
men@@	7288
tea	7288
AS	7282
ata	7281
Mi@@	7280
hiking	7280
wear	7279
S-@@	7278
aw@@	7277
spot	7276
sex	7276
History	7273
130	7273
Bu@@	7272
adults	7268
ile	7265
List	7264
eri@@	7262
mal@@	7260
frequently	7258
division	7257
confidence	7254
modules	7252
exit	7251
publication	7250
160	7250
crucial	7248
tor	7246
ine@@	7245
input	7243
ys	7242
youth	7236
AL	7235
ann@@	7231
regularly	7230
IP@@	7228
mostly	7221
ves	7219
golf	7207
za	7206
Bel@@	7202
my@@	7201
Arts	7201
remaining	7200
determine	7197
Be	7195
satisfaction	7194
fix	7193
Hi	7192
studio	7191
primarily	7189
label	7189
England	7188
explained	7188
discussions	7185
calling	7183
Play	7182
Nations	7177
Can@@	7177
Tri@@	7173
TR@@	7173
pure	7172
sheet	7172
guidelines	7171
operate	7170
older	7169
packages	7167
to-@@	7167
occasion	7166
obtained	7162
exciting	7159
ungs@@	7159
21@@	7156
breeze	7156
e.com	7155
export	7154
tur@@	7151
Ros@@	7150
Agency	7149
6,@@	7149
anti@@	7148
fridge	7146
directory	7146
haben	7146
poverty	7145
ts@@	7145
structural	7142
Sol@@	7141
discovered	7141
E-@@	7141
entirely	7140
representative	7140
Real	7139
causes	7137
treated	7137
J.	7137
ously	7136
suite	7135
~	7135
CDATA	7135
instructions	7133
colors	7133
tested	7130
ran@@	7130
tel@@	7126
53@@	7123
HD	7123
solid	7122
tables	7120
IM@@	7120
dass	7120
scene	7119
Environment	7119
Gi@@	7114
organised	7110
Venice	7108
fashion	7103
meat	7101
ensuring	7095
Food	7092
mouse	7091
cash	7090
70@@	7090
wir	7088
Mag@@	7087
va	7087
Ski	7084
female	7081
provision	7078
Turkish	7078
sitting	7072
ene	7070
mehr	7070
aj@@	7069
Luxembourg	7068
handle	7065
ven@@	7063
om	7062
Country	7058
ats	7056
formats	7056
back@@	7053
ie@@	7053
ang	7052
borders	7052
ingen	7052
Regulation	7047
sing	7045
el-@@	7045
Mary	7042
toward	7040
fo@@	7038
Ben@@	7033
humidity	7030
gift	7025
ended	7023
iron	7022
Rent	7021
identify	7019
perspective	7017
fr@@	7016
ser@@	7016
increases	7015
bread	7014
pick	7013
350	7012
79@@	7012
Programme	7010
techniques	7009
elections	7008
audience	7007
ful	7004
measurement	7004
looked	7002
IA	6997
high-@@	6996
Support	6993
opposite	6992
agriculture	6991
dog	6991
11-@@	6990
closer	6984
Financial	6983
fax	6983
ley	6979
wines	6979
voted	6975
ast@@	6972
notes	6971
Sales	6969
medicine	6965
ische	6965
tickets	6962
Control	6961
Japanese	6960
precisely	6958
qualified	6955
ba	6955
situations	6954
ON	6951
channels	6947
effectively	6946
ette	6941
sizes	6935
ori@@	6933
lose	6927
visiting	6925
signal	6925
i-@@	6923
Bad	6921
Moscow	6920
recognition	6916
4th	6916
standing	6915
Man	6911
finish	6910
politics	6909
Fr@@	6909
Im@@	6907
hPa	6906
heaven	6905
charged	6903
continuous	6901
Cologne	6899
Vista	6889
explore	6882
lounge	6881
wie	6880
ns	6877
11.@@	6875
Double	6873
ss	6873
songs	6870
cur@@	6868
har@@	6867
afternoon	6866
knew	6866
saved	6866
Standard	6864
C-@@	6862
sie	6861
Update	6860
dream	6857
lie	6851
drawing	6850
Pages	6850
documentation	6848
sin	6846
trans@@	6844
texts	6844
Romania	6844
tennis	6844
Terrace	6844
Technical	6843
ents	6842
18th	6838
ality	6826
p-@@	6825
Allah	6823
showed	6820
remote	6819
panel	6818
Yet	6817
applicable	6815
ki@@	6813
transparency	6812
EL@@	6810
helped	6810
channel	6809
wishes	6808
mention	6807
union	6807
Following	6807
Award	6807
über	6806
examination	6805
Lu@@	6804
monitor	6802
sending	6801
sa	6800
bin	6797
ish	6796
Details	6795
operators	6792
currency	6791
websites	6791
sti@@	6788
sensitive	6787
limits	6786
Spa	6786
Port	6785
Express	6785
trial	6784
.ch	6784
Track	6783
post@@	6776
tt@@	6773
oo@@	6771
cre@@	6766
promotion	6765
ip@@	6764
Heating	6763
.48	6763
forced	6761
AB@@	6761
kids	6761
holding	6760
Te@@	6760
64@@	6760
jetzt	6758
Team	6757
solve	6756
kann	6756
wild	6755
sexual	6753
joined	6750
farmers	6750
expansion	6748
sl@@	6747
raise	6746
ro	6743
Server	6743
exclusively	6742
flights	6738
agenda	6736
München	6734
bur@@	6733
shares	6732
attempt	6732
sta@@	6732
fantastic	6730
assets	6728
filter	6728
Ru@@	6727
Son	6727
tue	6727
cancer	6725
Ti@@	6724
ID@@	6718
accessories	6718
appointed	6716
renewable	6711
Mac	6711
nation	6708
suppliers	6703
layer	6703
nur	6702
Em@@	6700
jo@@	6700
12.@@	6696
sleep	6695
ei@@	6692
victims	6691
02@@	6691
appeared	6687
199@@	6686
substances	6684
disposal	6682
motion	6682
respond	6679
communities	6669
workshop	6669
totally	6668
Site	6668
silver	6667
Through	6666
Second	6663
microwave	6663
micro@@	6662
trading	6660
enti@@	6660
toilet	6657
Dr@@	6656
controls	6654
ble	6654
OF	6651
valuable	6645
val@@	6644
Tor@@	6643
te-@@	6641
mat@@	6640
86@@	6640
considerable	6639
contacts	6639
failure	6638
lan@@	6635
ative	6634
www.ypagesusa.com	6634
helpful	6633
classes	6631
Head	6629
1991	6628
mechanical	6628
hol@@	6627
colleagues	6625
recovery	6625
Wind	6625
ker@@	6624
measuring	6622
thermal	6620
Results	6620
1989	6617
campsite	6616
slightly	6614
cor@@	6614
Robert	6613
Palace	6610
Set	6604
×	6604
industries	6599
7,@@	6599
encourage	6596
conducted	6593
tro@@	6593
5th	6590
Zurich	6589
bathrooms	6588
drivers	6585
rail	6581
ya	6580
Bor@@	6579
talking	6578
bringing	6575
sel@@	6573
prayer	6571
Digital	6571
milk	6570
consideration	6569
villages	6569
cool	6569
entertainment	6568
student	6567
dangerous	6566
ties	6566
showing	6565
manual	6563
diseases	6559
Previous1	6558
decades	6556
conversion	6555
capable	6553
forecast	6551
mel@@	6550
identity	6549
bel@@	6549
suggest	6547
15th	6546
Weight	6545
agencies	6544
parameters	6544
sofa	6540
Valley	6536
seeing	6533
struggle	6533
mix	6530
100@@	6530
Accommodation	6528
ride	6527
iPhone	6525
functional	6523
printed	6521
mouth	6521
hit	6520
match	6519
sol@@	6518
du@@	6511
thereby	6508
Whether	6507
Moses	6502
remained	6497
hardware	6494
liability	6493
Have	6493
ticket	6492
plays	6491
reducing	6490
newly	6490
approval	6487
speech	6479
everyday	6479
joy	6478
Facebook	6475
compliance	6474
roof	6474
debt	6472
Tourist	6472
ized	6467
Body	6467
brother	6462
happens	6461
Come	6460
ze@@	6459
Cl@@	6459
theory	6458
relatively	6456
technological	6455
ca@@	6455
sharing	6452
northern	6451
supplier	6451
ED@@	6450
comparison	6448
Academy	6448
ner@@	6447
gel@@	6446
je	6446
aspect	6445
filed	6445
occur	6442
Sam@@	6441
guaranteed	6440
strongly	6439
Du@@	6439
ou	6438
ani	6438
pain	6436
Action	6436
hourly	6433
Golf	6432
the-@@	6428
secret	6428
yes	6427
ingredients	6427
Val	6427
ud@@	6426
US@@	6426
male	6425
islands	6425
faster	6424
thu	6424
2020	6423
Tyrol	6422
disabled	6419
expensive	6416
Act	6414
My@@	6411
Network	6407
scheme	6407
latter	6406
ying	6404
accompanied	6400
ny	6399
Cam@@	6391
ensures	6390
Hol@@	6390
privacy	6389
electrical	6388
wh@@	6385
definition	6383
crime	6381
2.0	6372
duty	6370
recommendations	6370
regime	6370
Royal	6370
1x@@	6370
Nature	6369
sum	6367
Zeit	6367
concluded	6366
ola	6366
concepts	6363
vital	6362
arrived	6359
Do@@	6359
Bulgaria	6358
z-@@	6356
bri@@	6355
hidden	6352
Player	6352
inc@@	6351
factory	6349
Conditions	6349
mine	6344
convenient	6338
war@@	6335
Go@@	6335
8th	6335
zur	6332
decorated	6332
mobility	6331
UR@@	6330
transmission	6327
67@@	6323
sand	6321
lay	6317
answered	6316
Sports	6316
ised	6315
69@@	6315
Abb	6315
identified	6314
confirmation	6313
Computer	6313
daughter	6312
strategies	6307
Legal	6306
Gar@@	6301
ping	6301
fans	6301
and-@@	6300
Light	6300
ure	6298
assist	6297
namely	6295
art@@	6295
charming	6295
ey	6294
Inn	6291
routes	6285
noise	6285
german	6285
ck.php	6275
avw.php	6274
dimensions	6272
lunch	6272
Kon@@	6272
Available	6271
Mer@@	6270
lovely	6268
Language	6266
bre@@	6264
recognized	6262
Fi@@	6258
sweet	6257
IC	6257
EM@@	6254
characters	6254
wa@@	6247
Fe@@	6247
Square	6247
symbol	6246
focused	6246
drinks	6243
Executive	6241
RUB	6239
ky	6238
contained	6235
ill	6234
specialist	6234
revolution	6234
departure	6234
measured	6233
Denmark	6231
.0@@	6231
Str@@	6230
1.5	6227
Like	6226
payments	6226
turns	6224
listen	6217
Bas@@	6214
aber	6213
illegal	6212
Mobile	6210
pattern	6209
password	6208
Unfortunately	6207
rare	6205
zoneid	6203
priorities	6200
Love	6197
Castle	6194
passengers	6189
Protection	6188
launch	6188
rings	6187
gt	6186
oral	6181
lets	6181
Geneva	6180
ars	6176
creates	6175
Transport	6174
contracts	6170
GB	6170
haus	6169
sounds	6168
leaving	6167
Artikel	6163
switch	6161
15.@@	6160
skiing	6160
EC@@	6159
Sa@@	6159
holy	6158
www.regiolab.info	6158
California	6156
89@@	6152
rain	6151
od@@	6150
Iran	6150
supplied	6150
Customer	6150
ING	6147
properly	6146
dia	6145
lich	6145
centres	6142
tower	6141
solidarity	6140
educational	6139
uns	6138
Aus@@	6138
enlargement	6136
met@@	6133
explain	6132
Cuba	6132
fourth	6125
AV@@	6125
army	6124
prefer	6123
begins	6119
ini@@	6119
ru@@	6114
duration	6112
heads	6112
seeking	6108
exists	6106
movements	6106
destroyed	6102
transportation	6102
domain	6099
Copyright	6097
ass	6096
Düsseldorf	6096
studied	6091
stories	6091
compatible	6085
Iraq	6085
114@@	6082
Program	6080
conclusions	6079
ver	6079
ian	6077
frequency	6068
ut	6060
whatever	6054
Current	6050
unlimited	6049
hath	6049
Make	6045
define	6042
pretty	6041
wordpress.org	6041
arrive	6038
meant	6036
ane	6033
120@@	6033
vom	6032
prize	6030
contrary	6027
Vor@@	6025
definitely	6023
Tourism	6022
Min@@	6021
11th	6021
sur@@	6016
obligations	6014
Pe@@	6011
leadership	6008
Unknown	6007
ell	6003
enabled	6001
difficulties	5997
hal@@	5995
ot	5995
Cap@@	5995
washing	5993
count	5992
recording	5991
visual	5991
yellow	5989
containing	5984
tin	5983
Land	5983
Part	5976
precise	5974
exceptional	5972
institution	5971
ide	5971
Events	5970
producers	5969
Select	5967
ordered	5967
ol	5966
Mel@@	5965
Mil@@	5963
fees	5957
Jo@@	5954
gar@@	5953
gardens	5952
attacks	5952
fell	5951
bound	5951
Administrador	5951
leisure	5950
discount	5950
Inserido	5950
Single	5949
substantial	5947
dy	5947
centuries	5945
indicated	5944
Bosch	5943
rose	5942
none	5940
high-quality	5940
MS	5940
boards	5938
finding	5936
Rock	5936
Ag@@	5935
Ter@@	5934
ot@@	5931
reforms	5930
amounts	5929
producing	5926
Jehovah	5924
Pan@@	5923
Gal@@	5922
Land@@	5922
Despite	5920
ba@@	5920
introduce	5917
ist@@	5915
consultation	5914
Plan	5914
diameter	5914
root	5913
vor@@	5913
ech@@	5912
html	5911
supplies	5908
17th	5907
ink@@	5907
14.@@	5905
tomorrow	5904
Blue	5901
drop	5900
JPG	5899
nine	5898
replaced	5898
declared	5896
logistics	5896
ella	5896
8,@@	5894
EL	5893
awareness	5892
16th	5892
affect	5891
horse	5890
cent	5887
promoting	5886
lessons	5886
reasonable	5884
plenty	5884
Within	5876
oriented	5875
absolute	5869
Por@@	5866
slow	5865
Budapest	5864
snow	5863
blowing	5862
13th	5859
spoke	5858
pdf	5856
Email	5852
Latest	5851
AD	5850
ti	5850
å@@	5850
Peace	5849
roads	5848
extreme	5848
R.	5847
keys	5843
ben@@	5841
replace	5841
£	5840
movie	5840
compact	5836
unemployment	5835
saving	5835
á	5835
implementing	5834
exact	5832
mu@@	5829
top@@	5826
Transfer	5825
fitness	5824
license	5823
workshops	5822
riding	5821
³	5821
distributed	5820
sections	5818
gl@@	5818
salt	5817
lodging	5816
sugar	5814
beings	5813
ath@@	5811
targets	5810
updates	5810
operational	5808
charges	5808
hu@@	5808
enc@@	5804
dealing	5803
wellness	5799
religion	5798
legislative	5797
Bathroom	5797
Au@@	5796
wiki	5796
Ph@@	5795
Using	5794
teams	5793
investigation	5791
Facilities	5791
Nov@@	5787
Table	5786
š@@	5786
.000	5784
eren	5784
Duration	5781
EP@@	5781
ā@@	5781
ena	5780
diverse	5779
Gen@@	5779
housing	5778
disk	5777
einen	5775
putting	5774
visitor	5774
Big	5773
depth	5772
ham@@	5771
relaxation	5770
Inc	5770
stood	5765
native	5762
einem	5760
Mc@@	5758
trips	5757
tics	5756
part@@	5756
fil@@	5756
Among	5753
Indeed	5752
carbon	5752
ado	5749
oni@@	5749
pri@@	5747
inf@@	5746
apart	5746
stones	5744
operator	5744
TH@@	5744
heritage	5741
battle	5741
ably	5740
T-@@	5740
towns	5739
AN	5737
criminal	5735
collected	5732
manufacture	5732
stages	5731
fleet	5730
Road	5730
expectations	5727
hr@@	5727
renowned	5725
conduct	5724
Congress	5724
ion	5724
tw@@	5723
EU@@	5722
110@@	5721
Medical	5719
designs	5716
Ni@@	5715
spoken	5714
comp@@	5713
satisfied	5712
girls	5707
Line	5707
panoramic	5707
leg@@	5704
Shipping	5703
plate	5701
competitiveness	5698
continuing	5698
Ap@@	5698
proud	5697
archive	5691
Wal@@	5691
IL@@	5691
Nevertheless	5689
Will	5689
TS	5688
fitted	5686
Three	5684
weekend	5683
rel@@	5682
Journal	5681
Min	5681
ON@@	5678
ery	5677
maintained	5676
Hel@@	5676
Secretary	5674
CD@@	5674
binding	5671
off@@	5670
province	5669
gate	5669
es.@@	5668
aged	5667
AND	5666
Korea	5666
renovated	5666
extend	5664
ly@@	5661
noted	5659
baby	5659
Gre@@	5659
87@@	5659
soil	5658
app@@	5655
net@@	5654
Salzburg	5653
l-@@	5652
script	5650
elevator	5649
Pro	5649
guided	5647
blocks	5645
failed	5644
anc@@	5640
sample	5637
tourists	5636
Marketing	5636
helping	5635
24-hour	5635
anniversary	5633
Regional	5632
professionals	5630
bach	5630
amendment	5629
obvious	5625
chair	5625
Pri@@	5625
get@@	5623
coordination	5615
cookies	5615
lighting	5613
2.5	5612
Rule	5605
attached	5605
2.jpg	5605
battery	5604
6th	5603
St	5602
cy@@	5601
wealth	5595
dimension	5594
formation	5594
Work	5590
fund	5588
ther@@	5586
exhibitions	5585
associations	5584
doctor	5584
GNU	5584
grant	5581
Nor@@	5580
no.@@	5578
USD	5577
emergency	5575
priest	5575
ked	5574
SEO	5574
proven	5572
Del@@	5572
at-@@	5572
ein@@	5571
catalog	5570
dem@@	5563
election	5557
burg	5557
piano	5556
Investment	5555
a.m.	5550
Arab	5548
copyright	5546
normally	5545
graphic	5544
Pets	5543
aries	5542
dew	5542
resource	5541
arts	5539
Britain	5539
ement	5538
addresses	5538
Sub@@	5536
MP3	5535
Additional	5534
17.@@	5533
Local	5532
kingdom	5532
bro@@	5531
accounts	5530
diversity	5529
lists	5527
trend	5524
super@@	5521
empty	5520
well-known	5520
enormous	5516
ain@@	5516
13.@@	5516
Norway	5513
smooth	5513
Small	5512
collect	5511
med	5510
Hor@@	5508
Wi@@	5507
char@@	5506
weapons	5503
container	5503
Literaturang	5503
slopes	5501
marks	5498
dogs	5496
wheel	5492
two-@@	5490
ological	5489
revolutionary	5488
covering	5487
§	5486
ita	5484
acquisition	5481
ern	5479
magnificent	5478
oldest	5478
Model	5477
dishwasher	5470
vast	5469
Radio	5469
son@@	5468
Hu@@	5465
BEST	5465
cal@@	5463
Restaurants	5463
7th	5462
52@@	5460
rapid	5459
gre@@	5459
understood	5454
zer	5451
membership	5449
unable	5447
self	5444
grown	5443
Dec@@	5443
millions	5442
hill	5442
owned	5439
ure@@	5439
prove	5438
delicious	5437
tal	5436
Gra@@	5433
temporary	5432
broken	5432
pan@@	5432
book@@	5432
La@@	5430
Bur@@	5430
Communication	5429
winning	5425
eastern	5421
isn	5421
DC	5421
n-@@	5421
Did	5419
lights	5419
Visit	5419
adoption	5418
universal	5418
chi@@	5417
killed	5417
paintings	5414
reg@@	5413
Chi@@	5413
Which	5412
communications	5405
booked	5405
reliability	5399
ß@@	5399
teachers	5398
EPO	5397
por@@	5396
edit	5395
en.htm	5393
ered	5392
Industry	5386
ters	5386
tors	5385
Her	5385
San@@	5384
Poker	5384
interpretation	5382
comply	5382
scientists	5381
let@@	5380
Professor	5379
14th	5377
work@@	5377
amongst	5376
Bible	5372
tre@@	5371
sehr	5371
romantic	5368
app	5368
invite	5367
transition	5366
customs	5366
requirement	5365
los	5364
ce@@	5364
ern@@	5364
Las	5364
learned	5363
theatre	5363
olive	5361
acc@@	5359
mechanism	5359
opens	5356
spectacular	5356
End	5356
facts	5355
feedback	5354
adapted	5351
accession	5350
trends	5345
refers	5344
19.@@	5341
fu@@	5340
publications	5339
65@@	5336
records	5335
terminal	5335
leather	5331
wireless	5329
Nice	5328
Rico	5327
managing	5326
op	5324
sustainability	5324
wer@@	5321
reflect	5320
James	5320
Change	5320
branch	5319
elle	5319
Training	5319
composition	5318
hl@@	5316
programming	5312
A.@@	5312
Prime	5309
technique	5309
atic	5307
zen	5305
ges	5299
destruction	5297
extraordinary	5295
95@@	5294
Is@@	5293
purchased	5292
adventure	5292
merely	5291
holds	5291
driven	5290
Wir	5289
PS	5288
Web@@	5288
carrying	5285
conventional	5283
ese	5282
permission	5280
und@@	5280
Age	5278
Joseph	5276
ov	5275
Basel	5274
aluminium	5274
segment	5272
birds	5268
multi@@	5268
Residence	5266
ize	5265
indoor	5264
ros@@	5263
fighting	5262
directed	5261
hearts	5261
Authority	5260
ments	5260
Bavaria	5259
enjoyed	5257
mental	5256
bag	5255
Catholic	5254
explains	5254
fly	5253
summit	5252
ier	5251
concentration	5250
alization	5250
hearing	5249
establishing	5248
impression	5248
marine	5248
churches	5248
sha@@	5247
treat	5246
ster	5245
Together	5244
posted	5242
75@@	5239
gibt	5237
ben	5236
ju@@	5234
submit	5233
mag@@	5233
certified	5233
alism	5232
personnel	5229
humanitarian	5229
careful	5229
heim	5229
proved	5225
virus	5225
Instead	5224
Ba@@	5224
On@@	5224
contributions	5223
investors	5223
tracks	5223
Apple	5223
bet@@	5220
10th	5220
bb@@	5218
optimal	5217
Shop	5217
competent	5216
entries	5215
io	5214
450	5213
periods	5212
elected	5211
105	5211
900	5211
hardly	5210
graphics	5208
Reservation	5208
ash@@	5207
Mat@@	5207
compensation	5206
125	5206
Modern	5206
Casa	5206
familiar	5205
kl@@	5202
residential	5200
Kal@@	5199
exposure	5199
planet	5193
tag	5193
zz@@	5192
li	5192
balanced	5190
Distance	5187
ong	5186
consistent	5182
philosophy	5181
aircraft	5181
Decision	5176
institutional	5176
intensive	5171
Without	5171
obligation	5170
mixed	5169
ae@@	5169
alisation	5168
one-@@	5167
voting	5166
our@@	5163
16.@@	5163
ising	5159
acting	5159
Mac@@	5159
Tur@@	5158
virtual	5156
Full	5156
prevention	5152
forests	5149
I-@@	5148
Super@@	5147
Women	5146
ken@@	5145
ess	5144
harbour	5144
classical	5142
ongoing	5141
turning	5138
danger	5134
Registration	5133
ama	5131
settlement	5131
ren	5130
sit	5128
literature	5125
transferred	5121
miss	5121
gra@@	5120
confirm	5119
ñ@@	5119
chief	5117
sive	5116
set@@	5115
Soviet	5114
generate	5111
processed	5111
countryside	5110
alle	5110
Ser@@	5109
Height	5107
surely	5106
terrorism	5105
Florence	5105
ss@@	5104
ch-@@	5102
adopt	5101
roll	5101
Balcony	5101
agents	5100
temple	5099
collective	5098
sa@@	5094
PL@@	5090
symptoms	5089
Telephone	5089
LO@@	5086
low-@@	5084
machinery	5078
temperatures	5077
convinced	5077
navigation	5077
Antwort	5077
WESTERN	5077
open-@@	5076
massage	5075
Op@@	5074
hills	5074
suit	5073
beer	5072
Porto	5072
HTML	5070
lo	5069
Audio	5069
Maps	5069
intention	5065
da@@	5063
mutual	5062
occasione	5061
composed	5060
star@@	5060
parallel	5058
Res@@	5058
universities	5058
enhance	5057
fat	5057
At@@	5056
arranged	5056
Week	5054
ora	5053
addressed	5052
Tra@@	5051
convert	5050
drugs	5048
releases	5048
glory	5047
Night	5046
Me	5046
Slovakia	5044
o.@@	5044
360	5040
precipitation	5040
GAME	5039
dollars	5036
Tro@@	5036
›	5036
highlight	5034
adequate	5033
stores	5033
bal@@	5032
acquired	5032
split	5032
1.0	5032
hits	5030
column	5028
behaviour	5024
Portuguese	5023
Marina	5023
lands	5021
CEO	5021
fiscal	5020
originally	5019
B.	5019
delay	5016
generator	5016
ash	5014
Kr@@	5013
letters	5012
newspaper	5011
sun@@	5011
laser	5011
.....	5010
centers	5009
att@@	5008
intervention	5006
hole	5005
dri@@	5003
pray	5003
Rem@@	5002
H.	5002
sexy	5002
Building	5001
Summer	5000
1988	4999
gained	4998
ization	4998
enterprise	4995
che@@	4994
Fr	4994
ser	4992
inger	4989
partly	4987
operated	4986
20-@@	4985
ban@@	4982
cu@@	4982
compromise	4980
-based	4978
reply	4975
answers	4973
clothes	4973
bio@@	4971
medi@@	4970
combat	4968
ick@@	4968
tips	4968
actively	4967
bet	4967
concerts	4965
no.8@@	4965
Pope	4964
ets	4963
competence	4963
shot	4963
outcome	4962
19.00	4962
smart	4961
teacher	4958
Bon@@	4957
productivity	4957
st-@@	4956
interview	4952
pres@@	4951
ely	4950
ico	4948
Blog	4948
strengthening	4945
Indian	4945
SO@@	4945
engines	4943
IV	4941
Cre@@	4938
es.htm	4937
form@@	4936
regulatory	4935
Swedish	4935
SE	4934
movies	4934
Engineering	4933
Choose	4932
Leipzig	4932
attitude	4931
GDP	4930
PR@@	4930
gentle	4930
Bro@@	4929
m-@@	4929
eu@@	4927
researchers	4927
aff@@	4926
Finance	4925
functionality	4923
�	4923
genuine	4920
Christians	4920
lock	4918
peoples	4917
formal	4916
estimated	4916
E.	4916
Ak@@	4915
selling	4915
survey	4912
LED	4912
sleeping	4911
or-@@	4906
rou@@	4905
sion	4904
Based	4903
stein	4903
zu@@	4901
pointed	4900
maybe	4900
produces	4900
94@@	4900
ail@@	4899
à@@	4898
ris@@	4895
linen	4894
belongs	4893
threat	4888
finds	4888
ear@@	4888
Release	4888
Valencia	4887
moments	4886
claimed	4886
DE@@	4886
passing	4884
hr	4884
Laundry	4883
Palestinian	4882
ed-@@	4882
arrangements	4881
OL@@	4881
null	4878
¬	4877
Ltd	4873
unter	4873
Mari@@	4872
Alliance	4869
lang	4869
21st	4867
hundreds	4867
cas@@	4865
Luggage	4865
Wien	4862
falls	4861
chairs	4859
AR	4858
kilometres	4858
Downloads	4858
keyword	4857
naturally	4855
judgment	4854
Resort	4854
bonus	4853
BO@@	4852
clicking	4851
authors	4850
lim@@	4850
CO2	4850
individually	4850
ft@@	4850
101	4849
Sport	4849
BTE	4847
thoughts	4846
ls	4846
willing	4843
Chapter	4843
usage	4841
Course	4840
ban	4839
fer	4838
threats	4837
Pat@@	4837
realized	4837
ades	4835
pal@@	4834
SA	4834
varied	4832
seriously	4831
mor@@	4831
ari	4831
wittgensteinsource.org	4831
improvements	4830
Surface	4830
ase	4827
ord@@	4827
Fer@@	4827
treatments	4826
PO@@	4825
ug@@	4825
IR@@	4824
istic	4823
einer	4822
paths	4821
facilitate	4819
vary	4819
museums	4819
PHP	4819
th-@@	4817
unknown	4814
subjects	4814
appreciate	4812
fied	4812
narrow	4812
cat	4811
gan@@	4810
î@@	4810
Industrial	4810
subsequent	4808
ni	4808
Currently	4808
flash	4808
ht@@	4807
mir	4806
ute	4805
Bay	4801
Hungarian	4799
uni@@	4798
consciousness	4797
Je@@	4797
steam	4795
independence	4794
Ur@@	4793
everywhere	4793
automotive	4793
hospital	4792
1945	4790
deals	4790
Met@@	4788
combine	4787
sch	4786
firms	4784
variable	4784
Card	4783
wedding	4783
receiving	4782
inspired	4782
demanding	4779
Milan	4776
1.0@@	4774
Address	4773
reaction	4772
voltage	4771
ord	4770
Lodging	4769
Dimensions	4767
Mu@@	4766
brands	4764
Pen@@	4763
certificate	4762
85@@	4761
fellow	4758
Diese	4757
possibly	4756
ently	4756
relationships	4755
revealed	4755
PC@@	4754
anywhere	4753
stayed	4752
drops	4752
folder	4752
exception	4751
overcome	4750
Calendar	4750
drug	4749
Prize	4747
arm	4747
ato	4744
ick	4744
Paper	4742
Mountain	4742
meals	4742
auf@@	4740
traditions	4738
glad	4737
Annual	4737
emphasis	4736
personally	4736
rapidly	4735
ast	4734
underground	4734
candidate	4733
inch	4729
SC@@	4729
ment@@	4728
boxes	4727
Partner	4726
permitted	4725
Cha@@	4724
tar@@	4722
relative	4720
Alle	4718
judge	4717
sensor	4717
football	4714
Ein@@	4712
Av@@	4711
widely	4711
Was	4707
cc@@	4707
consulting	4706
gg@@	4706
Wil@@	4706
Februar	4705
shuttle	4703
x-@@	4703
Exhibition	4700
hom@@	4699
Plaza	4699
talks	4698
adjusted	4697
arguments	4696
TO@@	4696
Simply	4692
Januar	4692
governance	4691
Bus	4691
Kom@@	4690
Daniel	4689
favorite	4688
correctly	4685
BR@@	4681
passenger	4680
Northern	4680
adjust	4679
optional	4679
vol@@	4678
ges@@	4678
sel	4676
cheese	4676
ero	4676
seats	4675
ire	4675
TO	4674
reserves	4672
Ober@@	4672
fication	4671
opinions	4669
port@@	4669
cream	4668
20.@@	4668
custom	4667
observed	4665
Section	4664
fan	4663
mit@@	4662
meal	4661
courts	4660
twice	4659
suited	4659
Irish	4659
Everything	4658
realize	4658
all-@@	4657
OR	4657
Strategy	4656
vor	4656
expand	4655
ging	4652
equally	4652
George	4652
dependent	4651
deleted	4651
Des@@	4651
sailing	4650
Chamber	4648
Federation	4645
Win@@	4645
Natural	4644
loved	4642
savings	4638
damages	4638
erv@@	4635
Working	4634
11,@@	4633
asking	4632
ck@@	4631
habe	4631
ingly	4630
Item	4629
Syria	4626
spending	4625
zer@@	4625
chapter	4624
ath	4623
optimized	4622
recognised	4621
shift	4621
hel@@	4621
rising	4620
transaction	4619
destroy	4619
tet	4619
LE	4618
precision	4617
Hans	4617
believed	4616
internationally	4615
aci@@	4615
ation-@@	4614
trail	4613
Mol@@	4613
statistics	4608
win@@	4608
Les	4608
adding	4607
assume	4604
Fran@@	4604
brief	4603
iting	4602
Tre@@	4602
74@@	4602
Guide	4601
EUR@@	4600
largely	4599
--@@	4596
dies	4594
auto@@	4590
migration	4589
cam@@	4588
Trans@@	4587
t.@@	4587
ole	4586
Georgia	4585
Pres@@	4584
ong@@	4583
brain	4583
Prices	4579
regarded	4576
meets	4576
approaches	4576
intellectual	4575
Space	4574
everybody	4573
revenues	4573
9th	4573
generations	4572
Climate	4572
tem@@	4570
p.@@	4569
Slovenia	4568
destinations	4567
municipality	4566
supposed	4564
Fin@@	4563
ists	4563
winner	4561
ga	4561
42@@	4561
Dresden	4561
ned	4560
OP@@	4560
sions	4559
Ministers	4557
sees	4557
poker	4557
Professional	4556
IF@@	4554
bil@@	4553
controller	4552
entering	4551
restored	4551
scheduled	4550
removal	4549
mechanisms	4548
Premium	4547
gut	4546
Discover	4545
bigger	4539
portal	4539
MA	4538
Chairman	4537
refugees	4535
Color	4533
by@@	4530
stream	4528
Fair	4528
effectiveness	4525
gender	4525
directions	4525
Washington	4524
stronger	4524
int@@	4524
Cur@@	4524
angle	4522
mounted	4522
der-@@	4521
ours	4518
tells	4518
ue	4518
ili@@	4518
Step	4517
00-@@	4517
respectively	4516
consent	4516
bul@@	4514
TI@@	4513
alized	4513
Art.	4513
ational	4509
ier@@	4507
priests	4506
Von	4506
recognize	4506
Andreas	4505
head@@	4504
MA@@	4504
is-@@	4504
specialists	4503
clothing	4503
og	4503
Cyprus	4501
chamber	4501
Char@@	4501
Casino	4501
Ms	4500
Agriculture	4499
comm@@	4498
Learn	4498
victory	4497
SMEs	4496
characteristic	4496
pack	4495
tan@@	4494
plan@@	4494
ET@@	4493
Archive	4493
ped	4491
themes	4491
surfaces	4490
icon	4490
ack@@	4489
Info	4485
representation	4484
defence	4483
import	4483
shaped	4483
Twitter	4483
Lift	4483
115@@	4483
participating	4481
Francisco	4481
Capital	4480
Updated	4480
grace	4478
RF@@	4477
Ham@@	4476
Looking	4474
plane	4474
18.@@	4474
Vo@@	4473
continuously	4472
Tu@@	4471
Plus	4468
ap	4465
welcomed	4463
ente	4463
War@@	4463
Kitchen	4458
www.qlyque.com	4458
renewed	4456
parks	4456
arm@@	4454
brothers	4454
faces	4452
fruits	4452
transactions	4450
orientation	4450
OT@@	4450
Dezember	4450
performances	4449
Sil@@	4449
cosy	4447
loc@@	4445
hosts	4444
achieving	4443
functioning	4443
pic@@	4443
12,@@	4443
quantity	4442
Compare	4442
paragraph	4441
indicate	4440
declaration	4440
si	4438
Corporate	4437
autumn	4434
acceptance	4432
vessels	4430
manufactured	4430
specially	4428
gathered	4428
Antonio	4425
ez@@	4425
reporting	4424
bay	4424
massive	4422
boy	4417
ll@@	4417
Should	4416
monetary	4416
UT@@	4416
producer	4415
Mir@@	4415
Title	4414
computers	4414
heated	4413
unity	4409
stainless	4409
Share	4406
hor@@	4405
Save	4405
Properties	4405
com	4403
medieval	4403
anger	4401
Level	4400
as-@@	4400
fail	4398
degrees	4398
240	4397
accuracy	4396
suites	4394
accordingly	4393
trained	4393
cat@@	4393
MP@@	4391
E-Mail	4390
Lady	4389
sed	4388
D-@@	4387
loans	4386
considerably	4385
63@@	4385
seemed	4384
Shopping	4384
ust@@	4383
Pet@@	4383
cer@@	4383
Youth	4382
Month	4382
speakers	4380
stylish	4380
decisive	4379
federal	4379
Word	4379
MO@@	4377
promise	4376
ching	4373
unforgettable	4372
bes@@	4371
superior	4370
sy@@	4370
28th	4370
Super	4370
Judah	4370
Young	4369
arise	4368
fe	4367
www.youtube.com	4366
cohesion	4365
oli@@	4365
Atlantic	4364
es.com	4364
photographs	4363
attended	4362
1973	4360
conclude	4359
hairdryer	4359
expanded	4358
Alps	4358
Videos	4358
400@@	4358
uk@@	4357
cultures	4356
fr	4356
ending	4353
mid-@@	4353
.co.uk	4353
spare	4352
Israeli	4351
Cross	4348
preparing	4347
chen@@	4347
Division	4347
3D@@	4347
Mas@@	4346
123	4346
husband	4345
XL	4345
Rec@@	4344
escape	4344
Sciences	4344
Url	4343
220	4341
Assembly	4340
Saint-@@	4340
1985	4340
D.	4340
behavior	4340
The@@	4339
installations	4339
fac@@	4337
Malta	4336
weak	4335
sn@@	4335
117@@	4335
Sunrise	4335
affairs	4333
servants	4333
Nr.	4331
substance	4329
layout	4329
considers	4327
www.eib.org	4327
CA	4326
X-@@	4326
css	4326
www.bibliotecapleyades.net	4326
architectural	4324
suffer	4323
kilometers	4323
reflected	4322
yn@@	4320
hy@@	4319
Opera	4319
et-@@	4317
accurate	4315
Baltic	4315
sheets	4315
completion	4314
ville	4313
deleted@@	4312
dir	4311
commitments	4310
resistant	4310
exposed	4308
tank	4308
involving	4307
retail	4307
intense	4307
24th	4305
drinking	4304
ax@@	4303
onn@@	4302
Charter	4302
score	4302
Ed@@	4302
10,@@	4302
significance	4301
tal@@	4300
ton@@	4300
SU@@	4300
serving	4299
pension	4295
pat@@	4295
co-operation	4292
ET	4292
-5	4290
afraid	4289
taught	4289
Ö@@	4288
execution	4287
delete	4287
examine	4286
Bri@@	4286
iner	4285
Follow	4285
laboratory	4284
SH@@	4284
Right	4283
post-@@	4281
hn@@	4281
ambitious	4277
cap@@	4277
homepage	4276
musicians	4274
san@@	4274
fascinating	4273
wel@@	4272
230	4270
adult	4270
Gold	4270
rejected	4269
sam@@	4267
Ha@@	4265
ink	4264
mp@@	4262
Senior	4260
201	4260
obviously	4258
findings	4258
stops	4258
ste	4258
č@@	4258
employed	4256
Pa@@	4255
isch	4254
Sha@@	4253
Enterprise	4251
Islamic	4250
MBLength	4250
unfortunately	4247
ning	4247
surgery	4247
GPS	4245
charter	4244
Innovation	4243
fun@@	4243
cup	4241
sought	4238
ik@@	4238
shalt	4237
wave	4234
whereas	4233
Patent	4233
CH	4233
yl@@	4232
EU-@@	4231
unusual	4230
ched	4230
sole	4230
Mother	4227
G.	4227
automation	4227
witness	4226
3.jpg	4223
managers	4222
wise	4222
ceremony	4222
Alexander	4222
converted	4220
thereof	4218
roots	4218
Series	4218
passion	4217
demonstrate	4216
ee	4215
aren	4215
burden	4214
welcomes	4214
smoking	4213
assigned	4213
115	4211
Sy@@	4211
plates	4211
seminar	4210
Cultural	4209
combines	4208
TA	4208
OM@@	4207
í	4206
describe	4204
um-@@	4204
Argentina	4202
magnetic	4201
Anna	4200
equivalent	4199
1987	4199
horses	4198
secondary	4197
translated	4197
S.@@	4197
bor@@	4195
argument	4195
g-@@	4195
highlights	4195
Zürich	4194
Maybe	4193
ok	4192
taxonomy	4191
br	4191
precious	4190
budgetary	4189
IV@@	4189
involves	4188
84@@	4187
flesh	4186
liquid	4185
Winter	4185
Yahweh	4185
logo	4184
Institut	4184
1980	4184
Gl@@	4184
atory	4183
conflicts	4183
aut@@	4183
ey@@	4183
tz@@	4183
dust	4182
bra@@	4182
restrictions	4180
mnt	4180
Vill@@	4179
lev@@	4178
Angeles	4178
schon	4177
sandy	4177
sights	4176
displays	4175
izing	4175
Hong	4175
Mark	4174
somewhat	4172
Thailand	4172
seed	4171
une	4171
kill	4169
500@@	4169
greatly	4168
preserved	4168
registry	4168
officials	4167
Lin@@	4166
whilst	4165
WTO	4165
Statistic	4165
imagine	4162
Vol@@	4162
Print	4162
bs	4161
Basic	4161
labor	4158
Chief	4157
pro	4157
Born	4157
picturesque	4157
clubs	4156
Help	4156
205	4155
dryer	4155
soldiers	4153
ordinary	4150
Kong	4150
Studies	4150
-30	4150
Direktlink	4150
aside	4148
difficulty	4147
diving	4147
Common	4146
1986	4145
ple@@	4145
constructed	4145
gam@@	4144
nor@@	4142
certification	4141
Environmental	4140
0200	4140
ani@@	4138
loan	4137
span	4135
premises	4135
tra@@	4135
stuff	4134
ecological	4132
Hand@@	4132
economies	4131
specialized	4131
severe	4130
strict	4129
prison	4129
lam@@	4129
it-@@	4128
garage	4128
travelling	4127
propose	4125
EF@@	4124
corruption	4123
Author	4123
www.mogelpower.de	4123
ture	4122
Wolfgang	4120
Train	4120
mb@@	4119
involvement	4117
Ein	4116
ç@@	4115
alcohol	4113
yesterday	4112
thin	4112
surprise	4112
servant	4111
stick	4111
fathers	4109
Gro@@	4107
strange	4107
returns	4105
Mountains	4105
check-in	4105
Hello	4105
happening	4104
tically	4104
Ban@@	4104
drives	4103
Ram@@	4103
Days	4102
vegetables	4101
wal@@	4100
breakfasts	4099
diet	4098
discrimination	4097
24.@@	4096
maintaining	4095
towels	4094
Register	4091
Test	4090
ssd	4090
worst	4088
magic	4088
pump	4087
iPod	4087
engaged	4086
tub	4086
alive	4085
Lam@@	4085
expenditure	4084
je@@	4084
526	4083
Sun@@	4083
banking	4081
BC	4081
new@@	4081
tube	4081
sunny	4080
dealt	4079
pkoehn	4079
site-crawl	4079
Large	4078
repeat	4077
radi@@	4077
Key	4075
Neu@@	4074
grew	4072
calculated	4071
occurs	4069
catch	4066
Star@@	4064
fel@@	4062
intelligent	4062
Mallorca	4062
Sar@@	4061
ous@@	4060
worse	4059
pos@@	4059
isation	4057
Ir@@	4057
Europa	4055
Net	4055
er.@@	4055
Between	4054
170	4054
CON@@	4054
Sa	4053
separated	4052
CE@@	4052
humanity	4051
cul@@	4050
meter	4049
bearing	4048
photography	4048
än@@	4047
3.5	4047
Rotterdam	4047
May@@	4047
cloud	4046
acid	4046
ures	4046
bird	4045
.eu	4044
www.vidc.org	4044
if@@	4043
patterns	4041
excursions	4039
CET	4039
bicycle	4036
Call	4034
refrigerator	4034
www.blogigo.de	4034
attend	4033
armed	4031
Exchange	4030
enemies	4030
Cathedral	4030
113@@	4028
cycling	4028
holder	4027
116@@	4027
XS	4027
Sometimes	4026
productive	4025
comprises	4025
P.	4025
Roma	4024
trails	4024
reaching	4022
freely	4021
kom@@	4020
rear	4020
spots	4019
Tim@@	4019
suits	4019
Apart	4018
branches	4018
hospitality	4018
arrangement	4017
93@@	4017
pollution	4014
CS@@	4013
Database	4012
adi@@	4012
PRO@@	4010
trains	4009
Rio	4008
wieder	4007
kon@@	4006
presenting	4005
Morocco	4005
300@@	4003
uck	4002
420	4002
actors	4001
cabin	4001
Does	4000
ici@@	4000
Framework	4000
bottle	4000
Lim@@	4000
outer	3999
Ju@@	3997
faced	3996
flows	3996
SAP	3996
enhanced	3994
newsletter	3994
Messe	3994
kar@@	3993
lar@@	3991
examined	3990
designer	3989
incl.	3989
′	3989
ils	3988
ain	3988
hof	3988
pos	3987
Richard	3987
Cooperation	3986
stadt	3985
holes	3984
Vel@@	3984
married	3981
OK	3979
behold	3979
Until	3978
sil@@	3974
Bonn	3974
F-@@	3973
circle	3972
log@@	3972
A-0@@	3972
Village	3972
Euros	3971
oni	3969
schedule	3969
lis@@	3969
Bern	3969
adjustment	3968
Tuscany	3968
fy	3967
Mus@@	3967
Collection	3967
subsidiary	3966
focuses	3966
Production	3966
viewing	3965
Danish	3964
agent	3964
guidance	3963
Sur@@	3963
sins	3961
viewed	3961
ent-@@	3961
Metro	3961
devoted	3960
25th	3959
Official	3958
.cz	3958
Foto	3958
mas@@	3957
EX@@	3957
ron	3957
editor	3957
operates	3956
shoes	3956
E-mail	3956
eventually	3955
Text	3955
können	3954
wisdom	3953
Future	3953
medium-sized	3952
ira	3952
twelve	3952
Charles	3952
DR@@	3952
demonstrated	3951
mixture	3951
kin@@	3951
1984	3947
fore@@	3946
I.	3945
Opening	3944
cooling	3944
filling	3943
slowly	3941
District	3939
enemy	3938
ths	3938
amenities	3938
25.@@	3937
conferences	3936
Newspapers	3936
。	3936
stopped	3935
identification	3935
tis	3935
bo	3935
mus@@	3933
busy	3930
non	3929
527	3929
Net@@	3929
calm	3928
a.htm	3928
simultaneously	3927
circuit	3926
headquarters	3925
stays	3925
continent	3924
kit	3924
db@@	3924
Asian	3923
lifts	3923
ri	3922
inspection	3921
overlooking	3921
PA	3920
CL@@	3920
Hot	3920
Dem@@	3919
guia	3918
cancellation	3917
â@@	3917
duties	3916
academic	3916
Box	3916
Gran	3916
restore	3914
depend	3913
Having	3912
transformation	3911
panels	3910
immigration	3907
fisheries	3907
don@@	3906
lovers	3905
communicate	3905
consisting	3904
equality	3902
RE	3902
underlying	3900
play@@	3900
13,@@	3900
applicant	3899
suggestions	3898
painted	3898
cotton	3897
interactive	3897
190	3896
Material	3896
ises	3895
tiv@@	3895
ón	3894
absence	3894
Democrats	3893
ê@@	3892
pilot	3891
legs	3891
gro@@	3891
ün@@	3891
Ren@@	3890
percentage	3888
ceiling	3887
emerging	3886
powered	3886
of-@@	3885
cop@@	3884
tone	3883
Don@@	3882
invest	3881
appointment	3880
paint	3880
Previous	3879
W.	3878
ish@@	3877
water@@	3876
mil@@	3876
ency	3875
relate	3873
bags	3873
Wall	3872
nevertheless	3871
14,@@	3870
reputation	3869
accident	3866
ax	3866
tumblr.com	3866
protecting	3865
ease	3865
ß	3865
Verlag	3865
www.immobilsarda.com	3865
gap	3864
consequence	3864
counter	3864
detection	3863
83@@	3861
ED	3860
ide@@	3859
explanation	3858
novel	3858
Rom@@	3858
f-@@	3857
expenses	3856
ears	3856
checked	3856
pet@@	3856
22.@@	3856
equ@@	3854
fic@@	3854
herself	3854
K.	3853
Library	3853
Internal	3852
img@@	3851
acceptable	3850
delegation	3850
healing	3850
ales	3850
Cy@@	3849
lasting	3848
responsibilities	3847
Event	3846
vertical	3842
struck	3841
describes	3839
constitute	3838
299	3838
Golden	3838
contributed	3837
ex	3836
anlass	3836
spectrum	3835
y.@@	3835
Diego	3833
Southern	3832
Bet@@	3832
necessarily	3831
brown	3831
Comp@@	3831
decline	3829
onic	3829
73@@	3829
biological	3828
Kol@@	3828
Fo@@	3827
organize	3827
guitar	3827
compare	3826
dor@@	3826
guides	3826
characterized	3825
transfers	3824
offset	3824
Tax	3824
puts	3823
Summit	3823
celebrated	3823
Universität	3823
bit@@	3822
UL@@	3821
Musik	3821
know-how	3820
nen	3820
ran	3818
rid	3817
sem@@	3817
Additionally	3817
adapt	3816
humans	3814
27.@@	3814
mich	3812
→	3812
belief	3811
specifications	3810
Oh	3810
excluded	3809
Frank	3809
teeth	3807
pools	3807
immer	3806
itz	3805
solely	3804
minister	3803
ali	3803
considering	3800
sheep	3800
wasn	3800
samples	3800
Europeans	3798
push	3797
sophisticated	3797
ham	3797
rely	3795
applying	3795
stunning	3795
wonder	3794
Pacific	3794
immobilsarda.com.2015-12-05	3794
us-@@	3792
printer	3791
24-@@	3791
Jahr	3790
Hz	3790
gradually	3789
copies	3789
Ku@@	3789
monuments	3789
moral	3787
innovations	3787
Starting	3786
staying	3785
keeps	3783
references	3783
warning	3782
o.com	3781
-3@@	3778
Drive	3777
sentence	3776
altar	3776
fying	3775
ares	3775
vineyards	3775
RA@@	3775
Sunset	3775
mileage	3774
super	3774
celebrate	3772
golden	3771
invention	3771
residents	3770
Am	3770
Chile	3770
0.87	3770
loaded	3769
enabling	3768
Finnish	3768
welcoming	3767
Daily	3767
coating	3767
AU@@	3767
moves	3766
ming	3764
ids	3764
ake	3764
les@@	3764
ok@@	3763
falling	3762
ford	3760
connecting	3758
sec@@	3758
VEBEG	3757
luxurious	3756
hast	3754
Sen@@	3753
dd@@	3752
dam@@	3752
fabric	3751
ences	3750
remarkable	3749
cross-border	3748
Solutions	3746
Farm	3746
ender	3745
Sustainable	3745
crimes	3744
13.11.2016	3744
employee	3743
nu@@	3741
poly@@	3741
kings	3741
peak	3740
CR@@	3739
102	3739
servers	3738
urgent	3737
dy@@	3737
31@@	3736
hard@@	3735
twenty	3735
pen	3734
lit@@	3734
wire	3734
illa	3732
hi	3731
Solar	3730
Shower	3730
organ	3728
Dan@@	3727
Perhaps	3726
believes	3726
agu@@	3726
sessions	3725
real@@	3725
loading	3725
SS@@	3725
pp@@	3725
ins@@	3723
ø@@	3723
HOME	3723
28.@@	3722
AP	3722
è	3721
sin@@	3719
Experience	3718
palace	3717
Cup	3717
executive	3716
Personal	3715
gr	3715
stor@@	3714
M-@@	3713
closing	3712
targeted	3712
Spring	3711
laundry	3711
'd	3711
106	3710
decrease	3710
tip	3710
makers	3709
suffered	3708
involve	3708
QUOTE	3708
occurred	3707
alist	3705
capabilities	3704
Android	3704
scan	3704
Actually	3703
Long	3703
tz	3702
non@@	3702
Pu@@	3702
Published	3702
GR@@	3700
Class	3700
metro	3700
pair	3699
rubber	3699
62@@	3698
Hal@@	3697
26.@@	3697
three-@@	3696
politicians	3695
eating	3695
Situated	3693
enjoying	3692
Schweiz	3692
clinical	3691
Being	3689
Ob@@	3688
Ul@@	3688
suddenly	3688
thread	3688
Camping	3688
kt	3686
Easy	3686
CO	3685
104	3684
chat	3684
thick	3683
sein	3682
21.@@	3681
permit	3680
ör@@	3680
upgrade	3678
minor	3677
Managing	3677
initially	3677
ening	3676
tent	3674
intelligence	3673
pop@@	3672
ura	3671
revenue	3669
proceed	3665
Jacob	3665
4-0@@	3664
imposed	3664
Sant	3664
Og	3664
Jan@@	3662
forming	3661
Fa@@	3661
fifth	3660
Ki@@	3660
^	3660
Upper	3659
parliamentary	3658
restructuring	3655
dress	3655
10.00	3655
feld	3654
jpg	3654
128	3652
excl.	3652
satisfy	3651
mol@@	3651
LA	3650
1,000	3650
divine	3650
Haus	3650
neck	3649
abuse	3648
Out	3648
Users	3648
ware	3648
developers	3648
waves	3646
png	3646
NO@@	3645
Anti@@	3645
obliged	3644
pur@@	3643
tle	3642
ry@@	3641
fireplace	3641
interaction	3640
ar-@@	3640
ME	3640
27th	3640
motor@@	3639
Fil@@	3639
Construction	3638
Pic@@	3638
SS	3637
belt	3637
festivals	3636
1-0@@	3636
gear	3635
authentic	3634
sten	3633
boost	3629
deeply	3629
plain	3629
Works	3628
Und	3628
crossing	3627
Serbia	3626
sion@@	3625
cro@@	3625
26th	3625
15-@@	3624
symbols	3623
profiles	3623
Ed	3623
passes	3622
installing	3622
Tag	3622
23.@@	3621
Tar@@	3620
Bremen	3619
paying	3618
regardless	3618
se-@@	3618
30.@@	3618
awards	3617
losses	3616
29.@@	3616
platz	3614
delighted	3613
Forest	3613
DO@@	3612
grid	3612
TE@@	3611
Afghanistan	3610
aging	3609
ards	3608
presentations	3607
coastal	3606
Ç@@	3606
hostel	3606
Ze@@	3606
imp@@	3605
postal	3605
ala	3604
alarm	3604
suggested	3603
conjunction	3603
nec@@	3603
dated	3602
accounting	3602
00AM	3602
ders	3601
bikes	3600
universe	3600
axis	3599
EB@@	3598
participated	3597
motorway	3596
zero	3595
united	3595
engineers	3595
haven	3594
dic@@	3594
teach	3594
Items	3594
observe	3593
ign@@	3593
2-0@@	3591
CN@@	3590
casino	3589
Books	3588
drawings	3588
Rules	3587
arrange	3586
couldn	3586
Hannover	3586
welfare	3585
assess	3584
College	3584
XXL	3584
for-@@	3582
108	3581
cuts	3581
ose	3581
relief	3581
affordable	3580
favourite	3580
Premiere	3579
cinema	3577
zed	3576
IB@@	3576
nit@@	3575
Men@@	3575
Out@@	3573
Ra@@	3573
Moonrise	3573
Kosovo	3572
earn	3572
Privacy	3572
Stefan	3572
.......	3572
1982	3571
über@@	3571
strike	3570
hen@@	3570
Latvia	3569
s.	3569
Han@@	3568
rac@@	3567
boat-@@	3566
enberg	3565
lakes	3564
gri@@	3564
tec	3564
maker	3562
edited	3562
Moonset	3562
és	3561
ida	3561
con	3560
Secondly	3559
trouble	3559
bands	3559
candidates	3558
Look	3557
118@@	3557
vis@@	3556
shortly	3556
dig@@	3556
135	3556
buses	3556
Di	3555
Economy	3555
Little	3555
med@@	3553
Open@@	3550
ST	3549
olog@@	3549
T.	3549
crew	3547
kitchenette	3546
procurement	3545
Uni@@	3544
dev@@	3542
sensors	3542
protocol	3541
Kre@@	3541
Bra@@	3541
accessed	3541
Tel@@	3540
tly	3539
iss@@	3539
Nu@@	3539
bool	3539
asylum	3538
spite	3538
air-conditioned	3538
ark	3538
moon	3537
dish	3537
beat	3537
aria	3537
qui@@	3536
papers	3536
premium	3536
sister	3536
eta	3536
caught	3535
featuring	3534
Singapore	3533
camping	3533
mirror	3530
invalid	3530
1944	3527
integrate	3526
yp@@	3526
fulfilled	3525
indicates	3525
publishing	3525
household	3525
bunk	3525
opposed	3524
speaks	3524
ack	3523
measurements	3523
occupied	3522
lec@@	3522
Format	3522
Plan@@	3521
pressing	3521
calculation	3520
congratulate	3519
squ@@	3519
kers	3519
Dark	3518
NE@@	3518
lab@@	3516
watching	3515
replacement	3515
eggs	3515
F.	3515
Dear	3514
liable	3513
arising	3512
ocean	3512
lat@@	3511
dorf	3510
Ol@@	3510
wenn	3510
Canary	3509
DS	3509
infringement	3508
representing	3508
Rue	3506
attempts	3505
dialog	3505
Multi@@	3504
West@@	3504
signals	3503
sub-@@	3503
climbing	3503
rap@@	3503
bandliste.de	3503
Coins	3502
IMG	3501
mini	3500
rows	3499
Sc@@	3499
eli@@	3499
adds	3498
evolution	3498
BMW	3498
layers	3497
bel	3497
ros	3496
112	3496
Activities	3495
Ci@@	3495
thickness	3495
listening	3494
ultimate	3494
boot	3494
-up	3493
Jordan	3491
Four	3490
orange	3490
wider	3488
yard	3487
Bio@@	3487
vers@@	3487
en.wikipedia.org	3487
recover	3486
isi@@	3486
midst	3486
mere	3486
eck	3485
eternal	3485
1981	3485
add@@	3485
Auto@@	3484
ula	3484
Cat@@	3483
taxi	3483
mi	3483
lying	3482
Den@@	3482
BS@@	3481
Lithuania	3479
aps	3479
ï@@	3479
faithful	3478
stri@@	3478
flying	3477
robust	3475
fol@@	3475
0100	3474
DA	3473
ée	3473
www.penilefitness.com	3472
10-0@@	3471
Tools	3469
B-@@	3468
MAR@@	3467
stra@@	3466
Performance	3466
tend	3464
Customers	3464
hydro@@	3463
Dolomites	3463
preferred	3461
advise	3461
ush@@	3461
är@@	3461
lig@@	3461
Dor@@	3460
320	3460
collections	3460
elling	3459
amp@@	3459
mad@@	3459
Reg@@	3459
Depending	3458
Ly@@	3457
Bath	3457
reader	3456
automated	3456
ic-@@	3455
racing	3455
Estate	3455
wheels	3454
chemicals	3454
onia	3453
210	3453
Pas@@	3452
reflects	3451
QU@@	3451
Enter	3451
280	3450
CE	3450
supervision	3447
determination	3447
virtually	3447
Employment	3446
salvation	3446
chose	3446
tion-@@	3446
zen@@	3445
ret@@	3444
FR	3444
sor@@	3444
seit	3444
e.htm	3444
Wel@@	3443
ought	3442
hl	3442
Behold	3439
phenomenon	3438
GO	3437
V.	3436
harmony	3435
Air@@	3435
grey	3435
pon@@	3434
Hom@@	3434
resulted	3433
receives	3433
discovery	3432
landscapes	3431
honour	3430
Third	3430
err@@	3429
Relations	3429
Mount	3428
25-@@	3428
sword	3427
Buy	3426
barbecue	3423
8.00	3422
vacuum	3421
Sim@@	3420
Coast	3419
reduces	3419
insight	3419
ú@@	3419
isActive	3419
terrorist	3418
fixing	3417
clouds	3417
complicated	3416
Tower	3416
DIN	3416
y.com	3415
Especially	3414
Would	3413
creativity	3412
Bol@@	3410
mount	3409
Jobs	3409
Germans	3409
`@@	3409
low@@	3409
Corporation	3409
od	3408
Roche	3408
Edit	3408
recommendation	3406
Athens	3406
electronics	3406
ric@@	3404
reaches	3404
Welt	3404
Ker@@	3404
12-0@@	3404
Java	3403
develops	3402
CC@@	3402
translation.php	3400
reconstruction	3397
ened	3397
111	3397
vi	3397
alia	3396
logical	3395
beside	3395
03.05.2016	3395
cher@@	3394
dat@@	3394
и@@	3392
ler@@	3391
acy	3390
cache	3390
iness	3389
nearest	3389
ust	3385
besides	3385
blind	3384
ultimately	3384
Gor@@	3384
1983	3384
powder	3383
competitors	3383
analyses	3383
1970	3382
d.@@	3382
Lau@@	3380
ATION	3380
keyboard	3379
Copenhagen	3378
SCH@@	3378
EV@@	3378
Playa	3378
det@@	3377
Islam	3377
fur@@	3376
exercises	3376
Point	3376
tig@@	3376
s1600	3376
wing	3375
cont@@	3375
22nd	3374
folk	3373
efficiently	3371
knowing	3370
overnight	3370
jump	3370
ag	3370
Delivery	3370
seating	3369
liked	3368
societies	3368
Olympic	3368
zones	3367
rit@@	3367
Supervisory	3367
ron@@	3366
cf@@	3366
Organisation	3365
alongside	3365
searching	3364
Orchestra	3364
defend	3363
frames	3363
103	3363
Mad@@	3363
SD@@	3363
5.00	3362
rivers	3361
finden	3361
specify	3359
c-@@	3359
www.amarillasaustin.com	3358
tical	3356
transmitted	3356
writer	3356
promised	3355
sta	3355
mining	3355
FL@@	3355
speaker	3354
inquiry	3353
Bridge	3353
circulation	3352
mo	3351
Franz	3350
portion	3350
Ocean	3350
ska	3350
sho@@	3350
proportion	3349
fallen	3348
Queen	3348
theater	3348
DI@@	3347
dar@@	3347
doctors	3346
decoration	3346
ceramic	3346
til@@	3345
styles	3345
una	3344
Civil	3343
tom@@	3343
Converter	3343
grade	3342
Kor@@	3342
www.k@@	3341
ela	3340
64-bit	3340
dental	3339
tournament	3339
accommodate	3338
cameras	3337
gy	3337
LCD	3337
spe@@	3336
Zealand	3336
Panel	3335
pa@@	3334
Linz	3333
Hier	3333
ethnic	3332
disciples	3332
NATO	3331
parameter	3331
vicinity	3331
Advanced	3331
ownership	3330
18-@@	3330
anymore	3330
conservation	3329
altitude	3329
260	3328
aqu@@	3328
wor@@	3327
Odgovor	3327
tech	3326
Ta@@	3325
etta	3325
static	3324
platforms	3323
pa	3323
challenging	3322
cho@@	3321
Adobe	3321
3-0@@	3321
XML	3320
Times	3318
Articles	3316
desktop	3315
worry	3314
pursue	3314
officially	3314
performing	3312
109	3312
mounting	3312
TE	3312
iPad	3312
ums	3310
Palma	3309
seminars	3308
Suites	3307
optimum	3306
gather	3306
.png	3305
invitation	3303
vocational	3303
readers	3303
Harbour	3302
designers	3302
twin	3301
Bild	3301
alles	3301
Property	3300
Köln	3300
buying	3299
paradise	3297
lively	3296
ving	3296
ei	3296
judicial	3295
14-@@	3295
protein	3294
downloaded	3294
Gam@@	3294
checks	3293
deck	3293
.files.wordpress.com	3293
Catalonia	3292
eh@@	3292
AF@@	3291
Mos@@	3291
Ads	3291
disaster	3289
Cro@@	3289
198@@	3288
voluntary	3287
Force	3287
activated	3286
clo@@	3286
phones	3285
charm	3285
principal	3283
vel@@	3281
len@@	3280
hence	3279
radiation	3279
camps	3278
burning	3278
mid@@	3278
SF	3278
ae	3277
exports	3277
soci@@	3277
environments	3276
down@@	3274
Fol@@	3274
harmful	3272
FR@@	3272
Message	3272
excessive	3270
optical	3270
Indonesia	3268
shareholders	3268
preserve	3267
refused	3267
Made	3267
sized	3266
weekly	3266
infected	3265
age-@@	3265
Low	3265
marriage	3265
segments	3265
mercy	3264
www.gstadt.de	3264
criticism	3263
kes	3263
relaxed	3263
saith	3263
ž@@	3262
Built	3262
receipt	3261
.it	3261
On-site	3261
sequence	3260
one@@	3259
article.php	3259
breaking	3258
foundations	3258
walks	3258
crawler	3258
visa	3257
farming	3257
modify	3256
venture	3256
identical	3256
dreams	3256
labels	3255
pipe	3255
Cape	3255
begun	3254
eness	3251
batteries	3251
fulfil	3250
shell	3248
funded	3247
forums	3247
admin	3247
schemes	3246
bed@@	3244
Med@@	3244
bass	3244
Jahre	3244
AAAAAAAA@@	3244
damaged	3243
moderate	3243
run@@	3243
etc.	3242
shore	3242
ym@@	3242
Tom	3242
occupation	3241
invites	3241
Wor@@	3240
pets	3240
Sailing	3240
Joint	3239
Application	3239
pin@@	3238
worship	3238
density	3238
ck	3238
23rd	3238
rolling	3237
luck	3237
arti@@	3237
feels	3236
Vacation	3234
Amendment	3232
Ke@@	3232
Hostel	3231
Administration	3230
warranty	3230
ances	3229
olo	3229
ranking	3228
enjoys	3228
Ca@@	3228
29th	3228
о@@	3228
pharmaceutical	3226
Kam@@	3225
remind	3224
ore@@	3224
airports	3222
fal@@	3222
composer	3222
Km	3222
1.2	3221
horizontal	3221
ille	3221
expanding	3219
cou@@	3219
login	3219
tunnel	3218
wind@@	3218
unions	3218
alo@@	3217
easiest	3217
wet	3216
influenced	3216
gal@@	3216
initiated	3215
P-@@	3215
а@@	3215
restricted	3214
shadow	3214
ë@@	3213
Monte	3213
personality	3211
recipes	3210
burn	3210
Mwst	3210
barriers	3209
zzgl	3209
Shanghai	3208
cia	3207
Classic	3206
cross-@@	3205
Process	3205
Up@@	3205
repeated	3204
Mit@@	3204
resolve	3203
tension	3203
forever	3203
chocolate	3203
tec@@	3203
Airlines	3202
guard	3201
-to-@@	3201
equity	3201
instantly	3201
Pictures	3201
minibar	3199
en.html	3199
ova	3198
edi@@	3198
eth@@	3198
Vice-President	3197
forgotten	3197
playground	3197
icht	3197
Hallo	3197
fraud	3196
separately	3195
publish	3195
guys	3194
avi@@	3193
107	3193
PS@@	3193
mandate	3192
founder	3192
Micro@@	3192
SQL	3192
commission	3191
tape	3190
alised	3190
ano@@	3189
tailored	3189
varieties	3189
tiles	3189
volumes	3188
ld@@	3187
Competition	3186
uck@@	3186
ow	3185
assumed	3185
ó	3185
L.	3185
Wellness	3185
Johann	3185
causing	3184
Heritage	3184
ava	3184
¤	3184
Mass	3183
Karl	3182
15,@@	3182
qualities	3181
feelings	3180
Abraham	3179
anz@@	3178
scenes	3177
preliminary	3176
Poly@@	3176
Jihlava	3176
Band	3175
Cube	3175
11-0@@	3175
-25	3175
Far@@	3174
def@@	3173
IG@@	3173
Us	3173
pass@@	3172
monastery	3172
ort	3171
inspiration	3170
sk	3170
1200	3170
SA@@	3169
pho@@	3168
112@@	3168
liche	3168
pairs	3168
transformed	3167
Na@@	3167
Al	3167
copper	3166
cargo	3165
prisoners	3165
Chicago	3165
ello	3165
throw	3164
textile	3164
semi-@@	3164
ony	3162
TA@@	3161
derived	3161
etz@@	3161
asi@@	3160
anda	3159
intend	3157
darkness	3157
choosing	3156
ear	3155
buttons	3155
Hi@@	3154
e.V.	3154
Pap@@	3152
younger	3152
sanctions	3151
coverage	3151
sz@@	3150
downtown	3150
proximity	3148
engage	3148
EP	3148
Empire	3148
concentrate	3147
amended	3147
aya	3147
oph@@	3146
ge-@@	3146
surcharge	3146
131	3145
31.@@	3145
Images	3145
flag	3144
Beijing	3143
quote	3140
Pin@@	3140
heading	3139
tropical	3139
000@@	3139
2D	3139
Riviera	3139
Original	3139
breeding	3138
Men	3138
Constitution	3138
Tom@@	3138
necessity	3137
settled	3137
tr	3137
structurize	3137
structured	3136
dating	3136
ferry	3136
scenery	3136
strasse	3136
elsewhere	3134
inclusion	3134
inst@@	3134
capitalist	3134
black@@	3133
Mur@@	3133
medicines	3131
Informationen	3130
mod@@	3129
tag@@	3129
upload	3128
SW@@	3128
Front	3127
Dry	3126
conversation	3125
prime	3124
edges	3123
rot@@	3123
Sor@@	3123
revision	3122
uniform	3122
pin	3122
afterwards	3121
1979	3121
Wit@@	3121
JavaScript	3121
sphere	3120
obstacles	3120
oper@@	3120
Verfasst	3120
reflection	3119
ities	3119
foods	3119
stocks	3118
119@@	3118
www.google.com	3118
750	3117
pas@@	3117
Auf@@	3117
Van	3116
courage	3116
Browse	3115
strictly	3114
geht	3114
Muslim	3113
Fu@@	3113
ranging	3112
ky@@	3112
lic@@	3112
justified	3111
artificial	3111
tra	3111
architect	3111
ily	3111
ven	3111
1978	3110
V-@@	3110
pot	3110
photocopying	3109
ã@@	3109
writes	3108
G-@@	3108
Below	3107
moodle	3107
Representative	3106
Province	3105
Sel@@	3104
taxation	3103
Analysis	3103
ía	3102
mark@@	3102
troops	3101
gs	3101
pu@@	3101
fastest	3101
lia	3100
presidency	3099
nom@@	3099
neue	3099
subsequently	3098
show@@	3098
jo	3098
solo	3096
0,00	3096
chi	3095
Lan@@	3093
legally	3092
rep@@	3092
tos	3092
Es@@	3092
338	3092
freight	3091
Fri@@	3091
realistic	3090
packed	3090
Dar@@	3090
proposes	3089
la-@@	3089
Louis	3088
Theatre	3088
god	3088
dieser	3088
Tip	3088
exploitation	3087
Vit@@	3087
raising	3086
succeeded	3086
actor	3086
mineral	3086
119	3086
е@@	3086
Excellent	3085
Consequently	3084
conscious	3084
query	3084
lau@@	3083
focusing	3083
Ges@@	3083
rated	3082
containers	3080
BA	3080
ame	3079
bg-bab	3079
decision-making	3078
swe@@	3078
energies	3077
Again	3077
modification	3077
passage	3076
Interior	3076
selecting	3076
courtyard	3076
Study	3076
gew@@	3076
ere@@	3074
farms	3073
ter-@@	3073
recognise	3072
Essen	3072
16-@@	3072
worthy	3071
ace	3071
lobby	3069
ranges	3069
VI@@	3068
ku@@	3068
controlling	3068
coat	3068
1.1	3067
consist	3067
Stand	3066
ail	3066
angel	3066
decade	3065
desert	3065
nic@@	3065
galleries	3064
Ther@@	3064
4.5	3063
ling@@	3063
rar	3063
mandatory	3062
ante	3062
zo@@	3062
eller	3062
Sound	3061
photo@@	3059
Wall@@	3058
Vis@@	3058
commands	3057
Gri@@	3057
Taf	3057
yer	3056
surprised	3056
Gaza	3056
Turn	3056
profits	3055
acquire	3055
ao	3055
silence	3055
Record	3054
sake	3053
sign@@	3052
tes@@	3052
www.fotos.sc	3052
protective	3051
citizen	3050
bon@@	3049
databases	3048
emotional	3045
asks	3045
ished	3044
bone	3044
spo@@	3043
Entertainment	3043
kW	3043
tab	3042
noticed	3040
Rad@@	3039
Kat@@	3036
CT	3036
zy@@	3036
abilities	3035
ministers	3034
whenever	3034
ables	3034
Generated	3034
Account	3033
dom@@	3033
kernel	3033
enforcement	3032
restoration	3032
LL	3032
¶	3032
partial	3031
incorrect	3029
tab@@	3029
gym	3028
frequent	3026
coins	3026
prestigious	3025
departments	3025
ishing	3025
ideally	3025
Later	3025
handed	3023
birthday	3023
ati	3022
commanded	3022
encouraged	3021
dol@@	3020
financed	3018
perception	3017
singing	3017
minority	3016
stakeholders	3015
winners	3015
1500	3015
25H	3015
www.dutchgrammar.com	3015
Problem	3014
Belgian	3013
pace	3013
72@@	3013
shapes	3013
Store	3013
ischen	3013
affects	3012
seeds	3011
ides	3011
singer	3009
17,@@	3009
setup	3008
boote-kleinanzeigenmarkt.de	3008
toys	3007
16,@@	3007
dann	3007
Im	3006
succeed	3004
deficit	3004
notified	3004
asset	3004
Walter	3004
AA@@	3003
aux	3002
malware	3002
Bolzano	3001
ball@@	3000
VI	3000
lad@@	3000
maritime	2999
specialities	2998
respected	2997
band@@	2997
rocks	2997
year-old	2997
editing	2997
Around	2996
tissue	2995
undertaken	2994
Wer@@	2994
Added	2993
Direct	2993
arg	2992
tight	2991
117	2991
purchasing	2990
Iron	2989
Alpine	2988
boys	2987
ices	2987
Case	2986
aire	2985
mar	2985
External	2984
Andalusia	2984
Black@@	2984
Subject	2983
HP	2983
.00	2983
Belarus	2982
50-@@	2981
pel@@	2981
woods	2981
grass	2980
telling	2979
occasions	2979
Overview	2978
Dublin	2975
inv@@	2975
Labour	2975
Spe@@	2975
Metal	2975
sacrifice	2974
tru@@	2974
backup	2974
Hil@@	2974
senior	2973
assurance	2972
sport@@	2971
mill	2971
Hill	2970
nar@@	2969
sick	2968
signature	2968
Route	2968
Beautiful	2967
tele@@	2966
fri@@	2965
ity-@@	2964
neighbouring	2963
Bundes@@	2963
AU	2962
Il	2962
Given	2961
mobil@@	2961
Sin@@	2961
FA@@	2961
oning	2959
Caribbean	2958
promises	2958
fi	2957
summary	2956
joining	2955
Pon@@	2955
jointly	2954
3000	2954
monthly	2954
Still	2952
extensions	2952
Piazza	2952
bilateral	2951
earnings	2950
Zentrum	2950
pull	2949
Estonia	2949
ruling	2948
Red@@	2947
placing	2946
differ	2946
graph	2946
LAN	2946
wil@@	2945
tender	2943
Bat@@	2943
Seiten	2943
serial	2942
stressed	2941
mac@@	2941
Pension	2941
officers	2940
par	2940
Easter	2940
economical	2939
bill	2939
ram@@	2938
erung	2937
executed	2936
consensus	2935
Beginning	2935
Unter@@	2935
coordinated	2934
intensity	2933
venue	2933
infection	2932
Tool	2932
tin@@	2931
ox@@	2931
Protocol	2930
aster	2929
Titan	2929
yacht	2928
tackle	2927
122	2927
Watch	2927
sciences	2926
gol@@	2924
strengthened	2921
counter@@	2921
-R@@	2921
constitutes	2920
environmentally	2919
hostels	2919
Back@@	2918
solving	2916
entr@@	2916
DA@@	2916
Virgin	2916
Š@@	2916
pl	2916
formula	2915
197@@	2915
Iceland	2914
carrier	2914
incredible	2913
tl@@	2913
radical	2912
illness	2912
separation	2912
talent	2912
550	2911
Avenue	2910
discharge	2909
Attention	2909
oring	2909
Death	2908
Istanbul	2907
check-out	2907
pay@@	2906
Karlsruhe	2906
sto@@	2906
án	2905
Written	2905
fairly	2904
175	2904
ever@@	2903
counted	2903
ichen	2903
Outdoor	2903
modular	2903
gifts	2901
tie	2901
Measurements	2901
Play@@	2900
buyer	2899
masses	2899
ble@@	2899
fold	2898
Bil@@	2898
quantities	2897
Marco	2897
Index	2897
comparable	2896
Railway	2896
flat-screen	2896
defense	2896
honest	2895
verse	2895
oned	2895
particles	2895
Strasbourg	2894
Continue	2891
rer	2890
nbsp	2890
red@@	2889
650	2889
Pop@@	2889
preparations	2888
vers	2888
worker	2888
nobody	2888
pipes	2888
exhibitors	2888
pet	2887
Balearic	2886
Datum	2886
supplement	2885
0.00	2885
Wh@@	2884
climb	2884
gener@@	2881
contractual	2881
sharp	2881
Cu@@	2880
3.0	2880
zeit	2879
trademarks	2877
healthcare	2876
theoretical	2876
eas@@	2876
Deputy	2876
Graph	2876
Dun@@	2875
indicators	2875
glance	2875
Mis@@	2875
ende	2875
diesem	2875
essentially	2874
founding	2874
dial	2874
EA	2874
id-@@	2874
Volume	2874
Hiking	2873
Gulf	2872
Pakistan	2872
Hits	2872
Thema	2872
hood	2871
mg	2871
Stockholm	2871
150@@	2871
tex@@	2869
exploring	2868
boasts	2868
App	2868
mankind	2867
New@@	2867
Exit	2866
Mi	2866
terraces	2865
onal	2864
essence	2862
refuse	2862
encouraging	2862
jury	2862
tv	2862
lamp	2861
.info	2861
600@@	2861
Oil	2859
age@@	2859
bulk	2859
crystal	2859
SI@@	2859
tonnes	2857
Hy@@	2857
HO@@	2857
sche	2857
gue	2855
defects	2855
1976	2855
any@@	2855
cellar	2855
break@@	2854
berger	2854
Care	2854
cave	2854
Points	2854
realization	2854
wars	2853
breaks	2853
legitimate	2852
rad@@	2852
Revolution	2851
Lower	2850
William	2849
compatibility	2848
AK@@	2848
Hence	2847
hesitate	2846
Log@@	2846
Pos@@	2845
ero@@	2845
ü	2845
disc	2845
achievements	2844
achievement	2844
Partnership	2844
Che@@	2844
thesis	2843
diagnosis	2843
270	2843
documentary	2843
Ev@@	2843
Split	2843
Croatian	2842
Mo	2842
gross	2841
Width	2841
7-0@@	2840
pop	2840
recipe	2840
typically	2839
multitude	2839
lin	2839
embedded	2839
M.@@	2839
evaluate	2838
Tab@@	2836
finishing	2834
hn	2834
ther	2833
Driver	2833
Ä@@	2833
www.ironmaxx.de	2833
WLAN	2832
celebration	2831
na@@	2831
Editor	2831
abstract	2829
interfaces	2829
Try	2828
belonging	2827
commit	2826
116	2826
Gay	2826
MS@@	2826
Titel	2826
smoke	2825
Army	2824
hotel@@	2823
professor	2823
Lab@@	2822
UNESCO	2821
s.html	2821
neutral	2820
Pay	2818
ee@@	2817
carte	2817
expressly	2816
ve-@@	2816
possession	2816
-1	2815
SL@@	2814
Question	2813
diesel	2813
Ty@@	2813
Ibiza	2813
Organization	2812
engagement	2812
2012-0@@	2811
hide	2810
imports	2810
Friedrich	2810
Luxury	2809
flu@@	2807
bat@@	2806
offerings	2806
Sol	2806
cultivation	2805
Cer@@	2805
rentals	2805
bing	2804
chan@@	2804
travellers	2803
silent	2802
cel@@	2802
thumb	2801
souls	2801
Near	2801
kareha.pl	2801
capture	2800
Ann@@	2800
cle@@	2798
violation	2798
Excel	2798
announce	2797
cab@@	2797
orchestra	2797
booth	2795
downloads	2795
wherever	2794
fits	2794
zing	2794
horn	2794
banquet	2793
firmly	2792
gods	2792
with@@	2791
apparent	2791
pers@@	2791
9.00	2791
Warsaw	2791
1975	2791
experiment	2790
ez	2789
Permanent	2789
praise	2788
may@@	2788
safely	2788
Submitted	2787
closest	2786
i.@@	2786
ete	2785
vegetable	2785
113	2785
ION	2785
Adam	2784
ements	2784
Ideal	2784
Adriatic	2782
ep	2782
Cloud	2782
fort	2781
Dienstag	2780
binary	2780
plastics	2779
mistake	2778
partially	2778
MI@@	2778
114	2778
Egyptian	2778
mes@@	2778
losing	2777
ige	2777
surveillance	2776
person@@	2776
5-0@@	2775
penalty	2774
Tan@@	2774
HD@@	2774
prospects	2773
ruins	2773
allocated	2772
utmost	2772
hausen	2772
www.amarillasausti	2772
aesthetic	2771
resolved	2770
permanently	2770
instruction	2769
lowest	2769
MP	2769
eling	2769
COM	2768
fitting	2768
Du	2767
Consumer	2766
upcoming	2766
adaptation	2765
Heart	2765
Junior	2764
Pra@@	2764
Rating	2764
manually	2764
perspectives	2763
Sab@@	2763
juice	2763
L-@@	2762
ric	2761
O-@@	2761
arrow	2761
corresponds	2760
alize	2760
Retrieved	2760
Resources	2759
1972	2759
gel	2759
ny@@	2759
ity@@	2759
welding	2759
constitution	2758
Danube	2758
integrity	2757
harm	2756
rice	2756
Unit	2756
expense	2755
tering	2755
ome	2755
ular	2755
attraction	2755
lens	2755
iten	2755
Bilder	2755
refined	2754
shipment	2754
admission	2752
www.amarillasestad	2751
integral	2750
constructive	2750
ques	2750
Ticket	2750
Booking	2750
Kunst	2750
happiness	2749
inflation	2749
sand@@	2749
Keep	2749
codes	2748
dignity	2748
ín	2748
ele	2748
slot	2748
tobacco	2748
elled	2747
Az@@	2747
extends	2746
Return	2746
Len@@	2746
19,@@	2746
confident	2745
stre@@	2745
Cos@@	2745
Create	2745
ô@@	2745
Loc@@	2744
County	2744
Intel	2744
tiny	2743
RU@@	2743
Um@@	2743
catering	2742
Magazine	2742
CS	2742
progressive	2741
Juan	2741
æ@@	2741
Over@@	2740
165	2740
jurisdiction	2739
Fun@@	2739
opera	2738
yourselves	2738
Off@@	2738
fire@@	2738
145	2738
dispute	2737
grateful	2737
observation	2737
honor	2737
geographical	2736
menus	2736
Relevanz	2736
Phoenix	2735
ère	2734
uro@@	2734
Fal@@	2734
meantime	2733
pun@@	2733
brethren	2733
slide	2733
Lev@@	2733
wash	2731
publisher	2731
7.5	2730
cra@@	2730
fon@@	2730
ratings	2729
hopes	2729
seeks	2729
enting	2728
adjustable	2728
lifestyle	2728
hum@@	2728
utility	2728
pul@@	2728
enden	2728
shed	2726
eliminate	2726
ney	2726
ial	2726
Login	2726
Audi	2726
vulnerable	2725
campaigns	2723
40-@@	2723
Syn@@	2723
straße	2723
Commerce	2722
PE	2722
by-@@	2721
Upon	2721
Mand@@	2721
Appeal	2721
Santiago	2720
Wie	2720
Mes@@	2719
Klaus	2719
License	2719
directives	2718
titles	2718
Soleil	2717
coloured	2716
wouldn	2716
Firstly	2715
entity	2715
violent	2714
continually	2714
correction	2714
lady	2714
Ukrainian	2714
Tours	2714
dc	2714
mood	2713
Fire	2713
240@@	2713
icht@@	2713
iter@@	2712
Realty	2712
worlds	2711
boarding	2711
dominant	2710
journalists	2710
Taiwan	2710
A1	2710
df@@	2710
prosperity	2709
truck	2709
vo	2709
Final	2709
Saul	2709
furnishings	2708
chairman	2707
pra@@	2707
EI@@	2707
Lebanon	2706
gates	2705
filing	2705
memories	2705
Vietnam	2705
jet	2705
wearing	2704
Vegas	2704
convenience	2703
audit	2703
isolated	2703
tica	2703
intends	2702
muscle	2702
Swimming	2702
GE	2702
recycling	2700
mighty	2700
Vice	2700
villas	2700
variations	2699
classification	2699
asse	2699
sup@@	2699
anna	2699
SC	2699
independently	2698
grain	2698
splendid	2697
mul@@	2697
Siemens	2697
sufficiently	2696
parliament	2696
half-@@	2696
hunting	2696
BvR	2696
Century	2695
treaty	2694
regulated	2694
É@@	2694
Bou@@	2694
dramatic	2693
dre@@	2693
alike	2693
oils	2693
Ka@@	2693
Cala	2693
Constitutional	2692
pap@@	2692
22-@@	2692
196@@	2692
dear	2691
ication	2691
logic	2691
filters	2691
amar@@	2690
ory	2689
no-@@	2688
row@@	2688
prints	2688
widespread	2687
breathtaking	2687
Ü@@	2687
Dre@@	2687
tabled	2686
Declaration	2686
cheapest	2686
revised	2685
pursuant	2684
cables	2684
Capacity	2683
reveal	2682
link@@	2682
Ironing	2682
grand	2681
suggests	2680
transported	2680
experiments	2680
embed	2680
introducing	2679
1974	2678
Valle	2677
zo	2677
appreciated	2676
ries	2676
Eine	2676
Fitness	2676
complaints	2675
smallest	2675
demonstration	2675
Gardena	2675
insert	2674
Ken@@	2674
Simon	2674
las@@	2672
Cou@@	2671
smile	2671
MB@@	2670
leg	2670
bit.ly	2670
Cab@@	2669
Stock	2669
egg	2669
ji@@	2669
225@@	2669
ps@@	2669
liberal	2668
exceed	2668
delicate	2668
sing@@	2668
somewhere	2668
Roc@@	2668
FC	2668
Floor	2668
1.html	2667
terrible	2666
influences	2666
Mail	2666
indication	2665
PH@@	2665
cour@@	2664
choices	2664
CF@@	2664
matching	2664
angels	2664
CAD	2664
Hen@@	2662
secured	2661
feeding	2661
well-being	2661
oxygen	2661
discussing	2660
155	2660
1977	2660
races	2660
League	2659
prominent	2658
screw	2658
fate	2657
President-in-Office	2656
az	2656
18,@@	2656
organise	2655
consult	2655
specification	2655
ces	2655
Dol@@	2655
template	2655
cathedral	2655
urge	2654
commonly	2654
kal@@	2654
Weather	2654
ing.htm	2654
sy	2653
Dom@@	2653
Wo@@	2652
referring	2651
ams	2651
Value	2651
alpine	2651
HR	2650
beneficial	2649
suspension	2649
Everyone	2649
Ven@@	2649
thoroughly	2647
excess	2647
translations	2647
LAN@@	2647
erotic	2647
'clock	2646
lag@@	2646
bacteria	2646
unacceptable	2645
Steel	2645
roles	2645
deb@@	2645
290	2645
Credit	2645
scanning	2645
yield	2644
incorporated	2644
concentrated	2644
Il@@	2644
path@@	2643
cheaper	2642
Peru	2642
comfortably	2642
blessed	2642
DI	2641
stove	2641
B-0@@	2641
lectures	2639
Jean	2639
seller	2639
Telefon	2639
ple	2638
fed	2638
Dam@@	2638
ith	2637
Request	2637
designated	2636
bus@@	2636
wage	2635
coal	2635
2.2	2635
Greens	2634
bol@@	2634
unter@@	2634
exclusion	2633
132	2633
auto	2633
bes	2632
consolidated	2632
whereby	2631
preventing	2631
E.ON	2630
gers	2629
RSS	2629
neighborhood	2628
Fel@@	2627
Kitchenette	2627
assi@@	2626
MON@@	2626
experimental	2624
deeper	2624
returning	2624
modes	2624
gy@@	2624
heit	2624
13-@@	2623
tries	2622
productions	2622
ux	2622
Silver	2622
Americans	2621
emb@@	2621
Translation	2621
networking	2621
Lyme	2621
minimal	2620
seal	2620
oun@@	2620
della	2620
berg@@	2620
favourable	2619
attract	2619
Displaying	2619
basically	2618
Water@@	2618
browsing	2618
sting	2617
mak@@	2617
capitalism	2617
6-0@@	2616
Otherwise	2615
cottage	2615
arch@@	2615
aves	2614
stairs	2614
Sand@@	2614
tos@@	2614
Pun@@	2614
opponent	2614
carries	2613
liber@@	2613
agr@@	2613
igen	2613
Newsletter	2612
2011-0@@	2612
springs	2611
Mak@@	2611
plot	2611
www.facebook.com	2611
ame@@	2610
surf	2610
220@@	2610
technik	2610
Languages	2609
Oc@@	2609
Already	2608
bau@@	2608
Cr@@	2607
cruise	2606
E.@@	2605
DV@@	2605
legendary	2605
Bonus	2605
Mul@@	2604
monument	2604
eff@@	2604
Pool	2604
Sauna	2604
Speed	2603
constitutional	2602
pipeline	2602
Close	2602
jazz	2602
SK@@	2602
Agenda	2601
colleague	2601
purely	2601
stand@@	2601
notification	2600
injection	2600
Pil@@	2600
steep	2599
dive	2598
Directors	2598
finest	2598
FAQ	2597
0.5	2596
highlighted	2595
Rep@@	2595
studying	2595
Bike	2595
Consulting	2595
extending	2594
Rica	2594
Dev@@	2593
Hard@@	2593
marble	2593
beam	2593
Equipment	2593
greenhouse	2591
handled	2591
Sz@@	2591
Universal	2590
on-line	2590
W-@@	2590
moreover	2589
Way	2589
5.5	2589
explicitly	2588
municipal	2588
turnover	2588
Post@@	2588
ination	2588
Client	2588
grave	2587
parent	2587
Offers	2587
2018	2587
ancy	2586
121	2586
Dance	2586
highway	2583
loads	2583
eps	2582
Coffee	2582
Along	2581
valve	2581
VA	2581
Sav@@	2580
countless	2580
Left	2579
len	2579
reject	2578
Growth	2578
www.m@@	2578
officer	2576
Helsinki	2576
pour	2576
bow	2576
Wine	2576
GT@@	2576
228@@	2575
missions	2574
bra	2574
enn@@	2574
authorized	2574
Artist	2574
fb@@	2574
retro@@	2573
b-@@	2573
Son@@	2573
1969	2572
prohibited	2571
Democratic	2571
lion	2571
Victoria	2571
minds	2570
tional	2570
wo@@	2570
holders	2570
world@@	2570
Storage	2570
9-0@@	2570
Countries	2569
sum@@	2569
assembled	2569
Technologies	2569
U-@@	2568
solved	2568
capacities	2568
lav@@	2568
1968	2567
responses	2566
Questions	2566
gesch@@	2566
evident	2565
ener	2565
Gas	2565
keine	2565
Bedrooms	2565
ori	2564
ols	2564
cooperate	2563
Holland	2563
Tab	2563
drying	2562
luggage	2562
Extra	2562
oma	2562
ì@@	2562
.exe	2562
aviation	2561
promoted	2561
rank	2561
bling	2561
positioned	2561
tens	2560
up-to-date	2560
Dubai	2560
parish	2560
over-@@	2559
bid	2559
FO@@	2559
Mid@@	2558
phases	2558
traces	2558
BL@@	2558
eri	2558
ref@@	2557
pumps	2557
Talk	2557
mt	2557
recordings	2556
coach	2556
spr@@	2556
alternatives	2555
cut@@	2555
muscles	2555
stu@@	2555
Bavarian	2554
Satan	2554
tongue	2553
esp@@	2553
deadline	2552
survive	2552
380	2552
Veröffentlicht	2552
accused	2551
time-@@	2551
133	2551
cake	2551
Tokyo	2551
Kalifornien	2551
Orientation	2551
hah	2551
loves	2549
directors	2548
roughly	2547
superb	2547
giant	2546
Tal@@	2546
blu@@	2545
blog@@	2545
vice	2544
practically	2543
hur@@	2543
ining	2543
emotions	2543
kin	2543
Cable	2543
single-@@	2541
tough	2541
cattle	2541
Prince	2541
combinations	2541
configured	2541
bc@@	2541
Delta	2540
www.amarillas@@	2540
council	2539
margin	2539
diese	2539
alists	2538
las	2538
Jun@@	2538
righteousness	2538
She@@	2537
Stu@@	2537
Temple	2537
prophet	2537
plugin	2537
Medi@@	2536
Economics	2536
economically	2536
Rob@@	2536
matches	2536
arr@@	2536
Funds	2535
mut@@	2535
Installation	2535
contest	2535
IL	2535
inn@@	2535
12.2015	2535
bath-tub	2535
psych@@	2534
contributing	2533
withdrawal	2532
NO	2532
MTU	2532
murder	2530
eni@@	2530
hang	2529
stretch	2528
Cham@@	2528
Cagliari	2528
ward	2527
compete	2526
globe	2526
Mit	2526
reproduction	2525
free-@@	2525
Gate	2525
repeatedly	2524
bles	2524
Sale	2524
LES	2524
Display	2523
sehen	2523
arity	2521
Fine	2521
aka	2521
bases	2519
emp@@	2518
dominated	2518
127	2518
fairs	2518
bug	2517
distinguished	2517
spl@@	2517
uk	2517
am-@@	2517
fan@@	2516
Camp	2516
covenant	2516
с@@	2516
Lar@@	2515
chem@@	2515
215@@	2514
hen	2514
Explorer	2514
11.2015	2514
tanks	2513
Habana	2513
talked	2512
cancel	2512
gn@@	2512
2.0@@	2512
ür@@	2511
snow@@	2511
ka@@	2511
generous	2510
threshold	2510
Michel	2510
Genoa	2510
Desk	2510
Aaron	2510
consistently	2509
protest	2509
emission	2509
trace	2509
ms@@	2509
viewer	2509
Macedonia	2508
rises	2508
resorts	2508
Bau@@	2508
craft	2507
law@@	2507
imagination	2507
deemed	2506
testimony	2506
Gol@@	2505
distinction	2505
skill	2505
cap	2505
acids	2505
sightseeing	2505
water-@@	2504
VIP	2504
blo@@	2504
EG@@	2504
genetic	2503
Sto@@	2503
ec	2503
hectares	2502
iti@@	2502
ank@@	2502
combining	2501
wages	2501
ate-@@	2501
dei	2501
Short	2499
foot@@	2499
dealer	2499
oak	2499
fc@@	2499
eder@@	2498
breath	2498
hil@@	2498
Result	2497
survival	2496
chances	2496
h-@@	2496
MySQL	2496
basin	2495
126	2495
showcase	2495
penis	2495
Aqu@@	2494
sul@@	2494
Nothing	2493
pride	2493
brake	2493
beg@@	2493
Á@@	2493
dancing	2493
immune	2492
pillar	2492
phrase	2491
Les@@	2491
pt	2491
long@@	2491
key@@	2491
KO@@	2491
Sekunden	2491
Gran@@	2490
cli@@	2490
tol@@	2490
GN@@	2490
Win32	2490
signing	2489
rightly	2488
realised	2488
20,@@	2488
anyway	2487
surprising	2486
Motor@@	2486
ien	2486
4.0	2486
dn@@	2486
DS@@	2486
charging	2485
stan@@	2485
ged	2484
full-@@	2483
tus	2483
nie	2483
assure	2482
Down	2482
complexity	2481
studios	2481
earned	2480
abandoned	2480
ania	2480
ented	2478
134	2478
ost	2478
acht@@	2478
withdraw	2477
newspapers	2477
CC	2477
cozy	2477
10.2015	2477
culinary	2476
pine	2476
AB	2475
Bes@@	2475
Power@@	2475
Operating	2475
slope	2474
bears	2473
reward	2473
Visa	2473
.c@@	2473
bell	2472
halls	2472
y.htm	2472
Kra@@	2471
forgive	2471
tech@@	2471
prophets	2471
Orange	2470
mixing	2469
Der@@	2469
Wilhelm	2469
Kos@@	2468
loop	2468
Holding	2468
architects	2467
CT@@	2467
sav@@	2466
Kir@@	2466
CA@@	2466
82@@	2465
ography	2464
eligible	2463
Nord@@	2463
four-@@	2462
declare	2461
van@@	2461
Nat@@	2461
erie	2461
convention	2460
Bab@@	2460
sten@@	2460
Bus@@	2460
ENT@@	2460
1967	2460
ministry	2460
9001	2460
Sebastian	2459
2.00	2459
Dubrovnik	2459
invoice	2458
Child	2458
wood@@	2458
800@@	2458
statistical	2457
trials	2457
vessel	2457
shoot	2457
ga@@	2457
Hamas	2457
authorised	2456
biodiversity	2456
ills	2456
boo@@	2456
GE@@	2456
long-@@	2455
honey	2455
Engels	2455
warms	2455
versatile	2454
Maximum	2454
arg@@	2454
Vol	2454
Dr	2453
discipline	2452
141	2452
institute	2451
cook	2451
Sem@@	2450
hrs	2450
debates	2449
fails	2449
s.de	2449
er.com	2449
industri@@	2447
cs	2447
wilderness	2447
pack@@	2447
voices	2446
118	2446
accompanying	2445
Initiative	2445
Zu@@	2445
surfing	2445
tively	2444
power@@	2444
state-of-the-art	2444
favor	2444
believers	2443
tram	2443
substantially	2442
ł@@	2442
on-site	2441
best@@	2440
read@@	2440
Bosnia	2440
crescent	2440
aming	2439
hydraulic	2439
alliance	2438
Years	2438
±	2438
Apostle	2438
Heidelberg	2438
realise	2437
Theater	2437
BM@@	2437
226@@	2436
annually	2435
certificates	2435
adjacent	2435
tubes	2435
Bed@@	2435
WordPress	2435
www.d@@	2434
nat@@	2433
resolutions	2433
detect	2433
grants	2433
hin@@	2433
Zeitschrift	2433
Müller	2432
ji	2432
FOR	2431
fewer	2431
27-@@	2431
fen	2431
Kap@@	2431
sculpture	2431
trucks	2430
hem@@	2430
Ga@@	2430
simulation	2430
Electric	2430
rig@@	2429
NL	2429
eria	2429
Schw@@	2429
vic@@	2428
hospitals	2427
PD@@	2427
cats	2427
t.com	2427
Muslims	2426
ht	2426
NAS	2426
accidents	2425
Florida	2425
characterised	2424
balls	2424
prevents	2424
01.@@	2424
CSS	2424
bonds	2423
Aires	2423
Features	2423
sec	2423
albums	2423
sorry	2422
arrested	2422
kel@@	2422
customized	2421
GA	2420
ad-@@	2420
debut	2420
insulation	2419
Zi@@	2419
psychological	2418
ologists	2418
Form	2418
kan@@	2418
snacks	2418
reactions	2417
columns	2417
activate	2416
ume	2416
systematic	2415
planted	2415
motto	2415
consequently	2415
appellant	2415
subsidies	2414
Meanwhile	2414
childhood	2414
react	2413
Italia	2413
shooting	2413
bathing	2413
Wol@@	2413
impose	2412
employers	2412
daughters	2412
Lip@@	2412
hon@@	2412
gases	2411
fs	2411
tas@@	2411
harvest	2411
para	2411
-Email	2411
plo@@	2410
lips	2410
pink	2410
gli@@	2410
Fall	2410
tre	2409
berry	2409
implications	2407
rescue	2407
immigrants	2407
Buenos	2407
Suitable	2407
regret	2406
routine	2406
avoided	2406
ò@@	2406
bud@@	2406
classified	2406
ket@@	2406
notably	2405
stal@@	2405
www.b@@	2405
pot@@	2404
Pel@@	2404
ted@@	2404
funny	2403
lecture	2403
committees	2402
pressed	2402
Obama	2402
way@@	2401
day@@	2400
Officer	2400
ne-@@	2400
Berg@@	2399
placement	2398
Vision	2398
breast	2398
emerged	2397
Happy	2397
Marine	2397
Rel@@	2396
fought	2396
excellence	2396
a7@@	2396
strip	2395
3.2	2395
ers@@	2395
Garda	2395
Reviews	2395
demonstrates	2394
Pierre	2393
Kur@@	2393
nam@@	2393
Bewertungen	2393
Alto	2392
dro@@	2392
schaft	2392
royal	2391
Bibione	2391
oli	2390
Flo@@	2390
economics	2389
archives	2389
ups	2389
demanded	2388
Comfortable	2388
in-gene	2388
locked	2387
ew	2387
baths	2387
5909@@	2387
1960	2386
Projects	2386
Cheap	2386
NGOs	2385
cry	2385
arian	2385
documented	2384
Norwegian	2384
anim@@	2383
Nordic	2383
crowd	2383
guy	2383
True	2382
ario	2382
shut	2381
ite@@	2381
Kas@@	2381
addressing	2380
translate	2380
GM@@	2379
499	2379
Bü@@	2379
colored	2379
displayimage.php	2379
Created	2378
BI@@	2377
-of-@@	2376
Mark@@	2376
Staff	2375
-and-@@	2375
lifetime	2375
Stay	2375
Kle@@	2375
Terminal	2374
Monetary	2373
commissioned	2372
organs	2372
m.	2372
Beitrag	2372
distances	2371
noon	2371
enthusiasm	2371
Vatican	2371
Gesellschaft	2371
ult	2371
Stadt	2371
Structural	2370
governing	2370
broke	2370
124	2370
variables	2370
pose	2369
Photo@@	2369
enters	2368
checking	2367
stake	2367
condado-de-@@	2367
chains	2366
go-@@	2366
ib@@	2366
sub-categories	2366
Provence	2366
tig	2366
Für	2366
finger	2365
т@@	2365
ulation	2364
double-@@	2364
ately	2364
EEC	2363
desires	2363
gains	2363
cht	2363
cos@@	2363
specialised	2362
sacred	2361
enburg	2361
Bern@@	2360
rarely	2359
clause	2359
palm	2358
grapes	2357
broadcast	2357
Fast	2357
eu	2356
speeds	2356
ye@@	2356
Notes	2356
PP@@	2356
bers	2355
129	2355
Active	2355
nes	2355
Profile	2355
waxing	2355
16.08.2015	2355
considerations	2354
thirty	2354
CDs	2353
Sierra	2353
durch	2353
interpreted	2352
contributes	2352
Sti@@	2352
VW	2352
half-board	2352
robot	2352
existed	2349
trademark	2349
92@@	2349
ishes	2348
imported	2348
Tunisia	2348
1.3	2348
Awards	2348
Ñ@@	2348
Various	2347
aga	2347
Sep@@	2347
ino@@	2347
invested	2346
Petersburg	2346
libraries	2346
136	2346
uss@@	2346
Hospital	2345
missed	2344
Communications	2344
linear	2344
lamps	2343
metals	2343
possess	2343
terrain	2343
bild@@	2343
mistakes	2342
permits	2342
ading	2342
prizes	2342
Brun@@	2342
Hell@@	2342
Hon@@	2341
retain	2341
Though	2340
Solomon	2340
gang	2340
HE@@	2340
Deposit	2340
acted	2339
385	2339
traveling	2339
renovation	2338
sig@@	2338
yours	2337
BB@@	2337
Rou@@	2336
IK@@	2336
emphasized	2336
headed	2335
threatened	2335
protects	2335
forbidden	2335
л@@	2335
neighbourhood	2334
Applied	2334
bert	2334
GU@@	2334
850	2333
Visitors	2333
impressed	2332
nuts	2332
RA	2332
hell	2332
wald	2332
gas@@	2332
Smart	2332
1,5	2332
FreeBSD	2332
capability	2331
bond	2331
Socialist	2330
SR@@	2330
magazines	2330
ordering	2330
picked	2329
CP@@	2329
315	2329
dal@@	2329
mos@@	2329
pays	2328
inform@@	2328
Perfect	2328
Jazz	2328
Bicycle	2328
osis	2327
gran@@	2327
promising	2326
initi@@	2326
Georg	2326
ais@@	2326
Spiel@@	2326
Kinder	2325
transit	2324
pel	2324
announcement	2324
tures	2324
Erstausstrahlung	2324
beoordelingen	2324
Brandenburg	2323
137	2323
Sup@@	2323
shorter	2322
towers	2322
All@@	2322
wings	2321
ock	2321
Mun@@	2321
erk@@	2321
dc@@	2321
Tw@@	2320
neu@@	2320
Superior	2320
4-star	2320
allocation	2319
BE@@	2319
throne	2319
IM	2318
hab@@	2318
Christ@@	2318
Eng@@	2318
politically	2317
och@@	2317
Buddha	2317
a.	2317
Wireless	2317
them@@	2316
cha	2313
Montag	2313
Visual	2313
17-@@	2312
beginners	2312
Baby	2312
admitted	2311
Set@@	2311
atr@@	2311
combating	2310
sink	2310
laying	2310
rehabilitation	2309
connects	2309
grows	2309
no.0@@	2309
nowadays	2308
Reserve	2308
21-@@	2308
Non-@@	2307
partnerships	2307
urs	2306
Bour@@	2306
compl@@	2306
endless	2306
assistant	2306
wins	2306
safeguard	2305
enlarge	2305
mes	2305
hyper@@	2305
Get@@	2305
Tol@@	2305
Gothic	2305
142	2304
ight	2304
sof@@	2304
physics	2304
afford	2303
judges	2303
que@@	2302
Fides	2302
OJ	2301
Schengen	2300
Five	2300
cloth	2300
Rab@@	2300
Lounge	2300
2010-0@@	2300
lesson	2299
evaluated	2299
ram	2299
loose	2299
196	2299
tile	2299
ENT	2298
atives	2298
shoulder	2298
marking	2297
differently	2296
ites	2296
Werner	2296
logged	2296
graphical	2296
Want	2296
node	2296
arriving	2295
Participants	2295
org@@	2295
ays	2294
Fashion	2294
tak@@	2293
m.@@	2293
care@@	2292
violations	2292
mystery	2292
journal	2292
ater	2292
w.@@	2292
hosting	2290
www.amarillasestadosunidos.com	2290
sters	2289
flo@@	2289
extract	2289
Shi@@	2289
masters	2288
01@@	2288
ua	2288
Side	2287
mature	2286
thrown	2286
likes	2286
striking	2286
Kn@@	2286
ator@@	2286
Commercial	2286
10,000	2286
itz@@	2286
chemistry	2286
100g	2286
fault	2285
rolls	2285
TER@@	2285
accomplished	2284
boundaries	2284
collapse	2284
Players	2284
assured	2283
144	2283
acoustic	2283
Mini	2283
rel	2282
heavily	2282
275	2282
featured	2281
Ciudad	2281
ð@@	2281
reverse	2280
330	2280
YouTube	2280
patents	2279
qualification	2278
bin@@	2278
vin@@	2278
Castel@@	2278
experiencing	2277
138	2277
ALL	2277
Torre	2277
einfach	2277
kanotix.com	2277
IX	2276
2,000	2276
C.@@	2276
Ret@@	2276
trafficking	2275
bourgeois	2275
bun@@	2275
ı@@	2275
Ø	2275
v.@@	2275
2013-0@@	2275
impacts	2274
motivation	2274
borne	2273
sar@@	2273
aur@@	2272
investigations	2271
Luc@@	2271
Keywords	2270
Highway	2270
delivers	2269
large-scale	2269
kov	2269
labelling	2269
2015-@@	2269
FS	2269
whatsoever	2268
1971	2268
fulfill	2268
validity	2267
pole	2267
Dortmund	2267
dropped	2266
victim	2266
ave	2266
ener@@	2266
ea	2265
Sydney	2265
brilliant	2264
licence	2264
syn@@	2264
therapeutic	2264
chapel	2264
Nuremberg	2264
analyse	2263
apparently	2263
righteous	2263
Ve@@	2263
Bereich	2263
Hubert	2262
ihr	2262
indirect	2261
enz@@	2261
punishment	2261
Organ@@	2261
SD	2261
lit	2261
Magic	2261
counts	2260
Yesterday	2260
feast	2260
reinforced	2259
6.5	2258
228	2258
ister	2257
Fon@@	2257
cabins	2257
usr	2257
thorough	2256
hosted	2256
motivated	2255
Bö@@	2255
inserted	2255
Slovak	2255
Matthias	2255
class@@	2254
pitch	2254
sculptures	2254
Sony	2254
positioning	2253
musician	2253
å	2253
140@@	2253
Graz	2253
ethical	2252
exc@@	2252
informations	2252
LIN@@	2252
k.@@	2252
map@@	2252
ho	2251
Dal@@	2251
transform	2251
priv@@	2251
audi@@	2251
os-@@	2251
Lyon	2251
tool@@	2251
Socialists	2250
telecommunications	2250
buried	2250
bau	2250
Manhattan	2250
Warning	2250
Mont@@	2249
bis@@	2249
`s	2249
investigate	2248
potentially	2248
dle	2248
160@@	2248
Cart	2248
spec@@	2247
Pul@@	2247
biking	2246
-4@@	2246
dly	2245
processor	2245
2.1	2245
DB	2245
Rural	2244
Renaissance	2244
multimedia	2244
clarity	2243
reveals	2243
brush	2243
admire	2243
apple	2243
Sec@@	2242
Mission	2242
P.@@	2242
oms	2241
185	2241
NOT	2240
infections	2240
Learning	2239
random	2239
open@@	2239
Kids	2239
Object	2239
electro@@	2239
Architecture	2238
motors	2238
loving	2237
undertake	2236
main@@	2236
nose	2236
Early	2236
balconies	2236
pcs	2236
confirms	2235
entities	2235
watch@@	2235
Ash@@	2235
PL	2235
tis@@	2234
ria	2234
Ludwig	2234
removing	2233
use@@	2233
continental	2233
ér@@	2233
224@@	2233
disorders	2233
Bush	2232
unnecessary	2232
ý	2232
barrier	2230
GO@@	2230
Amazon	2230
Accessories	2230
igh@@	2229
www.bing.com	2229
profound	2228
tran@@	2227
ty-@@	2227
Bulgarian	2227
evenings	2227
Chris	2226
fixer	2226
certainty	2225
perceived	2225
info@@	2225
Australian	2225
26-@@	2225
ine-@@	2224
top-@@	2224
animation	2224
congress	2223
Cop@@	2223
nt@@	2223
106@@	2222
Found	2222
Howdy	2222
oul@@	2221
295	2221
travelers	2221
vegetation	2220
cri@@	2220
light@@	2220
KBA	2220
senses	2219
1943	2219
ome@@	2219
Auf	2219
PER@@	2219
Stein@@	2219
ly-@@	2218
prevented	2218
tia	2218
Sul@@	2218
chart	2218
optimization	2218
reviewed	2217
renewal	2217
bi	2217
ert@@	2217
Al-@@	2217
3.1	2216
ref	2216
239@@	2216
affecting	2215
inj@@	2215
bec@@	2215
gospel	2215
Main@@	2215
Palestine	2213
aren@@	2213
PT	2212
preferences	2212
ace@@	2212
high@@	2212
Friends	2212
izer	2212
8-0@@	2212
alise	2211
intermediate	2211
Limited	2210
subscription	2210
Naples	2209
lending	2208
Lat@@	2208
beautifully	2208
ing.com	2208
ement@@	2207
burned	2207
Contemporary	2207
relates	2206
warehouse	2206
quar@@	2205
blessing	2205
assessed	2205
Complete	2205
29-@@	2205
Procedure	2204
sisters	2204
Zone	2204
tracking	2203
Thread	2203
sle@@	2202
advised	2202
CI@@	2202
Ay@@	2201
aks	2200
seasonal	2199
complement	2199
gia	2199
Weekly	2199
tribe	2198
hanging	2197
Electronic	2197
serv@@	2197
Tran@@	2197
reads	2196
ovo	2196
bir@@	2196
shaft	2196
breach	2195
ranks	2195
couples	2195
ema	2194
Sig@@	2194
consistency	2193
walked	2193
eve	2192
crises	2192
Cri@@	2192
Malaysia	2192
Posts	2192
49-@@	2192
limitations	2191
newest	2191
gathering	2190
butter	2190
profession	2190
lucky	2190
spirits	2190
Kh@@	2189
lifting	2189
Freiburg	2189
Ladies	2188
28-@@	2188
convince	2186
accompany	2186
uss	2186
outs	2186
Beiträge	2186
XVon	2186
slight	2185
Hab@@	2185
Galerie	2185
Gast	2185
likewise	2184
alistic	2184
wake	2184
qualifications	2184
occupational	2184
149	2184
ento	2184
home@@	2183
storm	2182
Pact	2182
cope	2182
inheritance	2182
Stone	2182
Goisern	2182
forthcoming	2181
airlines	2181
dian	2181
arose	2181
kettle	2181
EBIT	2181
152	2180
transports	2180
improves	2179
Clo@@	2178
Fill	2178
900@@	2178
bytes	2177
21.0@@	2177
Give	2176
Scientific	2176
cycles	2176
Ages	2176
Objects	2176
в@@	2176
proletariat	2176
shop@@	2175
pit	2175
Medicine	2175
Auto	2175
ice-@@	2175
Interview	2175
Sri	2174
eva	2174
5,000	2174
descriptions	2173
2009-0@@	2173
öl@@	2173
ationen	2173
formerly	2172
gest@@	2172
loud	2172
ont	2172
ruled	2171
prompted	2171
detected	2171
stro@@	2171
Kan@@	2171
eg	2171
K-@@	2171
Ecologic	2171
doc@@	2170
Base	2170
.08.2015	2170
Aid	2169
Urban	2169
195	2169
Joe	2169
Den	2169
uch@@	2169
н@@	2169
tolerance	2168
Eli@@	2168
correspond	2168
developer	2168
texture	2168
dried	2167
het	2167
232	2167
cb@@	2167
Round	2166
kur@@	2166
distribute	2165
Payment	2165
.ru	2165
Ari@@	2164
Da	2164
SI	2164
witnesses	2163
heute	2163
defines	2162
intimate	2162
af	2162
plug	2162
und-@@	2162
corners	2161
Colombia	2161
roll@@	2161
Holidays	2161
Communist	2160
archaeological	2160
informal	2159
neuro@@	2159
bottles	2159
lord	2158
sad	2158
sim@@	2158
appliances	2158
blend	2158
Political	2157
steering	2157
Dur@@	2157
heavens	2157
panorama	2157
NEW	2157
big@@	2156
Almost	2156
recreation	2156
magical	2156
Jahren	2156
DFG	2156
HD-install	2156
Francis	2155
territories	2155
bre	2155
Overall	2155
wa	2155
moisture	2155
Roll	2155
Giovanni	2155
Meg@@	2155
2006-0@@	2155
sou@@	2154
Sport@@	2154
dos	2154
font	2154
sensitivity	2153
deliveries	2153
foam	2153
engineer	2153
Monte@@	2152
chip	2152
230@@	2152
bled	2151
Safe	2151
255	2150
collecting	2150
AIDS	2150
bridges	2150
Honduras	2150
Scotland	2149
far@@	2149
preservation	2149
browsers	2149
denied	2148
nis@@	2148
.The	2148
ung.htm	2148
examining	2147
enter@@	2147
willingness	2147
conditioned	2147
ensemble	2147
Neue	2147
м@@	2147
verify	2146
shock	2146
gun	2146
locking	2146
templates	2146
pping	2145
aro	2145
EM	2145
injury	2144
Simple	2144
Ernst	2144
Wenn	2144
territorial	2143
air-@@	2143
inal	2143
rough	2143
distant	2142
д@@	2142
monitored	2141
Mario	2141
analyzes	2141
acknowledged	2140
ved	2140
liberalisation	2140
reign	2140
competitions	2140
Regi@@	2140
Fab@@	2140
statt	2140
Canadian	2139
refer@@	2139
inventory	2139
endorf	2139
rob@@	2139
ald	2138
Rose	2138
API	2137
minorities	2136
Johannes	2136
Fisheries	2135
non-smoking	2135
commented	2134
scenario	2134
conceived	2134
Christianity	2134
kov@@	2134
NY	2134
ners	2133
eng	2132
elegance	2132
plat@@	2132
in-depth	2131
dirty	2131
Var@@	2131
172	2131
fluid	2131
Dinner	2131
Shuttle	2131
administrator	2130
sorts	2130
ex-@@	2130
airline	2130
mild	2130
365	2130
A4	2130
pepper	2130
minim@@	2129
durable	2129
Companies	2129
flour	2129
ind	2128
divisions	2127
Lav@@	2127
Trek	2127
DM@@	2127
Always	2127
bou@@	2126
Ton@@	2125
orn	2125
Otto	2125
Thou	2125
doubts	2124
plac@@	2124
Rhine	2124
ERS	2124
ì	2124
stem	2123
conveniently	2123
Run	2123
Comment	2123
gie	2122
Album	2122
insur@@	2121
first-@@	2121
onom@@	2121
dwell	2121
en.de	2121
tik	2121
Ky@@	2120
dose	2119
Heaven	2119
acknowledge	2118
Motor	2118
portrait	2118
ung-@@	2118
tail	2117
portable	2117
mas	2117
Berlinale	2117
sail	2116
Annex	2116
ila	2116
duc@@	2116
origins	2115
fuels	2114
146	2114
ci	2114
DNA	2114
Dieser	2114
aring	2113
Top@@	2113
Prophet	2113
incentives	2112
Albert	2112
cancelled	2112
eries	2112
202	2112
distinct	2112
Kin@@	2112
locally	2111
Crete	2111
Coun@@	2111
Minutes	2110
Above	2110
tt	2110
Fac@@	2109
Som@@	2109
GM	2109
she@@	2108
Lausanne	2108
Beauty	2108
materi@@	2107
cham@@	2107
PLUS	2107
Andrea	2107
noble	2106
conception	2106
grill	2106
owing	2105
uti@@	2105
I.@@	2105
nov@@	2105
www.c@@	2105
fishermen	2104
additionally	2104
elli	2104
celebrations	2104
mail@@	2104
Ä	2104
asa	2104
1.4	2103
Bishop	2103
console	2103
exotic	2103
publicly	2102
determining	2102
crown	2102
configure	2102
Bay@@	2102
Nuraghe	2102
xn--12ca8j2al6k.net	2102
estimate	2101
VER@@	2101
minerals	2100
Cycling	2100
literally	2099
Remember	2099
mig@@	2099
timely	2098
Wild	2098
riders	2098
twitter	2098
defining	2097
globally	2097
Ï@@	2097
Minimum	2097
Channel	2097
Gospel	2097
Wuppertal	2097
ðAwww.immobilsarda.com	2097
rays	2096
Kl@@	2096
Ou@@	2095
colonial	2095
sli@@	2095
PT@@	2095
muss	2095
arrest	2094
emann	2094
aki	2094
999	2094
draws	2093
Important	2093
0.014@@	2093
comprising	2092
religions	2092
ologist	2092
colourful	2092
compulsory	2091
limitation	2091
1950	2091
Schul@@	2091
gaming	2091
227@@	2091
Currency	2091
RES@@	2091
28.09.2016	2091
indispensable	2090
Kenya	2090
kn@@	2090
Commodore	2090
BS	2090
legacy	2089
subsidiaries	2089
Dominican	2089
ensured	2088
disputes	2088
broader	2088
glasses	2088
19-@@	2088
clay	2088
Consultant	2088
remembered	2087
dt	2087
sporting	2087
Categories	2087
wit@@	2087
attributes	2087
Lind@@	2087
440	2087
tasting	2087
promotes	2086
modifications	2086
calculate	2086
beloved	2086
wicked	2086
indigenous	2085
hygiene	2084
ental	2084
180@@	2084
negotiating	2082
Arabic	2082
statue	2082
brass	2082
2-3	2082
touched	2081
workplace	2081
presses	2081
techn@@	2081
decorative	2081
Ice	2081
tied	2080
comforts	2080
populations	2079
abil@@	2079
nis	2079
index.html	2079
asp@@	2078
requiring	2078
fortress	2078
Kri@@	2078
altogether	2077
Korean	2077
Rev@@	2077
151	2077
confusion	2076
pan	2076
SMS	2076
crane	2076
technically	2075
bly	2075
ied	2075
expects	2075
Guidelines	2075
complaint	2074
life-@@	2074
statutory	2074
killing	2074
OECD	2074
hike	2074
briefly	2073
XX@@	2073
Pack	2073
Stability	2073
scanner	2073
landing	2072
ul	2072
ais	2071
brochure	2071
supermarket	2071
Plat@@	2070
coordinate	2069
warming	2069
privileged	2069
interviews	2069
340	2069
Inhalt	2069
fare	2068
CM@@	2068
2016-0@@	2068
institutes	2067
mask	2067
zi	2067
mid	2067
Automotive	2067
.06	2067
Putin	2066
Pass	2066
stroke	2066
Bul@@	2066
Alpha	2066
211	2065
Benjamin	2065
Marx	2065
tournaments	2065
bad@@	2064
Romanian	2063
amm@@	2063
painter	2063
tasty	2063
globalisation	2062
Sou@@	2062
yr@@	2062
night@@	2062
rub@@	2062
kol@@	2062
ý@@	2062
256	2061
instant	2061
Seminar	2061
Furnished	2061
Partners	2060
nun	2060
nt	2060
stell@@	2060
2013-@@	2060
partition	2059
pushed	2059
Files	2059
5-minute	2059
Merano	2059
ater@@	2058
ami	2058
ined	2058
Inside	2058
tto	2058
Colour	2058
satisfactory	2057
generating	2057
dé@@	2057
fli@@	2057
ing.@@	2057
posed	2056
enhancing	2055
investor	2055
ò	2055
ßen	2055
Lang@@	2054
147	2054
Rub@@	2054
dollar	2053
lers	2053
ogy	2053
PR	2052
delivering	2052
Fischer	2052
switching	2052
Sum@@	2052
Contacts	2052
PP	2051
conf@@	2051
insights	2051
Virtual	2051
closure	2050
glo@@	2050
drilling	2050
terminals	2050
Jürgen	2050
Bauer	2050
BER@@	2050
admit	2049
foremost	2049
authorisation	2048
crop	2048
Bir@@	2048
Doc@@	2048
GL@@	2048
Changes	2047
lifted	2047
dra@@	2047
shade	2047
ä	2047
attracted	2047
chest	2047
Stars	2047
Prix	2047
bab@@	2047
Sho@@	2047
bones	2046
kr@@	2046
Paradise	2046
centrally	2045
flora	2045
hunger	2045
discounts	2045
eting	2045
breed	2045
elderly	2044
roller	2044
execute	2044
enjoyable	2044
tun@@	2044
Emperor	2044
Allgemein	2044
recall	2043
consolidation	2043
profitable	2043
deny	2043
tendency	2043
fies	2043
pag@@	2043
saints	2043
patio	2043
Vall@@	2042
CAR@@	2042
Under@@	2042
nach@@	2042
commun@@	2041
legend	2041
aces	2041
tung	2041
continuation	2040
securities	2040
creatures	2040
aller@@	2040
adopting	2039
aug@@	2039
5000	2039
IT-@@	2039
izes	2039
icons	2039
pit@@	2038
But@@	2038
nutrition	2038
Vari@@	2038
Ulrich	2038
werk	2037
imposing	2037
pursued	2037
designing	2037
ice@@	2037
drag	2037
kommen	2037
1965	2037
gem@@	2037
Spo@@	2037
linking	2036
distinctive	2036
render	2036
valleys	2036
cent@@	2036
199	2035
swim	2035
2.3	2035
ases	2035
250@@	2035
firstly	2034
hear@@	2034
pillars	2034
dam	2034
Put	2034
Leave	2034
Workshop	2034
MM@@	2034
family-run	2033
231	2033
iger	2033
exterior	2033
Zimmer	2033
reconciliation	2032
enlarged	2032
Palestinians	2031
216@@	2031
rue	2031
Options	2031
Anti-@@	2030
vit@@	2030
weg	2030
burg@@	2030
retailers	2030
po	2030
cure	2029
trac@@	2029
seaside	2029
chro@@	2028
you@@	2028
700@@	2028
Figure	2028
index.htmlwww.immobilsarda.com	2026
21.08.2015	2025
Marie	2024
lung	2024
patch	2024
ventilation	2024
ii	2024
JO@@	2024
chambers	2023
ium	2023
Integration	2023
circles	2022
naked	2021
spiel@@	2021
225	2020
4.1	2020
IO	2020
Ort	2020
seventh	2019
CAP	2019
DP	2019
Rap@@	2018
2021	2018
.08.@@	2018
han@@	2017
Wat@@	2017
Tou@@	2017
convertible	2017
café	2017
And@@	2017
Core	2017
relevance	2016
Satellite	2016
Da@@	2016
wheat	2016
sr@@	2016
Packed	2016
commerce	2015
follow-up	2015
som@@	2015
210@@	2015
Babylon	2014
00pm	2014
Alt@@	2013
cylinder	2013
estimates	2012
neighbours	2012
dual	2012
fa	2012
scripts	2012
N.	2012
uch	2012
ido	2011
tale	2011
graduate	2011
din@@	2011
demo	2011
ship@@	2010
thr@@	2010
Individual	2010
Barbara	2010
00PM	2010
480	2009
cute	2009
ometer	2009
neuen	2009
sixth	2008
delight	2008
self-catering	2008
amounted	2007
Apostolic	2007
convergence	2006
bits	2006
Abu	2006
221	2006
stroll	2006
al.com	2006
new-@@	2005
inviting	2005
herbs	2005
Multilingual	2005
esp	2005
4.jpg	2005
rapidshare.com	2005
ik	2004
paste	2004
sv@@	2004
aggressive	2003
winds	2003
districts	2003
chronic	2003
ru	2003
ij@@	2003
captured	2003
ICE	2003
Pharaoh	2003
zoom	2003
dil@@	2002
ECU	2002
ush	2002
125@@	2002
È@@	2002
tribute	2001
INTER@@	2001
2.4	2001
shoe	2001
screens	2000
Bag@@	2000
u00@@	2000
ALL@@	2000
surplus	1999
vine	1999
.com.	1999
SF@@	1999
Cirque	1999
Sicily	1998
polyester	1998
alter	1997
Different	1997
tired	1996
José	1996
bare	1996
Flat	1996
Poems	1996
Platz	1996
lawyers	1995
crops	1995
gorgeous	1995
negotiation	1994
Rö@@	1994
ual	1993
lac@@	1993
Mrs.	1993
Divine	1993
Christoph	1993
Alta	1993
migrants	1992
strings	1992
built-in	1992
Run@@	1992
BA@@	1992
spreading	1991
kos@@	1991
atics	1991
kam@@	1991
Tenerife	1991
arises	1990
Reports	1990
sty@@	1989
hose	1989
a.jpg	1989
plenary	1988
insufficient	1988
diplomatic	1988
aan	1988
Insurance	1988
MD-Board	1988
quarters	1987
casting	1987
Sorry	1987
CI	1986
premiere	1986
Hitler	1985
Sudan	1985
amed	1985
Kiev	1985
ro-@@	1984
Sm@@	1984
zes	1984
host@@	1983
undoubtedly	1982
kel	1982
Kings	1982
Siena	1982
Extension	1981
AA	1981
Flight	1981
4.2	1981
lawyer	1980
dan@@	1980
hub	1980
shelter	1980
Bak@@	1980
spatial	1980
Heinrich	1980
drew	1979
offshore	1979
ops	1979
310	1979
osa	1979
Mozart	1978
fü@@	1978
respects	1977
refund	1977
Montenegro	1977
Medjugorje	1977
literary	1976
reli@@	1976
defeat	1976
24,@@	1976
packing	1975
strive	1975
conc@@	1975
6.00	1975
Ji@@	1975
23-@@	1975
peaks	1975
tern@@	1975
downloading	1974
Infos	1974
rock@@	1974
zip	1974
Regions	1973
coherent	1973
157	1973
canvas	1973
itation	1973
Ok@@	1973
hp	1973
dic	1972
Championship	1971
preview	1970
congregation	1970
aking	1969
Albania	1969
burnt	1969
textiles	1969
143	1969
coated	1969
399	1969
ku	1969
compiled	1968
los@@	1968
lip@@	1968
IR	1968
ader	1968
sovereignty	1967
cabinet	1967
cried	1967
obtaining	1967
Saudi	1967
ix	1967
Brand	1967
tern	1967
in-house	1966
writers	1966
Buch@@	1966
Mah@@	1966
Bru@@	1966
352	1965
PE@@	1965
kle@@	1965
TER	1965
tap@@	1964
auxiliary	1964
han	1964
UV	1964
hand-@@	1963
disappear	1963
backs	1963
Stra@@	1963
Dig@@	1963
acks	1962
Wa@@	1962
delays	1961
opponents	1961
Rate	1961
licensed	1960
real-time	1960
ig	1960
currentAverageRating	1960
Blessed	1959
Gel@@	1959
.09.2015	1959
pro-@@	1958
capit@@	1958
ential	1958
exhibits	1958
Whatever	1957
iche	1957
thumbnails	1957
devil	1956
Applications	1956
saves	1955
HIV	1955
Planet	1955
4.00	1955
screening	1954
high-speed	1954
crazy	1954
Ê@@	1954
oo	1954
Brazilian	1954
.pdf	1954
ignore	1953
prof@@	1953
cited	1953
ř@@	1953
Innovative	1953
ured	1952
trigger	1952
Imperial	1952
Filter	1952
Sardegna	1952
Unlike	1951
fears	1951
ounding	1951
treasures	1951
photographer	1951
ations@@	1951
exe	1951
Joomla	1951
flats	1950
akes	1950
ander	1950
nik	1950
RT@@	1950
Weitere	1950
anch@@	1949
Dri@@	1949
Boo@@	1946
eless	1945
Libya	1945
automobile	1945
Aber	1945
Philippines	1944
iller	1944
posi@@	1944
436@@	1944
kB	1944
sparen	1944
honourable	1943
Major	1943
2,5	1943
pupils	1942
DM	1942
ester	1942
u-@@	1942
sur	1942
Dou@@	1941
Harry	1941
0.015@@	1941
Canaria	1940
IE	1940
Travelling	1940
www.bibione.net	1940
ambient.cache	1940
dest@@	1939
ared	1939
coin	1939
2x@@	1939
tation	1938
Freedom	1938
terror	1938
illustrations	1938
lightweight	1938
liver	1938
folders	1938
habits	1937
friendship	1937
21,@@	1937
exchanges	1936
Romans	1936
snack	1936
toolani	1936
viable	1935
139	1934
spray	1934
ego	1934
nominal	1933
SPA	1933
anderen	1933
Krankenversicherung	1933
basket	1932
liv@@	1932
-in-@@	1931
Jack	1931
kit@@	1931
Students	1931
10-minute	1931
musica	1931
remarks	1930
Ped@@	1930
arri@@	1930
resi@@	1929
ten-@@	1929
tall	1929
chron@@	1929
Job	1929
UM	1929
Syrian	1928
reinforce	1928
enders	1928
hu	1928
pending	1927
subjected	1927
gar	1927
Gas@@	1926
Connection	1926
Resolution	1925
Rol@@	1925
Race	1925
dense	1925
Example	1925
uncertainty	1924
159	1924
Dep@@	1924
Balkans	1923
guilty	1923
tell@@	1923
excited	1923
Tech	1923
Work@@	1923
clarify	1922
civilian	1922
choir	1922
lunches	1922
-40	1921
Amarillas@@	1921
dynamics	1920
sustained	1920
fulness	1920
umb@@	1920
Introduction	1920
Cruz	1920
optimize	1920
Pur@@	1919
alleged	1919
hate	1919
Beta	1919
105@@	1919
Lag@@	1918
Printing	1918
Psychologie	1918
arena	1917
disclosure	1917
cleaned	1917
dur@@	1917
mailing	1917
fabrics	1917
OKtext	1917
ider	1916
Carl	1916
short-term	1915
rest@@	1915
cooked	1915
4-ch.net	1915
fifty	1914
äl@@	1914
sends	1914
enz	1914
IF	1914
2014-0@@	1914
rope	1913
Position	1913
1966	1913
wl.static.fotolia.com	1913
quoted	1912
compounds	1912
Join	1912
FOR@@	1912
temporarily	1911
state@@	1911
-01-@@	1911
blog.@@	1911
strain	1910
investing	1910
determines	1910
pajak	1910
Against	1909
hypo@@	1909
stimulate	1909
cakes	1909
tones	1909
Abstract	1909
observations	1908
spar@@	1908
referendum	1908
chips	1908
tooth	1908
completing	1908
hop@@	1908
Optim@@	1908
3,000	1908
ologie	1908
pil@@	1907
SDL	1907
rotation	1906
crossed	1906
1b@@	1906
indicator	1906
Halle	1906
disappeared	1905
malicious	1905
Mannheim	1905
ischer	1905
pp.	1905
1964	1904
wikipedia	1904
pricing	1903
journalist	1903
Stop	1903
tow@@	1903
Kyoto	1902
suspended	1901
108@@	1901
auer	1901
BCO-RentaCar.com	1901
disasters	1900
pensions	1900
DG	1900
Mess@@	1900
ache	1900
Josef	1900
Adventure	1900
Matthew	1900
MEPs	1899
162	1899
stamp	1899
tribes	1899
compositions	1899
Walking	1899
Arena	1899
Logistics	1899
centr@@	1897
adjustments	1897
tivity	1897
Cel@@	1897
1920	1896
5.0	1896
Hum@@	1896
.nl	1896
ambience	1896
blade	1896
3-star	1896
ann	1895
illing	1895
ington	1894
109@@	1894
1.6	1893
pocket	1893
Henry	1893
wondering	1892
corrupt	1892
Reference	1892
Blo@@	1892
Gö@@	1892
Markus	1892
treasure	1892
ignored	1891
Horse	1891
.02.@@	1891
applicants	1890
1949	1890
bronze	1890
organizing	1890
news@@	1889
A2	1889
scenic	1889
showers	1889
Settings	1889
Map@@	1888
unlike	1887
thinks	1887
finances	1887
urgently	1887
weapon	1887
generates	1887
leaf	1887
Stations	1887
Brand@@	1887
Registered	1887
honduras.amarillas	1887
Anyone	1886
Independent	1886
entrepreneurs	1886
inter	1886
accepts	1886
Booking.com	1886
Never	1885
deeds	1885
atively	1885
advisory	1885
03.@@	1885
calculations	1884
sis	1884
ONE	1884
settle	1883
aver@@	1883
etti	1883
04-@@	1882
relatives	1881
emphasise	1881
Cit@@	1881
Police	1881
Strip	1881
bicycles	1881
Planning	1881
130@@	1881
2010-@@	1881
06.@@	1881
s1.addParam	1881
Kun@@	1880
flood	1880
án@@	1880
visibility	1880
agen	1880
dog@@	1880
eter@@	1880
compressed	1880
Gew@@	1880
diagram	1880
commons	1880
attacked	1879
8.5	1879
excursion	1879
Über@@	1879
-03-@@	1879
uninstall	1879
exceeded	1878
circular	1878
inland	1877
echo	1877
distributors	1877
Grande	1877
clinic	1877
ican	1876
reductions	1876
SM@@	1876
DJ	1876
MAN@@	1876
symbolic	1875
smell	1875
Panama	1875
fran@@	1875
Sky	1875
alities	1875
peninsula	1875
cock	1875
act@@	1875
chin@@	1875
Ford	1874
Fun	1874
2014-@@	1874
resources.php	1874
spi@@	1873
guess	1873
Brown	1873
phil@@	1873
gi	1873
Sli@@	1873
cell@@	1873
Lou@@	1873
Feed	1872
emerge	1872
lem@@	1872
bag@@	1872
exp@@	1871
Ach@@	1871
hair@@	1871
fle@@	1871
ers-@@	1871
impressions	1871
Utrecht	1871
-05-@@	1871
do-@@	1870
pub	1870
Tex@@	1870
lyrics	1870
carriers	1869
dairy	1869
elite	1869
Hos@@	1869
asp	1869
autonomous	1867
liqu@@	1867
frozen	1867
Anton	1867
gir@@	1867
Bologna	1867
Samuel	1867
aluminum	1867
Istria	1867
Psychology	1867
cd@@	1867
foster	1866
Others	1866
infrastructures	1866
illustrated	1866
NE	1866
fancy	1866
rented	1866
Key@@	1866
blow	1865
fled	1865
Trading	1865
intuitive	1865
tives	1864
participant	1864
prayers	1864
cin@@	1864
Bielefeld	1864
aa@@	1864
isolation	1863
ally-@@	1863
Congo	1863
Collector	1863
interventions	1862
secrets	1862
dioxide	1862
caves	1862
NT@@	1862
ples	1861
Bud@@	1861
chess	1861
ston	1861
Boston	1861
Pula	1861
workforce	1860
nur@@	1860
market@@	1860
Season	1860
responded	1859
fit@@	1859
synthetic	1859
3.3	1859
Ethernet	1859
doctrine	1858
internation@@	1858
sky@@	1858
flowing	1858
Ball@@	1858
eds	1858
Bos@@	1858
ander@@	1858
a.de	1858
maintains	1857
socialist	1857
ise@@	1856
ECB	1856
ão	1856
Style	1856
esen	1856
perfection	1855
notion	1855
mile	1855
mel	1855
2011-@@	1855
VO@@	1854
acht	1854
PA@@	1854
mines	1853
steady	1853
defect	1853
v-@@	1853
nation@@	1852
abundance	1852
mini@@	1852
nia	1852
subject-matter	1852
algorithm	1852
justify	1851
IMF	1851
apps	1851
meadows	1851
alle@@	1851
worn	1851
deposits	1850
cord	1850
183	1850
vitamin	1850
granting	1849
author@@	1849
Tam@@	1849
Camp@@	1849
1900	1849
queen	1849
153	1848
discretion	1848
229@@	1848
joints	1848
vineyard	1848
tex	1848
film@@	1848
Innsbruck	1848
convincing	1847
Statement	1847
Leg@@	1847
enh@@	1847
semester	1847
rich@@	1847
scenarios	1846
1961	1846
Registry	1846
proves	1845
integrating	1845
dal	1845
triple	1845
Ask	1845
Mt	1845
aquarium	1845
UC@@	1844
237	1844
chronological	1844
dig	1844
Far	1843
resident	1843
manages	1843
aling	1843
ett@@	1843
ber-@@	1843
var@@	1843
intentions	1842
dealers	1842
switched	1842
Need	1842
awesome	1842
Expo	1842
2012-@@	1842
credibility	1841
yards	1841
employer	1841
tops	1841
203	1841
DL@@	1841
college	1840
diagnostic	1840
det	1840
Bell@@	1840
kra@@	1840
unemployed	1839
ulate	1839
fibre	1839
exhaust	1839
attach	1838
sudden	1838
rhythm	1838
lov@@	1838
104@@	1838
1990s	1837
Kinder@@	1837
factories	1837
implies	1837
blogs	1837
Cash	1837
invisible	1836
Hanover	1836
Soci@@	1836
industry.htm	1836
IBM	1835
Traditional	1835
orie	1835
violin	1835
adapter	1835
GrÃ	1835
proposing	1834
onwards	1834
Lon@@	1834
astr@@	1834
Statistics	1834
tur	1834
arnebab	1834
PVC	1833
Fir@@	1833
Aachen	1833
ganz	1833
Gener@@	1832
rolled	1832
popularity	1832
was@@	1832
introduces	1832
Mill@@	1832
durability	1832
pond	1832
www.g@@	1832
1957	1831
148	1831
1962	1831
fd@@	1831
config	1831
farmhouse	1830
у@@	1830
connector	1830
ÿÿÿÿ	1830
immense	1829
tered	1829
supplementary	1829
painful	1829
Os@@	1829
Tru@@	1829
Symphony	1829
adhesive	1829
passive	1828
donation	1828
antique	1828
complimentary	1828
Glass	1828
t.de	1828
meditation	1828
Tell	1827
tory	1827
iser	1827
angry	1826
coun@@	1826
scores	1826
Stre@@	1826
jk	1826
Hall@@	1826
192	1825
Cold	1825
ml@@	1825
JSON	1825
keen	1824
pics	1824
hop	1824
D.@@	1824
lay@@	1823
Angel	1823
numbered	1823
Jersey	1823
french	1823
kommt	1823
as.htm	1823
somehow	1822
conscience	1822
consumed	1822
box@@	1822
Arabia	1822
†	1822
stop@@	1821
Pass@@	1821
viel	1821
distinguish	1820
lining	1820
realm	1820
Sky@@	1820
1963	1819
217@@	1819
Offer	1819
pain@@	1818
governed	1818
TEN@@	1818
intake	1818
incoming	1818
dirt	1818
Outlook	1818
receiver	1818
tg@@	1818
blocked	1817
Vir@@	1817
pots	1817
elt	1817
Ja	1817
BE	1817
Id	1817
shame	1816
conducting	1816
deployment	1816
.09	1816
varying	1816
Money	1816
charts	1816
notify	1815
households	1815
natur@@	1815
-02-@@	1815
imag@@	1814
Canal	1814
yn	1814
gif	1814
b.@@	1814
Tennis	1814
-08-@@	1814
public@@	1813
kets	1813
timber	1813
RFID	1813
dien@@	1813
msg@@	1813
jer@@	1812
gladly	1812
EST	1812
neg@@	1811
Nag@@	1811
Granada	1811
tured	1811
eur	1811
ased	1810
Maastricht	1810
oneself	1810
Testament	1810
Zagreb	1810
Bad@@	1810
ICA	1810
Better	1809
budgets	1809
mill@@	1809
ip	1809
.01.@@	1809
02.@@	1809
eaten	1808
yachts	1808
Defence	1807
hazardous	1807
Sn@@	1807
Iranian	1807
slots	1807
en.@@	1807
Lunch	1807
inter-@@	1806
Ass@@	1806
Verona	1806
Cir@@	1806
SP	1806
printers	1806
uring	1805
formally	1805
weiter@@	1805
inforMARE	1805
Ant@@	1804
Rather	1804
Politics	1804
Automatic	1804
Nach@@	1804
It@@	1804
lacking	1803
nationals	1803
Bill	1803
asses	1803
elevation	1803
German@@	1803
bathtub	1803
tremendous	1802
beef	1802
ule	1802
ext@@	1802
deaths	1801
shots	1801
beneath	1801
mysterious	1801
uer@@	1801
Nieder@@	1801
Separated	1801
eck@@	1800
check@@	1800
Lov@@	1800
ador	1800
Wirtschaft	1800
camp@@	1799
Teil	1799
RAM	1799
Ré@@	1798
wallpaper@@	1798
belonged	1797
Naturally	1797
Often	1797
pedestrian	1797
Bit@@	1797
jan	1797
gefunden	1797
micro-@@	1796
replied	1796
settlements	1796
½	1796
hybrid	1796
ke-@@	1795
ettes	1795
ami@@	1795
meaningful	1794
Gall@@	1794
Thai	1794
Quick	1794
Café	1794
lt	1794
files.wordpress.com	1794
appreciation	1793
Nor	1793
US-@@	1793
Sofia	1793
een	1793
acker	1793
geändert	1793
cost-@@	1792
inge	1792
submission	1792
enthusiasts	1792
Real@@	1792
jun@@	1792
usa	1792
Heute	1792
machen	1792
pliki	1792
traditionally	1791
vari@@	1791
doch	1791
esis	1790
¡	1790
Jer@@	1790
Angel@@	1789
cosmetic	1789
wer	1788
wanting	1787
infinite	1787
enta	1787
poster	1787
isc@@	1786
Taking	1786
Nazi	1786
corn	1786
ves@@	1786
cultivated	1786
medic@@	1786
Ten@@	1785
sequences	1785
thi@@	1783
phenomena	1783
oos	1783
World@@	1783
Deep	1783
WH@@	1783
Alles	1783
Movement	1782
slides	1782
MT@@	1782
produc@@	1781
Bun@@	1781
Average	1781
poems	1781
anne	1781
Hoch@@	1781
Fernando	1780
attribute	1780
upload.wikimedia.org	1780
Packaging	1779
subscribe	1779
Eg@@	1779
Ground	1779
Esp@@	1779
conservative	1778
iro	1778
161	1778
grinding	1778
Risk	1778
usch@@	1778
WAR@@	1778
backed	1777
aching	1777
decides	1777
215	1777
ump@@	1776
Nord	1776
actu@@	1776
breathing	1776
Pit@@	1776
Fotos	1776
CAS@@	1776
Neither	1775
commodity	1775
house@@	1775
awa	1775
cio	1775
mun@@	1775
gratis	1775
22,@@	1775
patience	1774
Hague	1774
inquiries	1774
world-wide	1774
sanctuary	1774
Lagoon	1774
Wind@@	1774
condemned	1773
1-2	1773
adverse	1773
credits	1773
cool@@	1773
Lenin	1773
ake@@	1773
Mode	1773
Scho@@	1773
Marathon	1773
lasts	1772
warmth	1772
.08	1772
weiter	1772
Adige	1771
Military	1771
arians	1771
hero	1771
Sw@@	1771
23,@@	1771
utilization	1771
erte	1771
Fixed	1771
divide	1770
sponsored	1770
9.5	1770
Long@@	1770
sequ@@	1770
LI@@	1770
Six	1769
athletes	1769
val	1769
Emirates	1769
NT	1769
rod	1769
Aug@@	1769
confidential	1768
eda	1768
Vic@@	1768
d.com	1768
prescribed	1766
Arizona	1766
grams	1766
Parts	1766
castles	1766
Comfort	1766
ange@@	1766
.03.@@	1766
teen	1765
128@@	1765
Canon	1765
securing	1764
remedy	1764
exquisite	1764
H-@@	1764
Nevada	1764
freedoms	1763
euro@@	1763
refuge	1763
1980s	1763
shine	1763
Cra@@	1763
Free@@	1763
Cav@@	1763
Programm	1763
Write	1763
Lodge	1763
YOU	1763
volunteers	1762
swing	1762
esta	1762
allies	1762
loyalty	1762
Edinburgh	1762
alien	1762
tune	1761
retirement	1761
disciplines	1761
findet	1761
ESS	1761
quest	1760
fingers	1760
music@@	1760
ses@@	1759
cdn.@@	1759
Hau@@	1758
Materials	1758
Engineer	1758
PI@@	1758
listing	1757
Í@@	1757
queries	1757
H.@@	1757
vibrant	1756
208	1756
grip	1756
Baroque	1756
Paulo	1756
drum	1756
indications	1755
Dra@@	1755
Beyond	1755
accepting	1755
ailing	1755
hun@@	1755
Ost@@	1755
seasons	1755
extraction	1755
Friendly	1755
Barroso	1755
INE	1755
370	1754
Sau@@	1754
thine	1754
unexpected	1753
Nobel	1752
Much	1752
wishing	1752
civilization	1752
mins	1752
crash	1751
Herzegovina	1751
esa	1751
Venezuela	1751
Package	1751
onne	1751
RI@@	1751
Airways	1750
pp	1750
dll	1750
restriction	1749
toxic	1749
itor	1749
hot@@	1749
aiming	1748
kindly	1748
EX	1748
Maj@@	1748
Movie	1748
ob	1748
LU@@	1748
Wei@@	1748
de.@@	1748
Schmidt	1747
enhancement	1746
travels	1746
rocky	1746
Bach	1746
SN@@	1746
sunset	1745
Sign	1745
1942	1745
mini-@@	1744
iri@@	1744
Football	1744
ACP	1743
fragmented	1743
nominated	1743
inventive	1743
pulled	1742
freezer	1742
ains	1742
Green@@	1742
esch@@	1742
Mercedes	1742
Er	1742
sur-@@	1742
Sus@@	1741
fier	1741
Gir@@	1741
107@@	1741
gaining	1740
Pir@@	1740
Making	1740
Vin@@	1740
cub@@	1740
Home@@	1740
www.cazar.de	1740
218@@	1739
consultants	1739
Representatives	1739
Cast@@	1739
stomach	1739
5.2	1739
1600	1739
interim	1738
construct	1738
wis@@	1738
assignment	1738
crashed	1738
Wes@@	1738
cz@@	1738
ador@@	1738
ATE	1737
ance-@@	1737
5.jpg	1737
Arrival	1737
NY-@@	1737
raises	1736
builds	1736
ost@@	1736
dimensional	1736
itu@@	1736
Nar@@	1736
xx@@	1736
fauna	1735
Manual	1735
1958	1735
BBQ	1735
mic@@	1735
Lanka	1734
focal	1734
171	1734
ev	1734
PAR@@	1734
fountain	1734
Fix	1734
minus	1733
esh@@	1733
schen	1733
fast@@	1732
High-@@	1732
1939	1732
delayed	1731
scattered	1731
curve	1731
aten	1731
talents	1731
turbines	1731
foto@@	1731
3f@@	1731
passport	1730
Hoo@@	1730
slip	1730
Max@@	1730
2015-0@@	1730
hat@@	1729
sovereign	1729
Supreme	1729
Publications	1729
arch	1729
bourgeoisie	1729
ski@@	1729
Zermatt	1729
ety	1728
delegations	1728
torture	1728
curious	1728
successor	1728
31-@@	1728
w-@@	1728
suggestion	1727
recipient	1727
166	1727
slave	1727
brow@@	1727
1948	1727
HA@@	1727
teu	1727
Ombudsman	1726
handles	1726
iden	1726
tit@@	1726
resurrection	1726
Serv@@	1726
.05.@@	1726
ohne	1726
e.	1726
agrees	1725
rendered	1725
dist@@	1725
supporters	1725
patri@@	1725
sanc@@	1725
Schneider	1725
gio	1725
puzzle	1724
heim@@	1724
secretary	1723
beast	1723
Detailed	1723
Ja@@	1723
therein	1722
ree	1722
cast@@	1722
Kop@@	1722
Wagner	1722
fifteen	1721
156	1721
umbrella	1721
Ep@@	1721
Wars	1721
190@@	1721
Field	1721
corporations	1720
deserve	1720
max@@	1720
illo	1720
switches	1720
NA@@	1720
colorful	1720
texas	1720
07.@@	1720
locks	1719
nervous	1719
Gold@@	1719
ITY	1719
conviction	1718
cement	1718
iled	1718
ician	1718
DO	1718
Birmingham	1717
room@@	1717
decreased	1716
refugee	1716
organisms	1716
sco@@	1716
296	1716
WE@@	1716
383	1716
1956	1716
cross-country	1716
DR	1715
apparatus	1715
tablet	1715
Girls	1715
2-4	1715
histor@@	1715
sound@@	1714
timetable	1714
RC	1714
iten@@	1714
cemetery	1714
vac@@	1714
ima	1714
Topic	1714
Houston	1714
Mix	1714
.amarillas@@	1714
approve	1713
unlikely	1713
domains	1713
Pedro	1713
view@@	1713
washed	1713
spam	1713
350@@	1713
este	1713
undertaking	1712
sex@@	1712
4b@@	1712
.s@@	1712
predic@@	1711
strikes	1710
multilateral	1710
quotas	1710
updating	1710
prec@@	1710
intervals	1710
Patrick	1710
venues	1710
Touch	1710
e.de	1710
2009-@@	1710
visions	1709
Yugoslavia	1709
operative	1709
Knowledge	1709
fiber	1709
wished	1708
supervisory	1708
metre	1708
rat@@	1708
tablets	1708
enth@@	1708
Trieste	1708
trailer	1708
Test@@	1708
judged	1707
enclosed	1707
359	1707
locals	1707
longest	1706
Squ@@	1706
anonymous	1705
eder	1705
hos@@	1704
163	1704
ison	1704
MIN@@	1704
exhibit	1704
Blan@@	1704
sauce	1704
Democracy	1703
dictatorship	1703
har	1703
personalized	1703
bold	1702
inhabited	1702
235	1702
donations	1702
watches	1702
Generation	1702
Miami	1702
.000@@	1702
board@@	1702
0.016@@	1702
Montreal	1701
activation	1701
not@@	1701
idyllic	1701
ados	1701
gle@@	1700
identifying	1700
itors	1700
Song	1700
zeug@@	1700
Budget	1699
Sir	1699
LP	1699
slo@@	1699
ool	1699
tless	1698
100,000	1698
tap	1698
Fan@@	1698
Art@@	1698
streams	1697
rack	1697
Ath@@	1697
Psych@@	1697
analog	1697
Recently	1696
systematically	1696
ism@@	1696
excluding	1696
avoiding	1696
unchanged	1696
Integrated	1696
206	1696
municipalities	1696
wat@@	1696
tik@@	1696
buyers	1695
drums	1695
ographic	1695
Cardinal	1695
04.@@	1695
ceilings	1694
esi@@	1694
fro@@	1693
Mayor	1692
somebody	1692
Racing	1692
procedural	1691
tastes	1691
bets	1691
tter	1691
occasionally	1690
Bran@@	1690
Englisch	1690
quota	1689
Fig@@	1689
weekends	1689
bookings	1689
Nürnberg	1689
conver@@	1688
wards	1688
proteins	1688
promotional	1688
tour@@	1688
ersten	1688
saf@@	1688
bench	1687
2006-@@	1687
store@@	1687
Captain	1687
Marc	1687
accomodation	1687
sab@@	1686
Mass@@	1686
Continental	1686
aufgenommen	1686
Neuro@@	1686
explicit	1685
matic	1685
life@@	1685
Volkswagen	1685
Ny@@	1685
Faculty	1685
valves	1684
photograph	1684
Demand	1684
390	1684
anal	1684
Apr@@	1684
25,@@	1684
importantly	1683
Unless	1683
asia	1683
pussy	1683
specialties	1683
parliaments	1682
etwas	1682
with-@@	1682
Cities	1681
atin	1681
Trentino	1681
EMS	1681
eland	1680
kor@@	1680
fires	1680
Portal	1680
bal	1680
Tickets	1680
continents	1679
ature	1679
mate	1679
Persons	1679
poetry	1679
223@@	1679
poem	1678
carriage	1678
mem@@	1678
Z-@@	1678
fabulous	1678
tible	1677
ersch@@	1677
By@@	1677
р@@	1677
vig@@	1676
road@@	1676
Malaga	1676
Produkte	1676
dependence	1675
ress	1675
aim@@	1675
SL	1675
Massage	1675
Schwe@@	1675
inadequate	1674
monitors	1674
patented	1674
Ben	1674
265	1674
Lem@@	1674
Vas@@	1674
ě@@	1674
onlin@@	1674
wonders	1673
incident	1673
screws	1673
164	1673
Hermann	1673
Ron@@	1673
Cleaning	1673
169	1672
Things	1672
fir@@	1672
off-@@	1672
Girl	1672
teil@@	1672
index.html.z	1672
negotiate	1671
Agricultural	1671
physically	1671
graphy	1671
crafts	1671
SY@@	1670
bury	1670
symbol@@	1670
Jud@@	1670
day-@@	1670
particle	1670
Twin	1670
245	1670
Rosa	1670
openness	1669
cooperative	1669
Nigeria	1669
ès	1669
Hur@@	1669
constructions	1669
Notice	1669
supplements	1668
communist	1668
hurt	1668
1000@@	1668
lie@@	1668
bowl	1668
fall@@	1667
investigated	1667
Leonardo	1667
sensible	1667
illi@@	1667
converting	1667
Fore@@	1667
rounds	1667
Gab@@	1667
vibration	1667
ück@@	1667
model@@	1667
tism	1666
168	1666
employs	1666
DF@@	1666
machining	1666
FTP	1666
passionate	1665
retained	1665
dial@@	1665
tier	1665
tents	1665
nd	1665
images@@	1665
tk@@	1665
Holocaust	1664
squares	1664
retreat	1664
Tas@@	1664
30pm	1664
-09-@@	1664
Cabins	1664
Tren@@	1663
pig@@	1663
refreshing	1663
RDF	1663
Wood	1662
Creative	1662
Fro@@	1662
lab	1662
vans	1662
Ful@@	1661
infl@@	1661
Comm@@	1661
EEA	1661
191	1661
creature	1661
Focus	1661
imm@@	1661
inas	1661
Skype	1661
pointing	1660
innocent	1660
ien@@	1660
well@@	1660
Taxi	1660
7-11	1660
eon	1660
json	1660
5.1	1659
Mike	1659
Hun@@	1659
bugs	1659
encourages	1658
dying	1658
eleven	1658
Å@@	1658
protests	1657
hne	1657
altered	1657
ICT	1657
suppl@@	1657
pped	1657
Coming	1657
year@@	1657
surgical	1657
Juli@@	1657
Trav@@	1657
-04-@@	1657
Presentation	1656
bt	1656
dressing	1656
HS	1656
Ts-213,@@	1656
yl	1655
Fach@@	1655
exceptions	1654
impl@@	1654
threads	1654
154	1654
512	1654
boom	1653
furthermore	1653
strengths	1653
Oxford	1653
lon@@	1653
analyze	1653
.sys	1653
Jackson	1652
diver@@	1652
electoral	1652
sid@@	1652
285	1652
Inv@@	1652
Hö@@	1652
Brno	1652
harmonisation	1651
short-@@	1651
ories	1651
drove	1651
212	1651
OK@@	1651
pop-up	1651
Regarding	1650
oppose	1650
county	1650
Rail	1650
stack	1650
Archives	1650
.00@@	1650
.09.@@	1650
Fishing	1649
Typical	1649
licenses	1649
Samsung	1649
pixels	1649
Algeria	1648
educated	1648
Has	1648
Roland	1648
transitional	1647
beverages	1647
Mexican	1647
lik@@	1647
ather@@	1647
hoped	1646
264	1646
rech@@	1646
ket	1646
artwork	1646
incentive	1645
Namibia	1645
assisted	1645
Rav@@	1645
Orthodox	1645
Glo@@	1645
1930	1645
Riga	1645
aer@@	1645
harder	1644
Less	1644
associate	1644
encing	1644
ful@@	1644
tac@@	1644
Moldova	1644
uma	1644
Memory	1644
Inform@@	1644
-09	1644
Y`Z4	1644
desirable	1643
prin@@	1643
die-@@	1643
Notify	1643
inevitable	1642
enthusiastic	1642
farm@@	1642
1959	1642
05.@@	1642
prospect	1641
owed	1641
realisation	1641
Sant@@	1641
promenade	1641
O.@@	1641
Tit@@	1640
expressions	1640
exhibited	1640
converter	1640
old@@	1640
flavor	1640
0.013@@	1640
infocentre	1640
0.1	1639
Fish	1639
Dream	1639
organizational	1639
Maritime	1638
Platform	1638
ect@@	1638
Studios	1638
attending	1637
emo@@	1637
negotiated	1637
Generally	1637
antenna	1637
Ó@@	1637
Numerous	1636
recreational	1636
editorial	1636
hut	1636
Indi@@	1636
lagen	1636
1800	1636
32-@@	1636
tragedy	1635
mothers	1635
Nowadays	1635
Wolf	1635
belts	1635
Fried@@	1635
Auch	1635
oasis	1635
hip	1635
unseren	1635
provinces	1634
fantasy	1634
bot@@	1634
r-@@	1634
Saxony	1634
tee	1633
acher	1633
mari@@	1633
1941	1633
Giant	1633
126@@	1633
exceptionally	1632
halt	1632
wives	1632
compression	1632
corrosion	1632
verkaufen	1632
Similarly	1631
yo@@	1631
Story	1631
Manchester	1630
educ@@	1630
258	1630
charity	1630
ank	1630
CAN@@	1630
toll	1629
air-conditioning	1629
wo	1629
disappointed	1628
Exc@@	1628
incurred	1628
simplicity	1628
terr@@	1628
Quick@@	1628
20.00	1628
scans	1628
risen	1627
fusion	1627
ech	1627
varies	1626
prompt	1626
unfair	1626
Phil@@	1626
empire	1626
Clean	1626
Gren@@	1626
eing@@	1626
exploration	1625
repository	1625
Jonathan	1625
U.@@	1625
merger	1624
conventions	1624
stuck	1624
Ring	1624
UR	1624
Toilet	1624
l.@@	1624
Spiele	1624
Could	1623
Alex	1623
158	1623
Zo@@	1623
243	1623
conveyor	1623
incorporate	1622
stabil@@	1622
ageing	1622
lib@@	1622
rad	1622
Entry	1622
Jacuzzi	1622
usable	1621
invented	1621
forty	1621
Smith	1621
184	1621
Status	1621
sia	1621
pad	1621
Berliner	1621
uro	1620
3.4	1620
Mach@@	1620
Santo	1620
deserves	1619
simplify	1619
feed@@	1619
biology	1619
Peer	1619
macht	1619
listened	1618
Vil@@	1618
chapters	1618
Trier	1618
Latitude	1618
autonomy	1617
weakness	1617
tan	1617
Inf@@	1617
quotes	1617
div	1617
BOXVIEW	1617
flavour	1616
188@@	1616
Eve	1615
champion	1615
cosmetics	1615
ots	1615
gently	1615
laboratories	1615
galerie	1615
FI@@	1615
Anmelden	1615
comment-@@	1615
rdf	1615
badly	1614
blame	1614
Mai@@	1614
paper@@	1614
aca	1614
Alp@@	1614
Mini@@	1614
Dieter	1614
stad	1614
nets	1613
Cairo	1613
gravity	1613
dot	1613
1940	1613
08.@@	1613
ras	1612
horizon	1612
modest	1612
Liechtenstein	1612
servic@@	1612
Dallas	1612
construc@@	1611
activists	1611
copied	1611
medication	1611
recovered	1611
Outside	1611
usi@@	1611
sealed	1610
erected	1610
Kinshasa	1610
lic	1610
Rat@@	1610
Eye	1610
Remove	1610
lays	1609
Vincent	1609
jan@@	1609
Af@@	1609
Personen	1609
virtu@@	1608
auc@@	1608
individu@@	1608
land-@@	1608
000,000	1608
2015@@	1608
esses	1607
watched	1607
Arch@@	1607
eines	1607
Window	1607
Alanya	1607
subsidiarity	1606
167	1606
Andrew	1606
photovoltaic	1606
HER@@	1606
il-@@	1605
Trust	1605
Nom@@	1605
Menu	1605
Flu@@	1605
wol@@	1605
ität	1605
a5@@	1605
los-angeles.amaril	1604
4.3	1603
1970s	1603
SV@@	1603
ner-@@	1603
interdisciplinary	1603
Deluxe	1603
03-@@	1603
argued	1602
lined	1602
Head@@	1602
bishop	1602
pull-out	1602
sliding	1601
dres@@	1601
Mic@@	1601
Rudolf	1601
Jena	1601
cronaca	1601
perceive	1600
Ten	1600
Tour@@	1600
Lucerne	1600
inches	1600
laptop	1600
rail@@	1599
2019	1599
TM	1599
www.s@@	1599
tits	1598
propaganda	1597
Opinion	1597
Chancellor	1597
displaying	1597
J.@@	1597
Lee	1597
lichen	1597
ound	1596
sit@@	1596
undertakings	1596
treating	1596
light-@@	1596
Zoo	1596
ample	1595
wool	1595
sdorf	1595
Firefox	1595
Bauhaus	1595
Auditors	1594
symptom	1594
pled	1594
Assessment	1594
Pre-@@	1594
test@@	1594
nan@@	1594
dern	1594
01.09.2015	1594
ön@@	1593
socially	1593
Monitoring	1593
fired	1593
Delhi	1593
sac@@	1592
204	1592
Gy@@	1592
BU@@	1592
speeches	1591
confronted	1591
march	1591
earthquake	1591
Berlin-@@	1591
.p@@	1591
verified	1590
Dan	1590
Cut	1590
WWW	1590
Ihre	1590
Registrieren	1590
Berth	1590
subtle	1589
planes	1589
Mem@@	1589
127@@	1589
ć	1589
Snow@@	1589
äch@@	1589
cookie	1589
demonstrations	1588
xes	1588
Kiel	1588
assumes	1587
Carlo	1587
start@@	1587
Detail	1587
outlined	1586
ont@@	1586
optim@@	1585
su	1585
rounded	1584
Houses	1584
Tree	1584
ð	1584
Seven	1583
travelled	1583
voters	1583
interference	1583
accelerate	1583
TV@@	1583
cos	1583
Arn@@	1583
obey	1582
None	1582
Mare	1582
Gil@@	1582
finishes	1582
list@@	1582
Gardens	1582
verification	1581
Produc@@	1581
heights	1581
depression	1581
Afterwards	1581
Dat@@	1581
Move	1581
41@@	1581
TT@@	1581
launching	1580
ment-@@	1580
Scre@@	1580
1.8	1580
tuning	1580
repairs	1580
toaster	1580
mm@@	1580
.06.@@	1579
substitute	1578
Groups	1578
guaranteeing	1578
173	1578
ean	1578
baroque	1578
GER	1578
wrath	1578
conductor	1578
ulated	1577
Apparently	1577
huis	1577
Carlos	1577
Joshua	1577
DB@@	1577
postID	1577
communicated	1576
ashes	1576
sus	1576
aying	1575
variants	1575
RO	1575
reminded	1574
iti	1574
stadium	1574
176	1574
Medium	1574
teachings	1574
aden	1574
KW	1574
com.	1574
Serie	1574
ciudad-de-la-haban	1574
ands	1573
fron@@	1573
Corn@@	1573
counter-@@	1573
reliably	1573
4000	1573
Schl@@	1573
str	1573
citizenship	1572
attributed	1572
controversial	1572
dium	1572
sponsor	1572
toy	1572
Himself	1572
analysed	1571
complementary	1571
openly	1571
ians	1571
attachment	1571
purchases	1571
plasma	1571
rider	1571
Venetian	1571
AGE	1571
solarium	1571
pursuing	1570
Mart@@	1570
premature	1570
coastline	1570
Ry@@	1570
matrix	1570
Geschichte	1570
Oliver	1570
Longitude	1570
anticipated	1569
ogen@@	1569
guards	1569
tears	1569
alignment	1569
Operation	1569
credible	1568
tragic	1568
poet	1568
conformity	1568
anci@@	1568
Hand	1568
claiming	1567
intent	1567
argue	1567
Any@@	1567
haus@@	1567
Truth	1566
cups	1566
04.09.2015	1566
Elisabeth	1565
rests	1565
anth@@	1565
sion-@@	1565
plas@@	1565
angel@@	1565
ße	1565
CZK	1565
simplified	1564
seas	1564
indirectly	1564
vitamins	1564
Hard	1564
competences	1563
posting	1563
Heads	1563
foreigners	1563
bending	1563
Anne	1563
Ecuador	1563
Od@@	1563
ación	1563
forecasts	1562
Pad@@	1562
cad@@	1562
barrels	1562
Path	1562
Bom@@	1562
Jean-@@	1562
N.@@	1562
aia	1562
Indoor	1562
2F@@	1562
Yacht	1562
Mali	1561
ames	1561
Steve	1561
TION	1561
10.0@@	1561
I-Frame	1561
whis@@	1560
lover	1560
297	1560
disclosed	1560
MR@@	1560
consultations	1559
ems	1559
baggage	1559
Pisa	1559
ull	1559
Tim	1559
Arbeits@@	1559
ws	1558
await	1558
consultancy	1558
accurately	1558
teaches	1558
coordinates	1558
jack@@	1558
к@@	1558
Att@@	1557
DER	1557
Palazzo	1557
Wales	1556
resist	1556
asser@@	1556
Plant	1556
kre@@	1556
Regulations	1555
gos	1555
Rac@@	1555
São	1555
etto	1555
Leben	1555
Rezension	1555
linguistic	1554
strongest	1554
Password	1554
Jos@@	1553
floating	1553
Monaco	1553
stellung	1553
Bureau	1552
assessments	1552
lengths	1552
ade@@	1552
contr@@	1552
Bis@@	1552
fur	1552
Advertising	1552
Natur@@	1552
bisher	1552
pb	1552
mpora.de	1552
aust@@	1551
va@@	1551
wand@@	1551
Administrator	1551
3d@@	1551
consultant	1550
outlook	1550
cum@@	1550
Gerhard	1550
SO	1550
Fully	1550
kri@@	1550
TIF	1550
FH@@	1550
www@@	1550
CU@@	1549
master@@	1549
sunshine	1549
‑	1549
II@@	1548
absorbed	1548
high-performance	1548
Sat@@	1548
Cont@@	1548
inn	1548
timing	1547
tariff	1547
Lö@@	1547
performs	1547
regulate	1546
Ps	1546
retention	1546
descent	1546
surveys	1546
Archiv	1546
foil	1546
Kel@@	1546
Mainz	1546
ec.europa.eu	1546
decent	1545
stresses	1545
celebrating	1545
unprecedented	1545
indicating	1545
gene	1545
Rein@@	1545
Ow@@	1545
Panorama	1545
2008-0@@	1545
tangible	1544
mayor	1544
German-@@	1544
non-profit	1544
Soft	1544
Connect	1544
boutique	1544
autom@@	1544
beams	1544
CEST	1544
legi@@	1543
spac@@	1543
Fern@@	1543
580	1543
MC	1543
utter	1542
Bernd	1542
Stephen	1542
Monastery	1542
pregnant	1541
Sustainability	1541
tian	1541
batch	1541
emails	1541
cafes	1541
51@@	1541
Gratis	1541
bom@@	1540
sits	1540
buff@@	1540
bd@@	1540
Engine	1540
isch@@	1540
salon	1540
photographers	1540
exclude	1539
followers	1539
Workers	1539
464	1539
scre@@	1539
online-@@	1539
c.@@	1539
cf	1539
Tat@@	1538
N-@@	1538
CD-@@	1538
KS	1538
wiki@@	1538
4.6.1	1538
Heinz	1537
auction	1537
assortment	1537
207	1537
auto-@@	1537
Leisure	1537
Offering	1537
geben	1537
Fritz	1537
fam@@	1536
FF@@	1536
Has@@	1536
Cul@@	1536
.05.2015	1536
memorial	1535
persecution	1535
mos	1534
Accordingly	1534
fiction	1534
vic	1534
memorable	1534
Lit@@	1534
Hair	1534
seekers	1533
iner@@	1533
NA	1533
170@@	1533
251	1532
Kno@@	1532
29,@@	1532
lock@@	1532
steht	1532
eo	1532
177	1531
guiding	1531
Governance	1531
Bernhard	1531
tide	1530
vid@@	1530
asi	1530
Pod@@	1530
Ali@@	1530
restrict	1529
Wedding	1529
pc	1529
www.albanien.ch	1529
Reading	1528
Tibet	1528
Alternatively	1528
Big@@	1528
cum	1528
Analytics	1528
.04.@@	1528
uploaded	1528
Badia	1528
inated	1527
detached	1527
visu@@	1527
Münster	1527
outskirts	1527
2007-0@@	1527
www.h@@	1527
accessibility	1526
elders	1526
CB@@	1526
illed	1526
Det@@	1526
Auschwitz	1526
pasta	1526
Amendments	1525
consecutive	1525
450@@	1525
inputs	1525
folding	1525
aroma	1525
Wikipedia	1525
lush	1525
MW	1525
lenses	1525
Zeiten	1525
URI	1525
preventive	1524
presidential	1524
destined	1524
312	1524
Amarillaspuertorico.com	1524
Millennium	1523
iding	1523
Berg	1523
mond	1523
mir@@	1523
railways	1522
aud	1522
lighter	1522
rd	1522
proc@@	1522
Records	1522
321	1522
Formula	1522
Mars	1522
newinst	1522
stance	1521
definitions	1521
iel@@	1521
Burning	1521
titled	1521
Aur@@	1521
has@@	1520
Hollywood	1520
cleaner	1520
209	1520
pregnancy	1520
bahn	1520
Wid@@	1520
voucher	1520
continuity	1519
flat@@	1519
ough	1519
Sites	1519
mat	1519
GD@@	1519
adequately	1518
Obviously	1518
aids	1518
idi@@	1518
poli@@	1518
194	1518
design@@	1518
Lun@@	1518
heavenly	1518
preference	1517
manifest	1517
fights	1517
shirt	1517
News@@	1517
Mam@@	1517
App@@	1517
Terrasse	1517
gaps	1516
iss	1516
injured	1516
trainer	1516
R.@@	1516
CP	1515
stra	1515
Würth	1515
exploit	1514
captain	1514
expresses	1514
lap	1514
agon	1514
dotted	1514
Label	1514
oro	1514
Teletraan	1514
failing	1513
amb@@	1513
Pay@@	1513
Univers@@	1513
Oslo	1512
town@@	1512
Columbia	1512
Say	1512
Relax	1512
COR@@	1511
tter@@	1511
brick	1511
viruses	1511
jpeg	1511
maxresdefault.jpg	1511
cost-effective	1510
proceeds	1510
ACE	1510
-35	1510
---	1510
icity	1509
twenty-@@	1509
corporation	1509
acute	1509
strips	1509
drama	1509
ital@@	1509
Sing@@	1508
Tuscan	1508
outputs	1508
5,00	1508
aked	1507
lip	1507
ests	1507
Chin@@	1507
Om@@	1507
enne	1507
Van@@	1507
berries	1507
hook	1507
potatoes	1507
JPEG	1507
Explore	1507
Isaac	1507
ware@@	1507
En	1507
09.@@	1507
Kt	1507
encountered	1506
obligatory	1506
cit@@	1506
canal	1506
Cotton	1506
nel	1506
princes	1506
Usually	1506
.07.@@	1506
browse	1506
.0.@@	1506
duckduckgo.com	1506
enjoyment	1505
membrane	1505
520	1505
Fort	1504
eliminated	1504
corrected	1504
Audi@@	1504
5.3	1504
hd@@	1504
fs@@	1504
aler	1504
prince	1504
Buyer	1504
employ	1503
pushing	1503
ance@@	1503
189	1503
shar@@	1503
www.f@@	1503
All-@@	1503
drill	1502
Andre@@	1502
375	1502
vain	1502
Higher	1502
Gabriel	1502
Fig	1502
photographic	1502
whoever	1501
medicinal	1501
extr@@	1501
Television	1501
Liv@@	1501
scher	1501
yed	1501
rejection	1500
iler	1500
utz@@	1500
prop@@	1500
technicians	1500
concludes	1499
respecting	1499
HR@@	1499
per-@@	1499
Artists	1499
bureaucracy	1498
famili@@	1498
attempted	1498
Dialogue	1498
Gros@@	1498
Lü@@	1498
ART@@	1498
modernisation	1497
confused	1497
entrusted	1497
assumption	1497
sible	1497
track@@	1497
Exclusive	1497
1953	1497
Reader	1497
PV	1497
letzten	1497
п@@	1497
ever-@@	1496
AF	1496
rot	1496
Customs	1496
Manuel	1496
atur@@	1496
sheim	1496
FI	1496
males	1496
banned	1495
termin@@	1495
hall@@	1495
best-@@	1495
Georgian	1495
Pop	1495
129@@	1495
2x	1495
god@@	1494
Fundamental	1494
opt	1494
nut	1494
incomplete	1494
valuation	1494
contracting	1494
OS@@	1494
Certificate	1494
attitudes	1493
chicken	1493
Museums	1493
Boy	1493
Energie	1493
B.C.	1493
MHz	1493
Bei	1493
advances	1492
Import	1492
andra	1492
psychology	1492
alizing	1492
bay@@	1492
spambots	1492
123@@	1492
hlen	1492
occurring	1491
Gem@@	1491
Ihr	1491
www.p@@	1491
sens@@	1490
1.	1490
Ancient	1490
share@@	1490
studi@@	1490
uer	1490
ode	1489
chef	1489
collectors	1489
alt@@	1489
Sprache	1489
EUROPEAN	1489
believing	1488
Kultur@@	1488
Historical	1488
Stro@@	1488
torque	1488
FE@@	1488
earliest	1487
Eis@@	1487
Sundays	1487
189@@	1487
Downtown	1487
Selva	1487
Half	1486
Document	1486
Radi@@	1486
system@@	1486
Speci@@	1486
GS	1486
Augsburg	1486
2.html	1486
ints	1485
Equ@@	1485
roman@@	1485
0000@@	1485
►	1485
replacing	1484
icon@@	1484
logos	1484
vir@@	1484
im-@@	1484
B.@@	1484
Fresh	1483
Courses	1483
zwei	1483
fte	1483
ELL@@	1483
exported	1482
emphasised	1482
ached	1482
tain@@	1482
Tyrolean	1482
Hardware	1482
aches	1481
flame	1481
ARD	1481
lif@@	1481
Cambridge	1481
vill@@	1481
Anonymous	1481
rol	1481
Opel	1481
HOTEL	1481
Mitarbeiter	1481
harmon@@	1480
angles	1480
world-@@	1480
norms	1480
Adri@@	1480
massages	1480
1400	1480
Hôtel	1480
survived	1479
basement	1479
386	1479
counting	1478
Jones	1478
Porsche	1478
Cli@@	1478
d6@@	1478
rapporteurs	1477
suff@@	1477
projection	1477
quer@@	1477
buffer	1477
Revelation	1477
show.php	1477
smoothly	1476
safer	1476
Examples	1476
licensing	1476
clocks	1476
psycho@@	1476
Ris@@	1476
nutrients	1476
cocktail	1476
CM	1476
bio	1475
ward@@	1475
bore	1475
atten@@	1475
Andr@@	1475
HU@@	1475
refurbished	1475
Citizens	1474
ede	1474
Concert	1474
excitement	1474
injuries	1474
sh	1474
meth@@	1474
guesthouse	1474
unsere	1474
lap@@	1473
GP	1473
Export	1473
dom	1473
Soon	1473
Battle	1473
meg@@	1473
Fest@@	1473
criterion	1472
virtue	1472
appl@@	1472
backdrop	1472
ament	1472
Hans-@@	1472
AVI	1472
COMP@@	1472
FREE	1472
VPN	1472
os.htm	1472
poorest	1471
alert	1471
harmonious	1471
Seg@@	1471
recep@@	1471
supplying	1471
tire	1471
wall@@	1471
hö@@	1471
brightness	1471
Wohn@@	1471
quantitative	1470
bitter	1470
tti	1470
acon	1470
farmer	1470
broadcasting	1470
yoga	1470
trad@@	1470
Bob	1470
1938	1470
hem	1470
cc	1470
Developer	1470
honduras.amarillaslatinas.net	1470
confidentiality	1469
UK@@	1469
Tag@@	1469
Cad@@	1469
Demo	1469
Ende	1469
188	1468
Aff@@	1468
accumulation	1467
Hop@@	1467
threatening	1467
DG@@	1467
aud@@	1467
1960s	1467
knife	1467
COMM@@	1467
beck	1467
fedora	1467
barely	1466
Grund@@	1466
mess@@	1466
mou@@	1466
Bratislava	1466
Markets	1466
WE	1466
Piano	1466
kop@@	1466
explanations	1465
coff@@	1465
banner	1465
Promotion	1465
FT@@	1465
touring	1465
Student	1465
rov@@	1464
deployed	1464
essed	1464
listings	1464
aine	1464
355	1464
trav@@	1464
vent@@	1463
Pes@@	1463
cleared	1463
set-up	1463
shelf	1463
entation	1463
wan@@	1463
Cour@@	1463
organising	1462
cow	1462
remo@@	1462
Throughout	1462
2500	1462
avi	1462
421	1462
index@@	1462
DLR	1462
rustic	1462
Tage	1462
Groß@@	1462
Creator	1462
jQuery	1462
ratification	1461
ashing	1461
variation	1461
antly	1461
gateway	1461
did@@	1461
shades	1461
1010	1461
tioned	1460
Paul@@	1460
demographic	1460
beliefs	1460
wai@@	1460
anxiety	1460
yan	1460
broadband	1460
strap	1460
fas@@	1460
Sex	1460
marina	1460
socket	1460
c9@@	1460
stretched	1459
appearing	1459
dedication	1459
slogan	1459
1955	1459
222	1459
gh	1459
fest@@	1459
Masters	1459
geladen	1459
-16	1459
positively	1458
û@@	1458
Compared	1458
242	1458
Embassy	1458
Chair	1458
frac@@	1458
Potsdam	1458
1954	1458
fittings	1458
Hochschule	1458
Testbericht	1458
flags	1457
forestry	1457
merged	1457
critics	1457
anybody	1457
commodities	1457
five-@@	1457
graduated	1457
scientist	1457
Contents	1457
assessing	1456
Literature	1456
iling	1456
Letter	1456
dressed	1456
wax	1456
Beds	1456
.pl	1456
ration@@	1455
ence-@@	1455
tax@@	1455
amending	1454
condition@@	1454
momentum	1454
Administrative	1454
Nav@@	1454
rau@@	1454
thro@@	1454
king@@	1454
Haus@@	1454
Tony	1453
179	1453
disorder	1453
TH	1453
IES	1453
ver-@@	1453
amend	1452
popul@@	1452
OL	1452
absorption	1452
termination	1452
Model@@	1452
soll	1451
Gender	1451
trusted	1451
deciding	1451
ight@@	1451
convey	1451
Eur@@	1451
ando	1451
Toronto	1451
sono	1451
lou@@	1450
arbitrary	1450
den-@@	1450
py@@	1450
Supply	1450
isa	1450
underwater	1450
Punta	1450
bü@@	1450
Lab	1450
-06-@@	1450
dramatically	1449
chaos	1449
emer@@	1449
560	1449
RS	1449
413	1449
lasted	1448
refusal	1448
insist	1448
Iraqi	1448
dangers	1448
bearings	1448
Sleeping	1448
Lost	1448
36-@@	1448
trendy	1448
wir@@	1448
images.@@	1447
shores	1446
tricks	1446
Commander	1446
1952	1446
put@@	1446
actress	1446
Venus	1446
san	1446
Hay@@	1446
homemade	1446
tigen	1446
.blogspot.com	1446
sentenced	1445
dit	1445
Zeitung	1445
cult	1445
2008-@@	1445
conf	1445
KB@@	1445
Jul@@	1445
enw	1445
lsgfaq	1445
www.purearea.net	1445
430	1444
Dragon	1444
ett	1444
favorable	1444
er.htm	1444
overseas	1443
midnight	1443
spin	1443
Rh@@	1443
T.@@	1443
lessly	1442
ght	1442
eco-@@	1442
Guard	1442
Rum@@	1442
GS@@	1441
Directory	1441
Unternehmen	1441
ager	1441
struc@@	1441
ambition	1440
Airbus	1440
cliffs	1440
bitte	1440
Criminal	1439
Bangkok	1439
beans	1439
eled	1439
Cho@@	1439
wholesale	1439
talented	1439
program@@	1439
ding@@	1439
Multimedia	1439
Cinema	1439
1933	1439
136@@	1439
acking	1438
Fur@@	1438
install@@	1438
eln	1438
.fr	1438
stru@@	1438
gradual	1437
ousness	1437
compound	1437
will@@	1437
Hebrew	1437
lib	1437
720	1437
stag@@	1436
scales	1436
episode	1436
call@@	1436
cles	1436
pulse	1436
kk@@	1436
outdoors	1436
clip	1436
а	1436
Zadar	1436
ation.htm	1436
Former	1435
241	1435
simultaneous	1435
align	1435
globalization	1435
gourmet	1435
www.tuerkeiforum.net	1435
geo@@	1434
draw@@	1434
fig	1434
hydrogen	1434
8.1	1434
967	1434
initiate	1433
milit@@	1433
Swe@@	1433
Mé@@	1433
bungalows	1433
rides	1433
companion	1433
AST	1433
Walk	1433
Snow	1433
Heavy	1433
nightlife	1433
53.@@	1433
currencies	1432
adventures	1432
assign	1432
trag@@	1432
unc@@	1432
2.6	1432
www.n@@	1432
Vent@@	1432
on.com	1432
nad	1432
costly	1431
aded	1431
cluster	1431
tici@@	1431
Lac@@	1431
27,@@	1431
AW@@	1431
Darmstadt	1431
Philistines	1431
cease	1430
Autumn	1430
encryption	1430
led@@	1430
harbor	1430
inen	1429
pressures	1429
Cs	1429
Mann	1429
Sco@@	1429
dough	1429
Dalmatia	1429
zh@@	1429
sealing	1428
Surely	1428
asting	1428
oxide	1428
programmed	1428
Guinea	1428
Places	1428
header	1428
reasonably	1427
MENT	1427
petrol	1427
owns	1427
391	1427
tyres	1427
Stage	1427
storey	1427
Refrigerator	1427
human@@	1426
consulted	1426
kindness	1426
254	1426
nehmen	1426
reflecting	1425
Arab@@	1425
Blu@@	1425
skis	1425
Tir@@	1425
Defense	1425
prototype	1425
26,@@	1425
widget	1425
PCT	1425
nonetheless	1424
warned	1424
stretches	1424
blocking	1424
civilians	1424
att	1424
irs	1424
Related	1424
ML@@	1424
144@@	1424
genre	1424
mann@@	1424
boots	1424
exi@@	1424
sincere	1423
overwhelming	1423
constraints	1423
constituted	1423
High@@	1423
Olbia	1423
s.org	1423
Bachelor	1423
flies	1422
outline	1422
ails	1422
translators	1422
potentials	1422
www.impulstanz.com	1422
rigid	1421
cone	1421
see@@	1421
landscaped	1421
Trogir	1421
coalition	1420
ailed	1420
methodology	1420
Parties	1420
Leader	1420
SW	1420
Gare	1420
api@@	1420
Shoeshine	1420
carpet	1419
appe@@	1419
stopping	1419
discovering	1419
litres	1419
accomplish	1419
eil	1419
266@@	1419
9.99	1419
Applause	1418
approaching	1418
Specific	1418
Sid@@	1418
Mobility	1418
handy	1418
shirts	1418
ues	1418
steadily	1417
indi@@	1417
103@@	1417
én@@	1417
Salvador	1417
cocktails	1417
bless	1417
DN@@	1417
Ergebnisse	1417
Hrsg	1417
pub@@	1416
baking	1416
ef	1416
Transportation	1416
PI	1416
Mö@@	1416
30PM	1416
liberty	1415
rational	1415
cus@@	1415
urs@@	1415
stad@@	1415
Joachim	1415
kat@@	1415
Milano	1415
inherent	1414
Postal	1414
establishes	1414
outlet	1414
rat	1414
Claus	1414
xx	1414
TS-@@	1414
purchaser	1413
bow@@	1413
disabilities	1413
SAN@@	1413
1h	1413
Superenalotto	1413
Ran@@	1412
wid@@	1412
shareholder	1412
db	1412
PG	1412
coupled	1411
herbal	1411
Range	1411
nung	1411
Cookies	1411
underlined	1410
485	1410
AZ@@	1410
Ill@@	1410
alphabetical	1410
1918	1410
02-@@	1410
253	1409
liberation	1409
fish@@	1409
declares	1409
pid	1409
subway	1409
kte	1409
zation	1409
triggered	1408
wildlife	1408
exceeding	1408
organism	1408
Cent@@	1408
Saf@@	1408
FA	1408
computing	1408
Wortkette	1408
178	1407
facade	1407
andere	1407
Basilica	1407
-07-@@	1407
enlivened	1407
withdrawn	1406
ure-@@	1406
ultra-@@	1406
ill-@@	1406
neighbour	1406
beaten	1406
cardboard	1406
ui	1406
Startseite	1406
146@@	1405
innov@@	1404
weaknesses	1404
intact	1404
rebuilt	1404
ption	1403
purity	1403
delightful	1403
3.6	1403
azz@@	1403
Princess	1403
cot	1403
azione	1403
CPU	1403
Claim	1403
valued	1402
event@@	1402
fossil	1402
dered	1402
child@@	1402
1,500	1402
Instruments	1402
mp3	1402
fulfilling	1401
incredibly	1401
hoo@@	1401
333	1401
manag@@	1401
Card@@	1401
RS@@	1401
ller	1400
ruler	1400
Pietro	1400
lar	1400
sunlight	1400
Zur	1400
soup	1400
acti@@	1399
Fahr@@	1399
Jens	1399
.01.2016	1399
balancing	1398
frequencies	1398
variant	1398
tenth	1398
exceeds	1398
C64	1398
www.i@@	1398
Nächte	1398
sat@@	1397
Bec@@	1397
Option	1397
Lines	1397
Door	1397
Thermal	1397
Österreich	1397
softwares	1397
recession	1396
Zer@@	1396
0.017@@	1396
Dro@@	1395
stat@@	1395
Evaluation	1395
186	1395
bler	1395
O.	1395
Projekt	1395
penilefitness.com	1395
Wide	1394
loses	1394
dock	1394
performer	1394
`	1394
Ángeles	1394
orig	1394
prerequisite	1393
ashed	1393
evolved	1393
rulers	1393
communal	1393
Zeit@@	1393
Guided	1393
hoping	1392
grow@@	1392
hungry	1392
Eco@@	1392
monks	1392
omas	1392
Buch	1392
2012-05-@@	1392
genocide	1391
successes	1391
abundant	1391
acceleration	1391
Kil@@	1391
yo	1391
pes	1391
imaging	1391
Ax@@	1391
e8@@	1391
Boat	1391
summar@@	1390
formulated	1390
Sarah	1390
championship	1390
216	1390
1946	1390
line@@	1390
e7@@	1390
www.atelierkaymak.de	1390
alcoholic	1389
Catalan	1389
oh	1389
Moder@@	1389
Arctic	1389
third-party	1389
Vig@@	1389
kie	1389
Puzzle	1389
Majorca	1389
gastronomic	1388
fibres	1388
F.@@	1388
grand@@	1388
Nova	1388
interact	1388
carved	1388
severely	1387
transmit	1387
hung	1387
Hot@@	1387
enchanting	1387
cursor	1387
vintage	1386
analytical	1386
oured	1386
letting	1386
woven	1386
energetic	1386
tail@@	1386
atures	1386
gor@@	1386
sti	1386
arium	1386
southwest	1386
vie@@	1386
establishments	1385
Communities	1385
Mig@@	1385
parti@@	1385
Standards	1385
187	1385
virgin	1385
fatty	1385
tut@@	1385
workflow	1385
Recovery	1385
wort	1385
contamination	1384
acqu@@	1384
Ex	1384
Publication	1384
asc@@	1384
ile@@	1384
stamps	1384
Goo@@	1384
CR	1384
ages@@	1384
MAN	1384
410	1383
fried	1383
bon	1383
lio	1383
Cat	1383
Plastic	1383
ers.htm	1383
instances	1382
rum@@	1382
1.00	1382
Infrastructure	1382
Atlanta	1382
Instrument	1382
fo	1382
147@@	1382
Park@@	1382
Jacques	1381
eph@@	1381
logistic	1381
Maintenance	1381
Lot	1381
porcelain	1381
34-@@	1381
Lad@@	1380
0049	1380
Î@@	1380
hasn	1380
dunes	1380
Levites	1380
maxim@@	1379
Churches	1379
Philippe	1379
ules	1379
S.A.	1379
theories	1379
ato@@	1379
Challenge	1379
agriturismo	1379
alising	1378
Greater	1378
keywords	1378
182	1378
U.	1378
sburg	1377
Brothers	1377
Reich@@	1377
UL	1377
grap@@	1376
depths	1376
inspiring	1376
Gau@@	1376
Webcam	1376
dl@@	1376
preserving	1375
fundamentally	1375
Treaties	1375
short@@	1375
Guatemala	1375
VII	1375
brochures	1375
Stad@@	1375
seafood	1374
vines	1374
Mittel@@	1374
heater	1374
Ambassador	1373
Brit@@	1373
tends	1373
bomb	1373
Göttingen	1373
tha	1373
Slot	1373
dev	1373
gratitude	1372
mud	1372
lawn	1372
Sie@@	1372
Č@@	1372
Automation	1372
doub@@	1371
lodge	1371
awaits	1371
Fle@@	1371
time@@	1371
226	1371
Aer@@	1371
artic@@	1371
shouldn	1371
LL@@	1371
caps	1370
end-@@	1370
elimination	1370
anti	1370
lation	1370
organ@@	1370
Jes@@	1370
esh	1370
glorious	1370
Reception	1370
Vladimir	1369
Implementation	1369
Franc@@	1369
heal	1369
commandments	1369
tam@@	1369
green@@	1369
ingo	1369
Bow@@	1368
problematic	1368
attracts	1368
decree	1368
1936	1368
Ot@@	1368
Ali	1368
2005-@@	1368
translator	1368
volleyball	1368
4-7	1368
cen@@	1367
PCs	1367
junction	1367
buch	1367
pper	1367
Eber@@	1367
SOL@@	1366
Behind	1366
hammer	1366
Co-@@	1366
ard-@@	1366
pric@@	1366
50,000	1366
Lido	1366
bishops	1366
aders	1366
Villas	1366
Off	1366
gray	1366
park@@	1366
174	1365
backing	1365
Hope	1365
20,000	1365
ceramics	1365
outcomes	1364
meanwhile	1364
12.00	1364
definite	1364
struggles	1364
packs	1364
completeness	1364
Ihnen	1364
Schön@@	1364
club@@	1364
Lastly	1363
additives	1363
181	1363
Jar@@	1363
yearly	1363
248	1363
Agriturismo	1363
Paolo	1362
Voice	1362
Pom@@	1362
declined	1362
needle	1362
foto	1362
Rooms@@	1362
Menschen	1362
essen	1362
fonts	1362
nap@@	1361
Senate	1361
Whenever	1361
Seville	1361
wr@@	1361
zy	1361
Janeiro	1361
scholars	1361
Ah@@	1361
Feel	1361
burger	1361
interpret	1360
unite	1360
condemn	1360
Woman	1360
preceding	1360
objec@@	1360
ound@@	1360
Antworten	1360
persistent	1359
incidents	1359
direc@@	1359
competing	1359
toiletries	1359
325	1359
138@@	1359
tagged	1359
Est@@	1358
passages	1358
peri@@	1358
trick	1358
ffs	1358
shield	1358
eno	1358
rom	1358
Ori@@	1358
Lufthansa	1358
asc	1358
Meliá	1358
wording	1357
envisaged	1357
be-@@	1357
dou@@	1357
molecular	1357
6.0	1357
Grün@@	1357
secondly	1356
dare	1356
unified	1356
sea-@@	1356
Julia	1356
Rings	1356
cover@@	1355
NET	1355
enk@@	1355
gastronomy	1355
20,00	1355
00am	1355
CST	1355
Tibetan	1354
inos	1354
recommends	1354
kil@@	1354
fig@@	1354
Cannes	1354
iso@@	1354
phen@@	1354
hab	1354
facilitating	1353
sentences	1353
side-@@	1353
jacket	1353
ré@@	1353
Å	1353
Helmut	1353
411	1353
PD	1353
cranes	1353
ologi@@	1353
.04.2015	1353
01-@@	1353
urg@@	1352
A3	1352
consume	1352
252	1352
2007-@@	1352
6.3	1352
Crystal	1352
Kit	1352
Musik@@	1352
stating	1351
fair@@	1351
narrative	1351
Cover	1351
priced	1351
Nathan	1351
warmly	1350
deliberately	1350
Networks	1350
deficits	1350
Eric	1350
friction	1350
grades	1350
Birth	1350
kul@@	1350
32.@@	1350
media.@@	1350
143@@	1350
ciencia	1350
endorse	1349
declarations	1349
thematic	1349
Nepal	1349
vil@@	1349
rian	1349
BB	1349
Gun@@	1349
281	1349
div@@	1349
grape	1349
Se	1349
emergence	1348
tage	1348
Whoever	1348
poles	1348
eci@@	1348
Compact	1348
nl	1348
Alghero	1348
puertorico.amarillaslatinas.net	1348
shipped	1347
reasoned	1347
worried	1347
formations	1347
lag	1347
R-@@	1347
pick@@	1347
Late	1347
Campo	1347
Summary	1347
Browser	1347
Illinois	1346
zn@@	1346
turbine	1346
limiting	1345
mother@@	1345
1.7	1345
ester@@	1345
eres	1345
ox	1345
reel	1345
pup@@	1345
Nutrition	1345
Quelle	1345
expressing	1344
Zimbabwe	1344
Schulz	1344
gambling	1344
comprised	1344
façade	1344
305	1344
pi	1344
dB	1344
Kü@@	1344
267@@	1344
Benutzer	1344
LER	1344
3Dopen-@@	1344
inevitably	1343
miracle	1343
eter	1343
TP	1343
thumbnail	1343
isen	1343
hed@@	1343
Certainly	1342
acquis	1342
astic	1342
onally	1342
graph@@	1342
roses	1342
freezes	1342
mass@@	1342
OD	1342
Pis@@	1342
PM@@	1342
search@@	1342
wardrobe	1342
186@@	1342
Informatik	1342
α@@	1342
regi@@	1341
junior	1341
rotating	1341
cooker	1341
winding	1341
jam@@	1341
Script	1341
high-tech	1340
Band@@	1340
DVDs	1340
southeast	1340
trekking	1340
user@@	1340
legitimacy	1339
Strategic	1339
-free	1339
GBP	1339
viewers	1339
316	1339
exam	1339
Count	1339
Hir@@	1339
Ess@@	1338
rooted	1338
Gulet	1338
illustrate	1337
2.8	1337
spices	1337
Fav@@	1337
Mr@@	1337
ellen	1337
iles	1336
Kö@@	1336
purple	1336
ius	1336
Veneto	1336
Philharmonic	1336
Searched	1336
mills	1335
pc@@	1335
的@@	1335
pins	1334
explored	1334
bran@@	1334
aboard	1334
tek	1334
robots	1334
side@@	1333
luc@@	1333
requ@@	1333
amid	1333
Factory	1333
flute	1333
mathematical	1332
organisational	1332
kt@@	1332
sorting	1332
tear	1332
Ah	1332
garlic	1332
arc@@	1332
ÿ	1332
worthwhile	1331
definitive	1331
Worldwide	1331
animated	1331
py	1331
6.2	1331
Dead	1331
dep@@	1330
Bergen	1330
zeit@@	1330
ATM	1330
bank@@	1330
elastic	1330
Madonna	1330
startups	1330
Tun@@	1329
Getting	1329
Spr@@	1329
wei@@	1329
RRP	1329
Vend@@	1328
wi	1328
lid	1328
journeys	1328
door@@	1328
boiler	1328
zza	1328
Screen	1328
bereits	1328
Chrome	1328
u.@@	1328
workout	1328
Wiesbaden	1328
consisted	1327
port-@@	1327
50.@@	1327
inity	1327
Fair@@	1327
HTTP	1327
vorhanden	1327
fications	1326
irrespective	1326
Spon@@	1326
wound	1326
8.2	1326
Assistant	1326
279	1326
uta	1326
delle	1326
werk@@	1326
penalties	1325
babies	1325
soldier	1325
boundary	1325
198	1325
Kab@@	1325
custom@@	1325
Show@@	1325
Kunst@@	1325
MI	1325
php	1325
apostles	1325
lessness	1324
thes@@	1324
inations	1324
ows	1324
toilets	1324
flow@@	1324
Agenzia	1324
Prin@@	1324
php@@	1324
Auswahl	1324
EOS	1324
Recommended	1324
comb@@	1323
advisable	1323
integr@@	1323
Meyer	1323
sys	1323
erg@@	1323
Hotel@@	1323
schl@@	1323
unanimously	1322
prosecution	1322
Commissioners	1322
neo-@@	1322
ounded	1322
Reich	1322
designation	1322
FF	1322
projected	1322
vul@@	1322
alling	1322
ologically	1322
Treatment	1322
hang@@	1322
mathematics	1322
directories	1322
sung	1322
vide@@	1322
Dress	1322
Çá@@	1322
correctness	1321
obstacle	1321
informative	1321
reb@@	1321
ja@@	1321
Chianti	1321
fet@@	1320
mud@@	1320
explo@@	1320
puzzles	1320
Refer@@	1320
495	1320
Rock@@	1320
phrases	1319
habitat	1319
hatred	1319
950	1319
ds@@	1319
Fü@@	1319
waren	1319
sponsors	1318
Multi-@@	1318
witnessed	1318
terrorists	1318
wholly	1318
Luis	1318
liquidity	1318
dream@@	1318
gger	1318
Jose	1318
physician	1318
г@@	1318
Terme	1318
kan	1317
minded	1317
void	1317
less@@	1317
after@@	1317
223	1317
tum@@	1317
View@@	1317
tho@@	1317
Sty@@	1317
v.	1317
urgency	1316
exploited	1316
micro	1316
ts-@@	1316
delights	1316
tte	1316
1947	1316
Sl@@	1316
Objective	1315
m3	1315
clearance	1315
global@@	1315
environs	1315
Hag@@	1315
Judgment	1315
Used	1315
housed	1315
Spacious	1315
G.@@	1315
DU@@	1315
generic	1314
Ces@@	1314
PhD	1314
25.00	1314
Gallen	1314
a0@@	1314
Soundproof	1314
Vac@@	1313
nos	1313
sticks	1313
uncomfortable	1313
milestone	1313
1951	1313
dell	1313
Ray	1313
Lec@@	1313
nal	1312
posters	1312
resin	1312
inc	1312
nationality	1311
1923	1311
ring@@	1311
weights	1311
In-@@	1311
iframe	1311
gram	1311
Bell	1311
Thirdly	1310
Madeira	1310
311	1310
640	1310
Sci@@	1310
470	1310
connectors	1310
Know	1310
wirklich	1310
challenged	1309
Rü@@	1309
intr@@	1309
synthesis	1309
socialism	1309
Supplier	1309
color@@	1309
youngest	1308
ROM	1308
matched	1308
distributor	1308
Cards	1308
ion@@	1308
tum	1308
Interface	1308
cz	1308
logging	1307
outset	1307
anza	1307
pubs	1307
schul@@	1307
и	1307
products.htm	1307
deadlines	1306
Likewise	1306
microphone	1306
Well@@	1306
diagnostics	1306
319	1306
224	1306
ce-@@	1306
buch@@	1306
Tool@@	1306
contradiction	1305
controllers	1305
PV@@	1305
itable	1305
Info@@	1305
HT@@	1305
stän@@	1305
emphasize	1305
NOTE	1305
32-bit	1305
exemption	1304
hm	1304
inventions	1304
Lis@@	1304
oming	1304
Contains	1304
.ypages@@	1304
hopefully	1303
combustion	1303
harsh	1303
Ara@@	1303
sche@@	1303
lows	1303
tura	1303
Tips	1303
mansion	1303
AUT@@	1303
DESCRIPTION@@	1303
Dürr	1303
Reform	1302
conversations	1302
reserv@@	1302
atri@@	1302
Weimar	1302
uri	1302
Odyssey	1302
Paso	1302
GB@@	1302
kein	1302
attendance	1301
ethics	1301
intervene	1301
explaining	1301
sorted	1301
rever@@	1301
238	1301
ls@@	1301
Stalin	1301
th-century	1301
Creation	1301
8.0	1301
jewelry	1301
Cars	1300
mainland	1300
ious	1300
livestock	1300
249	1300
spell	1300
upgrading	1300
8.3	1300
Chain	1300
thermo@@	1300
Spi@@	1300
Metals	1300
Autor	1300
sportive	1300
touches	1299
lane	1299
collector	1299
Spl@@	1299
ã	1299
www.demi-art.com	1299
novelty	1298
proprietary	1298
me-@@	1297
oll	1297
ook	1297
boss	1297
polar	1297
Commun@@	1297
Operations	1297
Hilton	1297
Jura	1297
Chemical	1297
rik	1297
storing	1296
soccer	1296
Designer	1296
erste	1296
Alber@@	1296
wurden	1296
double-click	1296
appealing	1295
tou@@	1295
corridor	1295
Temperature	1295
viele	1295
PST	1295
Loire	1294
Too	1294
WHO	1294
Chal@@	1294
tees	1294
depart	1294
evangel@@	1294
137@@	1294
Boys	1294
aph@@	1294
entertaining	1294
fahr@@	1294
digi@@	1294
justification	1293
facilitates	1293
Tem@@	1293
Weber	1293
Sole	1293
rin@@	1293
Rij@@	1293
p.	1293
Self	1293
diocese	1293
discs	1293
Geschrieben	1293
desktopdefault.aspx	1293
precautionary	1292
viol@@	1292
invasion	1292
Dub@@	1292
tsch@@	1292
Tak@@	1292
tranquil	1292
ped@@	1291
configurations	1291
x.com	1291
on.@@	1291
lemon	1291
cru@@	1290
dum@@	1290
insul@@	1290
discourse	1290
reminds	1290
Prior	1290
Advisory	1290
school@@	1290
ried	1290
plateau	1290
6.1	1290
TEC	1290
Ric@@	1290
Film@@	1290
inspire	1289
resting	1289
motorcycle	1289
Boards	1289
Str	1289
feasible	1288
erc@@	1288
picking	1288
wom@@	1288
salad	1288
0x@@	1288
Recent	1287
surprises	1287
there@@	1287
forgiveness	1287
achi@@	1287
soap	1287
Rates	1287
chalet	1287
veröffentlicht	1287
blogspot.com	1287
expecting	1286
drafting	1286
regimes	1286
manipulation	1286
Popular	1286
boring	1286
Elizabeth	1286
hobby	1286
ra-@@	1286
Mail@@	1286
bs@@	1286
zel	1286
rei@@	1286
212@@	1286
Nonetheless	1285
tensions	1285
Pag@@	1285
onian	1285
Acc@@	1285
Secret	1285
oa	1285
Practice	1285
Term	1285
Palm	1285
kh@@	1285
L.@@	1285
maid	1285
IST@@	1285
-2	1285
.07	1285
Benedict	1285
delegates	1284
upgraded	1284
Lil@@	1284
are-@@	1284
Dres@@	1284
isches	1284
exchanged	1283
ulating	1283
normal@@	1283
liabilities	1283
understands	1283
tionally	1283
electromagnetic	1283
ABS	1283
assen	1283
milling	1283
PlayStation	1283
img.docstoccdn.com	1283
responding	1282
stringent	1282
Peter@@	1282
character@@	1282
Maz@@	1282
Muhammad	1282
Jet	1282
aller	1282
dabei	1282
a.org	1282
tabid-@@	1282
objections	1281
Proc@@	1281
Cin@@	1281
TS@@	1281
glue	1281
148@@	1281
dent@@	1281
IVE	1281
Desktop	1281
Baum@@	1281
compensate	1280
Quite	1280
Gaz@@	1280
lear@@	1280
MO	1280
Et@@	1280
Eden	1280
ideology	1279
-out	1279
basics	1279
merge	1279
Gos@@	1279
Philip	1279
offensive	1278
Pé@@	1278
Banking	1278
rein@@	1278
001	1278
Catherine	1278
silk	1278
Tarifa	1278
Designed	1278
a8@@	1278
Jörg	1277
austerity	1277
personalities	1277
Frank@@	1277
213	1277
touching	1277
predominantly	1277
alis	1277
ciudad-de-la-habana.amarillaslahabana.net	1277
where@@	1276
conceptual	1276
presently	1276
Directives	1276
protocols	1276
266	1276
Documents	1276
til	1276
193	1276
connectivity	1276
bot	1276
webcam	1276
pronounced	1275
sos	1275
aco	1275
peti@@	1275
abe@@	1275
biotechnology	1275
1917	1275
unclean	1275
CIS	1275
Eu@@	1275
Nik@@	1275
Energi@@	1275
Ei@@	1274
-de-@@	1274
nicely	1274
chair@@	1274
197	1274
Miguel	1274
Alfred	1274
doc	1274
Bild@@	1274
smartphone	1274
objection	1273
attain	1273
illusion	1273
gru@@	1273
Marseille	1273
Remote	1273
t.	1273
Oerlikon	1273
2.fotky-foto.cz	1273
exam@@	1272
shaping	1272
crowded	1272
rie	1272
Burma	1272
stems	1272
Baden-Württemberg	1272
Clear	1272
Turin	1272
Shel@@	1272
editors	1272
handmade	1272
u0@@	1272
encies	1271
total@@	1271
smo@@	1271
sham@@	1271
appearances	1271
campus	1271
Chr@@	1271
ahn@@	1271
Arbeit	1271
71@@	1271
navig@@	1270
Particularly	1270
dan	1270
christ@@	1270
groves	1270
XVI	1270
ART	1270
Ghost	1270
www.iofc.org	1270
.05	1269
associates	1269
bla@@	1269
gues	1269
zon@@	1269
cyclists	1269
Rest@@	1269
nick@@	1269
0.2	1269
Johnson	1269
Elevator	1269
username	1269
Jon@@	1268
appropriations	1268
readily	1268
Uganda	1268
saint	1268
Integr@@	1268
chil@@	1268
Documentation	1268
Austin	1268
rä@@	1268
ejaculation	1268
TCP	1268
grasp	1267
Religion	1267
utes	1267
301	1267
Whereas	1267
departed	1267
Kim	1267
1914	1267
139@@	1267
Vancouver	1267
Beg@@	1267
n.@@	1267
Will@@	1267
profitability	1266
ambient	1266
hereby	1266
simpler	1266
ta-@@	1266
up-@@	1266
Blood	1266
Feder@@	1266
Catalunya	1266
Romantic	1266
baptism	1266
negligence	1265
jud@@	1265
versa	1265
republic	1265
diabetes	1265
elaborate	1265
č	1265
510	1265
Copy	1265
interiors	1265
hotel-@@	1265
Lorenzo	1265
EADS	1265
tabernacle	1265
UT	1265
proclaimed	1264
maturity	1264
interval	1264
icians	1264
Hours	1264
Bruno	1263
defending	1263
TB	1263
shor@@	1263
Algarve	1263
Def@@	1263
schule	1263
Ausbildung	1263
tische	1263
puertorico.amarill	1263
Parliamentary	1262
right@@	1262
Antwerp	1262
owski	1262
Archbishop	1262
sey	1262
daylight	1262
optimally	1262
Brooklyn	1262
adi	1262
Luke	1262
stimulating	1261
sively	1261
rio	1261
shoulders	1261
inging	1261
gaz@@	1261
Andy	1261
Stephan	1261
DEL@@	1261
cd	1261
describing	1260
clever	1260
RT	1260
Côte	1260
weighing	1260
Electronics	1260
178@@	1260
urged	1259
compassion	1259
Governments	1259
789	1259
bent	1259
poured	1259
Haz@@	1259
geometry	1259
Championships	1259
PRE@@	1259
Quali@@	1259
Navigation	1259
eb	1259
dpi	1259
attentive	1258
approached	1258
suspected	1258
lest	1258
rejoice	1258
ant-@@	1258
diff@@	1258
Carbon	1258
litz	1258
Solution	1258
alen	1258
clearer	1257
motions	1257
anta	1257
skating	1257
Included	1257
Hof@@	1257
208@@	1257
Late@@	1257
weitere	1257
Chapel	1257
prayed	1257
stellen	1257
CER@@	1256
strengthens	1256
Dé@@	1256
pockets	1256
iter	1256
iden@@	1256
conv@@	1256
repertoire	1256
Distribution	1256
Publishing	1256
renting	1256
calibration	1256
c6@@	1256
itting	1255
traders	1255
zel@@	1255
hikes	1255
xy@@	1255
eras	1255
Complaints	1255
ks@@	1255
facial	1255
Ind@@	1255
TU	1255
glacier	1255
Europe@@	1254
recruitment	1254
clean@@	1254
stit@@	1254
Imprint	1254
Crimea	1254
commissioning	1254
MAT@@	1254
tutorial	1254
Lyn@@	1253
racism	1253
regeneration	1253
pile	1253
rowing	1253
Goethe	1253
notable	1253
WS	1253
seals	1253
besch@@	1253
chers	1252
reck@@	1252
debts	1252
Self-@@	1252
scal@@	1252
Securities	1252
ridge	1252
zip@@	1252
garments	1252
qualitative	1251
poses	1251
populated	1251
Serbian	1251
doubled	1251
Rostock	1251
navigate	1251
ings@@	1251
Ð@@	1251
damaging	1250
3,5	1250
biomass	1249
cocoa	1249
fast-@@	1249
stic@@	1249
246	1249
1100	1249
ideological	1248
inspections	1248
Bren@@	1248
Techn@@	1248
Bahn	1248
Low@@	1248
Lic@@	1248
ww@@	1248
Nicht	1248
169@@	1248
eption	1247
Frequently	1247
subjective	1247
fts	1247
fest	1247
scent	1247
Rainer	1247
hren@@	1246
treaties	1246
start-up	1246
treats	1246
peasants	1246
sail@@	1246
Melbourne	1246
PB	1246
EQA	1246
left-hand	1245
borg	1245
spiral	1245
onists	1245
Viennese	1245
thouse	1245
editions	1245
359@@	1245
differs	1244
Fortunately	1244
staged	1244
clinics	1244
Beethoven	1244
qualifying	1244
how@@	1244
BV@@	1244
Claudia	1244
Alicante	1243
cheap@@	1243
contractor	1243
Intelligence	1243
clips	1243
ao@@	1243
vendita	1243
impetus	1242
donors	1242
7.1	1242
Christopher	1242
unt	1242
Nep@@	1242
mont	1242
Flower	1242
Mastercard	1242
tackling	1241
Doctor	1241
laugh	1241
Founded	1241
möglich	1241
tico	1241
mortality	1240
multiplied	1240
lav	1240
dijk	1240
tram@@	1240
kits	1240
umin@@	1240
accessory	1240
Catal@@	1240
manufactures	1240
Skiing	1240
dome	1240
mirrors	1240
predecessor	1239
trou@@	1239
mp	1239
sensation	1239
Polo	1239
uren	1239
Trail	1239
a4@@	1239
searched	1238
Tap@@	1238
chy	1238
opol@@	1238
missionary	1238
free@@	1238
Memorial	1238
Dank	1238
GHz	1238
accelerated	1237
flee	1237
4.4	1237
consciously	1237
alla	1237
dv@@	1237
eger	1237
gem	1237
ancestors	1237
Incorrect	1237
affair	1236
forwarded	1236
contacted	1236
Nap@@	1236
liner	1236
194@@	1236
Technik	1236
0.000	1236
www.al@@	1236
Friedrich@@	1236
hob	1236
embrace	1235
practitioners	1235
traveller	1235
ña	1235
Kurt	1235
train@@	1235
kun@@	1235
Kit@@	1235
alloy	1235
Zum	1235
Featuring	1235
simplification	1234
repe@@	1234
Arm@@	1234
cafés	1234
You@@	1234
whirlpool	1234
Ultimate	1234
Sitemap	1234
schu@@	1234
preparatory	1233
vocabulary	1233
correspondence	1233
hler	1233
gauge	1233
Sak@@	1233
intern@@	1233
pioneer	1233
hof@@	1233
tray	1233
xi@@	1233
print@@	1233
328@@	1233
fulfilment	1232
crimin@@	1232
hunt	1232
six-@@	1232
rewarded	1232
nitrogen	1232
ent.@@	1232
-B@@	1232
2,500	1232
H2	1232
equipment.htm	1232
Something	1231
etz	1231
margins	1231
Origin	1231
kins	1231
eurozone	1231
5.6	1231
Scripture	1231
ī@@	1231
www.z@@	1231
Apache	1231
ARE	1231
avec	1231
destroying	1230
wed@@	1230
dh@@	1230
pilgrimage	1230
DOS	1230
zuletzt	1230
originated	1229
beverage	1229
Lanzarote	1229
graduates	1229
,5	1229
Deutschen	1229
ZIP	1229
searches	1228
cereals	1228
illustration	1228
loo@@	1228
047@@	1228
polished	1228
Anthony	1228
Ever@@	1228
4,000	1228
schön	1228
ML	1228
feared	1227
ital	1227
detention	1227
oso	1227
Newspaper	1227
TU@@	1227
umen	1227
156@@	1227
tely	1226
contractors	1226
hitting	1226
nica	1226
Nur@@	1226
Returns	1226
Win	1226
Messenger	1226
.com.@@	1226
Bluetooth	1226
getlang	1226
Assistance	1225
eman	1225
Nit@@	1225
Nick	1225
ph	1225
west@@	1225
Yellow	1225
stehen	1225
org	1225
Kazakhstan	1224
feeds	1224
Journ@@	1224
kid@@	1224
gent@@	1224
Mirror	1224
Cand@@	1224
lassen	1224
cows	1223
fat@@	1223
metallic	1223
goats	1223
influential	1223
Industries	1223
broad@@	1223
circuits	1223
atis@@	1223
Concept	1223
Hus@@	1223
vol	1223
ş@@	1223
firmware	1223
lesen	1223
eded	1222
fru@@	1222
albeit	1222
optimised	1222
unwanted	1222
35-@@	1222
rab@@	1222
Oracle	1222
tro	1222
kostenlos	1222
Controller	1221
maj@@	1221
esia	1221
newer	1221
LEDs	1221
Mou@@	1221
6000	1221
skip	1221
coatings	1221
UP	1221
149@@	1221
CNC	1221
Rovinj	1221
abandon	1220
salary	1220
sberg	1220
Deb@@	1220
mur@@	1220
Zw@@	1220
ley@@	1220
ug	1220
chassis	1220
Ihrer	1220
displaced	1219
payable	1219
33-@@	1219
7.00	1219
dragon	1219
ladder	1219
les-@@	1219
trunk	1219
javascript	1219
ing.html	1219
remark	1218
remuneration	1218
murdered	1218
advertisements	1218
Exp@@	1218
calcium	1218
Campus	1218
Boutique	1218
330@@	1218
wen@@	1218
repression	1217
Frau	1217
possesses	1217
breathe	1217
visi@@	1217
Hell	1217
ale@@	1217
parquet	1217
е	1217
[...]
