"	24736146
,	21270602
.	15195349
der	9230266
/	9135943
und	8351968
die	7927108
)	6423772
(	6244725
:	6217656
von	5063441
in	4759353
mit	4455209
zu	3002140
ist	2654508
Sie	2607144
-	2538762
den	2532221
für	2469505
oder	2270336
bei	2218169
des	2161025
eine	2125847
auf	2123555
werden	2112252
Die	2010026
1	2000802
das	1938048
nicht	1862400
einer	1737778
im	1674953
Patienten	1515738
mg	1473047
wird	1443214
ein	1392344
dem	1359862
%	1315154
als	1236401
an	1218924
sich	1197817
sind	1178625
zur	1132111
es	1116068
nach	1072209
dass	967861
2	913110
?	880106
über	879876
wurde	877341
um	852899
kann	835899
bis	830704
auch	809370
einem	804510
Behandlung	764006
10	762034
+	761532
aus	727653
einen	694094
wie	679896
haben	679238
ml	655357
-@@	651369
Der	643703
;	638614
3	638501
wenn	636453
durch	627350
http	621863
EU	618087
können	617790
sie	610349
wurden	594076
zum	583431
_	576457
•	575294
vor	573403
Es	560962
Das	556364
In	551673
am	539460
4	532196
Anwendung	525840
hat	522322
5	515456
unter	508850
er	504298
Bei	486654
=	474892
wir	459232
keine	457123
nur	449440
7	447580
“	446850
war	439688
12	435888
20	430763
Dosis	426242
00	425910
–	415146
a	411259
!	410916
sollte	410915
siehe	409662
30	408678
„	405247
*	396504
Wenn	392743
Arzneimittel	387097
]	385538
Arzt	378645
>	377388
6	376552
€	376509
the	373772
anderen	372248
ich	371452
so	370043
Studien	369121
15	368975
s	368495
dieser	367853
sein	366937
100	365466
mehr	361343
diese	359432
[	357712
on	352781
0	352313
angewendet	351924
was	349731
16	338210
50	334847
Nebenwirkungen	330491
enthält	328833
eines	327558
11	325624
während	323025
Abschnitt	321832
alle	320032
'	317004
de	315732
17	312345
8	306166
aber	305194
18	303921
sowie	299750
2016	299410
of	298799
<	296211
&	295793
...	290788
C	289584
14	289302
noch	282787
vom	282680
Eine	276412
gegen	276217
m	275913
and	274066
25	273670
Tabletten	272401
sollten	261478
07	261085
Wie	257132
sehr	252701
müssen	250303
is	250096
Ihnen	249676
x	248046
zwischen	244307
24	242703
Daten	241643
muss	241305
Ihr	241010
01	240741
B	239301
Tel	238969
#	237850
Tag	237580
uns	236844
21	235956
06	235851
da	234811
13	233835
täglich	231074
kg	231066
t	230038
andere	228091
08	228051
»	227906
02	227565
waren	226095
man	225414
Ihre	221595
zwei	221561
ver@@	221453
22	221321
Jahren	217782
Studie	217776
Diese	215307
19	215171
n	212919
e	212273
klinischen	212167
an@@	211881
te	211431
Stunden	210937
ohne	210397
ab	210353
Im	209677
Informationen	209341
er@@	207764
Wochen	206456
9	206260
40	203469
04	201592
en	200654
Wir	198035
Ihren	197583
g	195932
Nach	195261
The	194912
03	194657
o	193769
Lösung	192509
Ich	191444
gibt	190859
23	190516
28	190040
darf	189667
to	189003
e@@	187766
s@@	187186
un@@	186687
I	186473
www.@@	186159
i	186133
°	185530
denen	184846
hier	184401
Nächte	184391
beobachtet	183852
pro	181761
A	180670
05	179199
diesem	178503
en@@	177510
Zeit	177306
empfohlen	176636
dieses	176155
jedoch	176046
Einnahme	174827
Menschen	173523
diesen	173465
Wirksamkeit	173185
S@@	172623
erhalten	172202
ersten	172029
Jahre	171978
09	170947
be@@	170837
Risiko	169000
dann	167538
daß	167266
ab@@	167235
Durchstechflasche	167212
l	166693
T@@	166136
ihre	165549
A@@	165378
c@@	163500
ten	162830
Kombination	162011
untersucht	161914
d@@	161338
E@@	160529
Therapie	160114
einmal	159832
in@@	157947
behandelt	157921
2015	156992
Seite	156529
EMEA	156292
6@@	156215
d	155108
60	154144
immer	154052
Ein	152611
t@@	151595
innerhalb	151543
ge@@	151521
Kommission	151445
beim	150885
a@@	150210
Was	149840
Hotel	149459
k@@	149228
Injektion	149048
C@@	149010
7@@	148845
g@@	148437
verabreicht	148335
Für	148273
Jahr	148245
9@@	147696
o@@	147463
8@@	146977
ein@@	146472
einschließlich	146194
Filmtabletten	145333
K@@	145136
erforderlich	144672
gegenüber	144415
P@@	144361
Tage	143698
März	143314
Arzneimitteln	142317
PM	141768
wieder	141249
5@@	140999
sa	140337
Kindern	140029
Europäischen	139366
finden	139114
G@@	138794
Ihrem	138638
f@@	138245
b@@	137671
An@@	137354
p	136734
2008	136723
B@@	136333
auftreten	135687
Wirkung	135307
4@@	135125
zusammen	135120
26	135087
allen	134804
dies	134108
Ab@@	133891
seine	133851
F@@	133659
km	132427
Injektionslösung	132412
eingenommen	131777
h	131727
«	131664
.@@	131583
Gabe	131469
2010	131106
Symptome	130985
E	130627
damit	130226
Anzahl	129940
Ver@@	129745
2009	129617
Und	129481
DER	128559
Dosierung	128520
p@@	128431
drei	128077
27	128025
80	127063
L@@	126280
N@@	126256
H@@	125182
ob	125118
Wasser	124874
M@@	124859
2007	124767
führen	124710
45	124416
V@@	124345
al@@	124324
ter	123420
n@@	123344
Pulver	123225
ihr	123166
Kinder	123133
neue	123108
berichtet	122779
O@@	122545
Mit	122175
Frauen	121533
Unternehmen	121469
31	121349
D@@	121092
29	120890
R@@	120698
for	120560
bereits	120509
49	119500
bzw.	119421
y	117619
u@@	117320
Zusammenhang	117291
Woche	117245
Entwicklung	116284
≥	116047
2011	115595
Inverkehrbringen	114640
32	114621
y@@	114588
Haut	114346
200	114028
33	113872
3@@	113768
z@@	113636
durchgeführt	113621
weniger	113607
i@@	113544
aus@@	113106
folgenden	112801
Dosen	112789
Genehmigung	112766
90	112745
m@@	112469
mindestens	112375
not	112357
48	112290
2006	111584
weitere	111517
Verabreichung	111420
soll	111349
de@@	111319
35	111318
etwa	111297
Uhr	110697
Dies	110568
Herstellung	110558
Vergleich	110044
Da	109846
einnehmen	109829
verwendet	109632
2013	109576
re@@	109549
Personen	109439
2012	108905
2014	108892
Bereich	108752
Einnehmen	108609
h@@	108587
c	108259
neuen	108136
this	107993
Schwangerschaft	107708
Vorsicht	107705
Be@@	107656
al	107515
liegen	107389
liegt	107287
Erkrankungen	107008
56	106487
I.E.	105902
bekannt	105894
sch@@	105848
2@@	105720
Deutschland	105068
I@@	104794
Insulin	104401
4.4	104394
beträgt	104306
at	104266
Sicherheit	104162
Posted	103432
W@@	103311
b	103281
44	103255
hatten	102500
unsere	102411
ihrer	102328
seit	102314
ar@@	102248
möglich	102218
erhielten	101898
v@@	101817
Alter	101687
98	101393
tes	101232
”	100847
Ein@@	100011
gut	99976
Mikrogramm	99232
worden	98940
du	98780
Union	98485
300	98222
Art	97960
Bestandteile	97823
0,5	97279
lassen	97097
r@@	97076
seiner	97061
Placebo	96844
Gruppe	96804
bietet	96759
möglicherweise	96749
häufig	96648
kein	96636
34	96454
deren	96378
hatte	95881
besteht	95831
Monate	95807
ch@@	95798
kommen	95766
dürfen	95733
darauf	95568
ge	95194
S	95128
36	95092
k	94967
auf@@	94776
Packung	94775
Er	93922
insbesondere	93440
Infektionen	93099
Reaktionen	93066
39	92910
75	92498
500	92454
bitte	91955
Blut	91827
je	91740
el@@	91725
st	91694
selbst	91672
aufgrund	91211
Teil	91172
Ergebnisse	91111
Tablette	91054
10@@	91048
um@@	91044
URL	90723
August	89989
st@@	89842
September	89838
ent@@	89397
ale	89336
.com	89320
Z@@	89251
zweimal	88929
Arzneimittels	88883
Ritonavir	88815
Minuten	88783
D	88723
43	88689
150	88491
CHMP	88365
as	88146
l@@	87996
2005	87955
daher	87764
beiden	87752
41	87471
über@@	87461
GmbH	87316
gegeben	87281
UTC	86960
IST	86495
Rahmen	86482
te@@	86001
70	85766
ungs@@	85651
ma@@	85612
enthalten	85500
Alle	85352
viele	85208
sondern	85207
Hotels	85105
machen	84985
di@@	84969
November	84967
la@@	84716
Auf	84595
Vor@@	84549
habe	84446
mich	84437
Zimmer	84285
vor@@	84264
42	84169
Ihrer	84156
Lösungsmittel	84150
ti@@	84117
Inhalt	83988
Welt	83956
²	83923
Tagen	83881
on@@	83767
w@@	83758
j@@	83659
Artikel	83635
gezeigt	83627
Ende	83320
Jede	83256
by	83134
400	83133
Re@@	82988
gen	82972
95	82799
.de	82690
It	82653
…	82548
behandelten	82463
se	82342
2000	82256
1@@	82163
AUF	82068
einige	81952
AM	81805
J@@	81758
Fall	81662
stehen	81435
denn	81403
ung	81106
or	80879
.htm	80780
Beginn	80753
Fällen	80648
18@@	80478
entsprechend	80376
46	80250
Schmerzen	79822
Falls	79768
or@@	79592
Wirkungen	79582
Er@@	79172
schon	79082
000	78850
erhöht	78832
mm	78564
dazu	78491
li@@	78329
97	78275
Fertigspritze	78161
wo	77739
weiter	77720
u	77628
x@@	77606
erreicht	77450
min	77418
Europäische	76931
ungen	76922
mir	76920
Monaten	76836
welche	76613
unserer	76603
zu@@	76518
Von	76479
U@@	76265
April	76226
letzten	76007
47	75844
38	75707
ihren	75539
Zur	75243
2004	75199
Körpergewicht	74932
Menge	74912
37	74743
Aus@@	74712
’	74658
Verfügung	74235
ganz	74125
w	73975
T	73972
55	73954
viel	73917
Erwachsenen	73840
In@@	73786
ende	73442
ter@@	73439
Verbindung	73327
anwenden	73326
sehen	73279
sofort	73265
Weitere	73178
geht	73082
Stadt	73067
Infusion	73063
Erkrankung	73051
Um	73030
server	72945
found	72830
52	72769
e-@@	72678
heute	72479
µg	72216
Wirkstoff	71968
weil	71951
@	71861
sten	71735
us	71707
Nutzen	71617
currently	71553
stellen	71426
X@@	71372
gleichzeitig	71326
jetzt	71017
keinen	70954
....	70879
Maßnahmen	70826
jeder	70792
sonstigen	70718
Herr	70636
steht	70499
etwas	70448
Oktober	70324
seinen	70288
nehmen	70284
Europa	70269
15@@	70208
führt	70131
Erbrechen	70088
z	70040
99	69990
geben	69865
hin	69719
da@@	69640
Übelkeit	69580
selten	69489
Dieses	69432
2001	69424
bevor	69332
vier	69270
requested	69243
cm	69113
sowohl	69085
könnte	69050
ation	68936
14@@	68726
alen	68553
verschiedenen	68517
ts	68318
ischen	68253
1,@@	68137
et@@	68116
mi@@	67848
r	67807
Spritze	67729
84	67723
erhöhte	67649
Mai	67625
Typ	67523
16@@	67517
si@@	67503
it	67465
ing	67397
Bitte	67376
pm	67354
einfach	67309
Häufigkeit	67294
Ge@@	67291
el	67118
Auch	67106
Mitgliedstaaten	67075
be	67072
Zum	67035
erste	66908
UND	66843
H	66774
Form	66661
allem	66647
Sch@@	66373
So	66306
Als	66048
meisten	65930
jedem	65927
Tabelle	65916
kommt	65892
ne	65888
Daher	65887
le@@	65881
ische	65820
13@@	65774
Produkte	65680
leicht	65630
Preis	65348
Juni	65276
Packungsbeilage	65096
Maschinen	64963
besonders	64947
der@@	64861
ihn	64790
N	64715
schweren	64665
ihm	64646
Fragen	64632
51	64620
sollen	64443
verbunden	64426
dabei	64424
Reply	64405
Anstieg	64298
le	64245
Nierenfunktion	64183
0@@	64171
May	64048
enden	64022
This	63987
lang	63975
Suspension	63850
Ereignisse	63806
ss@@	63644
gesamten	63465
z.B.	63458
Juli	63374
Un@@	63336
v	63325
entfernt	63097
is@@	63042
V	63041
Ma@@	62988
se@@	62953
betrug	62904
{	62793
ur@@	62747
54	62743
ro@@	62702
17@@	62619
aller	62611
nun	62581
gen@@	62494
PVC	62415
M	62217
Aug	62186
12@@	62035
are	62009
Während	61846
2003	61789
Verwendung	61604
Pharmakokinetik	61590
Verfahren	61561
ihnen	61553
2-@@	61496
Infektion	61488
1.	61462
davon	61385
gleichzeitige	61329
einigen	61264
ch	61251
ra@@	61143
Lage	60974
s-@@	60818
58	60702
ern	60651
großen	60619
L	60497
53	60408
große	60406
}	60398
konnte	60396
befindet	60238
os	60188
schwerer	60091
59	60062
65	59897
Haus	59878
Arbeit	59829
Impfstoff	59758
eingesetzt	59748
Y@@	59708
verwenden	59708
ebenfalls	59570
EUR	59521
direkt	59417
Zahl	59396
Namen	59355
20@@	59338
m2	59197
F	59166
all	59099
times	58993
1-@@	58911
Rat	58906
Al@@	58823
liche	58806
Beispiel	58650
end	58589
96	58566
sp@@	58550
lo@@	58527
Ratten	58419
insgesamt	58402
oben	58389
leiden	58329
unseren	58320
Nicht	58320
WIE	58306
at@@	58295
alles	58246
Auf@@	58198
verglichen	58168
2002	58135
Exposition	57990
57	57988
Hepatitis	57967
AUC	57951
sei	57876
Anzeichen	57844
Körper	57824
1000	57699
ens	57667
Sehr	57584
ins	57534
bin	57483
f	57443
System	57424
em	57410
Fax	57328
kam	57320
ie	57276
1.@@	57187
250	57133
genau	57057
ger	56913
III	56840
Person	56535
Leben	56253
Möglichkeit	56177
hinaus	56171
alfa	56013
erhältlich	56005
ca.	55971
ja	55766
will	55688
klinische	55639
Ã	55633
Unterstützung	55587
Veränderungen	55513
ol@@	55422
Ort	55374
3-@@	55305
ck@@	55178
zeigte	55149
Auswirkungen	55071
O	55067
ger@@	55063
Blisterpackung	55046
sen	55025
Durchstechflaschen	54999
gehen	54968
halten	54833
empfohlene	54774
Website	54755
also	54689
Zeitraum	54651
Ausschuss	54574
Dauer	54530
folgende	54496
600	54402
ko@@	54391
mal	54274
WAS	54138
Kopfschmerzen	54127
informieren	53942
klinisch	53873
P	53850
entweder	53840
19@@	53818
Kunden	53773
0,@@	53667
schnell	53542
wirkt	53528
wichtig	53518
möchte	53495
doch	53473
Winthrop	53440
ul@@	53421
$	53393
B.	53232
dafür	53224
Dieser	53171
Risiken	53036
allein	53027
op@@	53007
et	53003
Fieber	52974
zeigen	52968
001	52962
Nehmen	52956
unter@@	52925
chen	52925
darüber	52920
schwere	52917
bestimmt	52859
00@@	52834
zurück	52815
ad@@	52789
Erfahrungen	52787
würde	52752
Land	52675
Aber	52673
ei@@	52654
ste	52650
notwendig	52643
sicher	52592
Frau	52475
II	52450
Flasche	52425
Weise	52419
us@@	52414
Januar	52368
en-@@	52144
it@@	52125
Mar@@	52067
ieren	52066
weiteren	51990
Zu	51910
Samstag	51890
ac@@	51768
Ar@@	51730
den@@	51721
seiten	51714
Version	51693
Den	51671
Kind	51453
USA	51397
gemäß	51329
Frankreich	51285
120	51242
Probanden	51199
bar	51091
Hartkapseln	51084
me	51080
ck	51009
wobei	50989
ID	50974
jeden	50943
lange	50931
Über@@	50926
europäischen	50841
Freitag	50835
2,5	50759
ri@@	50740
bieten	50734
Vor	50670
74	50658
Injektionsstelle	50645
am@@	50533
you	50496
ta@@	50483
Donnerstag	50437
ler	50315
Auftreten	50215
Besondere	50084
na@@	50066
in-@@	50061
zeigten	50052
Dezember	50039
Bild	50032
Internet	49994
Kapseln	49963
wegen	49831
25@@	49731
Weg	49632
Am	49587
zeigt	49420
Reaktion	49397
Irbesartan	49323
lichen	49318
Ro@@	49312
Vorteile	49299
bestimmte	49261
Überwachung	49241
ischer	49202
setzen	49057
ed	49025
ziehen	49022
bringen	48978
De@@	48977
t-@@	48946
Hier	48932
hohen	48916
Erfahrung	48871
Ziel	48794
Patient	48745
30@@	48730
indem	48724
gelbe	48722
12.	48677
Qualität	48664
Frage	48500
Unter@@	48446
do@@	48355
zweiten	48311
a-@@	48305
elle	48279
erreichen	48277
10.	48209
Nadel	48187
Werte	48186
4.2	48153
erfolgen	48149
tr@@	48095
la	48078
ten@@	48074
wollen	48024
27@@	48020
Fälle	48009
Verbesserung	47954
erst	47950
falls	47871
überwacht	47841
11.	47832
Ihres	47626
sagen	47561
tun	47554
Produkt	47436
ve	47398
Millionen	47364
Bericht	47346
vergessen	47223
1.000	47199
Filmtablette	47148
Aktivität	47089
gab	47070
.html	47034
28@@	47000
Name	46945
ber@@	46905
Blutungen	46883
Pharma	46879
Durch	46805
lich	46795
Interferon	46781
nachgewiesen	46716
Nähe	46686
G	46637
Kontrolle	46565
zugelassen	46469
Jugendlichen	46429
Infusionslösung	46390
with	46388
Schwindel	46377
handelt	46376
ar	46365
anderer	46350
au@@	46331
signifikant	46314
seinem	46291
Impfung	46161
Pen	46124
page	46111
ers	46098
24@@	46095
eigenen	45996
schwanger	45993
Patientinnen	45988
Gott	45972
jede	45964
4-@@	45957
2.	45871
ce	45867
EU-@@	45830
Hilfe	45775
Zusammenfassung	45765
Mittel	45734
th@@	45722
jeweils	45646
verursacht	45616
vermeiden	45595
euch	45591
iert	45473
co@@	45383
ne@@	45366
from	45288
Blutdruck	45236
me@@	45155
Co@@	45146
il@@	45109
to@@	44995
d-@@	44955
Haupt@@	44936
Februar	44929
sa@@	44869
sk@@	44863
Kontakt	44783
bereich	44736
ung@@	44693
CPMP	44673
Wechselwirkungen	44645
Erhöhung	44581
allergisch	44544
meine	44507
Le@@	44456
Zusammenarbeit	44454
Apotheker	44442
führte	44419
vielen	44417
Stillzeit	44409
Monat	44406
stark	44390
einzelnen	44384
ap@@	44256
1,5	44163
gehört	44065
A-@@	43880
vi@@	43857
entwickelt	43773
Merkmale	43769
2.@@	43744
Injektionszwecke	43717
\	43673
Ansprechen	43611
Ribavirin	43604
Wert	43479
isch	43431
stellt	43383
no@@	43230
AG	43155
R	43129
Einfluss	43111
gleichen	43068
ner	43029
26@@	43020
Euro	42994
dort	42974
zeit	42941
unten	42928
Pflaster	42922
Augen	42918
Di@@	42875
tem	42794
now	42783
Grund	42772
Probleme	42768
ungefähr	42733
her@@	42705
weiterhin	42705
Überdosierung	42542
002	42472
erhöhten	42456
vollständig	42298
Berlin	42282
4.8	42256
Präsident	42249
ange@@	42228
angezeigt	42185
Dosisanpassung	42146
überempfindlich	42125
ANGABEN	42114
Se@@	42089
ss	42014
Sp@@	41926
Programm	41921
Phase	41891
festgestellt	41866
gesunden	41819
FÜR	41815
Cmax	41696
erhöhen	41693
dessen	41639
Anhang	41608
Bedeutung	41556
Inhaber	41553
Grundlage	41550
Konzentration	41513
sorgfältig	41499
−	41447
fest	41399
new	41397
ni@@	41394
5-@@	41384
nächsten	41322
kleinen	41286
Außerdem	41206
hinsichtlich	41169
Zu@@	41144
arbeiten	41103
sen@@	41031
Anämie	41027
gebracht	40992
so@@	40978
4.5	40963
Aus	40952
Diabetes	40926
mehrere	40914
besten	40776
gt	40761
om@@	40751
mp@@	40741
macht	40738
höher	40736
Hinweise	40699
Zeitpunkt	40600
4.3	40550
Deshalb	40540
800	40503
entwickeln	40501
K	40490
pro@@	40431
aler	40361
Bildung	40353
ES	40337
sprechen	40306
¼	40269
Italien	40227
Leber	40220
entspricht	40168
Seiten	40166
ssen	40109
Warum	40059
Abschnitte	40050
Antikörper	39921
vollständige	39893
W	39891
time	39889
könnten	39834
weiß	39833
men	39825
Gebrauch	39805
rund	39724
5.2	39711
nen	39697
64	39672
ster	39632
möchten	39599
alfa-2b	39588
©	39535
do	39487
Glas	39480
Agentur	39421
gezogen	39416
bedeutet	39338
o-@@	39329
erwarten	39302
zwar	39301
Bezug	39301
unser	39281
IE	39272
ber	39270
Monotherapie	39265
ken	39262
berichteten	39146
kleine	39122
per	39118
häufigsten	39109
zi@@	39072
ihrem	39011
Untersuchungen	38969
gemacht	38922
Kühlschrank	38891
Aufgrund	38832
wissen	38811
Erwachsene	38810
Toxizität	38810
1998	38809
größere	38808
Nach@@	38793
Hautausschlag	38787
Bau@@	38778
ia	38739
Arbeits@@	38722
Bedienen	38701
älteren	38692
eingeschränkter	38691
ir@@	38690
anti@@	38633
2,@@	38628
Zellen	38583
Ländern	38576
gefunden	38573
MwSt.	38556
Region	38549
internationalen	38485
Niereninsuffizienz	38468
Bed	38466
Problem	38461
10.000	38460
con@@	38398
ierte	38365
29@@	38240
VON	38175
Bedingungen	38170
verfügbar	38154
EN	38128
aufgenommen	38089
Schluss	38080
Um@@	38070
ts@@	38049
nationalen	38035
gi@@	38015
gleichzeitiger	37993
Pro@@	37988
Krankheit	37908
Analyse	37879
Konzentrationen	37839
Einsatz	37819
ke	37813
ep@@	37798
ag@@	37767
besser	37765
ob@@	37733
one	37698
Reihe	37674
sin@@	37655
9.	37584
ine	37567
ka	37509
New	37421
Meer	37419
ser@@	37373
5.1	37371
solche	37273
Hunden	37216
fast	37195
ausreichend	37193
gilt	37161
St@@	37130
72	37118
Geschichte	37105
alt	37055
Rolle	37029
Parlament	37000
traten	36986
bestimmten	36971
Sonntag	36952
ladysilvia	36902
verschiedene	36899
wäre	36895
mo@@	36862
wirksam	36849
Lo@@	36835
X	36820
6-@@	36801
Blut@@	36782
Wasser@@	36764
.jpg	36675
Telefon	36580
Mon@@	36544
verursachen	36541
Leberfunktion	36510
Unsere	36509
Spiel	36498
hohe	36485
Einheiten	36471
Über	36471
beginnen	36466
schen	36419
sechs	36414
Bayer	36394
Mal	36384
ausgeschieden	36369
ster@@	36295
di	36294
Durchfall	36272
Software	36260
fünf	36215
empfohlenen	36212
treten	36199
Kon@@	36173
D-@@	36157
tern	36110
Service	36096
Neu@@	36089
Breakfast	36063
Belgien	36060
ba@@	36052
UMHÜLLUNG	36049
Arztes	36023
3.@@	36021
Bo@@	35999
ati@@	35993
Mehr	35974
Thema	35971
ng	35952
Datei	35946
ff@@	35936
senden	35908
S.	35907
61	35830
Entscheidung	35692
Gesamt@@	35685
erfolgt	35677
La@@	35676
licher	35676
003	35674
Stunde	35605
unserem	35604
beschrieben	35587
ell@@	35578
Urin	35569
35@@	35544
statt	35517
che	35491
Schutz	35458
66	35448
sti@@	35443
bleiben	35433
Blister	35393
Datum	35388
ci@@	35379
fragen	35325
entnehmen	35300
Hypertonie	35285
Zentrum	35265
sogar	35256
außerdem	35236
4.@@	35200
deshalb	35197
Clearance	35116
Mo@@	35115
ho@@	35114
Q@@	35103
Chemotherapie	35081
gel@@	35080
Platz	35074
Par@@	35073
Du	35044
inkl	35023
3.	34982
Spanien	34979
Humalog	34964
Alu	34953
bo@@	34945
ben	34900
unabhängig	34896
Inzidenz	34823
Müdigkeit	34819
sche	34801
Liste	34783
allergische	34763
ie@@	34752
23@@	34741
±	34736
Fähigkeit	34624
zurück@@	34600
Metformin	34597
La	34547
em@@	34467
Blutkörperchen	34460
Richtlinie	34403
gute	34384
g-@@	34371
ex@@	34357
Allgemeinen	34352
weg	34309
ell	34309
neu	34254
004	34230
ähnlich	34228
Hand	34222
ic@@	34213
®	34205
lag	34194
reduziert	34179
Regel	34158
Ko@@	34124
hauptsächlich	34122
ges	34087
nichts	34077
Störungen	34025
Häufig	33956
é@@	33936
Eigenschaften	33891
ierten	33888
U	33880
ot@@	33879
beachten	33844
Mahlzeit	33791
ÄUSSEREN	33751
Faktor	33736
Österreich	33674
system	33636
Änderungen	33619
France	33614
Königreich	33614
Herz@@	33607
zusätzlich	33557
ä@@	33492
Unter	33467
daran	33451
ak@@	33431
mittlere	33406
wirklich	33400
67	33386
aussieht	33378
durch@@	33335
Mittwoch	33302
ate	33287
gesamte	33266
id	33175
93	33150
angegebenen	33134
später	33131
ere	33110
befinden	33099
view	33043
zusätzliche	32983
bekommen	32965
bi@@	32924
ert	32920
spielen	32914
z.	32905
lässt	32838
mar@@	32819
85	32810
Aktivitäten	32761
San	32754
qu@@	32728
Blick	32719
per@@	32709
findet	32664
oralen	32663
Ta@@	32659
C-@@	32651
Gelegentlich	32624
ol	32623
Me@@	32610
ellen	32587
Substanzen	32567
es@@	32561
Ciprofloxacin	32520
Gesellschaft	32518
Olanzapin	32473
Germany	32432
zen	32430
89	32430
ste@@	32418
anzuwenden	32415
mm@@	32392
gehören	32390
ging	32389
ER@@	32348
geboten	32342
International	32314
deutlich	32307
Efavirenz	32292
all@@	32272
y-@@	32269
Plasma	32237
Darüber	32228
hin@@	32222
er-@@	32191
nach@@	32176
73	32155
gerade	32137
helfen	32134
Liprolog	32132
länger	32119
Injektionssuspension	32105
EN@@	32081
ß@@	32079
Sicherheits@@	32078
hergestellt	32066
oft	32046
bisher	32046
ig@@	32020
Herrn	32010
37@@	31981
Hersteller	31961
konnten	31936
Flughafen	31934
seltenen	31923
po@@	31920
Dosierungen	31906
your	31903
bleibt	31895
Li@@	31894
1997	31889
land	31887
her	31798
Mitarbeiter	31782
Verkehrstüchtigkeit	31755
benötigen	31746
zer@@	31725
as@@	31699
Neutropenie	31699
SIE	31690
Sa@@	31657
and@@	31639
En@@	31624
mögliche	31614
he@@	31611
gleich	31543
mittels	31535
Tieren	31530
91	31528
weder	31472
stand	31459
stillen	31417
Plasmakonzentrationen	31415
Po@@	31389
Anteil	31386
Zukunft	31378
lesen	31361
regelmäßig	31358
ations@@	31303
160	31294
behandlung	31268
RE@@	31266
62	31254
frei	31250
An	31244
jedes	31191
klar	31182
Licht	31171
weit	31146
Bestandteil	31120
genannten	31095
Muttermilch	31088
Gewicht	31078
Lamivudin	31037
Ho@@	30984
vollständigen	30951
Bilder	30948
50@@	30947
zweite	30939
He@@	30937
bezüglich	30924
Untersuchung	30867
tragen	30867
P-@@	30815
on-@@	30782
Abnahme	30753
0,9	30741
ermöglicht	30712
Dr.	30700
Man@@	30694
Entzündung	30690
ze	30684
wenden	30655
amp	30645
7-@@	30643
Markt	30579
gelegentlich	30573
ST@@	30549
min@@	30539
ö@@	30534
Beurteilung	30531
ier@@	30525
Restaurant	30512
Preise	30498
aktiven	30479
Metaboliten	30462
eb@@	30458
eln	30453
Limited	30445
S-@@	30417
begonnen	30411
Grad	30407
lagen	30406
Absetzen	30405
fe@@	30402
69	30401
Car@@	30388
Familie	30367
40@@	30361
wenig	30342
180	30329
Europe	30327
einzunehmen	30322
unterstützt	30321
beispielsweise	30320
solchen	30287
CVMP	30280
pharmakokinetischen	30267
Basis	30248
MINDESTANGABEN	30246
ent	30228
ach@@	30226
Veränderung	30215
Verringerung	30211
erwartet	30204
eren	30175
zuvor	30165
Unser	30160
36@@	30128
Länder	30120
Ha@@	30118
fa@@	30117
sagte	30109
geeignet	30093
Folge	30070
fen	30056
legen	30029
4.	30023
Andere	30013
tet	30000
natürlich	29997
orale	29995
68	29945
ganzen	29934
Behörden	29920
generated	29897
empfahl	29894
Projekt	29869
liches	29855
ve@@	29850
ene	29836
Nr.	29831
Größe	29823
sta@@	29802
verfügt	29801
005	29788
Behandlungs@@	29769
ker	29757
vergleichbar	29753
gelangte	29736
trat	29730
danach	29723
du@@	29722
unterstützen	29716
13.	29704
Hypotonie	29703
63	29693
Bi@@	29667
Zugang	29622
Stelle	29598
B-@@	29597
tische	29576
·	29567
71	29511
Anforderungen	29511
88	29504
Windows	29497
Rück@@	29476
kontraindiziert	29470
Ergebnis	29456
ur	29454
Hunde	29439
bare	29422
AL@@	29418
Gruppen	29414
ganze	29386
82	29380
Einige	29378
Bewertung	29364
Teva	29364
erwachsenen	29341
werte	29334
verringert	29276
fahren	29266
Humanarzneimittel	29248
unverzüglich	29240
Hinblick	29236
Tierarzneimittel	29234
öffentlichen	29226
ca	29205
5.@@	29198
Hydrochlorothiazid	29143
voll	29138
83	29104
unerwünschten	29092
Richtung	29076
seconds	29075
Staaten	29071
dir	29066
Grund@@	29054
Pa@@	29042
dl	29000
Man	28965
enen	28961
ut@@	28958
Recht	28953
del	28940
ha@@	28915
Lösungen	28900
Angaben	28892
oraler	28880
los	28871
Höhe	28858
tig	28857
Spiele	28851
Bu@@	28846
Home	28845
-20	28828
Herzinsuffizienz	28826
fer@@	28816
wei@@	28813
Überempfindlichkeit	28789
ierung	28788
injiziert	28782
Ansicht	28747
Produktion	28741
Einzeldosis	28732
man@@	28711
92	28706
AT@@	28699
alten	28697
lin@@	28694
kon@@	28669
Wohnung	28644
maximale	28627
10-@@	28618
gs	28599
Wortlaut	28597
gestellt	28574
Bad	28573
onen	28572
Haut@@	28551
77	28499
Küche	28496
Patronen	28488
Änderung	28476
Bar@@	28473
kontrollierten	28471
niedriger	28465
Nacht	28459
Kirche	28454
sonstige	28432
Nur	28428
Wirkstoffe	28425
10.@@	28413
Kosten	28412
Informieren	28386
leben	28380
Dienstleistungen	28374
Patrone	28367
Human	28365
leichter	28358
Umgebung	28337
Juckreiz	28334
tigen	28327
id@@	28258
WIRD	28243
tin@@	28202
Aluminium	28191
ebenso	28176
höhere	28167
Zugriffe	28161
entsprechenden	28148
days	28148
Startseite	28139
nutzen	28123
Dabei	28121
su@@	28120
Lu@@	28119
Ent@@	28116
86	28105
tra@@	28087
Einzel@@	28087
Anti@@	28079
tischen	28058
Ne@@	28035
Unterschiede	28031
76	28024
007	28012
erhöhtes	28007
79	27966
tt@@	27937
erteilen	27927
VOR	27918
008	27902
wofür	27901
wahrscheinlich	27888
Natur	27848
Wofür	27839
Schwellung	27783
häufiger	27725
eh@@	27721
weiße	27699
1999	27695
überwiegen	27680
dadurch	27679
Packungen	27678
AR@@	27663
Augen@@	27663
jeweiligen	27623
Aufnahme	27598
entsprechende	27595
AUFZUBEWAHREN	27574
..	27549
ru@@	27542
Ad@@	27530
7,5	27527
Betracht	27516
12,5	27514
Su@@	27504
Gebiet	27455
Effekt	27428
London	27413
E-@@	27396
Spiegel	27395
mein	27393
Musik	27389
Tra@@	27384
0,3	27354
suchen	27350
bereit	27345
hoch	27339
Portugal	27339
Ex@@	27334
nicht-@@	27315
kt	27304
8-@@	27303
006	27266
nie	27262
ANGEWENDET	27240
IN@@	27236
Ch@@	27221
recht	27207
Schritt	27205
Con@@	27189
Beschwerden	27179
9.@@	27162
welches	27149
Ltd	27145
gra@@	27109
weltweit	27088
vorhanden	27078
mmol	27065
Universität	27062
pp@@	27051
WOFÜR	27041
Park	27031
wert	27025
MÜSSEN	27013
oral	27004
Seit	27001
oberen	27000
dar@@	26997
Insulin@@	26991
gu@@	26972
nachdem	26955
Falle	26954
38@@	26947
Funktion	26942
els	26913
men@@	26906
á@@	26898
Arthritis	26880
T-@@	26878
Beschreibung	26856
ü@@	26812
BEACHTEN	26791
E-Mail	26770
ben@@	26765
hoch@@	26758
wirksame	26738
zusammen@@	26737
sse	26735
Auswahl	26731
that	26695
Gen@@	26686
stelle	26680
neben	26634
normalerweise	26625
Ra@@	26579
bestehen	26577
Karte	26576
Webseite	26568
go@@	26567
Vorsichtsmaßnahmen	26545
0,1	26540
online	26531
möglichen	26530
Injektionsnadel	26511
ma	26484
derzeit	26472
Zulassung	26470
mon@@	26467
tige	26425
spiegel	26369
bei@@	26362
ds	26352
Flüssigkeit	26352
Docetaxel	26351
Wachstum	26350
erkennen	26341
intravenöse	26326
unmittelbar	26319
san@@	26308
cken	26288
Druck@@	26286
Regierung	26270
08@@	26251
9-@@	26206
mann	26201
Umkarton	26169
ca@@	26168
par@@	26162
sprach	26162
site	26140
Na@@	26130
Fertigspritzen	26113
beide	26108
Or@@	26108
Katzen	26103
sch	26084
höheren	26073
Syndrom	26043
d.	26012
Design	26006
Rekonstitution	25997
einge@@	25992
Tod	25921
inter@@	25901
pa@@	25899
beeinflusst	25879
außer	25867
Daten@@	25854
signifikante	25828
1,0	25827
ums	25800
immobili	25794
ausge@@	25793
how	25792
Zustand	25763
I-@@	25757
125	25741
isches	25731
genannt	25727
lage	25718
—	25713
78	25709
Anfangsdosis	25688
Schweiz	25686
bemerken	25685
Ca@@	25679
Anfang	25666
teilen	25654
ting	25645
Geschäfts@@	25644
signifikanten	25639
wichtige	25629
UK	25588
Senkung	25536
erlaubt	25534
12.@@	25530
studie	25519
22@@	25507
eingeleitet	25497
Fach@@	25492
darin	25492
Seiteaufrufe	25478
Zeichen	25442
würden	25427
3,@@	25427
gemeinsam	25422
Wien	25413
beeinflussen	25386
muß	25378
erneut	25359
mit@@	25351
TV	25344
Te@@	25344
vitro	25327
US	25320
Jahres	25316
‘	25316
Joined	25310
Körper@@	25306
dich	25284
wichtigsten	25283
0.@@	25278
lan@@	25272
United	25266
h.	25249
S.A.	25231
nahm	25200
EPAR	25198
Per@@	25197
weisen	25165
hei@@	25151
ft	25151
Kreatinin-Clearance	25140
Reduktion	25133
ven@@	25122
dar	25120
folgt	25106
allerdings	25103
zn	25072
Her@@	25071
verhindern	25069
seltene	25055
wissenschaftlichen	25045
baren	25006
ons	25003
ationen	24994
Unterschied	24983
Paris	24981
Gäste	24977
DE	24949
definiert	24939
hi@@	24936
Anerkennung	24933
≤	24909
1996	24900
81	24869
Ru@@	24831
verfahren	24820
sh@@	24820
zunächst	24816
Auge	24791
al-@@	24789
Dann	24783
48@@	24766
ales	24766
Umsetzung	24742
kurz	24740
ausgeschlossen	24731
Obwohl	24691
scheint	24688
Gottes	24684
no	24683
https	24671
Operation	24647
wer	24626
war@@	24624
Do@@	24604
somit	24599
6.	24586
Mon	24577
Welchen	24561
7.@@	24558
intravenös	24541
Tiere	24537
ov@@	24537
AN@@	24513
gung	24508
geb@@	24508
sc@@	24492
meiner	24491
Klasse	24485
bar@@	24466
Mi@@	24456
6.@@	24454
wer@@	24442
mittel	24429
Partner	24427
Raum	24426
Kar@@	24426
Test	24420
ß	24379
ah@@	24348
zwei@@	24344
Schlafzimmer	24318
CYP3A4	24294
angepasst	24262
bu@@	24253
Resorption	24247
Systems	24247
Mit@@	24246
Sprache	24243
daten	24242
erteilte	24228
tete	24221
art	24219
Herzen	24219
Ka@@	24216
20.	24203
Hemmung	24200
plus	24200
¤	24180
Spiel@@	24177
Deutsch	24163
ms	24154
Möglichkeiten	24152
politischen	24150
ändern	24148
030	24134
Situation	24132
Dank	24130
werde	24095
störungen	24091
Auflistung	24090
Virus	24087
weißen	24078
Nebenwirkung	24078
og@@	24062
.org	24058
Notwendigkeit	24053
Energie@@	24040
Information	24031
39@@	24004
empfehlen	24003
akuten	23999
af@@	23993
neuer	23975
ation@@	23966
co	23952
genommen	23949
Mitglieder	23946
hoher	23946
besondere	23943
Leber@@	23934
aufgeführt	23930
Rates	23916
bel@@	23899
Bioverfügbarkeit	23896
45@@	23881
studien	23879
Gesundheit	23871
tri@@	23869
Unbedenklichkeit	23868
Depression	23866
ige	23858
Welche	23857
verfügbaren	23857
Denn	23856
Welches	23829
↓	23806
Gemeinschaft	23799
5.	23798
Eisen	23783
sagt	23779
Bereichen	23768
ER	23768
Lilly	23755
Inter@@	23750
Ri@@	23730
dern	23728
ka@@	23724
for@@	23683
ei	23678
langsam	23664
44-20	23650
Jugendliche	23632
Vi@@	23627
Insuman	23622
nimmt	23615
tägliche	23607
gern	23602
ANWENDUNG	23579
bildung	23570
Stellen	23520
Sal@@	23494
setzt	23494
You	23467
0-@@	23466
11.@@	23466
brauchen	23461
schwer	23461
fi@@	23460
fühlen	23459
nächste	23455
kontrolliert	23438
we@@	23435
gemessen	23428
ce@@	23428
Antwort	23426
schwerwiegende	23424
94	23405
gesagt	23394
entscheiden	23391
gerne	23384
Vereinigtes	23369
ari@@	23365
ph@@	23335
Effekte	23328
Kunst	23324
las	23304
tel	23299
abge@@	23279
Hyper@@	23247
Mio.	23236
Politik	23229
Dis@@	23228
IN	23223
To@@	23220
Gra@@	23216
Wahl	23208
ort	23197
0.0@@	23193
Nutzung	23183
rate	23160
chen@@	23142
many	23142
Post	23140
Ebene	23132
sto@@	23131
treffen	23103
19.	23099
í@@	23074
mehreren	23070
HIV	23063
chronischer	23061
Beitrag	23046
15.	23025
Punkte	23013
Beratung	22997
schützen	22987
Wirtschaft	22985
Tél	22953
Terrasse	22951
Arten	22949
Nieren	22933
can	22930
Siehe	22925
Retardtabletten	22912
Y	22896
China	22874
Husten	22873
F-@@	22872
dreimal	22868
87	22864
eigene	22864
Mann	22863
Verschlechterung	22857
lei@@	22844
Markteinführung	22838
Nahrung	22795
So@@	22793
Schläfrigkeit	22793
Strand	22793
Symptomen	22791
Mess@@	22779
PVDC	22768
Text	22767
Umständen	22753
vorliegen	22753
ly	22747
Ser@@	22733
Team	22733
Rechts@@	22722
eingestellt	22720
Bauchschmerzen	22715
anderes	22696
Arbeitsgruppe	22681
200@@	22675
Management	22642
Gu@@	22641
LI@@	22610
Suche	22609
unterschiedlichen	22609
Fläche	22607
bau@@	22607
Comb	22597
Mund	22587
uploads	22582
Industrie	22574
ender	22573
dis@@	22573
je@@	22569
din@@	22561
Leberfunktionsstörung	22559
Zubereitung	22545
Prozent	22545
Natur@@	22545
bilden	22541
yl@@	22540
q@@	22527
gesch@@	22526
haus	22523
Empfehlungen	22518
DIE	22496
Verlängerung	22487
Ber@@	22486
Zunahme	22482
subkutan	22474
Damit	22474
wählen	22472
ungs-	22470
abgesetzt	22465
8.@@	22460
60@@	22459
Hinweis	22449
www	22442
mu@@	22439
internationale	22428
erte	22422
kt@@	22414
Download	22407
wirksamen	22401
wa@@	22395
Energie	22392
Unterkunft	22391
Dosis@@	22380
cht	22373
d.h.	22328
Forschung	22318
zen@@	22299
Verhältnis	22274
Bezeichnungen	22268
und@@	22265
ted	22263
Indikation	22259
therapeutischen	22247
Anzeige	22237
ven	22190
maximal	22183
re	22175
A.	22170
ali@@	22163
ran@@	22162
wohl	22160
Dateien	22140
.net	22125
angegeben	22122
richtig	22120
teil	22116
0,6	22086
Parameter	22073
Bio@@	22060
Z	22042
number	22034
ien	22027
kan@@	22022
unternehmen	22007
Insel	22004
Kombinationstherapie	22004
Beim	21990
......	21950
Verfalldatum	21947
klinischer	21943
110	21940
Tagesdosis	21937
ausgestattet	21927
fr	21919
schaft	21915
menschlichen	21911
Al	21900
Phantasiebezeichnung	21899
tre@@	21886
Interesse	21886
Hoch@@	21879
systemische	21870
nahe	21869
Anweisung	21865
sicherzustellen	21863
Plazebo	21858
Hand@@	21853
Mahlzeiten	21829
vorgesehen	21818
pre@@	21805
Blisterpackungen	21804
Produkt@@	21796
ase	21791
Frühstück	21785
Konzentrat	21775
Doch	21775
Injektionen	21775
klare	21772
05@@	21767
geeignete	21747
Dienstag	21745
LE@@	21743
abhängig	21740
CH@@	21730
fer	21718
AB	21706
relevanten	21681
Freund	21680
between	21677
verringern	21674
ana	21669
ähnliche	21605
ters	21603
mäßig	21585
Land@@	21577
Liebe	21576
th	21571
Mutter	21565
tritt	21563
Sun	21561
mellitus	21554
Anfrage	21543
Ist	21528
fortgesetzt	21528
Epoetin	21526
ologie	21519
Angebot	21515
va	21500
j	21499
-0@@	21498
Republik	21497
Position	21492
Vorschlag	21473
starke	21462
äre	21449
Männern	21449
Ltd.	21429
Schwierigkeiten	21429
Thrombozytopenie	21421
günstige	21407
eu@@	21406
Pfizer	21401
intravenösen	21399
Montag	21394
ative	21383
Sep	21357
Arzneimittel@@	21356
Vertreter	21346
tion	21338
metabolisiert	21335
ären	21334
leichte	21333
ner@@	21325
gesehen	21315
Quelle	21314
8.	21314
Wei@@	21312
wenige	21310
oli@@	21305
0,4	21297
Rei@@	21284
Ausgangswert	21265
Ziel@@	21258
7.	21257
besonderen	21255
Pe@@	21245
seines	21243
darunter	21216
bezeichnet	21214
aufge@@	21211
gruppe	21204
wp-content	21184
sel@@	21183
ssi@@	21180
Insgesamt	21171
-10	21168
verantwortlich	21160
MIT	21155
anhand	21133
ans	21130
Tri@@	21130
Qu@@	21123
49@@	21113
Filgrastim	21107
geboren	21104
forum	21095
4,@@	21094
Standard@@	21091
Finanz@@	21090
Erfolg	21087
Garten	21078
innen	21077
90@@	21072
CI	21069
York	21061
m-@@	21059
europäische	21050
ler@@	21003
Ba@@	20998
Injektor	20995
wöchentlich	20994
Bedarf	20988
zusätzlichen	20983
vielleicht	20982
Verlauf	20979
Erde	20960
enz@@	20959
ing@@	20949
Lebens@@	20946
om	20942
erfahren	20926
Prüfung	20925
Männer	20914
kosten	20912
Wer	20906
KG	20905
gel	20893
Farbe	20875
auftritt	20852
Substanz	20844
Titel	20833
Kultur	20829
46@@	20816
berg	20809
aktuellen	20808
schaffen	20805
paar	20802
ra	20788
Berg@@	20785
les	20784
Indinavir	20783
E-mail	20767
statistisch	20761
sieht	20754
Jeder	20739
abzu@@	20729
sozialen	20726
teten	20723
Beendigung	20710
Mar	20701
ausschließlich	20697
Ö@@	20692
Aufenthalt	20685
Folgende	20680
gleiche	20680
det	20673
Merck	20636
0,0@@	20633
begrenzt	20631
del@@	20622
Anweisungen	20619
ze@@	20617
raum	20611
Projekte	20609
16.	20605
gs@@	20585
medizinische	20574
Praxis	20568
übliche	20549
Studien@@	20535
au	20533
überwachen	20530
Themen	20527
s-	20519
ihres	20515
dosis	20506
chronischen	20503
368	20495
Zell@@	20493
Lansoprazol	20490
IT@@	20487
ver	20472
55@@	20469
5.3	20465
Natriumchlorid	20465
ga@@	20449
à	20440
vorsichtig	20440
verbessern	20438
ODER	20429
therapie	20393
mittleren	20385
enk@@	20377
fallen	20375
Restaurants	20370
s.@@	20370
Kopien	20370
len	20358
Mitte	20353
Video	20342
dritten	20341
.000	20325
einzu@@	20324
niedrigen	20317
ed@@	20289
eller	20288
Location	20279
kar@@	20256
Therapie@@	20253
Ac@@	20243
Nierenfunktionsstörung	20222
richtige	20212
Israel	20211
Kaninchen	20202
betrifft	20192
tiger	20190
ismus	20190
tz@@	20177
kte	20176
109	20174
Ober@@	20168
Groß@@	20165
Levodopa	20132
22.	20130
Alkohol	20123
Hypoglykämie	20115
009	20101
Linie	20098
links	20093
Titandioxid	20092
gr@@	20077
use	20077
end@@	20073
iger	20068
besitzt	20068
Leute	20064
oc@@	20063
Anpassung	20048
Geld	20038
updated	20032
Durchführung	20031
Clopidogrel	20016
Material	19997
47@@	19995
freien	19992
Machine	19976
Kunst@@	19971
17.	19965
Fotos	19965
Co.	19962
Road	19961
Ziele	19958
anders	19947
bestätigt	19947
PC	19942
12-@@	19930
Kinder@@	19929
End@@	19928
Auto	19927
Behandlungsdauer	19924
heißt	19922
Länge	19916
maps	19911
No@@	19904
ren@@	19892
rei@@	19885
lagern	19883
Neben	19879
encyclopedia	19869
Urlaub	19865
Bereiche	19859
Links	19854
barkeit	19846
folgen	19831
rechts	19825
Film	19814
Da@@	19812
hätte	19809
tu@@	19808
Vene	19807
är@@	19800
hal@@	19794
For@@	19790
hr@@	19788
versch@@	19779
Bar	19779
BMS	19779
24.	19767
Niederlande	19765
have	19765
Lebererkrankung	19763
Du@@	19751
deutschen	19749
vo@@	19740
Durch@@	19727
Mitglied	19723
unerwünschte	19723
Ger@@	19718
neues	19694
schließen	19690
Blutung	19687
actually	19685
normalen	19681
speziell	19643
info	19634
berücksichtigt	19631
il	19624
beginnt	19624
AS@@	19613
OR@@	19612
heit	19609
guten	19608
Schwere	19601
Cor@@	19591
↑	19589
Stand	19587
Urtikaria	19587
stra@@	19580
English	19573
beeinträchtigt	19571
Museum	19566
Enbrel	19559
anzu@@	19558
L-@@	19556
achten	19556
Str@@	19549
bestehenden	19547
drücken	19546
ago	19524
up	19493
Zidovudin	19491
klicken	19478
AC@@	19475
Fahr@@	19462
25.	19460
heraus	19458
form	19456
ku@@	19451
We@@	19450
Jan	19444
wirksamer	19436
Berichte	19434
Verkehr	19427
ta	19424
vorgelegt	19423
Bürger	19413
AD@@	19394
Arbeiten	19392
Teile	19389
Ab	19388
Verordnung	19381
anderem	19381
lu@@	19370
Straße	19368
Immun@@	19365
Herz	19363
tung	19362
hält	19360
010	19353
UN@@	19348
Abbildung	19347
bekannten	19347
Mangel	19347
ON@@	19327
len@@	19325
Halbwertszeit	19323
sub@@	19322
Luft	19321
randomisierten	19319
tan@@	19311
é	19305
hemmt	19292
obwohl	19288
geringe	19288
eim	19280
tro@@	19279
mer@@	19269
stellte	19261
18.	19261
calendar	19256
Antragsteller	19251
DES	19247
MB	19246
Gebäude	19243
Katalog	19237
bringt	19235
roten	19235
IS@@	19231
11@@	19224
erhöhter	19222
bedienen	19168
Apr	19162
AS	19159
Selbst@@	19154
Faltschachtel	19148
wirken	19147
zehn	19138
Punkt	19132
Kur@@	19116
dan@@	19107
Lesen	19079
tier@@	19067
cke	19066
fache	19066
geh@@	19060
100@@	19048
gefolgt	19046
car@@	19045
Link	19044
kin@@	19040
ungsp@@	19035
Einführung	19034
October	19033
Wayback	19024
Jesus	19024
gar	19018
up@@	19016
crawled	19015
Meter	19008
Ausschlag	19007
KLEINEN	18998
genießen	18993
Anträge	18989
index.php	18988
Besucher	18987
Meinung	18982
gemeinsame	18978
Rechte	18957
igen	18955
Ar	18951
Förderung	18951
Zeit@@	18943
fin@@	18934
Gefühl	18931
spezifischen	18923
Verfügbarkeit	18923
son	18919
●	18907
gewährleisten	18903
aufbewahren	18892
DLL	18877
ad	18871
Sohn	18869
Umwelt@@	18834
entfernen	18827
Technologie	18824
que	18818
enten	18804
nämlich	18793
systemischen	18793
versuchen	18791
Si@@	18790
Selten	18788
Kategorie	18787
Kraft	18778
Methotrexat	18777
Time	18775
Muskel@@	18767
Leberfunktionsstörungen	18767
Hälfte	18763
Aufgaben	18762
views	18757
München	18756
AB@@	18755
gte	18738
meinen	18728
Wort	18726
Au@@	18725
verfügen	18720
großer	18714
Griechenland	18713
Frankfurt	18709
ses	18707
Aufgabe	18707
Gefahr	18703
Badezimmer	18696
5,@@	18686
werk	18676
Luxus	18667
gemischt	18662
reduzieren	18660
Mal@@	18646
age	18643
sobald	18635
	18631
Verkauf	18630
0,2	18625
geführt	18620
verordnet	18611
ies	18609
kurzem	18605
Warenkorb	18604
mischen	18600
Plasmakonzentration	18593
Nahrungsmitteln	18568
21.	18553
verabreichen	18546
Stärke	18529
Abschluss	18516
Personal	18508
Kapsel	18508
stoffe	18505
jungen	18496
k-@@	18493
80@@	18490
Hartkapsel	18485
ermöglichen	18475
Jahrhundert	18473
erten	18468
.php	18466
vermieden	18460
Verlust	18445
denken	18444
Gebrauchsinformation	18434
Protein	18434
na	18430
0,8	18407
alität	18406
nahmen	18400
Je@@	18398
anschließend	18397
ON	18395
Verwenden	18390
Überempfindlichkeitsreaktionen	18386
Har@@	18378
75@@	18377
lokalen	18374
hängt	18371
weiter@@	18369
fort	18365
Villa	18364
scher	18362
DE@@	18359
Leitlinien	18352
ina	18334
spezifische	18334
zeit@@	18333
Sekunden	18322
betrachtet	18320
Adresse	18318
Wichtige	18312
tur@@	18293
angenommen	18292
ard	18290
04@@	18281
TI@@	18268
Funktionen	18266
zellen	18265
Barcelona	18264
Knochen@@	18261
Computer	18254
Nor@@	18248
aufweisen	18237
14.	18235
Lei@@	18235
Gutachten	18215
geringer	18188
sofern	18183
Umwelt	18182
Sat	18177
starken	18167
Wird	18162
allgemeinen	18149
Technik	18130
pädiatrischen	18110
überprüfen	18103
Firma	18101
bau	18096
sten@@	18078
CO@@	18075
stoff	18074
IV	18073
Sti@@	18067
Pal@@	18064
technischen	18052
St.	18047
Verträglichkeit	18046
Bel@@	18043
Kommentare	18038
zuständigen	18036
Risikos	18012
Wohn@@	18011
Spieler	18010
Saved	18009
Methode	18006
verändert	17993
Verhalten	17983
erster	17980
Leber-	17979
arzneilich	17978
Rate	17977
Organisation	17960
medizinischen	17959
Ausschusses	17957
70@@	17948
speziellen	17945
Welt@@	17937
Via	17936
Dazu	17935
arbeitet	17929
größten	17925
erzielt	17914
Dinge	17913
Amlodipin	17904
bald	17902
ec@@	17901
Tests	17898
Luft@@	17890
tieren	17882
34@@	17878
politische	17875
Schwellungen	17839
Volk	17839
elt	17837
fen@@	17837
Thu	17836
wichtigen	17827
WLAN	17817
einzige	17815
images	17810
außerhalb	17805
form@@	17795
manchmal	17792
auszu@@	17791
stell@@	17787
ys	17783
Tacrolimus	17770
El@@	17765
schreiben	17765
Strategie	17761
lau@@	17758
Produkten	17749
SA	17748
se-@@	17729
Pre@@	17718
Business	17714
ment	17708
M.	17704
gruppen	17696
Ur@@	17695
König	17688
Ferienwohnung	17685
itte	17660
Abacavir	17659
PDF	17637
Allerdings	17624
Krankheiten	17623
aktive	17616
rasch	17615
Vereinigten	17613
IC@@	17610
gemeinsamen	17604
durchzuführen	17591
0,0	17582
Hu@@	17573
Verstopfung	17565
verhindert	17564
Th@@	17563
Druck	17563
Zusätzlich	17551
besch@@	17550
größte	17548
Standard	17538
maximalen	17530
acht	17527
ges@@	17523
Nieren-	17521
Antibiotika	17519
CD	17514
Bewegung	17500
fe	17495
Plasmaspiegel	17488
he	17484
volle	17481
hervorrufen	17480
Tätigkeit	17472
begrenzte	17472
geändert	17470
Viraferon	17457
glauben	17457
Anwendungen	17456
11-@@	17456
Benommenheit	17452
beobachten	17443
veröffentlicht	17436
erfolgreich	17435
usw.	17433
Saquinavir	17427
infolge	17424
BEHÄLTNISSEN	17409
Einrichtungen	17390
Vater	17388
fest@@	17362
maßnahmen	17361
weiterer	17354
etc.	17353
Ausscheidung	17344
gew@@	17343
freie	17343
Raumtemperatur	17339
Lin@@	17335
Hamburg	17331
fach	17330
Ja	17322
SP@@	17321
Fehler	17315
intravenöser	17313
30-@@	17313
Bis	17307
geringen	17305
Sitzungen	17304
Gesicht	17302
O-@@	17298
Oberfläche	17292
ant	17290
Balkon	17286
Atemwege	17269
fand	17259
Flaschen	17258
ANHANG	17256
dient	17255
Getränken	17253
Kor@@	17253
Injektionsnadeln	17253
Himmel	17252
Allgemeine	17235
trägt	17228
Schutz@@	17225
Steuer@@	17221
benötigt	17216
Tier@@	17206
vorher	17195
Ni@@	17191
Leiden	17180
verbessert	17179
land@@	17175
1995	17174
Mikro@@	17174
älter	17165
möglichkeiten	17158
gelten	17154
platz	17150
niedrig	17133
lichkeit	17132
Farb@@	17129
Metabolismus	17124
hören	17119
Folgen	17115
raten	17111
kaufen	17108
Ausmaß	17108
Halten	17104
Etikett	17100
Haushalts@@	17100
kostenlos	17098
erh@@	17095
Mor@@	17095
beste	17082
aten	17069
gewesen	17065
che@@	17062
unseres	17060
Benutzer	17059
Klinische	17052
TR@@	17041
betroffenen	17029
frei@@	17027
ktionen	17025
geworden	17024
Essen	17024
aufzu@@	17022
Rötung	17022
hinter	17017
AG@@	17016
leichten	17015
weise	17012
Krebs	16994
Sonnen@@	16992
Dusche	16986
28.	16979
meinem	16975
Fri	16974
ens@@	16963
Verantwortung	16958
Hause	16953
beteiligt	16948
ni	16945
indiziert	16945
Ste@@	16945
Bild@@	16933
bel	16929
ons@@	16928
spricht	16924
Buch	16923
33@@	16914
Vitamin	16906
funktion	16906
Web@@	16902
my	16896
Jo@@	16890
erklärt	16888
öffnen	16888
c-@@	16886
te-@@	16883
fo@@	16878
letzte	16878
störung	16875
Luxemburg	16863
Markt@@	16855
zuletzt	16841
str@@	16841
cs	16838
voll@@	16835
trotz	16831
wieder@@	16828
ass@@	16827
Wieder@@	16815
dra@@	16812
zahlreiche	16809
verminderte	16807
ig	16795
201@@	16795
vollen	16790
drei@@	16778
verstehen	16771
we	16770
July	16761
Geist	16756
ergab	16753
Status	16748
Betrieb	16743
ker@@	16742
Stück	16735
nen@@	16733
Verwaltung	16730
stets	16724
EG	16719
Polysorbat	16716
aufgeführten	16714
130	16705
Bevölkerung	16704
gegenseitigen	16702
welcher	16698
kennen	16697
-2@@	16690
Handhabung	16681
Bra@@	16681
schutz	16681
All	16678
ln	16672
Abstand	16672
einnahmen	16662
Europas	16660
ÇáÓÇÚÉ	16659
ÇáÂä	16659
over	16657
ator	16656
Vergangenheit	16648
gekommen	16644
Pharmaceuticals	16641
Humira	16627
oh@@	16621
Nespo	16619
benutzen	16618
ks	16617
abbrechen	16613
de-@@	16611
Parlaments	16610
Bakterien	16596
unbedingt	16592
ip@@	16585
OS	16583
test	16569
29.	16567
Schlaf@@	16564
Wein@@	16549
Ausstellung	16532
Packungsgrößen	16526
GE@@	16519
Temperatur	16515
Morbus	16511
Verfahrens	16505
Mäusen	16503
February	16503
offenen	16497
2017	16489
spezielle	16479
Milch	16474
Health	16469
wiederholter	16466
GMT	16462
va@@	16462
tik@@	16462
kl@@	16461
AN	16454
Bei@@	16454
WC	16452
zentrum	16452
kten	16447
06@@	16445
GEBRAUCHSINFORMATION	16444
konzentration	16442
belegt	16439
richtigen	16433
Vorbereitung	16425
überprüft	16424
Wohnungen	16424
werten	16423
at-@@	16419
Tatsache	16411
Entfernung	16392
sorgen	16386
gan@@	16374
get	16373
HIV-@@	16365
tin	16362
65@@	16358
Regionen	16354
auftraten	16353
European	16351
vorgenommen	16350
Natriumhydroxid	16348
Faktoren	16323
fil@@	16308
Wed	16308
täglichen	16306
Klicken	16303
Hände	16291
sieben	16287
Jedoch	16286
zin@@	16281
Maße	16259
gering	16257
Besuch	16252
arten	16247
go	16246
June	16244
behandeln	16241
stellung	16234
ämie	16233
hohem	16228
erk@@	16225
AP@@	16214
Geschwindigkeit	16211
IX	16204
Pens	16198
max	16192
dung	16190
Emtricitabin	16189
mat@@	16187
City	16183
entwickelten	16180
Blutzuckerspiegel	16175
fort@@	16174
IS	16173
Heute	16170
abgebrochen	16167
zzgl	16165
x-@@	16164
schneller	16147
San@@	16139
schließlich	16137
370	16130
Stadt@@	16128
Test@@	16128
99@@	16127
Mengen	16123
lösen	16114
allgemeine	16112
Viele	16107
alte	16094
C.	16088
Ärzte	16087
lernen	16071
us-@@	16062
Lactose	16061
angeboten	16061
Sozial@@	16058
Gel@@	16057
products	16054
NovoMix	16052
Kultur@@	16050
erung	16048
Bestimmungen	16047
,5	16045
Hafen	16043
Gründen	16035
011	16025
Inhibitoren	16020
Viren	16017
Peginterferon	16016
Forum	16012
Fertigpen	16006
menge	16006
Dar@@	15992
only	15989
früher	15987
technische	15977
Angst	15966
zahlen	15962
Post@@	15960
Jun	15958
gten	15955
Internationale	15946
Mittel@@	15940
Schwäche	15940
q	15938
Frei@@	15931
fachen	15930
pr@@	15928
ermittelt	15923
Abend	15923
äu@@	15920
Vorbeugung	15919
Nov	15918
az@@	15913
Fa@@	15910
Einstellung	15909
umfasst	15908
sches	15901
stre@@	15899
Erweiterung	15886
son@@	15885
nung	15883
gleich@@	15882
TE@@	15879
30.	15872
Sommer	15868
Entfernen	15866
Ireland	15860
l-@@	15858
genug	15853
produziert	15851
My@@	15850
Beziehungen	15836
erstellt	15833
Jul	15831
ser	15817
verpflichtet	15812
rin@@	15800
Valsartan	15799
mäßiger	15796
gewöhnlich	15794
zugehörige	15791
chten	15785
BE@@	15785
ME@@	15779
Gar@@	15779
Methoden	15773
Gro@@	15770
hilft	15766
Dadurch	15764
Mietwagen	15762
beendet	15758
st-@@	15757
geöffnet	15745
völlig	15736
μ	15731
zurückzuführen	15727
Kanüle	15727
Störung	15726
1,2	15719
deine	15718
Immunsystem	15717
140	15717
Server	15712
January	15711
dauer	15706
genden	15705
371	15704
Tor@@	15697
spielt	15690
Seine	15685
antiretroviralen	15682
ct	15680
pf@@	15679
teil@@	15679
hand@@	15676
March	15671
Natrium	15664
größer	15660
umgehend	15648
012	15645
CHF	15640
zählen	15638
aktiv	15637
Englisch	15633
Gemeinde	15623
ets	15622
endes	15619
Nase	15617
Min@@	15611
Mix25	15594
210	15592
Kunden@@	15585
Lyophilisat	15583
Sehen	15573
News	15571
pla@@	15557
--	15556
Spritzen	15553
Ödeme	15550
zudem	15544
eher	15543
AM@@	15531
prä@@	15524
Kriterien	15518
Holz@@	15512
har@@	15507
fall	15503
Institut	15501
betreffen	15496
ich@@	15485
Voll@@	15485
benutzt	15485
Leistung	15482
ativen	15481
AL	15481
abgeschlossen	15480
stu@@	15477
Produktions@@	15474
Schmelztabletten	15474
entsprechen	15470
Schweden	15468
Programme	15468
fähigkeit	15458
f-@@	15458
See	15455
är	15454
Aranesp	15452
keiner	15448
historischen	15442
IT	15442
gehalten	15440
Bal@@	15438
ente	15435
Prophylaxe	15430
mal@@	15429
Warfarin	15428
feld	15414
Prägung	15412
entwicklung	15409
lokale	15407
Prüfungen	15400
Trudexa	15399
beenden	15398
Online-@@	15388
durchführen	15384
republika	15379
172	15366
cor@@	15365
Gewebe	15360
hotel	15360
Kaletra	15357
männlichen	15356
Leberinsuffizienz	15351
href	15350
basiert	15350
Pi@@	15350
NovoLet	15348
tiges	15348
üblicherweise	15341
ette	15338
Behandlungsbeginn	15336
Zwei	15320
more	15318
geschützt	15316
0000	15314
Mix50	15306
Ereignis	15301
verringerte	15300
ga	15296
09@@	15292
möglichst	15291
lediglich	15286
mb@@	15286
Modell	15285
Tue	15280
Code	15279
wi@@	15274
nötig	15259
ity	15254
very	15248
Cozaar	15241
teilweise	15235
Bestimmung	15231
ViraferonPeg	15228
Sonder@@	15228
Volumen	15227
Russland	15223
ktion	15222
wor@@	15220
beeinträchtigen	15196
89@@	15196
07@@	15195
Prozess	15184
Nieren@@	15183
hast	15181
Buchung	15181
gegebenenfalls	15178
bedingungen	15175
Neue	15167
Wirtschafts@@	15165
Amprenavir	15164
76@@	15163
Impfstoffen	15161
Zwei@@	15159
ANZUWENDEN	15158
December	15158
lä	15156
Pla@@	15150
langen	15141
aufgetreten	15140
mail	15138
Ciclosporin	15124
Wenden	15121
größeren	15114
Formen	15107
stadt	15103
positiv	15100
85@@	15096
¶	15086
Sc@@	15077
aktiviert	15076
aufbewahrt	15073
88@@	15070
Kan@@	15066
le-@@	15053
Projekt@@	15048
gene	15047
02@@	15044
rechten	15041
cher	15031
Verteilung	15028
Modul	15018
6,@@	15018
Tlf	15017
Beutel	15016
Überprüfung	15012
wirtschaftlichen	15006
fördern	15006
Tre@@	15000
23.	14998
see	14996
Mu@@	14981
Sonne	14975
Kollegen	14975
Teilen	14973
Übertragung	14955
Resistenz	14954
Organ@@	14954
RISPERDAL	14954
PegIntron	14954
Systeme	14953
wodurch	14940
stoff@@	14910
dictionary	14901
Hei@@	14901
let@@	14900
ausgesetzt	14899
Asthma	14894
lung	14890
Fentanyl	14880
my@@	14879
fu@@	14878
produ@@	14876
mel@@	14875
Voriconazol	14869
gelegt	14867
Licht@@	14859
HIV-Infektion	14857
arbeit	14852
laufen	14848
Handel	14848
os@@	14845
Nun	14845
fahr@@	14842
fahrt	14835
Landes	14835
Next	14830
alleine	14827
human	14822
plan@@	14818
Poly@@	14817
chte	14810
legte	14802
ken@@	14801
Partikel	14801
Sitagliptin	14800
Ä@@	14800
Macht	14799
out	14798
schmerzen	14795
Reise	14793
solange	14787
injizieren	14786
Irland	14784
ction	14780
automatisch	14776
top@@	14774
ern@@	14770
Entzündungen	14769
Diagnose	14767
Empfindlichkeit	14765
beitragen	14764
persönlichen	14760
verb@@	14758
gende	14747
Pioglitazon	14746
Mensch	14732
Pra@@	14730
Wohnzimmer	14728
Ausbildung	14728
untersuchen	14723
Farben	14718
rie@@	14718
Plasma@@	14717
dr@@	14712
meist	14708
gar@@	14696
Jetzt	14696
gesetzt	14690
unwahrscheinlich	14687
sor@@	14687
Neuropathie	14685
Polen	14681
44@@	14679
genen	14676
Box	14669
Forschungs@@	14664
69@@	14662
GlaxoSmithKline	14653
Google	14651
Center	14648
Pu@@	14644
171	14639
Gewichtszunahme	14637
1,3	14634
bin@@	14629
individuellen	14627
gebiet	14613
Ku@@	14613
Tumor@@	14612
geprüft	14606
besuchen	14605
tungen	14598
Klein@@	14593
the@@	14590
Madrid	14589
periphere	14580
ose	14568
Prä@@	14564
Sildenafil	14560
groß	14558
Verminderung	14554
mo	14550
lispro	14547
Industrie@@	14543
BASAL	14527
a.@@	14519
fra@@	14510
Feb	14503
013	14499
Schwitzen	14498
Date	14497
akute	14494
able	14493
Leiter	14490
Konferenz	14485
laden	14477
Lungen@@	14472
Sta@@	14472
subkutane	14469
Auffassung	14468
tiert	14464
Por@@	14463
EC@@	14462
Tro@@	14458
positiven	14446
ut	14444
Schritte	14444
Gr@@	14444
sol@@	14435
Umfang	14431
tisch	14429
World	14420
Lactose-Monohydrat	14411
individuell	14411
700	14409
technik	14407
7,@@	14402
DEN	14396
Harn@@	14394
Nachdem	14394
112	14388
EP@@	14386
Italia	14386
mer	14380
Kommunikation	14377
M-@@	14371
Prävention	14369
erscheint	14365
132	14365
Angina	14362
ähnlichen	14362
Komponenten	14352
elles	14350
feststellen	14340
gang	14332
met@@	14332
darum	14328
Blutzellen	14325
Ressourcen	14321
ele@@	14315
pe@@	14313
reagieren	14310
Zeiten	14308
ALT	14304
Keine	14300
Rifampicin	14297
Pruritus	14296
verteilt	14290
Hautreaktionen	14284
Online	14281
Umstellung	14278
unverändert	14271
üblichen	14268
Werten	14261
Einrichtung	14260
warten	14258
Fe@@	14250
Foto	14248
name	14248
unterschiedliche	14246
Fraktion	14243
Veranstaltungen	14234
Komplikationen	14233
gebunden	14225
Fi@@	14221
0,25	14213
stein	14201
enz	14200
MS	14200
Öffnen	14192
warum	14191
ör@@	14185
IntronA	14182
26.	14176
Berücksichtigung	14175
getestet	14174
Ter@@	14169
Sh@@	14163
Materialien	14163
G-@@	14162
è@@	14160
Kingdom	14155
führung	14149
legt	14149
Elimination	14147
val@@	14147
Schul@@	14144
Cisplatin	14143
MabThera	14143
Etoricoxib	14139
Gi@@	14135
genutzt	14123
wenigen	14118
schwerwiegenden	14112
ó@@	14112
kti@@	14111
schutz@@	14109
an-@@	14108
014	14090
Aufmerksamkeit	14089
ling	14085
erhält	14076
EL@@	14072
ano	14068
Nierenerkrankung	14065
Sitzung	14063
vergangenen	14062
relativ	14057
Gerät	14049
zy@@	14045
cks	14044
inen	14043
Blutzucker	14042
verschrieben	14039
cker	14036
3,5	14035
Bank	14031
Sub@@	14028
normale	14027
ø	14026
tatsächlich	14022
Ju@@	14018
ke@@	14016
kamen	14005
Ergebnissen	14005
Alkoholtupfer	14003
gekennzeichnet	13995
Details	13995
Arm	13993
wipe	13988
H2O	13987
diejenigen	13984
Vorschriften	13979
Sinne	13978
morgens	13977
N-@@	13976
ologische	13973
führten	13972
s.com	13971
V-@@	13964
engmaschig	13961
sal@@	13958
u.	13956
Laufe	13947
n-@@	13947
Medien	13941
On	13940
Nachweis	13937
Rhinitis	13937
EM@@	13935
stan@@	13934
tierte	13927
kur@@	13923
ic	13920
Leistungen	13919
farblose	13918
einiger	13912
Familien@@	13910
Kapitel	13910
Rosiglitazon	13910
aktuelle	13909
Pan@@	13907
here	13907
modernen	13906
Wal@@	13904
vertragen	13900
Zusammen@@	13894
Patienten@@	13894
Morgen	13893
festgelegt	13889
vier@@	13883
Außen@@	13878
about	13877
.06.@@	13876
Klimaanlage	13876
Ga@@	13873
niedrige	13867
MP@@	13863
0,7	13862
Geschlecht	13861
ls	13853
Ak@@	13850
Magen@@	13850
Schlaflosigkeit	13848
Dosisreduktion	13846
burg	13842
pu@@	13840
eng@@	13835
Geburt	13834
zeiten	13831
dargestellt	13830
Rasilez	13828
450	13825
KI	13823
geliefert	13820
Kopf	13820
lich@@	13818
eingerichtet	13816
produkte	13806
säure	13805
Simvastatin	13801
Hydrochlorothiazide	13798
eben	13797
ft@@	13794
han@@	13790
Erhaltungsdosis	13788
rü@@	13782
ori@@	13780
photos	13774
durchschnittliche	13769
bil@@	13754
Ti@@	13751
hen	13750
Tur@@	13747
Ausdruck	13742
beta	13742
Ski@@	13741
Dänemark	13738
Anschluss	13736
UR@@	13731
zahlreichen	13723
Informations@@	13721
weg@@	13716
Versand	13711
gabe	13709
oll@@	13709
Prüf@@	13708
tis	13704
zei@@	13703
gef@@	13700
6.6	13699
funktioniert	13699
Künstler	13697
Hallo	13697
has	13696
Bundes@@	13694
medi@@	13694
Vielzahl	13693
Boden	13691
Ban@@	13690
ary	13687
4.6	13687
SS@@	13683
mg-@@	13681
Hotel@@	13681
Parkplatz	13679
richten	13677
Le	13677
Wege	13674
Kampf	13673
cu@@	13672
line	13671
dienen	13671
essen	13669
angesprochen	13658
27.	13654
Ziehen	13647
Stabilität	13631
Erklärung	13625
ärer	13622
185	13621
gre@@	13614
Fre@@	13614
spiel	13612
Saturday	13612
entstehen	13611
Lopinavir	13607
osi@@	13595
öffentliche	13586
Abständen	13581
Teilnehmer	13577
ents	13576
ore	13566
ßen	13560
spe@@	13552
Initiative	13550
Rebetol	13547
.0@@	13544
Pharmakovigilanz	13539
Wi@@	13533
kal@@	13531
xi@@	13530
Einleitung	13520
sicheren	13520
Serum-@@	13519
ast@@	13519
Plan	13517
IT-@@	13514
Ben@@	13513
bildet	13506
Gelegenheit	13504
VER@@	13499
Knochen	13498
Inseln	13494
eindeutig	13488
240	13479
α	13477
privaten	13475
voller	13472
J	13471
eti@@	13457
§	13456
Haus@@	13451
ure	13448
20-@@	13447
häufige	13447
Stamm	13443
Fu@@	13437
wider@@	13435
Met@@	13434
Val@@	13432
beobachteten	13432
Kal@@	13431
ener	13429
Tags	13422
fällt	13421
bestand	13421
Waren	13417
Messe	13417
el-@@	13416
Bro@@	13416
straße	13405
lösung	13404
berücksichtigen	13398
Anwendungs@@	13396
erfüllt	13396
chemische	13395
management	13388
Bor@@	13386
Hypromellose	13383
ju@@	13373
Erwägung	13365
Ereignissen	13364
Wa@@	13361
ats	13359
.04.@@	13358
372	13355
Inhibitor	13348
Nachrichten	13341
cb	13340
politik	13339
ausreichende	13333
Bedenken	13329
prüfen	13328
Sollten	13323
yp@@	13320
ella	13316
Sol@@	13313
tierten	13308
nt.html	13300
.08.@@	13299
begann	13294
stärker	13292
fre@@	13291
tor@@	13290
Puregon	13290
Fin@@	13289
All@@	13289
Basierend	13282
gleichzeitigen	13279
bestimmter	13276
ET@@	13273
bindet	13270
Anleitung	13264
version	13259
Teil@@	13258
Labor@@	13247
Schlaganfall	13245
karte	13242
Population	13238
Schwangeren	13238
Eesti	13234
Hal@@	13232
private	13230
mi	13229
provided	13224
b-@@	13223
ko	13221
freuen	13220
03@@	13208
nachfolgenden	13207
Enzym	13206
erfordert	13206
Wählen	13205
trans@@	13194
stern	13188
sion	13187
Mer@@	13185
kleiner	13183
Rezeptoren	13182
ziert	13177
Sport	13174
Wechselwirkung	13169
en-	13168
420	13167
berechnet	13162
Unternehmer	13155
wichtiger	13154
Atripla	13152
Magnesiumstearat	13148
therapeutische	13147
verstärkt	13146
ergeben	13144
Medi@@	13143
Dokumente	13143
bessere	13142
Salzsäure	13142
our	13133
Vertrag	13126
geschrieben	13122
humanen	13121
erhielt	13119
8,@@	13119
Pegasys	13118
ktive	13117
oren	13117
Bft	13111
Entwicklungs@@	13109
Verdünnung	13107
Endpunkt	13105
Lebens	13101
stoffen	13100
DEM	13098
einzelne	13098
Myokardinfarkt	13092
Schmelztablette	13084
zuerst	13082
ergaben	13081
vorliegenden	13079
Unwohlsein	13079
Schüttelfrost	13075
Start	13073
vorbehandelten	13067
Vom	13066
mes	13065
Integration	13064
Installation	13063
ll@@	13058
ps	13055
erheblich	13052
Min	13052
bericht	13041
solcher	13033
101	13030
AT	13025
primäre	13024
nahezu	13021
Tadalafil	13019
Sollte	13015
Belgique	13013
Serie	13010
eventuell	13009
delivery	13008
haltigen	13006
Langzeit@@	13004
link	13003
siert	13002
verstärken	12999
Gegen@@	12999
-Gruppe	12996
Ampulle	12995
tätig	12987
alisierung	12984
vorübergehend	12980
cht@@	12978
Hintergrund	12978
-An@@	12974
Avastin	12973
un	12972
Anspruch	12963
Innen@@	12959
rück@@	12955
Band	12955
img	12953
Leukämie	12946
Schweregrad	12945
US-@@	12945
.01.@@	12938
früheren	12934
Öffentlichkeit	12932
Group	12927
z-@@	12927
tions@@	12926
zer	12922
Oct	12921
Kern@@	12920
neu@@	12918
Han@@	12918
Abhängigkeit	12918
ations	12914
Beeinträchtigung	12913
Maria	12910
Medikamente	12909
erfüllen	12895
gelangen	12890
Go	12888
material	12885
satz	12885
tischer	12885
entlang	12884
Last	12883
kaum	12882
images.php	12882
Antrag	12879
Behandlungen	12876
zumindest	12875
Jedes	12875
wollte	12871
900	12871
9,@@	12869
RO@@	12868
weiblichen	12864
dennoch	12863
Agenerase	12860
58@@	12856
ment@@	12852
31.	12835
durchschnittlich	12835
schönen	12834
konzentrationen	12833
Macrogol	12833
bestimmen	12826
Tausende	12825
Go@@	12822
Sache	12820
66@@	12811
Gast@@	12811
ES@@	12807
127	12804
seite	12803
360	12799
Türkei	12796
2,0	12793
1,4	12791
1,1	12791
Zudem	12787
Pol@@	12782
tlich	12778
ya	12778
De	12777
verbundene	12776
Gal@@	12773
machte	12773
Ven@@	12771
32@@	12769
0,001	12766
hy@@	12765
Serum	12762
Einzeldosen	12760
015	12756
PR@@	12752
years	12751
lichem	12741
testen	12732
750	12732
Am@@	12731
59@@	12715
Werk	12711
Epilepsie	12708
druck	12705
inklusive	12700
geschlossen	12698
Impfstoffs	12692
Finland	12691
vermindert	12690
sy@@	12690
Muskelschmerzen	12687
Rom	12683
APTIVUS	12679
set@@	12677
Τηλ	12675
dro@@	12674
regelmäßige	12670
aren	12669
Plan@@	12667
102	12667
Krise	12664
Vorschläge	12658
i-@@	12654
ol-@@	12652
sichere	12652
soziale	12651
IP@@	12650
kontrollieren	12649
jährlich	12648
Fahrzeug	12645
Blutplättchen	12645
Ödem	12636
Paroxetin	12633
SE@@	12632
Fondaparinux	12632
Wunsch	12630
blieb	12616
schw@@	12615
Sen@@	12613
des@@	12612
hu@@	12609
ckt	12602
´	12602
Rue	12597
56@@	12596
genauso	12591
jemand	12590
gewählt	12590
in-	12589
Spitze	12586
Zunge	12586
oni@@	12582
Sicht	12578
ban@@	12574
Dosier@@	12568
ang	12567
ns	12567
via	12566
verabreichten	12565
Verschluss	12561
natürlichen	12559
wesentlich	12554
gelöst	12553
Institutionen	12553
Atem@@	12552
B.V.	12550
IG@@	12549
um-@@	12548
reichen	12548
schöne	12546
Familien	12545
Men@@	12541
358	12539
Bil@@	12536
Kolben	12528
Diät	12526
Tour	12524
Meine	12523
Antikörpern	12522
Nierenversagen	12521
ansprechen	12520
zentralen	12517
liefern	12517
verbundenen	12516
gaben	12507
Mehrheit	12507
van@@	12506
getroffen	12506
Investitionen	12503
informiert	12501
nor@@	12500
Qualitäts@@	12498
Verteilungsvolumen	12493
geeigneten	12487
Dorf	12486
fla@@	12481
unterbrochen	12480
intra@@	12473
rechte	12468
Apartments	12467
planen	12467
ften	12463
steigen	12460
Johanniskraut	12450
moderne	12447
Fol@@	12445
alt@@	12444
Actraphane	12441
Osteoporose	12439
dete	12436
ATC-Code	12431
lie@@	12430
77@@	12429
Reisen	12428
rit@@	12428
184	12427
zentrale	12424
art@@	12421
w-@@	12419
Japan	12416
Zwischen@@	12415
Ungarn	12407
Doppel@@	12402
tig@@	12401
kat@@	12399
barer	12397
gener@@	12395
Tumoren	12394
Lassen	12393
Einschränkung	12393
Format	12379
Sprach@@	12379
Brüssel	12378
Paclitaxel	12369
Freude	12356
verändern	12354
der-@@	12343
Je	12341
pri@@	12336
Mixtard	12335
geimpft	12332
Manager	12332
Applikation	12331
akuter	12326
lose	12325
Dra@@	12324
kannst	12323
but	12320
Breite	12320
Vorgeschichte	12320
Sprachen	12317
ton	12316
UNG	12316
erzielen	12314
openx	12313
ti	12309
Krampfanfälle	12309
banner.gitverlag.com	12306
a5a750bd	12306
Danach	12303
Nord@@	12302
.03.@@	12291
Line	12285
AU@@	12283
Dec	12276
Fest@@	12275
allergischen	12271
Cellulose	12269
ia@@	12269
getan	12267
Sharp	12267
Street	12262
Vorteil	12261
angemessene	12260
subkutaner	12258
net	12257
016	12249
CellCept	12246
Wissen	12243
stri@@	12242
CD@@	12240
PE	12239
Zurück	12236
kraft	12235
gin@@	12232
aktiver	12230
abends	12227
normaler	12227
104	12225
EINZUNEHMEN	12223
IR@@	12220
tag	12216
David	12212
111	12210
Abkommen	12209
Injektions@@	12208
Film@@	12207
Gesundheits@@	12205
national	12199
zo@@	12199
Tropfen	12192
lt	12190
Zahlen	12182
Lo-Fi	12182
vorgefüllten	12181
ständig	12180
komplett	12178
heraus@@	12176
weist	12173
ID@@	12170
VIRAMUNE	12166
vorwiegend	12166
braucht	12163
AV@@	12160
Warnhinweise	12158
dig	12156
renale	12154
Herceptin	12154
House	12154
Sk@@	12153
Flu@@	12150
Wegen	12149
can@@	12141
Ton@@	12139
alu	12139
Ausnahme	12135
War@@	12134
Luxembourg	12131
pharmakokinetische	12129
genaue	12128
gebildet	12127
-oxid	12125
gewährleistet	12123
Hauptindikator	12117
115	12115
verschiedener	12111
OP@@	12106
übertragen	12100
Sobald	12100
regelmäßigen	12098
Flug@@	12097
Danmark	12095
Neben@@	12094
bedarf	12093
gerät	12093
Stopfen	12090
BR@@	12089
non	12088
überhaupt	12087
bestehend	12086
Risperidon	12086
assoziiert	12085
Staats@@	12082
wissenschaftliche	12080
uren	12080
Michael	12079
kostenlose	12078
Sin@@	12075
0,00@@	12068
versucht	12066
por@@	12065
Schule	12064
67@@	12059
Studio	12058
Dan@@	12056
Enzyme	12055
primären	12054
Inhalte	12053
sparen	12053
Fla@@	12053
Profil	12053
Wein	12051
Anti-@@	12050
Eli	12048
Cre@@	12048
ty	12044
Atmosphäre	12043
spiel@@	12043
jederzeit	12043
Dialog	12033
Hund	12027
Ketoconazol	12027
Magen	12021
mittel@@	12020
än@@	12018
markt	12017
Atazanavir	12017
Cmin	12012
Episoden	12008
trinken	12005
Hemmer	12004
wiederholt	11998
Handels@@	11992
Infusions@@	11990
schaften	11983
mische	11981
Nadeln	11979
örtlichen	11975
senken	11974
Kosten@@	11972
We	11969
105	11969
ergibt	11965
gens	11960
Multi@@	11958
Diarrhö	11956
rote	11955
programm	11954
Aspekte	11951
tion@@	11950
KwikPen	11949
Sport@@	11946
bro@@	11943
Gemeinschafts@@	11941
►	11940
Anbieter	11936
Ältere	11926
absolute	11925
Zahn@@	11924
its	11920
Reduzierung	11915
nis	11914
van	11913
einfache	11910
Atorvastatin	11906
HERR	11906
Suite	11906
positive	11906
infiziert	11905
Impfstoffes	11903
ie-@@	11902
Potenzial	11901
gebärfähigen	11897
Bluthochdruck	11896
Relevanz	11888
PA	11883
Tr@@	11881
gungen	11880
Gehirn	11874
Latvija	11870
im@@	11868
Sehstörungen	11864
2.5	11862
hätten	11861
MG	11858
US@@	11854
erkrankung	11850
nu@@	11850
Wahrscheinlichkeit	11845
Centre	11841
FALTSCHACHTEL	11840
eigentlich	11837
systeme	11828
spar@@	11827
Grenzen	11826
Metabolisierung	11825
Reise@@	11823
com@@	11818
beinhaltet	11814
mmen	11814
Bestellung	11809
Werke	11805
Creme	11800
leisten	11799
zeichen	11792
basierend	11784
022	11783
station	11778
13.@@	11777
Richtlinien	11777
EINNAHME	11771
Technologien	11769
darstellen	11769
Kontrazeptiva	11768
ktion@@	11766
τ@@	11763
systems	11762
kombiniert	11761
Wo@@	11757
Fortschritte	11756
natürliche	11756
buchen	11756
Tachykardie	11751
Diskussion	11750
sonst	11749
vorgelegten	11748
350	11748
doppelblinden	11747
sh	11746
map	11746
Struktur	11745
optimale	11744
wo@@	11743
unteren	11742
Innerhalb	11741
atische	11741
Aprepitant	11741
Services	11734
bewertet	11732
Regeln	11730
derselben	11727
verlassen	11725
Lunge	11724
Gedanken	11724
höchste	11724
rheumatoider	11717
Asthenie	11716
kla@@	11716
Re	11714
lin	11713
ratiopharm	11712
87@@	11710
Händen	11709
Kontroll@@	11707
Pap@@	11707
Lan@@	11703
Auswirkung	11700
wann	11700
Annahme	11699
stes	11699
Kenntnis	11699
ok@@	11698
comp@@	11696
mmHg	11694
größe	11692
bargain	11692
höchsten	11690
ly@@	11688
Fuß	11687
Peter	11686
Club	11682
gingen	11681
Bevor	11675
RMP	11673
Cal@@	11668
ktions@@	11667
ien@@	11667
Dohme	11664
ppen	11660
beurteilt	11660
pi@@	11655
Annex	11654
Fenster	11654
Körperoberfläche	11653
Anlage	11649
other	11647
Blutdrucks	11646
Finnland	11646
Lehr@@	11644
Gel	11643
wasser@@	11639
Fachpersonal	11639
ing-@@	11638
Bau	11636
Winter@@	11628
verwendeten	11626
Geräte	11625
angesehen	11624
br@@	11623
Stimme	11618
Novartis	11617
IV@@	11615
dienst	11615
Hel@@	11614
Wettbewerb	11613
.05.@@	11611
Geb@@	11610
drehen	11610
Ausgabe	11607
Stil	11606
Humaninsulin	11606
holen	11603
offene	11600
tungs@@	11596
vertreten	11594
Aerius	11591
Serum@@	11587
Ess@@	11586
Remission	11585
Herausforderungen	11584
Gleich@@	11578
glaube	11574
poli@@	11571
NICHT	11571
Strukturen	11570
schnelle	11569
Sicherheitsprofil	11569
www.emea.europa.eu	11568
ml-@@	11567
Bahnhof	11566
ro	11564
Tier	11560
Organisationen	11560
flo@@	11552
Datenbank	11552
Läsionen	11550
Mil@@	11543
av@@	11543
aufnahme	11543
lar@@	11541
relevante	11538
verlängert	11533
ED@@	11533
mediane	11531
Tätigkeiten	11527
Del@@	11516
Ursache	11516
Q	11514
Idee	11512
Also	11509
wirtschaftliche	11505
Typ-2-Diabetes	11503
PL@@	11502
Schmerz	11501
Umgang	11494
SO@@	11493
fach@@	11493
386	11492
gewinnen	11487
gelegen	11483
Kat@@	11482
Anlagen	11479
Cy@@	11478
vorliegt	11477
Eigen@@	11475
fläche	11473
erwogen	11471
Leistungs@@	11469
Br@@	11466
itt	11464
subkutanen	11457
entschieden	11456
fte	11455
Malta	11453
ding	11451
versehentlich	11448
hielt	11444
nt	11444
formen	11441
istische	11440
Antworten	11439
Krieg	11433
erstellen	11428
Video@@	11428
p-@@	11427
4,5	11426
überzogene	11419
Behandelten	11418
mitteln	11417
jene	11414
Brustkrebs	11412
Videos	11408
pectoris	11404
Mat@@	11400
Drücken	11399
Eisen@@	11397
351	11393
fall@@	11391
Fo@@	11390
pen@@	11387
Teilnahme	11384
ki	11381
individuelle	11380
vorübergehende	11380
authorised	11373
Kommissar	11371
nis@@	11364
Vildagliptin	11364
Sprechen	11360
dein	11360
Bur@@	11358
kor@@	11352
Bindung	11351
reich	11344
reduzierte	11344
.02.@@	11341
Schilddrüsen@@	11338
verkehr	11337
iertes	11337
106	11331
ren	11330
Immobilienanzeigen	11329
randomisiert	11323
00-@@	11318
tl	11318
last	11316
Lamotrigin	11312
richtet	11311
Darbepoetin	11306
ließ	11305
Note	11305
Karten	11300
mehr@@	11299
.ch	11296
Programms	11296
Fett@@	11291
Auflösung	11288
ole	11288
Risikofaktoren	11286
star@@	11286
131	11285
Aufbau	11283
Verhandlungen	11283
schön	11281
Landwirtschaft	11279
Transparenz	11279
anlagen	11277
erwiesen	11277
Wind@@	11275
king	11273
Gründe	11268
Tuesday	11267
erklären	11262
halt	11261
ja@@	11258
Web	11257
2,4	11252
Netzwerk	11249
3,0	11245
Gesetz	11243
Rückgang	11241
mittelschwerer	11240
unver@@	11240
IA	11239
Super@@	11237
Körpers	11231
Angebote	11230
0,00	11228
TE	11227
129	11227
Apartment	11219
gend	11216
Transport	11213
spritzen	11213
Brust	11210
Aktualisierung	11210
Nummer	11207
Beiträge	11207
zug	11206
nten	11206
H-@@	11205
Wahrheit	11204
mmer	11204
offen	11204
Xeloda	11203
Zweck	11203
Empfehlung	11200
bewusst	11197
AF	11195
Natrium@@	11193
Innen	11192
Rest	11190
vs.	11189
Deutschen	11187
kre@@	11187
Jahrhunderts	11182
gewonnen	11181
Unternehmens@@	11179
etten	11178
oly@@	11176
wesentlichen	11174
Alles	11173
u.a.	11168
volumen	11166
sah	11165
Ve@@	11165
ide	11161
Schw@@	11161
Referenz@@	11155
Azomyr	11153
Minister	11152
gro@@	11150
mäßigen	11147
Allergie	11141
Impf@@	11137
43@@	11135
Losartan	11133
sters	11133
junge	11133
Geschmack	11133
sei@@	11128
stehenden	11128
Formulierung	11128
Penfill	11124
Nu@@	11119
soweit	11117
Betten	11117
verloren	11114
niedrigere	11113
sprachen	11112
app@@	11111
Fertilität	11111
West	11110
normal	11108
flu@@	11099
Spe@@	11098
druck@@	11097
direkte	11094
Sverige	11094
like	11087
ür@@	11086
führenden	11081
entzündung	11081
Unternehmens	11080
text	11078
gegründet	11077
Buch@@	11076
Entscheidungen	11075
Bereichs	11074
qualität	11067
angemessen	11066
108	11060
Neoclarityn	11053
deutsche	11051
ff	11048
Betaferon	11048
Pharma@@	11047
SP	11047
cre@@	11044
Reproduction	11042
za	11040
Fer@@	11035
Doxazosin	11034
128	11033
preis	11031
Zyklus	11029
Phenytoin	11017
net@@	11010
Frieden	11008
Transfer	10996
BLISTERPACKUNGEN	10996
Schaffung	10996
trop@@	10995
AZ@@	10993
aktualisiert	10987
miteinander	10987
Dreh@@	10985
ort@@	10985
sicherheit	10983
Diuretika	10979
hof	10979
Option	10979
ox@@	10976
erforderlichen	10975
Veranstaltung	10975
subject	10974
Pool	10973
103	10971
Homepage	10970
X-@@	10970
spiegels	10968
Poli@@	10965
UM@@	10958
Bestätigung	10958
Eis@@	10957
Ausstattung	10953
schla@@	10951
Sunday	10950
nationale	10950
kontaktieren	10949
ot	10948
Max	10948
ba	10948
unterziehen	10947
Bekämpfung	10946
kul@@	10944
geschaffen	10944
Mycophenolatmofetil	10944
3Ftaxonomy	10943
Nationen	10941
Dem@@	10939
12.11.2016	10932
en.htm	10929
H.	10928
Mädchen	10925
mor@@	10924
allgemein	10923
Sam@@	10916
Friday	10912
Privat@@	10912
Komfort	10912
eins	10911
Gegensatz	10906
kürzlich	10902
MIRCERA	10901
Op@@	10898
ris@@	10896
Konzept	10895
Nierenfunktionsstörungen	10892
Tenofovirdisoproxilfumarat	10891
020	10887
spp.	10885
rich@@	10883
kurze	10882
Freiheit	10881
wiesen	10880
mü@@	10879
medicinal	10877
ierter	10876
Wirkstoffen	10874
files	10874
mas	10866
Polska	10866
REYATAZ	10864
sodass	10860
Abbruch	10856
standen	10856
Genehmigungen	10855
Zimmer@@	10852
Indikationen	10847
ktes	10847
Hormon	10847
Großbritannien	10841
anzeigen	10836
a.	10834
tliche	10831
vivo	10831
Deutsche	10830
seh@@	10830
ant@@	10827
Stuhl	10826
bedingte	10819
bewegen	10818
Muskeln	10817
97@@	10816
entsteht	10815
dor@@	10812
Vol@@	10808
Comp@@	10802
tran@@	10800
Winter	10800
heutigen	10798
Telmisartan	10797
bekannte	10794
E172	10793
beruht	10786
hinweisen	10785
gem@@	10781
Nein	10776
resorbiert	10773
Arbeitsgruppen	10771
gerecht	10770
Wer@@	10769
reich@@	10769
digen	10769
Novo	10768
Rad@@	10766
280	10764
BEHÄLTNIS	10763
äußerst	10762
Mischung	10762
Niveau	10762
bild	10760
garantiert	10758
ord@@	10757
Animal	10757
Eingriff	10750
018	10743
Eltern	10742
sts	10741
Christus	10740
denke	10737
Dennoch	10736
Dokumentation	10733
Mitgliedstaat	10732
ZYPREXA	10731
verkaufen	10730
teile	10726
sis	10725
135	10722
Nelfinavir	10721
The@@	10717
Kin@@	10715
zimmer	10715
Prof.	10714
heim	10712
Sucrose	10710
Transport@@	10707
95@@	10706
angewandt	10704
fällen	10698
EL	10697
sterile	10696
Herzinfarkt	10696
document	10690
gem	10688
Fuß@@	10688
Ampullen	10683
Nicht-@@	10677
395	10677
se-	10675
Ker@@	10674
Hämodialyse	10674
überwiegend	10673
Ü@@	10672
Pramipexol	10668
zt	10662
verlust	10662
Affen	10655
Mag@@	10654
posts	10652
Nachricht	10646
setzte	10646
stor@@	10645
ces	10641
ENT@@	10638
Volks@@	10635
AST	10633
Wo	10633
Cap@@	10633
België	10631
KOGENATE	10631
Uni@@	10630
angebracht	10626
Demokratie	10625
bereiche	10621
wöchigen	10616
linken	10616
unterhalb	10616
dri@@	10612
breite	10611
Elemente	10605
Verwirrtheit	10603
ideal	10603
-Therapie	10597
Mein	10592
erleben	10591
Tages	10590
Aufsicht	10587
KB	10587
messen	10582
eingeführt	10573
о@@	10572
aufweist	10572
unterschiedlich	10572
unbekannt	10570
selben	10569
nieder@@	10569
Abstimmung	10568
Pneumonie	10567
Ruhe	10566
Einheit	10566
ehr@@	10564
Haar@@	10561
anlage	10560
ide@@	10559
Grenze	10552
Mehr@@	10550
bahn	10549
menschliche	10549
Landschaft	10549
�	10543
PREZISTA	10540
entsorgen	10539
erfordern	10538
Fra@@	10535
HEXAL	10534
dank	10534
losen	10534
einmaligen	10532
.09.@@	10532
8000	10530
и@@	10530
Verdacht	10523
est	10523
-F@@	10521
Punkten	10519
Beteiligung	10517
ungsin@@	10502
Angelegenheiten	10499
Verbraucher	10498
welchen	10494
notwendigen	10491
stieg	10488
Reinigungstupfer	10488
frühen	10485
Osten	10478
Update	10477
Mannitol	10475
West@@	10473
Städte	10470
dagegen	10466
führ@@	10461
Stoffwechsel@@	10454
ischem	10454
Trans@@	10453
Thursday	10448
genügend	10448
schwangeren	10447
umgestellt	10447
Anamnese	10446
Dienste	10446
ef@@	10444
Dyspnoe	10443
plötzlich	10442
Worte	10442
Stein@@	10442
darstellt	10438
beschriebenen	10436
DVD	10435
357	10432
Beide	10429
runde	10427
guter	10427
ε@@	10426
Piroxicam	10424
läuft	10420
stin@@	10416
19,@@	10415
Krankenhaus	10413
Lieferung	10410
Mark@@	10410
Seh@@	10408
Heizung	10408
produktion	10404
Rückenschmerzen	10403
Rund@@	10403
jährigen	10401
Wel@@	10400
mm3	10400
Tu@@	10399
ug	10398
lebt	10397
kurzen	10396
type	10396
isch@@	10395
Schock	10395
erkrankungen	10394
bist	10393
Absatz	10392
einzigen	10392
heiten	10391
one@@	10390
017	10387
Telzir	10383
nisse	10382
No	10382
sucht	10381
Nederland	10379
Letzte	10373
ha	10372
Verwaltungs@@	10372
way	10371
Mutationen	10369
gastrointestinale	10367
istischen	10367
Wednesday	10364
ergriffen	10362
style	10360
Nervensystems	10359
hau@@	10359
Gla@@	10353
54@@	10353
Zittern	10351
ire	10350
Exelon	10350
Zer@@	10350
OL@@	10350
Wissenschaft	10349
Carbamazepin	10347
-Dosis	10346
dauert	10345
kardiovaskulären	10342
www.skepticalscience.com	10341
Stellungnahme	10339
Mundtrockenheit	10337
wechseln	10336
Berichterstatter	10335
Impfstoffe	10332
Aufdruck	10330
Standards	10330
laufenden	10329
CH	10327
OM@@	10326
international	10321
ine@@	10319
Can@@	10319
erin	10315
LO@@	10312
Martin	10310
ves	10309
Herzschlag	10308
×	10305
Hör@@	10302
Steigerung	10302
Ausgang	10302
Art.	10299
GONAL-f	10298
ett@@	10298
Aufrechterhaltung	10298
welt	10296
Musik@@	10295
Allgemein	10294
EPÜ	10288
manchen	10287
eli@@	10284
col@@	10282
rä@@	10282
Auto@@	10277
Kurzatmigkeit	10277
Ausgangs@@	10277
Caelyx	10276
distribution	10274
Immunantwort	10272
Kribbeln	10271
bestehende	10271
bit@@	10264
film	10262
ungsan@@	10262
Gemcitabin	10260
web@@	10259
tigt	10257
ann@@	10257
Einhaltung	10257
versus	10254
acknowledged	10250
Besserung	10249
leider	10248
sichtbar	10248
win@@	10246
präklinischen	10246
ausreichenden	10245
verdünnt	10244
ders	10242
kr@@	10242
liste	10239
Ren@@	10233
Tuberkulose	10229
sieren	10229
Pass@@	10227
Freunde	10224
Marketing	10222
ter-@@	10222
tive	10222
17,@@	10210
niemals	10209
Auftrag	10204
gen-@@	10204
Süd@@	10203
ir	10199
cy	10198
Verpackung	10196
Aluminium@@	10191
eigenes	10187
Mortalität	10185
Monday	10185
beziehen	10184
Mio	10183
src	10183
erinnern	10180
yl	10179
besitzen	10174
edi@@	10171
reisen	10171
SCH@@	10164
reicht	10162
Ibandronsäure	10161
sche@@	10161
ativ	10154
lierung	10154
Gewalt	10153
unterzogen	10152
Neugeborenen	10150
hingewiesen	10149
bt	10149
gebaut	10147
Bewegungen	10145
.07.@@	10142
room	10140
Hyperglykämie	10139
States	10138
betragen	10130
Global	10130
mil@@	10125
tionen	10123
Übersicht	10121
Ei@@	10118
erlauben	10115
Therapien	10115
DO@@	10114
Tourismus	10113
Internet@@	10111
ct@@	10111
Personal@@	10111
Hol@@	10110
ther@@	10105
wachsen	10102
präsentiert	10101
Wind	10099
tei@@	10097
entdecken	10095
rau@@	10095
At@@	10095
R-@@	10090
Harmonisierung	10087
genehmigt	10087
Acetylsalicylsäure	10086
fel@@	10085
Krankheits@@	10085
dens	10085
Hauptstudien	10084
199@@	10083
K-@@	10083
vorzugsweise	10081
Viruslast	10081
ältere	10080
Grundimmunisierung	10078
angesichts	10074
jo@@	10073
erg@@	10073
Lietuva	10072
greifen	10071
Drei@@	10071
Col@@	10071
|	10070
Park@@	10067
cal	10066
fun@@	10066
Click	10064
ck-@@	10054
Entacapon	10053
schließt	10051
berichten	10051
Abfall	10051
geschichte	10049
Situationen	10047
ak	10043
lebens@@	10042
bezogen	10041
Human@@	10040
Patientengruppe	10039
HERRN	10038
fälle	10033
ry	10030
bauen	10023
Ingelheim	10020
Tierarzneimitteln	10019
Abgabe	10017
Strom@@	10016
Nicht@@	10015
1994	10014
Ideen	10013
64@@	10012
media	10012
Tradition	10011
frage	10006
pra@@	10005
Hin@@	10005
spiele	10001
title	10001
Ob	9998
Media	9997
gekauft	9996
Mehrzahl	9995
Digoxin	9993
brechen	9991
Anwender	9987
Dyspepsie	9984
Reservierungen	9983
Gelenkschmerzen	9983
Tenofovir	9983
entnommen	9977
gal@@	9977
Avenue	9971
gefühl	9971
keinerlei	9969
Setzen	9968
verwendete	9966
Säuglingen	9966
Reproduktionstoxizität	9966
nte	9965
Kraft@@	9963
EX@@	9961
Heiligen	9955
erscheinen	9954
Linux	9952
Kilometer	9949
John	9948
großes	9945
hell@@	9942
Generation	9937
Initialdosis	9935
Mitteilung	9934
begleitet	9934
On@@	9925
vel@@	9924
schlagen	9919
än	9915
Myalgie	9912
tags	9912
Veröffentlichung	9911
Beziehung	9911
zell@@	9908
wel@@	9905
Immunsystems	9904
2,6	9904
kts	9903
427	9903
deten	9901
AR	9900
Niere	9899
service	9895
Minute	9893
button	9892
Schweine	9891
Milliarden	9889
University	9887
Interessen	9886
kontrolle	9882
Hy@@	9882
Ernährung	9881
kommenden	9880
leitung	9879
Staat	9877
set	9874
National	9872
zahl	9868
NovoRapid	9861
teilnehmen	9860
gelb	9858
por	9857
Literatur	9850
sierte	9850
gers	9849
fac@@	9845
Influenza	9842
Menschenrechte	9840
Midazolam	9837
ReFacto	9835
3D@@	9831
Motor@@	9830
vir@@	9828
Sar@@	9828
ferner	9825
lauf@@	9825
schnellen	9822
225	9821
beschädigt	9821
Dienst	9815
vorhandenen	9814
146	9812
sicherstellen	9811
ki@@	9809
Main	9809
Erstellung	9802
BO@@	9801
inhal@@	9801
SC@@	9801
ersetzt	9799
Glas@@	9797
zieht	9795
spro@@	9795
bedingten	9794
werke	9792
commercial	9790
tic@@	9783
2014-@@	9781
keinem	9777
dy@@	9777
123	9776
gut@@	9776
1,6	9776
Dokument	9774
cia	9773
Parteien	9771
geplant	9769
Feld	9768
FOLIENSTREIFEN	9768
Fläschchen	9763
elten	9762
NO@@	9760
Erst@@	9760
überall	9758
sorgt	9757
isation	9755
España	9754
VIII	9751
immun@@	9751
~	9749
Atmen	9746
Sein	9746
veränderungen	9743
erreichten	9742
Fassung	9738
HI@@	9735
ge-@@	9734
rue	9733
flasche	9732
ara	9730
Dor@@	9730
geschehen	9728
sions@@	9726
CELSENTRI	9726
bitten	9725
diert	9724
Mitteln	9722
bed	9719
linie	9716
schul@@	9708
68@@	9706
Tat	9705
Station	9704
Son@@	9704
if	9699
Pri@@	9699
stehende	9697
grad	9695
Europ@@	9694
Tages@@	9694
unzureichend	9692
angewiesen	9687
günstig	9685
Extavia	9684
Jahres@@	9683
Bet@@	9681
Bre@@	9679
vol@@	9678
Somatropin	9677
ble	9674
Xolair	9673
lä@@	9666
nahme	9666
Innovation	9664
sur@@	9664
ess@@	9660
Original@@	9660
maschinen	9656
Häufigkeiten	9656
Ukraine	9654
geln	9652
Kre@@	9651
Architektur	9651
haft	9649
Auswertung	9649
Abb	9648
lor@@	9646
sie@@	9644
Kurs	9641
Komponente	9639
ches	9639
rot	9638
Roche	9637
buch	9636
Unterbrechung	9635
Somnolenz	9634
175	9632
Santa	9629
1,8	9629
liegende	9626
Win@@	9626
SU@@	9621
Ausschuß	9621
Sommer@@	9620
Lau@@	9620
Schweinen	9619
stabil	9618
57@@	9616
d.@@	9615
Sitz@@	9614
musste	9609
beschränkt	9608
53@@	9606
E171	9605
erfolgte	9604
Übereinstimmung	9602
tra	9592
Steuern	9592
entwickelte	9591
transdermale	9589
übernehmen	9588
Erhöhungen	9586
MO@@	9585
Email	9583
15-@@	9581
h-@@	9576
Planung	9576
PO@@	9573
Maschine	9571
Moment	9569
Erd@@	9569
wen@@	9569
bra@@	9565
ursprünglich	9563
Browser	9560
Immobilienportal	9559
komp@@	9558
Ferien@@	9555
tikum	9555
purposes	9551
mag	9550
Problemen	9547
ön@@	9546
Bus	9542
BYETTA	9539
url	9537
Spaß	9536
126	9535
häufigste	9529
Vimpat	9527
Nutzer	9527
Werk@@	9525
1992	9524
Angioödem	9521
Unterkünfte	9521
OR	9519
länder	9518
142	9518
Induktion	9517
Überempfindlichkeitsreaktion	9517
IP	9516
Prometax	9515
Die@@	9515
El	9513
Sehenswürdigkeiten	9509
infizierten	9508
Ph@@	9508
Neupro	9506
dre@@	9503
i.@@	9500
relevant	9500
Lippen	9500
SS	9499
chirurgischen	9499
nde	9499
betroffen	9497
Bewertungen	9496
dauern	9495
beschwerden	9491
Sterne	9491
gewebe	9486
Vo@@	9484
Atemnot	9483
lig@@	9483
pan@@	9482
Length	9480
Milch@@	9480
weiteres	9478
öl@@	9477
Itraconazol	9477
Zusatz@@	9476
Com@@	9474
Übersetzung	9473
Eindruck	9471
2,3	9471
ors	9467
Schlafstörungen	9467
haltige	9466
virus	9463
Verbindungen	9462
България	9460
Keppra	9460
Rechtsvorschriften	9459
Rapamune	9458
Arbeit@@	9456
Anmeldung	9455
Ausland	9454
wagen	9451
steigt	9450
schwerwiegend	9448
Bri@@	9446
Verwaltungsrat	9446
18,@@	9440
Fel@@	9439
Stadtzentrum	9439
Tal@@	9439
Eingeben	9438
Celecoxib	9430
tere	9430
Komp@@	9429
Potential	9428
Autor	9427
Arbeitsprogramm	9426
eng	9425
stärken	9421
Tracleer	9420
dringend	9418
zugelassenen	9416
ologischer	9415
Zimmern	9413
weißer	9412
Nr.@@	9411
Infliximab	9411
industrie	9410
107	9410
Immunisierung	9406
yc@@	9405
84@@	9403
Mel@@	9398
Partei	9394
Anorexie	9393
IL@@	9393
mpf@@	9389
stet	9389
Darunavir	9388
GR@@	9388
blockiert	9387
Ferienwohnungen	9386
wünschen	9386
fan@@	9386
zel@@	9385
peripheren	9383
profitieren	9382
file	9381
E.	9378
Prin@@	9377
bestätigen	9376
å@@	9376
eure	9376
con	9367
Schwer@@	9365
empfiehlt	9365
019	9365
3,3	9364
ek	9364
Studienbeginn	9361
stand@@	9360
Köln	9359
LL@@	9357
vorherige	9357
Norwegen	9354
Blutes	9353
umfassende	9352
liefert	9351
Rebif	9350
längere	9350
G3	9344
Char@@	9344
mäßige	9342
erzeugen	9336
eigen@@	9333
Inc	9332
gewicht	9331
Opfer	9329
Aliskiren	9328
daraus	9327
Wechsel	9327
850	9323
fÃ	9322
Camp@@	9319
bes	9318
ungssystem	9318
Norge	9317
mmer@@	9317
Firmen@@	9317
Zusammenfassungen	9314
erachtet	9313
421	9313
var	9311
DAS	9311
Ferner	9309
offiziellen	9306
Sitz	9305
zugrunde	9303
Kappe	9302
Bon@@	9300
schwach	9300
Fosamprenavir	9300
Auftretens	9298
Vir@@	9298
Bereitstellung	9296
kop@@	9294
359	9293
sam@@	9293
Linderung	9290
Sammlung	9288
vis@@	9287
atoren	9287
sammeln	9286
230	9286
OJ	9282
Depressionen	9280
hom@@	9280
Marke	9280
Kunststoff@@	9278
Parästhesie	9277
Costa	9276
seien	9274
wege	9273
Hau@@	9272
Nieder@@	9272
Appetitlosigkeit	9270
ten-@@	9268
α@@	9267
Wetter	9266
-15	9264
Durchmesser	9263
Ceftriaxon	9261
Medien@@	9260
Helixate	9259
hervor@@	9256
bewirkt	9255
ologischen	9254
Vereinbarung	9250
besonderer	9249
Verwendbar	9247
Fluoxetin	9247
unbe@@	9246
Fisch@@	9243
Ramipril	9241
oper@@	9236
Zalasta	9235
Liefer@@	9231
aufrecht	9231
o.@@	9229
Sauna	9229
260	9227
überschreiten	9224
antiviralen	9223
übergeht	9222
Holz	9222
bekannter	9221
Gesamt	9220
Internationalen	9219
eignet	9218
day	9218
ini@@	9215
hol@@	9211
Schlüssel@@	9206
allergischer	9204
tik	9200
Indien	9196
speichern	9192
haften	9192
Duloxetin	9191
Pankreatitis	9190
Präparat	9190
Zi@@	9183
Preisen	9183
geräte	9180
bur@@	9177
Betriebs@@	9176
ath@@	9174
Dep@@	9173
zufrieden	9172
Beschäftigung	9170
Page	9170
festzustellen	9169
hoffe	9169
↔	9168
Gelenk@@	9165
alem	9165
schi@@	9163
IM@@	9161
Gas@@	9159
konventionellen	9159
Wil@@	9158
Glivec	9157
FlexPen	9157
Reinigung	9155
Remeron	9154
reversibel	9154
Bedürfnisse	9154
Sil@@	9153
Finanzierung	9153
Überleben	9152
System@@	9152
liert	9151
Doppelzimmer	9150
don	9146
wahr@@	9144
damals	9143
lass@@	9143
Ziagen	9142
Tan@@	9140
National@@	9137
NE@@	9137
schrittweise	9136
rz	9134
eingeschlossen	9134
Wahl@@	9134
mus	9130
Inhalation	9130
Bedienungsanleitung	9125
trockene	9123
Ph.Eur.	9121
Vielfalt	9118
bild@@	9117
sau@@	9117
Mechanismus	9116
halte	9115
www.amarilla@@	9113
Brustschmerzen	9110
aufzubewahren	9107
nungen	9107
NexGen	9106
dy	9106
Invirase	9105
lokal	9105
Aripiprazol	9105
gespritzt	9105
Erhöhte	9104
Ap@@	9104
amin@@	9101
Norden	9101
Straf@@	9099
Erreichen	9098
­	9095
dienste	9095
ola	9094
Terfenadin	9094
Kap@@	9092
Boehringer	9091
zentral	9091
tremulous.net	9090
nicht@@	9089
ance	9088
Effentora	9087
people	9082
dritte	9082
0,75	9081
Oder	9080
etz@@	9079
bedingt	9079
direkten	9079
‚	9078
road	9077
Clarithromycin	9076
cer@@	9075
nes	9073
Fil@@	9073
Natürlich	9072
Ersatz@@	9070
stei@@	9068
Entsorgung	9067
1,7	9066
deuten	9059
Treffen	9058
DNA	9056
gewünscht	9055
Score	9054
78@@	9053
wären	9049
sage	9048
fertig	9047
Volibris	9047
günstigen	9047
string	9045
lig	9044
Transplantation	9043
Shop	9043
sel	9043
Ansatz	9042
coli	9041
wan@@	9041
ile	9040
glich	9039
Vertrauen	9038
lige	9038
Quote	9034
strasse	9032
CR@@	9032
kombinierten	9031
data	9031
Ebenso	9029
Messung	9026
tende	9025
bal@@	9024
Sach@@	9024
placebokontrollierten	9023
wiederum	9022
fordern	9020
ron@@	9019
Rapinyl	9016
Ep@@	9007
leistung	9007
Austria	9005
gesunde	9005
komplette	9004
endem	9003
Standort	8998
Progression	8998
Zürich	8998
od@@	8998
Bondenza	8997
50-@@	8993
ach	8990
151	8990
niedrigeren	8988
Rechnung	8984
PRO@@	8983
Straßen@@	8983
Herren	8982
161	8981
behandelnden	8981
Gesch@@	8981
reg@@	8980
karten	8976
Star@@	8975
eingereicht	8973
Seele	8970
erstmals	8968
sport	8967
tika	8967
gliche	8964
chi@@	8963
Rivastigmin	8959
Boden@@	8959
ska	8956
Bett	8956
Heparin	8952
umfassen	8952
Zevalin	8950
erwies	8947
sischen	8943
Eingang	8943
don@@	8941
Leitung	8938
wichtigste	8938
Dass	8938
Tasmar	8938
ane	8934
Weiter@@	8934
Kindes	8933
haus@@	8933
Tarceva	8931
jahr	8928
Lager@@	8928
Schäden	8926
Ref	8925
Cro@@	8925
SD	8925
chronische	8924
erforderliche	8924
chs	8923
ik	8923
Imp@@	8920
EU@@	8919
Küste	8919
Bemühungen	8916
si	8916
Kauf@@	8912
deze	8910
IF@@	8909
Thomas	8907
Optionen	8906
tz-otocac.hr	8901
iccaldate	8901
sigFreeId3fcf764576	8901
Dort	8900
Kra@@	8898
Klima@@	8895
353	8895
Ausgaben	8895
verursachte	8893
betreffenden	8887
ug@@	8886
Sardinien	8885
Ja@@	8882
Geld@@	8881
leu@@	8877
Bezeichnung	8877
ingen	8872
ws	8872
ett	8868
getragen	8868
Gol@@	8866
Silapo	8865
Zwischen	8863
beraten	8861
Herzrhythmusstörungen	8860
Pro	8856
Patientin	8855
mut@@	8855
starker	8855
134	8854
tz	8853
alternative	8851
begrenzten	8851
rat	8849
Gefahren	8847
Hi@@	8846
char@@	8846
Fertavid	8845
Dermatitis	8845
bach	8845
Laktatazidose	8841
98@@	8840
nummer	8832
Gewichtsverlust	8827
Hypo@@	8826
ise	8823
schwierig	8823
Kanada	8822
Budapest	8821
Experten	8820
symptomatischen	8819
Initiativen	8816
Temodal	8816
HCT	8815
passiert	8815
Pen@@	8813
0,0001	8808
hän@@	8807
punkt	8806
ce-@@	8806
Karvezide	8804
Fern@@	8804
Lebensmittel@@	8802
-Studie	8799
Calcium@@	8798
tiefe	8796
VFEND	8796
Radi@@	8793
Festival	8790
-A@@	8782
eliminiert	8781
CoAprovel	8780
Austausch	8776
Rapid	8775
Suomi	8774
verstärkte	8768
rekonstituierte	8767
Hirn@@	8766
leb@@	8766
Tisch	8766
Zyklen	8766
stische	8766
meines	8765
zw@@	8765
veränderter	8764
belegen	8763
multi@@	8761
Beispiele	8755
Player	8753
auftretende	8753
Versuchen	8753
herunterladen	8749
Ster@@	8749
Basal	8748
Ki@@	8746
bilder	8746
fl@@	8745
Erythem	8744
untersuchten	8744
park	8743
Blutuntersuchungen	8743
just	8742
negativen	8742
ward	8740
ub@@	8740
Entwicklungen	8739
zeichnet	8738
Den@@	8735
Island	8733
cher@@	8732
sch-@@	8731
wirtschaft	8730
cur@@	8730
erklärte	8727
Afrika	8725
produzieren	8725
Bearbeitung	8725
Preis@@	8724
ART	8724
Patientengruppen	8723
probleme	8716
ments	8714
plan	8712
sk	8711
Halluzinationen	8710
DURCHSTECHFLASCHE	8710
einander	8707
Stillen	8705
Blutgefäße	8704
tlichen	8704
ogra@@	8702
SI@@	8702
schen@@	8702
OT@@	8702
Tonnen	8700
mittelschweren	8698
wand	8690
hab@@	8689
funktion@@	8689
1993	8688
geschieht	8685
gelagert	8684
bad	8682
tel@@	8682
†	8681
14,@@	8681
Safe	8680
ktor	8679
ographie	8677
220	8676
Regierungen	8675
endlich	8674
.c@@	8672
fol@@	8671
Hämoglobin	8668
verlieren	8667
Sa	8666
Inspektionen	8666
15,@@	8664
á	8664
BeneFIX	8662
ks@@	8661
Indi@@	8659
a-	8659
MA@@	8659
perfekt	8658
lungen	8657
Tran@@	8656
Antikörper@@	8654
Here	8652
Kontrollgruppe	8651
Verschlusskappe	8650
Glimepirid	8649
Pers	8647
exkl	8646
Treatment	8641
stammen	8641
theit	8640
Aussicht	8639
App@@	8634
cin@@	8633
J.	8632
körperliche	8631
Aussehen	8631
vereinbart	8630
Sur@@	8630
stein@@	8629
Anfälle	8629
dige	8628
Top	8627
ausdrücklich	8626
vorgeschlagenen	8624
tigkeit	8623
Retacrit	8621
SPC	8620
Haltbarkeit	8617
Nasen@@	8617
Topotecan	8616
Adapter	8616
globalen	8616
Erholung	8614
Grenz@@	8613
Kann	8613
Sorbitol	8611
Remicade	8610
š@@	8609
а@@	8607
hängen	8603
Aufbewahrung	8602
PC@@	8600
20,@@	8600
CI@@	8596
welt@@	8592
Chance	8591
nd	8585
157	8583
zier@@	8582
Doppelbett	8580
zog	8580
Paul	8580
Sowohl	8579
Dosierungs@@	8579
24-@@	8579
Kroatien	8579
rein	8575
months	8573
Gegend	8572
Purevax	8572
Haben	8572
zählt	8569
sorgfältige	8568
Psoriasis	8568
computer	8567
am-@@	8566
Förder@@	8564
yl-@@	8563
Ursachen	8563
România	8562
fähig	8562
152	8559
Stadium	8558
Überblick	8557
fanden	8555
HANDELSNAME	8555
best	8555
jpg	8553
aut@@	8552
14.@@	8551
bus	8549
versehen	8548
strategie	8548
HDPE	8544
organisiert	8543
sper@@	8541
nden	8540
dosiertem	8540
durchgeführten	8537
Arthralgie	8533
tur	8533
Bürger@@	8532
fortgeschrittenem	8532
unterscheiden	8532
Medikament	8530
topic	8525
ok	8524
Kurz@@	8524
HR	8523
Rhabdomyolyse	8523
drin@@	8522
Α@@	8522
blo@@	8519
Sinn	8517
französischen	8516
114	8515
EF@@	8512
sta	8512
Geben	8511
Ohr@@	8510
reaktionen	8509
hor@@	8507
sierung	8506
überschritten	8505
beschäftigt	8505
ssen@@	8505
digt	8504
stischen	8504
isch-@@	8499
Markierung	8493
Zubehör	8492
Leberenzyme	8491
Kli@@	8491
täglicher	8490
Ceplene	8489
Thrombozytenzahl	8489
weißes	8485
trifft	8483
Dem	8483
Frakturen	8482
1990	8477
din	8477
dert	8476
TEN	8474
Bus@@	8474
bl@@	8474
Hor@@	8474
300@@	8473
Alternative	8473
Stavudin	8472
sier@@	8472
Chi@@	8471
ßt	8469
ino	8467
Lie@@	8466
Plattform	8465
Str	8465
Häufige	8462
IB@@	8461
FSH	8460
Konfidenzintervall	8458
Infrastruktur	8456
Süden	8455
Sy@@	8454
Präsidenten	8454
116	8453
Auss@@	8452
w.@@	8449
Lauf@@	8448
sil@@	8447
ase-@@	8447
Antidepressiva	8446
werk@@	8445
MSD	8444
Mis@@	8444
umgesetzt	8443
Research	8442
Gallen@@	8441
beider	8440
1200	8440
Schwerpunkt	8439
verschlossen	8437
Netz@@	8436
Benutzen	8434
teren	8431
traditionellen	8430
wal@@	8429
Haarausfall	8428
Angesichts	8428
Lang@@	8427
170	8427
die@@	8426
Erteilung	8425
aufeinander	8425
Einklang	8424
verschreibungspflichtige	8423
ev@@	8423
Fortschreiten	8422
Hauptstadt	8422
Bonviva	8422
bisherigen	8421
Gehen	8421
neun	8421
cken@@	8421
which	8418
beschlossen	8417
96@@	8413
Futter	8409
show	8407
Orphan	8407
Engagement	8404
Ke@@	8403
gelangt	8402
Metabolit	8402
Gebieten	8402
lungs@@	8401
13,@@	8401
tigung	8400
malignen	8398
Operationen	8397
sport@@	8397
sach@@	8396
Substrat	8395
Gast	8391
Gummistopfen	8390
enthaltenen	8390
Programm@@	8389
sea	8388
Prote@@	8385
tut	8385
Is@@	8375
3000	8375
42@@	8373
bezahlen	8372
Aussprache	8372
erei	8369
5,0	8369
Sepsis	8368
bislang	8367
Geh@@	8367
ded	8363
Fähigkeiten	8363
Formular	8357
DI@@	8357
information	8356
negativ	8355
Produktes	8352
Lager	8352
FL@@	8351
Kategorien	8351
PS	8350
Pilzinfektionen	8349
wie@@	8348
Antibiotikum	8347
ence	8345
Proteine	8338
mag@@	8337
auslösen	8337
haltung	8336
zz@@	8336
senkt	8336
Nevirapin	8335
tat	8334
IM	8333
stimmen	8331
ursprünglichen	8328
German	8325
183	8322
fü@@	8322
Menschen@@	8322
box	8322
travel	8321
Gold	8320
Cytochrom	8319
231	8318
gutes	8318
amerikanischen	8318
derzeitigen	8317
persönliche	8313
liegenden	8313
ogen	8312
bla@@	8312
Sulfonylharnstoff	8311
Modelle	8310
State	8308
gesenkt	8308
hafte	8307
Dublin	8306
miss@@	8304
Brust@@	8304
sich@@	8302
farblos	8300
gehalt	8300
Back@@	8299
era	8299
behandelte	8299
Leukopenie	8298
eri@@	8297
Diarrhoe	8297
Zometa	8296
Anbruch	8291
InductOs	8290
zuverlässige	8290
AC	8286
Sor@@	8285
Durchschnitt	8285
.at	8284
viewtopic.php	8284
021	8281
zutrifft	8280
InnoLet	8278
Schwindelgefühl	8277
habt	8277
stück	8277
Kaffee	8277
Κύπρος	8276
od	8272
denden	8269
bung	8269
hinzugefügt	8267
ZUSAMMENFASSUNG	8266
Schlussfolgerungen	8264
Schweizer	8262
Tabletten@@	8261
veränderte	8256
118	8254
122	8254
übrigen	8254
Start@@	8253
Führung	8250
Schmerz@@	8250
Blutgerinnsel	8250
Dysfunktion	8248
Präsidentin	8244
feste	8242
breiten	8242
zur@@	8240
Net@@	8239
Rot@@	8237
2,7	8236
gli@@	8236
näher	8236
Infektions@@	8232
ierungs@@	8231
gewünschte	8231
Schutzkappe	8231
Infanrix	8230
entstanden	8230
stillenden	8230
ideale	8229
schlucken	8227
ht	8224
Gemäß	8223
ss-@@	8222
Reg@@	8222
Retardtablette	8222
Armen	8220
ø@@	8217
ley	8215
ica	8215
Dat@@	8214
Tremor	8212
Hautrötung	8211
schau@@	8211
bern	8208
2,8	8199
Abteilung	8195
Behältnis	8195
Koordinierung	8193
target	8192
post@@	8192
Debatte	8191
Ελλάδα	8191
Aclasta	8191
Pharmazeutischer	8191
bli@@	8191
toxische	8190
VI@@	8188
Genotyp	8185
331	8184
log@@	8183
Puh	8182
gemeldet	8178
MI	8178
Feld@@	8177
fortgeschrittenen	8176
Des	8175
sien	8174
hervor	8174
Lip@@	8172
genannte	8171
W-@@	8169
vermutlich	8169
ore@@	8168
206	8167
Ran@@	8165
Nutzen-Risiko-Verhältnis	8164
Cer@@	8164
sar@@	8164
starten	8163
ße	8163
funktionen	8159
ñ@@	8155
mitteilen	8155
Berg	8154
blutungen	8151
Median	8151
Anwendungsgebiete	8145
Fachinformation	8144
Tipranavir	8142
CT@@	8140
201	8140
bares	8139
ade	8138
114@@	8137
monatlich	8137
Far@@	8132
stärke	8130
nationaler	8130
nennen	8129
Bücher	8126
blog	8124
Injektionszubereitung	8124
16,@@	8124
Polypropylen	8123
Gästen	8123
zugleich	8122
Insbesondere	8122
Glauben	8120
EWG	8117
Loratadin	8116
See@@	8115
dischen	8115
e.@@	8114
Pir@@	8112
bezieht	8111
Hemmern	8109
320	8108
wil@@	8107
hel@@	8107
Der@@	8105
168	8105
Karton	8104
Spielen	8103
schütteln	8101
schem	8100
144	8100
CP@@	8100
24,@@	8098
Mischen	8096
akzeptiert	8094
kulturellen	8094
ρ@@	8094
sion@@	8094
zogen	8093
installiert	8092
work	8090
Sand@@	8086
schu@@	8085
äl@@	8084
ack@@	8081
Desloratadin	8081
Stoffe	8078
rech@@	8077
dliche	8077
erzeugt	8077
™	8075
ICH	8068
sig@@	8068
s.	8068
Ablauf	8067
lier@@	8065
persönlich	8062
Karvea	8061
Gewährleistung	8061
tödlich	8059
1.jpg	8059
füllen	8056
jüngeren	8056
potenzielle	8053
erb@@	8051
gegenwärtig	8051
ktor@@	8051
.-@@	8050
Salbe	8048
ander@@	8047
span@@	8044
Leu@@	8042
eröffnet	8042
Mikrokristalline	8042
yer	8041
2,1	8041
funktionieren	8041
tar@@	8039
berühmten	8039
bestellen	8037
olog@@	8036
Dexamethason	8036
Kombinationen	8034
Immunogenität	8033
Raum@@	8031
Garten@@	8031
igkeit	8030
Begriff	8029
wär@@	8028
öse	8026
A-	8026
Seretide	8026
sionen	8026
gelassen	8025
Einzelheiten	8025
Pflanzen	8025
Spezies	8024
Los	8015
Kol@@	8011
werfen	8010
Spitzen@@	8010
i.v.	8010
ssystem	8009
mt	8008
en.	8007
installieren	8006
Empfängnisverhütung	8006
pol@@	8006
Unruhe	8005
Sonstige	8003
Prozesse	8003
plätze	8003
121	8003
Referat	8001
product	8000
Saison	7999
indi@@	7999
gran@@	7998
dische	7996
Verschiedene	7995
t.	7994
Rel@@	7993
absolut	7993
schönsten	7992
design	7991
Objekt	7991
Effizienz	7990
Kr@@	7989
ersetzen	7987
aufgeteilt	7984
Sat@@	7981
Anschließend	7981
schicken	7980
inneren	7978
Zei@@	7977
Gesichts@@	7976
ena	7976
EMEA-@@	7975
Auflösen	7973
Rö@@	7972
yn@@	7970
Gegenstand	7970
Wirkstoffs	7967
More	7966
sämtliche	7966
Wirkstoff@@	7965
Einen	7965
Firmen	7964
-C@@	7963
119	7963
Stu@@	7963
Kanülen	7961
Werkzeuge	7960
ierenden	7955
ität	7954
Botschaft	7953
anti-@@	7953
ona	7951
klasse	7948
Wirkstofffreisetzung	7948
eg@@	7947
.11.@@	7945
geringeren	7945
Placebo-Gruppe	7945
Darstellung	7944
Kein	7944
lö@@	7943
Vergleich@@	7943
Protein@@	7943
ech@@	7942
Sind	7942
Galerie	7940
dal@@	7938
Netz	7937
Trotz	7935
aufnehmen	7935
Lamictal	7934
Hämophilie	7933
Are	7932
Sektor	7932
Etikettierung	7931
kraft@@	7931
Zugriff	7930
Definition	7930
Herpes	7929
Bondronat	7929
pass@@	7929
emea.europa.eu	7923
Muskelschwäche	7923
-Behandlung	7923
Log	7922
Gute	7921
Frühstücksbuffet	7921
niemand	7918
0,000	7916
europäischer	7916
zuge@@	7916
pen	7915
EMEND	7914
sse@@	7912
sat@@	7910
Solar@@	7907
hotels	7906
Gefäß@@	7906
Mitarbeitern	7905
zig	7904
zieh@@	7903
Pil@@	7898
anpassen	7898
Hinter@@	7897
25-@@	7895
ZU	7894
irgendwelche	7890
Verbesserungen	7890
gerichtet	7889
hierzu	7889
Instrumente	7888
Ordnung	7886
schlag	7886
NovoSeven	7885
Partnerschaft	7884
Spezial@@	7883
wir@@	7882
erwähnt	7881
Musi@@	7880
auss@@	7880
Öl	7880
viel@@	7879
Tamiflu	7879
Km	7879
phase	7877
status	7876
Früh@@	7874
Zucker	7873
zes	7873
ungss@@	7872
Werkzeug	7872
a.com	7871
ik@@	7870
Altersgruppe	7869
Stimulation	7869
ally	7869
Regelung	7868
Haushalt	7868
Tau@@	7868
stat@@	7867
negative	7867
4,8	7867
identifiziert	7866
risiko	7865
2,2	7865
Calcium	7864
rö@@	7861
ese	7859
folgender	7856
vermuten	7856
Out@@	7855
Fertig@@	7854
Herzerkrankungen	7854
isierung	7852
Bade@@	7852
10H	7851
Damen	7850
Juden	7850
aktivität	7849
Dialyse	7848
symptomatische	7848
Texas	7848
Sandoz	7847
ome	7847
geraten	7846
Hydroxy@@	7846
Paket	7845
zieren	7844
Slovenija	7843
hr	7840
Herausforderung	7840
375	7838
Amsterdam	7835
Gericht	7834
New@@	7833
86@@	7832
spiegeln	7832
Viani	7832
Obstipation	7831
Puerto	7831
Präparate	7830
Omnitrope	7830
Wirk@@	7830
fuer	7828
tor	7827
cy@@	7827
XP	7825
extrem	7822
Herzfrequenz	7822
aufgefordert	7821
Kunde	7820
ktiv@@	7820
Befunde	7820
Fleisch	7820
Radio	7820
AD	7819
Twinrix	7819
beinhalten	7819
Comp	7819
е@@	7818
Injektions-	7816
aufgelistet	7813
abzusetzen	7813
off@@	7813
schwerem	7812
Ohne	7812
Polyethylen	7811
î@@	7810
verbesserte	7809
Provinz	7808
cap@@	7807
Entstehung	7804
ski	7802
Fortsetzung	7802
Hil@@	7802
Sau@@	7800
namens	7800
AIDS	7800
Wand@@	7800
regionalen	7794
Gleichzeitig	7793
olo@@	7792
historische	7791
Hals	7791
une	7791
Rat@@	7790
enter	7790
sogenannten	7790
ruhigen	7789
Off@@	7789
anbieten	7788
ARZNEIMITTELS	7784
Kontakt@@	7783
yo@@	7782
Norvir	7780
reaktion	7777
Advagraf	7771
Zahlungs@@	7771
enn@@	7767
England	7767
id-@@	7766
Texte	7766
gesp@@	7765
lösungen	7765
good	7764
basieren	7763
schü@@	7762
einfachen	7761
fehlt	7757
bs	7753
zugänglich	7752
Mir@@	7750
TAXOTERE	7749
betrachten	7748
94@@	7747
zierte	7747
trei@@	7746
dungen	7746
entgegen@@	7745
Nahrungsaufnahme	7744
Natriumchloridlösung	7743
cal@@	7740
namen	7739
Appetit	7736
einsetzen	7736
lieben	7735
dieselbe	7734
tex@@	7733
Städten	7732
pe	7731
Projekten	7731
Liter	7729
mati@@	7729
erweitert	7729
hemmen	7728
SUSTIVA	7727
Sei@@	7726
Stuttgart	7725
Helicobacter	7724
Protopy	7723
radioaktiv	7722
Stamm@@	7722
PD@@	7721
Verständnis	7720
atischen	7719
arbeitete	7719
Vil@@	7719
lat@@	7719
heits@@	7718
res	7718
beurteilen	7717
news	7716
Voraussetzungen	7715
Didanosin	7715
Kenn@@	7714
Gesam@@	7714
CONSTA	7713
ous	7712
passt	7710
ty@@	7709
Jugend@@	7708
auszufüllen	7707
any	7706
n.@@	7705
urie	7704
14-@@	7703
image	7703
Dosisanpassungen	7702
verschreiben	7701
Einstichstelle	7701
überzeugt	7700
Besonders	7699
asi@@	7699
danken	7698
verhalten	7697
alter	7696
Zustimmung	7695
fonds	7694
2009-0@@	7694
sierten	7692
Benutzung	7691
leg@@	7690
o-	7689
Gener@@	7689
ansteigen	7688
gegangen	7688
EIN@@	7688
205	7684
Vardenafil	7684
selbst@@	7683
Fran@@	7681
ungsprozess	7681
Trizivir	7679
2-mal	7679
Mini@@	7679
Professor	7678
eter@@	7678
start	7677
Johannes	7677
Infusionen	7676
fal@@	7676
ärztliche	7675
Papier	7675
Sanofi	7673
Gestaltung	7671
1,9	7671
oti@@	7670
Büro	7667
Maß	7667
begrüßt	7666
Standard-@@	7665
Dun@@	7665
Set	7664
jährige	7664
HA@@	7663
vari@@	7661
Dire@@	7661
BI@@	7661
Infos	7660
Füßen	7659
Koma	7656
geringere	7654
Radioaktivität	7652
CHAMPIX	7652
ovale	7650
CML	7647
welchem	7646
dos	7645
gesprochen	7643
MA	7642
Verarbeitung	7642
Analysen	7642
Microsoft	7642
270	7642
neuesten	7640
Kopf@@	7639
Efexor	7639
Golf	7638
Kontrollen	7636
Antagonisten	7636
Belastung	7636
oms	7635
Mehrfach@@	7634
stattfinden	7631
elektronische	7630
Talkum	7630
Soliris	7629
gl@@	7629
chinesischen	7628
Registrierung	7628
74@@	7627
354	7627
μ@@	7626
glichen	7624
vo	7623
mitten	7622
been	7621
Berge	7620
Versch@@	7619
Stalevo	7618
Vereinigte	7618
Spuren	7616
Raptiva	7616
ch-@@	7616
pal@@	7614
Pelzont	7614
Povidon	7612
Ci@@	7611
wür@@	7610
Ost@@	7606
Einstellungen	7606
wohnen	7604
Vertrags@@	7603
nutzt	7603
brachte	7603
part@@	7603
chter	7601
AX@@	7599
amp@@	7599
Album	7599
interessiert	7598
174	7598
dosen	7598
Eur@@	7597
JPG	7596
ator@@	7595
laut	7593
terminale	7593
abgesch@@	7592
sing	7592
packung	7591
wirkung	7591
ierungen	7590
tal@@	7589
Parken	7589
Plasmaproteine	7588
Abendessen	7588
Mund@@	7586
³	7585
praktisch	7584
code	7583
South	7582
Tel@@	7581
räume	7580
italienischen	7580
sul@@	7579
Mass@@	7578
ETIKETT	7578
ret@@	7578
ergreifen	7576
Objekte	7574
oralem	7574
verbringen	7571
handeln	7570
markt@@	7569
Sirolimus	7569
mess@@	7563
aufgelöst	7563
TORISEL	7561
herum	7561
Gen	7561
Schu@@	7561
umwelt@@	7561
chs@@	7560
nachhaltige	7559
Ankunft	7558
373	7557
Leben@@	7557
anischen	7557
EIB	7555
Noch	7555
Campingplatz	7554
wa	7554
Zentral@@	7553
Nervosität	7552
Gei@@	7546
sses	7545
Stock	7542
skepticalscience.com	7539
Schritten	7538
kap@@	7537
Wachstums@@	7536
Fr	7535
Hauses	7534
Live	7533
Antidiabetika	7532
iel@@	7531
203	7531
Entwickl@@	7531
Lagerung	7528
Urin@@	7528
Kl@@	7527
Venlafaxin	7527
Kortikosteroiden	7525
Verpflichtungen	7524
vierten	7523
stag	7523
Diesen	7522
schule	7522
führer	7520
var@@	7519
ungspro@@	7518
ziemlich	7518
heben	7518
Ausführung	7517
Archiv	7516
Banken	7516
Führen	7516
schauen	7516
hilfe	7513
trotzdem	7511
nungs@@	7510
Abseamed	7509
zufolge	7508
ole@@	7508
index	7507
Pferde	7506
fern	7506
Plasma-@@	7506
18-@@	7506
Altstadt	7504
verminderter	7502
anten	7501
Index	7501
RoActemra	7500
HD	7499
mussten	7498
ama	7498
Orte	7497
Ägypten	7497
langfristige	7496
verbinden	7496
tä@@	7494
zustand	7492
seid	7492
Fon@@	7492
forschung	7491
schlecht	7491
Betrieb@@	7485
1.0@@	7484
methoden	7484
Wechsel@@	7484
1991	7483
Weiße	7483
Siliciumdioxid	7482
NSAR	7480
umgeben	7479
verfolgen	7479
kleines	7478
dorf	7477
Tredaptive	7477
Charakter	7476
OptiSet	7475
S.p.A.	7474
User	7471
Erythropoetin	7470
Schädigung	7469
es-@@	7468
besprechen	7468
reise	7468
laufende	7467
leistungs@@	7466
ebene	7464
Kreuz@@	7463
Binocrit	7462
willkommen	7460
hinter@@	7459
weshalb	7458
klein	7457
Tar@@	7454
CA	7453
Überprüfen	7452
2010-0@@	7452
www.rau-consultants.de	7451
ün@@	7451
deinen	7450
sterne	7449
Photos	7449
GB	7447
Berufs@@	7446
wunder@@	7446
il-@@	7445
NA@@	7445
gol@@	7444
Vier@@	7444
Ärzten	7443
wirst	7443
Nicotinsäure	7443
t.@@	7443
Spa	7442
Drei	7438
Atmung	7436
Schloss	7434
Patientenjahre	7434
Vis@@	7434
aller@@	7432
ai	7431
ami@@	7429
dungs@@	7428
zuständig	7426
ppe	7426
umgewandelt	7424
Pat@@	7424
vermindern	7423
blank	7423
Pr@@	7422
ABILIFY	7422
wur@@	7420
reservieren	7420
Presse	7417
Tür	7414
produkten	7409
erhoben	7407
zahl@@	7407
m.	7406
ländern	7406
dem@@	7402
Sklerose	7401
Gemfibrozil	7401
liebe	7401
Protopic	7399
Av@@	7399
Prozess@@	7398
itäts@@	7398
Insulin-@@	7397
Granulat	7396
kontrollierte	7395
ständigen	7395
blaue	7395
gungs@@	7395
Blog	7395
Abbau	7394
Verletzung	7394
Mindest@@	7393
Halle	7393
ausgewählt	7393
Atembeschwerden	7392
IE@@	7391
love	7388
Emtriva	7386
Strom	7386
internationaler	7385
143	7384
well	7381
Part	7378
INFORMATION	7375
Virus@@	7375
Arzneimittelwirkungen	7374
festen	7373
Healthcare	7372
gänge	7371
dürfte	7369
Magyarország	7369
β	7368
PE@@	7368
wit@@	7367
Zonegran	7366
5000	7363
Selbst	7363
sichern	7361
atives	7360
Elektr@@	7358
eur@@	7357
Verstärkung	7357
gespeichert	7356
Hoffnung	7355
Cat@@	7355
mme	7355
Theater	7354
verkauft	7354
getrennt	7353
TEXT	7352
gestalten	7352
tage	7351
itis	7350
ou	7349
ν@@	7349
emp@@	7349
1-	7347
Hinsicht	7345
Kochsalzlösung	7344
RA	7343
Ris@@	7343
pfen	7342
möglicher	7340
ata	7339
lan	7338
Lda	7336
inaktiviert	7333
Grand	7333
herr@@	7332
bequem	7331
ring	7329
Entwurf	7328
STOCRIN	7328
Pl@@	7328
tierung	7327
ita	7325
weiten	7325
rel@@	7324
identisch	7323
	7323
satz@@	7322
alan@@	7322
kurs	7319
Presse@@	7318
derartige	7318
2-	7315
für@@	7315
Kivexa	7314
Seiten@@	7313
Kapazität	7311
Flecken	7311
Verkehrs@@	7309
EVRA	7308
Messlöffel	7308
NeoRecormon	7308
Ag@@	7305
ated	7301
wesen	7300
einrichtungen	7300
los@@	7298
lauf	7298
aufmerksam	7298
person@@	7296
ill@@	7294
CA@@	7294
elektronischen	7293
Verkehr@@	7290
Versuch	7289
Straßen	7288
boden	7287
2x	7287
uni@@	7284
ny	7284
erinnert	7282
Belgium	7281
Extra@@	7281
Posaconazol	7278
sichergestellt	7278
Revolution	7277
Ware	7277
Darm@@	7277
wiederholen	7276
kri@@	7275
Photo	7274
S.@@	7274
vorher@@	7273
Heilung	7273
kardiovaskuläre	7273
Rumänien	7273
ink@@	7271
ther	7270
VIRACEPT	7267
Dur@@	7266
radi@@	7265
Gründung	7264
rekombinantes	7264
mmern	7263
Januvia	7263
kurz@@	7263
133	7261
Truvada	7259
Brennen	7258
Westen	7255
Impressum	7252
assoziierte	7252
there	7250
roter	7248
Fac@@	7246
Stiftung	7246
Fett	7245
Gelbsucht	7245
→	7244
ada	7242
Haustiere	7240
ds@@	7235
angemessenen	7233
Langzeitbehandlung	7233
Nerven@@	7231
Not@@	7230
Bank@@	7229
Impfungen	7228
scheinen	7228
Bir@@	7223
190	7222
Tierarzneimittels	7219
empf@@	7219
betrugen	7218
Reizbarkeit	7218
RF@@	7218
Nifedipin	7218
CYP2C9	7217
Getränke	7217
024	7214
doppelte	7214
jener	7214
ay	7213
verminderten	7212
Studium	7211
gebiete	7208
229	7207
ausgeprägt	7206
dende	7206
Albumin	7206
erwarteten	7205
Beobachtung	7205
verwaltung	7204
Fahrt	7203
Schlucken	7203
Jerusalem	7202
Aufzug	7202
Stärken	7201
kel@@	7199
Medikamenten	7199
Events	7198
datum	7197
ville	7196
besseren	7195
HBV-@@	7194
schn@@	7194
TO@@	7193
nochmals	7193
Viertel	7193
oxi@@	7192
sische	7191
Abbott	7191
Free	7187
Stämme	7186
219	7185
Doxorubicin	7184
eingereichten	7184
Wander@@	7184
bit	7183
113	7182
Che@@	7181
ologen	7181
Instrument	7181
Cu@@	7179
fein@@	7177
EXUBERA	7177
Port@@	7177
enge	7176
Schatz	7176
stro@@	7176
iere	7175
Denken	7175
ktoren	7175
Knochenmark	7175
struktur	7174
208	7173
CDATA	7173
Ir@@	7170
Autos	7170
Gegenanzeigen	7169
218	7168
Bauch	7166
Fremd@@	7164
3,4	7164
were	7163
search	7162
hinweg	7161
stal@@	7161
CIALIS	7161
hervorgerufen	7160
A.@@	7159
Trevaclyn	7159
BER@@	7159
UL@@	7157
ierende	7157
erfahrenen	7157
Zulassungs@@	7155
Drittel	7153
Unverträglichkeit	7153
Ly@@	7147
ZUR	7147
MabCampath	7146
fordert	7146
operativen	7143
Emulsion	7141
Schönheit	7141
Resistenz@@	7140
werdet	7139
Sie@@	7138
korrekt	7138
fs	7136
Gelatine	7136
ι@@	7134
wider	7132
out@@	7130
tigem	7130
046	7129
Demenz	7127
Öl@@	7126
Strecke	7126
Elektro@@	7125
verzögert	7123
ktiv	7122
schwarz	7122
punkte	7122
Freunden	7121
haf@@	7119
gründlich	7118
Games	7118
stellten	7117
TH@@	7115
Fuzeon	7114
lös@@	7114
ktiven	7113
Cholestagel	7113
Willkommen	7113
Actrapid	7113
OPA	7109
ordnung	7104
e-	7104
79@@	7102
äh@@	7102
Eliminationshalbwertszeit	7101
Fun@@	7101
Filter	7101
www.amarillas@@	7101
4,6	7100
vie@@	7099
Mitgliedern	7099
Pasteur	7098
bie@@	7097
ähnliches	7096
CL@@	7094
Insulatard	7094
kern	7094
Bauchspeicheldrüse	7093
handel	7093
ay@@	7092
Protokoll	7091
Regel@@	7088
hohes	7088
Log@@	7088
Verhinderung	7087
400@@	7086
arbei@@	7086
Salz@@	7085
Wit@@	7085
Beta-@@	7084
asen	7084
Handel@@	7081
Lebensmittel	7081
blau	7079
aufrechterhalten	7078
denk@@	7077
Development	7075
Bildern	7075
Blutdruckabfall	7074
iti@@	7073
ungewöhnliche	7073
Beinen	7072
randomisierte	7072
reiche	7071
Dosierungsschema	7070
4,0	7069
mier@@	7069
anzupassen	7069
stau@@	7068
Strahlentherapie	7067
Č	7065
3,6	7064
Dollar	7061
krankheit	7059
MR@@	7058
Bru@@	7056
Company	7055
setz@@	7054
Slovenská	7054
sätze	7054
SL@@	7053
4000	7052
anz@@	7050
einfacher	7047
ating	7047
est@@	7046
Star	7046
cli@@	7046
137	7046
morgen	7044
ning	7043
mark@@	7040
Protaphane	7040
angewendeten	7040
Show	7040
beg@@	7038
länge	7038
Vorsitzender	7036
band	7034
Sä@@	7034
rufen	7034
Unterteil	7031
tief	7029
kosten@@	7026
Do	7025
zentr@@	7019
entr@@	7019
verfolgt	7018
Todesfälle	7017
Wann	7016
Metall@@	7015
Vielleicht	7014
analyse	7013
nachfolgend	7012
Partnern	7011
Capecitabin	7011
trau@@	7009
3D	7009
Tour@@	7007
schriftlich	7007
kun@@	7007
com	7006
legung	7004
Kooperation	7004
Stra@@	7003
Glück	7000
ligen	6999
Gran@@	6999
under	6999
Unterlagen	6999
mangel	6998
â	6998
is-@@	6997
Zavesca	6997
196	6997
empfangen	6996
erleichtern	6994
Euro@@	6993
lip@@	6993
Stand@@	6991
Neur@@	6990
lar	6988
AA@@	6987
Eli@@	6987
ausgelöst	6985
General	6985
zeugen	6985
trag@@	6983
alli	6982
ehemaligen	6981
ungsprogramm	6980
Lich@@	6980
ue	6979
bs@@	6977
flächen	6977
Roll@@	6975
Bla@@	6975
einzigartige	6975
NutropinAq	6972
ne-@@	6970
beachtet	6970
Zug	6969
Wert@@	6968
Lebererkrankungen	6967
Enviage	6966
Laboratories	6965
ute	6965
Tool	6965
gender	6963
Gre@@	6963
umfassenden	6962
litten	6961
Immunität	6960
machten	6959
Follitropin	6959
Kauf	6958
mar	6958
Baby	6957
Gipfel	6957
Monats	6954
gei@@	6953
Office	6953
sterilen	6953
31st	6952
Eingriffen	6949
Feuer	6947
Erhaltungstherapie	6947
Klima	6947
Verzögerung	6946
stel@@	6944
tina	6944
Computer@@	6944
Schön@@	6943
II-@@	6939
ACE-Hemmer	6938
arb@@	6937
weite	6935
à@@	6934
UT@@	6932
rechtlichen	6931
deiner	6931
Günstige	6930
Schließlich	6928
sterben	6926
innovative	6925
far@@	6925
Blutgerinnung	6923
1x@@	6923
TESAVEL	6922
vit@@	6921
l.	6920
tzen	6918
1989	6918
Sirup	6917
Training	6916
Flexibilität	6915
Telithromycin	6915
log10	6913
Risiko@@	6912
elte	6911
Dokumenten	6909
Neulasta	6907
wertes	6907
Versagen	6906
Dynepo	6904
gegenwärtigen	6904
Slowenien	6902
männliche	6901
rekombinanter	6901
Monohydrat	6900
Diovan	6900
PP@@	6898
Worten	6897
049	6897
einheit	6896
Stre@@	6895
Amerika	6895
Anstrengungen	6892
Verfärbung	6892
region	6891
Jan@@	6889
schwer@@	6889
Werbung	6887
med	6885
Träume	6884
Tal	6884
kra@@	6878
Oberschenkel	6878
durchschnittlichen	6878
Properties	6878
Harn	6877
wasser	6876
Vergleichs@@	6876
geladen	6875
202	6874
cc@@	6873
Mg	6873
kenn@@	6872
binden	6871
alle@@	6871
Fluss	6871
imm@@	6870
metastasiertem	6868
schlägt	6867
2013-0@@	6866
Nierenproblemen	6865
sü@@	6865
Brand@@	6865
INTELENCE	6862
Ausgangspunkt	6861
beobachtete	6861
DR@@	6859
Sul@@	6859
buch@@	6858
antiretrovirale	6858
gewisse	6855
garantieren	6853
ULN	6852
losigkeit	6852
längeren	6852
klassischen	6851
fektion	6851
MIRAPEXIN	6848
etische	6848
behalten	6846
Plus	6846
Aktivierung	6846
Studenten	6846
Lar@@	6844
int	6844
Filme	6843
ativer	6841
eingeschränkte	6839
oi@@	6838
pharmakologischen	6838
Ant@@	6838
UMKARTON	6837
Technische	6837
zyklus	6836
zung	6834
Steuerung	6832
Wyeth	6831
eingeschränkt	6830
Folgenden	6829
icht@@	6829
führende	6828
207	6826
Voraussetzung	6826
Kilogramm	6822
Organe	6821
bet@@	6821
Knochenmark@@	6819
free	6817
Glustin	6817
Aqu@@	6817
fri@@	6816
Gehminuten	6816
IONSYS	6816
Sel@@	6816
berichte	6814
abgegeben	6814
EV@@	6814
Vermeidung	6812
hämatologischen	6811
Schizophrenie	6811
Wirksamkeits@@	6810
Klin@@	6810
erkennt	6809
aktiv@@	6808
postmenopausalen	6807
ind@@	6806
physikalische	6806
inzwischen	6805
markierten	6805
linge	6804
ement	6804
Etravirin	6804
Geschäfte	6802
ersch@@	6800
1500	6800
fro@@	6799
Injizieren	6799
Kir@@	6798
que@@	6798
equ@@	6797
Sprimeo	6797
Lab@@	6795
packungen	6795
Medizin	6795
zwölf	6794
Phosphatase	6794
vorgesehenen	6793
Kalium@@	6792
Australien	6792
et-@@	6791
Hypoglykämien	6789
apartment	6788
Previous1	6787
027	6787
gesellschaft	6787
Beseitigung	6785
195	6784
jegliche	6784
staaten	6783
Revlimid	6782
Stärkung	6781
Dro@@	6780
wiki	6780
tic	6780
bewirken	6779
biologischen	6779
Drehen	6778
Periode	6778
hinzu	6778
nissen	6778
entsorgt	6777
späteren	6776
kol@@	6775
great	6775
Valtropin	6773
weitgehend	6771
Behandlungsgruppen	6771
Hir@@	6770
früh	6769
Wiederaufnahme	6769
Ausflüge	6769
Og	6769
kom@@	6768
155	6765
Verabreichungsort	6764
wesentliche	6764
Air	6763
Edition	6762
halt@@	6762
back	6760
geltenden	6760
Unterzuckerung	6758
031	6758
Tex@@	6758
Düsseldorf	6758
co-@@	6758
2020	6756
ähnlicher	6756
Hypokaliämie	6755
innere	6755
Rock	6754
124	6754
Direktor	6754
Kamera	6754
iden	6752
vers@@	6751
stru@@	6746
Track	6746
Kommentar	6745
s.r.o.	6742
steigern	6741
zunehmen	6740
Fahren	6740
Rückkehr	6740
city	6739
befolgen	6738
2015-0@@	6738
Prinzip	6738
organ@@	6738
U-@@	6737
Mur@@	6737
.48	6736
Ze@@	6736
verringerten	6735
Vielen	6734
Schüler	6733
Pf@@	6732
empfindlich	6731
untersuchungen	6731
Lebensqualität	6730
ME	6730
Gelenke	6729
bert	6728
Websites	6727
ISO	6727
Oy	6725
Maus	6724
schätzen	6722
025	6721
enan@@	6721
stimmt	6721
rechnen	6720
Kineret	6720
Möglicherweise	6719
Schiff	6719
verw@@	6718
Blutungs@@	6718
blut@@	6715
of@@	6715
Bahn@@	6712
sst	6711
Versandkosten	6711
Subkutane	6711
reden	6709
kette	6709
allmählich	6708
Fertigpens	6708
Behandlungszyklus	6707
SUTENT	6707
ziele	6707
Verschreibung	6705
ili@@	6703
ele	6702
Std.	6702
mie	6701
freundlich	6698
25.@@	6698
01.0@@	6696
aufwiesen	6696
serviert	6695
212	6691
SC	6690
Blutdrucksenkung	6689
opathie	6688
denjenigen	6687
mei@@	6686
ç@@	6685
Strasse	6684
alismus	6682
Notfall@@	6682
enti@@	6682
ausgezeichnet	6680
induziert	6679
dio@@	6679
tief@@	6678
ars	6678
ure@@	6678
Hauptstudie	6677
Typen	6676
to-@@	6675
konzentrieren	6675
Geschäft	6673
freiheit	6673
Mc@@	6672
Robert	6671
Thymanax	6671
Pin@@	6671
agen@@	6670
enzen	6670
17.@@	6670
klin@@	6670
22.@@	6669
Ansprechrate	6668
mung	6668
finanziellen	6667
steuer@@	6667
Laser@@	6665
Source	6665
ante	6665
tlicher	6665
Symbol	6663
kontinuierlich	6663
Valdoxan	6663
sicht	6662
Riprazo	6660
sin	6659
toxischen	6659
nete	6658
perfekte	6658
Kautabletten	6656
blin@@	6655
Ob@@	6654
Diacomit	6653
Poker	6652
Bradykardie	6651
löst	6651
Kapital@@	6649
wert@@	6649
nei@@	6648
SE	6647
MAR@@	6646
Quixidar	6645
Rie@@	6644
anstatt	6642
Fäzes	6642
Busilvex	6642
Kammer	6641
28,@@	6640
äußere	6639
Tun@@	6639
auswählen	6639
279	6638
Schaden	6638
spolitik	6637
HR@@	6636
Brasilien	6634
erhebliche	6632
ungsver@@	6630
Institute	6630
Kalender	6629
ung.htm	6629
ong	6629
garten	6627
24.@@	6627
Energien	6626
ille	6626
P450	6625
Erkenntnisse	6623
Blutungsrisiko	6620
bereitgestellt	6620
fung	6620
aden	6618
Tritace	6618
ALL	6618
tät	6617
Alt@@	6617
Ele@@	6616
tions	6615
Fr@@	6614
Wesen	6613
blutung	6612
hierfür	6612
Timolol	6612
dit@@	6612
lik@@	6612
Priester	6611
Internet-@@	6610
ativ@@	6610
ini	6609
Transpor@@	6607
tenden	6607
R.	6607
sam	6606
vorbei	6606
mikro@@	6605
sä@@	6605
Herzens	6604
Blockade	6604
т@@	6602
Hom@@	6602
023	6601
korrekte	6600
öffnet	6599
Risperdal	6598
Thalidomide	6598
geschwindigkeit	6597
ck.php	6596
Rede	6595
lern	6594
gewünschten	6594
s.htm	6593
derjenigen	6593
ließen	6593
Mei@@	6593
infektion	6593
lat	6592
Trocken@@	6591
sicherlich	6591
Glo@@	6590
Support	6589
gearbeitet	6588
Französisch	6586
P.	6586
Massen@@	6585
Gew@@	6584
Tragen	6583
Einigung	6582
iel	6582
dlich	6582
Erythromycin	6580
ο@@	6578
verbindet	6578
unge@@	6577
Programmen	6576
Wen@@	6575
krebs	6573
258	6571
Blähungen	6571
agen	6570
BV	6568
eingestuft	6568
Zy@@	6566
Ísland	6566
Etage	6564
415	6564
kto@@	6564
Papier@@	6564
län@@	6564
Kriegs@@	6563
e.com	6563
fortsetzen	6561
Geschäft@@	6560
Ebixa	6560
under@@	6558
körper@@	6558
Fl@@	6557
verabschiedet	6557
25,@@	6556
ARICLAIM	6556
Â	6555
Lern@@	6554
Tochter	6554
Granulozyten	6552
Fall@@	6551
kombinierte	6551
derung	6550
Bauch@@	6549
vorlegen	6548
Schlüssel	6548
behörde	6548
wirk@@	6547
kes	6546
Meldungen	6546
Statistik	6545
Tasigna	6545
Hen@@	6544
brin@@	6542
nüchternen	6541
Meeres@@	6541
Muskelkrämpfe	6539
Efient	6539
Kontakte	6538
externen	6538
publi@@	6537
Herz-	6536
κ@@	6536
Pferden	6536
Fahrzeuge	6533
tre	6532
zuzu@@	6532
tte	6532
jeglicher	6532
Wald	6532
Festlegung	6531
Marken	6530
Velmetia	6530
what	6529
tau@@	6527
eská	6525
Weil	6524
Icandra	6523
EI@@	6522
Werbe@@	6521
feu@@	6521
hinreichenden	6518
Phasen	6516
Alkohol@@	6516
dur@@	6515
trä@@	6513
HIV-infizierten	6512
Ach@@	6511
g.	6510
decken	6510
н@@	6509
Realität	6508
Hepatitis-B-@@	6507
Aktion	6507
psych@@	6507
Phenobarbital	6507
bewegt	6506
tigte	6506
Stomatitis	6505
hinzu@@	6503
zubereitet	6498
Nov@@	6498
by@@	6497
sia	6497
DepoCyte	6496
zusammengefasst	6494
Gegenwart	6493
ogen@@	6493
stehend	6493
INCRELEX	6489
Schrift@@	6488
Linien	6488
Leider	6487
generell	6487
Gardasil	6486
â@@	6484
Regen@@	6484
Alopezie	6484
Füße	6481
AX	6481
Lenalidomid	6481
geschäft	6480
Völker	6480
stabilen	6478
bri@@	6478
Halb@@	6477
Serumspiegel	6477
Tür@@	6476
Blutspiegel	6475
dachte	6474
Akkumulation	6474
offensichtlich	6474
Pic@@	6474
Aktiv@@	6473
Dafiro	6473
Trau@@	6472
scht	6472
Janumet	6470
recht@@	6470
ASS	6469
Aktuelle	6468
aria	6468
hierbei	6468
läßt	6466
0,05	6466
Bulgarien	6465
kel	6464
verpackt	6464
HBV	6463
Staat@@	6463
MM	6463
tiv@@	6463
analysiert	6463
Views	6461
IU	6461
Genotoxizität	6459
Quartal	6458
spezifisch	6455
unerwünschter	6455
Reform	6455
gesteigert	6454
Satz	6454
eiten	6454
Stellung	6452
BOEHRINGER	6452
integriert	6451
DULOXETINE	6450
INVEGA	6450
Temperaturen	6450
.cz	6449
ball	6449
gas@@	6449
Aprovel	6448
Packungsgröße	6447
Umsatz	6447
Mittelpunkt	6447
sitzen	6447
Maraviroc	6446
unterscheidet	6445
zierten	6444
Appartement	6443
CYP	6443
Zomarist	6443
besucht	6442
sep@@	6440
Versionen	6438
Entnahme	6438
anz	6437
Renn@@	6437
Gerichtshof	6436
Thalidomid	6435
Galvus	6432
Debian	6432
Parkinson-Krankheit	6432
zeitraum	6431
diger	6429
Heil@@	6428
fir@@	6427
Kalifornien	6427
Standpunkt	6426
ton@@	6425
behörden	6421
griffen	6419
g.@@	6419
blieben	6418
Lucentis	6415
Hypercholesterinämie	6414
erteilt	6414
Fri@@	6414
Board	6412
fahrer	6412
gespielt	6411
Stahl@@	6408
schützt	6406
Anaphylaxie	6405
get@@	6403
bewerten	6401
ung-@@	6400
Darreichungsform	6400
gelesen	6399
ität@@	6399
Eucreas	6396
Zerit	6396
ulation	6394
ungs	6393
Verbreitung	6393
ST	6393
Höchst@@	6393
Info	6392
Muster	6392
Anschwellen	6392
Ansprechpartner	6391
votes	6391
terung	6391
spitze	6391
zentralisierten	6391
Tele@@	6389
geschluckt	6388
Pravastatin	6386
trag	6386
Schulen	6386
vorgeschlagen	6384
suche	6384
vermittelt	6383
Invega	6383
Versuchsmodellen	6382
IC	6381
höherer	6381
transparent	6379
resistent	6379
0,01	6378
absetzen	6378
sinkt	6377
Ratio	6376
house	6376
Nachfrage	6376
Söhne	6376
tum	6376
dauerhaft	6375
rechtliche	6374
Maschinen@@	6374
Gebiete	6374
3,2	6370
Extremitäten	6369
Mütter	6368
eingehalten	6368
3-	6367
EB@@	6366
2.0	6365
Systemen	6365
Nervensystem	6364
dien@@	6362
unde	6362
GE	6362
wechsel	6361
maschine	6361
dd@@	6360
bereichen	6360
ard@@	6359
level	6358
Achten	6357
selbstverständlich	6355
4.1	6353
kardi@@	6352
Lü@@	6352
geschätzt	6351
ax@@	6351
val	6350
förder@@	6349
aufzunehmen	6348
-Syndrom	6348
erfolgreiche	6348
Abatacept	6348
Tierstudien	6347
INGELHEIM	6347
Märkte	6346
Pension	6345
pdf	6343
cep@@	6342
ORENCIA	6342
setzung	6342
zentren	6341
Ranexa	6340
Downloads	6340
Myocet	6340
li	6340
open	6340
Web-@@	6340
Akne	6339
Xeomin	6335
bikonvexe	6335
ú@@	6335
Haltung	6335
Rezeptor	6331
und-@@	6331
unterschiedlicher	6331
una	6330
Angiotensin	6330
Partner@@	6330
039	6329
person	6328
Fein@@	6328
lü@@	6328
digitalen	6327
solches	6326
188	6325
ware	6324
osis	6323
fet@@	6323
höhe	6322
Behälter	6322
01@@	6320
I.	6320
PT@@	6318
Enthält	6318
felder	6317
ungsphase	6314
Krebs@@	6313
licht	6312
Rau@@	6312
Freisetzung	6312
hämatologische	6311
Schla@@	6310
außen	6309
A-0@@	6308
04-@@	6306
Zucker@@	6306
221	6305
Propylenglycol	6305
285	6304
Augentropfen	6304
selber	6301
136	6301
Motor	6300
körperlichen	6298
struktur@@	6298
internen	6298
Vectibix	6297
kle@@	6296
Copalia	6296
Lethargie	6295
benötigten	6294
richtung	6294
them@@	6293
Fluconazol	6293
durchaus	6292
Blu@@	6291
einstellen	6291
r-@@	6290
anaphylaktische	6289
hinein	6288
untersuchung	6288
Prag	6287
Bibliothek	6285
trächtigen	6285
aner	6285
Meloxicam	6285
Open	6284
Gastrointestinaltrakts	6284
Berliner	6284
Somit	6282
potenziell	6282
deutsch	6282
Syn@@	6281
intramuskulär	6281
sichtbare	6281
select	6280
betrieb	6280
fetale	6277
16.@@	6275
avw.php	6274
drucken	6273
fiel	6272
Thrombozyten	6272
ckte	6272
falsch	6272
cker@@	6272
übernommen	6269
verursachten	6268
side	6268
fortgeschrittener	6268
Angelegenheit	6268
Asien	6266
vorbereitet	6266
unterstützende	6266
entscheidet	6266
Route	6265
iPhone	6265
Verzeichnis	6264
Herbst	6264
AF@@	6262
Sonnenlicht	6262
Ol@@	6261
Immunglobulin	6260
PhotoBarr	6256
MT@@	6256
PACKUNG	6255
Life	6255
Konzentrations@@	6255
Taubheitsgefühl	6255
Termin@@	6255
Kommunikations@@	6254
sho@@	6254
234	6254
ausgerichtet	6253
gla@@	6253
Nutz@@	6253
str	6251
Levemir	6251
Folgendes	6251
iertem	6250
ruhig	6250
MicardisPlus	6249
linien	6249
Amt	6248
melden	6248
Dynastat	6247
1-2	6246
betont	6246
Häuser	6246
io	6246
primär	6246
Don@@	6245
trübe	6245
zeichnen	6245
demokratischen	6244
post	6243
folge	6242
Luftblasen	6242
lands	6241
10x1	6240
Celgene	6238
Auges	6237
Rennen	6236
Adalimumab	6236
EWP	6236
Element	6235
RA@@	6234
Sab@@	6234
Vorhaben	6232
oten@@	6231
Termin	6231
Leitlinie	6231
zunehmend	6230
EXJADE	6230
weiß@@	6230
Kortikosteroide	6230
waschen	6230
Wirkmechanismus	6229
veröffentlichten	6229
Fal@@	6227
Ansprüche	6226
CYP2D6	6226
orte	6225
Begründung	6225
CR	6225
tern@@	6224
Ausrüstung	6224
hil@@	6222
z.@@	6222
isiert	6222
3,1	6221
Vereinten	6219
Niederlanden	6219
schei@@	6218
stücke	6215
erkannt	6214
276	6213
к@@	6213
2016-0@@	6213
steh@@	6213
leiten	6213
DNA-@@	6212
tag@@	6212
ergebnisse	6211
chemischen	6211
Thrombozyten@@	6211
029	6211
aufgebaut	6211
Gerechtigkeit	6209
induzierte	6209
ah	6207
Copyright	6206
abzubrechen	6205
ergänzt	6204
zoneid	6204
wachsenden	6204
Finger	6203
sexuellen	6203
Pradaxa	6202
wish	6202
Syste@@	6201
Body	6200
chern	6200
Beh@@	6199
Zeitungen	6197
multiforme	6197
Branche	6197
Di	6196
Flüssigkeits@@	6195
Imprida	6193
dll	6192
21@@	6191
hoffen	6190
schafft	6189
tal	6188
Schreiben	6188
neur@@	6187
ams	6186
Weiteren	6186
systemischer	6185
Freiwilligen	6184
geplanten	6184
Weiter	6184
ell-@@	6183
treatment	6182
Etwa	6182
Fehl@@	6181
tiven	6181
tests	6180
000@@	6180
fluss	6180
op	6179
Detail	6179
ärztlicher	6178
Flo@@	6176
www.regiolab.info	6175
Best	6175
anerkannt	6174
opp@@	6171
Zwecke	6171
tour@@	6170
Teams	6170
verstanden	6169
Missbildungen	6168
db@@	6168
vertraut	6166
Verlag	6166
separate	6165
Zoll@@	6165
humanes	6163
Efficib	6163
artige	6160
bestehender	6159
Darm	6159
grün@@	6159
separaten	6159
werden.	6158
ständige	6156
Gam@@	6156
fördert	6156
Hü@@	6156
Therapiebeginn	6156
145	6155
click	6155
Combivir	6155
Cookies	6154
hingegen	6154
westlichen	6154
356	6153
euer	6153
Orlistat	6151
TS@@	6151
Lantus	6150
Supp@@	6150
wollten	6150
weltweiten	6149
schicht	6149
erfolgreichen	6149
kulturelle	6147
Dasatinib	6147
Erythema	6146
CYP3A4-@@	6146
Wür@@	6146
Blutdruck@@	6146
smus	6145
onie	6145
signifikanter	6144
optimal	6144
schie@@	6144
2,9	6143
Axura	6142
cat@@	6141
bewirkte	6140
½	6139
festgelegten	6139
Fetus	6139
überwiegt	6139
articles	6138
Xigris	6138
2011-0@@	6138
fehlen	6137
028	6137
geklärt	6135
eten	6132
ek@@	6132
gesetz@@	6131
klein@@	6131
Berechnung	6131
Nahrungsmittel	6130
dig@@	6130
Absicht	6128
Mutter@@	6128
sogenannte	6126
Badewanne	6124
nice	6124
Eintritt	6122
same	6119
jenen	6119
v.@@	6118
Nah@@	6118
CE@@	6118
21-@@	6117
biologische	6117
ang@@	6116
lang@@	6116
zeich@@	6115
Cli@@	6114
162	6113
effektive	6112
PritorPlus	6112
Porto	6111
blauen	6110
deinem	6109
nit@@	6109
bat@@	6105
SOMAVERT	6103
Stad@@	6103
Beine	6103
Vorhandensein	6101
Publikum	6100
Mond	6099
ausgeführt	6099
pl@@	6099
Konto	6098
freundliche	6098
fusion	6098
ACH@@	6097
Imatinib	6095
Enzyms	6095
Auftrags@@	6094
KO@@	6094
р@@	6093
Rinder	6093
präsentieren	6092
377	6091
Lisinopril	6088
Frist	6087
3,9	6085
Cerivastatin	6084
Les	6083
Mimpara	6083
31@@	6081
tru@@	6081
falsche	6080
schä@@	6079
stammt	6079
Datei@@	6077
Silgard	6077
systemen	6077
klaren	6077
jährlichen	6076
Ausge@@	6076
ama@@	6074
Südafrika	6074
BL@@	6073
ners	6072
Prozentsatz	6072
ARZNEIMITTEL	6071
ow@@	6070
Wirklichkeit	6070
Geburts@@	6070
Quellen	6070
Trächtigkeit	6069
kurzer	6067
LD@@	6067
pit@@	6067
Ethanol	6067
endo@@	6067
Wor@@	6065
spüren	6065
Zweifel	6065
Tei@@	6064
Publi@@	6063
σ@@	6063
lingen	6062
hourly	6061
Nesselsucht	6060
trägen	6060
gestaltet	6060
Pflanzen@@	6059
Wertes	6059
Private	6058
Kulturen	6055
Nadel@@	6054
bor@@	6054
versorgung	6054
Mus@@	6053
schrift	6051
scho@@	6049
gleichmäßig	6049
Schon	6045
Spektrum	6045
erhöhtem	6044
gefallen	6043
Büro@@	6043
Proben	6043
Unternehmers	6043
fli@@	6042
farben	6042
strei@@	6041
eben@@	6041
eme@@	6040
TER	6039
6.1	6038
D.	6036
Nausea	6036
verschluss	6036
SIFROL	6036
breakfast	6035
kontinuierliche	6035
Erste	6035
regionale	6035
erreichbar	6034
entdeckt	6033
kommen@@	6033
intramuskuläre	6032
Sachen	6031
Fernseh@@	6030
Auffrischimpfung	6030
enter@@	6030
Aktionen	6029
preise	6028
SD@@	6027
Hof	6027
Nobilis	6026
Nachkommen	6026
ology	6025
Grün@@	6024
eintritt	6023
Kalium	6022
Steuer	6020
omen	6020
Pun@@	6020
Gerichte	6019
Aut@@	6018
ºC	6018
.....	6018
Arbeitnehmer	6017
63@@	6017
.10.@@	6016
äch@@	6015
einmalige	6015
verwerfen	6014
entspannen	6014
wordpress.org	6013
Car	6013
träger	6012
echte	6010
Seltene	6010
Nic@@	6010
č@@	6010
ri	6010
Antikoagulanzien	6009
dieren	6008
Bü@@	6008
ier	6006
Norm@@	6006
dex	6000
gefüllt	5999
betr@@	5999
übernimmt	5999
hundert	5998
Venedig	5998
bü@@	5996
cro@@	5996
old	5996
bakteriellen	5996
ings	5993
Runde	5993
Adefovirdipivoxil	5992
RotaTeq	5991
Stimmen	5990
13-@@	5990
chan@@	5989
einheiten	5988
Immunsuppressiva	5988
grundsätzlich	5987
CRIXIVAN	5986
Isotretinoin	5986
jemals	5985
list	5985
026	5985
21.@@	5985
Leflunomid	5985
Referenzarzneimittel	5984
Jun@@	5983
vorgeschlagene	5982
auswirken	5982
TRISENOX	5981
Gesamt-@@	5981
Proje@@	5979
brei@@	5979
einerseits	5978
Arbeitsplätze	5978
bahn@@	5977
heißen	5976
GENEHMIGUNG	5976
9,5	5976
II.	5976
Bronchitis	5975
aseptischen	5973
user	5972
299	5972
krankheiten	5971
true	5969
ow	5966
typischen	5966
Pon@@	5966
benötigte	5963
küh@@	5962
dire@@	5962
Feuchtigkeit	5961
Kom@@	5960
ura	5960
PH@@	5959
sz@@	5957
Telefon@@	5957
Wettbewerbsfähigkeit	5955
Zusätzliche	5955
ford	5955
As@@	5953
Gewebe@@	5952
inner@@	5951
Positionen	5951
Administrador	5951
Armut	5950
Inserido	5950
Vision	5949
INFAI	5949
nah@@	5948
tens	5947
unmöglich	5945
Säuglinge	5945
cts	5944
Versorgung	5944
Tierexperimentelle	5942
isi@@	5941
Diskus	5941
Mo	5940
2007-0@@	5938
Rifabutin	5938
Leberversagen	5937
Newsletter	5936
diskutiert	5936
symptome	5935
Erreger	5935
überein	5934
147	5934
Parkplätze	5933
Wach@@	5932
schaft@@	5932
Wochen@@	5930
Fischerei@@	5930
Port	5928
Parareg	5927
Clofarabin	5927
some	5926
Flush	5926
Büros	5925
olle	5925
wies	5925
hren	5925
berichtete	5925
Vorsitz	5923
organisationen	5923
Erwartungen	5922
danke	5922
Injektionsspritze	5921
Zypern	5921
som@@	5921
ProQuad	5920
089	5920
fi	5919
Pharmazeutischen	5919
15.@@	5915
ssysteme	5915
Fonds	5915
lit@@	5914
Corporation	5914
Bat@@	5912
kennt	5910
117	5909
unterbrechen	5907
netz	5907
finanzielle	5907
Gummi@@	5906
Ig@@	5905
Aufnahmen	5905
Betreuung	5903
Menü	5902
Sche@@	5901
ve-@@	5900
vollkommen	5900
Muskel	5899
Kil@@	5899
ger-@@	5899
Zeitschrift	5899
Ama@@	5899
Bildungs@@	5898
Solche	5898
Wasserlassen	5897
ð@@	5896
itäten	5895
Chlor@@	5894
és	5893
CE	5893
ame	5893
Pau@@	5892
induzierten	5891
tten	5890
Kleidung	5890
Militär@@	5890
dia	5888
interessante	5888
Unknown	5888
Misch@@	5887
Wohl@@	5887
potentielle	5887
Höchstdosis	5887
renalen	5886
Verdauungsstörungen	5886
schnitt	5886
Nasenbluten	5885
meistens	5884
ova	5883
enger	5882
beibehalten	5882
bank	5882
Italy	5881
den-@@	5880
imp@@	5880
fassen	5880
port@@	5879
Umfeld	5878
basis	5876
urs	5876
Nichtraucherzimmer	5876
leiter	5876
Auftropfen	5875
SoloStar	5875
Abgeordneten	5873
Stufe	5873
Lumiracoxib	5873
manche	5872
modell	5872
с@@	5872
Kabel	5871
html	5871
Proteaseinhibitoren	5871
oval	5871
gedacht	5870
Boote	5870
vorgestellt	5870
rekombinanten	5869
4,4	5869
software	5868
bewegung	5867
tos	5866
atin@@	5865
27,@@	5864
unterliegen	5864
schluss	5860
gastrointestinalen	5859
Aspekt	5859
medizinisches	5859
Mari@@	5859
γ@@	5859
Wie@@	5858
Gon@@	5857
bekommt	5854
preis@@	5854
Air@@	5853
Schema	5852
schäden	5851
Wirkungs@@	5849
zü@@	5848
Fort	5847
order	5846
HIV-1	5846
diagnostiziert	5844
sexuelle	5843
Ass@@	5842
analy@@	5842
methode	5842
museum	5842
Kühl@@	5841
Site	5840
Ketek	5838
gefördert	5838
21.0@@	5837
lierten	5837
indu@@	5836
Temp@@	5836
Ansprechraten	5835
dlichen	5835
Hemm@@	5835
52@@	5832
potenziellen	5832
wis@@	5832
transdermales	5831
Abraxane	5831
Spar@@	5831
Econor	5831
Viread	5830
quellen	5830
Behörde	5829
DA	5829
BM@@	5828
sur	5828
Bedien@@	5828
Kri@@	5828
bio@@	5828
blu@@	5827
Romiplostim	5827
kö@@	5826
field	5826
Tetanus	5825
weisung	5825
rt@@	5825
Carbidopa	5824
enthaltene	5823
minister	5823
Inn	5823
vornehmen	5823
enes	5822
Vista	5822
Stei@@	5822
Rimonabant	5821
19.@@	5821
Fort@@	5820
mehrerer	5818
öl	5818
Cur@@	5816
Blutgerinnseln	5816
Science	5815
Konditionen	5815
Renagel	5814
big	5814
cen@@	5813
ologisch	5813
Allergische	5813
Genießen	5813
ausgewählten	5813
refer@@	5812
aum	5811
abkommen	5809
kostet	5808
Hydrochlorid	5806
Variabilität	5805
Ali@@	5803
Analy@@	5801
vorzunehmen	5801
gendes	5801
zeu@@	5798
Behandlungszyklen	5797
Dach@@	5796
dt	5796
karzinom	5795
Text@@	5795
entsp@@	5794
globale	5794
operation	5794
01-@@	5793
vorschriften	5793
SA@@	5792
züge	5792
ungsmittel	5791
Gemeinschaften	5790
Ther@@	5790
Körpertemperatur	5789
ved	5788
mä@@	5788
Haare	5788
materialien	5788
Gabapentin	5788
qui@@	5787
One	5786
ule	5786
Ball@@	5786
traditionelle	5786
Stau@@	5786
Schiff@@	5782
Ansprechens	5781
Weiß@@	5780
Plastik@@	5780
Infusionsbeutel	5779
12,@@	5778
gia	5777
Ara@@	5777
Red	5777
Suboxone	5777
VE@@	5776
jahr@@	5775
D3	5775
stiegen	5774
mission	5774
sicher@@	5773
Repaglinid	5773
High	5772
and-@@	5769
Medizin@@	5766
jüngsten	5765
hier@@	5765
40-@@	5764
stung	5764
Ausbau	5764
Bilirubin	5764
Wettbewerbs@@	5763
niveau	5763
Burg	5762
AK@@	5760
Staphylococcus	5760
ändert	5759
PS@@	5758
alis	5758
Mach@@	5757
me-@@	5756
If	5756
make	5755
schema	5755
erniedrigt	5753
Sofern	5752
stärkere	5751
leistungen	5748
But@@	5747
3,8	5747
sitz@@	5747
Wesentlichen	5746
Tief@@	5745
zige	5744
Flash	5743
Bereits	5743
fizierung	5742
zerstört	5740
schrieb	5739
null	5739
state	5738
sollst	5738
langfristigen	5737
magensaftresistente	5736
Gut	5736
inform@@	5736
Jer@@	5735
clo@@	5734
Jalra	5734
wahr	5734
PACKUNGSBEILAGE	5733
6000	5733
bewertung	5733
d-	5733
Ret@@	5733
086	5733
Sonata	5732
DK-@@	5732
akzeptieren	5732
automati@@	5732
Epivir	5731
vieles	5731
n.	5730
TABLETTEN	5728
aktuell	5728
nah	5728
strom	5727
Sig@@	5726
handelte	5726
Ε@@	5726
weibliche	5725
mg-Dosis	5725
Baxter	5723
fur@@	5723
ermitteln	5722
wald	5722
Einer	5721
Marina	5721
Tru@@	5721
Kn@@	5720
täts@@	5720
alisieren	5720
geimpften	5719
Kla@@	5719
Dom@@	5718
Vergrößerung	5718
Sicht@@	5718
echten	5718
eta@@	5717
BB@@	5716
versteht	5716
Level	5716
Aluminium-@@	5714
vin@@	5714
vermehrtes	5713
Recht@@	5713
Eu@@	5713
There	5713
Lit@@	5712
Alp@@	5711
nern	5710
Vertrieb	5709
ansprachen	5709
Beweis	5707
Suchen	5707
schreibt	5706
zurückzu@@	5705
Konferenz@@	5703
kleinere	5701
kli@@	5701
Prioritäten	5701
wöchiger	5701
Lymphozyten	5700
Aktualisierungen	5700
Religion	5699
Darum	5699
23.@@	5699
Freien	5699
In-vitro-@@	5698
Bruder	5697
standards	5697
cam@@	5695
gegebenen	5695
grippeähnliche	5692
bers	5692
Interaktion	5692
Leit@@	5691
lut@@	5691
60-@@	5690
errichtet	5690
gewidmet	5689
166	5689
Rin@@	5687
3,7	5687
Verfasst	5687
App	5687
vorgefüllte	5686
165	5686
02-@@	5686
Lissabon	5684
Kno@@	5684
Projekts	5683
verlangt	5683
Tekturna	5683
onia	5682
Neupopeg	5682
Folge@@	5682
Hämoglobinwert	5682
Dritte	5681
dieselben	5681
ssp@@	5681
Erfüllung	5680
500@@	5679
Präsentation	5679
›	5678
vorübergehenden	5677
relative	5676
ange	5675
Ori@@	5675
Rep@@	5674
heiligen	5674
dau@@	5673
home	5673
Hitzewallungen	5673
Mi	5672
geschickt	5672
Sedierung	5672
Mose	5672
ast	5671
most	5671
Fahrer	5671
gerechnet	5671
gegen@@	5669
4,2	5668
Vorliegen	5668
fs@@	5668
1988	5668
russischen	5667
staatlichen	5666
Thelin	5663
Ventavis	5663
Haemophilus	5662
organisation	5662
18.@@	5662
Gegenstände	5661
auer	5661
wissenschaften	5661
066	5660
Workshops	5660
sektor	5660
Sorge	5659
Aluminium-Blisterpackungen	5659
gio	5659
Rom@@	5658
bakterielle	5657
klar@@	5656
Museen	5656
faktor	5656
Logo	5655
konsultieren	5655
Ten@@	5653
anhaltenden	5653
Fehlens	5653
Trinkwasser	5652
vorzulegen	5649
319	5648
limi@@	5648
place	5647
N.V.	5646
effektiv	5646
Doxycyclin	5646
5,6	5646
Lehrer	5644
häuser	5642
wunderschönen	5641
eur	5640
Denk@@	5638
464	5638
PAH	5638
Gas	5637
rea@@	5637
99,@@	5637
Antiepileptika	5636
Spanisch	5635
BP@@	5634
Oper@@	5633
Ethinylestradiol	5633
rekombinante	5632
neten	5631
arme	5631
modi@@	5630
Schiffe	5629
Beach	5627
Optimierung	5626
Stor@@	5626
had	5625
einzigartigen	5625
Forderungen	5624
Anwendungsgebiet	5623
Dosierungsempfehlungen	5623
physi@@	5623
82@@	5622
Benutzer@@	5622
Serumkonzentrationen	5622
avenue	5622
staatliche	5620
Nycomed	5619
Entecavir	5619
notwendige	5619
schar@@	5619
ZOSTAVAX	5619
genehmigten	5618
geleitet	5617
fes	5617
Actos	5617
UNGEN	5616
ffe	5616
Gesellschaften	5615
einzuleiten	5615
stechen	5615
Milano	5614
INVERKEHRBRINGEN	5614
Proteasehemmern	5614
Touristen	5613
Nar@@	5613
CYP1A2	5613
Lapatinib	5611
ari	5611
Plavix	5610
üblich	5610
Patent@@	5609
Add	5608
regeln	5607
Bewusstsein	5607
diabetischen	5607
kolle@@	5606
verstärkten	5606
Schle@@	5605
Empf@@	5604
Hat	5604
π@@	5604
äres	5602
Verpflichtung	5602
stützen	5601
anische	5601
2.jpg	5601
Hyperkaliämie	5600
Israels	5599
spor@@	5599
let	5599
Christi	5598
hochwertige	5597
atur@@	5597
Geschäftsführer	5596
grosse	5596
stoßen	5595
schneiden	5595
Hannover	5594
Einschränkungen	5593
Produkts	5591
Einwohner	5591
year	5590
Wider@@	5590
East	5588
berg@@	5587
Micardis	5586
Such@@	5586
ungs-@@	5586
AND@@	5586
tisches	5584
Katze	5584
Schwächegefühl	5583
FABLYN	5582
position	5582
-5	5581
tägigen	5579
Isoenzyme	5578
betrieben	5578
ösen	5577
.info	5577
ausgenommen	5577
5,4	5577
Rein@@	5576
web	5576
anhaltende	5575
Mitgliedsstaat	5575
Ausschüsse	5575
Einsatz@@	5575
ssel@@	5574
Strategien	5573
fon@@	5573
Pipetten	5573
Gru@@	5573
arm	5571
wort	5571
BEDINGUNGEN	5571
gener	5569
Myopathie	5567
main	5566
Reich	5566
pack@@	5565
rechts@@	5565
Van@@	5564
Mac	5562
Hydro@@	5562
Anbetracht	5561
Rotarix	5561
beteiligten	5561
back@@	5561
ADROVANCE	5561
Ebenen	5560
ties	5558
Konservierungsmittel	5558
vorkommen	5558
Gau@@	5557
arbeits@@	5556
dent@@	5555
trags	5554
Kirchen	5554
Sachverständigen	5554
grünen	5552
erfasst	5552
ée	5551
verlängerte	5551
Performance	5551
einhergehen	5547
Regelungen	5547
AI@@	5546
Facebook	5545
1987	5545
freier	5544
C.@@	5544
Menschheit	5543
Tandemact	5541
Insulins	5541
behältnis	5540
array	5539
stischer	5538
sicht@@	5538
uner@@	5538
Tierarzt	5537
gest@@	5536
Investitions@@	5535
deter	5533
Pharmakokinetische	5533
alisiert	5533
fähigen	5533
sprache	5533
entsprechender	5533
tin-@@	5532
Roh@@	5532
Cholesterin	5531
213	5531
Beachten	5531
direkter	5530
650	5530
American	5530
Psoriasis-Arthritis	5529
läu@@	5529
zugunsten	5528
äußeren	5528
früh@@	5528
vergleichbare	5528
Doribax	5528
ile@@	5528
MI@@	5527
mus@@	5527
Vin@@	5527
Rückseite	5527
ärztlichen	5526
Inovelon	5526
zin	5526
Sodbrennen	5526
Erklärungen	5525
Rechnungs@@	5524
Pregabalin	5524
Herkunft	5524
Industrial	5523
In-vitro-Studien	5521
Fernseher	5521
OSSEOR	5521
Ersatz	5521
211	5520
hyper@@	5518
geübt	5518
HBVAXPRO	5516
abgebaut	5515
Entzündungs@@	5514
kappe	5513
Wand	5513
Infusat	5511
armen	5511
vieler	5510
auftretenden	5510
214	5509
io@@	5509
fei@@	5508
harmon@@	5507
abschätzbar	5506
Wald@@	5506
Wahlen	5504
geblieben	5503
gangs	5503
steuern	5501
Gemeinsamen	5500
kunden	5497
Steady	5497
Rico	5496
11.0@@	5496
ehrt	5495
hPa	5494
flaschen	5493
Willen	5493
Iran	5492
gesetzten	5491
Gelegentliche	5490
Wiederherstellung	5490
fäl@@	5490
Bosentan	5490
Literaturang	5490
1.0	5489
Service@@	5487
Antipsychotika	5487
Brücke	5486
geren	5486
Cubicin	5483
fenster	5483
langer	5483
spa@@	5483
Netzwerk@@	5483
sth@@	5483
ms@@	5483
Lithium	5482
Maßnahme	5482
Lor@@	5481
Besch@@	5481
Autovermietung	5481
Trock@@	5481
Blisterstreifen	5481
Zerene	5480
Hautausschläge	5480
Lacosamid	5479
stens	5478
Wir@@	5478
Ohnmacht	5478
Saint	5478
tigungen	5477
Leberproblemen	5477
Rauchen	5477
CS@@	5477
Bl@@	5476
center	5476
geänderten	5475
grossen	5475
32-@@	5473
Stein	5472
dal	5471
Gutachtens	5471
Kü@@	5470
schädigen	5470
Zone	5470
5,5	5469
Va@@	5469
Royal	5467
PRE@@	5466
HO@@	5466
Weiterhin	5465
Proteinurie	5464
Ivabradin	5464
SEO	5464
kammer	5463
ACE-Hemmern	5462
who	5461
dium	5461
2-3	5461
Lö@@	5461
EUR@@	5460
Kinzalkomb	5460
offizielle	5459
teils	5458
Mission	5458
berechtigt	5457
Placebo-@@	5457
Revision	5456
Rezeption	5456
Anwesenheit	5456
Amp@@	5456
Bergen	5455
hinzufügen	5455
entgegen	5455
kriterien	5453
Iscover	5453
For	5452
Pritor	5451
Speisen	5450
EU-Mitgliedstaaten	5449
Pflege	5449
Las	5449
Takeda	5448
Affinität	5448
organisieren	5448
Absorption	5448
eig@@	5447
detaillierte	5445
p.@@	5445
Rituximab	5443
schwarzen	5443
Christian	5442
format	5442
cul@@	5441
ärem	5440
gefragt	5440
säure-@@	5439
Gebühren	5439
Ferienhäuser	5438
tiere	5437
beru@@	5437
bedingter	5436
Anfragen	5436
Entspannung	5435
Vorstellung	5435
spezialisiert	5434
zep@@	5433
Weiterentwicklung	5433
defin@@	5433
Wirkdauer	5433
37,5	5431
block@@	5431
LDL-@@	5431
glu@@	5431
voraussichtlich	5429
UAB	5428
blutdrucksenkende	5427
Micro@@	5427
entes	5426
auftrat	5426
Bars	5424
¬	5424
egal	5423
Deinen	5423
Klassen	5422
Prevenar	5421
Casino	5421
Beobachtungs@@	5421
Dichte	5420
spezi@@	5420
fortgeführt	5419
л@@	5418
Achtung	5417
Erhalt	5417
optimalen	5416
405	5416
Komplex	5416
FR@@	5415
Span@@	5415
konkrete	5414
Tschechische	5414
Benzylalkohol	5413
intensi@@	5413
Hohe	5413
Material@@	5413
Vorlage	5412
ump@@	5412
mitgelieferten	5411
Slowakei	5411
Gewichtsabnahme	5410
10000	5410
PT	5409
they	5408
Cefuroximaxetil	5408
freiem	5408
Wochenende	5407
550	5405
Brief	5405
kostenlosen	5405
Struktur@@	5404
or-@@	5403
seitens	5403
Music	5403
Führ@@	5402
ots	5401
fr@@	5400
Temperatur@@	5400
unabhängige	5400
Entsorgen	5400
are@@	5399
Grunde	5399
it-@@	5399
Rücken	5399
Tagung	5398
Gruppen@@	5398
NV	5395
Brü@@	5395
Sho@@	5393
.amarilla@@	5393
Räume	5392
Rezeptor@@	5392
92@@	5391
synth@@	5391
toler@@	5391
Einnahmen	5391
Buprenorphin	5391
Geboren	5390
tigten	5390
Bas@@	5390
Ferienhaus	5389
proportional	5389
eres	5389
Mol@@	5389
Cedex	5388
Jung@@	5387
0,03	5386
Tit@@	5384
Kuba	5384
pul@@	5384
Rob@@	5383
gewissen	5383
Trend	5381
tetes	5380
2008-0@@	5380
Mechanismen	5379
lab@@	5379
Hexal	5379
schlug	5379
rekonstituierten	5379
inn@@	5378
dosisabhängig	5378
assoziierten	5377
BEST	5377
As	5376
Gri@@	5376
153	5376
Ty@@	5376
üb@@	5375
Cervarix	5375
а	5375
Saint-@@	5375
zunehmende	5374
Myfenax	5374
gige	5373
hört	5373
geringfügig	5373
konzipiert	5373
p.	5371
Erlotinib	5371
wand@@	5370
ā@@	5370
board	5370
6,7	5370
unterkünfte	5369
gebäude	5369
lichkeiten	5369
Hündinnen	5368
stete	5368
Blo@@	5368
.......	5367
Danke	5367
empfindliche	5367
Zo@@	5367
294	5366
Boot	5366
Xiliarx	5363
Erhaltung	5363
bereiten	5362
grund@@	5362
OLANZAPIN	5362
NL	5361
Rand	5361
Schnittstelle	5361
Kuvan	5360
right	5359
überlegen	5359
clinical	5359
parti@@	5358
Verwirrung	5358
sichtbaren	5358
ehe	5358
eigener	5358
stä@@	5357
ul	5357
Syndroms	5357
TYSABRI	5357
HCV	5355
cell@@	5355
Nordisk	5355
tert	5355
141	5354
fass@@	5354
Euch	5354
SR@@	5353
niedrigem	5353
Chr.	5353
Halbwertzeit	5353
Event	5353
Vit@@	5352
Marken@@	5351
5,00	5351
gedrückt	5351
GNU	5350
behandlungs@@	5350
prin@@	5350
AUF@@	5349
Bruxelles	5349
aut	5348
nachweisbar	5348
nat@@	5348
JJJJ	5347
0,15	5347
Brüder	5347
Zahlung	5346
schafts@@	5346
Flor@@	5345
Basel	5344
supp@@	5344
Haftung	5343
Beschluss	5343
verschoben	5342
verschwinden	5342
gelegenen	5342
Gang	5342
dunkel@@	5341
lieren	5341
vielmehr	5338
í	5337
typ@@	5337
Hämoglobin@@	5336
qm	5336
Veröffentlicht	5336
effe@@	5336
Akute	5334
gon	5334
Verfassung	5334
Garantie	5333
Gesamtdosis	5333
Placebogruppe	5332
halb@@	5332
GANFORT	5330
dom@@	5330
werken	5330
verschwommenes	5330
fahrten	5329
Berichten	5329
wahl	5328
Fle@@	5327
vorbehalten	5327
eien	5327
o.o.	5327
gam@@	5326
Sauerstoff@@	5326
Litauen	5326
vers	5325
Starlix	5324
Paxene	5324
kräftig	5323
cle@@	5323
Ambirix	5322
einzeln	5322
Müttern	5322
gere	5322
erungen	5321
085	5320
Rest@@	5318
cin	5318
din-@@	5318
Kleinkindern	5318
CM@@	5318
Cetrotide	5317
Bedienung	5317
Kolleginnen	5317
330	5317
ced	5317
unt	5314
finan@@	5313
Panretin	5313
Virus-@@	5312
ς	5312
Weg@@	5309
301	5308
SPRYCEL	5308
Proteasehemmer	5308
urlaub	5307
alisten	5307
Atemdepression	5307
Christen	5307
vorhandene	5306
Migräne	5306
bedeuten	5306
Besuchen	5305
mitglieder	5305
Eigentum	5305
Anreise	5305
Variante	5305
entstand	5304
Gold@@	5304
Tipps	5304
20.@@	5304
167	5304
area	5303
Haup@@	5303
dru@@	5302
teri@@	5302
Verschlimmerung	5302
win	5302
Wild@@	5301
Brot	5300
Erbitux	5299
könnt	5299
FA@@	5299
Emp@@	5297
erstes	5296
ziger	5296
Verb@@	5295
Kontext	5295
teilte	5294
Stockholm	5294
Skala	5293
wach@@	5293
Arbeiter	5292
Tiefe	5292
Glück@@	5292
dene	5291
Ausstellungen	5290
Hochschule	5290
08-@@	5288
world	5288
Schwerwiegende	5288
ela	5287
guidance	5287
Treiber	5286
Exanthem	5286
G.	5284
where	5284
Engel	5284
unterliegt	5282
kämpfen	5281
gebieten	5281
EPA	5280
Thyrogen	5280
bekämpfen	5280
reagiert	5280
encounter	5280
µ@@	5279
NSAID	5278
vorstellen	5277
sprach@@	5276
their	5275
1.200	5275
SINGULAIR	5274
ös	5274
Siklos	5273
Cetuximab	5273
ust	5273
reduzierten	5273
stisch	5271
Priorität	5271
Maximaldosis	5271
Iso@@	5270
150@@	5270
ll	5270
kanischen	5269
Johnson	5269
Zuge	5269
Gluco@@	5268
netz@@	5268
umfasste	5267
intramuskulären	5267
Konzer@@	5267
fru@@	5266
andererseits	5266
ii	5266
Luftfeuchtigkeit	5266
Fortschritt	5266
Schwimmbad	5265
gebrochen	5265
natur@@	5264
Comments	5264
mmen@@	5264
Len@@	5264
folgendes	5263
Ergänzung	5263
erreichte	5262
bezogenen	5262
Form@@	5262
www.qlyque.com	5261
ates	5260
DuoTrav	5260
412	5260
Organen	5259
ci	5259
angebot	5258
26,@@	5258
Spezi@@	5257
Masse	5257
halbe	5256
pylori	5256
ET	5256
deckt	5255
Pädiatrische	5255
FR	5254
gemeinschaft	5254
Richter	5253
Binnenmarkt	5252
kardiale	5251
ón	5251
Casa	5250
bett	5249
Orale	5248
CYMBALTA	5247
Andreas	5247
taten	5246
tom@@	5246
stechnik	5244
Pack@@	5243
ssel	5241
keiten	5240
tabletten	5240
first	5239
Krämpfe	5239
Präparaten	5238
SW@@	5238
Glasfläschchen	5238
ils	5237
light	5236
such@@	5235
Funktions@@	5235
wächst	5233
Ul@@	5233
dun@@	5232
Gewinn@@	5230
Sebivo	5230
Reformen	5230
PROCOMVAX	5230
Mineral@@	5229
Hypericum	5229
GEN@@	5229
Ketoazidose	5228
Diskussionen	5228
Bein@@	5228
Übergang	5227
perforatum	5226
herzlich	5226
Pipette	5226
stände	5225
Solidarität	5224
Glaxo	5224
kon	5222
gültig	5222
anda	5222
255	5221
ac	5221
Typs	5220
gewährt	5220
PCTFE	5218
wohl@@	5217
Erarbeitung	5217
knapp	5217
mien	5217
Säugling	5216
369	5216
formationen	5216
mach@@	5215
Pulvers	5215
best@@	5215
Selbstinjektion	5214
Mau@@	5214
Mallorca	5214
video	5214
Hycamtin	5213
1,25	5213
35,@@	5213
PROTELOS	5212
ely	5212
basierte	5211
Rap@@	5211
total	5211
ffen	5211
Fü@@	5210
Sauerstoff	5210
Raltegravir	5209
VELCADE	5209
Unterhautzellgewebes	5209
sanofi-aventis	5209
ausgestattete	5208
Dosisbereich	5208
sm@@	5207
NS@@	5206
Ring	5204
ORACEA	5204
Modell@@	5204
Basi@@	5203
Interview	5203
2012-@@	5202
höchstens	5202
MRT	5201
Cas@@	5201
bestanden	5201
teur	5200
Ton	5200
langsame	5200
antivirale	5198
techni@@	5197
STR@@	5197
Felder	5197
Konsequenzen	5196
Bahn	5196
isier@@	5196
Krka	5195
Ausführliche	5195
Normal@@	5195
stunden	5193
Rahmen@@	5193
zar@@	5193
245	5193
techn@@	5191
based	5191
Waffen	5190
America	5189
Einmal@@	5188
Bündelpackung	5188
nachhaltigen	5187
starb	5187
mov@@	5187
dex@@	5187
find	5187
Vorjahr	5186
Erinnerung	5185
nä@@	5185
Dimension	5185
Radio@@	5185
Streptococcus	5184
spartner	5184
street	5184
LE	5183
leidet	5183
dere	5183
erlangen	5182
6,0	5182
Synkope	5182
Kommissarin	5181
Lymphsystems	5181
aufsuchen	5180
fassung	5180
Kräfte	5180
Titer	5180
still@@	5179
herz@@	5178
prote@@	5177
stellungs@@	5176
Top@@	5176
Master	5176
beheben	5176
png	5176
angenehm	5174
unden	5174
stellungen	5174
Lehre	5173
xy@@	5173
Aktion@@	5172
032	5172
gast@@	5172
Mobil@@	5172
Replagal	5171
gratis	5171
Eintrag	5170
verbindung	5169
Play@@	5169
Bosch	5168
Levetiracetam	5167
Arixtra	5166
hat@@	5166
Ausgangswerte	5165
hen@@	5164
vermögen	5162
BMD	5162
erweitern	5161
Sekretion	5159
Bay@@	5159
ernannt	5159
CV@@	5159
synthese	5158
primärer	5158
annehmen	5157
liger	5156
ye	5156
PSURs	5156
Telbivudin	5155
tö@@	5155
stecken	5155
offiziell	5155
Vel@@	5154
opath@@	5153
Entsprechend	5153
tausend	5152
Wachstumshormon	5152
PCI	5152
Products	5151
passen	5151
download	5150
Sicherheitsdaten	5150
Original	5148
britischen	5148
Herzerkrankung	5147
Metern	5146
HIV-	5146
Wirtschaft@@	5146
UNGS@@	5146
Chancen	5144
Zunächst	5143
lebensbedrohlichen	5143
Gesichts	5143
entscheidend	5143
lädt	5142
sv@@	5140
Änderungsanträge	5139
aufgetragen	5139
163	5137
ationsp@@	5137
4-	5136
erleichtert	5135
sozi@@	5135
Oli@@	5133
kum	5133
Wünsche	5133
Medicines	5132
Seg@@	5132
herzustellen	5132
arz@@	5132
vil@@	5132
gon@@	5131
Schlag@@	5131
betreffend	5130
ag	5130
Roma	5130
Strand@@	5129
Em@@	5129
amerikanische	5128
Zusammen	5128
jünger	5127
klu@@	5127
la-@@	5127
uss	5127
Scheinmedikament	5126
LeukoScan	5126
sinn@@	5125
1x1	5125
teter	5125
mid	5125
engmaschige	5123
Gerinnungs@@	5123
Unerwünschte	5122
ê@@	5121
Pflasters	5121
grüne	5120
condado-de-@@	5120
70-@@	5120
entsprach	5119
CD-@@	5119
would	5118
Milli@@	5118
erheblichen	5116
Waschmaschine	5116
vertret@@	5116
festlegen	5114
Digital@@	5114
Leberschädigung	5114
lager	5113
räumen	5113
Anfällen	5112
Tempel	5112
Calcium-@@	5112
Arava	5112
voraus@@	5111
Fehler@@	5110
Room	5110
Veröffentlichungen	5110
Yondelis	5110
XERISTAR	5110
folie	5110
VA	5109
bb@@	5108
abgewogen	5108
Südtirol	5108
begrüßen	5107
Direkt@@	5106
ji@@	5106
schwarzer	5106
Methoxy-Polyethylenglycol-Epoetin	5105
24-Stunden-Rezeption	5105
setzten	5105
fett@@	5104
elo@@	5104
kompletten	5103
endgültige	5103
ney	5101
Montage	5101
Preotact	5099
Grundlagen	5099
Ce@@	5099
abgestimmt	5098
come	5098
Verk@@	5098
termin@@	5098
stil@@	5098
ex	5098
Glu@@	5097
Ekzem	5097
stabili@@	5096
8,8	5096
träge	5093
auto@@	5093
Harnwegsinfektionen	5093
krei@@	5092
zusätzlicher	5091
geprägt	5091
28-@@	5088
vi	5087
ungsverfahren	5087
mechanismus	5087
Angabe	5086
Nierentransplantation	5085
Legen	5085
LIN@@	5084
ins@@	5084
schwarze	5084
Ken@@	5083
Deb@@	5082
Purpura	5082
Kro@@	5081
schloss	5081
occasione	5081
forderte	5080
Then	5080
spezifischer	5079
zugelassene	5078
29,@@	5078
Konstruktion	5078
Große	5077
4,1	5077
when	5076
dose	5076
quelle	5076
Zeffix	5074
SPIEL	5074
Fro@@	5073
prüfung	5072
5-	5071
Kinzalmono	5071
WESTERN	5071
Polizei	5070
Resort	5070
want	5070
baus	5069
endgültig	5069
gesetzlichen	5069
Brise	5069
93@@	5069
Schrift	5069
Pemetrexed	5068
amen	5068
Xyrem	5068
freies	5067
Simulect	5067
η@@	5067
Tabellen	5067
INOmax	5065
alog@@	5065
Jesu	5064
GSK	5064
Irak	5064
Daniel	5063
Sicherheitspharmakologie	5063
Lettland	5063
ols	5062
öh@@	5062
Laborwerte	5062
Jahr@@	5062
Fabrazyme	5062
1.5	5062
pap@@	5061
Tygacil	5061
za@@	5061
künftig	5060
Krankenschwester	5060
Tab@@	5059
XL	5059
Besitzer	5059
Cam@@	5059
port	5058
Änderungsantrag	5058
ines	5058
MP3	5058
opo@@	5056
Hans	5056
Gefäßerkrankungen	5056
nehm@@	5055
Rapilysin	5055
Kab@@	5054
fizieren	5054
Bucht	5054
Erst	5054
177	5053
Ovitrelle	5050
Filter@@	5049
ht@@	5049
5,7	5048
ads	5047
bezug	5045
mass@@	5045
hervorragende	5044
DC	5043
26.@@	5042
Messungen	5042
poly@@	5041
lieb@@	5041
Berichts	5041
Manche	5040
School	5040
lierte	5040
AST@@	5040
Urteil	5039
TA	5038
ungspolitik	5038
Orientierung	5038
Hierzu	5038
Unternehmen@@	5038
orm@@	5037
ichten	5037
Biotechnologie	5037
Minister@@	5035
Valencia	5034
Wiener	5033
Forsch@@	5033
von@@	5033
erlebt	5033
176	5033
besuch	5032
gas	5032
Gesetze	5032
Zenapax	5032
vorherigen	5030
Croscarmellose-Natrium	5030
tödlichem	5029
wirkendes	5029
schaden	5029
verhältnis	5028
einzusetzen	5028
Webseiten	5027
Patent	5027
1945	5027
els@@	5026
dien	5026
sw@@	5026
Mail	5025
verlangen	5025
Umstände	5025
GA	5024
Caspofungin	5023
shar@@	5023
ZYPADHERA	5023
Schicht	5022
Behandlungsschema	5022
breit	5021
interessant	5021
nie@@	5021
stufen	5021
registriert	5021
Phen@@	5020
gh@@	5019
Myozyme	5019
ola@@	5019
May@@	5018
UM	5018
Sto@@	5017
Differenz	5017
PL	5017
ë@@	5017
freue	5017
satzes	5016
Parti@@	5016
Dr@@	5015
Baraclude	5015
alin	5015
Endpunkte	5014
149	5013
schriftliche	5012
1986	5011
NeuroBloc	5010
Techniken	5010
kultur@@	5009
uth	5008
Backofen	5007
hl	5007
156	5006
--@@	5005
Immobilien	5004
ère	5004
gewebes	5003
Landes@@	5003
feline	5003
Apo@@	5002
cla@@	5001
bezogene	5001
Bezüglich	5001
standard	5000
spanischen	5000
Wissenschaftler	5000
mul@@	5000
kostenloses	5000
masse	4998
Eröffnung	4998
akzeptabel	4997
Verletzungen	4997
pH-Einstellung	4997
sted	4996
age@@	4996
ü	4996
etc	4995
Einzelfälle	4995
Bürgern	4995
außergewöhnlichen	4994
Vorsitzenden	4994
existiert	4993
Bauernhof	4993
sexy	4993
mg-	4992
vali@@	4992
daten@@	4992
interne	4992
TS	4992
meter	4992
Schü@@	4990
gründen	4990
Milliliter	4989
leich@@	4989
hinreichend	4989
Dresden	4989
Wur@@	4989
langfristig	4989
Derzeit	4988
sive	4988
Alendronat	4988
betroffene	4987
ado@@	4987
rich	4987
abhängigen	4987
182	4987
tan	4987
Mobilität	4986
tec	4986
Konjunktivitis	4985
Meister	4985
berechnen	4984
138	4984
Mono@@	4983
Entschließung	4983
Gebet	4983
mengen	4983
Hyp@@	4982
uss@@	4982
grenzen	4981
ohlen	4980
äußern	4980
günsti@@	4979
Plaza	4979
Formel	4978
Armee	4978
schwerwiegender	4978
30th	4977
dition	4976
unterwegs	4976
praktische	4976
aff@@	4976
Anlass	4974
Pie@@	4973
deln	4972
ham	4972
Ganz	4971
Band@@	4971
Sciences	4971
lo	4971
Koch@@	4971
Speicher@@	4971
großem	4971
Tocilizumab	4970
Bühne	4970
STELARA	4970
Metacam	4969
Präklinische	4968
beruhen	4968
schwäche	4968
fehl@@	4968
mente	4967
ländlichen	4966
hö@@	4966
Weichkapseln	4966
Apidra	4965
fehlende	4964
-System	4964
ster-@@	4964
ALIMTA	4964
Moxifloxacin	4964
gsk.com	4963
Kommissions@@	4963
iner	4963
ein-	4963
v.	4962
Gli@@	4961
passieren	4961
ani	4961
Kreislauf	4960
NSAIDs	4960
Tools	4960
mischer	4960
Kritik	4960
Straßenverkehr	4960
Angriff	4959
doc@@	4959
Sugammadex	4959
INHABER	4958
Gespräch	4957
UCB	4956
gestattet	4955
Gleichzeitige	4955
Pumpe	4955
v-@@	4955
TachoSil	4954
QU@@	4954
lautet	4954
Sieg	4954
gefü@@	4953
16-@@	4953
Tor	4953
Implementierung	4953
wirkenden	4952
Abweichungen	4952
wachstum	4952
31.@@	4951
Mah@@	4948
033	4948
Biograstim	4947
sem@@	4946
arti@@	4946
DS@@	4945
Pflege@@	4944
Lyon	4944
beutel	4943
Major	4942
grund	4941
Identität	4941
markiertem	4939
Kranken@@	4939
konzentriert	4939
Gott@@	4939
wiederholten	4939
Besitz	4938
Winkel	4938
Person@@	4938
Kleine	4938
6,2	4937
stands	4935
Ambiente	4935
abhängige	4932
groß@@	4931
Beitritts@@	4931
-und	4930
gebühr	4930
therapeutischer	4930
bir@@	4930
-0,@@	4930
Psych@@	4930
Tumor	4930
Leipzig	4929
Internetzugang	4929
hindeuten	4928
komplex	4927
в@@	4927
as-@@	4927
Reb@@	4927
blick	4926
ver-@@	4926
kleineren	4926
ae@@	4925
Termine	4925
viertel	4923
Hormon@@	4923
farbe	4923
Premiere	4923
mangel@@	4923
doppelt	4923
Geräten	4922
rahmen	4921
BEURTEILUNG	4920
7,2	4920
ober@@	4919
hCG	4918
bon@@	4918
Fahrzeugs	4918
sinnvoll	4917
Verdünnungsmittel	4916
OPTISON	4915
einbezogen	4915
meister	4915
1985	4914
XS	4914
Spondylitis	4913
super@@	4912
Trazec	4912
Press@@	4911
beginn	4911
Magenschmerzen	4911
Meister@@	4910
annähernd	4910
ISENTRESS	4910
Stahl	4909
nützlich	4909
Injektionsstellen	4909
209	4909
Social	4909
erer	4908
pur@@	4908
Kä@@	4907
in-Dosis	4906
UB@@	4906
Zusammensetzung	4905
Orten	4904
iten	4904
förmige	4904
ellem	4903
dahin	4903
stolz	4902
Tevagrastim	4902
ctive	4902
gehende	4900
derer	4900
ffe@@	4899
gesucht	4898
unzugänglich	4898
high	4897
wiegen	4897
sauber	4897
kräfte	4897
Menitorix	4896
ungen@@	4896
hielten	4895
12th	4895
æ@@	4895
Moskau	4895
verleihen	4893
Phot@@	4893
gan	4892
Z-@@	4892
Hühnern	4889
Ibuprofen	4888
Image	4888
omi@@	4888
Mexiko	4888
AGB	4888
Ed@@	4887
antwortete	4886
diskutieren	4885
digitale	4885
Normen	4884
schlossen	4884
kompatibel	4883
115@@	4883
.12.@@	4882
professionellen	4882
verlauf	4882
Beihilfen	4880
anteil	4879
Gemeinden	4879
misch	4879
233	4877
ress@@	4876
Mrd.	4876
Zustände	4875
Durst	4874
sofortige	4874
mod@@	4874
hydrochlorid	4873
PSUR	4873
Technology	4872
dauerte	4872
Dauer@@	4871
QUADRAMET	4871
Spritzen@@	4871
Engegefühl	4871
stran@@	4871
169	4870
action	4869
From	4868
Brau@@	4868
eil	4868
ot-@@	4868
pun@@	4867
seg@@	4867
scher@@	4867
lers	4866
Rindern	4866
pneumoniae	4865
lebensbedrohliche	4865
Impfdosis	4865
Einmalgabe	4865
bre@@	4864
FeLV	4864
INVANZ	4863
beten	4863
aly@@	4862
zone	4862
gelöscht	4861
Zulassungsantrags	4861
aufgeklärt	4860
CANCIDAS	4859
Gran	4859
Tagesordnung	4859
Enfuvirtid	4858
engen	4858
KMU	4857
live	4857
andern	4857
HE@@	4856
469	4856
stati@@	4856
rent	4855
GI@@	4855
45-@@	4855
HP@@	4855
quote	4855
lichsten	4853
Befehl	4852
endet	4851
dosis@@	4851
weichen	4851
these	4851
press	4850
Ide@@	4849
Ratiograstim	4849
Vertrieb@@	4849
Herzkrankheit	4848
uk	4848
besonderes	4848
Avonex	4848
Mich@@	4847
om-@@	4846
Priv@@	4846
Bag@@	4846
licht@@	4845
sky	4844
Antihistaminika	4844
Passwort	4844
BTE	4843
Power@@	4843
wichtiges	4843
stab@@	4842
deutliche	4841
Lernen	4841
brech@@	4841
produkt	4840
Boo@@	4839
integr@@	4839
Hier@@	4838
Antazida	4838
nutz@@	4838
431	4838
frühestens	4836
eil@@	4836
gestimmt	4836
Übernahme	4835
lagerung	4835
TRITACE	4835
änder	4834
kontinuierlichen	4834
Beitritt	4833
etischen	4832
verk@@	4832
wittgensteinsource.org	4831
extra@@	4831
Vertrags	4829
luft@@	4829
teilung	4828
vereinbarten	4827
Plätze	4827
Tanz@@	4827
inkl.	4826
kurse	4825
Aldurazyme	4824
qualitativ	4824
73@@	4824
Neues	4824
grün	4823
feed	4822
Proben@@	4822
215	4822
č	4821
Naglazyme	4821
Hierbei	4821
Crohn	4819
berei@@	4818
Intravenöse	4817
Meer@@	4817
erlitten	4817
visi@@	4817
erwar@@	4816
Regime	4816
KRKA	4815
Flüssigkeitsretention	4813
Insulinen	4813
Leistungsfähigkeit	4812
artikel	4812
body	4811
book	4811
Mittelwert	4811
Abfahrt	4811
krie@@	4811
ital@@	4811
LA	4810
Liber@@	4810
Ech@@	4809
könne	4808
Activelle	4808
einher	4808
Gegenteil	4807
BEZEICHNUNGEN	4807
gehabt	4806
rief	4806
ausgelegt	4805
Nexavar	4805
atik	4804
mein@@	4804
Anwesen	4803
Ange@@	4802
stabile	4802
Ljubljana	4801
offener	4801
Xarelto	4801
wuchs	4800
irgendeinem	4799
kose	4798
216	4797
Pläne	4797
Weich@@	4797
Harnwege	4795
Appetitverlust	4795
JANSSEN-CILAG	4795
Händler	4794
sed	4794
Propheten	4794
fizier@@	4794
Fron@@	4794
gab@@	4793
tiefen	4793
Dingen	4793
.09.2015	4793
Bewegungs@@	4792
Grapefruitsaft	4792
Reservierung	4792
03-@@	4792
pH-Wert	4792
ž@@	4791
Stimm@@	4791
055	4790
η	4790
stin	4789
oberhalb	4789
Einreichung	4788
lex	4787
227	4787
CN@@	4787
Gnade	4787
existieren	4786
Viel@@	4784
wirkungen	4783
anstelle	4783
410	4782
Nierenprobleme	4782
neutr@@	4782
versuch	4781
platte	4780
desto	4780
merk@@	4780
Fet@@	4779
selektiven	4779
Anträgen	4779
Block	4778
Mikroorganismen	4778
Cra@@	4778
ky@@	4777
Heimat	4777
markiert	4777
Erfolgs@@	4777
verläuft	4776
straat	4776
Führer	4775
Seminar	4775
ziel@@	4773
Des@@	4773
Ratte	4773
3A4	4772
Schi@@	4772
Delegation	4771
pool	4771
einmaliger	4771
effizient	4770
nü@@	4770
Tox@@	4769
`@@	4769
Trinken	4769
Glycerol	4769
life	4768
Herstell@@	4768
automatischen	4768
Aspartam	4767
Fru@@	4767
Weine	4766
0,18	4766
stätte	4766
bilität	4765
vice	4764
Laktation	4764
ome@@	4764
NovoFine	4764
Optisulin	4764
Atom@@	4764
Arzneispezialitäten	4762
Konzert	4762
Übernachtung	4762
digung	4762
artigen	4762
Arrhythmien	4760
Teilchen	4758
Metforminhydrochlorid	4758
dan	4758
Transfer@@	4757
Sele@@	4757
Zugehörigkeit	4756
ahn	4756
eit	4756
cho@@	4756
deutlichen	4756
Rücksprache	4755
Vigabatrin	4755
inmitten	4754
medizinischer	4754
senkende	4754
Dienst@@	4753
sehe	4753
Gliedmaßen	4752
ödem	4752
Osigraft	4751
appli@@	4751
vermitteln	4751
übertritt	4751
dateien	4750
Augeninnendruck	4750
ar-@@	4750
isten	4749
ness	4748
Küsten@@	4748
Minibar	4747
Verfallsdatum	4747
geräten	4746
Profender	4746
Aufpreis	4745
Anschrift	4745
jo	4745
finde	4745
rad	4744
Stell@@	4744
les@@	4744
fuhr	4743
ausgegangen	4743
chlor@@	4742
gerung	4742
Myelom	4741
Autobahn	4740
Lungenentzündung	4739
ctions	4739
iz@@	4739
Betrag	4738
aussehen	4737
integrierten	4737
Datenschutz@@	4737
Bisher	4736
spülen	4736
rent@@	4736
DaTSCAN	4735
fc@@	4735
stage	4735
origin@@	4735
ea	4734
gefähr@@	4733
Regierungs@@	4733
CO	4733
reis	4733
gefordert	4733
Spezialisten	4732
cos	4732
Genzyme	4732
Ham@@	4730
Blutgefäßen	4728
kä@@	4728
derten	4728
stü@@	4727
Eingriffe	4727
ful	4727
Tumore	4726
Placebo-kontrollierten	4726
Var@@	4724
USB	4723
Zelle	4723
aufgaben	4723
Neugeborene	4723
Bildschirm	4722
Nachhaltigkeit	4722
Agrar@@	4721
ations-@@	4721
content	4720
Non-@@	4720
olli@@	4719
boo@@	4718
90Y	4717
beschreibung	4717
NL-@@	4716
vorzubeugen	4714
Et@@	4713
Monats@@	4713
zuständige	4713
vermittelten	4712
ó	4712
CYP2C19	4712
YENTREVE	4711
Wartezeit	4711
ausschuss	4711
Injektionsknopf	4710
WE@@	4710
geleistet	4710
mann@@	4709
tum@@	4708
million	4708
c.@@	4708
Werden	4708
after	4707
rig@@	4707
Hart@@	4707
erzählt	4706
Arz@@	4706
Salzburg	4705
Information@@	4705
Gut@@	4705
Konver@@	4705
Cidofovir	4704
Bunde@@	4704
Sicherheit@@	4703
olen	4702
wechsel@@	4702
Fokus	4701
-c@@	4701
Glasflasche	4700
Tö@@	4700
460	4700
wirtschaft@@	4699
Escherichia	4698
auff@@	4698
gy@@	4698
effiziente	4698
atur	4698
rechtzeitig	4697
Black	4697
Thrombo@@	4697
Kalzium@@	4697
Francisco	4695
Privigen	4695
eingeladen	4694
pop@@	4694
Equilis	4693
Isolate	4692
ktiver	4692
verabreichtem	4692
griff	4691
infektionen	4690
geworfen	4689
Erdgeschoss	4689
eingehen	4689
aufen	4689
Sp.	4688
Kunststoff	4688
Kundenservice	4687
11,@@	4687
FS@@	4686
Miss@@	4686
virale	4685
gebeten	4685
Pressemitteilung	4685
ello	4684
passende	4684
gehend	4683
Appartements	4682
Dol@@	4682
Competact	4682
Montelukast	4681
bahnen	4680
Abfall@@	4679
uch@@	4679
ish	4679
denkt	4679
Angi@@	4678
depressiven	4678
Automobil@@	4678
mini@@	4677
vertrau@@	4677
Beenden	4677
amt	4676
Philosophie	4676
til@@	4675
gereinigt	4675
bestimmungen	4674
e.V.	4674
Abenteuer	4674
verworfen	4673
bereichs	4673
Nplate	4673
mäch@@	4673
Intrinsa	4672
Way	4672
ux	4670
Sehschärfe	4670
hü@@	4670
Schau@@	4670
PP	4668
Zeitung	4668
fährt	4667
Allgemein@@	4667
CC	4666
umfangreiche	4666
punkten	4666
Scho@@	4665
hart	4665
Ikterus	4665
obere	4664
gesammelt	4664
bearbeitet	4664
Planeten	4662
How	4661
rekombinantem	4661
Kopie	4660
Größen	4659
Labor	4658
grenze	4657
Dinatriumhydrogenphosphat	4657
VTE	4657
humanem	4657
Gehalt	4657
Data	4656
sting	4656
Referenzmitgliedstaat	4655
muster	4655
steuerung	4655
open@@	4655
ora	4654
Grades	4654
Finanzen	4654
eingesch@@	4653
Nr.8@@	4653
behälter	4653
unabhängigen	4653
Jugend	4652
Glucose	4651
gst	4651
spen@@	4651
investigation	4650
Strände	4649
SonoVue	4648
pharmakologische	4648
Bilirubin@@	4648
Pyrexie	4647
Karaoke	4647
erkennbar	4645
leh@@	4645
Anzeigen	4645
Az@@	4644
ulo@@	4644
gebrauchsfertigen	4643
Enzephalopathie	4643
SARL	4642
Influenza-@@	4642
Integr@@	4642
Faltschachteln	4641
mittlerweile	4641
used	4640
Antigen	4640
Gramm	4640
Book	4639
Geschäftsbedingungen	4639
Bis@@	4639
19-@@	4639
halb	4637
Papst	4637
DNS	4637
betten	4637
ma-@@	4636
Hab@@	4636
0,088	4636
ist@@	4636
Ausstellungs@@	4635
036	4635
drückt	4635
Deutschlands	4633
know	4633
influenzae	4633
kter	4632
rt	4632
orange	4632
Fast	4632
Verein	4631
Vertretern	4631
To	4630
oli	4630
Produ@@	4630
exposition	4630
sprech@@	4630
appliziert	4630
licherweise	4629
schlag@@	4629
Kun@@	4629
Py@@	4628
Phenylalanin	4628
Verbraucher@@	4628
Antiphlogistika	4628
Reizung	4627
Mul@@	4627
kostenfrei	4626
möglichkeit	4626
Erb@@	4626
Allah	4626
Kurse	4625
b.@@	4623
м@@	4622
blei@@	4621
Apple	4621
jährliche	4620
1-er	4620
zungen	4620
Anfangs@@	4619
staat	4619
uli@@	4619
anhalten	4618
klassi@@	4618
kas	4618
Wohnfläche	4617
ABl	4617
berühren	4617
Nelarabin	4617
ability	4616
1973	4615
Fendrix	4615
Überlebenszeit	4614
Rich@@	4613
arbeiteten	4613
tro	4612
535	4612
unzerkaut	4612
Revatio	4611
Synthese	4611
olin@@	4610
Fertigung	4609
tifi@@	4608
trocken	4608
FERTIGSPRITZE	4608
Entdecken	4607
bedeutende	4607
Kreatinin	4607
Bul@@	4607
Mutation	4607
nehmer	4606
zip@@	4606
Stufen	4606
Beste	4605
duktion	4604
stimmte	4604
Überdosis	4604
ffer@@	4603
TRAVATAN	4603
Korrektur	4602
Signal	4602
ids	4602
still	4601
erläutert	4600
Lufttemperatur	4600
Steady-State	4600
neusten	4600
innovativen	4600
hex@@	4599
abnormale	4599
4,7	4599
λ@@	4598
gebühren	4598
Laut	4598
erwachsene	4596
LUMIGAN	4596
künftigen	4596
senkte	4596
süd@@	4596
Immobilien@@	4596
körper	4596
Öffnung	4594
teste	4594
them	4594
FE@@	4594
spätestens	4593
Fisch	4593
heit@@	4593
Unabhängigkeit	4593
faktoren	4592
bat	4592
4,9	4591
Thrombin	4590
0,35	4590
saison	4590
mieren	4589
kunst@@	4589
Parkinson	4588
Schatten	4588
Gesamtzahl	4588
tü@@	4588
nar@@	4588
iler	4588
metho@@	4588
ument@@	4587
bereit@@	4586
LAN@@	4586
M-M-RVAXPRO	4586
Ambrisentan	4585
Widerstand	4585
dlicher	4584
steigenden	4584
lebensbedrohlich	4584
provider	4584
158	4584
mir@@	4583
Rotigotin	4582
bus@@	4582
gigen	4581
Zuletzt	4581
Freizeit@@	4581
ball@@	4581
1984	4581
plötzliche	4578
vergeben	4578
Rücken@@	4578
CAR@@	4578
obje@@	4578
Te	4577
Erschöpfung	4576
Drogen@@	4576
Orion	4576
Gehirns	4576
original	4575
Hz	4575
t-	4575
204	4574
mittlerer	4574
bruch	4573
Fass@@	4573
338	4573
oni	4573
geteilt	4573
Skigebiet	4572
Gadovist	4572
politischer	4572
Ulcera	4570
5-FU	4569
sprogramm	4569
Autoren	4569
article	4568
Natriumoxybat	4568
wahren	4568
ader	4568
ture	4568
HINWEISE	4568
vision	4567
sor	4566
übermäßige	4566
bereitet	4566
gemeinsamer	4566
Florenz	4566
available	4565
ausgezeichnete	4565
py@@	4565
hot	4565
otoxizität	4564
Central	4563
Big	4563
omer@@	4563
Mö@@	4562
absoluten	4562
Mün@@	4561
Slo@@	4561
p-Wert	4561
Kit	4560
Bortezomib	4560
Märkten	4560
gerechtfertigt	4560
Zarzio	4559
Verfärbungen	4558
herab@@	4558
Erythrozyten	4558
krank@@	4558
aufs	4557
Schwangere	4557
dele@@	4557
ssystems	4557
Injektionsspritzen	4557
Laropiprant	4557
Mylan	4556
100-@@	4556
Visudyne	4556
dec@@	4556
Plasmaproteinbindung	4556
gesichert	4556
Livensa	4555
ausgesch@@	4555
kultur	4555
Magen-Darm-@@	4555
Einzeldosis-@@	4554
Politik@@	4553
Spaziergang	4553
registrieren	4552
nord@@	4552
In-@@	4552
Oberflächen@@	4552
verzögerte	4552
Behandlungswochen	4551
ProMeris	4551
Spezialitäten	4551
Rü@@	4551
finanziert	4550
HC@@	4550
amin	4550
betrieb@@	4550
LITAK	4550
ere@@	4549
Bedürfnissen	4549
Ecke	4549
Ges@@	4548
Spain	4548
20x1	4548
mark	4548
verarbeitet	4547
Bevacizumab	4547
lass	4546
Präsidentschaft	4545
becken	4545
arch@@	4545
Tee	4544
Verkauf@@	4543
Exforge	4542
AE	4542
Dicural	4542
akutem	4541
lieber	4541
dierung	4540
Sü@@	4540
Infusionsgeschwindigkeit	4539
Schnell@@	4538
mnt	4538
Sit@@	4537
Vorstand	4537
Beschwerde@@	4536
ssion@@	4535
offenbar	4535
bis@@	4535
ansehen	4535
sech@@	4534
Varianten	4534
Hot@@	4534
Strei@@	4533
Theorie	4533
erhol@@	4533
Paar	4532
senk@@	4532
Paste	4531
eth@@	4531
Anliegen	4531
Einträge	4529
intensiv	4529
Jur@@	4529
Quer@@	4529
Investoren	4527
Krankenhaus@@	4527
og	4527
kardialen	4526
Fans	4526
uten	4526
Letz@@	4525
Beteiligten	4524
Feten	4524
klassische	4524
Avandamet	4524
etten@@	4523
527	4523
Alexander	4522
ο	4522
PHP	4521
zustellen	4520
Intensität	4520
Rent	4519
Deckung	4519
Evoltra	4518
Weihnachts@@	4518
transfer@@	4518
Airport	4517
voraus	4517
Blutzuckerspiegels	4517
schmerz@@	4516
Schil@@	4516
ION	4516
ache	4515
Visi@@	4515
Schie@@	4514
pulmonale	4513
Gibt	4513
Pfei@@	4513
Erleichterung	4512
mmt	4512
Kamin	4510
Zuverlässigkeit	4510
Flatulenz	4510
gerä@@	4510
Profi@@	4509
automatische	4509
View	4509
kleben	4509
Grundsätze	4509
Wunder	4509
Sími	4507
sekundäre	4507
Amphotericin	4507
Erlebnis	4506
Einbeziehung	4506
Fab@@	4506
Wartung	4506
164	4505
Schering	4504
139	4504
363	4504
.dll	4504
Lande	4503
CYSTAGON	4503
ion@@	4503
Fernsehen	4502
Interessengruppen	4502
low	4501
2.000	4501
entschied	4501
samt	4501
gebo@@	4501
Chr@@	4501
identi@@	4501
schien	4501
klei@@	4499
Benzalkoniumchlorid	4499
Vaskulitis	4498
zunehmenden	4498
Valproat	4497
gek@@	4497
ffer	4497
Volkes	4496
Zyrtec	4496
beziehungen	4496
samm@@	4496
Verbrechen	4495
Untergruppe	4494
TV-@@	4494
gelernt	4494
STAMARIL	4494
Veranschlagt	4494
schrei@@	4493
änderungen	4493
berger	4493
voneinander	4492
spontan	4492
berufen	4491
Großteil	4491
Einzelbetten	4490
charakterisiert	4490
Cle@@	4490
rec@@	4489
dokumentiert	4489
GO	4489
Glubrava	4489
Cl@@	4489
Taste	4489
AVONEX	4488
Gemeinsame	4488
Lieferanten	4487
Kolle@@	4487
CEPROTIN	4487
Super	4487
Sünde	4486
gasse	4486
abnorme	4486
6.3	4486
Lymph@@	4485
ke-@@	4485
zie@@	4485
Taupunkt	4485
Herzklopfen	4484
Agency	4484
nephr@@	4484
II@@	4484
Aussage	4483
.ypages@@	4483
Zusatztherapie	4482
Innenstadt	4481
konferenz	4481
peripherer	4481
sekundären	4480
stuhl	4480
rosa	4480
Expositionen	4479
herrlichen	4479
Stock@@	4479
human@@	4479
impf@@	4478
wöchige	4478
George	4478
Bestell@@	4478
umfassend	4478
kardiovaskulärer	4477
Register	4477
diskontierte	4477
Oseltamivir	4477
halle	4476
Workshop	4476
Rechts	4475
Corlentor	4474
frühere	4474
035	4474
Association	4473
Phar@@	4473
Körpergewichts	4473
Salz	4472
Buchen	4472
Kabel@@	4472
Für@@	4472
Stationen	4471
around	4471
datei	4471
active	4470
elemente	4470
Gelbfärbung	4470
minimieren	4468
Träger	4468
phot@@	4466
stoffs	4466
modern	4466
Dateiendung	4465
vorliegende	4465
gert	4465
Zulassungsinhaber	4464
sekretion	4464
steten	4463
etabliert	4463
kunden@@	4463
Tupfer	4463
denselben	4462
hung	4462
Wirbelsäule	4462
anger@@	4462
Sicherheitssystem	4462
Unterkunfte	4461
branche	4461
änge	4461
Digital	4460
Weniger	4459
T.	4459
Rasse	4459
Bern	4458
emo@@	4458
variieren	4458
Ela@@	4458
Module	4458
img@@	4458
KOMPLETTE	4457
alisier@@	4457
elin	4457
aux	4456
Tigecyclin	4456
Cyclophosphamid	4456
Gespräche	4456
monatigen	4456
Sant	4456
Taubheit	4455
FOSAVANCE	4455
verteilung	4454
TOVIAZ	4454
Switzerland	4453
küste	4452
Aminosäuren	4451
6,5	4451
eu	4451
wachsende	4451
baut	4451
Impfschema	4451
Fir@@	4451
König@@	4450
beschreibt	4450
HepB	4450
HER@@	4450
löschen	4450
komme	4450
Aldara	4449
Co	4449
Cinacalcet	4449
Macugen	4447
lebenden	4447
199	4447
gebrauchsfertige	4447
mögen	4446
288	4446
märkte	4445
bearbeiten	4445
Insulinaspart	4445
ox	4445
Eth@@	4444
ausstattung	4444
aureus	4443
car	4443
gallery	4443
arterielle	4442
Suiten	4442
hinaus@@	4442
Flug	4441
neurologische	4441
Brustkorb	4441
eter	4441
316	4441
ά@@	4441
bindung	4440
gewinnt	4439
dynamische	4439
Shar@@	4439
Verfahrens@@	4438
sorgfältiger	4437
Niederschläge	4437
Lam@@	4437
Mycamine	4436
Ultraschall@@	4436
ala	4436
Audio	4435
beach@@	4435
hlen	4435
wöchentlichen	4435
schung	4435
unklar	4433
beziehungsweise	4433
seitige	4432
verbreitet	4432
Schellack	4432
310	4432
sagten	4431
leitet	4431
Fluor@@	4430
stattfindet	4430
Verbrauch	4428
Gastrointestinaltrakt	4428
wn@@	4428
Konfiguration	4428
034	4428
H5N1	4428
Probenecid	4427
gestaltung	4427
stie@@	4427
ku	4427
100.000	4427
5.000	4426
akutes	4426
ν	4426
Gewichts@@	4426
attra@@	4425
Sonnenuntergang	4425
Pop@@	4425
HBeAg-@@	4425
Wahr@@	4424
frequenz	4424
eintreten	4424
than	4423
sung	4423
AUC@@	4422
untersuchte	4422
fertigen	4421
nahme@@	4421
vermindertes	4421
stitu@@	4421
Verabschiedet	4420
Kop@@	4419
Inneren	4419
Leuten	4419
37,@@	4418
tierende	4417
präparate	4417
Klimawandel	4417
ologisches	4417
Lat@@	4416
Neu	4416
wirkungs@@	4415
Neutrophilenzahl	4414
vermittelte	4413
Wirtschafts-	4413
elektrische	4413
Cisaprid	4413
ade@@	4412
bedeutenden	4412
tics	4412
französische	4412
Netherlands	4412
Dir	4409
öff@@	4409
amar@@	4409
Treffer	4409
gewählten	4408
Hepsera	4408
Kurz	4408
321	4407
luxus	4407
2007-@@	4406
dip@@	4406
klingen	4406
COM@@	4406
Kredit@@	4405
Sexual@@	4405
of-@@	4405
erter	4405
MP	4404
ventrikuläre	4404
Opti@@	4403
Ny@@	4403
Hä@@	4403
1.500	4403
Wilzin	4403
u.@@	4401
cop@@	4401
micro@@	4401
Resultate	4401
Kft	4400
unmittelbarer	4400
medianen	4400
Ziconotid	4400
geschwollene	4399
Einkaufs@@	4399
vgl.	4399
Lungenerkrankung	4398
air	4398
Brenn@@	4398
englisch	4398
tagen	4397
GL@@	4397
Enbrel-@@	4397
leben@@	4394
arzneimittel	4394
Mitgliedsstaaten	4394
infundiert	4394
rechtfertigen	4394
Procoralan	4394
fügen	4393
malen	4393
strukturen	4393
bewegungen	4393
pl	4392
Alters	4391
mobile	4391
Nekrolyse	4391
Krebspatienten	4391
054	4391
Luveris	4391
Eingabe	4391
perio@@	4390
säure@@	4390
Flaschen@@	4389
fließt	4388
schädlich	4388
Phosphat@@	4388
erneute	4388
Prakti@@	4387
spiegel@@	4387
Wandern	4387
hi	4386
Entwickler	4386
but@@	4385
192	4384
Fluticasonpropionat	4384
wahre	4384
Vereinbarungen	4383
Innovationen	4383
tes@@	4381
Vari@@	4381
5,3	4380
Typ-@@	4380
ire@@	4379
Jean-@@	4378
352	4377
Ruf	4376
Wärme@@	4376
ium	4375
ktur	4375
Ernährungs@@	4374
steine	4374
späten	4374
Türen	4373
need	4373
Terra@@	4373
Effe@@	4373
044	4373
Poly	4372
Blutbild	4372
Pur@@	4372
Gerichts@@	4372
Manchmal	4372
gefährlich	4371
Sep@@	4371
mobili@@	4371
resistente	4371
MERKMALE	4370
postnatale	4370
Signal@@	4370
überwachung	4369
Vogel@@	4368
pic@@	4368
173	4368
Großen	4366
NovoNorm	4366
zahlung	4365
air@@	4365
mikrokristalline	4364
27.@@	4364
Themen@@	4363
1400	4362
Publikationen	4362
North	4362
Histor@@	4361
Spiels	4361
Erfassung	4361
SER@@	4361
verfahrens	4360
circa	4360
lischen	4360
Besuchern	4359
play@@	4359
tren@@	4359
ausschusses	4359
cel@@	4359
Natriumcitrat	4359
Gluko@@	4358
Prandin	4358
Power	4358
stätigkeit	4357
standes	4357
strukturiert	4357
K.	4357
Alph@@	4356
wiederholte	4356
Paliperidon	4355
alo@@	4355
First	4354
Circadin	4354
verbesserten	4354
watch	4353
Oberteil	4352
Systemorganklasse	4352
stech@@	4351
CT	4351
g-	4351
pharmakodynamischen	4351
Noxafil	4351
beds	4351
situation	4350
Gebühr	4350
offen@@	4350
Rea@@	4350
WISSENSCHAFTLICHEN	4349
angenehme	4349
ple@@	4349
CK	4348
Cerezyme	4348
rigen	4348
mol	4348
Phase-@@	4347
temperatur	4347
gestartet	4347
224	4347
gabe@@	4347
Bern@@	4347
Hühner	4347
526	4346
terie	4345
erworbene	4345
stätten	4345
Innenhof	4344
RNA	4344
PI@@	4343
Träger@@	4343
Gaben	4343
Abmessungen	4342
Episode	4342
wendet	4342
Dysphagie	4342
chens	4342
Klick	4341
feiern	4341
Haartrockner	4341
222	4341
Perspektive	4341
phosphat	4340
geschlagen	4340
6.2	4340
thing	4339
-hydroxid-oxid	4338
ECALTA	4338
bewahren	4338
OPRYMEA	4338
bioäquivalent	4338
new@@	4337
DNA-Technologie	4337
mpf	4337
bricht	4337
Eingeschränkte	4337
Wachstum@@	4337
Sekretariat	4337
Kampagne	4336
179	4336
Advocate	4336
Quell@@	4335
Fibrose	4335
Kö@@	4334
ό@@	4333
reinigen	4333
26-@@	4332
wenigstens	4332
gkeit	4332
3.jpg	4331
Neigung	4331
Hügel	4330
Normalisierung	4329
Sorgen	4329
technologie	4329
above	4328
Nahrungs@@	4328
proje@@	4327
5,8	4327
RI@@	4327
Gepäckaufbewahrung	4327
Uhrzeit	4326
euren	4326
wünsche	4326
Forderung	4326
Ñ@@	4325
Betablocker	4324
340	4324
Washington	4324
gereinigtes	4323
Mikrowelle	4322
www.bibliotecapleyades.net	4322
externe	4322
Betr@@	4321
ratsam	4321
Cimetidin	4321
schaff@@	4320
temp@@	4319
Url	4319
Pig@@	4319
sus	4318
Jungen	4318
OS@@	4317
Great	4316
Zir@@	4315
ständen	4314
br	4314
farbene	4314
sensi@@	4314
rasche	4313
opro@@	4313
Bewusstlosigkeit	4313
Stoff	4313
HD@@	4312
Platz@@	4312
aktivieren	4312
gelegene	4312
maligne	4311
www.eib.org	4311
38,@@	4311
Behinderung	4311
Vaters	4311
verstoffwechselt	4310
hä@@	4310
Folie	4310
zutreffend	4309
aktivitäten	4308
terminalen	4307
schlechten	4306
Levviax	4306
körpereigenen	4305
DER@@	4305
ycin	4304
Blumen	4304
Karriere	4303
vierte	4303
gestellte	4303
ADVATE	4303
Background	4302
Schwe@@	4301
36,@@	4301
ANWENDER	4301
TEVA	4300
Estland	4299
strategischen	4299
parameter	4299
Dodge	4298
mate	4298
Bli@@	4297
Opioid-@@	4297
visuell	4296
Rivaroxaban	4296
Toxizitäten	4295
Häfen	4295
10,@@	4294
gesellschaften	4294
verzeichnen	4294
typische	4293
behandlungen	4293
pharmazeutischen	4293
Zahlungen	4293
Kreis	4293
Stevens-Johnson-Syndrom	4292
hon@@	4292
ate@@	4292
Pakete	4291
teilt	4291
Anna	4291
ruft	4291
alisierten	4291
Bibel	4291
ge-	4291
veranstaltungen	4290
.it	4290
Antidot	4290
aden@@	4289
Empfang	4288
Öko@@	4288
praktischen	4288
Bronchospasmus	4288
streng	4288
invasiven	4288
prompte	4288
professionelle	4288
Ausführungen	4287
465	4287
al-	4286
avi@@	4285
verboten	4285
Kreuz	4285
V.	4285
nel@@	4285
Hö@@	4284
erschienen	4284
RE	4283
eg	4282
Trastuzumab	4282
Reaktions@@	4282
235	4282
schriften	4282
extra	4282
Tauch@@	4282
.eu	4281
empfindlichkeit	4281
keit@@	4280
Überarbeitung	4280
musik	4280
WHO	4280
BS@@	4280
Up@@	4280
bul@@	4280
Aerinaze	4279
raz@@	4278
Premium	4278
cus	4276
herstellen	4276
Galle	4275
Mittlere	4275
Rasagilin	4274
Trotzdem	4274
Soldaten	4273
ey	4273
starkes	4272
m.@@	4272
Basis@@	4272
ehemalige	4271
ann	4271
Stechen	4271
OL	4270
Chinidin	4270
schnei@@	4270
Wandel	4270
ALT-@@	4270
einverstanden	4268
Wall@@	4268
Freuen	4268
inspiegel	4268
Röntgen@@	4268
Sex	4268
Journal	4268
schalten	4266
Konferenzen	4265
dreh@@	4264
Bin@@	4264
bezahlt	4263
Real	4263
120@@	4263
Schwei@@	4263
ACT	4263
da-@@	4263
hochwertigen	4262
Untersuchungs@@	4262
407	4262
ergänzen	4262
Gastroenteritis	4262
Gemüse	4262
gelungen	4261
Gelenken	4261
stör@@	4261
ausgeprägten	4261
Skelett@@	4260
amo@@	4260
kunst	4260
Nachfolgend	4259
Gor@@	4259
Bürgerinnen	4259
BE	4259
Pages	4258
Black@@	4258
richtlinie	4257
31-@@	4256
off	4255
Mögliche	4255
schein	4254
Freizeit	4254
mieten	4254
fiziert	4254
Induktoren	4254
ò@@	4253
Tageszeit	4253
bungen	4253
otoxische	4251
ax	4251
Immer	4250
Kle@@	4250
Tube	4250
Vorher@@	4250
Blue	4249
stherapie	4249
Leiterin	4249
bew@@	4248
nennt	4248
kirche	4248
verschlimmern	4248
auszuschließen	4248
mmel	4247
bauten	4246
klären	4246
verwen@@	4245
doppelblinde	4245
Angiox	4245
Pseudoephedrin	4245
Inhal@@	4245
Zeile	4245
Dy@@	4244
stän@@	4244
Posaconazole	4244
Geschichten	4244
327	4244
Wüste	4243
halter	4243
Bivalirudin	4243
heutige	4243
Dich	4243
irgendeine	4242
Währung	4242
Corporate	4242
verstän@@	4241
EW@@	4241
erstreckt	4240
HB@@	4240
256	4240
Don	4239
ING	4239
HIV-1-@@	4239
Frieden@@	4239
Proteinbindung	4238
tem@@	4238
E-Mail-Adresse	4238
EKG	4238
Genital@@	4238
höheres	4238
TP	4237
^	4237
veran@@	4237
Hep@@	4237
Bord	4237
kapazität	4236
Antigene	4236
Norm	4235
Zerstörung	4235
prop@@	4235
ausgew@@	4235
kontroll@@	4235
umfangreichen	4234
Neurontin	4234
spra@@	4233
Kenntnisse	4233
4,3	4233
Berater	4233
Award	4233
31.0@@	4233
Königs	4233
gerechte	4233
Angiotensin-@@	4233
d.o.o.	4232
Laden	4232
eigenem	4232
Sat-TV	4231
Levitra	4231
Orgalutran	4230
---	4230
prakti@@	4228
Umwel@@	4228
stest	4228
Prei@@	4227
dge@@	4227
sicherung	4227
öses	4227
into	4227
Fest	4227
inbegriffen	4226
schädliche	4226
Fehlen	4226
Wund@@	4224
star	4224
Musiker	4224
Wahrnehmung	4224
Candidiasis	4223
arische	4223
Palette	4223
1st	4222
kus	4222
Aussch@@	4222
Bratislava	4221
fehler	4221
Technologie@@	4220
Wagen	4220
tigungs@@	4220
Hinsichtlich	4220
qualifizierten	4220
ppen@@	4220
konkreten	4220
schlafen	4219
PLUS	4219
Tätigkeitsbericht	4218
Ohren	4218
Zurück@@	4217
Versuch@@	4217
070	4217
Feuer@@	4216
width	4216
überzeugen	4216
Antirheumatika	4215
deleted@@	4215
High-@@	4215
Erektion	4215
Amarillas@@	4215
6,8	4214
Brechen	4214
8,3	4214
Calcitonin	4214
Tieres	4213
Express	4213
eignen	4213
Stan@@	4212
stimuliert	4212
Live-@@	4211
gesetzl	4211
Tickets	4211
Segel@@	4211
Daumen	4210
Savene	4210
Gelände	4210
aufwand	4209
Saccharose	4208
zon@@	4208
Bewohner	4208
beschreiben	4208
Zit@@	4208
paper	4207
Vorgehen	4206
Embry@@	4206
W.	4206
Geschlechtsverkehr	4206
cation	4205
systemisch	4204
PET	4204
chronisch	4204
Lipodystrophie	4203
zigen	4203
zäh@@	4203
wäss@@	4203
Agenda	4203
Beschäftigungs@@	4202
Patientenpopulation	4201
minimale	4201
Kaffeemaschine	4199
css	4199
beantworten	4199
Points	4199
fähige	4198
mma	4198
fangen	4198
Antonio	4198
archi@@	4197
vertrag	4197
Allergien	4197
Chemie	4197
versicher@@	4197
Tisch@@	4197
5,1	4197
hersteller	4197
Todes@@	4196
multizentrischen	4196
bett@@	4195
sen-@@	4195
Unterdrückung	4195
schnit@@	4195
Autom@@	4195
operative	4195
Erzeugnisse	4194
jeweilige	4194
schaf@@	4194
Firazyr	4194
grundlegende	4194
Angel@@	4193
Wolfgang	4193
Umwandlung	4193
tica	4192
Käufer	4192
umfassten	4192
Insulinbedarf	4191
kam@@	4191
Parecoxib	4191
kn@@	4191
zytotoxischen	4191
ML	4190
leer	4190
beabsichtigen	4189
basierten	4189
metaboli@@	4189
Indigocarmin	4189
Gerade	4189
Ansichten	4189
Schlei@@	4189
konjug@@	4189
Traum	4188
TW@@	4188
Author	4188
Natriumdihydrogenphosphat	4188
patienten	4188
Buchstaben	4188
ord	4188
Summe	4187
Uhrzeigersinn	4187
erkunden	4187
zukünftige	4187
verbindungen	4187
Vidaza	4186
Moderne	4186
Orts@@	4186
Brombut@@	4186
alisierte	4186
6,6	4186
Ferriprox	4186
Etanercept	4185
Reserve	4185
Gleichgewicht	4185
ständiger	4184
reifen	4183
Hon@@	4182
Robenacoxib	4182
erw@@	4181
NEVANAC	4181
Kapital	4181
Gilead	4180
Glut@@	4179
Anstiege	4179
ausscheidung	4178
sla@@	4178
beginnend	4178
ZNS-@@	4177
messe	4177
Lympho@@	4177
EINER	4177
restlichen	4177
schöner	4176
Universitäten	4176
lokaler	4175
ckung	4175
griechischen	4175
deck@@	4175
fizierte	4174
Clinical	4174
brau@@	4174
benannt	4173
366	4173
komplexen	4173
Maß@@	4173
228	4173
ASS@@	4173
USD	4170
vergleichen	4170
Offen@@	4170
Pharmakovigilanzplan	4170
stufe	4169
schmerzhafte	4169
Physi@@	4169
39,@@	4168
Trends	4167
dustrie	4166
Alltag	4166
Estate	4166
zukünftigen	4166
ry@@	4166
geachtet	4165
rand	4165
herabgesetzt	4164
Mobile	4164
Bakterium	4163
Ç@@	4163
zugestimmt	4163
ktomie	4162
seltener	4162
EC	4162
Sachver@@	4161
Gemein@@	4161
DEN@@	4161
0,5@@	4161
HTML	4161
Unterhaltung	4161
Zoll	4160
Mod@@	4160
Produktion@@	4159
genes	4159
Nagel@@	4159
gleicher	4158
müde	4158
Fan@@	4158
MAH	4158
And	4157
arzneimittel@@	4157
nunmehr	4157
operationen	4156
veröffentlichte	4156
Esszimmer	4156
oxid	4156
Canary	4155
spielte	4155
6,4	4155
entsprachen	4155
herunter	4154
cations	4154
gehei@@	4154
UR	4154
Knochenerkrankungen	4153
Darlehen	4153
MAN@@	4153
relevanter	4153
Künstler@@	4153
Milz@@	4153
vorgeschrieben	4151
SY@@	4151
TMZ	4151
elen	4151
Gottes@@	4151
sthe@@	4151
alitäten	4151
dierten	4149
IL-@@	4149
team	4149
800@@	4149
frisch	4148
Schiedsverfahren	4148
48-@@	4147
Schn@@	4147
Formulierungen	4147
Wharf	4146
Alternativ	4146
Dafür	4146
AccommodationZ.com	4146
Schachtel	4145
yla@@	4145
Zyprexa	4145
Existenz	4144
sitzt	4144
FORSTEO	4144
Direktlink	4144
Mieten	4143
zeige	4143
freundlichen	4143
Waschen	4142
retten	4142
super	4142
gestellten	4142
verse	4142
funktions@@	4141
................................................................@@	4141
154	4140
Verfugbare	4140
Tyverb	4139
Ertapenem	4139
rati@@	4138
FLASCHE	4138
6,1	4138
tat@@	4138
Bab@@	4138
niedrigste	4137
Beratungs@@	4137
lon@@	4137
TRITAZIDE	4137
hard	4137
befassen	4137
deut@@	4136
vaskuläre	4135
och@@	4135
Blutzuckerkontrolle	4135
What	4135
gebrauchte	4134
trennen	4134
glob@@	4134
nachweislich	4133
vorge@@	4132
para@@	4132
Pul@@	4132
ater	4132
our@@	4132
Lac@@	4131
Eines	4131
Hardware	4131
189	4130
personal	4130
dc@@	4130
vermischt	4129
Drotrecogin	4129
2-4	4129
PAR@@	4129
Blasen@@	4129
größerer	4128
Comm@@	4128
ANC	4128
Verteidigung	4128
org	4127
F.	4127
deutet	4127
popul@@	4127
griff@@	4127
Kit@@	4127
Methadon	4126
letzter	4125
Krampfanfällen	4125
Bewertungs@@	4125
VIII-@@	4124
woche	4124
zuverlässig	4124
ath	4124
entscheidende	4124
Tap@@	4124
atischer	4124
Absetz@@	4124
Sus@@	4124
Pak@@	4123
angen	4123
tablets	4122
mato@@	4122
Terrorismus	4122
Medium	4121
Lebensjahr	4121
Fot@@	4121
öser	4120
Kontrastmittel	4120
gericht	4120
anlass	4120
CYP3A	4119
grenz@@	4119
In-vivo-@@	4118
Prozesses	4118
gesetz	4117
demselben	4117
then	4117
volles	4117
Otitis	4116
umzusetzen	4116
-Werte	4116
fragt	4115
Regional@@	4115
Voraus	4114
stests	4114
kir@@	4113
Einsetzen	4113
Trainings@@	4112
Bonn	4112
Twitter	4110
Schrauben	4110
Individu@@	4108
ück@@	4108
matern@@	4108
457	4107
Control	4107
Modus	4107
Zirrhose	4107
Feu@@	4107
Child-Pugh	4106
Ufer	4106
lator	4106
gehe	4106
Verträge	4105
realisiert	4105
als@@	4105
dier@@	4104
Prasugrel	4104
Ausrichtung	4104
deutscher	4104
beigetragen	4103
OptiClik	4103
119@@	4102
406	4102
Schalt@@	4102
Endo@@	4102
development	4102
Serumkonzentration	4101
real@@	4101
Halsschmerzen	4101
ï@@	4101
hormon@@	4100
PI	4100
film@@	4100
Mand@@	4100
Point	4099
treiben	4099
aktualisieren	4099
reversible	4098
antiretroviral	4098
hilfreich	4098
ypen	4098
Chan@@	4098
wander@@	4097
www.mogelpower.de	4097
275	4096
Luminity	4096
einnimmt	4096
345	4096
langsamer	4096
geschah	4096
ETIKETTIERUNG	4096
Risk	4096
Spontan@@	4095
bun@@	4095
merck.com	4095
grundlegenden	4095
atz	4095
hepatischen	4094
Symptom@@	4094
hab	4094
Mexico	4094
ika	4094
height	4094
gewachsen	4094
linear	4093
Schwester	4093
Mont@@	4093
sser	4093
HAN@@	4092
änderung	4092
Pfad	4092
zugeben	4091
232	4091
speci@@	4090
Dü@@	4090
stands@@	4090
Prednison	4090
Quintanrix	4089
hang	4089
Fentanyl-ratiopharm	4089
Schwarz	4089
rDNA	4089
0200	4089
Verkaufs@@	4089
iell	4088
Lizenz	4088
zel	4088
Alter@@	4088
mechanismen	4087
HM@@	4086
Geschmacks@@	4086
Vivanza	4086
ssd	4086
gewohnt	4085
DIN	4085
Überlebensrate	4084
Public	4084
Place	4084
Bot@@	4084
begründet	4082
stem	4082
rup@@	4082
Wunden	4082
Content	4081
Gadograf	4081
herausgegeben	4080
market	4080
μg	4080
demokratische	4079
Melphalan	4079
schon@@	4078
3-4	4078
dargelegt	4078
Fötus	4078
pkoehn	4078
site-crawl	4078
derzeitige	4077
Fischer	4077
Heiz@@	4077
pel@@	4076
Pflegepersonal	4076
Rio	4076
looking	4075
Deine	4075
Magen-	4074
spannung	4074
Letzter	4073
Asi@@	4073
verlängern	4073
assi@@	4073
asse	4073
geistigen	4073
Richard	4073
1.1	4072
Nacht@@	4072
funktionsfähig	4072
different	4071
Praha	4071
geschä@@	4071
SN@@	4070
xe	4070
Avandia	4070
pat@@	4070
Langzeitstudien	4069
beantragte	4069
Amiodaron	4069
264	4069
nachfolgende	4069
sser@@	4068
flug@@	4068
neter	4068
komplexe	4068
BOX	4067
viert	4067
soli@@	4067
induzieren	4066
zurzeit	4066
.com.@@	4066
Joseph	4066
Ulzerationen	4065
ill	4064
inte@@	4063
Vorgehensweise	4063
location	4063
agon@@	4062
1983	4062
Ovarial@@	4062
ä	4061
vergleichbaren	4061
Sinusitis	4061
problemlos	4061
College	4061
Info@@	4060
Aufhebung	4059
ausstellung	4059
ado	4059
pulmonalen	4058
mitt@@	4058
hör@@	4058
Ausbildungs@@	4058
run@@	4058
beratung	4057
Erscheinungen	4057
erwähnten	4057
initi@@	4056
platten	4055
Kohlen@@	4055
versiegelt	4055
located	4055
Industri@@	4054
Fische	4054
ssig	4054
chro@@	4054
falschen	4054
Bindegewebs-	4052
Access	4052
kostenfreies	4052
Thrombose	4052
Hilfs@@	4052
KARTON	4051
DT@@	4050
behoben	4049
Dal@@	4049
häu@@	4048
admin	4048
made	4048
ökonomischen	4048
Zen@@	4047
Schwankungen	4047
künftige	4047
Wol@@	4047
Ritonavir-@@	4047
shop	4047
erneuten	4046
Lösungsmittel@@	4046
arbeit@@	4046
ι	4046
Fischerei	4044
guide	4044
www.vidc.org	4044
Kepivance	4044
Kampf@@	4043
terin	4042
Intra@@	4042
fließen	4041
Cour@@	4041
069	4041
typ	4040
game	4040
meldungen	4040
fb@@	4040
VISTIDE	4040
0.5	4040
limit	4040
gegenseitige	4039
ô@@	4039
illen	4039
Regulierung	4039
Engineering	4039
411	4039
ursprüngliche	4038
Syrien	4038
male	4038
kehren	4038
Kloster	4038
Haut-	4037
ehren	4037
Nürnberg	4037
ská	4037
sent@@	4036
Verbindungs@@	4036
Suizidgedanken	4036
bikonvex	4036
log	4036
www.blogigo.de	4036
enzy@@	4035
sites	4035
IVEMEND	4035
Erachtens	4034
Typ@@	4034
Schlussfolgerung	4032
Sorgfalt	4032
Zylinderampulle	4032
fragte	4032
humane	4032
Aden@@	4030
erniedrigte	4030
EVISTA	4030
unternommen	4029
äußer@@	4029
Trabectedin	4029
Agranulozytose	4029
deswegen	4029
gedreht	4029
ähr@@	4028
fran@@	4028
ming	4028
verz@@	4028
plant	4027
Soli@@	4027
xen	4026
Stimmung	4026
Emselex	4025
By@@	4025
AP	4024
Terminal	4024
Hellas	4023
Nachmittag	4022
sop@@	4022
kan	4022
Diego	4022
letz@@	4022
spezifisches	4022
191	4021
Zweitens	4021
appar@@	4021
VI	4021
Eier	4020
flüssigkeit	4019
Peri@@	4018
beantragt	4018
Nonafact	4018
Beachtung	4018
europ@@	4018
Set@@	4017
fung@@	4017
Obje@@	4016
bisschen	4016
pädiatrische	4016
abilität	4015
mitgeteilt	4015
biegen	4014
vertrat	4014
Kam@@	4013
3D-@@	4013
tile	4013
eingegangen	4012
zeitlichen	4012
übermittelt	4011
einhalten	4011
angenehmen	4011
287	4011
Bohr@@	4010
ima@@	4010
Originalverpackung	4010
HBV-DNA	4009
cine	4009
mper@@	4009
merken	4009
Zubereitungen	4008
gemein@@	4008
Handeln	4007
ix	4007
Swiss	4006
ose@@	4006
neurologischen	4006
Schein@@	4005
klassen	4004
Zielen	4004
geeigneter	4003
83@@	4003
haut	4003
trags@@	4002
Redu@@	4002
0100	4002
glücklich	4001
Kompetenz	4000
laan	4000
anges	3999
währ@@	3999
Hypokalzämie	3998
ckten	3998
My	3998
B-0@@	3998
frie@@	3998
Mode	3998
Stoffwechsel-	3997
emea.eu.int	3997
Hydroxycarbamid	3997
schrank	3997
etwaige	3996
ky	3996
virologisches	3996
try	3996
teure	3996
cing	3996
übergeben	3996
begleitende	3995
Zoledronsäure	3995
Block@@	3995
Adressen	3994
п@@	3994
räum@@	3994
author	3994
Agopton	3993
fa	3993
wirtschaftlich	3993
herunter@@	3992
Verhütungsmethode	3992
Mut@@	3991
5-Fluorouracil	3991
425	3991
ω@@	3990
096	3990
Abschließend	3990
infe@@	3990
berühmte	3989
Shi@@	3989
Meningitis	3989
sulfat	3989
einheitlich	3989
einzel@@	3988
Pharyngitis	3988
Free@@	3988
Vorhofflimmern	3988
vorausgesetzt	3988
Übereinkommen	3988
Brinzolamid	3988
up-@@	3987
480	3987
Š@@	3987
slo@@	3986
DLL-Fehler	3986
Übersetzungen	3986
75-@@	3986
AUS@@	3986
erwerben	3985
gesellschaftlichen	3985
HErr	3985
bekanntermaßen	3985
menten	3983
ato	3983
Karl	3982
Hüfte	3982
www.ypages@@	3982
keits@@	3981
bedruckt	3981
halben	3980
integrierte	3980
Of	3980
Pharmakovigilanzsystem	3980
uri@@	3979
Arbeiter@@	3978
opla@@	3978
-1	3978
verein@@	3978
schau	3978
1980	3978
Eisenbahn@@	3978
Penta	3977
Generationen	3977
Streifen	3977
MON@@	3976
Jobs	3976
Wirkungsweise	3976
maß	3975
Dritten	3975
Kanal	3975
gn@@	3975
Wissenschaftliche	3975
Zeichen@@	3975
sation	3974
size	3974
Ehr@@	3974
gesandt	3974
BA@@	3974
Kammer@@	3973
Toilette	3972
Natriumdodecylsulfat	3972
Charles	3972
Verlangen	3972
Augenerkrankungen	3971
verkauf	3970
verschlimmert	3970
voran@@	3969
rige	3969
Fitness@@	3969
programme	3968
schädigung	3968
Zimmerservice	3968
Finger@@	3968
ano@@	3967
OPTRUMA	3966
Software-@@	3966
7,9	3966
Afri@@	3966
Arbeitsplatz	3965
dä@@	3965
Bier	3964
definierten	3963
Pferd	3963
ae	3961
hemmer	3961
Bom@@	3961
Blutergüsse	3961
Stat@@	3961
s.de	3961
Serono	3960
ellen@@	3960
Funktion@@	3960
glück@@	3959
Konzerte	3959
Architekten	3959
false	3959
versorgt	3958
Hormons	3958
sechs@@	3958
burg@@	3957
Dritt@@	3957
gerei@@	3956
aba@@	3956
Rotterdam	3956
Christ@@	3956
della	3956
Prinzipien	3956
lich-@@	3955
Spezielle	3955
Lä@@	3954
Wäscheservice	3954
17-@@	3954
dosierung	3953
beteiligen	3953
wu@@	3952
sozial@@	3952
minimal	3952
Matrix	3951
8,5	3951
transdermalen	3951
Bexaroten	3951
PA@@	3951
455	3951
580	3949
Politiker	3949
5mg	3949
VIAGRA	3948
EK@@	3948
Produktinformation	3948
sol	3948
Sicherung	3948
doppel@@	3948
Guidance	3948
30.@@	3947
Sound	3947
typisch	3947
flug	3947
Toxizitätsstudien	3946
kümmern	3946
Verwaltungsrates	3946
tiefer	3945
bili@@	3945
dasselbe	3945
Franz	3945
0.00@@	3944
Circus	3943
USB-@@	3943
intensive	3943
2500	3942
1979	3942
akt@@	3942
tierexperimentellen	3942
Bettwäsche	3942
mat	3941
Primär@@	3940
komfortable	3940
barem	3940
zweier	3939
Applikations@@	3939
Transaminasen	3939
resistenten	3939
и	3938
Toxin	3938
Hüft@@	3938
camp@@	3938
ausgewertet	3937
chtung	3937
iter	3937
Messe@@	3937
tauchen	3937
Partikeln	3936
ATryn	3936
Ausblick	3936
bergen	3936
Klinik	3935
4.00	3935
-30	3934
Kontamination	3934
Duo	3934
Antrags@@	3934
Waren@@	3934
glas	3933
verstopfte	3933
Maximum	3933
Quar@@	3932
bemerkt	3932
elli@@	3932
Mittagessen	3932
Mun@@	3931
IL	3930
manu@@	3930
pflich@@	3930
alkalische	3929
open-@@	3928
date	3928
Reihenfolge	3928
www.penilefitness.com	3928
Garden	3928
informationen	3927
öffentlich	3927
isieren	3927
oth@@	3926
Pot@@	3926
Cyclosporin	3926
zeitlich	3926
häusern	3926
wartet	3925
rar	3925
sign@@	3925
Magens	3924
Jucken	3924
Beschwerde	3923
Implantation	3923
Aufstehen	3923
parallel	3923
verzichten	3923
press@@	3922
Allgemeiner	3921
Gewinn	3921
vorhaben	3921
NE	3921
8,0	3920
Intervet	3920
ani@@	3920
pumpe	3919
dynamischen	3919
strategische	3919
Ι@@	3918
Kongre@@	3918
erfolg@@	3917
Dosi@@	3917
383	3916
verkehr@@	3916
on-	3916
dekor@@	3915
Squibb	3915
223	3914
unregelmäßiger	3914
kÃ	3913
Fahrzeugen	3913
Stücke	3913
Division	3913
Binde@@	3913
Empfänger	3913
Ehre	3912
ARTIKEL	3912
behandelnde	3912
337	3912
Marker	3912
agu@@	3911
ito	3910
macher	3910
unterzeichnet	3909
normalem	3909
1982	3909
IX-@@	3909
EINEM	3909
karzinoms	3908
ian	3908
Western	3908
verschlechtern	3908
Meldung	3908
Schei@@	3908
Küchen@@	3908
Sozi@@	3908
KE@@	3907
vorne	3907
eit@@	3906
Gehirn@@	3906
Arab@@	3906
geringem	3906
bevölkerung	3905
Justiz	3905
Werken	3905
tiv	3904
eingeprägt	3904
eleganten	3904
Globalisierung	3903
237	3903
sern	3903
д@@	3903
Bioäquivalenz	3903
Impfstoff@@	3903
ass	3903
Adjuvans	3902
Abwägung	3902
267	3902
fünf@@	3902
5,2	3902
UN	3902
Rachen	3901
verordnen	3901
Gall@@	3901
159	3900
♦	3900
umen	3900
Autorität	3900
General@@	3900
schwache	3900
Parästhesien	3900
Hertfordshire	3900
path@@	3900
tt	3899
idin	3899
Druckknopf	3899
ham@@	3898
Klar@@	3898
401	3898
endgültigen	3898
beschränken	3897
alters@@	3897
Jahrzehnten	3897
friendly	3896
ktivität	3896
bewe@@	3896
bestätigte	3895
BA	3895
ler-@@	3895
stück@@	3895
Pimozid	3895
Standar@@	3895
Skelettmuskulatur-	3893
any@@	3893
у@@	3893
inta@@	3892
heim@@	3891
wunderschöne	3891
www.ypagesusa.com	3891
Distribution	3889
Sand	3888
Cyanokit	3888
dosisabhängige	3888
Alpen	3888
gestern	3887
frischen	3887
440	3887
7.5	3887
Not	3886
ENT	3886
Brun@@	3885
koordin@@	3885
getr@@	3884
ete	3884
Schütteln	3883
Insulinglulisin	3883
Louis	3883
may	3883
atisch	3883
planung	3882
gebe	3882
Augenblick	3882
artig	3882
förderung	3882
bren@@	3881
weisungen	3881
Initi@@	3879
source	3879
Wirbel@@	3878
Omeprazol	3878
Diabetikern	3878
Wettervorhersage	3878
Drive	3877
Logistik	3877
braune	3877
Nüchtern@@	3877
CPMP-@@	3877
zte	3877
Agen@@	3876
ADENURIC	3876
top	3876
Alber@@	3876
Dach	3875
idiopathischer	3875
kauf@@	3875
Onsenal	3875
Entscheidungs@@	3875
Foto@@	3875
341	3875
fortzusetzen	3874
roman@@	3874
Flächen	3874
hotel@@	3874
181	3873
suspension	3873
Avaglim	3873
Ultratard	3873
05-@@	3873
Teilnehmern	3873
the-@@	3873
musst	3872
Ram@@	3872
zyten	3871
tender	3871
Vier	3871
istischer	3870
glichkeit	3870
intere@@	3870
Sim@@	3870
Quad@@	3869
Kalzium	3869
positiver	3868
HT@@	3868
säur@@	3867
2.0@@	3867
technischer	3867
hing	3866
Lipid@@	3866
Vorgang	3866
creme@@	3866
vermutet	3866
1250	3866
MER	3865
Ang@@	3865
konzept	3864
präparat	3864
ez	3864
Aussagen	3864
148	3863
verband	3863
Camping	3863
www.immobilsarda.com	3863
angeschlossen	3861
Funktionsstörungen	3861
acht@@	3861
burger	3861
tödlichen	3861
verwiesen	3861
Card	3860
selektive	3860
epidermale	3860
Kapsel@@	3860
kontakt	3860
Lou@@	3860
führungen	3860
Wellness	3859
Ale@@	3859
Mwst	3859
Lap@@	3859
isierten	3858
www.youtube.com	3858
blatt	3858
GU@@	3858
Produtos	3857
Personen@@	3856
Grupp@@	3856
erwartete	3856
beautiful	3856
mitglied	3855
BIP	3855
resultiert	3855
mechan@@	3854
Thailand	3854
GO@@	3853
menschlichem	3853
Energy	3852
Krebszellen	3852
Blasenbildung	3851
C-	3851
mithilfe	3851
Toxizitäts@@	3851
Miet@@	3851
Know-how	3850
erfahr@@	3850
antworten	3850
Nord	3850
put	3850
Atlan@@	3849
Einzelfällen	3848
rekonstituiert	3847
ungssysteme	3847
erzielte	3846
AZOPT	3846
Oran@@	3846
Futter@@	3845
ßten	3845
gefangen	3845
HbA1c	3844
Clo@@	3844
gastro@@	3844
ZIMULTI	3843
Genuss	3843
erschien	3842
begeistert	3842
Tendenz	3842
Langzeit-@@	3842
Manie	3841
Lounge	3841
Induktor	3841
Palpitationen	3840
418	3840
Real@@	3839
Zentr@@	3839
potentiell	3839
oll	3839
Langzeittherapie	3838
heil@@	3838
Dosiserhöhung	3837
register	3837
ungssystems	3837
Kontaktlinsen	3837
Minimum	3836
hepatische	3836
ai@@	3836
0.87	3836
musi@@	3834
www.google.com	3834
Party	3834
Wärme	3833
adi@@	3832
Anwendern	3832
gin	3831
Management@@	3831
Häm@@	3831
vent@@	3831
IDflu	3831
Reproduktion	3831
Vaniqa	3831
Bett@@	3830
Einzeldosis@@	3830
italienische	3829
en.@@	3829
Lizenz@@	3829
bewer@@	3829
his	3828
irgendeiner	3828
Betreiber	3828
soft@@	3828
sale	3828
Portal	3828
Rech@@	3828
kunft	3827
Tanz	3827
proben	3827
Gliolan	3827
Staates	3826
epti@@	3825
support	3824
Präsenz	3824
Enterprise	3824
taxonomy	3824
schwei@@	3823
erheben	3823
LH	3823
Bonus	3823
Ander@@	3823
orales	3822
376	3822
fing	3822
7,0	3822
tolle	3822
Schreib@@	3822
xin	3822
einig	3822
Regi@@	3821
Safety	3819
Ganzen	3819
Elaprase	3819
FOR@@	3819
Fasturtec	3819
gerufen	3818
schlechte	3818
hinweist	3818
Erstens	3817
liefer@@	3817
Temsirolimus	3817
pflanzliche	3817
PV@@	3817
folglich	3817
clu@@	3817
2009-@@	3817
Dienstleistungs@@	3816
Will@@	3816
gleichermaßen	3816
usi@@	3815
erre@@	3815
Resistenzen	3814
Comtan	3814
wöchentliche	3813
erstklassiger	3813
genauer	3813
QUOTE	3813
Klassi@@	3812
nights	3812
substanz	3812
Lok@@	3811
6,3	3811
ov	3811
fühlt	3810
Mail@@	3810
Feder@@	3809
übernachten	3809
Lig@@	3809
Versammlung	3808
FER@@	3807
behält	3807
EINE	3807
sto	3807
283	3807
Olymp@@	3806
Interferon-@@	3806
sprozess	3806
Green	3806
Herrschaft	3805
Vorbehandlung	3805
Community	3805
Ferien	3805
schein@@	3804
allgemeines	3804
beeinträch@@	3804
Erörterung	3804
Guide	3804
gehenden	3804
monatlichen	3803
key	3803
INE	3803
5,9	3803
two	3802
Ministerium	3802
Frank	3802
419	3801
Pepti@@	3801
fehlenden	3801
GD	3801
face	3800
s.c.	3800
James	3800
ā	3800
ografie	3799
Konflikt	3798
Baum	3798
digten	3798
cd@@	3797
Geschrieben	3797
Substrate	3797
vorübergehender	3796
adsorbiert	3796
Hyperkalzämie	3796
Ganz@@	3796
Lesung	3796
speed	3795
gezwungen	3795
streifen	3795
fle@@	3795
industriellen	3795
Beta	3795
herausge@@	3795
really	3795
IL-2	3794
syn@@	3794
vorzeitig	3794
tensi@@	3794
immobilsarda.com.2015-12-05	3794
Open@@	3793
etzt	3793
Kern	3792
oberfläche	3792
IX@@	3791
betreiben	3791
stö@@	3791
gkeiten	3791
Versicherungs@@	3791
É@@	3791
NI@@	3790
nM	3790
empfindlichen	3790
Heilige	3790
VELOTAB	3788
reichlich	3788
fliegen	3788
ad-@@	3788
pharmakodynamische	3788
medizin	3788
Antrags	3787
Nebenwirkungsprofil	3787
Menopause	3787
teratogene	3787
ia-@@	3786
gefertigt	3785
Parallel@@	3785
Tatsächlich	3785
Frühjahr	3785
ice	3785
Alpha-@@	3784
Angehörigen	3784
Seife	3783
Zähne	3783
Aufschrift	3783
Blister@@	3783
Ibaflin	3783
251	3783
Lamivudin-@@	3783
Anidulafungin	3782
wettbewerbs@@	3782
Suchergebnisse	3782
Gesundheitszustand	3782
ulen	3782
1800	3782
aben	3781
Bolusinjektion	3781
aufgestellt	3781
Cytarabin	3781
Magnesium@@	3780
Tolcapon	3780
erzielten	3780
ving	3779
Kontrast@@	3779
rauchen	3779
rheumatoiden	3779
34-@@	3779
erworben	3779
Febuxostat	3778
LU@@	3776
präzise	3776
kation	3776
aufgezogen	3776
Pilzinfektion	3776
schwierigen	3776
Kombinationsbehandlung	3776
290	3776
sat	3776
AIDS-@@	3775
Service-@@	3775
Deckel	3775
erörtert	3775
verkehrs@@	3775
Report	3775
part	3774
zun@@	3773
Colitis	3773
Van	3773
NRTIs	3773
brüche	3772
28.@@	3772
einst	3772
sab@@	3772
CO2-@@	3772
alyse	3771
º	3771
PVC-@@	3771
Sich@@	3771
kü@@	3771
glicher	3771
Eierstöcke	3770
lin-@@	3769
politisch	3769
35-@@	3768
fuhren	3768
Tag@@	3767
maler	3767
help	3767
Tinnitus	3767
Immobili@@	3767
EG-@@	3766
Cab@@	3766
exper@@	3766
217	3765
versagen	3764
anstieg	3763
skal@@	3763
angeb@@	3763
Rechen@@	3762
mol@@	3762
hörte	3762
ieb@@	3762
beliebigen	3762
tho@@	3762
Abend@@	3762
4.9	3762
ometer	3761
Kennzeichnung	3761
Stoffwechsel	3761
8,4	3761
plötzlichen	3761
arischen	3761
wn	3760
Lux@@	3760
ud	3760
rechtfertigt	3760
vorangegangenen	3759
Vordergrund	3759
Menschenrechts@@	3759
Arzneimittel-Agentur	3758
Öffnungszeiten	3758
540	3758
mün@@	3758
plätzen	3758
tab@@	3757
projekt	3757
Edelstahl	3757
autor@@	3756
selektiver	3756
δ@@	3756
warmen	3755
hausen	3755
swert	3755
gl	3755
Rand@@	3754
Ala@@	3754
spir@@	3754
Kombinations@@	3754
VEBEG	3753
Interaktionen	3753
257	3753
misches	3753
Erreichung	3752
ber-@@	3751
stabiler	3751
GrundstÃ	3751
folgendermaßen	3751
Könige	3751
depot	3750
Blutwerte	3750
ner-@@	3750
gelbliche	3749
beschäftigen	3748
Klare	3748
III.	3748
Lupus	3747
Kirchen@@	3746
13.11.2016	3745
diabetischer	3745
play	3745
Grundstück	3745
tret@@	3745
Hostel	3745
wing	3744
Dre@@	3744
Para@@	3743
Arbeitslosigkeit	3743
HL@@	3743
at-	3742
kön@@	3742
wirtschaftlicher	3742
600@@	3742
b-	3742
Direkt	3741
Aufenthalts@@	3741
Verein@@	3740
ling@@	3740
Team@@	3740
www.emea.eu.int	3740
bemühen	3739
Rab@@	3739
mals	3739
versehentliche	3739
Synagis	3738
Million	3738
ver-	3738
umgekehrt	3738
iPod	3737
Pharmakodynamische	3737
Messen	3736
Oberflächen	3736
wertvolle	3735
ics	3735
IR	3735
invasiver	3735
vorrichtung	3735
konzentr@@	3735
HPV	3734
Darreichungsformen	3733
tation	3733
ein-@@	3732
erst@@	3732
Kentera	3732
unzureichende	3731
einfrieren	3731
zeichnete	3731
ART@@	3731
398	3731
Exazerbationen	3730
GUTACHTEN	3730
Auflage	3729
Xagrid	3729
materi@@	3729
real	3728
Verw@@	3728
begrün@@	3727
CK@@	3727
Lebensdauer	3727
29-@@	3727
Gästebewertungen	3727
schleimhaut	3727
gezielt	3727
teratogen	3727
Rund	3726
Koordination	3726
Blei@@	3726
Nimesulid	3726
willen	3724
Klebe@@	3724
flexibel	3724
Rollen	3724
ged	3724
übrig	3724
scha@@	3723
Ursprung	3723
Angeles	3722
Cla@@	3720
erbaut	3720
oo	3720
Knie@@	3720
Cloud	3719
ssion	3718
Kürze	3718
zeug@@	3717
Operations	3717
box@@	3717
Pä@@	3717
Eisai	3716
chemie	3716
Seminare	3716
Whirlpool	3715
194	3715
abteilung	3715
Quin@@	3715
Obst	3715
Baumwolle	3715
dün@@	3714
ZI@@	3714
Versuche	3714
entzündliche	3714
Gebäuden	3714
vel	3713
projekte	3713
P.@@	3713
holz	3713
Bewer@@	3712
8,7	3712
Alters@@	3711
Stefan	3711
Beeinflussung	3711
glaubt	3711
dicht	3711
Export	3710
Gie@@	3710
Hitze	3710
Gallery	3710
B.@@	3709
modified	3709
AGE	3709
Schilddrüse	3708
elektrischen	3708
I.@@	3708
mur@@	3708
PC-@@	3707
62@@	3707
Ermittlung	3707
Schwangerschafts@@	3707
Aer@@	3707
geschätzte	3707
Mailand	3706
town	3706
motor@@	3705
diagnosti@@	3705
-02-@@	3705
Früchte	3705
Trimethoprim	3705
Insuffizienz	3705
sidenten	3705
soliden	3704
sl@@	3704
syndrom	3704
ruhige	3704
schönes	3703
Alb@@	3703
trages	3703
Fur@@	3703
Moder@@	3702
ernsthaft	3701
Einschätzung	3701
tend	3700
saubere	3700
ssa	3700
drucks	3699
Behandelte	3699
wissenschaftlicher	3699
thrombo@@	3699
Karten@@	3698
symptomatischer	3698
ale@@	3698
geplante	3697
Café	3697
Fruchtbarkeit	3697
Vitamin-@@	3697
performance	3696
ausgeprägte	3696
gien	3696
stagen	3696
eta	3696
ministerium	3695
Hafen@@	3695
Penis	3695
Titan	3694
bemüht	3694
198@@	3694
verpflich@@	3693
renoviert	3693
Lovastatin	3693
ès	3692
Game	3692
Silber	3691
main@@	3691
dend	3691
Hyperlipidämie	3691
408	3690
Heim@@	3690
Erythrozyten@@	3690
shi@@	3690
Golf@@	3690
kum@@	3689
Tritanrix	3689
Branchen	3689
8,6	3689
sierter	3688
verurteilt	3688
š	3688
ee	3688
tec@@	3688
VERFAHREN	3688
tech	3687
rooms	3687
Beruf@@	3687
Gastritis	3686
eck@@	3686
nal	3686
beigefügt	3686
Euro-@@	3686
Pflicht	3686
Sünden	3685
E14	3685
folgte	3685
er-	3685
kristall@@	3685
Szene	3685
Geweben	3685
ã@@	3684
obut@@	3684
transportiert	3684
leitungen	3684
organe	3684
Segment	3684
Sha@@	3684
Base	3683
Beobachtungen	3683
µM	3683
Kamer@@	3683
9,4	3683
Juda	3682
Lungenembolie	3682
Mitgliedschaft	3682
dei	3682
Füll@@	3682
ér@@	3681
ious	3681
blicken	3680
Führungs@@	3680
übertragung	3679
Binnen@@	3678
chtet	3678
RT	3677
248	3677
Prialt	3676
Dystonie	3676
Mukositis	3676
Stück@@	3676
zulassen	3676
Wiederauftreten	3676
Porcilis	3675
PEN	3674
richtungen	3674
siertes	3674
Artikeln	3674
geordnet	3674
rücken	3673
vorange@@	3673
Maps	3673
Begriffe	3673
249	3672
LYRICA	3672
Lebensmitteln	3671
Atriance	3671
Literatur@@	3671
Carb@@	3670
us-	3670
Blut-	3670
sein@@	3669
erzählen	3669
die-@@	3668
ORT@@	3668
Gehäuse	3667
verstärkter	3667
Symptom	3666
Display	3666
red	3666
schutzes	3666
visit	3665
Kino	3665
einheitlichen	3665
PN@@	3665
Wett@@	3664
nnen	3664
Jack@@	3664
derartigen	3663
Chin@@	3663
manager	3663
Nan@@	3662
konstant	3661
Herr@@	3661
eingang	3661
fied	3660
ite	3660
Immunsuppression	3660
Cast@@	3659
Ursprungs	3659
Nachbar@@	3658
Zutaten	3658
Post-@@	3658
ст@@	3658
Geschwüre	3658
komfortabel	3658
Veran@@	3658
Vögel	3658
oma	3656
Obergrenze	3656
Implantat	3655
Bristol-Myers	3655
rh@@	3655
Sun@@	3655
cra@@	3654
bliche	3654
Lev@@	3653
Weiß	3653
CHE	3652
Libido	3651
wat@@	3651
rechnung	3651
öch@@	3651
USt	3651
weiche	3650
Up	3650
269	3650
SF	3650
einigte	3649
ats@@	3649
Stabilisierung	3649
ograph@@	3649
items	3648
fetalen	3648
Press	3647
tgl	3647
Bac@@	3647
Astellas	3646
ations-	3646
Anagrelid	3646
minimalen	3646
Geheimnis	3646
mehrfach	3646
ernst	3645
ums@@	3645
Juli@@	3645
rating	3645
Zeitraums	3644
Kreislauf@@	3644
Aspirin	3644
icht	3643
Überdosierungen	3643
Blutzucker@@	3643
Bol@@	3643
Festivals	3643
altet	3642
vorbehandelte	3642
fahrzeuge	3642
yl-	3642
schwellung	3642
itä@@	3641
geld	3641
anwendung	3641
Monotard	3641
Kreatin@@	3641
HA	3641
laktierenden	3640
domin@@	3639
Metacresol	3639
niedrigsten	3639
Gärten	3638
Bä@@	3638
Praktiken	3638
ACOMPLIA	3638
blutdrucksenkenden	3637
Theater@@	3637
illa@@	3637
Können	3637
MD@@	3637
RS@@	3637
Ulzera	3637
Optaflu	3637
freut	3637
anom@@	3637
sämtlichen	3636
Betriebe	3636
Triatec	3635
Tinte	3635
fo	3634
hervorragend	3634
Tab	3634
Medikation	3634
M.@@	3634
Kathedrale	3633
Krisen@@	3633
point	3633
Geschenk	3633
rer	3633
Infusionsstelle	3633
Kochnische	3632
urg	3632
Statin	3632
Phone	3631
over@@	3631
Vorbereitungen	3631
Grundsatz	3631
ausgesprochen	3631
Yo@@	3631
ollen	3631
Unit	3630
pper	3630
ost@@	3630
297	3630
orten	3629
Kupfer	3629
Assi@@	3629
hydro@@	3628
vernünf@@	3628
Massage	3628
frist	3628
gsten	3627
AMMONAPS	3627
Eudra@@	3627
seitigen	3626
293	3625
boot	3625
innov@@	3624
mic	3624
abor@@	3624
Kilometern	3624
handel@@	3624
verletzt	3623
Schichten	3623
Ernährungsstörungen	3622
Orfadin	3622
Wachstumshormonmangel	3622
teilnahmen	3621
angelegt	3621
Experten@@	3620
Anlagen@@	3620
MB@@	3619
cio	3619
orthopädischen	3619
ust@@	3618
vermehrter	3618
Antimykotika	3617
Sales	3617
freigesetzt	3617
Geistes	3617
geräusche	3616
90-@@	3616
DVD-@@	3616
tätigen	3615
22-@@	3615
Bie@@	3615
sollt	3615
austausch	3614
Verbin@@	3614
Mirtazapin	3614
Play	3614
Kontra@@	3612
323	3612
onien	3611
fischen	3610
events	3610
B-	3610
foli@@	3609
File	3609
Tschechischen	3609
entan@@	3609
Lis@@	3609
Stress	3608
zeichneten	3608
Day	3608
385	3608
Songs	3606
mesto	3606
profile	3606
′	3605
gr	3605
Vermeiden	3604
[...]
