"	207724
,	184489
.	147742
der	94770
/	85298
)	77937
die	76974
(	75141
und	74172
von	61996
mit	60639
in	39715
bei	35946
oder	33645
Patienten	29329
Sie	29293
mg	28748
werden	27454
zu	26825
einer	25840
1	25535
ist	25463
eine	24484
für	22507
Die	22201
nicht	22195
des	21457
:	20686
auf	19917
%	19283
den	19039
wird	17620
-	16973
das	15726
zur	15338
im	15306
Behandlung	14522
als	14066
nach	13961
ml	12641
wurde	12296
ein	11710
sind	11142
kann	11040
EU	10931
an	10925
bis	10734
•	10518
dem	10510
Anwendung	9800
wurden	9490
2	9303
dass	9300
über	8828
einem	8760
wenn	8666
sich	8588
Bei	8340
10	8210
Dosis	8081
es	7823
?	7647
siehe	7599
Arzneimittel	7524
Arzt	7302
Studien	7010
sollte	6921
um	6855
keine	6823
unter	6817
angewendet	6809
+	6733
vor	6699
durch	6621
Es	6479
Nebenwirkungen	6431
3	6414
In	6400
;	6340
haben	6208
Abschnitt	6166
enthält	6040
5	5984
einen	5899
wie	5898
100	5856
-@@	5754
können	5684
Der	5587
4	5388
aus	5387
Wenn	5345
Tabletten	5244
während	5064
anderen	5004
zum	5003
auch	4942
50	4680
30	4596
war	4353
täglich	4287
<	4280
sollten	4256
20	4217
kg	4186
klinischen	4119
Studie	3963
6	3905
Eine	3803
Wie	3803
Tel	3801
gegen	3734
Wochen	3726
“	3593
Stunden	3589
–	3575
Daten	3567
beobachtet	3542
nur	3472
eines	3461
dieser	3459
Einnahme	3394
darf	3366
Ihr	3332
Wirksamkeit	3321
Tag	3299
„	3210
12	3207
Durchstechflasche	3175
Risiko	3170
Lösung	3169
muss	3149
mehr	3125
empfohlen	3122
Das	3118
sein	3117
untersucht	3052
EMEA	3050
C	3046
15	3032
am	2999
sowie	2979
Therapie	2956
Kombination	2956
8	2926
waren	2912
diese	2907
behandelt	2897
verabreicht	2896
Injektion	2888
Ihren	2877
hat	2846
Filmtabletten	2824
*	2808
=	2804
25	2774
müssen	2771
Arzneimitteln	2765
alle	2690
andere	2687
x	2649
Nach	2649
Jahren	2612
0	2611
Injektionslösung	2587
auftreten	2567
24	2558
eingenommen	2548
einschließlich	2540
n	2528
s	2523
Gabe	2522
erforderlich	2494
Dosierung	2493
zwischen	2490
00	2489
Symptome	2482
sie	2468
Kindern	2454
g	2451
Wirkung	2422
zwei	2409
einmal	2397
40	2387
>	2382
Pulver	2380
DER	2369
ohne	2356
18	2335
7	2330
denen	2324
berichtet	2303
Ihnen	2285
60	2272
Informationen	2266
≥	2266
Inverkehrbringen	2235
gegenüber	2225
erhalten	2219
jedoch	2216
pro	2175
Verabreichung	2175
a	2171
er	2159
Dosen	2157
innerhalb	2153
da	2150
A	2139
14	2135
Einnehmen	2123
Tage	2118
Genehmigung	2111
einnehmen	2105
Schwangerschaft	2081
Vorsicht	2076
I.E.	2071
Diese	2064
Haut	2043
Insulin	2039
Erkrankungen	2038
Ihrem	2033
4.4	2020
l	2012
ersten	2008
t	1963
erhielten	1947
Mikrogramm	1940
Vergleich	1917
_	1910
durchgeführt	1909
Herstellung	1905
diesen	1901
Placebo	1893
mindestens	1891
zusammen	1886
06	1878
Bestandteile	1873
5@@	1865
E	1865
ab	1863
beträgt	1856
0,5	1848
vom	1843
]	1839
Packung	1836
Zusammenhang	1835
so	1834
führen	1825
[	1820
80	1815
Frauen	1811
S@@	1799
te	1794
6@@	1793
beim	1782
Was	1782
Infektionen	1778
Tablette	1775
Reaktionen	1769
28	1741
Wasser	1739
Alter	1738
Ritonavir	1737
98	1736
Arzneimittels	1734
möglicherweise	1731
4@@	1730
I	1729
CHMP	1729
Ihre	1724
sehr	1695
zweimal	1684
folgenden	1677
liegen	1672
200	1669
IST	1661
Blut	1659
häufig	1659
e	1653
bzw.	1650
aber	1647
Lösungsmittel	1636
Woche	1625
9	1625
Im	1618
behandelten	1595
Menschen	1593
AUF	1584
11	1571
noch	1571
Monate	1567
07	1565
Jahre	1561
an@@	1561
weniger	1558
dürfen	1528
bekannt	1527
Wirkungen	1520
90	1514
Fertigspritze	1509
Schmerzen	1508
9@@	1503
300	1497
un@@	1497
Jede	1493
P@@	1491
verwendet	1489
2@@	1482
7@@	1482
C@@	1468
16	1463
Körpergewicht	1457
21	1444
etwa	1436
°	1429
ob	1427
Infusion	1425
75	1425
of	1424
E@@	1419
gezeigt	1419
ver@@	1413
02	1411
µg	1410
hatten	1408
150	1405
de	1404
Erwachsenen	1398
Wirkstoff	1397
Erkrankung	1392
Kinder	1392
ten	1386
8@@	1385
3@@	1378
anwenden	1376
en	1376
erhöht	1366
Erbrechen	1365
Übelkeit	1354
aufgrund	1349
drei	1342
entsprechend	1341
97	1337
B	1337
500	1330
Fällen	1327
dies	1327
er@@	1326
K@@	1322
Anzahl	1320
Sicherheit	1319
sonstigen	1317
Falls	1313
en@@	1308
56	1302
Häufigkeit	1300
Spritze	1298
Tagen	1293
enthalten	1293
A@@	1289
Für	1288
o	1287
gegeben	1284
ein@@	1274
Packungsbeilage	1272
erhöhte	1271
Da	1267
s@@	1258
p	1257
Beginn	1256
L@@	1256
Nierenfunktion	1254
Europäischen	1254
Suspension	1246
selten	1244
400	1242
UND	1230
in@@	1229
Monaten	1221
95	1220
22	1219
F@@	1215
M@@	1213
Nutzen	1208
Pharmakokinetik	1204
PVC	1196
c@@	1193
weitere	1192
48	1189
schweren	1189
B@@	1187
gleichzeitige	1187
Anstieg	1181
13	1176
dieses	1175
Inhalt	1174
01	1174
Menge	1174
betrug	1171
T@@	1165
d	1163
70	1155
Typ	1152
Infektion	1149
ab@@	1149
Tabelle	1148
Impfstoff	1141
G@@	1141
daher	1140
WIE	1135
je	1135
schwerer	1134
Ratten	1134
AUC	1132
1,@@	1128
Hepatitis	1124
o@@	1121
allen	1121
worden	1120
Ereignisse	1112
45	1111
bitte	1110
insbesondere	1110
t@@	1108
17	1105
ale	1105
besteht	1100
H@@	1098
Anzeichen	1097
k@@	1094
alfa	1094
84	1093
verglichen	1090
D@@	1088
Gruppe	1087
Seite	1087
erreicht	1086
Dies	1084
Blisterpackung	1081
on	1076
Durchstechflaschen	1076
kein	1074
n@@	1071
Minuten	1069
08	1067
klinische	1064
d@@	1063
sofort	1063
empfohlene	1058
Maschinen	1057
wieder	1056
WAS	1050
V@@	1048
klinisch	1048
Zeit	1047
m@@	1045
Winthrop	1045
Kopfschmerzen	1044
gleichzeitig	1039
Exposition	1037
bevor	1036
deren	1032
min	1030
000	1028
Ergebnisse	1027
Zur	1022
Fieber	1021
ge	1020
leiden	1019
e@@	1019
h	1017
99	1016
N@@	1013
Ein	1011
soll	1004
ter	1004
Daher	1004
darauf	1000
R@@	994
Probanden	994
III	994
b	991
dann	990
Injektionsstelle	990
c	990
33	988
gibt	985
Hartkapseln	985
p@@	985
g@@	985
bereits	981
44	979
S	976
möglich	976
zeigte	974
Flasche	973
001	972
Ab@@	967
96	967
beiden	966
Irbesartan	965
schwere	962
Bereich	960
35	957
Auftreten	956
on@@	953
ge@@	951
m	943
04	941
1000	939
Besondere	937
verbunden	935
i@@	934
Kapseln	934
wirkt	932
Verbindung	931
32	927
Nadel	927
2001	925
O@@	924
zeigten	924
An@@	923
Filmtablette	921
Patient	921
Ausschuss	920
keinen	919
2,5	916
al@@	914
Veränderungen	914
Interferon	913
Risiken	913
Nehmen	911
Blutungen	911
for	908
Jahr	907
Infusionslösung	907
4.2	907
f@@	907
Sehr	903
2000	901
23	899
Pharma	899
Schwindel	897
Entwicklung	896
Pen	895
Impfung	893
Patientinnen	891
be@@	890
I@@	888
i	887
überwacht	885
informieren	884
signifikant	883
nachgewiesen	883
schwanger	882
GmbH	881
250	879
Personen	879
Zeitraum	877
CPMP	874
Blutdruck	872
Weitere	870
Stillzeit	868
allergisch	867
di@@	865
Wechselwirkungen	863
Apotheker	863
and	862
D	862
erhältlich	859
tes	859
b@@	859
Kommission	856
65	855
Injektionszwecke	854
Reaktion	854
eingesetzt	853
gesamten	853
Aktivität	852
Ribavirin	852
Ansprechen	851
Dauer	851
zugelassen	844
diesem	844
immer	842
1.000	842
entweder	841
Zusammenfassung	840
”	838
Überwachung	836
führt	835
a@@	835
Nicht	834
Pflaster	833
Jugendlichen	832
Überdosierung	831
Fälle	830
Zum	828
st@@	827
l@@	827
leicht	825
Dosisanpassung	824
ANGABEN	823
überempfindlich	823
600	823
Körper	821
jedem	818
damit	815
was	815
aus@@	813
m2	813
4.8	810
@	803
Verwendung	801
Cmax	800
002	799
Anämie	798
erfolgen	797
Ein@@	797
erhöhten	796
FÜR	792
36	792
H	791
−	790
Art	790
Fall	790
Während	789
Ver@@	785
0,@@	785
49	784
lassen	782
ung	781
verursacht	781
03	780
26	780
Diabetes	780
gen	778
Auswirkungen	777
19	774
alfa-2b	774
al	772
lang	771
Ihrer	771
Kind	769
Deutschland	769
bestimmt	768
Antikörper	768
Merkmale	768
or@@	768
gesunden	767
4.3	764
Erhöhung	764
34	763
Leber	760
Inhaber	760
Anhang	759
Hautausschlag	757
Abschnitte	756
Toxizität	755
4.5	755
z@@	755
Bedienen	754
einigen	752
Niereninsuffizienz	752
74	750
Verfahren	750
berichteten	749
5.2	749
könnte	747
Zahl	746
Rahmen	745
eingeschränkter	745
1,5	744
allein	739
finden	737
II	735
h@@	734
120	734
the	734
verwenden	732
Erfahrungen	730
Unternehmen	729
gleichzeitiger	727
r@@	725
sorgfältig	723
Monotherapie	723
Bitte	723
vier	722
vor@@	722
VON	722
alen	722
31	722
hin	722
häufigsten	719
Union	719
vermeiden	714
Leberfunktion	713
festgestellt	712
IE	712
B.	711
Konzentration	711
UMHÜLLUNG	705
ausgeschieden	704
.@@	703
falls	703
Durchfall	702
10.000	702
46	701
notwendig	701
Hunden	699
1@@	697
Arztes	696
Konzentrationen	696
Hinweise	696
empfohlenen	694
Blister	693
5.1	693
kommen	691
W@@	691
Bayer	691
li@@	689
003	688
Hypertonie	688
Urin	687
39	687
ng	686
bestimmte	685
re@@	684
Humalog	684
42	683
älteren	683
gemäß	682
am@@	681
vergessen	680
nehmen	678
Inzidenz	678
05	678
Alu	678
Metformin	677
sowohl	677
Zellen	677
führte	676
traten	675
wobei	675
Chemotherapie	674
allergische	674
Ihres	673
insgesamt	673
or	669
el	669
Untersuchungen	668
Blutkörperchen	668
ation	667
Müdigkeit	667
Phase	667
Einfluss	664
N	662
47	662
Agentur	661
Form	661
ÄUSSEREN	660
Be@@	658
vollständige	656
004	655
29	655
oben	655
Glas	655
folgende	654
höher	653
jeder	651
Schluss	650
liegt	646
ebenfalls	646
ar@@	646
Maßnahmen	644
Gebrauch	641
entnehmen	641
z.B.	639
auf@@	639
1-@@	639
Ende	639
Olanzapin	635
Erwachsene	635
Ciprofloxacin	635
Mahlzeit	635
2-@@	632
Efavirenz	632
Vor	631
Gelegentlich	631
±	631
Clearance	630
oralen	629
Liprolog	629
Injektionssuspension	628
gezogen	628
wirksam	627
verursachen	627
Kontrolle	625
erhöhen	625
Häufig	625
ungs@@	624
Blut@@	622
Den	622
kam	621
Dosierungen	621
Verkehrstüchtigkeit	621
Störungen	620
Plasma	620
Neutropenie	620
über@@	619
Teil	619
Einheiten	618
Krankheit	618
v@@	617
3-@@	617
zeigen	616
aussieht	616
19@@	616
meisten	615
sollen	615
Plasmakonzentrationen	615
anderer	614
Verbesserung	614
T	614
U@@	613
Aufgrund	613
letzten	613
&	612
at@@	612
800	612
ausreichend	610
ES	610
Europäische	609
Z@@	609
Vorteile	608
Lamivudin	607
Muttermilch	605
jeweils	603
vollständig	603
ende	599
SIE	599
aler	598
el@@	598
ungen	597
ungefähr	597
Metaboliten	595
seltenen	595
um@@	595
Aus@@	594
Substanzen	594
mittlere	594
Absetzen	593
pharmakokinetischen	592
CVMP	592
43	592
…	592
}	591
MINDESTANGABEN	591
0,9	591
{	590
2002	590
gut	589
angezeigt	589
hinsichtlich	589
V	588
Entzündung	588
orale	586
größere	586
anzuwenden	585
Dieses	582
Hypotonie	581
Faktor	581
27	581
de@@	580
is	579
2006	578
se	578
empfahl	578
hohen	577
stillen	576
einzunehmen	575
kontraindiziert	575
Abnahme	575
Teva	574
weiteren	574
zweiten	573
Tierarzneimittel	571
konnte	571
beschrieben	571
Humanarzneimittel	571
52	571
ch	571
Hydrochlorothiazid	570
gelegentlich	566
oraler	565
Limited	564
erwachsenen	563
gelangte	563
hier	563
37	563
Einzeldosis	562
injiziert	561
Überempfindlichkeit	561
genau	560
Herzinsuffizienz	560
ent@@	559
unerwünschten	558
zu@@	556
angegebenen	555
Patronen	554
k	554
Allgemeinen	553
10@@	553
y@@	553
entspricht	552
Patrone	551
WIRD	550
Juckreiz	550
stehen	549
reduziert	548
ähnlich	547
besonders	547
hinaus	547
P	547
005	546
vergleichbar	545
Tieren	544
55	544
vollständigen	544
w@@	543
Warum	543
enden	542
Kühlschrank	542
2,@@	542
erhöhtes	541
VOR	541
Wofür	540
41	540
AUFZUBEWAHREN	540
neue	539
Schwellung	539
welche	539
Wirkstoffe	538
te@@	538
Werte	538
ch@@	538
L	538
es@@	537
überwiegen	536
ti@@	536
Packungen	535
u@@	535
sch@@	535
J@@	534
Beurteilung	534
geboten	534
ANGEWENDET	533
Belgien	532
Wortlaut	532
stark	532
008	532
Zeitpunkt	530
Haut@@	530
WOFÜR	529
mmol	529
007	529
Verfügung	528
ziehen	528
setzen	528
dl	527
MÜSSEN	527
schen	526
Um	526
lag	526
12,5	525
einige	525
Bildung	525
y	523
BEACHTEN	522
Mittel	522
anti@@	521
Monat	519
kontrollierten	519
unabhängig	519
Injektionsnadel	518
ol@@	518
wofür	517
Erfahrung	517
006	516
elle	516
Docetaxel	515
Arthritis	514
0,3	513
intravenöse	513
hauptsächlich	513
ihre	513
Vorsichtsmaßnahmen	513
Fragen	513
Fähigkeit	513
Umkarton	512
Human	512
Fertigspritzen	512
Verringerung	512
hatte	511
erteilen	511
em	510
unverzüglich	510
tem	510
7,5	509
Königreich	509
op@@	509
Rekonstitution	508
aktiven	508
38	507
behandlung	506
halten	506
ul@@	505
Ltd	505
’	504
wegen	504
Hunde	504
Informieren	504
Vor@@	502
häufiger	502
oral	502
neuen	502
unten	502
2007	502
Anfangsdosis	502
niedriger	502
liche	500
si@@	500
Fax	499
0,1	499
ter@@	497
1998	497
1,0	497
ische	496
Behandlungs@@	496
verringert	494
F	494
in-@@	494
wichtig	494
EPAR	493
darüber	492
Kreatinin-Clearance	492
Betracht	491
14@@	490
zn	490
signifikante	490
signifikanten	490
Veränderung	489
vitro	487
≤	486
51	485
In@@	485
Flüssigkeit	485
ger	485
verschiedenen	482
13@@	481
weiße	481
e-@@	479
Beschwerden	479
Analyse	479
ma@@	479
Er@@	479
ich	478
17@@	478
intravenös	478
days	478
Bestandteil	478
zusätzlich	478
Frankreich	477
CYP3A4	475
Grad	474
Resorption	473
bemerken	473
030	473
Augen	473
Pro@@	472
Katzen	472
mögliche	472
ur@@	471
sonstige	471
Deshalb	470
Stunde	470
S.A.	470
0@@	470
Aluminium	470
beginnen	470
la@@	469
Nebenwirkung	469
trat	469
länger	468
Bioverfügbarkeit	467
entwickeln	466
wirksame	465
begonnen	464
Zulassung	464
Unbedenklichkeit	464
Leber@@	463
beachten	463
et@@	462
44-20	462
erwarten	462
erteilte	462
Insuman	462
Welchen	462
davon	462
4-@@	462
↓	461
seltene	461
Lilly	461
om@@	461
us	460
ANWENDUNG	460
Reduktion	460
Zu	459
selbst	459
akuten	458
Senkung	457
sp@@	457
Auflistung	456
einzelnen	456
leichter	455
Untersuchung	455
5-@@	455
Effekt	454
könnten	453
72	453
dazu	452
weiterhin	452
gebracht	451
180	451
Al@@	451
is@@	451
Syndrom	450
61	450
as	449
2008	449
weiter	448
schnell	448
PVDC	448
regelmäßig	447
Retardtabletten	447
nicht-@@	446
eingeleitet	446
Depression	446
chronischer	445
Anteil	445
hergestellt	445
gleichen	444
Herz@@	444
Schläfrigkeit	444
schwerwiegende	443
16@@	443
Comb	442
x@@	442
Bauchschmerzen	442
Husten	442
treten	442
Augen@@	441
Leberfunktionsstörung	441
Unterschiede	441
chen	441
Welches	440
Insulin@@	440
Hemmung	439
Dosis@@	439
Tél	439
subkutan	439
Alle	439
A-@@	439
ischen	438
sechs	438
handelt	437
Symptomen	437
Produkt	436
R	436
64	434
160	434
kommt	434
Nieren	434
sche	432
Außerdem	432
beeinflusst	432
Markteinführung	431
Indikation	431
bezüglich	431
Grundlage	430
67	430
00@@	430
010	430
Verfalldatum	429
58	429
Kombinationstherapie	429
abgesetzt	429
oberen	428
seine	428
il@@	428
0,6	428
Phantasiebezeichnung	428
Europe	428
Tagesdosis	427
Kontakt	427
Plazebo	427
tr@@	427
Blisterpackungen	426
gen@@	426
Vereinigtes	426
Über@@	425
klinischer	424
at	423
HIV	423
Verschlechterung	423
systemische	423
Konzentrat	422
Injektionen	422
höhere	422
Eisen	421
studie	421
M	421
dreimal	420
Epoetin	420
mellitus	420
Bezeichnungen	419
zusätzliche	419
bestimmten	419
Thrombozytopenie	419
sicher	418
http	418
Eigenschaften	418
r	418
intravenösen	418
Zubereitung	418
15@@	417
metabolisiert	417
mittels	417
ihrer	417
Pfizer	416
beeinflussen	416
erste	416
normalerweise	416
ac@@	415
Un@@	415
Ausgangswert	415
ts	415
Filgrastim	413
-Dosis	412
außerdem	412
Re@@	412
1997	410
Injektor	409
lagen	409
-Gruppe	409
therapeutischen	409
Spiegel	409
sprechen	408
mi@@	408
spiegel	408
66	408
jede	407
54	407
Auf@@	407
gemessen	406
Indinavir	406
0,4	405
Arzneimittel@@	405
rate	402
D-@@	402
12@@	402
d.	402
stellen	401
Anweisung	401
-2@@	401
ol	400
vorliegen	400
Lansoprazol	400
mal	400
ern	400
indem	400
Merck	400
wenden	399
27@@	399
UK	399
geben	399
Natriumchlorid	399
Arbeitsgruppe	399
statistisch	398
Artikel	398
6-@@	398
zuvor	398
unmittelbar	397
der@@	397
lange	397
G	397
os@@	396
Auf	396
wirksamen	396
-C@@	396
Effekte	396
Nierenfunktionsstörung	395
2003	395
0,0@@	394
73	394
Levodopa	394
MIT	393
z.	393
Hypoglykämie	393
Operation	392
ro@@	392
Titandioxid	391
Andere	391
125	391
jeden	391
IN@@	391
zeigt	390
werte	390
Bezug	390
Verlängerung	390
höheren	389
maximale	389
009	389
Clopidogrel	389
Behandlungsdauer	388
Di@@	388
d-@@	388
ni@@	387
ausgeschlossen	387
Zunahme	387
Vene	386
53	386
weder	386
chronischen	386
Lebererkrankung	385
h.	385
BMS	384
studien	384
Jugendliche	383
tri@@	383
1.@@	383
wöchentlich	383
Enbrel	383
Blutung	382
tägliche	382
18@@	382
Aufnahme	382
Urtikaria	382
Zidovudin	381
aufgeführt	381
368	381
aufgenommen	380
↑	380
benötigen	380
dosis	378
Nahrung	378
denn	378
Namen	378
ck@@	378
randomisierten	377
as@@	377
Mahlzeiten	377
5.3	376
91	376
kontrolliert	376
ODER	376
danach	376
Faltschachtel	376
übliche	375
nationalen	374
Kaninchen	374
sei	374
Substanz	374
erfolgt	374
gab	373
hemmt	373
Al	373
fortgesetzt	372
zurück	372
RE@@	372
93	372
ot@@	372
end	372
Anti@@	371
weiß	371
KLEINEN	371
ne	371
relevanten	371
Mund	370
ie	370
fest	370
verfügbar	370
weißen	370
ations@@	370
gehört	369
ir@@	369
Portugal	369
Auge	367
Kopien	367
ten@@	367
Leberfunktionsstörungen	367
Beendigung	367
möglichen	366
störungen	366
ri@@	366
aller	366
Ar	366
Methotrexat	366
O	366
unerwünschte	365
erhöhter	365
plus	364
Plasmakonzentration	364
DIE	364
62	364
Ausschlag	364
angepasst	364
●	364
Schwere	363
Antragsteller	363
Sp@@	363
	363
wahrscheinlich	363
ange@@	363
systemischen	363
auftritt	362
verfügbaren	362
85	362
verabreichen	361
28@@	361
Mitgliedstaaten	361
Ltd.	361
Unterstützung	361
genannten	360
solchen	360
aufbewahren	360
Virus	360
Selten	360
le@@	360
Gebrauchsinformation	360
89	359
CI	359
Überempfindlichkeitsreaktionen	359
entsprechende	359
Dieser	359
Mit	359
2.@@	358
verordnet	358
wirksamer	358
Hersteller	356
us@@	356
definiert	356
wissenschaftlichen	356
gt	356
u	354
EN	354
mehrere	354
pädiatrischen	354
f	353
men	353
lo@@	353
Halbwertszeit	353
Unter	353
AB	352
vorsichtig	352
Regel	352
Kapsel	352
X@@	352
erst	351
arzneilich	351
überwachen	351
geeignete	351
Amlodipin	350
Änderungen	350
Leber-	350
Anerkennung	350
Zell@@	349
licher	349
langsam	349
Möglichkeit	348
Umständen	348
57	348
88	348
Unterschied	348
fragen	348
Falle	347
ieren	347
Verträglichkeit	347
68	347
Tacrolimus	347
Gesamt@@	346
59	345
Abacavir	345
eingestellt	345
Nahrungsmitteln	345
unter@@	344
Risikos	344
Schwellungen	344
pro@@	344
beeinträchtigt	344
82	344
1.	344
ko@@	344
zurück@@	343
0,8	343
entwickelt	343
Grund	342
Plasmaspiegel	342
Saquinavir	341
Nieren-	341
lich	341
Viraferon	341
Von	341
Benommenheit	340
Verstopfung	340
BEHÄLTNISSEN	340
eim	340
France	340
gemischt	340
-Therapie	340
ert	339
mäßig	339
0,2	339
Folge	338
ase	338
intravenöser	338
Hinblick	337
Ausscheidung	337
Injektionsnadeln	337
Hartkapsel	337
83	336
Darüber	336
AL@@	336
ANHANG	335
gesamte	335
Österreich	335
Metabolismus	333
ER@@	332
Alkohol	332
allem	332
lagern	332
Protein	332
Millionen	332
011	331
Wichtige	331
daß	331
Behörden	331
Rötung	331
verringern	331
fache	331
DES	330
Anträge	330
Atemwege	330
Über	329
bereich	328
Antibiotika	328
indiziert	328
nen	327
Bedingungen	327
Polysorbat	327
hervorrufen	327
erwartet	327
Hyper@@	327
Test	327
Gutachten	326
109	326
Therapie@@	326
Nespo	325
Humira	325
20@@	325
verminderte	325
Raumtemperatur	324
Anweisungen	324
Verlauf	324
Männern	324
ie@@	323
Packungsgrößen	323
mittleren	323
3,@@	323
ischer	323
solche	323
EN@@	323
z	322
Pharmaceuticals	322
Ansicht	322
Klinische	322
GEBRAUCHSINFORMATION	322
weil	322
man	322
lichen	322
ose	321
her@@	321
012	321
Sch@@	321
niedrigen	320
Änderung	320
Natriumhydroxid	320
bisher	320
tin@@	319
Knochen@@	319
ges	319
fachen	319
Morbus	319
ähnliche	319
wiederholter	319
69	318
Etikett	318
ln	318
Parameter	318
v	318
abbrechen	317
Road	317
on-@@	317
Mäusen	317
Emtricitabin	317
maximal	317
63	316
76	316
auftraten	316
hoher	316
klare	315
B-@@	315
System	315
Probleme	315
NovoMix	314
Rate	314
ep@@	314
Blutzuckerspiegel	314
Fertigpen	313
Lactose	313
a-@@	313
vermieden	313
Peginterferon	313
Natrium	313
s-@@	312
itte	312
außer	312
77	312
Empfehlungen	312
dabei	311
Inhibitoren	311
Körper@@	311
geringe	310
angegeben	310
Pens	310
ine	310
tigen	310
aufweisen	309
Valsartan	309
steht	309
ei@@	309
weisen	309
ka	308
den@@	308
begrenzt	308
gefolgt	308
μ	307
sen	307
Bewertung	307
AR@@	306
Getränken	306
Kanüle	306
Rat	306
antiretroviralen	306
Lyophilisat	305
Mix25	305
par@@	305
it@@	305
Halten	305
Flaschen	305
roten	305
hohe	305
eren	305
nächsten	305
zellen	304
einnahmen	304
ap@@	304
2005	304
viel	304
bedienen	304
fünf	303
35@@	303
Schmelztabletten	303
Ödeme	303
maximalen	303
ber@@	303
ierte	302
seit	302
ens	302
Aranesp	302
abgebrochen	302
HIV-@@	302
anhand	302
71	302
St@@	301
86	301
Trudexa	301
begrenzte	301
Warfarin	301
o-@@	301
Muskel@@	301
scher	301
republika	300
Behandlungsbeginn	300
Licht	300
Leberinsuffizienz	300
NovoLet	300
Kaletra	300
Sitzungen	300
Mix50	300
Durch	299
Weise	299
Immun@@	299
Spritzen	299
eh@@	298
Cozaar	298
ViraferonPeg	298
Nieren@@	297
niedrig	297
medizinische	297
Wert	297
zweite	297
Welche	297
therapie	296
Amprenavir	296
ANZUWENDEN	296
Gruppen	296
Prophylaxe	296
ige	296
da@@	295
tige	295
Ciclosporin	295
Vorbeugung	294
81	294
sicherzustellen	294
störung	294
Serum@@	294
Als	294
013	294
oc@@	294
lä	294
en-@@	293
iert	293
Tlf	293
Prägung	293
Impfstoffen	293
aufgeführten	293
mäßiger	292
E-mail	292
PegIntron	292
RISPERDAL	292
deshalb	291
Fentanyl	291
zugehörige	291
konzentration	291
Voriconazol	291
1996	291
Insgesamt	291
U	291
Ireland	291
014	290
leichte	290
Immunsystem	290
Aus	290
geringer	290
Einzel@@	290
Verwenden	290
gegenseitigen	290
Klasse	290
Sitagliptin	290
Krebs	290
verringerte	290
wert	290
ox@@	289
bedeutet	289
HIV-Infektion	289
entsprechenden	289
Person	289
Pioglitazon	288
injizieren	288
verhindern	288
älter	288
ä@@	288
erneut	288
Neuropathie	287
Schwäche	287
GlaxoSmithKline	286
ut@@	286
ak@@	286
vorgesehen	286
zusätzlichen	286
ex@@	286
Resistenz	286
Auch	286
Obwohl	286
Par@@	286
abhängig	286
tra@@	285
dessen	285
nachdem	285
lispro	285
Vitamin	284
qu@@	284
Gewicht	284
gehen	284
yl@@	284
BASAL	284
infolge	283
Entfernen	283
Handhabung	283
periphere	283
Asthma	283
Gewichtszunahme	283
Notwendigkeit	282
ender	282
Wenden	282
Lactose-Monohydrat	282
subkutane	282
seiner	282
Ausmaß	282
d.h.	282
Sildenafil	281
Y@@	281
Zustand	281
Richtlinie	281
ve	281
Entzündungen	280
Patienten@@	280
78	280
Reihe	280
37@@	280
ö@@	280
Hautreaktionen	279
Bakterien	279
au@@	279
Rifampicin	279
Angina	279
Blutzellen	279
fach	279
X	279
Schwitzen	279
Angaben	279
Pruritus	279
IV	278
Beutel	278
371	278
AN@@	278
92	278
fühlen	278
-Behandlung	278
Viren	277
em@@	277
IntronA	277
ta@@	277
j@@	277
normalen	277
Etoricoxib	277
ellen	277
bestehen	277
leichten	277
direkt	277
ST@@	276
Italien	276
Empfindlichkeit	276
las	276
Cisplatin	276
menschlichen	276
370	276
no@@	275
gleich	275
akute	275
0-@@	275
ämie	275
Q@@	275
vorgelegt	275
Unter@@	275
Tod	275
Elimination	275
konnten	274
Alkoholtupfer	274
Nierenerkrankung	274
to	274
bar	274
lei@@	274
Tiere	274
medizinischen	273
Injektions@@	273
Leitlinien	273
MabThera	273
110	273
Infusions@@	272
Basis	272
Schwierigkeiten	272
Blutzucker	272
Ge@@	272
engmaschig	272
üblicherweise	272
Rosiglitazon	272
H2O	272
Partikel	272
0,25	272
Rhinitis	272
geeignet	271
T-@@	271
-Studie	271
farblose	271
Anpassung	271
zi@@	271
Dosisreduktion	271
aufgetreten	271
human	270
Stellen	270
Rasilez	270
Ziel@@	270
Hydrochlorothiazide	270
Simvastatin	270
geringen	269
Erhaltungsdosis	269
Einige	269
Siehe	269
aufbewahrt	269
unwahrscheinlich	269
erkrankung	268
vi@@	268
Abbildung	268
kurzem	268
ori@@	268
ag@@	268
Name	268
Verminderung	268
C-@@	268
männlichen	268
tritt	267
ken	267
system	267
ALT	267
belegt	266
A.	266
tet	266
Lopinavir	266
Schlaflosigkeit	266
ate	266
ergab	266
min@@	265
Rebetol	265
Verfahrens	265
Studien@@	265
Nase	265
International	265
schwerwiegenden	265
Aktivitäten	264
Stärke	264
Leiden	264
10-@@	264
spezifische	264
Pharmakovigilanz	264
vertragen	264
schützen	263
-H@@	263
1,2	263
IN	263
ger@@	263
015	263
eb@@	263
ci@@	263
vorhanden	262
Störung	262
beeinträchtigen	262
drücken	262
Verlust	262
Hypromellose	262
reduzieren	262
Sicherheits@@	262
0,7	262
Komplikationen	262
beta	262
ales	261
zuständigen	261
Tests	261
Health	261
Stelle	261
and@@	260
Haupt@@	260
Puregon	260
Niederlande	260
fer@@	260
hin@@	260
Inhibitor	260
sch	260
TI@@	260
umgehend	259
Gewebe	259
per@@	259
ationen	258
ere	258
S-@@	258
spezifischen	258
ra@@	258
schmerzen	258
Eesti	258
Magnesiumstearat	257
Atripla	257
6.6	257
gering	257
geb@@	257
verschrieben	257
Beratung	257
gewöhnlich	256
Salzsäure	256
Schwangeren	256
Berichte	256
172	256
Myokardinfarkt	256
Schmelztablette	256
Prüfungen	256
Schüttelfrost	255
folgt	255
30@@	255
Zu@@	255
α	255
beobachteten	255
vorbehandelten	255
Milch	255
Schlaganfall	254
mit@@	254
ts@@	254
Unwohlsein	254
Hinweis	254
beispielsweise	254
Rezeptoren	254
36@@	254
Pegasys	254
Enzym	254
durchzuführen	253
große	253
Tadalafil	253
zwar	253
dadurch	253
ermittelt	253
Verdünnung	253
Ampulle	252
häufige	252
humanen	252
geht	252
Hilfe	252
171	251
Schweregrad	251
rasch	251
gel@@	251
Macrogol	251
Agenerase	251
Lungen@@	251
Belgique	251
1,3	251
Mal	250
Harn@@	250
products	250
ierten	250
4.6	250
bezeichnet	250
aktive	250
gleichzeitigen	250
verhindert	250
Li@@	249
79	249
Tumor@@	249
Ziehen	249
onen	249
Einzeldosen	249
Ärzte	249
Impfstoffs	248
Umstellung	248
Τηλ	248
016	248
APTIVUS	248
0,001	248
²	248
United	247
Paroxetin	247
Fondaparinux	247
Endpunkt	247
Leukämie	247
zurückzuführen	247
ob@@	247
konzentrationen	246
Abstand	246
Ödem	246
AT@@	246
Muskelschmerzen	246
Blutplättchen	246
Schutz	246
Wechselwirkung	246
Qualität	245
verabreichten	245
Abständen	245
starke	245
OR@@	245
ergaben	245
Epilepsie	245
Serum	245
Standard@@	245
etwas	244
DEM	244
Verteilungsvolumen	244
2004	244
erreichen	244
ATC-Code	244
Avastin	244
8-@@	243
Natrium@@	243
Spanien	243
Mengen	243
Actraphane	243
Bedarf	243
Nierenversagen	243
DEN	242
Prävention	242
Johanniskraut	242
Antikörpern	242
le	242
Beeinträchtigung	241
Mixtard	241
ati@@	241
beide	241
AB@@	240
tragen	240
hohem	240
Paclitaxel	240
gi@@	240
beobachten	240
Krampfanfälle	240
entscheiden	240
subkutaner	240
ierung	240
primäre	240
Jedoch	240
gung	240
Kingdom	239
funktion	239
Osteoporose	239
bildung	239
genannt	239
bi@@	239
CellCept	239
EINZUNEHMEN	239
Diagnose	239
ne@@	239
alu	239
VIRAMUNE	238
sofern	238
Cellulose	238
vorgefüllten	238
Datum	238
akuter	238
unverändert	238
372	238
Hauptindikator	237
-oxid	237
0.@@	237
94	237
betroffenen	237
allergischen	237
entfernen	237
Kolben	237
hoch	237
bindet	237
B.V.	237
Juli	237
geimpft	237
pharmakokinetische	237
Basierend	237
ov@@	237
bekommen	237
fi@@	237
anschließend	237
Krankheiten	236
se@@	236
September	236
durch@@	236
Risperidon	236
weg	236
Warnhinweise	236
me	236
derzeit	236
cm	236
Sharp	236
sobald	235
Poly@@	235
os	235
Ketoconazol	235
Danmark	235
zunächst	235
Beim	235
Atazanavir	235
erte	235
kurz	235
ei	234
überprüft	234
210	234
Erwägung	234
therapeutische	234
beenden	234
KwikPen	234
Tumoren	234
7-@@	234
Verschluss	234
Magen@@	234
022	234
Cmin	234
gruppe	234
Italia	234
zeit	233
Diarrhö	233
Herceptin	233
vermindert	233
Ar@@	233
entfernt	233
3,5	233
erkennen	233
na@@	233
Juni	233
Öffnen	233
SA	233
Vorgeschichte	233
wirken	233
Atorvastatin	233
Impfstoffes	232
FALTSCHACHTEL	232
gebärfähigen	232
mail	232
to@@	232
1999	232
dafür	232
dritten	232
klar	232
anderes	232
zen	232
täglichen	232
bekannten	232
Liste	231
ell@@	231
©	231
Plasma@@	231
Latvija	231
ON@@	231
-P@@	231
mittel	231
mm	231
kleinen	231
renale	231
all@@	231
Metabolisierung	231
Aprepitant	230
Kontrazeptiva	230
87	230
Eli	230
Knochen	230
EINNAHME	230
Sehstörungen	230
niedrige	230
iger	230
doppelblinden	230
Ausschusses	229
ed	229
Asthenie	229
machen	229
ratiopharm	229
Tachykardie	229
tig	228
Nachweis	228
vorübergehend	228
ene	228
-Werte	228
tung	228
gegebenenfalls	228
isch	228
Dohme	228
RMP	228
Verhalten	227
KG	227
menge	227
Körperoberfläche	227
Nadeln	227
Bluthochdruck	227
Aerius	227
rheumatoider	227
Humaninsulin	227
behandeln	227
mmHg	227
Gesicht	226
www.emea.europa.eu	226
großen	226
Einsatz	226
Mar@@	226
nahmen	226
Remission	226
Blutdrucks	226
AG	226
deutlich	226
Wird	226
besitzt	226
mediane	225
ster@@	225
ni	225
132	225
Sicherheitsprofil	225
Enzyme	225
2,0	225
teilen	225
spritzen	225
st	225
aktiver	225
Verhältnis	225
Novartis	224
werten	224
subkutanen	224
4,@@	224
Typ-2-Diabetes	224
Annex	224
vorgenommen	224
primären	224
später	224
weiblichen	224
358	224
lesen	223
assoziiert	223
durchschnittliche	223
Läsionen	223
ca.	223
KI	223
I-@@	223
nächste	223
Behandelten	223
Um@@	223
haltigen	223
morgens	223
1,1	223
Einleitung	222
sti@@	222
authorised	222
ausreichende	222
pectoris	222
Diät	222
Episoden	222
schließen	222
Ältere	222
LI@@	222
berücksichtigt	222
Ereignissen	222
Bedeutung	222
Vildagliptin	222
Darbepoetin	221
Lamotrigin	221
prä@@	221
bare	221
überzogene	221
mg-@@	221
randomisiert	221
AS	221
Zunge	221
Luxemburg	220
Magen	220
Fachpersonal	220
raten	220
jeweiligen	220
'	220
beendet	219
erwogen	219
betreffen	219
Nach@@	219
alleine	219
bestehenden	219
Ereignis	219
Wachstum	219
April	219
bleibt	219
offenen	219
mittelschwerer	219
Volumen	218
Verteilung	218
ähnlichen	218
020	218
welches	218
neu	218
gebunden	218
Penfill	218
Azomyr	218
Ch@@	218
Stamm	217
scheint	217
Beispiel	217
Fertilität	217
sches	217
Ma@@	217
stelle	217
säure	217
Losartan	217
Finland	217
Xeloda	217
Jeder	216
185	216
Sverige	216
12.@@	216
stoff	216
112	216
Lunge	216
betrachtet	216
ansprechen	216
untersuchen	216
Neoclarityn	216
Geschlecht	216
Betaferon	216
‘	216
Doxazosin	215
1,4	215
Reproduction	215
provided	215
viele	215
Neu@@	215
dauer	215
zell@@	215
Phenytoin	215
018	215
führten	215
BLISTERPACKUNGEN	215
Sehen	215
hal@@	214
Allgemeine	214
Population	214
CH@@	214
Kon@@	214
Risikofaktoren	214
Zusätzlich	214
entwickelten	214
Diuretika	214
nahm	214
Mycophenolatmofetil	214
medicinal	213
Tenofovirdisoproxilfumarat	213
mehreren	213
me@@	213
kleine	213
MIRCERA	213
Nierenfunktionsstörungen	213
vorübergehende	212
bestätigt	212
spp.	212
REYATAZ	212
4,5	212
baren	212
et	212
erkrankungen	212
Allergie	212
Telmisartan	211
E172	211
mischen	211
daten	211
Luxembourg	211
Mangel	211
besondere	211
MG	211
9.	211
Er	211
ZYPREXA	210
getestet	210
in-	210
gte	210
Entscheidung	210
London	210
184	210
oli@@	210
BEHÄLTNIS	210
resorbiert	210
Einschränkung	209
Brustkrebs	209
Sucrose	209
Mikro@@	209
Organ@@	209
ER	209
ausgesetzt	209
achten	209
Nelfinavir	209
men@@	209
Ent@@	209
Pramipexol	209
Zeichen	208
Übertragung	208
Ampullen	208
Tri@@	208
KOGENATE	208
vs.	208
vivo	208
üblichen	208
sterile	207
zer@@	207
fort	207
Verwirrtheit	207
lin@@	207
ologie	207
überprüfen	207
Hämodialyse	207
gefunden	207
Gel	207
Indikationen	207
België	207
angesprochen	206
erzielt	206
5,@@	206
AS@@	206
PREZISTA	206
nachfolgenden	206
Bestimmung	206
besonderen	206
AP@@	206
Park	206
sten	206
sierung	206
verändert	206
Polska	206
Modul	206
K	206
of@@	205
Stopfen	205
t-@@	205
sen@@	205
en-	205
Wirkstoffen	205
Faktoren	205
Ex@@	205
HEXAL	205
Animal	205
infiziert	205
N-@@	205
Reinigungstupfer	205
ster	205
Applikation	205
hängt	205
Mannitol	205
Oktober	205
one	205
Tropfen	204
do@@	204
zusammen@@	204
frei	204
ven	204
Serum-@@	204
Dyspnoe	204
Novo	204
reduzierte	204
durchführen	204
Herzinfarkt	204
Systems	203
Telzir	203
Anamnese	203
Behandlungen	203
mm3	203
Dosier@@	203
tische	203
daran	203
regelmäßige	203
Exelon	203
3,0	203
PE	203
ce	202
ins	202
gastrointestinale	202
kt	202
abge@@	202
AD@@	202
speziellen	202
Her@@	202
9-@@	202
AC@@	202
che	202
Gefühl	202
Carbamazepin	202
unterschiedlichen	202
En@@	201
normaler	201
5.@@	201
immun@@	201
einge@@	201
entsorgen	201
kardiovaskulären	201
entzündung	201
national	201
schwangeren	201
Abbruch	201
2.	201
Mundtrockenheit	201
schwer	201
L-@@	201
Caelyx	201
017	201
kl@@	201
GONAL-f	201
Januar	200
normale	200
acknowledged	200
vorwiegend	200
Gemcitabin	200
Anforderungen	200
750	200
präklinischen	200
Piroxicam	200
Langzeit@@	200
beurteilt	200
Kurzatmigkeit	200
Bindung	200
virus	199
F-@@	199
é@@	199
SP	199
ell	199
du@@	199
unterbrochen	199
EG	199
vorgelegten	199
Immunantwort	199
la	199
niedrigere	199
lässt	199
Kribbeln	199
Ibandronsäure	199
Nederland	199
März	199
durchschnittlich	198
unterziehen	198
Zittern	198
Rückenschmerzen	198
Februar	198
Prüfung	198
gestellt	198
25@@	198
Mutationen	198
Aufdruck	198
Mortalität	198
bleiben	198
Hormon	198
Hyperglykämie	198
127	198
Glas@@	197
Entacapon	197
Grundimmunisierung	197
Luft	197
Acetylsalicylsäure	197
Version	197
Hauptstudien	197
Viruslast	197
wer@@	197
eti@@	197
Lietuva	197
W	196
Impfstoffe	196
g-@@	196
solange	196
08@@	196
Creme	196
►	196
verdünnt	196
Auswirkung	196
europäischen	196
Nervensystems	196
Genehmigungen	196
tl	196
Herzschlag	196
0,00@@	196
versus	196
din@@	196
vorher	196
Reproduktionstoxizität	195
Dyspepsie	195
document	195
Tenofovir	195
tier@@	195
umgestellt	195
liches	195
Dezember	195
IT@@	195
IX	195
Via	195
Tierarzneimitteln	195
Digoxin	195
mer@@	195
02@@	195
Ingelheim	195
Patientengruppe	195
Hirn@@	194
relevante	194
verbundene	194
regelmäßigen	194
30-@@	194
eu@@	194
E-@@	194
Myalgie	194
tern	194
Gehirn	194
November	194
Drücken	194
Neugeborenen	194
Initialdosis	194
aktiviert	194
Durch@@	194
chemische	194
beteiligt	194
Sprechen	194
τ@@	194
351	193
versehentlich	193
Gelenkschmerzen	193
sub@@	193
EU-@@	193
Säuglingen	193
eventuell	193
darunter	193
itt	193
NovoRapid	193
Arbeitsgruppen	192
ad@@	192
ReFacto	192
at-@@	192
Fläschchen	192
feststellen	192
Midazolam	192
gruppen	192
Vertreter	191
ach@@	191
gten	191
gekennzeichnet	191
Bereichs	191
Besserung	191
FOLIENSTREIFEN	191
abends	191
395	191
gs	190
distribution	190
starken	190
Affen	190
CELSENTRI	190
legen	190
ste	190
019	190
Atem@@	190
Hälfte	190
ganz	190
PR@@	190
Schock	190
3.@@	190
Influenza	190
NICHT	190
ven@@	190
gesch@@	189
this	189
The	189
Abschluss	189
Somatropin	189
bestimmter	189
hoch@@	189
4.@@	189
Tuberkulose	189
Pneumonie	189
gehören	189
Wahrscheinlichkeit	189
130	189
og@@	189
Xolair	189
2,4	189
Extavia	189
E171	188
ative	188
verstärken	188
Häufigkeiten	188
Bedenken	188
intra@@	188
mon@@	188
ben	188
Niere	188
Gen@@	188
Somnolenz	188
386	188
verteilt	188
AST	188
Schmerz	188
non	187
fest@@	187
sehen	187
zwei@@	187
reagieren	187
BYETTA	187
8000	187
gleiche	187
transdermale	187
ung@@	187
6,@@	187
Rates	187
Brust	187
Immunsystems	187
Überprüfung	187
positiven	186
DE@@	186
y-@@	186
erten	186
Geburt	186
Neupro	186
Calcium@@	186
Personal	186
De@@	186
Vimpat	186
besser	186
Abhängigkeit	186
Überempfindlichkeitsreaktion	186
Angioödem	186
Anleitung	186
Formulierung	186
Prometax	186
ogen	186
ε@@	186
tischen	186
art	185
ebenso	185
Itraconazol	185
verantwortlich	185
Durchführung	185
ier@@	185
Rapamune	185
Krankheits@@	185
eller	185
Hände	185
Keppra	185
България	185
sk@@	185
Schweinen	184
tete	184
Qu@@	184
Celecoxib	184
ent	184
ET@@	184
Tracleer	184
lokale	184
Infliximab	184
bedingte	184
Schlaf@@	184
gr@@	184
Darunavir	184
Nor@@	184
Verdacht	184
schon	184
Immunisierung	183
Atemnot	183
Erhöhungen	183
Bi@@	183
Atmen	183
Tr@@	183
neuer	183
Medikamente	183
Rebif	183
Induktion	183
ast@@	183
nung	183
ausreichenden	183
basierend	183
vorliegt	183
Anorexie	183
Einstellung	183
Eingeben	183
Unternehmer	183
Schweine	182
Studienbeginn	182
Zyklus	182
verlängert	182
vorzugsweise	182
oxi@@	182
wiesen	182
Aliskiren	182
e-	182
021	182
größer	182
enen	182
lung	182
Fosamprenavir	182
Ceftriaxon	181
Parästhesie	181
Zalasta	181
Nur	181
Ramipril	181
ß@@	181
Norge	181
Helixate	181
Schlafstörungen	181
Box	181
schwerwiegend	181
bilden	180
örtlichen	180
commercial	180
only	180
OJ	180
Funktion	180
Duloxetin	180
Eingriff	180
Na@@	180
peripheren	180
240	180
Muskeln	180
DE	180
fa@@	180
Do@@	180
Verwendbar	180
geeigneten	180
Fluoxetin	180
ug	180
357	180
antiviralen	180
manchmal	180
Punkte	180
2.5	180
111	179
Pankreatitis	179
10.	179
purposes	179
Oberfläche	179
Remeron	179
09	179
↔	179
Ziagen	179
jedes	179
Appetitlosigkeit	179
nach@@	179
allergischer	179
gene	179
Glivec	179
geprüft	179
420	179
Ph.Eur.	179
FlexPen	179
Auftretens	179
Aripiprazol	178
Therapien	178
ds	178
kontrollieren	178
einmaligen	178
kt@@	178
positiv	178
bringen	178
ausschließlich	178
wodurch	178
Terfenadin	178
AF	178
cken	178
NexGen	178
keiner	178
Effentora	178
absolute	178
Invirase	178
tis	178
427	178
G3	177
Rapinyl	177
Lösungen	177
Volibris	177
sion	177
ml-@@	177
Antagonisten	177
placebokontrollierten	177
spiegels	177
Allerdings	177
enz@@	177
th@@	177
isches	177
Inhalation	177
Boehringer	177
Brustschmerzen	177
än	176
Bondenza	176
VER@@	176
speziell	176
P-@@	176
reversibel	176
Ta@@	176
gespritzt	175
Vorbereitung	175
erwiesen	175
Rivastigmin	175
Zevalin	175
igen	175
Aufsicht	175
Mai	175
cht	175
Mehrzahl	175
Kappe	175
Tasmar	175
chirurgischen	175
ck	175
unbekannt	175
aufweist	174
Dabei	174
veränderungen	174
Erhöhte	174
aufzubewahren	174
coli	174
befindet	174
angemessene	174
fast	174
Heparin	174
rote	174
ec@@	174
flasche	174
ru@@	174
stand	174
-M@@	174
abzu@@	174
Gefahr	174
Lage	174
ers	173
ho@@	173
Blutes	173
Laktatazidose	173
übergeht	173
140	173
Fertavid	173
Arm	173
Präparat	173
RI@@	173
Silapo	173
drehen	173
mäßigen	173
Y	173
Test@@	173
Anfälle	173
Linderung	173
alt	173
dar@@	173
España	172
verfahren	172
gilt	172
Karvezide	172
Tarceva	172
VIII	172
0,0001	172
Co.	172
HCT	172
VFEND	172
Transplantation	172
Schilddrüsen@@	172
..	172
450	172
Temodal	172
unterzogen	172
ali@@	172
Herzrhythmusstörungen	172
Rue	172
ass@@	172
individuellen	171
häufigste	171
ur	171
Erythem	171
sierten	171
Stoffwechsel@@	171
0,75	171
Ö@@	171
2,6	171
rekonstituierte	171
o-	171
Depressionen	171
Basal	171
Impf@@	171
aufge@@	171
unbedingt	171
entnommen	171
Virus@@	171
Dermatitis	171
Dosierungs@@	171
CoAprovel	171
·	171
Zusammenfassungen	170
An	170
w	170
Blutuntersuchungen	170
102	170
Darm@@	170
BeneFIX	170
Abgabe	170
Berücksichtigung	170
inter@@	170
August	170
legte	170
blutungen	170
Clarithromycin	170
Suomi	170
DURCHSTECHFLASCHE	170
900	170
s-	169
Retacrit	169
hi@@	169
Dänemark	169
jungen	169
Halluzinationen	169
Aufrechterhaltung	169
Glimepirid	169
mittelschweren	169
rei@@	169
beschriebenen	169
rund	169
behandelnden	169
schneller	169
Patientengruppen	169
Sollten	169
Progression	169
Verfügbarkeit	169
Verschlusskappe	169
rz	168
Purevax	168
enten	168
Sekunden	168
Unterbrechung	168
wöchigen	168
Abfall	168
Fett@@	168
1,6	168
Sorbitol	168
Hämoglobin	168
129	168
Patientin	168
Topotecan	168
Gewichtsverlust	168
Remicade	168
Ac@@	168
HANDELSNAME	167
50@@	167
Am	167
SS@@	167
genommen	167
ρ@@	167
România	167
Methode	167
Rhabdomyolyse	167
Arbeitsprogramm	167
Arthralgie	167
Ergebnissen	167
enk@@	167
dosiertem	167
stellt	167
unzureichend	166
erachtet	166
Treatment	166
Stavudin	166
Ceplene	166
ort	166
senken	166
wiederholt	166
Sitzung	166
om	166
Bedienungsanleitung	166
SPC	166
erung	166
Ausgangs@@	166
Leberenzyme	166
a-	166
MI@@	166
tik@@	166
weißer	166
0,0	166
Thrombozytenzahl	166
PA	166
Kontrollgruppe	165
ente	165
af@@	165
Frakturen	165
Malta	165
HDPE	165
individuell	165
ing	165
Arten	165
ar	165
Sollte	165
Status	165
Konfidenzintervall	165
Reduzierung	165
FSH	165
geliefert	165
Psoriasis	165
Ro@@	165
Co@@	164
Stillen	164
Setzen	164
Rapid	164
ase-@@	164
bedingten	164
schlucken	164
Blutgefäße	164
MSD	164
äu@@	164
Herz	164
Metabolit	164
veränderter	164
Praxis	164
Bonviva	164
Sulfonylharnstoff	163
con@@	163
auftretende	163
sta@@	163
volumen	163
verschiedene	163
fortgeschrittenem	163
malignen	163
CO@@	163
3,3	163
Verordnung	163
Nevirapin	163
104	163
Dadurch	163
Orphan	163
tiges	163
Hydroxy@@	163
trans@@	163
eliminiert	163
zugelassenen	163
Zometa	162
Diarrhoe	162
sicheren	162
wo	162
Α@@	162
Antidepressiva	162
Leukopenie	162
23@@	162
Zulassungs@@	162
verschreibungspflichtige	162
Κύπρος	162
chronische	162
Sepsis	162
Häufige	162
planen	162
InductOs	162
fen	162
normal	162
ihren	162
Hand	162
Infektions@@	162
InnoLet	162
endes	162
ms	161
produziert	161
Pilzinfektionen	161
Kriterien	161
teten	161
ZUSAMMENFASSUNG	161
beschwerden	161
Aluminium@@	161
po@@	161
kombinierten	161
Jahres	161
Infanrix	161
Cytochrom	161
Schwindelgefühl	161
verbessert	161
11.@@	161
stillenden	161
packung	161
Retardtablette	161
Tremor	160
Note	160
Stuhl	160
Hautrötung	160
Anbruch	160
Antibiotikum	160
Ελλάδα	160
Blutgerinnsel	160
gewebe	160
Fortschreiten	160
Nutzen-Risiko-Verhältnis	160
sierte	160
Zyklen	160
Gelenk@@	160
Kalium@@	160
Aclasta	160
infizierten	160
101	160
reaktionen	160
Ergebnis	160
Inspektionen	160
USA	160
Schutzkappe	160
Pharmazeutischer	160
Genotyp	159
Labor@@	159
Lippen	159
ph@@	159
Verwaltungsrat	159
urie	159
MS	159
Tipranavir	159
gem	159
Loratadin	159
Injektionszubereitung	159
Puh	159
1,8	159
Fachinformation	159
Behältnis	159
form@@	159
Potenzial	158
erwies	158
har@@	158
Rückgang	158
Bio@@	158
Wasser@@	158
DNA	158
blockiert	158
stoffe	158
farblos	158
Desloratadin	158
untersuchten	158
lan@@	158
trockene	158
angenommen	158
fl@@	158
je@@	158
rue	157
Gummistopfen	157
2,3	157
131	157
berechnet	157
Immunogenität	157
Substrat	157
ungsp@@	157
Mikrokristalline	157
ETIKETT	157
Median	157
vir@@	157
gewährleisten	157
Rolle	157
Dexamethason	157
siert	157
sagen	157
Karvea	157
ologische	157
verlust	157
Gallen@@	157
Seretide	157
symptomatischen	156
Anwendungs@@	156
gew@@	156
unterhalb	156
täglicher	156
Körpers	156
Internationale	156
GE@@	156
i.v.	156
Ri@@	156
Schmerz@@	156
Haarausfall	156
überwiegend	156
AL	156
Relevanz	156
Wirkstofffreisetzung	156
emea.europa.eu	155
nis	155
EMEND	155
gebildet	155
Prüf@@	155
Irland	155
MP@@	155
angewandt	155
End@@	155
Lamictal	155
weißes	155
Placebo-Gruppe	155
Kanülen	155
erreichten	155
La@@	155
Hämophilie	155
3.	155
früher	155
toxische	155
kon@@	155
Schritt	155
Bondronat	155
200@@	154
betrifft	154
Empfängnisverhütung	154
ons@@	154
Entsorgung	154
verursachte	154
Arbeit	154
Muskelschwäche	154
Wirkstoffs	154
NovoSeven	154
tin	154
mp@@	154
größeren	154
beschädigt	154
Auflösen	154
bei@@	154
Salbe	154
Verkehr	153
gs@@	153
Mutter	153
C.	153
1,7	153
behandelte	153
Viani	153
allerdings	153
symptomatische	153
Injektions-	153
deuten	153
bewertet	153
unteren	153
Dysfunktion	153
überschreiten	153
Slovenija	153
Twinrix	153
vorliegenden	153
runde	153
Eisen@@	153
Herpes	153
zutrifft	153
Obstipation	153
Referenz@@	153
-A@@	153
Omnitrope	153
TAXOTERE	152
Harmonisierung	152
Norvir	152
11.	152
Advagraf	152
Post@@	152
so@@	152
ARZNEIMITTELS	152
Druck@@	152
hy@@	152
suchen	152
Ä@@	152
tiger	152
aten	152
verbundenen	152
Griechenland	151
1995	151
Dialyse	151
UNG	151
eindeutig	151
Didanosin	151
Protopy	151
est@@	151
yl	151
Natriumchloridlösung	151
OP@@	151
gabe	151
entsprechen	151
421	151
Dosisanpassungen	151
Polypropylen	151
Herzerkrankungen	151
Krankenhaus	151
5,0	151
Größe	151
Anwendungsgebiete	151
353	151
Hemmer	151
Wien	151
ese	151
Information	151
sorgfältige	151
trinken	151
SUSTIVA	151
iertes	150
DAS	150
lichem	150
Comp	150
Tamiflu	150
Trizivir	150
Schweden	150
106	150
basiert	150
kal@@	150
konventionellen	150
225	150
asen	150
zeit@@	150
CONSTA	150
Helicobacter	150
Vardenafil	150
—	150
bekannter	150
Einstichstelle	150
schwerem	150
146	150
genaue	150
CHAMPIX	150
Povidon	149
Hund	149
Stalevo	149
berücksichtigen	149
angewiesen	149
Soliris	149
din	149
ment@@	149
radioaktiv	149
Efexor	149
ok@@	149
Talkum	149
Raptiva	149
ü@@	149
Pelzont	149
Überleben	149
Sanofi	149
bel@@	149
niedrigeren	149
EMEA-@@	149
Mischen	149
Mon@@	149
Infusionen	149
Nahrungsaufnahme	149
CML	149
Aufbewahrung	149
abzusetzen	148
abgeschlossen	148
obwohl	148
enz	148
ic@@	148
Sirolimus	148
Ne@@	148
schütteln	148
360	148
eg@@	148
Gesundheit	148
dargestellt	148
Polyethylen	148
betragen	148
oralem	148
TORISEL	148
Plasmaproteine	148
024	148
Nasen@@	148
oni@@	148
terminale	148
Ursache	148
tödlich	148
ke	148
gelb	147
Kortikosteroiden	147
Altersgruppe	147
wei@@	147
6.	147
Antidiabetika	147
ungs-	147
Abseamed	147
wenige	147
dr@@	147
280	147
verschreiben	147
ovale	147
9,5	147
teil	147
Stimulation	147
lösung	147
Venlafaxin	147
Erythropoetin	146
Siliciumdioxid	146
Ad@@	146
Binocrit	146
eingeschlossen	146
ältere	146
Radioaktivität	146
Herzfrequenz	146
RoActemra	146
NSAR	146
Vi@@	146
zen@@	146
MA@@	146
lokalen	146
Tredaptive	146
aufrecht	146
früheren	146
Angst	146
erheblich	146
co@@	146
7,@@	146
Koma	146
Antikörper@@	146
108	146
OptiSet	146
somit	146
res@@	146
Haltbarkeit	145
ran@@	145
Lesen	145
Emtriva	145
α@@	145
Patientenjahre	145
Referat	145
kan@@	145
verschlossen	145
are	145
ste@@	145
ABILIFY	145
Nicotinsäure	145
gungen	145
verstärkt	145
Gemfibrozil	145
Etikettierung	145
dient	145
MB	145
verminderter	145
Dar@@	145
seinen	145
angemessen	145
hemmen	145
tungen	145
2-mal	145
ativen	145
Befunde	145
Protopic	145
Tier	144
TEN	144
331	144
ser@@	144
hält	144
manchen	144
anders	144
Inter@@	144
4.	144
ktion	144
aktivität	144
12-@@	144
Magyarország	144
Arzneimittelwirkungen	144
Nervosität	144
-Patienten	144
oren	144
STOCRIN	144
Insulin-@@	144
schwach	144
allgemeinen	144
Zonegran	144
Des@@	144
ats	143
Unruhe	143
systems	143
auslösen	143
INFORMATION	143
Methoden	143
Rück@@	143
	143
nötig	143
Aufgaben	143
gelöst	143
Bevor	143
EVRA	143
AN	143
Avenue	143
inaktiviert	143
-Wert	143
Präparate	143
begrenzten	143
ART	143
Proteine	143
fortgeschrittenen	143
mäßige	143
oly@@	143
Atembeschwerden	143
freien	143
Kivexa	143
Lebens@@	143
verwendete	143
Produktion	143
128	143
ja	142
NeoRecormon	142
gewünscht	142
verwendeten	142
weiterer	142
br@@	142
genügend	142
relevant	142
Lda	142
Kochsalzlösung	142
Nicht-@@	142
lich@@	142
auszufüllen	142
Januvia	142
ergriffen	142
Potential	142
Posaconazol	142
rekombinantes	142
us-@@	142
empfehlen	142
Erreichen	142
zuletzt	142
Truvada	142
VIRACEPT	142
Granulat	141
CYP2C9	141
Tierarzneimittels	141
-Syndrom	141
103	141
essen	141
setzt	141
359	141
BE@@	141
ären	141
Innerhalb	141
schrittweise	141
Dem@@	141
reaktion	141
Tabletten@@	141
kardiovaskuläre	141
Langzeitbehandlung	141
Nifedipin	141
senkt	141
amin@@	141
Spezies	141
bestimmen	141
sondern	141
ologischer	141
möglichst	141
Gelbsucht	140
erfordern	140
Trevaclyn	140
zin@@	140
Albumin	140
ZU	140
az@@	140
TEXT	140
Zwei@@	140
kom@@	140
spezielle	140
Appetit	140
EXUBERA	140
Flu@@	140
MabCampath	140
Pharma@@	140
S.p.A.	140
Doxorubicin	140
Gefäß@@	140
Gegenanzeigen	140
Mi@@	140
nahezu	140
CIALIS	140
Reizbarkeit	140
drei@@	139
gleich@@	139
gelbe	139
osi@@	139
kombiniert	139
man@@	139
kin@@	139
Insulatard	139
161	139
ausge@@	139
Männer	139
Urin@@	139
Met@@	139
oft	139
Cholestagel	139
046	139
lu@@	139
einiger	139
Actrapid	139
Unverträglichkeit	139
Frau	139
Eliminationshalbwertszeit	139
Auswertung	139
Fuzeon	139
Teilen	138
aufnahme	138
Futter	138
besten	138
Werten	138
S.	138
Knochenmark	138
Zwei	138
fähigkeit	138
Schädigung	138
Se@@	138
Protaphane	138
bewirkt	138
Blutdruckabfall	138
Dosierungsschema	138
Resistenz@@	138
Website	138
din-@@	138
verminderten	138
Capecitabin	137
Messlöffel	137
su@@	137
monatlich	137
randomisierte	137
Sklerose	137
126	137
Healthcare	137
Slovenská	137
teil@@	137
Abbott	137
2,7	137
Zavesca	137
ansteigen	137
angebracht	137
29@@	137
135	137
Wirkstoff@@	137
2,1	137
Komponente	137
Protein@@	136
Gelatine	136
®	136
allgemeine	136
AM@@	136
potenzielle	136
erfordert	136
oti@@	136
ierter	136
4,0	136
TESAVEL	136
Emulsion	136
β	136
4,8	136
Stabilität	136
Calcium	136
Enviage	136
beginnt	136
Č	136
atische	136
850	136
tion	136
Follitropin	136
stabil	136
ogen@@	136
überschritten	136
orische	136
NutropinAq	136
Bauchspeicheldrüse	135
wirkung	135
Atmung	135
betrugen	135
vermuten	135
Schlucken	135
rekombinanter	135
nahe	135
fort@@	135
2,8	135
Ser@@	135
log10	135
EX@@	135
Dynepo	135
Strahlentherapie	135
Erhaltungstherapie	135
bezogen	135
ör@@	135
Neulasta	135
Diovan	135
Lebererkrankungen	135
ACE-Hemmer	135
Telithromycin	135
trotz	135
Temperatur	135
ren@@	135
eli@@	135
Str@@	135
sterilen	134
metastasiertem	134
TE@@	134
pi@@	134
Nierenproblemen	134
142	134
MIRAPEXIN	134
er-@@	134
Vergleichs@@	134
doch	134
weist	134
INTELENCE	134
Impfungen	134
ULN	134
Sandoz	134
Pasteur	134
32@@	134
Profil	134
str@@	134
weise	134
bereit	134
Blutgerinnung	134
beruht	134
stellung	134
vermindern	134
antiretrovirale	134
itis	134
helfen	134
UMKARTON	134
Glustin	134
Demenz	134
angewendeten	134
Medikament	134
Ber@@	133
stehenden	133
postmenopausalen	133
Sprimeo	133
relativ	133
24@@	133
Injizieren	133
IONSYS	133
ärztliche	133
EL@@	133
veränderte	133
blutung	133
Verfärbung	133
verb@@	133
50-@@	133
Revlimid	133
pharmakologischen	133
Etravirin	133
stri@@	133
nimmt	133
Hypoglykämien	133
4,6	133
Valtropin	133
027	133
031	133
Wyeth	133
Mitarbeiter	133
Harn	133
hämatologischen	133
ν@@	132
richtige	132
118	132
049	132
Händen	132
acht	132
belegen	132
ID@@	132
Stadium	132
Laboratories	132
Unterzuckerung	132
Verabreichungsort	132
ging	132
verstärkte	132
ek@@	132
Produkte	132
Ausnahme	132
bestehend	132
probleme	132
wenig	132
gens	132
gehalten	132
Sobald	132
Hypokaliämie	132
stoff@@	132
spiegeln	132
blieb	132
Behandlungsgruppen	132
Hal@@	132
Unterteil	132
ZUR	131
jüngeren	131
ihr	131
bestand	131
Empfehlung	131
SU@@	131
alem	131
Kineret	131
SUTENT	131
Thymanax	131
geschützt	131
aufgelistet	131
Brennen	131
Blutdrucksenkung	131
Sirup	131
700	131
Führen	131
Am@@	131
Subkutane	131
dosen	131
derselben	131
Behandlungszyklus	131
Phosphatase	131
Schutz@@	131
gesenkt	131
chen@@	131
Oberschenkel	131
Fertigpens	131
Bradykardie	130
Karton	130
Ansprechrate	130
sa@@	130
100@@	130
lokal	130
Cl@@	130
BV	130
Folgende	130
geändert	130
Vir@@	130
eská	130
Erteilung	130
Kautabletten	130
ca	130
Fäzes	130
eingeschränkte	130
IC@@	130
373	130
gefühl	130
Diacomit	130
151	130
Busilvex	130
Lip@@	130
Quixidar	130
Gesam@@	130
354	130
tre@@	130
ktes	130
ation@@	130
Valdoxan	130
durchgeführten	130
infektion	130
Riprazo	130
Timolol	129
Ist	129
Mg	129
use	129
äre	129
Human@@	129
festzustellen	129
45@@	129
EP@@	129
Thalidomide	129
Str	129
gelagert	129
Verschreibung	129
ums	129
Cy@@	129
hinweisen	129
vorherige	129
wissenschaftliche	129
ON	129
benötigt	129
Wegen	129
Risperdal	129
Anschluss	129
ausgeprägt	129
Produktes	129
Schizophrenie	129
ι@@	129
Blutungsrisiko	129
richtet	129
ver	129
Tritace	129
á@@	128
Ísland	128
sichere	128
let@@	128
geringeren	128
eln	128
20-@@	128
Tasigna	128
aufwiesen	128
verändern	128
Icandra	128
Auffassung	128
8,@@	128
Hauptstudie	128
ARICLAIM	128
SP@@	128
Sonstige	128
026	128
Mechanismus	128
Ausschuß	128
Per@@	128
Efient	128
ol-@@	128
dern	128
Ebixa	128
025	128
023	128
Oy	128
Erythromycin	128
Granulozyten	128
haltige	128
induziert	128
Velmetia	128
2,2	127
Stomatitis	127
Janumet	127
22@@	127
Roche	127
375	127
aufzu@@	127
HIV-infizierten	127
hei@@	127
AIDS	127
Wieder@@	127
gin@@	127
aufgelöst	127
Weiße	127
01.@@	127
157	127
Blähungen	127
Serumspiegel	127
ub@@	127
barer	127
Lenalidomid	127
Muskelkrämpfe	127
genauso	127
wichtigsten	127
,4	127
INCRELEX	127
1,9	127
bedingt	127
verringerten	127
Gardasil	127
Kombinationen	127
Bereiche	127
Phenobarbital	127
Fläche	127
plötzlich	127
Hepatitis-B-@@	127
DepoCyte	127
fusion	127
175	127
1-	127
105	127
Zomarist	127
Steigerung	127
erforderliche	127
OPA	127
Todesfälle	126
Umfang	126
Zusammenarbeit	126
weiter@@	126
artige	126
hinreichenden	126
DULOXETINE	126
BOEHRINGER	126
IS@@	126
INVEGA	126
Genotoxizität	126
Blutspiegel	126
starker	126
roter	126
orti@@	126
Lei@@	126
hingewiesen	126
ergeben	126
Mark@@	126
fall	126
zählen	126
ens@@	126
Maraviroc	126
CYP	126
Aprovel	126
gemeldet	126
Alopezie	126
Galvus	126
ters	126
for@@	126
Packungsgröße	126
Eingriffen	126
Dafiro	126
Ausgang	125
Centre	125
Lucentis	125
Anaphylaxie	125
trop@@	125
Versuchsmodellen	125
längere	125
Thalidomid	125
beobachtete	125
len	125
ari@@	125
ativ	125
Hypercholesterinämie	125
Zerit	125
P450	125
nüchternen	125
Entfernung	125
028	125
Antrag	125
meist	125
Pravastatin	125
Eucreas	125
Parkinson-Krankheit	125
Spitze	125
dro@@	125
entsorgt	125
sel@@	125
Invega	125
Ärzten	124
festgelegt	124
ill@@	124
Auflösung	124
029	124
Anschwellen	124
tät	124
Madrid	124
Abatacept	124
RO@@	124
INGELHEIM	124
SO@@	124
Versuchen	124
Copalia	124
verzögert	124
bikonvexe	124
Darreichungsform	124
körperliche	124
fall@@	124
ORENCIA	124
außerhalb	124
stellte	124
angesehen	124
†	124
Xeomin	124
Verpackung	124
Angiotensin	124
Frage	124
Tierstudien	124
negativ	124
her	124
Myocet	124
Ranexa	124
2-	124
informiert	124
s.r.o.	123
geschluckt	123
omen	123
alli	123
Si@@	123
alternative	123
,6	123
Fluconazol	123
ihrem	123
hämatologische	123
los	123
solcher	123
AZ@@	123
Meloxicam	123
endem	123
anaphylaktische	123
intramuskulär	123
Propylenglycol	123
Leiter	123
3,4	123
Vectibix	123
richten	123
all	123
Tätigkeit	123
bedingungen	123
genehmigt	123
Sub@@	123
183	123
lin	123
unerwünschter	123
besprechen	123
Gastrointestinaltrakts	123
206	123
geringere	123
PACKUNG	122
Adalimumab	122
Le@@	122
ICH	122
EXJADE	122
wissen	122
Celgene	122
Levemir	122
HBV	122
Einführung	122
Immunität	122
174	122
peri@@	122
MicardisPlus	122
EWP	122
IU	122
Lethargie	122
,3	122
sogar	122
PhotoBarr	122
Con@@	122
Herz-	122
SD	122
hervorgerufen	122
dar	122
European	122
risiko	122
zentralisierten	122
Folgen	122
CYP2D6	122
Taubheitsgefühl	122
Dynastat	122
Immunglobulin	122
Paris	122
10x1	122
Belgium	122
verpflichtet	122
Thrombozyten	122
Augentropfen	122
Extremitäten	122
tig@@	122
Thrombozyten@@	121
Industrie	121
Versagen	121
Efficib	121
barkeit	121
wichtige	121
Trans@@	121
Imprida	121
Car@@	121
,9	121
Druck	121
keinem	121
Rezeptor	121
ED@@	121
A-	121
Wirkmechanismus	121
DI@@	121
Pradaxa	121
Kindes	121
multiforme	121
erfolgte	121
Adapter	121
krankheit	121
Thromb@@	121
Kortikosteroide	121
Bet@@	121
Br@@	120
Ziel	120
Orlistat	120
231	120
kten	120
Kalzium@@	120
R-@@	120
sicherstellen	120
trübe	120
AV@@	120
κ@@	120
Finnland	120
Luftblasen	120
05.@@	120
Dasatinib	120
25.@@	120
Combivir	120
Lantus	120
Axura	120
CYP3A4-@@	120
systemischer	120
Xigris	120
134	120
Keine	120
Therapiebeginn	120
Management	120
humanes	120
teilweise	120
bekannte	120
Sal@@	120
är@@	120
statt	120
168	120
260	120
0,05	120
MI	120
Markierung	120
9,@@	120
Flecken	120
Ger@@	120
Mimpara	119
152	119
Notfall@@	119
115	119
0,01	119
fortgeschrittener	119
218	119
Ratio	119
Fetus	119
wann	119
Imatinib	119
44@@	119
ENT@@	119
direkte	119
untersuchungen	119
PritorPlus	119
Silgard	119
Missbildungen	119
,5	119
Lisinopril	119
SOMAVERT	119
Z	119
arten	119
Überprüfen	119
en.	119
Erythema	119
oxy@@	119
Cerivastatin	119
induzierte	119
Gründen	119
kts	119
10.@@	119
SIFROL	118
219	118
Bauch@@	118
Blockade	118
Entnahme	118
ans	118
intramuskuläre	118
ARZNEIMITTEL	118
Auffrischimpfung	118
75@@	118
Laufe	118
Beinen	118
My@@	118
039	118
Street	118
Enzyms	118
freie	118
143	118
erzielen	118
bil@@	118
gemeinsam	118
mittel@@	118
EWG	118
trägt	118
Nobilis	118
Trächtigkeit	118
3,6	118
ändern	118
absetzen	118
genen	118
orischen	118
Nausea	118
fun@@	118
heit	118
beider	118
μ@@	117
GENEHMIGUNG	117
EF@@	117
gesunde	117
J	117
Antikoagulanzien	117
Licht@@	117
Nesselsucht	117
Wirk@@	117
Referenzarzneimittel	117
ES@@	117
ο@@	117
Leflunomid	117
stets	117
CRIXIVAN	117
TRISENOX	117
resistent	117
RotaTeq	117
abzubrechen	117
Adefovirdipivoxil	117
kürzlich	117
Isotretinoin	117
kombinierte	117
cy@@	117
OL@@	117
hell@@	117
trächtigen	117
48@@	117
Bauch	117
signifikanter	117
Immunsuppressiva	117
Bewegungen	117
NE@@	117
Medi@@	117
086	117
Tierexperimentelle	116
nachfolgend	116
ges@@	116
assoziierte	116
IR@@	116
Clofarabin	116
überwiegt	116
67@@	116
aseptischen	116
empfiehlt	116
kar@@	116
Knochenmark@@	116
ma	116
TA@@	116
Nerven@@	116
Unternehmers	116
Parareg	116
Gelenke	116
Verwaltung	116
packungen	116
negativen	116
107	116
tun	116
Akne	116
-Hemmer	116
unterstützende	116
erhielt	116
Verhinderung	116
Injektionsspritze	116
atischen	116
Plasma-@@	116
physikalische	116
EC@@	116
Brust@@	116
Rifabutin	116
ungewöhnliche	116
Flüssigkeits@@	116
INFAI	116
holen	116
dosis@@	116
sin@@	116
Kilogramm	116
3-	116
Ti@@	116
du	116
gemeinsame	116
AG@@	116
ProQuad	116
Drehen	115
sulfat	115
met@@	115
8.@@	115
Diskus	115
26@@	115
Or@@	115
form	115
Situationen	115
,@@	115
Nervensystem	115
bewirkte	115
renalen	115
Pharmazeutischen	115
Tätigkeiten	115
4,4	115
Proteaseinhibitoren	115
heraus	115
--	115
va	115
229	115
Höchstdosis	115
Gefahren	115
ür@@	115
H-@@	115
sieren	115
Lumiracoxib	115
richtig	115
Gebiet	115
SoloStar	115
od@@	115
Bronchitis	115
Leberversagen	115
ihnen	115
fen@@	115
Leitlinie	115
Auftropfen	115
brechen	115
Freisetzung	115
Nasenbluten	115
Ethanol	114
hielt	114
sieben	114
rin@@	114
Renagel	114
Mehrfach@@	114
Medikamenten	114
Econor	114
tro@@	114
Romiplostim	114
Haushalts@@	114
gastrointestinalen	114
erhöhtem	114
induzierten	114
Tier@@	114
UM@@	114
HIV-1	114
IL@@	114
Carbidopa	114
Rimonabant	114
berichten	114
Verdauungsstörungen	114
Milch@@	114
werden.	114
bl@@	114
OR	114
transdermales	114
Abraxane	114
ME@@	114
rekombinanten	114
ft	114
Ketek	114
inen	114
stra@@	114
Ansprechraten	114
90@@	114
erwarteten	114
Viread	114
Wechsel	113
Seltene	113
wechseln	113
Akkumulation	113
Umsetzung	113
gende	113
Dublin	113
d-	113
Gemäß	113
mitteilen	113
zentralen	113
aufeinander	113
Wasserlassen	113
Hals	113
befolgen	113
Bu@@	113
symptome	113
15-@@	113
Tetanus	113
Operationen	113
Blutgerinnseln	113
Hydrochlorid	113
zyklus	113
ben@@	113
So@@	113
Allergische	113
Auges	113
PAH	113
Gabapentin	113
σ@@	113
Suboxone	113
Part	113
Behandlungszyklen	113
gel	113
o.o.	113
Infusionsbeutel	113
schwer@@	113
Ansprechens	113
sierter	113
Repaglinid	113
kontrollierte	112
fahren	112
Flush	112
Aussehen	112
gef@@	112
litten	112
möglicher	112
PACKUNGSBEILAGE	112
Epivir	112
gan@@	112
144	112
nun	112
Möglicherweise	112
Blutungs@@	112
Säuglinge	112
DNA-@@	112
089	112
toxischen	112
Jalra	112
Wirksamkeits@@	112
oh@@	112
Einrichtungen	112
46@@	112
Kin@@	112
darstellen	112
Arbeits@@	112
Übereinstimmung	112
magensaftresistente	112
ktionen	112
Aluminium-Blisterpackungen	112
Staphylococcus	112
Fl@@	112
Bilirubin	112
Enthält	112
mg-Dosis	112
Ohr@@	112
Zugang	112
eri@@	112
rit@@	111
vorgefüllte	111
öse	111
grippeähnliche	111
an-@@	111
arb@@	111
identifiziert	111
IM	111
empfindlich	111
av@@	111
or-@@	111
Haemophilus	111
Kontroll@@	111
hilft	111
Thelin	111
aufrechterhalten	111
Hämoglobinwert	111
Prä@@	111
ansprachen	111
Kalium	111
Ventavis	111
85@@	111
vermehrtes	111
OS	111
spro@@	111
bakteriellen	111
els	111
geimpften	111
tieren	111
ºC	111
Tekturna	111
glauben	111
Cholesterin	111
Neupopeg	111
Material	111
Körpertemperatur	110
066	110
INVERKEHRBRINGEN	110
UN@@	110
Fol@@	110
Tages@@	110
mische	110
Lymphozyten	110
Entecavir	110
weit	110
pen@@	110
zuverlässige	110
Darm	110
männliche	110
Lapatinib	110
07@@	110
Hitzewallungen	110
gründlich	110
mangel	110
415	110
rekombinante	110
Actos	110
2x	110
Proteasehemmern	110
ZOSTAVAX	110
Gen	110
Ethinylestradiol	110
Plavix	110
Pferden	110
ktor	110
edi@@	110
Antiepileptika	110
Mio	110
wöchiger	110
Serumkonzentrationen	110
fin@@	110
Business	110
Nycomed	110
CYP1A2	110
Dosierungsempfehlungen	110
sation	110
Sedierung	110
liegenden	110
nie	109
Sonata	109
benutzen	109
Micardis	109
ev@@	109
od	109
Baxter	109
FABLYN	109
à	109
tive	109
lie@@	109
einzelne	109
fetale	109
untersuchung	109
Rotarix	109
Vergangenheit	109
Erreger	109
Umgang	109
Myopathie	109
Schwächegefühl	109
Muskel	109
Variabilität	109
stärker	109
identisch	109
Minute	109
potenziell	109
Maße	109
alt@@	109
Wiederaufnahme	109
Doxycyclin	109
ADROVANCE	109
verwerfen	109
Isoenzyme	109
Anti-@@	109
fe@@	109
elt	109
Hyperkaliämie	109
í@@	109
mo@@	109
diabetischen	109
tä@@	109
Pa@@	109
ose-@@	108
kose	108
allgemein	108
Pharmakokinetische	108
möchten	108
TR@@	108
Pregabalin	108
Verzögerung	108
gerade	108
beurteilen	108
Tandemact	108
Danach	108
ihn	108
Psoriasis-Arthritis	108
HBVAXPRO	108
Dir@@	108
00-@@	108
wieder@@	108
Doribax	108
würde	108
In-vitro-Studien	108
Zei@@	108
ini@@	108
OSSEOR	108
Insulins	108
Infusat	108
treatment	108
behältnis	108
Inovelon	108
kardi@@	108
Haar@@	108
4-	108
114	108
cke	108
Kinzalkomb	107
Bosentan	107
Mittel@@	107
des@@	107
N.V.	107
post@@	107
H.	107
5-	107
Ernährung	107
Neur@@	107
Ivabradin	107
-2-@@	107
markierten	107
darin	107
ähnlicher	107
unterstützen	107
Fehlens	107
umgewandelt	107
ACE-Hemmern	107
Hautausschläge	107
ors	107
abschätzbar	107
blut@@	107
K-@@	107
Blisterstreifen	107
folgender	107
Lacosamid	107
Anwendungsgebiet	107
Gelegentliche	107
Antipsychotika	107
Sodbrennen	107
Austria	107
Zerene	107
Proteinurie	107
Steady	107
Leberproblemen	107
Cubicin	107
Qualitäts@@	107
Position	107
spezifisch	107
IV@@	107
erniedrigt	107
fällt	106
clinical	106
stehende	106
Rituximab	106
entwicklung	106
Mitgliedsstaat	106
60@@	106
3,1	106
Sonnenlicht	106
Hemmern	106
Cefuroximaxetil	106
116	106
kti@@	106
BEDINGUNGEN	106
3000	106
Wirkdauer	106
22.@@	106
Häm@@	106
Score	106
Ko@@	106
jährigen	106
E.	106
mat@@	106
Benzylalkohol	106
bildet	106
optimale	106
Essen	106
Messung	106
Prevenar	106
Iscover	106
Pritor	106
avenue	106
medizinisches	106
blutdrucksenkende	106
Takeda	106
Kunststoff@@	106
Mischung	106
Freiwilligen	106
Dennoch	105
Xiliarx	105
kte	105
Gutachtens	105
Lin@@	105
Pu@@	105
individuelle	105
Erlotinib	105
OLANZAPIN	105
eben	105
osis	105
Cervarix	105
rekonstituierten	105
Alkohol@@	105
ermöglicht	105
Pra@@	105
6.@@	105
versch@@	105
tel@@	105
primär	105
prüfen	105
UAB	105
alten	105
TYSABRI	105
irgendwelche	105
befinden	105
zentral	105
Entsorgen	105
Dazu	105
dosisabhängig	105
Beobachtung	105
Daten@@	105
26.@@	105
To@@	105
Tra@@	105
Konservierungsmittel	105
Verstärkung	105
x-@@	105
bestehende	105
Myfenax	105
id	105
ani@@	105
größe	105
Cedex	105
MM	105
,1	105
Kuvan	105
,0	105
Buprenorphin	105
04@@	104
E-Mail	104
SPRYCEL	104
Lassen	104
Atemdepression	104
Antigen	104
zumindest	104
erster	104
ax@@	104
Placebogruppe	104
Europa	104
.000	104
Nordisk	104
stherapie	104
Cetrotide	104
fektion	104
Lithium	104
Mit@@	104
Ambirix	104
3,9	104
verschiedener	104
Komponenten	104
Panretin	104
Gra@@	104
JJJJ	104
Hemm@@	104
ASS	104
GANFORT	104
Proteasehemmer	104
anzu@@	104
fälle	104
bald	104
Paxene	104
diagnostiziert	104
Erbitux	104
eingestuft	104
Gesamtdosis	104
Starlix	104
on-	104
Hexal	104
Vorliegen	103
SINGULAIR	103
DuoTrav	103
Siklos	103
gesehen	103
Maximaldosis	103
m-@@	103
Füßen	103
Akute	103
Bewegung	103
äußere	103
Bo@@	103
vermutlich	103
ses	103
Achten	103
INHABER	103
CYMBALTA	103
Sowohl	103
unterbrechen	103
Kal@@	103
Gewebe@@	103
55@@	103
Vergleich@@	103
Cetuximab	103
intramuskulären	103
Stärken	103
enthaltenen	103
fallen	103
37,5	103
besonderer	103
doppelte	103
verschwommenes	103
vielen	103
karzinom	103
Bes@@	103
Exanthem	103
032	103
Kar@@	103
NSAID	103
Gewichtsabnahme	103
Thyrogen	103
treffen	103
gaben	103
än@@	103
ihres	103
Schwerwiegende	103
lichkeit	103
HI@@	103
guidance	102
Orale	102
vorübergehenden	102
VELCADE	102
Dosisbereich	102
endo@@	102
verursachten	102
Verschlimmerung	102
gungs@@	102
sanofi-aventis	102
2,9	102
schema	102
Glaxo	102
potentielle	102
Pädiatrische	102
del@@	102
HR	102
Hycamtin	102
AT	102
Glasfläschchen	102
Unterhautzellgewebes	102
dennoch	102
einzu@@	102
8.	102
Fortsetzung	102
Hypericum	102
perforatum	102
0,03	102
geklärt	102
offene	102
Ketoazidose	102
Selbstinjektion	102
Mütter	102
PROCOMVAX	102
schem	102
ORACEA	102
vorgeschlagenen	102
Bündelpackung	102
arbeiten	102
RA	102
II-@@	102
verlängerte	102
kardiale	102
ALL	102
Barcelona	102
folgen	102
PROTELOS	102
sich@@	102
Raltegravir	102
Sebivo	102
Ru@@	102
PCTFE	102
Global	102
Affinität	102
kappe	102
Norwegen	102
b-@@	102
Bestimmungen	102
Fett	102
Virus-@@	102
pylori	102
Hy@@	101
Synkope	101
Levetiracetam	101
Linie	101
Lymphsystems	101
Is@@	101
CD@@	101
BMD	101
oi@@	101
verpackt	101
Anfällen	101
tikum	101
PSURs	101
alis	101
State	101
Mitgliedstaat	101
antivirale	101
reich@@	101
eingeschränkt	101
tiert	101
beitragen	101
Arixtra	101
Rinder	101
5,4	101
Gesamt-@@	101
6,7	101
Me@@	101
Pulvers	101
eingereichten	101
vier@@	101
Anschließend	101
Pipette	101
4,2	101
Replagal	101
Gesundheits@@	101
Telbivudin	101
201	101
fet@@	101
Gesichts@@	101
mm@@	101
durchschnittlichen	101
vorhandenen	101
6,0	101
Zy@@	101
Fi@@	101
Streptococcus	101
Fassung	101
Ausgangswerte	101
Hündinnen	100
Arava	100
macht	100
Hämoglobin@@	100
5000	100
ve@@	100
Abbau	100
123	100
Ohnmacht	100
Krämpfe	100
gu@@	100
oval	100
mel@@	100
Literatur	100
lediglich	100
207	100
203	100
bu@@	100
Kleinkindern	100
208	100
Pflasters	100
HIV-	100
Gewährleistung	100
In-vitro-@@	100
Bruxelles	100
gehalt	100
Aktivierung	100
LeukoScan	100
tabletten	100
positive	100
-Lösung	100
Wachstumshormon	100
Titer	100
Nicht@@	100
Yondelis	100
е@@	100
Herzerkrankung	100
Mitglieder	100
Methoxy-Polyethylenglycol-Epoetin	100
Ursachen	100
Preotact	100
pre@@	100
eingereicht	100
per	100
engmaschige	100
π@@	100
l.	100
Bl@@	100
Nadel@@	100
Ket@@	100
Seh@@	100
yp@@	100
hand@@	100
ome	100
Leberschädigung	100
MR@@	100
Informations@@	100
al-@@	100
Sicherheitsdaten	100
XERISTAR	100
nungen	100
Absorption	100
Scheinmedikament	100
Migräne	99
stoffen	99
80@@	99
Xyrem	99
1x1	99
wand	99
HBV-@@	99
205	99
odi@@	99
funktion@@	99
Harnwegsinfektionen	99
Fabrazyme	99
Rapilysin	99
Säugling	99
122	99
279	99
steigen	99
Simulect	99
121	99
Nierentransplantation	99
Laborwerte	99
Präparaten	99
Ovitrelle	99
lebensbedrohlichen	99
Konzentrations@@	99
hyper@@	99
AUC@@	99
CR	99
377	99
Unerwünschte	99
Aktualisierungen	99
24-@@	99
ton	99
Pemetrexed	99
thromb@@	99
Sicherheitspharmakologie	99
Teile	99
Vas@@	99
isch@@	99
Ph@@	99
tlichen	99
Purpura	99
6.1	99
234	99
basieren	99
INOmax	99
abhängigen	99
ern@@	99
Schritten	99
auftrat	99
Zeffix	99
bedingter	99
0,15	99
Tygacil	99
beachtet	99
va@@	99
Sekretion	99
HCV	99
Kinzalmono	99
genehmigten	99
jährlich	99
art@@	99
primärer	99
schnellen	99
Medicines	99
aktiv	99
tödlichem	98
maßnahmen	98
syndrom	98
enver@@	98
CT@@	98
1200	98
3,2	98
age	98
frei@@	98
ons	98
5,6	98
pH-Einstellung	98
Lo@@	98
Croscarmellose-Natrium	98
negative	98
sions@@	98
Zusammen@@	98
ef@@	98
Myozyme	98
ärer	98
blaue	98
Behandlungsschema	98
Caspofungin	98
zuerst	98
nachweisbar	98
Gerinnungs@@	98
Gefäßerkrankungen	98
Richtlinien	98
Ländern	98
verbesserte	98
Alendronat	98
unterschiedliche	98
MRT	98
erhält	98
LD@@	98
356	98
auszu@@	98
Ersatz@@	98
Zenapax	98
Baraclude	98
mg-	98
angeboten	98
ZYPADHERA	98
Ekzem	98
085	98
NeuroBloc	98
Industri@@	98
tz@@	98
Zeit@@	98
Mund@@	98
menschliche	98
tischer	98
Analysen	98
GSK	98
del	98
PL@@	97
dose	97
umfassen	97
Blutdruck@@	97
Apidra	97
krebs	97
Präklinische	97
gleichmäßig	97
Tocilizumab	97
ALIMTA	97
212	97
NSAIDs	97
Kapitel	97
ärztlicher	97
Metacam	97
Biograstim	97
vorher@@	97
Rei@@	97
geboren	97
gsk.com	97
t.	97
verbessern	97
fol@@	97
As@@	97
Sugammadex	97
STELARA	97
Weichkapseln	97
längeren	97
ulation	97
Gr@@	97
wirkendes	97
gingen	97
Ben@@	97
zy@@	97
Vorhandensein	97
Neben@@	97
aktuellen	97
Milliliter	97
Prozentsatz	97
körperlichen	97
Moxifloxacin	97
Konjunktivitis	97
mitgelieferten	97
Hand@@	97
sodass	97
Müttern	97
TachoSil	97
Formen	97
Lagerung	97
abgewogen	97
feline	97
Folgenden	97
Absatz	97
258	97
end@@	96
Trazec	96
Krebs@@	96
geraten	96
hydrochlorid	96
Mitte	96
Nachdem	96
BEURTEILUNG	96
Sachverständigen	96
-Clearance	96
markiertem	96
1,25	96
Monohydrat	96
Beschreibung	96
Man@@	96
10000	96
ction	96
Injektionsstellen	96
selben	96
hCG	96
Gleichzeitige	96
Pferde	96
Verdünnungsmittel	96
auftretenden	96
Träume	96
Menitorix	96
On@@	96
Einzelfälle	96
gesteigert	96
Spondylitis	96
Tevagrastim	96
Gesichts	96
Stämme	96
he@@	96
yn@@	96
UCB	96
enthaltene	96
erforderlichen	96
033	96
G-@@	96
ISENTRESS	96
einhergehen	96
OPTISON	96
FeLV	95
INVANZ	95
Krka	95
ausgelöst	95
be	95
behandlungs@@	95
Text	95
stieg	95
Mor@@	95
Impfdosis	95
PSUR	95
119	95
bestehender	95
Erst@@	95
Einmalgabe	95
opathie	95
Ibuprofen	95
Engegefühl	95
TRITACE	95
Schema	95
Plastik@@	95
5,7	95
gang	95
Je	95
230	95
ogene	95
pneumoniae	95
ia	95
ärztlichen	95
Avonex	95
Ungarn	95
Pla@@	95
um-@@	95
Endpunkte	95
täts@@	95
QUADRAMET	95
AU@@	95
350	95
Zulassungsantrags	95
dauern	95
Enfuvirtid	95
steigt	95
8,8	95
CANCIDAS	95
270	95
beschränkt	95
Ratiograstim	95
Dep@@	95
derjenigen	95
Magenschmerzen	95
welcher	95
276	95
Multi@@	94
lebensbedrohliche	94
Ferner	94
bel	94
xi@@	94
vereinbart	94
Vermeidung	94
dy@@	94
flaschen	94
KRKA	94
BEZEICHNUNGEN	94
Naglazyme	94
sh@@	94
enti@@	94
internationalen	94
IT-@@	94
Meldungen	94
laufenden	94
Risiko@@	94
gewicht	94
zugrunde	94
körper@@	94
3,7	94
dieselbe	94
oper@@	94
Vergrößerung	94
JANSSEN-CILAG	94
Aluminium-@@	94
kum	94
Nexavar	94
bewirken	94
q@@	94
Aldurazyme	94
Intravenöse	94
Xarelto	94
ergibt	94
Appetitverlust	94
ath@@	94
Spritzen@@	94
fortgeführt	94
Flüssigkeitsretention	94
ie-@@	94
ct@@	94
Anwender	94
Antazida	94
Insulinen	94
frühen	94
Activelle	94
Antihistaminika	94
cin@@	94
Tox@@	94
aktualisiert	93
Armen	93
neur@@	93
Dis@@	93
tungs@@	93
Hühnern	93
infektionen	93
Dokumente	93
Krankenschwester	93
Wirkungs@@	93
No	93
NovoFine	93
sis	93
035	93
18-@@	93
proportional	93
06.@@	93
Arrhythmien	93
gewonnen	93
allmählich	93
0,18	93
TABLETTEN	93
versehen	93
arbeitet	93
erscheint	93
,8	93
el-@@	93
EL	93
nt	93
V-@@	93
DaTSCAN	93
orp@@	93
Crohn	93
hindeuten	93
Arzneispezialitäten	93
Metforminhydrochlorid	93
Herzkrankheit	93
erfahren	93
,2	93
schwerwiegender	93
geringfügig	93
gewebes	93
Glycerol	93
zubereitet	93
Optisulin	93
Vigabatrin	93
Profender	93
gram@@	93
Heilung	93
nephr@@	93
höchsten	93
Belastung	93
Nierenprobleme	93
onal	93
aufsuchen	93
Laktation	93
schädigen	93
Osigraft	93
3A4	93
Gründe	93
464	93
volle	93
Grapefruitsaft	93
Kontrollen	92
Gel@@	92
Entzündungs@@	92
produ@@	92
pp@@	92
bakterielle	92
90Y	92
anpassen	92
Nr.	92
getroffen	92
Myelom	92
Augeninnendruck	92
99,@@	92
3,8	92
korrekte	92
9.@@	92
erh@@	92
NV	92
Cidofovir	92
6,2	92
Bei@@	92
47@@	92
Placebo-kontrollierten	92
Injektionsknopf	92
aktiv@@	92
Erweiterung	92
zahl	92
zustand	92
betroffen	92
01@@	92
Genzyme	92
Aspartam	92
055	92
ener	92
Competact	92
status	92
Montelukast	92
höherer	92
spülen	92
YENTREVE	92
vers@@	92
operativen	92
Tragen	92
erfahrenen	92
verabreichtem	92
Privigen	92
Berichterstatter	92
Ha@@	92
Equilis	92
Harnwege	92
CYP2C19	92
0,088	91
BR@@	91
SonoVue	91
Isolate	91
wertes	91
Escherichia	91
D3	91
zufolge	91
Ikterus	91
unzugänglich	91
Referenzmitgliedstaat	91
PT@@	91
188	91
schwäche	91
ba@@	91
influenzae	91
285	91
ppen	91
san@@	91
Syndroms	91
Brüssel	91
tierten	91
kri@@	91
humanem	91
133	91
Pyrexie	91
ea	91
ßen	91
Beide	91
Transparenz	91
sier@@	91
gkeit	91
vari@@	91
nte	91
320	91
ll@@	91
rekombinantem	91
geführt	91
eintritt	91
Nplate	91
angemessenen	91
1-er	91
Verfallsdatum	91
Blutgefäßen	91
Beitrag	91
zusammengefasst	91
Entstehung	91
137	91
Tierarzt	91
21.@@	91
ologischen	91
Programm	91
036	91
Dinatriumhydrogenphosphat	91
ona@@	91
Pi@@	91
4.1	91
Intrinsa	91
stabilen	91
5,8	91
Kopf	90
assoziierten	90
Steady-State	90
Prop@@	90
Ni@@	90
Durchschnitt	90
übertritt	90
Gadovist	90
niedrigem	90
Sc@@	90
lage	90
TRAVATAN	90
η	90
Phenylalanin	90
pharmakologische	90
San@@	90
Antiphlogistika	90
Ly@@	90
umfasste	90
195	90
Schw@@	90
vergleichbare	90
M.	90
Enzephalopathie	90
Fendrix	90
führ@@	90
Revatio	90
gewährleistet	90
unzerkaut	90
Nelarabin	90
Dokumentation	90
depressiven	90
produkte	90
anhaltenden	90
Glasflasche	90
kontrolle	90
virale	90
keinerlei	90
Neugeborene	90
VTE	90
Pipetten	90
nete	90
top@@	90
oide	90
Kreatinin	90
ET	90
gebrauchsfertigen	90
Rotigotin	90
Influenza-@@	90
M-M-RVAXPRO	90
Typen	90
amin	90
elles	90
LUMIGAN	90
schl@@	90
wo@@	90
karzinoms	90
mil@@	90
wirk@@	90
FERTIGSPRITZE	90
Früh@@	90
Mylan	90
Ei@@	90
Fach@@	90
unterschiedlich	90
ing@@	89
investigation	89
20x1	89
Fertig@@	89
Überlebenszeit	89
Faltschachteln	89
Herzens	89
Behälter	89
Evoltra	89
frühestens	89
Ε@@	89
0,35	89
Fort@@	89
war@@	89
p-Wert	89
ungspro@@	89
Thrombin	89
Anfang	89
ProMeris	89
Zarzio	89
Folgendes	89
stei@@	89
Dicural	89
Gliedmaßen	89
oll@@	89
Überdosis	89
ates	89
4,1	89
5-FU	89
Ak@@	89
Laropiprant	89
124	89
PCI	89
HINWEISE	89
abnormale	89
Injektionsspritzen	89
Livensa	89
selektiven	89
Einzeldosis-@@	89
Ter@@	89
zugelassene	89
anhaltende	89
Glucose	89
Plasmaproteinbindung	89
tigt	89
fach@@	89
Bortezomib	89
Exforge	89
gelegt	89
gelangt	89
ard	89
ase-	89
il	89
lebensbedrohlich	89
γ@@	89
fand	89
SARL	89
tel	89
ze	89
196	89
ure	89
anti-@@	89
Behandlungswochen	89
Sp.	89
4,7	89
Zucker	89
Hau@@	89
IS	89
Natriumoxybat	89
Ausführliche	89
LITAK	89
Lungenentzündung	89
Sehschärfe	89
Visudyne	89
Tumore	89
Infusionsgeschwindigkeit	89
empfindliche	89
µ@@	89
wesentlich	89
Ulcera	89
Sími	88
Ausschüsse	88
istische	88
schw@@	88
at-	88
Jedes	88
Po@@	88
Glubrava	88
mark@@	88
kardialen	88
Valproat	88
Corlentor	88
No@@	88
in-Dosis	88
Zyrtec	88
CYSTAGON	88
Halbwertzeit	88
Zusatztherapie	88
Fehl@@	88
Ag@@	88
ktions@@	88
mu@@	88
4,9	88
STAMARIL	88
49@@	88
test	88
zehn	88
Ambrisentan	88
Stellungnahme	88
Amphotericin	88
sprachen	88
chten	88
produktion	88
pulmonale	88
relative	88
Bevacizumab	88
CEPROTIN	88
1-2	88
Benzalkoniumchlorid	88
Avandamet	88
liegende	88
begleitet	88
Reizung	88
Feten	88
gend	88
Veranschlagt	88
ment	88
einzuleiten	88
Flatulenz	88
dete	88
Liter	88
akutem	88
reduzierten	88
Erythrozyten	88
ah@@	88
säur@@	88
Val@@	88
appliziert	88
with	88
Wahl	88
AVONEX	88
Blutzuckerspiegels	88
schließt	88
AUF@@	87
Bezeichnung	87
Rel@@	87
Sta@@	87
gewählt	87
sor@@	87
TOVIAZ	87
6,5	87
tt@@	87
biologischen	87
standen	87
ant	87
Geh@@	87
senkte	87
KOMPLETTE	87
0,5@@	87
günstig	87
Impfschema	87
stechen	87
peripherer	87
sel	87
Tigecyclin	87
laufende	87
LDL-@@	87
ungsmittel	87
NO@@	87
Schering	87
FOSAVANCE	87
far@@	87
6000	87
Fahrzeug	87
HepB	87
abgebaut	87
Hin@@	87
tiefe	87
Oseltamivir	87
405	87
vermittelten	87
Rücksprache	87
las@@	87
Por@@	87
Insulinaspart	87
Cyclophosphamid	87
Mycamine	87
EI@@	87
Cinacalcet	87
ator	87
Hist@@	87
sam@@	87
ischem	87
Zulassungsinhaber	87
Vaskulitis	87
Gelbfärbung	87
113	87
kardiovaskulärer	87
7.@@	87
beinhalten	87
sion@@	87
Macugen	87
Embry@@	87
weiß@@	87
einmaliger	87
Verfärbungen	87
Aldara	87
jünger	87
ox	87
entsprach	87
tions@@	86
Luveris	86
Grades	86
se-@@	86
therapeutischer	86
Tupfer	86
Tumor	86
Wilzin	86
schutz@@	86
ich@@	86
und@@	86
abnorme	86
infundiert	86
gebrauchsfertige	86
33@@	86
akutes	86
Magnesium@@	86
pepti@@	86
Verabschiedet	86
Schellack	86
weibliche	86
99@@	86
Rindern	86
Körpergewichts	86
Ziconotid	86
metaboli@@	86
Fluticasonpropionat	86
Beta-@@	86
tägigen	86
Gastrointestinaltrakt	86
separaten	86
Gluc@@	86
denjenigen	86
Hepsera	86
medianen	86
Ratte	86
4000	86
Rep@@	86
hr@@	86
Beobachtungs@@	86
HBeAg-@@	86
nungs@@	86
unterstützt	86
5,5	86
arzneimittel	86
mer	86
gener@@	86
arterielle	86
Probenecid	86
offiziellen	86
Herzklopfen	86
Bro@@	86
Parkinson	86
ferner	86
Zahlen	86
krankheiten	86
Placebo-@@	86
Nekrolyse	86
aureus	86
zierte	86
H5N1	86
gute	86
vermindertes	86
Cisaprid	86
genden	86
Untergruppe	86
He@@	86
we@@	86
komp@@	86
ativer	86
Expositionen	86
TE	86
Neutrophilenzahl	86
Procoralan	86
Mittelwert	86
о@@	85
House	85
max	85
oma	85
ödem	85
AD	85
dan@@	85
potenziellen	85
mikrokristalline	85
Circadin	85
Mutation	85
69@@	85
namens	85
Schritte	85
mus@@	85
gern	85
WISSENSCHAFTLICHEN	85
Koordinierung	85
mus	85
pharmakodynamischen	85
Systemorganklasse	85
Taubheit	85
NovoNorm	85
2009	85
Schwangere	85
Lungenerkrankung	85
bioäquivalent	85
postnatale	85
Kft	85
Personal@@	85
Kr@@	85
Brustkorb	85
-hydroxid-oxid	85
sy@@	85
Zahn@@	85
Natriumcitrat	85
sichergestellt	85
DNA-Technologie	85
schwarzer	85
ECALTA	85
Magen-Darm-@@	85
GE	85
PRO@@	85
Noxafil	85
Phasen	85
verzögerte	85
pH-Wert	85
lös@@	85
Nahrungsmittel	85
ut	85
hängen	85
Dysphagie	85
MERKMALE	85
Erythropo@@	85
-0,@@	85
Kosten	85
nen@@	85
40@@	85
SS	85
aufgeteilt	85
OPRYMEA	85
gelten	85
Tre@@	85
körper	85
Symptom@@	85
Prandin	85
65@@	85
-Werten	85
US	85
Cerezyme	85
geschwollene	85
§	85
fr@@	85
214	85
geöffnet	84
ANWENDER	84
CL@@	84
yc@@	84
gereinigtes	84
25-@@	84
wege	84
Stevens-Johnson-Syndrom	84
Regi@@	84
03@@	84
294	84
Lebensqualität	84
genannte	84
Rasagilin	84
versuchen	84
Advocate	84
Rivaroxaban	84
aufgetragen	84
verstärkten	84
stan@@	84
zunehmen	84
schaft	84
Universität	84
5.	84
213	84
6,6	84
La	84
13-@@	84
Aerinaze	84
Datenbank	84
Pl@@	84
-D@@	84
Levviax	84
erlaubt	84
Bewusstlosigkeit	84
Einhaltung	84
derartige	84
ologisch	84
fällen	84
Anträgen	84
TEVA	84
Milano	84
054	84
wirkenden	84
Paliperidon	84
Betablocker	84
Einzeldosis@@	84
Opioid-@@	84
erk@@	84
Wor@@	84
zentr@@	84
Antidot	84
stärke	84
Dass	84
Bronchospasmus	84
tliche	84
vas@@	84
verstoffwechselt	84
niemals	84
Situation	84
terminalen	84
Fibrose	84
412	84
88@@	84
Toxizitäten	84
ADVATE	84
Eingeschränkte	84
empfindlichkeit	84
Cimetidin	84
Nachkommen	84
pr@@	83
cs	83
stu@@	83
Gastroenteritis	83
Geschmacks@@	83
HIV-1-@@	83
Sonnen@@	83
Posaconazole	83
Orgalutran	83
ursprünglich	83
nahme	83
Pseudoephedrin	83
eben@@	83
maligne	83
wiederholten	83
034	83
Durst	83
220	83
up@@	83
resistente	83
benötigte	83
höchste	83
Angiox	83
natürliche	83
kur@@	83
nicht@@	83
Chinidin	83
Orion	83
BER@@	83
doppelblinde	83
Bivalirudin	83
Bar@@	83
60-@@	83
natürlichen	83
05@@	83
Krebspatienten	83
Induktoren	83
Proteinbindung	83
pra@@	83
Neurontin	83
Mitteln	83
präparate	83
wöchige	83
CP@@	83
ess@@	83
phase	83
enter	83
otoxische	83
Trastuzumab	83
neurologische	83
anzupassen	83
ο	82
5,3	82
erfolgreich	82
denken	82
Poly	82
Beenden	82
Insulinbedarf	82
Tel@@	82
vaskuläre	82
Fet@@	82
ers@@	82
Durchmesser	82
7,2	82
bislang	82
Indigocarmin	82
Inc	82
Paste	82
bewertung	82
fra@@	82
ca@@	82
able	82
Ster@@	82
plötzliche	82
Robenacoxib	82
hinreichend	82
ting	82
70@@	82
.01.@@	82
zytotoxischen	82
messen	82
Ferriprox	82
Antirheumatika	82
wiederholen	82
El@@	82
Patientenpopulation	82
NEVANAC	82
Grund@@	82
feste	82
erb@@	82
Etanercept	82
1.200	82
Pharmakovigilanzplan	82
Candidiasis	82
ami@@	82
Stechen	82
cep@@	82
gele@@	82
lauf@@	82
Vidaza	82
Lipodystrophie	82
ff@@	82
sekundäre	82
Firazyr	82
Zusätzliche	82
Natriumdihydrogenphosphat	82
BO@@	82
betroffene	82
multizentrischen	82
stiegen	82
Savene	82
Parecoxib	82
spezifischer	82
Enter@@	82
opath@@	82
abgegeben	82
ν	82
λ@@	81
Antigene	81
SI@@	81
www.@@	81
richtigen	81
Blutbild	81
arzneimittel@@	81
lau@@	81
Erschöpfung	81
Krampfanfällen	81
lat	81
Milz@@	81
kr@@	81
hepatischen	81
CYP3A	81
que	81
Saccharose	81
O-@@	81
221	81
Trinkwasser	81
Zusatz@@	81
aren	81
Legen	81
Verwirrung	81
Blutzuckerkontrolle	81
Industrial	81
044	81
TMZ	81
zende	81
Zwischen	81
ethyl@@	81
Drotrecogin	81
Ertapenem	81
sichtbare	81
MAH	81
Erythrozyten@@	81
multi@@	81
radi@@	81
Hormon@@	81
PO@@	81
körpereigenen	81
fe	81
systemisch	81
Tyverb	81
car@@	81
Knochenerkrankungen	81
Vorteil	81
berichtete	81
film	81
FORSTEO	81
invasiven	81
einher	81
Sicherheitssystem	81
Original@@	81
58@@	81
TRITAZIDE	81
sekundären	81
geänderten	81
FLASCHE	81
biologische	81
rech@@	81
Fort	81
Dodge	81
fer	81
Zyprexa	81
tu@@	81
Mod@@	81
plan@@	81
Geb@@	80
Wartezeit	80
Levitra	80
Ven@@	80
Luminity	80
annähernd	80
blin@@	80
EKG	80
ά@@	80
UR@@	80
Melphalan	80
Prednison	80
Anstiege	80
Quintanrix	80
stell@@	80
For@@	80
OptiClik	80
vermittelte	80
Folge@@	80
ktiv@@	80
druck@@	80
Johnson	80
Major	80
mb@@	80
Ljubljana	80
Etwa	80
mie	80
Prasugrel	80
Child-Pugh	80
sto@@	80
sin	80
Farb@@	80
5,1	80
Galle	80
Hu@@	80
pres@@	80
Kontrastmittel	80
Fentanyl-ratiopharm	80
ausscheidung	80
Methadon	80
ETIKETTIERUNG	80
antiretroviral	80
Bezüglich	80
kontinuierliche	80
off@@	80
Serumkonzentration	80
ZNS-@@	80
tablets	80
Avandia	80
d.o.o.	80
Otitis	80
Gadograf	80
Beteiligung	80
val@@	80
rDNA	80
Sin@@	80
laan	80
Tätigkeitsbericht	80
7.	80
dauerhaft	80
alters@@	80
rot	80
Langzeit-@@	80
merck.com	80
he	80
wechsel@@	80
Der@@	80
Einzelheiten	80
setzung	80
Vivanza	80
070	80
Dr.	80
μg	79
Ulzerationen	79
inhal@@	79
½	79
Bindegewebs-	79
Gelenken	79
dün@@	79
Sauerstoff@@	79
Sinusitis	79
ken@@	79
fortsetzen	79
benötigten	79
Ur@@	79
Proben	79
generell	79
hohes	79
pulmonalen	79
Feld@@	79
Kepivance	79
EVISTA	79
ersetzt	79
Agranulozytose	79
Nonafact	79
Finger	79
Verb@@	79
ber	79
Langzeitstudien	79
Bakterium	79
wies	79
schnelle	79
Halsschmerzen	79
prop@@	79
VISTIDE	79
RNA	79
warten	79
Zylinderampulle	79
162	79
mes	79
All@@	79
Suizidgedanken	79
vorzubeugen	79
Kreislauf	79
NL-@@	79
wäre	79
bikonvex	79
hom@@	79
dauert	79
Emselex	79
Toxizitäts@@	79
Amiodaron	79
Überlebensrate	79
KARTON	79
096	79
hervor@@	79
Zirrhose	79
gest@@	79
31.@@	79
schaf@@	79
Interaktion	79
Lösungsmittel@@	79
Thrombose	79
enzen	79
ς	79
tran@@	79
umfassten	79
SC	79
469	79
Jahres@@	79
IVEMEND	79
07.@@	79
ogenen	79
Brechen	79
ό@@	79
Trabectedin	79
land	78
EINER	78
Verhütungsmethode	78
170	78
Produkten	78
zw@@	78
epti@@	78
OPTRUMA	78
ella	78
4,3	78
Sol@@	78
Pharyngitis	78
Benutzen	78
Bor@@	78
202	78
Magen-	78
Antagonist	78
Gehirns	78
virologisches	78
nisse	78
Natriumdodecylsulfat	78
Bereitstellung	78
entan@@	78
hepatische	78
Monats	78
beraten	78
Agopton	78
zierten	78
Ressourcen	78
Pharmakovigilanzsystem	78
Ebenso	78
amp@@	78
-Tabletten	78
dert	78
Stoffwechsel-	78
Bis	78
5-Fluorouracil	78
Hydroxycarbamid	78
FA@@	78
lip@@	78
-Spiegel	78
induzieren	78
ß	78
Hypokalzämie	78
147	78
Canary	78
straße	78
dung	78
ANC	78
erniedrigte	78
Organen	78
emea.eu.int	78
................................................................@@	78
Carb@@	78
-W@@	78
6,1	78
anderem	78
5mg	78
info	78
-1	78
Brinzolamid	78
reversible	78
erter	78
abhängige	78
entsprechender	78
erwachsene	78
DK-2@@	78
neu@@	78
Zoledronsäure	78
pädiatrische	78
Zi@@	78
cher	78
431	77
Germany	77
sive	77
Haut-	77
omer	77
ukle@@	77
oms	77
pla@@	77
verworfen	77
Hellas	77
Meningitis	77
zin	77
Transaminasen	77
monatigen	77
Group	77
VIAGRA	77
stoffs	77
fanden	77
19.@@	77
OX@@	77
ganzen	77
schluss	77
Zer@@	77
methyl@@	77
erlitten	77
veröffentlichten	77
Lan@@	77
tierexperimentellen	77
Toxizitätsstudien	77
enn@@	77
Ges@@	77
Herzen	77
CA@@	77
transdermalen	77
blieben	77
319	77
organ@@	77
301	77
ATryn	77
Augenerkrankungen	77
Serono	77
155	77
kol@@	77
Oberteil	77
Wharf	77
erworbene	77
Blutergüsse	77
folie	77
oxid	77
Bericht	77
dien@@	77
derzeitigen	77
infe@@	77
Mittlere	77
weshalb	77
Bexaroten	77
bisherigen	77
Pir@@	77
Vorhofflimmern	77
Straßenverkehr	77
herabgesetzt	77
Intervet	77
beibehalten	77
Enzym@@	77
369	77
Normalisierung	77
Ü@@	76
erklären	76
Erstellung	76
bessere	76
Products	76
CH	76
Hertfordshire	76
Insulinglulisin	76
eingeführt	76
Avaglim	76
5,9	76
neten	76
Parästhesien	76
mess@@	76
136	76
schmerzhafte	76
09@@	76
Kinder@@	76
exposition	76
Cyanokit	76
Hühner	76
medizinischer	76
Phosphat@@	76
Rauchen	76
Ultratard	76
isation	76
embry@@	76
dosisabhängige	76
Bioäquivalenz	76
Dichte	76
gemacht	76
Selbst@@	76
übermäßige	76
SCH@@	76
Adjuvans	76
ost@@	76
Fahrzeugs	76
Schiedsverfahren	76
tigten	76
Mikroorganismen	76
verstopfte	76
auswirken	76
ADENURIC	76
wichtigen	76
schäden	76
handelte	76
Angesichts	76
denden	76
chronisch	76
Beseitigung	76
Tageszeit	76
wenigen	76
Fötus	76
Pimozid	76
patienten	76
bili@@	76
LL@@	76
atischer	76
Toxin	76
anhalten	76
entsprachen	76
Index	76
Squibb	76
untersuchte	76
analyse	76
460	76
8,3	76
Skelettmuskulatur-	76
Onsenal	76
Da@@	76
Ober@@	76
wiegen	76
Cyclosporin	76
Zustände	76
Omeprazol	76
waschen	76
ze@@	76
Applikations@@	75
Verletzung	75
resistenten	75
ct	75
Ob@@	75
Jucken	75
diert	75
233	75
Temsirolimus	75
legt	75
♦	75
dosierung	75
ZIMULTI	75
zentrale	75
Blasen@@	75
08.@@	75
deten	75
Produkts	75
dur@@	75
8,0	75
drin@@	75
toler@@	75
Organe	75
Enbrel@@	75
Gliolan	75
tests	75
idiopathischer	75
Natur	75
inneren	75
Langzeittherapie	75
rekonstituiert	75
War@@	75
Induktor	75
schaften	75
brauchen	75
ss	75
verordnen	75
Ris@@	75
Druckknopf	75
gedrückt	75
Radi@@	75
IDflu	75
gra@@	75
Zugehörigkeit	75
unregelmäßiger	75
vorgeschlagene	75
Steuer	75
Ap@@	75
selektiver	75
Baby	75
Schlussfolgerungen	75
Originalverpackung	75
Markt	75
epidermale	75
ausgeprägten	75
benutzt	75
vorgesehenen	75
Füße	75
Typs	75
neurologischen	75
AZOPT	75
opti@@	75
Vaniqa	75
erenden	75
Dosiserhöhung	75
Palpitationen	75
Guidance	75
vierten	75
Plan	75
spr@@	75
Produtos	75
hormon@@	75
Diabetikern	75
Res@@	75
η@@	75
farbene	75
Fasturtec	75
6,8	75
Elaprase	75
Pflegepersonal	75
Comtan	75
auen	75
vorlegen	75
rück@@	75
Zucker@@	75
Penta	75
GEN@@	75
alkalische	75
HY@@	75
Kl@@	75
069	75
465	75
Magens	75
co	74
teratogene	74
strasse	74
pharmakodynamische	74
einmalige	74
nM	74
Begründung	74
aria	74
Manie	74
liefern	74
produzieren	74
EINEM	74
ARTIKEL	74
Uhrzeigersinn	74
eingehalten	74
Gehirn@@	74
Bolusinjektion	74
NRTIs	74
ile	74
atin@@	74
15.@@	74
Blasenbildung	74
uren	74
HBV-DNA	74
mar@@	74
überein	74
8,5	74
Nebenwirkungsprofil	74
orales	74
Teilnahme	74
kurz@@	74
tigte	74
darstellt	74
Hypo@@	74
Hyperkalzämie	74
präparat	74
Kombinationsbehandlung	74
89@@	74
ted	74
einsch@@	74
stammen	74
behandelnde	74
Einsetzen	74
entsteht	74
Febuxostat	74
humane	74
IL-2	74
Wirkungsweise	74
adsorbiert	74
iertem	74
Hormons	74
verschlimmern	74
Hi@@	74
5,2	74
Chlor@@	74
Schütteln	74
eingeprägt	74
Brombutyl@@	74
Expositions@@	74
OC@@	74
ι	74
Impfstoff@@	74
Republik	74
bekanntermaßen	74
neues	74
Pri@@	74
mitteln	74
245	74
Anidulafungin	74
entstehen	74
stehend	74
Produktinformation	74
-Durchstechflasche	74
cht@@	74
medi@@	74
ler	74
.-@@	74
visuell	74
Cytarabin	74
Kol@@	74
spezi@@	74
s.c.	74
Tolcapon	74
Hyp@@	74
VELOTAB	74
sexuellen	74
Interferon-@@	74
Ablauf	74
Spontan@@	74
Ibaflin	74
Biotechnologie	73
teilnehmen	73
Fo@@	73
Analogon	73
×	73
mut@@	73
PEN	73
hydroxy@@	73
Rachen	73
do	73
det	73
Schachtel	73
Ι@@	73
HP@@	73
ungsphase	73
überlegen	73
So	73
zieren	73
aufgefordert	73
ner	73
Metformin@@	73
niedrigste	73
amid	73
ron@@	73
diabetischer	73
UNGEN	73
mikro@@	73
BOX	73
Pilzinfektion	73
dagegen	73
Kentera	73
typ	73
Differenz	73
rheumatoiden	73
gh@@	73
Bel@@	73
14-@@	73
operation	73
ität	73
poly@@	73
siertes	73
Antworten	73
HbA1c	73
Aufstehen	73
Pharmakodynamische	73
166	73
Sy@@	73
schädigung	73
umfasst	73
Tatsache	73
Mel@@	73
410	73
Resistenzen	73
Fluor@@	73
Nimesulid	73
Anfangs@@	73
übertragen	73
GUTACHTEN	73
Exazerbationen	73
Drittel	73
Gesamtzahl	73
CPMP-@@	73
Standard-@@	73
EV@@	73
Erektion	73
www.emea.eu.int	73
asi@@	73
Ren@@	73
Blister@@	73
pf@@	73
genug	73
ACT	73
Wirbelsäule	73
al-	73
wöchentlichen	73
Abwägung	73
teratogen	73
Xagrid	73
ary	73
nden	73
fett@@	73
enh@@	73
ell-@@	73
9,4	73
Blutwerte	73
Aden@@	73
ø@@	73
Zubereitungen	73
Synagis	73
seinem	73
vorübergehender	72
FL@@	72
tigem	72
Pan@@	72
gastro@@	72
schließlich	72
Anbetracht	72
Stra@@	72
300@@	72
neben	72
Mess@@	72
vorzunehmen	72
lebens@@	72
Kontamination	72
Atriance	72
Prialt	72
Aufmerksamkeit	72
gefähr@@	72
bar@@	72
phosphat	72
mol	72
com@@	72
beinhaltet	72
ösen	72
normalem	72
otoxizität	72
Insuffizienz	72
Hoch@@	72
CI@@	72
.06.@@	72
227	72
CA	72
Erkenntnisse	72
Umgebung	72
satz	72
Eierstöcke	72
jeglicher	72
Lungenembolie	72
Budapest	72
7,9	72
versehentliche	72
Zink@@	72
Tritanrix	72
sichtbar	72
Porcilis	72
Menopause	72
.09.@@	72
39@@	72
LYRICA	72
Verwaltungsrates	72
Trimethoprim	72
Mukositis	72
µM	72
stimuliert	72
bedruckt	72
gesetzt	72
bo@@	72
Implantation	72
bt	72
bro@@	72
yl-@@	72
VI@@	72
korrekt	72
Erarbeitung	72
stes	72
Peri@@	72
Eindruck	72
gelbliche	72
fehl@@	72
Geschlechtsverkehr	72
...	72
Beine	72
Interessengruppen	72
Hyperlipidämie	72
voll@@	72
ex	72
Arzneimittel-Agentur	72
us-	72
Allgemeiner	72
sorgfältiger	72
ti	72
intensi@@	72
Darreichungsformen	72
invasiver	72
tose	72
NA@@	72
Behandelte	72
uläre	72
kurzen	72
Technik	72
Lovastatin	72
Funktionsstörungen	72
Eisai	72
Dystonie	72
berichte	71
irgendeinem	71
Einzelfällen	71
schutz	71
Katze	71
ig	71
Colitis	71
Intra@@	71
Du@@	71
systemen	71
Partikeln	71
Vorbehandlung	71
45-@@	71
linear	71
stimmen	71
fan@@	71
Sa@@	71
sol@@	71
6,3	71
arm	71
anom@@	71
Fu@@	71
sat@@	71
Astellas	71
Ulzera	71
rt@@	71
Pal@@	71
verschlimmert	71
ks@@	71
Monotard	71
mini@@	71
535	71
ACOMPLIA	71
spitze	71
unterscheiden	71
C.@@	71
Mirtazapin	71
Ernährungsstörungen	71
lit@@	71
Normal@@	71
8,6	71
Dokumenten	71
betreffenden	71
vorbehandelte	71
zutreffend	71
ig@@	71
chlor@@	71
KO@@	71
Einrichtung	71
schützt	71
Synthese	71
pen	71
Allergien	71
Überdosierungen	71
Substrate	71
Triatec	71
Hydro@@	71
relevanter	71
geh@@	71
Pr@@	71
str	71
zeitraum	71
selektive	71
E14	71
AR	71
Wachstumshormonmangel	71
Es@@	71
Anagrelid	71
Des	71
Immunsuppression	71
9,0	71
Wiederauftreten	71
kurze	71
TIER@@	71
Entsprechend	71
Statin	71
blutdrucksenkenden	71
schwellung	71
ventrikuläre	71
Metacresol	71
entscheidet	71
Optaflu	71
menschlichem	71
Bristol-Myers	71
Wei@@	71
versiegelt	71
Butyl@@	71
Rest@@	71
geschätzt	71
Fü@@	71
AMMONAPS	71
Gastritis	71
Orfadin	71
einfrieren	71
Infusionsstelle	71
laktierenden	71
PET	71
ω@@	70
MBq	70
extra@@	70
Ste@@	70
PI	70
Verbesserungen	70
Blut-	70
BEZEICHNUNG	70
VERFAHREN	70
Ranolazin	70
gelangen	70
Tube	70
my@@	70
Insbesondere	70
sierende	70
ktion@@	70
Oste@@	70
04.@@	70
Schwer@@	70
Farbe	70
gegenwärtig	70
WINTHROP	70
erweiter@@	70
Bereichen	70
äumen	70
é	70
mesto	70
Ultraschall@@	70
Research	70
sofortige	70
produkten	70
förmige	70
Lamivudin-@@	70
tion@@	70
soweit	70
ausgenommen	70
zwe@@	70
Way	70
Stoffe	70
Vorschriften	70
Krankheitsgefühl	70
schleimhaut	70
CM@@	70
Partner	70
Teilchen	70
langfristige	70
Sciences	70
veran@@	70
tetes	70
Micafungin	70
g.	70
NeoSpect	70
Lupus	70
AZARGA	70
orthostatische	70
Glucose-@@	70
entzündliche	70
Biologicals	70
wiederholte	70
seines	70
han@@	70
vollen	70
Antimykotika	70
Krebszellen	70
pharmazeutischen	70
sensi@@	70
tmax	70
tigkeit	70
Eudra@@	70
Ka@@	70
freiem	70
Pertussis	70
gepoolten	70
Pegfilgrastim	70
tgl	70
arme	70
LH	70
Teratogenität	70
TS@@	70
onat	70
Morgen	70
direkten	70
Bein@@	70
Sauerstoff	70
Clinical	69
hyp@@	69
Geschwüre	69
Medikation	69
beta-1a	69
virus@@	69
Bilirubin@@	69
erer	69
Tieres	69
UT@@	69
bestanden	69
vorgefüllter	69
höchstens	69
au	69
RELISTOR	69
Blistern	69
Calcitonin	69
Panzytopenie	69
ó@@	69
te-@@	69
INTEGRILIN	69
Gummi@@	69
c-@@	69
Sexual@@	69
Hyponatriämie	69
indu@@	69
MRL	69
Schilddrüse	69
ris@@	69
-Studien	69
Verhaltens@@	69
also	69
verschlechtern	69
Eingriffe	69
unklar	69
Leukozyten	69
thromboembolische	69
Tages	69
wesentlichen	69
AST@@	69
krank@@	69
Hüfte	69
abgeklungen	69
Clostridium	69
HR@@	69
199@@	69
Mammakarzinom	69
Company	69
klasse	69
Foscan	69
Gilead	69
spielt	69
charakterisiert	69
begleitende	69
Comtess	69
produkt	69
st-@@	69
Westferry	69
Circus	69
Bra@@	69
Talspiegel	69
Trocken@@	69
AstraZeneca	69
Titel	69
kleiner	69
kam@@	69
Tinnitus	69
Kontrast@@	69
besitzen	69
Methyl@@	69
jahr	69
agen	69
star@@	69
Fran@@	69
Aspirin	69
Pen@@	69
alfa-2a	69
vermehrter	69
RILUTEK	69
hinweg	69
späteren	69
kat@@	69
fil@@	69
Infusionsrate	69
versehentlicher	69
ech@@	69
gen-@@	69
wen@@	69
erneute	69
Yttriga	69
omat@@	69
blas@@	69
stärkere	69
Frei@@	69
1500	69
Ulcus	69
Fluticasone	69
zusätzlicher	68
Insulindosis	68
GR@@	68
Schwangerschaften	68
Abweichungen	68
Tmax	68
Pe@@	68
mittelschwer	68
typ@@	68
Ab	68
Kontaktlinsen	68
ktive	68
verfügt	68
sten@@	68
Busulfan	68
Fareston	68
höheres	68
Human-	68
verabreichte	68
Mitotan	68
Sofern	68
Gelborange	68
Flüssigkeitsansammlung	68
Skala	68
211	68
Fosaprepitant	68
Lichtempfindlichkeit	68
anaphylaktoide	68
MT@@	68
komplette	68
bakteri@@	68
8,4	68
binden	68
tl@@	68
Vorsitzender	68
kleben	68
70-@@	68
ulärer	68
direkter	68
angesichts	68
Mo@@	68
Bluttests	68
ett@@	68
UL@@	68
Gerinn@@	68
Substitutionstherapie	68
effektive	68
Schutzwirkung	68
äußeren	68
и@@	68
Lact@@	68
177	68
δ@@	68
Au@@	68
6.3	68
cin	68
asp@@	68
Reconcile	68
Com@@	68
schlossen	68
spezifisches	68
Parkinson-@@	68
technische	68
avir@@	68
Geschwindigkeit	68
amin-@@	68
Basi@@	68
omp@@	68
Ra@@	68
Ovarien	68
Spuren	68
l-@@	68
enes	68
-Test	68
ös@@	68
ations	68
Lymphom	68
Crospovidon	68
Behandlungsgruppe	68
Anakinra	68
Komp@@	68
arin@@	68
appli@@	68
wi@@	68
Serokonversion	68
Azacitidin	68
setzte	68
lungs@@	68
antihypertensive	68
orthopädischen	68
heraus@@	68
Cor@@	68
Klare	68
Kalzium	68
gter	68
Oberarm	68
Erholung	68
kombinierter	68
-1@@	68
management	68
insulin@@	68
langsame	68
Hochdisperses	68
ack@@	67
Mehrheit	67
schmerz	67
chte	67
Flebogammadif	67
Su@@	67
multiplem	67
0,45	67
tan@@	67
con	67
ding	67
lösen	67
ein-	67
153	67
Aloxi	67
se-	67
Std.	67
PI@@	67
fläche	67
Ph	67
ständi@@	67
Lysodren	67
zel@@	67
38@@	67
CR@@	67
kräftig	67
tende	67
Salmeterol	67
Nähe	67
flu@@	67
potentiell	67
sist@@	67
167	67
INR	67
VICH	67
34@@	67
topischer	67
welchen	67
Waschen	67
spontan	67
Laboruntersuchungen	67
Phase-III-Studien	67
Weg	67
ust@@	67
unterliegt	67
Formulierungen	67
BE	67
µl	67
182	67
sig@@	67
Inhalations@@	67
hinweist	67
ante	67
nten	67
Brustraums	67
Mediastinums	67
Knochenmarktransplantation	67
Triglyceride	67
aufgeklärt	67
oplas@@	67
bef@@	67
Langzeitanwendung	67
gegebenen	67
breiten	67
AX@@	67
Blutarmut	67
F-9@@	67
tika	67
Faslodex	67
LÖSUNGSMITTEL	67
ungsprogramm	67
Farmacêuticos	67
Ustekinumab	67
u.	67
vertrat	67
Bearbeitung	67
HA@@	67
Steady-State-@@	67
Geben	67
Vol@@	67
r-@@	67
gebrauchte	67
Östrogen@@	67
dri@@	67
Hypertrophie	67
Anschrift	67
At@@	67
Einmal@@	67
kap@@	67
Lu@@	67
agen@@	67
Cytochrom-P450-@@	67
artigen	67
beabsichtigen	67
AVANDAMET	67
verschoben	67
Koronar@@	67
alter	67
1.8.1	67
Bluterguss	67
sionen	67
lin-@@	66
UNGS@@	66
kontinuierlichen	66
Implantat	66
Geweben	66
innere	66
OPATANOL	66
plazebokontrollierten	66
faktor	66
Leberzirrhose	66
Biotransformation	66
Antwort	66
bedarf	66
Kaliumspiegel	66
fu@@	66
Zwischen@@	66
SIA	66
ften	66
NACHGANG	66
GEMÄSS	66
can@@	66
Daptomycin	66
Transfer@@	66
bit@@	66
-Mangel	66
b-	66
9,6	66
Gehen	66
nde	66
depot	66
Leberwerte	66
6,4	66
Funktionen	66
funktionsfähig	66
ämischen	66
Speiseröhre	66
rau@@	66
wor@@	66
Effe@@	66
transplantierten	66
Schluckbeschwerden	66
wider@@	66
reg@@	66
wa@@	66
Libido	66
NS@@	66
dieselben	66
а@@	66
anaphylaktischer	66
funktioniert	66
Kreuz@@	66
chemischen	66
56@@	66
Interaktionsstudien	66
EXP	66
IA	66
Π@@	66
Refludan	66
Glykoprotein	66
NRTI	66
CD4-@@	66
a.	66
virologischen	66
minimieren	66
arterieller	66
Sul@@	66
Pharmaceutical	66
einstellen	66
Nateglinid	66
nachweislich	66
dra@@	66
Schul@@	66
tödlichen	66
Auto	66
Narkose	66
045	66
11@@	66
mehrerer	66
Netzhaut@@	66
Fer@@	66
09.@@	66
zeta	66
halb@@	66
verstärkter	66
Aufschrift	66
Velosulin	66
Humanarzneimitteln	66
Nagel@@	66
7,0	66
cor@@	66
6.2	66
Faeces	66
AIDS-@@	66
veröffentlicht	66
Gluko@@	66
Drei@@	66
Gaben	66
Kap@@	66
Damit	66
‚	66
geplant	66
Schwangerschafts@@	66
Tumorzellen	66
Lasofoxifen	66
wollen	66
anhaltender	66
Rezeptor-@@	66
geachtet	66
vermischt	66
090	66
ratsam	65
ismus	65
Ataxie	65
Kombinations@@	65
363	65
Tumors	65
LO@@	65
Suizid@@	65
Sorafenib	65
Cholestase	65
übergewichtigen	65
ersetzen	65
nas@@	65
erg@@	65
ausgeprägte	65
einzige	65
funktionen	65
Hazard	65
minimale	65
fehlende	65
02.@@	65
Ho@@	65
327	65
Basiliximab	65
Schl@@	65
mpf@@	65
ovariellen	65
Oberflächenantigen	65
Sekretariat	65
Mineral@@	65
d.d.	65
Dosissteigerung	65
nahm@@	65
Daumen	65
Aminosäuren	65
Abstoßung	65
metastasierten	65
Leberenzymwerte	65
Voll@@	65
festgelegten	65
Dehydratation	65
entzündungen	65
Gemeinschaft	65
Beeinflussung	65
tionen	65
ermöglichen	65
vorangegangene	65
thrombotische	65
ähnliches	65
laufen	65
plötzlichen	65
Interaktionen	65
BEGRÜNDUNG	65
löst	65
i.@@	65
Agency	65
co-@@	65
stests	65
Gaucher-Krankheit	65
Degarelix	65
einnimmt	65
Insulintherapie	65
Krebserkrankung	65
Nadelschutzkappe	65
Wider@@	65
Mögliche	65
Cerenia	65
systeme	65
................................@@	65
oid@@	65
Teл	65
Zaleplon	65
8,7	65
Praha	65
Glasart	65
zunehmende	65
injizier@@	65
....	65
176	65
aden@@	65
Deckung	65
Rachen@@	65
mittlerer	65
Einnahmen	65
Infe@@	65
ARCOXIA	65
am-@@	65
457	65
ra	65
ology	65
musk@@	65
Hepatitis-B-	65
unver@@	65
hepato@@	65
ance	65
2-3	65
Kreatinin@@	65
tumoren	65
interstitielle	65
ated	65
Chin@@	64
fel@@	64
Pumpe	64
lungen	64
Lebensjahr	64
B-	64
0.5	64
9,7	64
atoren	64
invasive	64
omi@@	64
Einschränkungen	64
Warszawa	64
ologisches	64
Venen	64
tin-@@	64
Rufinamid	64
Dopamin	64
og	64
ae	64
24.@@	64
KIOVIG	64
bereiten	64
PDE@@	64
vermögen	64
behälter	64
Blutzuckers	64
jetzt	64
ner@@	64
Standardtherapie	64
organe	64
bio@@	64
Benutzung	64
ver-	64
gefüllt	64
verschwinden	64
abl@@	64
Selbstmordgedanken	64
Phase-@@	64
flüssigkeit	64
schaden	64
ergebnisse	64
145	64
!	64
West	64
otischen	64
Erörterung	64
ertem	64
1,73	64
auszuschließen	64
NVR	64
Kreatinin-	64
auer	64
C-	64
Bridion	64
407	64
kons@@	64
Autoimmun@@	64
Marker	64
156	64
de-@@	64
4HB	64
Te	64
wöchentliche	64
Ischämie	64
Weiteren	64
Gicht	64
ou	64
Fall@@	64
BP@@	64
Harndrang	64
Theophyllin	64
HPV	64
Scores	64
Injektoren	64
Astemizol	64
Risikomanagement@@	64
neun	64
carb@@	64
EIN@@	64
-S@@	64
nochmals	64
yli@@	64
aufgezogen	64
Wachstums@@	64
Morbidität	64
verlängerten	64
vorzulegen	64
MA	64
µmol	64
kul@@	64
Beuteln	64
Kardiomyopathie	64
Chargenfreigabe	64
dunkel@@	64
neutralisierende	64
Schwankungen	64
Imp@@	64
Alzheimer-Demenz	64
transplantation	64
Termin@@	64
Metalyse	64
TESLASCAN	64
fü@@	64
Annahme	64
bares	64
Scheinbehandlung	64
Aspekte	63
verhalten	63
tenden	63
Revision	63
Wirbel@@	63
041	63
Steady-state	63
163	63
führung	63
Festlegung	63
empf@@	63
Skelett@@	63
rechtfertigt	63
halbe	63
Pimecrolimus	63
protein	63
ermitteln	63
separate	63
Angi@@	63
Neigung	63
oiden	63
schädlich	63
tierte	63
opportunistische	63
Indi@@	63
Gewichts@@	63
Kreuzresistenz	63
vergleichbaren	63
406	63
VIRBAC	63
mehr@@	63
zur@@	63
Vareniclin	63
Diltiazem	63
Leberfunktionstests	63
Testosteron	63
Medizin@@	63
pe	63
wachstum	63
Prepandrix	63
entwickelte	63
Omalizumab	63
beantragte	63
gerich@@	63
anspricht	63
Angiotensin-@@	63
Gesamtüberleben	63
Ersatz	63
Polen	63
Tyrol	63
Antrags@@	63
Lebertransplantation	63
PP	63
Nukleosidanaloga	63
Feuchtigkeit	63
Prothrombinzeit	63
Tal@@	63
Harnsäure	63
Hämaturie	63
1.8.2	63
Fremd@@	63
Belastungs@@	63
path@@	63
Produ@@	63
n.@@	63
WHO	63
langen	63
CV	63
8,9	63
dringend	63
verschluss	63
ML	63
senkende	63
Mal@@	63
Lungen	63
neutrophilen	63
etische	63
Protamin	63
ien	63
zieh@@	63
Körpergröße	63
AZILECT	63
BI@@	63
Natriumchlorid-Lösung	63
1250	63
behandlungen	63
MTX	63
versagen	63
Kopfschmerz	63
irgend@@	63
Interesse	63
Lyrica	63
Arbeiten	63
orange	63
erneuten	63
ί@@	62
ā	62
Je@@	62
DURCHSTECHFLASCHEN	62
vis@@	62
comp@@	62
Rin@@	62
IX@@	62
→	62
Muskel-	62
Island	62
AND@@	62
adäquate	62
Blutzucker@@	62
bereit@@	62
QT-@@	62
Klinisch	62
wasser@@	62
teri@@	62
therap@@	62
verabschiedet	62
E110	62
Lutropin	62
Pasteurella	62
Spiegels	62
eng	62
natürlich	62
unbehandelten	62
Fruchtbarkeit	62
weisung	62
Leben@@	62
Hepatitis-B-Virus	62
SL@@	62
rep@@	62
fieb@@	62
Schlussfolgerung	62
Leberentzündung	62
Entwicklungs@@	62
Et@@	62
057	62
pflanzliche	62
Rosuvastatin	62
pl@@	62
intramuskulärer	62
UB@@	62
Rua	62
Daronrix	62
Rest	62
erende	62
ziert	62
REGRANEX	62
Riluzol	62
Gehalt	62
Werkzeuge	62
vorbestehenden	62
Bicalutamid	62
Knochenschmerzen	62
Anwendungen	62
psychiatrischen	62
virologische	62
sa	62
Geburts@@	62
mittelgradiger	62
TER	62
le-@@	62
Hüft@@	62
PML	62
Tropfinfusion	62
anstieg	62
Veröffentlichungen	62
zeu@@	62
sonst	62
ausgeprägter	62
⋅	62
0,6@@	62
zei@@	62
tubuläre	62
Travoprost	62
Statinen	62
Angstzustände	62
Revasc	62
ün@@	62
inhalativen	62
Programms	62
GR-@@	62
Janssen-Cilag	62
partielle	62
Zentr@@	62
multizentrische	62
Bestandteils	62
Nierenfunktionseinschränkung	62
AE	62
,000	62
In-@@	62
4.9	62
aufgetretenen	62
Rückseite	62
New	62
Dosierspritze	62
06@@	62
Höhe	62
Ebene	62
Ovarial@@	62
Hitzegefühl	62
konjug@@	62
bezogenen	62
hierzu	62
Kan@@	62
gerät	62
allgemeines	62
Dysgeusie	62
compresse	62
instabiler	62
kulären	62
Cephalon	62
Leiterin	62
Gemzar	62
Bimatoprost	61
hab@@	61
ue	61
Points	61
Dosierungsempfehlung	61
skala	61
Rückstands@@	61
Gastrointestinale	61
na	61
kontrollierter	61
unzureichende	61
χ@@	61
ZNS	61
druck	61
.05.@@	61
Reaktions@@	61
Dosis-@@	61
asehemmer	61
Eosinophilie	61
pri@@	61
Av@@	61
raum	61
ansteigt	61
VIII-@@	61
Sevofluran	61
288	61
ford	61
Nutzens	61
Themen	61
Beachten	61
inn@@	61
beginnend	61
Q	61
akzeptabel	61
Komplikation	61
Tenecteplase	61
gereinigt	61
050	61
schützende	61
ogenes	61
Panitumumab	61
TW@@	61
Berichten	61
316	61
dex@@	61
Arzneimittelwechselwirkungen	61
geringerem	61
aut	61
Alters	61
voraussichtlich	61
Kolitis	61
Kreislauf@@	61
Tinte	61
Leistungs@@	61
Typ-@@	61
gän@@	61
87@@	61
158	61
notwendigen	61
fass@@	61
öl@@	61
innen	61
sit@@	61
MRLs	61
seltener	61
190	61
mern	61
SCHLUSSFOLGERUNGEN	61
leidet	61
VASOVIST	61
0,9@@	61
mechanismus	61
bericht	61
Alpha-@@	61
Hep@@	61
Fluticasonfuroat	61
herabsetzen	61
verdünnte	61
kontaktieren	61
vorbestehender	61
Augenschmerzen	61
Seife	61
sul@@	61
IG@@	61
nachfolgende	61
monoklonaler	61
Angiotensin-II-@@	61
rat	61
Corporation	61
Serotonin-@@	61
last	61
EVICEL	61
G-CSF	61
Sor@@	61
insuffizienz	61
Abgeschlagenheit	61
Intervall	61
092	61
Mini@@	61
sia	61
kontinuierlich	61
freigesetzt	61
poten@@	61
366	61
Kabi	61
leitung	61
Stimmungs@@	61
ins@@	61
Lymph@@	61
ITT	61
Men@@	61
ycin	61
Slowenien	61
stabiler	61
respiratorische	61
viralen	61
künst@@	61
Gedanken	61
Bestätigung	61
AbZ	61
dende	61
Erleichterung	61
8,2	61
jegliche	61
sucht	61
gemeinsamen	61
ischämische	60
entschieden	60
CE	60
Fre@@	60
pa@@	60
10x	60
einheitlich	60
Arthr@@	60
Iloprost	60
13.@@	60
plat@@	60
ge-	60
MYLAN	60
nationaler	60
Dan@@	60
82@@	60
Leberprobleme	60
Antrags	60
Prograf	60
monatlichen	60
cer@@	60
enan@@	60
re	60
ane	60
Eiweiß@@	60
medizinisch	60
Wechselwirkungsstudien	60
Peritonealdialyse	60
ks	60
dex	60
hex@@	60
SR@@	60
Gew@@	60
Stoffwechsel	60
einzeln	60
Problem	60
dem@@	60
breite	60
Nierenerkrankungen	60
Rückfall	60
p.	60
eher	60
Mio.E.	60
Diskussion	60
medikation	60
Untersuchungs@@	60
usw.	60
Statine	60
Applikationsstelle	60
001-@@	60
trä@@	60
tlicher	60
rel@@	60
sogenannten	60
rezeptoren	60
ozy@@	60
TNF-@@	60
LE	60
rop@@	60
ckt	60
Targretin	60
Muskulatur	60
schicht	60
Randomisierung	60
425	60
parenteralen	60
rechnen	60
bietet	60
Optimark	60
Agalsidase	60
vorkommen	60
Corticosteroiden	60
zerebrovaskuläre	60
sexuelle	60
Col@@	60
obere	60
Gallenerkrankungen	60
steriles	60
Medicinal	60
pivotalen	60
empfindlichen	60
Arz@@	60
Unterlagen	60
erhebliche	60
radioaktiven	60
üblich	60
ophthal@@	60
ierende	60
beigefügt	60
diastolischen	60
Berkshire	60
Lymphomen	60
Trinken	60
3-4	60
GFR	60
OV@@	60
schläfrig	60
span@@	60
Bur@@	60
169	60
GI@@	60
Stickstoffmonoxid	60
59@@	60
straat	60
Lungenödem	60
acet@@	60
ät	60
stat@@	60
Calciumfolinat	60
091	60
CYP@@	60
är	60
myel@@	60
ml@@	60
Vergewissern	60
Atosiban	60
kali@@	60
Te@@	60
eich@@	60
Risk	60
Suppression	60
Applikationsspritze	60
griff	60
viermal	60
orange@@	60
initiale	60
acetat	60
diejenigen	60
Reproduktionsstudien	60
kIE	60
frequenz	60
192	60
AX	60
Glycin	60
osa	60
passiert	60
lymph@@	60
sprofil	60
GL@@	60
Retinopathie	60
getrennt	60
In-vivo-@@	60
Xenical	60
455	60
Natalizumab	59
rechten	59
risikos	59
Straße	59
häm@@	59
SureClick	59
Injektors	59
Blutgerinnungsfaktor	59
Problemen	59
9,3	59
-Wertes	59
schädliche	59
Nachbeobachtung	59
Gewichtsreduktion	59
zirkulierenden	59
209	59
enge	59
technischen	59
Kleinkinder	59
00.00	59
p-@@	59
Therapiedauer	59
unterscheidet	59
Hinsichtlich	59
onale	59
rosa	59
embryonale	59
Tyrosin@@	59
säure-@@	59
trockener	59
diagnosti@@	59
Wiederhol@@	59
dauerte	59
Phase-III-Studie	59
stet	59
BL@@	59
öffentlichen	59
Fel@@	59
mission	59
CV@@	59
15.	59
Weiterhin	59
Tabellen	59
jemals	59
Blocker	59
intravas@@	59
decken	59
Antikoagulantien	59
kosten	59
sichtbaren	59
wässrige	59
IP@@	59
ät@@	59
hinzugefügt	59
Tuben	59
CD4	59
unden	59
141	59
Evohaler	59
lat@@	59
son	59
Risikominimierung	59
antimikrobi@@	59
-Exposition	59
Angiotensin-II-Rezeptor-Antagonisten	59
formen	59
P450-@@	59
ory	59
Altargo	59
etwaiger	59
Comp@@	59
Placebos	59
venöse	59
initialen	59
vornehmen	59
za	59
fizierten	59
OHNE	59
dosisabhängigen	59
Aivlosin	59
durchsichtige	59
ALT-@@	59
40-@@	59
Bleomycin	59
cholesterin@@	59
mutagen	59
minimal	59
Wunden	59
asti@@	59
plan	59
Wissenschaftliche	59
kel@@	59
Flaschen@@	59
75-@@	59
zudem	59
arbeitete	59
Seit	59
Lisonorm	59
langsamer	59
Hydroxy-@@	59
Träger@@	59
gebooster@@	59
224	59
341	59
Bisphosphonate	59
vorbehandelt	59
indi@@	59
Arrhythmie	59
Interferonen	59
MO@@	59
Santé	59
Teil@@	59
prakti@@	58
gliche	58
Hun@@	58
Leberschäden	58
Kent	58
Vasodilatation	58
stabili@@	58
Cladribin	58
außergewöhnlichen	58
Ritonavir-@@	58
dekompensierter	58
lt	58
Gute	58
sach@@	58
ου	58
europäische	58
Weiter@@	58
-Arm	58
CK@@	58
SIND	58
erteilt	58
Filmüberzug	58
Komplex	58
Osteonekrose	58
teilnahmen	58
SC@@	58
herab@@	58
NEOPHARMA	58
teren	58
bronchiale	58
Dosistitration	58
Mehr@@	58
harmonisierten	58
Behörde	58
Verapamil	58
Crixivan	58
Fibrin@@	58
bin@@	58
Lakt@@	58
Seiten	58
topischen	58
Servier	58
,7	58
ographie	58
zubereitete	58
Einmaldosis	58
National	58
3-mal	58
Hypomagnesiämie	58
.07.@@	58
Entnehmen	58
Py@@	58
7,7	58
Agitiertheit	58
viren	58
Kenntnis	58
tiv	58
Arzneimittel-@@	58
-Agonisten	58
sulf@@	58
Nachweisgrenze	58
konzentr@@	58
411	58
verlauf	58
4-hydroxybenzoat	58
retard	58
Einreichung	58
Sur@@	58
bereiche	58
Abend	58
Eur	58
ία	58
WISSENSCHAFTLICHE	58
Erfolg	58
Endo@@	58
beruhen	58
go	58
spüren	58
040	58
aufeinanderfolgenden	58
bild@@	58
nichts	58
ac	58
Eptifibatid	58
Pharmakodynamik	58
Diclofenac	58
Strahlen@@	58
Blutzuckerwerte	58
Safety	58
vit@@	58
xin	58
früh@@	58
parameter	58
ide	58
2C9	58
5.000	58
Obergrenze	58
Stu@@	58
koronare	58
P.O.	58
QD	58
MedDRA	58
Fra@@	58
Beziehung	58
Produkt@@	58
Zelle	58
Erscheinungen	58
kop@@	58
auflösen	58
postnatalen	58
Lar@@	58
Pepti@@	58
Development	58
Hol@@	58
fektionen	58
PT	58
Wesentlichen	58
glomeruläre	58
Acerbon	58
Dyskinesie	58
Pandemrix	58
Gli@@	58
Myel@@	58
oph@@	58
Diagnosti@@	58
418	57
infusionsbedingte	57
gekommen	57
Hypästhesie	57
Aussch@@	57
215	57
1.500	57
ebene	57
Fuß@@	57
immunsuppressiven	57
Tierarten	57
Mer@@	57
ata	57
arz@@	57
harma	57
Behinderung	57
Fluvoxamin	57
alleinigen	57
165	57
heißt	57
vorhandene	57
EG@@	57
großer	57
Proteinen	57
berühren	57
hemmer	57
Middlesex	57
ständig	57
.02.@@	57
erkrankt	57
CD4-Zellzahl	57
gerechtfertigt	57
zeiten	57
erhoben	57
sien	57
teilungen	57
042	57
ehr@@	57
Hyprolose	57
Ort	57
cet@@	57
Agomelatin	57
ierungs@@	57
spielen	57
321	57
Salz@@	57
bruch	57
brei@@	57
117	57
tlich	57
ord@@	57
konsultieren	57
elektr@@	57
keiten	57
hydro@@	57
Weniger	57
öff@@	57
Folie	57
LOR@@	57
Transplant@@	57
149	57
azin	57
Üblicherweise	57
erinnern	57
Enoxaparin	57
Exazerbation	57
Transamin@@	57
Rotavirus-@@	57
idiopathischen	57
Plazebo-@@	57
Kopf@@	57
Hyperurikämie	57
nicht-	57
langfristigen	57
Cystadane	57
Infusionslösungskonzentrats	57
Wund@@	57
ämi@@	57
fikationen	57
TIG@@	57
Ba@@	57
Korrektur	57
Solche	57
Pneumonitis	57
ergreifen	57
sierungs@@	57
sierenden	57
gangs@@	57
renal	57
umfassende	57
natriumfrei	57
Leberfunktionseinschränkung	57
liert	57
Beromun	57
Karzinogenität	57
PV@@	57
radioaktive	57
Beobach@@	57
absoluten	57
Infusionsreaktionen	57
337	57
resultiert	57
Leichte	57
vermittelt	57
tic@@	57
º	57
zep@@	57
Hilfsstoffe	57
vermutet	57
Verengung	57
Intervallen	57
ole@@	57
Lymphadenopathie	57
84@@	57
Mitberichterstatter	57
dürfte	57
Vari@@	57
seite	57
Vermeiden	57
azi@@	57
lagerung	57
aris	57
zier@@	57
Dys@@	57
a.@@	57
P-gp	57
Vereinigten	57
Ruhelosigkeit	57
tag	57
έ@@	56
Β@@	56
Eliminations@@	56
ALS	56
Maisstärke	56
330	56
Schübe	56
consider	56
euch@@	56
But@@	56
Glucuronidierung	56
DNS	56
Verw.	56
sil@@	56
cia	56
Gereinigtes	56
Röntgen@@	56
maler	56
Hei@@	56
bestätigen	56
glargin	56
Chronische	56
last@@	56
Bratislava	56
ausgegangen	56
Atemwegs@@	56
Kit	56
Selamectin	56
Populationen	56
häufigkeit	56
Sel@@	56
Hydroxocobalamin	56
Neisseria	56
hist@@	56
positiver	56
minimalen	56
Citronensäure	56
Puls	56
Analoga	56
klassen	56
fehlender	56
glichen	56
Ci@@	56
nd	56
Gesamtpopulation	56
wür@@	56
Ovarialkarzinom	56
Verkauf	56
lösliches	56
EU@@	56
Efalizumab	56
Krebserkrankungen	56
398	56
Befassungen	56
rechtfertigen	56
unterschiedlicher	56
PP@@	56
Botox	56
Op@@	56
Ausgaben	56
100.000	56
stabile	56
Alternative	56
geschätzte	56
Pharmamatch	56
Spironolacton	56
Hauptmetaboliten	56
n-@@	56
sie@@	56
verlangsamt	56
scheinen	56
olyse	56
Definition	56
XXX	56
ines	56
Kammer@@	56
1400	56
misch	56
Cholesterinspiegel	56
Prozent	56
Lundbeck	56
037	56
weitgehend	56
berechnen	56
Nierenarterienstenose	56
ander@@	56
Lich@@	56
Hauptmetabolit	56
4-91	56
Raloxifen	56
gut@@	56
erwartenden	56
Lipid@@	56
nei@@	56
0,02	56
van	56
7,8	56
Klicken	56
Aluminiumfolie	56
letzte	56
freies	56
Stockholm	56
uss	56
Episode	56
endgültige	56
Reproduktion	56
Code	56
jährlichen	56
atri@@	56
Niveau	56
Ratiopharm	56
Zulassungen	56
limi@@	56
eigenen	56
Cetirizin	56
Internet	56
Materialien	56
H-	56
-1,@@	56
Pedea	56
ity	56
408	56
ACR	56
Hämolyse	56
.03.@@	56
Dr@@	56
perforierte	56
Prac-tic	55
beh@@	55
S.L.	55
PFS	55
AND	55
etwaige	55
Erythroblastopenie	55
Oxyglobin	55
Bördelkappe	55
antagon@@	55
100-@@	55
TP	55
inta@@	55
kn@@	55
Amgen	55
Email	55
Desinfizieren	55
fla@@	55
Schäden	55
rasche	55
OL	55
geplanten	55
medizinischem	55
EINSCHRÄNKUNGEN	55
amm@@	55
aufnehmen	55
Opioiden	55
medikament	55
circa	55
Vorsitzenden	55
multocida	55
Pharmakologie	55
Milligramm	55
Hikma	55
zeichen	55
hereditären	55
Aufstoßen	55
sechs@@	55
Gu@@	55
Lansoprazol-ratiopharm	55
uk	55
würden	55
Lösungsmittels	55
verglich	55
Pap@@	55
Le	55
Magenbeschwerden	55
geeigneter	55
karzinome	55
8,1	55
Blastenkrise	55
Hämorrhagie	55
Pre@@	55
Venenthrombose	55
teilung	55
reichen	55
Man	55
perforierten	55
Zudem	55
fusions@@	55
Valdecoxib	55
Shire	55
Analgetika	55
17.@@	55
Diarrhöe	55
i.m.	55
т@@	55
resuspendiert	55
zeitpunkt	55
Magenverstimmung	55
anz	55
myeloischer	55
Insuline	55
3,75	55
primärem	55
Non-@@	55
state	55
к@@	55
chs@@	55
vergessene	55
ba	55
S.@@	55
BLUE	55
endgültig	55
Strasse	55
fung	55
164	55
ausreichender	55
CYP450-@@	55
festgestellten	55
$	55
Metabolite	55
IgG@@	55
bre@@	55
verfärbt	55
Insulininjektions@@	55
qualität	55
transpar@@	55
Spitzen@@	55
Operations	55
Laktose	55
mäßi@@	55
Intensität	55
Molek@@	55
tiven	55
doppelt	55
Ο@@	55
Del@@	55
Nutzen-Risiko-	55
Parallel@@	55
Exkretion	55
Aluminium-	55
benommen	55
injektion	55
ç@@	55
Verkürzung	55
Calcium-@@	55
er-	55
parasitäre	55
assen	55
ss@@	55
ches	55
Systemorganklassen	55
Anwendern	55
ausgewertet	55
Grenze	55
Ran@@	55
S.A.S.	55
muß	55
tablet@@	55
456	55
elb@@	54
PACKUNGEN	54
Sachverständige	54
ergän@@	54
317	54
Anomalien	54
Stück	54
festlegen	54
Pharmakovigilanz@@	54
is-@@	54
hervor	54
Aminotransfer@@	54
Beh@@	54
Funktionsstörung	54
vorrichtung	54
in-Behandlung	54
Diabetes@@	54
Hundes	54
Farma	54
s.	54
Triacetin	54
Gegensatz	54
Bestandteilen	54
id@@	54
OHSS	54
folgendermaßen	54
Bewegungsapparates	54
lige	54
bipolaren	54
stopfen	54
Referats	54
Monats@@	54
Verhütungsmittel	54
übermäßiger	54
Dünn@@	54
monatiger	54
onalen	54
Floh@@	54
nah@@	54
Periphere	54
Van@@	54
geringfügige	54
üh@@	54
eini@@	54
Exenatide	54
Antikörperspiegel	54
Abwehr@@	54
Hautfarbe	54
verloren	54
Drei	54
Wo@@	54
Blutgefäß	54
Psych@@	54
heter@@	54
vorgeschrieben	54
Antithrombin	54
Stand	54
.Ε.	54
Fulvestrant	54
Thromboembolien	54
Diuretikum	54
7,1	54
Substraten	54
scheinbare	54
Poli@@	54
Elektrokardiogramm	54
cm2	54
Pflastern	54
Altersgruppen	54
symptomatischer	54
Fraktion	54
tumor@@	54
fetalen	54
6-	54
Тел	54
wichtiger	54
kombination	54
Getränke	54
Triazolam	54
OÜ	54
Ε	54
alli@@	54
skop@@	54
Alcon	54
geschüttelt	54
faktoren	54
Reteplase	54
EU-Nummer	54
Natriumacetat	54
potenten	54
LDL-Cholesterin	54
Haushalt	54
Technologie	54
mato@@	54
Epistaxis	54
Fr@@	54
app@@	54
401	54
Schmerzmittel	54
3116	54
verbesserten	54
besch@@	54
austritt	54
Phot@@	54
gon@@	54
abgeschwächt	54
gluc@@	54
Norm@@	54
kulärer	54
432	54
aer@@	54
Bindungs@@	54
Lymphknoten	54
-2	54
häufi@@	54
erheblichen	54
erkrankten	54
Interferone	54
mono@@	54
osin	54
beutel	54
otherapie	54
Informationstechnologie	54
ursprünglichen	54
Wochen-@@	54
Nilotinib	54
1.25	54
symptomatisch	54
Koinfektion	54
stützen	54
gänge	54
herstellt	54
Fraktur	54
Ox@@	54
Spritzenkolben	54
Fachen	54
zyt@@	54
Lyon	54
Imiquimod	54
DO@@	53
A10@@	53
entation	53
tern@@	53
bess@@	53
Candida	53
Sublingualtabletten	53
hierfür	53
Edifício	53
Glyc@@	53
αρ@@	53
Α	53
Impfdosen	53
bildungen	53
Neben	53
Gebärmutterhal@@	53
Focetria	53
mangel@@	53
Palonosetron	53
Carbaglu	53
qui@@	53
Wirkungseintritt	53
Schlüssel@@	53
Follikel	53
deckt	53
dine	53
PU@@	53
teratogenen	53
virologischem	53
V-	53
bestimm@@	53
Rezeptors	53
inhibiert	53
Milz	53
Duo	53
Cal@@	53
behältnisse	53
Tor@@	53
Perindopril	53
74@@	53
egen	53
synthese	53
Alters@@	53
Reverse-Transkriptase-Hemmer	53
Hamsters	53
flusses	53
niedri@@	53
groß@@	53
Lev@@	53
zwölf	53
klein@@	53
beziehen	53
tei@@	53
Verletzungen	53
dort	53
ZAAR	53
M-@@	53
korre@@	53
Aminosäur@@	53
generalisierter	53
kappen	53
Ersuchen	53
NI@@	53
HEXAVAC	53
niedrigsten	53
0,7@@	53
BEROMUN	53
manischen	53
ACT@@	53
atives	53
Psychiatrische	53
S.A	53
Geimpften	53
Darifenacin	53
sinkt	53
WHO-@@	53
4-er	53
Schicht	53
low	53
Mundschleimhaut	53
opo@@	53
einfach	53
Trocoxil	53
erhal@@	53
Mau@@	53
Punkt	53
Kanzerogenität	53
Standard	53
anhaltendes	53
unmittel@@	53
CYP2C8	53
juckender	53
Tenofovirdisoproxil	53
t1	53
20.@@	53
---	53
а	53
Sam@@	53
Messungen	53
erheb@@	53
PA@@	53
B-1180	53
Toremifen	53
Hämoglobinwerte	53
näch@@	53
Risikoreduktion	53
ose@@	53
Arterien	53
diagnostische	53
Inhabern	53
gewohnten	53
7,4	53
287	53
Denken	53
hochdisperses	53
esti@@	53
zurückgeführt	53
7,6	53
Gesta@@	53
16.@@	53
Sparfloxacin	53
hämolytische	53
Doripenem	53
via	53
222	53
tabletter	53
Wi@@	53
139	53
verordnete	53
retardiert	53
Sulfonylharnstoff@@	53
zufuhr	53
ungsmitteln	53
Isolaten	53
Sifrol	53
COX-2	53
Clomicalm	53
geringem	53
molek@@	53
Ausgangswerten	53
dritte	53
Kommunikation	53
Einzeldosis-Blisterpackung	53
Termin	53
net	53
rezept@@	53
Zeitraums	53
PVC-@@	53
14.@@	53
beigefügten	53
Cer@@	53
Haup@@	53
ad	53
204	53
no	53
Abdomen	53
glob@@	53
by	53
409	53
Mechanismen	53
Gicht@@	53
III@@	53
Kohlen@@	53
376	53
Fesoterodin	52
AGEN	52
resuspendieren	52
Flüssigkeitsverlust	52
stimmt	52
vorherigen	52
strategie	52
zender	52
Ansprech@@	52
erwartete	52
gl@@	52
Benelux	52
dor@@	52
Spezielle	52
brüche	52
glich	52
MPA	52
3fache	52
Multiple	52
Pergoveris	52
Stehen	52
Impotenz	52
befolgt	52
zelluläre	52
verliefen	52
ents	52
28-@@	52
struktur@@	52
Stocrin	52
stimmte	52
Frühgeborenen	52
Nic@@	52
medinfo	52
leuk@@	52
ft@@	52
COMP	52
losigkeit	52
03.@@	52
Immunglobuline	52
EU-Mitgliedstaaten	52
1,000	52
NL	52
hören	52
TID	52
wand@@	52
geltenden	52
sicher@@	52
DARREICHUNGSFORM	52
einzigen	52
Makula@@	52
gerungen	52
deutliche	52
323	52
Begleitmedikation	52
Tiergesundheit	52
Phen@@	52
Diphtherie	52
Alternativ	52
regi@@	52
ACE	52
gesteigerte	52
Che@@	52
thromboembolischer	52
Redu@@	52
154	52
Beobachtungen	52
PG@@	52
Neopharma	52
amide	52
starkem	52
Brussels	52
γ	52
gebrochen	52
Bal@@	52
Iso@@	52
Mycoplasma	52
Prüfen	52
Vorher@@	52
schmerz@@	52
Direktor	52
Berechnung	52
Rasburicase	52
kre@@	52
Frühstück	52
adjuvantiert	52
ark@@	52
н@@	52
MP	52
Ausweisung	52
glu@@	52
verw@@	52
-System	52
häufigen	52
Kö@@	52
pulmonaler	52
Geschlechtsorgane	52
Erniedrigung	52
Erhöhter	52
ül@@	52
77@@	52
Follikel@@	52
zeitlichen	52
Reserve	52
normalisiert	52
Geschmack	52
glich@@	52
nieder@@	52
D-8@@	52
Myelosuppression	52
š	52
0,8@@	52
Abklingen	52
physi@@	52
transder@@	52
topische	52
chemisch	52
zenden	52
138	52
Aspergillose	52
Cardoreg	52
anwendung	52
juckende	52
blauen	52
Rigor	52
ant@@	52
ets	52
typischerweise	52
tere	52
ring	52
protein@@	52
Sicht	52
Form@@	52
Az@@	52
Eur@@	52
gkeiten	52
Sunitinib	52
100E	52
stärk@@	52
Grippe	52
12.	52
063	52
Begleittherapie	52
sorgen	52
stest	52
-Hemmern	52
Nasopharyngitis	52
cap@@	52
OM@@	52
tigung	52
Geschlechts@@	52
nes	52
Einmalgebrauch	52
Ziele	52
RCP	52
Organisation	52
345	52
system@@	52
173	52
	52
Espoo	52
48-@@	52
Angststörung	52
ungstherapie	52
region	52
Befund	52
mol@@	52
Meinung	52
ty	52
Nobivac	52
р@@	51
linie	51
Kreatininclearance	51
340	51
283	51
eingerichtet	51
unde	51
zeich@@	51
Handflächen	51
lang@@	51
alog@@	51
Deferasirox	51
flächen	51
217	51
038	51
Bewahren	51
betr@@	51
Schrauben	51
Palivizumab	51
Μ@@	51
Bruchkerbe	51
Maß	51
248	51
Nummer	51
CHARGENFREIGABE	51
Breite	51
Normwertes	51
r-DNS	51
terminaler	51
Einheit	51
Harninkontinenz	51
Kreb@@	51
VA	51
Bisher	51
verfahrens	51
blau	51
zustellen	51
impf@@	51
AF@@	51
berei@@	51
nachstehend	51
zuge@@	51
hexa	51
zeugen	51
Niesen	51
AVAGLIM	51
TTP	51
einhalten	51
Nacken	51
beziehungsweise	51
verk@@	51
zugestimmt	51
9,1	51
nor@@	51
seln	51
nachgewiesener	51
Studienmedikation	51
verletzungen	51
Typ-1-Diabetes	51
Prämedikation	51
Agitation	51
540	51
Methotrexat-@@	51
olytische	51
11-@@	51
Boden	51
osen	51
267	51
deutlichen	51
müde	51
motorische	51
Organon	51
Endometrium@@	51
HUMALOG	51
Inspektions@@	51
Lungenkrebs	51
Dibotermin	51
günsti@@	51
normales	51
einschließen	51
ause	51
051	51
vorbestehende	51
IgG-@@	51
rauchen	51
fortschrei@@	51
eingenommenen	51
PRCA	51
Bepridil	51
4.7	51
fikation	51
stein@@	51
Energie	51
191	51
Oxybutynin	51
sais@@	51
Antihypertensiva	51
klingen	51
findet	51
soliden	51
Kom@@	51
Memantin	51
ZI@@	51
gemeinsamer	51
abnehmen	51
ská	51
dol	51
Klassen	51
Korrelation	51
ZU@@	51
550	51
Fehlen	51
Überarbeitung	51
verdünnen	51
Rückenmark@@	51
Still@@	51
Gegen@@	51
öffentliche	51
FS@@	51
Verhältnisses	51
Ergotamin	51
Erg@@	51
tom@@	51
otoxischen	51
Adefovir	51
Sulfonylharnstoffen	51
Verzehr	51
Eng@@	51
erseits	51
völlig	51
1A2	51
Knochendichte	51
vorangegangenen	51
Leu@@	51
alität	51
alpha-@@	51
chirurgische	51
A-1@@	51
fluss	51
Raten	51
Vitamin-D-@@	51
fils	51
Hyperbilirubinämie	51
66@@	51
humantherapeutischen	51
ungeborene	51
nationale	51
Gesichtsödem	51
aseptische	51
.04.@@	51
Beatmung	51
Ach@@	51
Europ@@	51
ces	51
Aufgabe	51
hypertensiven	51
Matrix	51
amid-@@	51
LU@@	51
mid	51
Wirkungsmechanismus	51
satz@@	51
ulär	51
struktur	51
reagiert	51
alan@@	51
Ursprungs	51
1,75	51
aller@@	51
chem@@	51
CK	51
syntheti@@	51
Retapamulin	51
Calci@@	51
py@@	51
sch-@@	51
179	51
Tablets	51
schluss@@	50
oberhalb	50
Deferipron	50
esi@@	50
beigepackten	50
Inv@@	50
bereichs	50
Schlafengehen	50
olog@@	50
-Virus	50
aufmerksam	50
wasserfrei	50
Vereinigte	50
schlag	50
Tro@@	50
257	50
kurzer	50
merk@@	50
vermehrte	50
mer-@@	50
tierende	50
übergehen	50
Lansoprazol-CT	50
som@@	50
wichtigste	50
Hypertension	50
Vielzahl	50
sogenannte	50
Absterben	50
Wilson	50
Agonisten	50
Krankenhaus@@	50
punkte	50
etabliert	50
ed@@	50
310	50
cks	50
elten	50
č	50
erge	50
Gl@@	50
Induktions@@	50
Leitfäden	50
diabetische	50
Insomnie	50
CHE	50
meistens	50
esses	50
PH@@	50
Schmerzlinderung	50
früh	50
Beta@@	50
verschriebene	50
Auswahl	50
Sustiva	50
T-	50
Trimenon	50
betrafen	50
Papillom@@	50
ak	50
Glucoselösung	50
Difloxacin	50
gewechselt	50
raschen	50
suspension	50
zunehmenden	50
Erforder@@	50
material	50
Institut	50
Masern	50
heiten	50
selektiv	50
erungs@@	50
DA	50
Berühren	50
255	50
präparaten	50
E218	50
Nifedipine	50
äußer@@	50
fumarat	50
Knochenmetastasen	50
Mutagenität	50
anaphylaktischen	50
Phän@@	50
ausgedeh@@	50
beschich@@	50
wachsen	50
Kautablette	50
zerdrückt	50
eingefroren	50
harn@@	50
erklärt	50
Hib	50
Biogen	50
Idec	50
geheilt	50
th	50
Aktualisierung	50
alleiniger	50
äh@@	50
Schwangerschaftstest	50
IX-@@	50
schemata	50
Chi@@	50
BP	50
Genital@@	50
wiedergefunden	50
Pegvisomant	50
bestätigte	50
28.@@	50
cesta	50
Leuko@@	50
mas@@	50
bes@@	50
ade	50
lik@@	50
Stadien	50
Hepatitis-@@	50
Wellcome	50
IB	50
PASI	50
Ep@@	50
Sulf@@	50
Quicklet	50
etr@@	50
anc@@	50
bezieht	50
beobach@@	50
ophilen	50
kor@@	50
Leberfunktionswerte	50
len@@	50
Wählen	50
Nekrose	50
Behandlungswoche	50
äußern	50
Plasmaspiegeln	50
................@@	50
gestör@@	50
Rückstandshöchstmengen	50
HC@@	50
f-@@	50
hen	50
TRACTOCILE	50
Punkten	50
Temperaturen	50
leichtem	50
ität@@	50
Fingern	50
modi@@	50
235	50
krankheits@@	50
hafte	50
fünf@@	50
COZAAR	50
geordnet	50
beschädi@@	50
naiven	50
kologische	50
füllen	50
CP	50
LT-@@	50
In-vitro-	50
langsamen	50
Dauer@@	50
Erhalt	50
stenose	50
7000	50
est	50
Office	50
zubereiteten	50
erythematodes	50
Pers@@	50
selbst@@	50
Wundheilung	50
ollen	50
uliert	50
Dialysepatienten	50
hep@@	50
Lane	50
Ten@@	50
modifizier@@	50
stündige	50
gasse	50
Basal@@	50
gewünschte	50
ausgelassen	50
Behandlungsp@@	50
Winkel	50
säure@@	50
ė	49
FR@@	49
fixe	49
Responder	49
seh@@	49
reduzierter	49
allergie	49
tö@@	49
bezogene	49
anhält	49
Futter@@	49
3350	49
Bewertungs@@	49
Gesamtüberlebenszeit	49
Octocog	49
249	49
Sterblichkeit	49
Neue	49
Initiativen	49
EMADINE	49
zeichnet	49
Fab@@	49
hierbei	49
Diabetesberaterin	49
MITGLIEDSTAATEN	49
kapsel@@	49
Dexmedetomidin	49
fehlenden	49
Anwesenheit	49
Herzstillstand	49
w.@@	49
oprotein	49
Kapsel@@	49
zogen	49
verläuft	49
otische	49
linken	49
Kopf-	49
gegangen	49
komplikationen	49
schlecht	49
Absetz@@	49
bestätigten	49
gastrointestinaler	49
kanzerogenen	49
gender	49
580	49
pap@@	49
Ros@@	49
Sti@@	49
analge@@	49
∞	49
10.96	49
vo@@	49
gere	49
Oberschenkel@@	49
Mumps	49
Röteln	49
comprimidos	49
Design	49
UAW	49
Gamma@@	49
alyse	49
Dyskinesien	49
bindung	49
IL-@@	49
Min@@	49
Primär@@	49
verzeichnen	49
Hypothyreose	49
E216	49
progressionsfreie	49
metastasierendem	49
bereitgestellt	49
intranas@@	49
MY@@	49
aufgefüllt	49
198	49
zuführen	49
Rezeptorantagonisten	49
optimalen	49
Inkompatibilitäten	49
Influenza-Impfstoff	49
alkalischen	49
liefert	49
herzustellen	49
Bewusstseins@@	49
Schweregrades	49
validierten	49
MB@@	49
klin@@	49
phen@@	49
einander	49
CYP3A4-	49
derung	49
pH-Wertes	49
akzeptiert	49
aufzunehmen	49
Kosten@@	49
folgendes	49
Psoriasis-@@	49
Česká	49
216	49
historischen	49
verlängern	49
Desirudin	49
SQUIBB	49
.com	49
ebenen	49
heben	49
Nahrungs@@	49
Symptomatik	49
parti@@	49
Tur@@	49
leiten	49
pharmakologisch	49
Vorsitz	49
076	49
plasma	49
alte	49
ute	49
stal@@	49
erfüllt	49
stündigen	49
abin-@@	49
problemen	49
Magensäure	49
abhängigkeit	49
erkranken	49
Eliminationshalbwertzeit	49
Fahrtüchtigkeit	49
9,8	49
Vit@@	49
Reproduktions@@	49
Zonisamid	49
ansprech@@	49
ologen	49
irgendeine	49
sagt	49
Fraktur@@	49
char@@	49
mussten	49
Implementierung	49
Dreifach@@	49
esen	49
71@@	49
SICH@@	49
78@@	49
oten@@	49
199	49
ab-@@	49
307	49
theit	49
Schleimhäute	49
gramm	49
ktomie	49
anstelle	49
Tropf	49
Unit	49
wirkendem	49
Insulins@@	49
Lachs-Calcitonin	49
avir-	49
arteri@@	49
NOV@@	49
S.R.L.	49
öses	49
Essigsäure	49
Wärmegefühl	49
Hib-@@	49
Hampshire	48
Herpesvirus	48
reinigen	48
Gelbfieber-@@	48
Operations@@	48
zyklen	48
Sandwich	48
voraus@@	48
facher	48
Begleiterkrankungen	48
verbleibt	48
gesetzten	48
Netherlands	48
Verhärtung	48
Zugabe	48
VERANTWORTLICH	48
gehenden	48
Nerven	48
Normalinsulin	48
berg	48
Knochengewebe	48
halt	48
10.2000	48
proteine	48
NUR	48
intrathek@@	48
Kurzzeit@@	48
189	48
Oberbauch	48
Betrieb	48
RT	48
tätig	48
Schwamm	48
Geschmacksstörungen	48
g-	48
9,2	48
MAO-Hemmer	48
650	48
kompensierter	48
Abschnitten	48
erkennt	48
Bil@@	48
Wur@@	48
Reizungen	48
zentralisierte	48
Abteilung	48
gehemmt	48
Efavirenz@@	48
Diabetiker	48
tierung	48
cal	48
Verantwortung	48
Läsion	48
längerer	48
erkennbar	48
plötzlicher	48
leb@@	48
aktualisierte	48
station@@	48
Ori@@	48
metabolische	48
ty@@	48
Rechtsvorschriften	48
Hämoglobinkonzentration	48
üs@@	48
rh@@	48
ABl	48
verringerter	48
RIX	48
lineare	48
stands	48
zierung	48
2-4	48
stete	48
Frühstadium	48
Behandlungserfolg	48
eintreten	48
erstellt	48
0,12	48
Rezeptor@@	48
Aktiv@@	48
27.@@	48
E132	48
Lymphozyten@@	48
ana	48
30.@@	48
z.@@	48
opro@@	48
ppm	48
leichtes	48
VA@@	48
Unterdrückung	48
drucks	48
inspiegel	48
Zeitpunkten	48
Serotypen	48
ALT-Werte	48
beeinflusste	48
ALT@@	48
Brustdrüse	48
Bri@@	48
spar@@	48
mischung	48
Dihydroergotamin	48
generalisierte	48
Sulfonamide	48
Verbindungen	48
verabreichtes	48
LIPROLOG	48
Tuberkul@@	48
Onsior	48
ort@@	48
CYP2C@@	48
bekann@@	48
BRISTOL-MYERS	48
Pres@@	48
onen@@	48
Hypot@@	48
в@@	48
chinesischen	48
Benzodiazepine	48
Dien@@	48
Doxagamma	48
äf@@	48
j	48
Vitamin-@@	48
ille	48
eting	48
Lungenfunktion	48
ire	48
internationale	48
schnell@@	48
Pandemie	48
Fin@@	48
L01@@	48
IT	48
Can@@	48
Thiomersal	48
Häufigkeits@@	48
vergleichenden	48
maliges	48
cl@@	48
q	48
senk@@	48
opi@@	48
ellem	48
We@@	48
msec	48
Filtrationsrate	48
dien	48
ind@@	48
Laktat@@	48
BMI	48
kürz@@	48
urt	48
Glukokortikoiden	48
cul@@	48
umphosphat	48
Gramm	48
elektronischen	48
CYP2D6-@@	48
verlieren	48
pt@@	48
verspüren	48
Go@@	48
484	48
1g	47
Dexrazoxan	47
Actelion	47
Vorschlag	47
ständige	47
Zäh@@	47
gesetzte	47
gerichtet	47
-HBV-@@	47
Natriumsalz	47
Paracetamol	47
dis@@	47
Maximum	47
Candidose	47
ähn@@	47
verbli@@	47
Hexavac	47
Kapselhülle	47
Eisenoxidhydrat	47
erungen	47
Latvia	47
ml-Durchstechflasche	47
entschied	47
vorausgesetzt	47
Lymphome	47
Blutkreislauf	47
fre@@	47
ast	47
Nukleosi@@	47
Nüchtern@@	47
lität	47
Polysacchari@@	47
Genot@@	47
Regel@@	47
äl@@	47
cetat	47
Deckel	47
orm@@	47
substanz	47
DUKORAL	47
fs@@	47
332	47
Generikum	47
malen	47
genotyp@@	47
Proben@@	47
wunde	47
darm@@	47
gendem	47
Stämmen	47
integr@@	47
Gebärmutter	47
hämatologischer	47
Influenz@@	47
Bekämpfung	47
log@@	47
Tie@@	47
hän@@	47
Enalapril	47
injection	47
PD@@	47
Finanzkontrolle	47
Kons@@	47
Hypercalcämie	47
Leistung	47
Umwandlung	47
biotechn@@	47
Zeitdauer	47
Blasen	47
epileptische	47
Rasse	47
ungsstörungen	47
sum	47
CL	47
osin@@	47
PL	47
hef@@	47
simplex	47
chens	47
364	47
einheit@@	47
öffnen	47
inhali@@	47
Evaluation	47
infizierte	47
Resistenzentwicklung	47
Haloperidol	47
Funktions@@	47
Protein-@@	47
ls	47
ACH@@	47
gesteigerter	47
Ranitidin	47
schnit@@	47
gefäß@@	47
mis@@	47
eriode	47
sau@@	47
Spektrum	47
San	47
ater	47
Gesamtcholesterin	47
Atemwegserkrankungen	47
02-@@	47
hervorgerufenen	47
HAN@@	47
Eingriffs	47
volumens	47
Melatonin	47
externen	47
artiger	47
mittelschwere	47
Amp@@	47
7.5	47
uter@@	47
gelbes	47
Herstell@@	47
im@@	47
Arz	47
Gro@@	47
Zubettgehen	47
Oprymea	47
Dosierknopf	47
-Impfstoff	47
hier@@	47
9,9	47
SG@@	47
dargelegt	47
prozentuale	47
hydr@@	47
ey	47
orid	47
Bordetella	47
Hoden@@	47
prüfte	47
Gau@@	47
High	47
7,3	47
fettreichen	47
insulin	47
Diureti@@	47
diureti@@	47
071	47
Cholester@@	47
12.5	47
TER@@	47
wachsenden	47
Therap@@	47
Funktionsfähigkeit	47
q.d.	47
0,50	47
Empfind@@	47
ACR@@	47
Infusionslösungen	47
CY@@	47
in-vitro-@@	47
karzin@@	47
Frankfurt	47
Placebo-	47
frühere	47
Klin@@	47
Syste@@	47
Mediane	47
variieren	47
cen@@	47
Extremität	47
-Aroma	47
53@@	47
kumulative	47
Behring	47
zol@@	47
atisch	47
Mehrfachgabe	47
Bolus	47
Phosphat	47
gener	47
syndroms	47
ös	47
KL@@	47
sicherheit	47
geschieht	47
peripheres	47
gehend	47
olar@@	47
Berlin	47
Strontiumranelat	47
andauern	47
Herzin@@	47
HA	47
unbekannter	47
ktivität	47
testing	47
aPTT	47
ret@@	47
Herzrhythmus	47
Konzentrates	47
383	47
jährige	46
RCPCh	46
FERTIGSPRITZEN	46
Umstände	46
Ohrs	46
Oral	46
Dialyse@@	46
E5@@	46
Polyethyl@@	46
Manifestationen	46
icht@@	46
hämodyna@@	46
asewerte	46
223	46
Fa@@	46
olin@@	46
ien@@	46
titriert	46
Thi@@	46
ober@@	46
sekundärer	46
Nesselausschlag	46
Hautreaktion	46
313	46
Blase	46
Icatibant	46
din-	46
Haarlem	46
Dehydrierung	46
Drucktinte	46
bewegungen	46
ernannt	46
üb@@	46
miert	46
Virusinfektionen	46
abzugeben	46
way	46
unterliegen	46
ki@@	46
angeborenen	46
induzierter	46
Transkriptase	46
resorb@@	46
versuch	46
vorliegende	46
bewusst	46
Aufbewahrungs@@	46
Fertilitäts@@	46
Labortests	46
Wirksamkeitsdaten	46
blass@@	46
kanüle	46
roli@@	46
Polypropyl@@	46
297	46
Norfloxacin	46
antiretrovirales	46
stati@@	46
AML	46
Pilz@@	46
EMEA-Jahresbericht	46
Endgültig	46
befähigt	46
rec@@	46
lierten	46
venöser	46
FILMTABLETTEN	46
ILP	46
anteil	46
ÄNDERUNG	46
herangezogen	46
043	46
ess	46
Laboratoires	46
ore@@	46
Gegenstände	46
Rot@@	46
gegenseitige	46
EINE	46
geln	46
emi@@	46
vorkommt	46
pun@@	46
tödliche	46
paper	46
kos@@	46
Knochenresorption	46
Digox@@	46
Eiweiß	46
Lendenwirbelsäule	46
einsetzen	46
181	46
INTANZA	46
otoxisch	46
nis@@	46
........................@@	46
dyl@@	46
nachzuweisen	46
Steroide	46
amat	46
ße	46
20mg	46
bri@@	46
vermehrt	46
194	46
set	46
mal@@	46
Azathioprin	46
Athens	46
Mobilisierung	46
keit	46
hämatopoetischen	46
Glyko@@	46
avir-@@	46
Kontrazeption	46
koronarer	46
φ@@	46
RNA-@@	46
konstant	46
Standards	46
Allopurinol	46
Schleimhaut	46
Son@@	46
WP	46
vali@@	46
269	46
Proteins	46
ließen	46
Virusinfektion	46
üsse	46
ola@@	46
Exjade	46
un	46
grippe@@	46
CSL	46
ersatz@@	46
IgG	46
pH	46
Verabreichungs@@	46
stör@@	46
ble	46
10,0	46
Reyataz	46
Konsequenzen	46
vej	46
264	46
Laboratoire	46
Stabilisierung	46
fung@@	46
pal@@	46
phot@@	46
inflammat@@	46
gemessenen	46
Wiederherstellung	46
keit@@	46
Litauen	46
ban@@	46
Management@@	46
1.5	46
vention	46
koordin@@	46
Zypern	46
Staaten	46
abhängiger	46
Crestor	46
ulat@@	46
HBV-DNA-@@	46
Organsystem	46
kinase	46
endogenen	46
Nutzen-Risiko-Abwägung	46
278	46
Filter	46
Glukose	46
Ibafloxacin	46
Paget	46
Hypertriglyceridämie	46
prä-	46
kuläre	45
Mut@@	45
gedreht	45
schmer@@	45
Skelettmuskulatur	45
ds@@	45
erniedrigten	45
Karzin@@	45
hormonelle	45
Tumorpatienten	45
Hydrolyse	45
Krankenhauses	45
Speich@@	45
artig	45
pan@@	45
Resuspendieren	45
weiche	45
Λ@@	45
6,9	45
schwarzen	45
mali@@	45
Behältnisses	45
gespült	45
ang	45
HPV-Typen	45
Blutungsneigung	45
Bewegungs@@	45
Thrombozy@@	45
zuständig	45
einmalig	45
NNRTIs	45
16-@@	45
Statin@@	45
sorb@@	45
gewisse	45
Weißes	45
Transport@@	45
EM@@	45
folge	45
derartigen	45
Schlagan@@	45
Interv@@	45
Klebe@@	45
Gesichtsrötung	45
ise	45
diagnostischen	45
sicht	45
Masivet	45
pti@@	45
Mindest@@	45
schwellungen	45
Betablockern	45
letz@@	45
Geschmacksveränderungen	45
293	45
mechanismen	45
Leukozytenzahl	45
programm	45
Hierbei	45
schla@@	45
0,000	45
Einfuhr	45
symptomen	45
Hierzu	45
klinisches	45
mor@@	45
Б@@	45
Gebärmutter@@	45
Fehlbildungen	45
sank	45
Σ@@	45
MP-	45
Viracept	45
Periode	45
Cefuroxim	45
Herzfunktion	45
Methionin	45
Hyperplasie	45
genommene	45
ertes	45
körperlicher	45
Todesfällen	45
Öffentlichkeit	45
verständigen	45
Tacrolimussalbe	45
София	45
Studienab@@	45
Dur@@	45
Pseudomonas	45
Empfängnisverhüt@@	45
ationsphase	45
dase	45
Sachverständigen@@	45
unzureichender	45
Τ@@	45
τα@@	45
denselben	45
liefer@@	45
с@@	45
opf	45
Ondansetron	45
Lebensalter	45
Ga@@	45
träge	45
unterschied	45
gehende	45
Behandlungsende	45
Postbus	45
abe@@	45
arteriellen	45
adi@@	45
Glucomed	45
Bolus@@	45
myelodysplas@@	45
potenter	45
üch@@	45
Verlangen	45
MER@@	45
BEZÜGLICH	45
nadel	45
ende@@	45
Herzschla@@	45
senkung	45
dru@@	45
ülen	45
EWR	45
Update	45
Hämatome	45
Hämatologische	45
Prednisolon	45
Kern@@	45
einzuholen	45
Cre@@	45
ebung	45
Mehrfachdosen	45
Ig@@	45
2309	45
Absinken	45
Glucosamin	45
zellulären	45
Rom@@	45
herapie	45
A-12@@	45
ket@@	45
Vergleichsstudie	45
459	45
Prequenza	45
Testoster@@	45
tie	45
komplizierten	45
sing	45
Consta	45
bekämpfen	45
Verschlusskrankheit	45
II-	45
Bestrahlung	45
erwartende	45
greifen	45
VIII-Spiegel	45
Vertigo	45
Manche	45
ulitis	45
ore	45
Lepirudin	45
Albumin@@	45
endi@@	45
los@@	45
ebr@@	45
stecken	45
engmaschiger	45
Uni@@	45
INN	45
Hypophosphatämie	45
reife	45
ül	45
S-	45
veterinary	45
GIST	45
Hornhaut@@	45
ten-@@	45
Warnhin@@	45
stoffwechsel	45
zyto@@	45
avi@@	45
Γ@@	45
gemisch@@	45
2377	45
LY@@	45
mikrobi@@	45
Ausbildung	45
BWP	45
Fisteln	45
nichtsteroidale	45
getragen	45
rimi@@	45
Blässe	45
geschwüre	45
Ähnliche	45
Nüchtern-@@	45
Manufacturing	45
FOR@@	45
begann	44
á	44
vereinbarten	44
effizi@@	44
Tagesdosen	44
Gemeinschaften	44
sammeln	44
Cap@@	44
opathien	44
wär@@	44
Hyperparathyreoidismus	44
te-	44
litis	44
Dem	44
Inhal@@	44
erstmals	44
Mitgliedsstaaten	44
Konferenz	44
verschlechtert	44
Rücken@@	44
dokumentiert	44
resul@@	44
HIV-1-RNA	44
HERSTELLUNGSERLAUBNIS	44
Ferring	44
wirksames	44
Klopfen	44
Hör@@	44
IL	44
Logo	44
-Konfidenzintervall	44
gar@@	44
ZO@@	44
itäts@@	44
Dienstleistungen	44
tem@@	44
Effekten	44
dienen	44
Überlebens@@	44
54@@	44
Angstgefühl	44
Kontrazeptivum	44
Lou@@	44
Blutungszeit	44
ull@@	44
Bluttransfusionen	44
Neutrophilen	44
Vier@@	44
gummi	44
it	44
Eierstock@@	44
Arthrose	44
Hautstelle	44
entherapie	44
1A	44
Klinik@@	44
file	44
Länge	44
Gegenstand	44
Fortschritte	44
Produktinformationen	44
Opioide	44
teilte	44
stillende	44
Zink	44
Botulinum	44
RA@@	44
bewerten	44
Aluminiumsalz	44
Abhängig	44
Monat@@	44
aggressives	44
Φ@@	44
Hormonersatztherapie	44
behandelter	44
GMP	44
Galakt@@	44
gestillten	44
Zyto@@	44
243	44
Ritonavir@@	44
dieren	44
Thyre@@	44
Dauerinfusion	44
brin@@	44
Apotheke	44
plasma@@	44
jün@@	44
hormonellen	44
Herzversagen	44
abzuwägen	44
chung	44
333	44
gewichts@@	44
Neupogen	44
Mu@@	44
aktualisierter	44
Miss@@	44
Derivate	44
wahrschein@@	44
Elektrolyt@@	44
Plaque-Psoriasis	44
H2-@@	44
nämlich	44
stam@@	44
mcg	44
bewegen	44
schwierigkeiten	44
ARZNEIMITTELN	44
stufen	44
angioneurotisches	44
RG@@	44
Veröffentlichung	44
14C-@@	44
größte	44
stru@@	44
gerechnet	44
thr@@	44
ICHT	44
steigenden	44
Dyslipidämie	44
ÄUSSERE	44
Glukoselösung	44
-Monotherapie	44
GM@@	44
noe	44
reifen	44
Cl	44
hydrat	44
transp@@	44
Leukozytose	44
pack@@	44
nerv@@	44
lichkeits@@	44
Base	44
grad	44
Kalium-	44
Suchen	44
erniedrigter	44
einhergehenden	44
anger@@	44
Spezi@@	44
Gebühren@@	44
Schutzfolie	44
Nephropathie	44
fluss@@	44
90-@@	44
eigen@@	44
HMG-CoA-Reduktase-@@	44
271	44
rascher	44
trag	44
Xelevia	44
Previcox	44
Hemi@@	44
Hemmstoff	44
Granulozy@@	44
wäss@@	44
Atrophie	44
ml-	44
auszugleichen	44
beste	44
benachrichtigen	44
kations@@	44
Applikator	44
Verhütung	44
öser	44
bau	44
GPT	44
lock@@	44
geräusche	44
S.r.l.	44
237	44
beta-1b	44
equ@@	44
Analgesie	44
Veterin@@	44
geringes	44
Weich@@	44
Knochen-	44
FER@@	44
haltung	44
Förderung	44
UG@@	44
automatischen	44
Misch@@	44
hil@@	44
rige	44
Trin@@	44
Gleich@@	44
Gefrier@@	44
schei@@	44
Phenyl@@	44
Morphin	44
99mTc	44
film@@	44
HER@@	44
Pylobactell	44
D-65@@	44
maligner	44
arben	44
evaluiert	44
Estate	44
Bild	44
licht	44
Pen-@@	44
vorzu@@	44
GD	44
A771726	44
weißem	44
wiederum	44
Stimmungsschwankungen	44
physiologischen	44
größerer	44
HbA1c@@	44
line	44
schemas	44
agon@@	44
Angehörigen	44
disease	44
Höchst@@	44
Retard	44
resist@@	44
2C19	44
Laboratorios	44
ulären	44
─	44
eres	44
ktiven	43
VERPACKUNG	43
näher	43
Doppeltsehen	43
Abdominalschmerzen	43
Schaumbildung	43
9NJ	43
Berührung	43
Festsetzung	43
Doxorubicin-HCl	43
IC50	43
Km	43
schädlichen	43
ergen	43
haft	43
sage@@	43
De	43
Vis@@	43
CELVAPAN	43
ungsta@@	43
Sauen	43
Menstruations@@	43
Fibrinogen	43
hl	43
Stillens	43
Impflin@@	43
AC	43
vorgesehene	43
Hydr@@	43
eingeschränkten	43
Serotyp	43
Benzodiazepinen	43
tions	43
419	43
barem	43
UR	43
schwä@@	43
Ovulation	43
herausgegeben	43
EU-	43
orien	43
Wege	43
QT-Verlängerung	43
Dosisinter@@	43
Bevölkerung	43
gangs	43
Myasthenia	43
gravis	43
kraft	43
QT-Intervalls	43
vet	43
Mädchen	43
durchgeführte	43
chrom@@	43
hyla@@	43
Hamster@@	43
Symptom	43
148	43
langt	43
470	43
Co	43
körpereigene	43
Blutplättchenzahl	43
künf@@	43
A.E.	43
Klebsiella	43
cine	43
stech@@	43
Zucht@@	43
Signal@@	43
Drug	43
analy@@	43
enthaltenden	43
Gliederschmerzen	43
HIV-Erkrankung	43
tum@@	43
suppression	43
lipid@@	43
Heiserkeit	43
Ca@@	43
operative	43
Durchdrück@@	43
Ty@@	43
halten@@	43
Arteri@@	43
Har@@	43
tisches	43
Thiaziddiuretika	43
ύ@@	43
ε	43
απ@@	43
Rhin@@	43
Harnwegsinfektion	43
B-Virus	43
Spaltvirus	43
angeborene	43
Sichelzellanämie	43
Mil@@	43
jederzeit	43
Belege	43
Disease	43
HCV-@@	43
Prüfarzt	43
media	43
routinemäßig	43
Sojabohnen	43
allerg@@	43
ösophageale	43
gelei@@	43
irreversiblen	43
Osteomyelitis	43
exponierte	43
abgeraten	43
asth@@	43
Säur@@	43
schar@@	43
eng@@	43
enthielten	43
zahl@@	43
DNA-	43
stich@@	43
Grunderkrankung	43
Schleimhäuten	43
Amoxicillin	43
Spezifische	43
Rash	43
Blockern	43
Chemotherapie@@	43
Naloxon	43
Sanofi-Aventis	43
ständigen	43
Leben	43
Schädigungen	43
Alaninaminotransferase	43
Koronarsyndrom	43
platin@@	43
ktoren	43
2D6	43
Normbereichs	43
Phar@@	43
Klümpchen	43
enbildung	43
ausreicht	43
Bestimmte	43
werts	43
län@@	43
seitige	43
Veterinary	43
ersatz	43
braune	43
Thiazide	43
YTRACIS	43
Tran@@	43
Struktur	43
Metastasen	43
Aldoster@@	43
flache	43
wirkungen	43
Ku@@	43
identi@@	43
onia	43
bau@@	43
Prezista	43
hochgradi@@	43
otox@@	43
partiellen	43
schwierig	43
Dosierungsschemata	43
Knochens	43
techni@@	43
STRONGHOLD	43
Generics	43
Muttersubstanz	43
E421	43
2001-2002	43
ziertem	43
stehender	43
065	43
ATC	43
Atenolol	43
unverändertes	43
Wachstumsstörungen	43
Mittelwerte	43
proben	43
basierte	43
körpern	43
ley	43
Nutzen-	43
Familie	43
hlen	43
WA@@	43
Ödemen	43
hau@@	43
322	43
ön@@	43
Gesundheitszustand	43
oste@@	43
SNC	43
Fatigue	43
Serumkreatinin	43
neutropenischen	43
Azidose	43
Tschechische	43
TH@@	43
Irinotecan	43
Initiative	43
onid	43
Forsteo	43
ekretion	43
Tallinn	43
fir@@	43
19-@@	43
Gürtelrose	43
Urins	43
Ösophagitis	43
ödeme	43
II@@	43
Eisprung	43
cur@@	43
Induktionstherapie	43
dium	43
Rückfall@@	43
Amts@@	42
felines	42
G1	42
our@@	42
äquivalent	42
aly@@	42
Integr@@	42
neumonie	42
okulärer	42
Apathie	42
Reinigen	42
urg	42
multiplen	42
Rücknahme	42
Rein@@	42
Luft@@	42
gran@@	42
küh@@	42
terium	42
Thy@@	42
micro@@	42
dermal	42
12,@@	42
mens	42
SD@@	42
LA	42
OB@@	42
verzögern	42
Aktivkohle	42
spiegel@@	42
daraus	42
cholin@@	42
Z-@@	42
Verwaltungs@@	42
wirkungs@@	42
mengen	42
hervorgerufene	42
Depres@@	42
internen	42
ne-@@	42
paar	42
-Injektion	42
unterdrücken	42
inden	42
Sehnen@@	42
Char@@	42
ase@@	42
korrig@@	42
Wertes	42
stufe	42
Far@@	42
gebrauchsfertig	42
296	42
mg-Tablette	42
Bac@@	42
vir-@@	42
Ergänzung	42
aufziehen	42
XX	42
forderte	42
Posi@@	42
Resorptionsrate	42
IB@@	42
Insulintyp	42
voll	42
Chemotherapeutika	42
Augeninnendrucks	42
0,54	42
302	42
ausgewiesen	42
Weichteil@@	42
Carnaubawachs	42
Verlaufsform	42
gar	42
PE@@	42
PDT	42
solution	42
verlaufen	42
formulierung	42
rekonstitu@@	42
effe@@	42
überwachung	42
Gebühren	42
blu@@	42
ky@@	42
414	42
heits@@	42
Clomipramin	42
weg@@	42
miss@@	42
verlaufender	42
I-	42
nutzen	42
antivirales	42
Fas@@	42
berech@@	42
ogener	42
E2	42
First-Line-@@	42
Blutgerinnungs@@	42
fibrose	42
Klassifikation	42
2.000	42
ulin	42
Rötungen	42
WERDEN	42
053	42
UM	42
effektiv	42
Hinweisen	42
gelassen	42
urin@@	42
Proz@@	42
Myc@@	42
ul	42
Pilze	42
Schein@@	42
ME	42
GA	42
18.	42
bedar@@	42
fs	42
Kontraindikation	42
auszulösen	42
Fondaparinux-Natrium	42
Phospholipide	42
Hypoglyk@@	42
unkontrollierten	42
Ganzen	42
hol@@	42
gebil@@	42
Benserazid	42
reicht	42
begrenzter	42
aktualisierten	42
Schwangerschaftstests	42
Gesamtkörper@@	42
INJIZIEREN	42
ihm	42
Merial	42
vorsich@@	42
Stalle	42
bet@@	42
ays	42
erbracht	42
Aufsättigungsdosis	42
Brussel	42
Protease-@@	42
karte	42
Scale	42
kehr@@	42
werfen	42
PER@@	42
PLUS	42
epidemiologischen	42
336	42
mung	42
orischer	42
Ausgehend	42
475	42
Implant@@	42
gerung	42
stro@@	42
Hautfalte	42
Dun@@	42
Schock@@	42
T-Zellen	42
grippeartige	42
Plasmaspitzen@@	42
Hämatokrit	42
geschehen	42
nekrose	42
IF@@	42
bakterieller	42
illin	42
IST@@	42
sigen	42
dec@@	42
BEN@@	42
App@@	42
Leitung	42
Einklang	42
Methyl-4-hydroxybenzoat	42
kapselförmige	42
ungewöhn@@	42
ffer@@	42
Vorgehensweise	42
ID	42
ambul@@	42
Synth@@	42
Estro@@	42
chlorid	42
Vilnius	42
wirkende	42
einbezogen	42
plötzliches	42
277	42
Nadelschutz	42
entzün@@	42
Cholesterins	42
Schwein	42
Antigen@@	42
Komplex@@	42
Dann	42
1800	42
251	42
ems	42
Amnesie	42
Beglei@@	42
geschwüren	42
Abweichung	42
kurzfris@@	42
nicht-steroidalen	42
position	42
352	42
Verteporfin	42
glut@@	42
steigern	42
wesentliche	42
aft	42
Adhä@@	42
Verlangsamung	42
pass@@	42
block@@	42
Rücken	42
Bläschen	42
erleiden	42
Magen-Darm-Trakt	42
adäquaten	42
Einen	42
comprimés	42
FOLIE	42
matern@@	42
440	42
kombin@@	41
A.@@	41
Niederlanden	41
keits@@	41
Zeitspanne	41
steroi@@	41
renaler	41
Schu@@	41
pflanz@@	41
Inhibit@@	41
Mirapexin	41
ungeklär@@	41
grupp@@	41
neigen	41
aufzulösen	41
Nervenzellen	41
ungsmaßnahmen	41
Dex@@	41
zö@@	41
geborenen	41
symptom@@	41
Kausalzusammenhang	41
Anteils	41
ERS	41
ohy@@	41
jährliche	41
ro	41
WIRKSAMEN	41
Audi@@	41
yla@@	41
Pol@@	41
oprotein-@@	41
gestillt	41
Lettland	41
ose-	41
rä@@	41
Patientenpass	41
PR	41
Adrenalin	41
monatige	41
termin@@	41
CMD	41
allergan.com	41
klast@@	41
Penicil@@	41
Extravasation	41
Stimulierung	41
35-@@	41
Netzwer@@	41
additive	41
Acetyl@@	41
COX-2-Hemmer	41
Bindegewebs@@	41
Mamma@@	41
cy	41
Einzelfall	41
omie	41
opie	41
haut	41
Mitglied	41
inte@@	41
anorm@@	41
Poloxamer	41
Natriumedetat	41
16.	41
venösen	41
groß	41
Bakterien@@	41
Proteus	41
fluor@@	41
dosisproportional	41
generalisierten	41
anz@@	41
hysi@@	41
Kreatinin-@@	41
fortzusetzen	41
nichtsteroidalen	41
sistenz	41
kutane	41
426	41
scheinungen	41
depressive	41
Anstiegs	41
NNRTI	41
Knochenum@@	41
zufriedenstellend	41
PAR@@	41
einhergeht	41
Hautveränderungen	41
ren	41
ACE@@	41
Durchbruch@@	41
Oc@@	41
л@@	41
retention	41
development	41
vum	41
linien	41
mann	41
Opi@@	41
veränderung	41
Kälbern	41
SELBST	41
Sprycel	41
Periodic	41
co-infizierten	41
o.@@	41
Erregung	41
deckung	41
Mehrdosen@@	41
NE	41
Block	41
Insulinpumpen	41
implan@@	41
erreichte	41
astr@@	41
sterilem	41
Trock@@	41
Bauchdecke	41
Leukozyten@@	41
bronchiseptica	41
leere	41
aph@@	41
intrakranielle	41
Ausprägung	41
Augenlider	41
0,65	41
Κ@@	41
austausch@@	41
maleat	41
mt	41
Serumharn@@	41
INFORMATIONEN	41
zurückgezogen	41
n.	41
GMP-@@	41
tief@@	41
Agen@@	41
itali@@	41
Opioi@@	41
95@@	41
guten	41
Säure	41
drüse	41
ograph@@	41
mikrobiologischer	41
275	41
Subgruppe	41
febrile	41
Serum-	41
Labor	41
Farmacêutica	41
Calciumspiegel	41
mehrfacher	41
Allgemein@@	41
Butylhydroxytoluol	41
Harnstoff@@	41
NAMEN	41
vergleich@@	41
Bakteri@@	41
trate	41
zysti@@	41
irgendeiner	41
344	41
Versa@@	41
Sacchar@@	41
OLANZAPINE	41
Hüftfrakturen	41
325	41
inaktiv@@	41
Division	41
Handschuhe	41
NA	41
Risiko-@@	41
anomale	41
amy@@	41
Kranken@@	41
Yttrium	41
EME@@	41
Dokuments	41
stim@@	41
gesetz@@	41
Übersicht	41
gem@@	41
EE	41
hö@@	41
wasser	41
Anfalls@@	41
Symptomatische	41
Wir@@	41
Nebennieren@@	41
übermäßigen	41
iden	41
Verdauungs@@	41
aufgesetzt	41
5fache	41
Milchsäure	41
ungeeignet	41
Diazepam	41
Polyamid	41
dierten	41
acti@@	41
one@@	41
Wirksamkeitsergebnisse	41
adapter	41
Orangensaft	41
intrazelluläre	41
Bronch@@	41
Analy@@	41
wur@@	41
parenteral	41
Ductus	41
Ganzes	40
ic	40
übersteigt	40
ationsp@@	40
Sibutramin	40
SCHACHTEL	40
glas	40
600@@	40
schüt@@	40
Hautkrebs	40
mur@@	40
komplizierte	40
Arzneimittel-Vormischung	40
einzusetzen	40
OS@@	40
Eintropfen	40
COR@@	40
been@@	40
pylori-@@	40
gsten	40
omy@@	40
Parathyroidhormon	40
MEN@@	40
Gmbh	40
Anleitungen	40
pg	40
Kurz@@	40
tren@@	40
q12h	40
erfasst	40
abgestillt	40
Langzei@@	40
Endothel@@	40
HB@@	40
lex	40
psychotische	40
Zustands	40
Baseline	40
Ad-hoc-Arbeitsgruppe	40
tar@@	40
Retin@@	40
erstmaligen	40
urs	40
Lagerungsbedingungen	40
qualifizierten	40
hinter	40
befindliche	40
Oslo	40
Stufe	40
159	40
setzten	40
frühe	40
Derzeit	40
266	40
kontroll@@	40
farb@@	40
Parasiten	40
047	40
Avamys	40
dosierter	40
IC	40
Opioid@@	40
Glibenclamid	40
achte	40
256	40
Co-@@	40
Karzinom	40
Cancer	40
Makroli@@	40
grund	40
Antikörpertiter	40
Herstellungs@@	40
dems	40
Bakteriämie	40
Erythropoietin	40
größ@@	40
hat-@@	40
bedeutsame	40
Transplantat@@	40
Hautläsionen	40
aufgezeigt	40
Schn@@	40
VR	40
Lebendimpfstoff	40
AM	40
292	40
aufgedruckt	40
stein	40
Pramipexoldihydrochlorid	40
Anfrage	40
Hämagglutinin	40
Knochenmarks	40
arterie	40
pon@@	40
beantragt	40
virus-@@	40
ώ@@	40
prospektiven	40
tisch	40
Gi@@	40
Hautinfektionen	40
reversiblen	40
sämtlichen	40
Infusionspumpe	40
stand@@	40
Streifen	40
Hoden	40
Strahlung	40
stabilisiert	40
erwar@@	40
traum@@	40
gelben	40
Auffrisch@@	40
Fern@@	40
nachgewiesenen	40
SSRI	40
KEI@@	40
Nachbeobachtungszeit	40
obstruktion	40
toxizität	40
10mg	40
Uterus	40
Carboplatin	40
zid	40
hromycin	40
10,5	40
zytotoxische	40
schwacher	40
Dialy@@	40
Imiquimod-Creme	40
vastatin@@	40
klon@@	40
Besch@@	40
periodi@@	40
medikament@@	40
tödlicher	40
isten	40
ir	40
hergestellte	40
üssen	40
MRFG	40
625	40
ogenese	40
dos	40
osom@@	40
inform@@	40
viert	40
aci@@	40
501	40
311	40
transplant@@	40
ahydrat	40
atopischen	40
obac@@	40
dialysepflichtigen	40
Sm@@	40
ungsprozess	40
schlagen	40
Wachstumsh@@	40
Polyvinylchlorid	40
PO	40
Alfa	40
biologisch	40
Sicherheitsbedenken	40
kontinenz	40
Reiz@@	40
s.a.	40
Auftragen	40
blisterpackung	40
Prostatakrebs	40
Tub@@	40
23-@@	40
zien	40
canis	40
480	40
nit@@	40
Techn@@	40
Angelegenheiten	40
terie	40
Rh@@	40
schriftliche	40
asymptomatische	40
geschädi@@	40
tierischen	40
Epi@@	40
Stiripentol	40
vorlagen	40
Pflanzliche	40
verhältnis	40
Lymphopenie	40
unveränderter	40
lymphatischen	40
BLISTERPACKUNG	40
teter	40
assen@@	40
HRT	40
iel@@	40
Hypophyse	40
jemand	40
Mindestens	40
gelb@@	40
DMARDs	40
Verunreinigungen	40
etz@@	40
klaren	40
Substitutionen	40
Versch@@	40
kineti@@	40
leer	40
Farbstoff	40
Vollblut	40
erwägen	40
weisungen	40
F4@@	40
Prostatahyperplasie	40
Arrow	40
Mundes	40
stag	40
Begrenzte	40
karzinomen	40
Sprachstörungen	40
Blutdruckanstieg	40
schweres	40
Ciproxin	40
TIN	40
LV@@	40
Exper@@	40
E-01	40
80-@@	40
attenu@@	39
olen	39
unterdrückt	39
Schieds@@	39
Impfstoff-@@	39
Bad	39
68@@	39
Triglyceri@@	39
delta	39
arbei@@	39
mg-Tabletten	39
kardialer	39
CT13	39
No.	39
ys	39
Herstellers	39
463	39
500@@	39
Überwach@@	39
Aggression	39
Konsult@@	39
ieb	39
Organismen	39
korrigiert	39
DAMIT	39
COPD	39
abdomin@@	39
Injektionstechnik	39
innen@@	39
liegender	39
OBT	39
starkes	39
PDE5	39
Kontra@@	39
Syndrome	39
Konferenz@@	39
EK@@	39
D-	39
ption	39
Sil@@	39
zunehmender	39
hinzu@@	39
et-@@	39
gro@@	39
mittelgroße	39
formationen	39
5-ALA	39
chemie	39
Atemproben	39
Stufen	39
restlichen	39
ungsverfahren	39
Glucose-Galactose-Malabsorption	39
Asthma@@	39
Maus	39
abb@@	39
291	39
methoden	39
erzielten	39
Deleg@@	39
ular	39
fiziert	39
aufen	39
Allergan	39
ten.	39
erwähnten	39
verschriebenen	39
vul@@	39
Erytheme	39
EC	39
8-	39
Gesamtmortalität	39
VICH-@@	39
kristall@@	39
demselben	39
stärken	39
Isophan-Insulin	39
COM@@	39
verzögerter	39
Jo@@	39
geneti@@	39
Gegenanzeige	39
spenden	39
Solution	39
Kardi@@	39
gerä@@	39
gegenwärtigen	39
Sitzen	39
INR@@	39
Zuckern	39
MAO@@	39
QU@@	39
387	39
wirksamkeit	39
verordneten	39
Wach@@	39
fassung	39
Keuchhusten	39
aplas@@	39
Erkältung	39
gelenk@@	39
erleichtern	39
intermittier@@	39
Multipler	39
hemmung	39
Eigen@@	39
ικ@@	39
Tηλ	39
EGFR	39
Modi@@	39
DTP@@	39
Föten	39
HPV-@@	39
mg-Kapsel	39
oberfläche	39
HDPE-Flasche	39
akt@@	39
о	39
PHARMA	39
aeruginosa	39
PRILACTONE	39
Produktmerkmale	39
Puten	39
mischer	39
muster	39
Schwangerschaftswoche	39
Serotonin	39
häufigere	39
Implanon	39
synth@@	39
Ätiologie	39
Remissions@@	39
262	39
US-@@	39
Emend	39
Anti-H@@	39
Warnhinweis	39
BID	39
Hil@@	39
überwach@@	39
geschlechts@@	39
Citrat	39
Quin@@	39
1.8.2.	39
testen	39
ganze	39
änderungen	39
Pleuraerguss	39
materialien	39
Plazebo-Gruppe	39
unterstützenden	39
........@@	39
Rechnungsführung	39
pharmazeutische	39
Knochenmarks@@	39
gelitten	39
zweier	39
Eizellen	39
Hepati@@	39
Rhinotracheitis	39
hat@@	39
Schla@@	39
konzentrations@@	39
Oxaliplatin	39
prädispon@@	39
Kategorien	39
tischem	39
TRI@@	39
NL-2@@	39
Signifikanz	39
RR	39
ICH-@@	39
Spiegeln	39
wenigstens	39
geteilt	39
llen	39
erscheinungen	39
Aufbau	39
Sep@@	39
Kinetik	39
beta@@	39
ometr@@	39
ernähr@@	39
Erhaltung	39
bestätigter	39
Schädel@@	39
Betain	39
einger@@	39
verlu@@	39
tierischem	39
jucken	39
krämpfe	39
Begleit@@	39
Kortiko@@	39
Prozess	39
347	39
gerei@@	39
Lös@@	39
sig	39
Endstadium	39
streng	39
Gegebenenfalls	39
ining	39
Neutropenien	39
neutropen@@	39
Zehen	39
cus	39
EKG-@@	39
instabile	39
operationen	39
FORCALTONIN	39
PIs	39
aussetzen	39
ska	39
Blutharn@@	39
Osteoarthritis	39
Trübung	39
ehemmer	39
längliche	39
Thyro@@	39
Replikation	39
Dosierungsintervalls	39
Lat@@	39
ta	39
Zahnfleisch@@	39
gesichert	39
Appetit@@	39
186	39
BSC	39
brachen	39
----@@	39
ovas@@	39
verringertes	39
behandel@@	39
Träger	39
veränderten	39
First-@@	39
Eculizumab	39
Kleben	39
-Syndroms	39
Ganz@@	39
Hornhaut	39
Blutgerinn@@	39
ES-@@	39
ju@@	39
Erkennung	39
272	39
droh@@	39
ssen	39
ena	39
etikett	39
Wich@@	39
gleicher	39
vac	39
ventriculi	39
lase	39
opak	39
GAB@@	39
arteriosus	39
duodeni	39
altet	39
inaktivierte	38
AGE	38
Sweden	38
bitten	38
emea.eudra.org	38
säurespiegel	38
infektiöse	38
anten	38
ves	38
hepatischer	38
Basislösung	38
Synkopen	38
läsionen	38
Tablettenkern	38
ück@@	38
Leistungsfähigkeit	38
Melan@@	38
größten	38
Notaufnahme	38
Serokonversions@@	38
win@@	38
ulin@@	38
toxisch	38
és	38
milch@@	38
Ρ@@	38
Magenspülung	38
anschließender	38
äußerst	38
VERZEICHNIS	38
hautentzündung	38
Transport	38
kräf@@	38
beteiligten	38
Internationalen	38
Kältegefühl	38
zugeordnet	38
kuläres	38
Aufsatz	38
MAR@@	38
Aktive	38
derived	38
durchsichtigen	38
1-5	38
Intoleranz	38
häufiges	38
Kri@@	38
B-2@@	38
inaktiven	38
tal	38
wählen	38
077	38
verabschiedete	38
deutet	38
tablete	38
manche	38
rezidivierenden	38
Norm	38
Konvulsionen	38
vagin@@	38
gesetzter	38
Saccharomyces	38
J05@@	38
geschwindigkeit	38
Prot@@	38
ón	38
Temozolomid	38
-Gummistopfen	38
Forschungs@@	38
NACH	38
actin	38
ax	38
steriler	38
oten	38
übrigen	38
altern@@	38
62,5	38
Möglichkeiten	38
Qualitätsmanagement@@	38
filiaal	38
Ereignisses	38
asen@@	38
tidin@@	38
Wirkstoffes	38
Abbau@@	38
tos	38
18.@@	38
Halb@@	38
Zyt@@	38
Gadolini@@	38
Insulin-	38
kompatibel	38
Finger@@	38
Ungefähr	38
BN	38
Untergruppen	38
Assays	38
senkenden	38
Fließgleichgewicht	38
I.@@	38
Durchblutung	38
м@@	38
kürzer	38
Europharm	38
Aerobe	38
Ausgangs-@@	38
Refer@@	38
Thrombozytenaggregations@@	38
licht@@	38
Anästhesie	38
gre@@	38
tnissen	38
postoperativen	38
drogen@@	38
17.	38
Dy@@	38
kalium@@	38
Fortpflanzungs@@	38
ücken	38
и	38
Gentami@@	38
beeinträch@@	38
Infusionsdauer	38
ла@@	38
Thrombosen	38
Hautausschlägen	38
data	38
Pharmakotherapeutische	38
einheit	38
Verdrängung	38
pfeifendes	38
GLU@@	38
Pharmakovigilanzaktivitäten	38
EINZEL@@	38
Rekombinan@@	38
aufgaben	38
AUC0-@@	38
BM	38
sek@@	38
sämtliche	38
konsistent	38
Nagern	38
steri@@	38
Flöhe	38
alkoh@@	38
deckel	38
ole	38
Berich@@	38
ungsan@@	38
alpha	38
kompletten	38
20.	38
Zusammensetzung	38
Fettgewebe	38
ros	38
onat@@	38
gradi@@	38
Aspartataminotransferase	38
ungeachtet	38
verstanden	38
Koagul@@	38
Hier@@	38
floxacin	38
CYP-@@	38
stimm@@	38
178	38
Eradikation	38
resultierte	38
150@@	38
Tylvalosin	38
0,36	38
verfügen	38
bung	38
gummistopfen	38
esten	38
Filtration	38
LÖSUNG	38
hingegen	38
defin@@	38
ence	38
Herkunft	38
Stickstoff@@	38
prüfung	38
Vorlage	38
Rich@@	38
Cetrorelix	38
ischämischen	38
zunehmendem	38
Fluvastatin	38
enzym@@	38
355	38
Natrium-@@	38
Kaliumchlorid	38
Weiterbehandlung	38
Angehörige	38
6.4	38
Dosi@@	38
HBsAg	38
Harnstoff	38
sep@@	38
Neomycin	38
entes	38
ρο@@	38
synthetisches	38
Therapieabbruch	38
einreichen	38
Ytracis	38
Fache	38
muskulatur	38
Meg@@	38
Not@@	38
Mortalitäts@@	38
therapie@@	38
farblosen	38
Estradiol	38
Aufhebung	38
ormon	38
vo	38
ändert	38
trocken	38
ril	38
infusionsbedingten	38
ath	38
ns	38
ungsprogramms	38
Grenz@@	38
Lyophili@@	38
allmäh@@	38
CB@@	38
Endpun@@	38
Prof.	38
arterien	38
länglich	38
ischämischer	38
enter@@	38
Intelence	38
ISCHE	38
Extra@@	38
tis@@	38
schlug	38
ALT-	38
dauerhaften	38
στ@@	38
Arzneistoffe	38
Hepatitis-C-@@	38
erörtert	38
darm	38
ungsmaterial	38
äs@@	38
Dro@@	38
193	38
spritze	38
Blutfettwerte	38
üse	38
Einzeldosis-Durchstechflasche	38
244	38
95-@@	38
set@@	38
PCR	38
Ketoprofen	38
versehentlichen	38
tnis@@	38
Tysabri	38
Gerinnung	38
kamen	38
Wirksamkeit@@	38
myo@@	38
kun@@	37
Dinatrium@@	37
gewohnt	37
Byetta	37
interne	37
angehalten	37
ezi@@	37
morph@@	37
Wiederholungsimpfung	37
Hornhau@@	37
Keratitis	37
ulzer@@	37
Harnwegs@@	37
Atemwegsinfektionen	37
ef	37
Aufnahmen	37
ffer	37
800@@	37
Zusatzbehandlung	37
drückt	37
Stammzelltransplantation	37
best@@	37
vorzeitigen	37
Werfen	37
Länder	37
Tierversuchen	37
erfüllen	37
ίου	37
bedeut@@	37
hinaus@@	37
graf@@	37
knopf	37
Ausgang@@	37
zeitiger	37
initi@@	37
erfolgter	37
Ermittlung	37
Überlegenheit	37
Phosphodiester@@	37
assistierten	37
täten	37
Oxy@@	37
Saison	37
prophylaxe	37
Efflu@@	37
Oligurie	37
weib@@	37
lož	37
kinase-@@	37
Schilddrüsenfunktion	37
kontakt	37
fili@@	37
Kühl@@	37
ativ@@	37
13C-Harnstoff	37
Pompe	37
Blu@@	37
Amylase	37
auch@@	37
kognitive	37
Mast@@	37
cti@@	37
Netzhaut	37
HMG-CoA-Redukt@@	37
wel@@	37
Lipi@@	37
stechnik	37
Auffrischungsimpfung	37
nommen	37
tration	37
manifes@@	37
belastung	37
ungünsti@@	37
bedeutsamen	37
geschwächten	37
Neurotoxin	37
Tritt	37
Zoster	37
Post-Marketing-@@	37
zir@@	37
angioneur@@	37
quenz	37
eig@@	37
24.	37
geschult	37
Attacken	37
beginn	37
49-	37
zuviel	37
esse	37
Schraubverschluss	37
cat@@	37
Referatsleiter	37
Gynäkomastie	37
wir@@	37
Ki@@	37
raschem	37
Dukoral	37
Risiko-Verhältnis	37
Creatin@@	37
Verteilungs@@	37
solches	37
SE	37
76@@	37
zept@@	37
schien	37
tender	37
vorzeitig	37
Gadobutrol	37
beuteln	37
17,5	37
Powder	37
Dossiers	37
Austausch	37
ke@@	37
Dokument	37
SAS	37
zierende	37
abklingen	37
Mikroliter	37
sal@@	37
Dabigatran	37
Triglycerid@@	37
Abilify	37
Gewebes	37
12.2000	37
BEI	37
schätz@@	37
quali@@	37
Durchbruchschmerzen	37
nachfolgender	37
Antikonvulsiva	37
möchte	37
omb@@	37
ehrt	37
ßt	37
Latvijā	37
Behand@@	37
sedi@@	37
TEIL	37
additiven	37
Beta	37
guter	37
VII@@	37
dosierten	37
Delegierten	37
sts	37
Packungsbeilagen	37
mitgeliefert	37
Azopt	37
Knochenmineraldichte	37
neuromuskulären	37
ungst@@	37
Behandlungsarm	37
Ring	37
Umwelt	37
b.	37
Vorschläge	37
erhaf@@	37
Angiotensin-Converting-@@	37
trän@@	37
Gonazon	37
Metronidazol	37
eter@@	37
Ausbreitung	37
Rib@@	37
Sehvermögens	37
Bronchialkarzinom	37
Pferdeinfluenza	37
Hen@@	37
SI-1000	37
punkt	37
Protease	37
Masern-	37
Doppelblindstudie	37
späten	37
ograf@@	37
uss@@	37
beru@@	37
eingesiegelte	37
Opgenra	37
Cel@@	37
MERIAL	37
Attacke	37
fal@@	37
Bas@@	37
Plazenta	37
Titration	37
Zypadhera	37
wes@@	37
Sitaxentan-Natrium	37
gepool@@	37
Consumer	37
kel	37
01-@@	37
positives	37
Sympathomimetika	37
Histidin	37
Flaschenetikett	37
Ohren@@	37
Gesamtinzidenz	37
Tränenfluss	37
sekundär	37
onie	37
Rev@@	37
kindersicheren	37
Bechterew	37
inje@@	37
weiten	37
CZ-@@	37
633	37
rheumatoide	37
zusammenhängen	37
aufrechtzuerhalten	37
sth@@	37
weite	37
EX	37
infusion	37
Impfstoffdosen	37
TP@@	37
Š	37
Konjugat	37
residu@@	37
Plus	37
Humira@@	37
GBq	37
Enzy@@	37
Betreuung	37
FR	37
Eier	37
545	37
on-Therapie	37
Narkose@@	37
Nefazodon	37
Höhere	37
atop@@	37
BM@@	37
progre@@	37
Pur@@	37
läs@@	37
umpen	37
FA	37
sierendes	37
Carboanhydr@@	37
Gesäß	37
pul@@	37
Thromboembolie	37
markiert	37
nö@@	37
hellgelbe	37
anstatt	37
Natriumchlorid-Injektionslösung	37
Doxazosin@@	37
0-	37
entzündungshemmenden	37
bereiches	37
Immeuble	37
zine	37
tsp@@	37
Beziehungen	37
ppen@@	37
‡	37
Colonel	37
dierte	37
autolo@@	37
ziel@@	37
entschei@@	37
korrekten	37
Ob	37
sekretion	37
angi@@	37
Vernebler	37
drück@@	37
Blutergüssen	37
CYP3A4-Hemmer	37
Inhibition	37
Wis@@	37
prolifer@@	37
hydroxybenzoat	37
1x	37
ova	37
chene	37
Foli@@	37
200-@@	37
Projekte	37
gebung	37
PN@@	37
regelmäßi@@	37
Umwelt@@	37
trocknen	37
altung	37
hypert@@	37
Pharmakokinetik@@	37
gewünschten	37
Cephalosporine	37
eingesetzten	37
Zentralnervensystem	37
toxischer	37
Entzugs@@	37
entem	37
gefährlich	37
Plazebo-kontrollierten	37
rivestite	37
Arcoxia	37
felis	36
suizidalem	36
antipsychotischen	36
ace	36
eur@@	36
nal	36
Folsäure	36
339	36
umfassend	36
Risikofaktor	36
Eisenoxid	36
Osteopor@@	36
CTC	36
rö@@	36
Jungtieren	36
eme	36
aktivem	36
Kleidung	36
ozyten	36
korreliert	36
Treten	36
sei@@	36
ZUM	36
CYP3A4-Inhibitor	36
Abfallbehälter	36
Gummimembran	36
Valnemulin	36
Gesamtvolumen	36
-Phosp@@	36
wohl	36
Empfohlene	36
bösartige	36
direktem	36
dosierte	36
Patientenjahren	36
Stühle	36
adren@@	36
empfän@@	36
Sicht@@	36
förmig	36
blasen@@	36
hergestellten	36
Nadelspitze	36
abgeleitet	36
smus	36
Sevelamer	36
ANTI@@	36
änderung	36
enzep@@	36
gesagt	36
Verschließen	36
kg-@@	36
kologischen	36
organi@@	36
581	36
LV-1004	36
usst@@	36
Schnappdeckel	36
wahr@@	36
442	36
Interaktionsstudie	36
Suc@@	36
Infektionsrisiko	36
Nitraten	36
Tendenz	36
Erklärung	36
Änder@@	36
Bündelpackungen	36
Ganciclovir	36
Nebenschilddr@@	36
abnimmt	36
negativer	36
Verlänger@@	36
metabolischen	36
nissen	36
stabilität	36
opp@@	36
Erregern	36
#	36
uni@@	36
Redukt@@	36
Exubera	36
Rezidiv	36
oid	36
wä@@	36
Sorgfalt	36
cerevisiae	36
Therapieschema	36
Protamin-@@	36
orte	36
heit@@	36
Immunglobulinen	36
Kupfer	36
statistische	36
Kanzerogenitäts@@	36
empfindlicher	36
pulmonal	36
dun@@	36
Glucos@@	36
botulinum	36
expositi@@	36
glykosy@@	36
bewer@@	36
20.000	36
pegyliertem	36
zahlen	36
Velcade	36
hu@@	36
NSCLC	36
prote@@	36
Cipro@@	36
Intervention	36
Abstoßungs@@	36
Referate	36
Tageshöchstdosis	36
31-@@	36
response	36
Lokali@@	36
Hören	36
xe	36
weises	36
Auflagen	36
tau@@	36
koll@@	36
CYP3A4-Inhibitoren	36
Alimta	36
jugendlichen	36
Befestigen	36
passieren	36
otyp	36
Ess@@	36
Unmittelbar	36
schrauben	36
LVEF	36
Therapieende	36
-Konzentration	36
Auftrag	36
Kollaps	36
Ethyl@@	36
Leistungen	36
PID	36
STR@@	36
ης	36
Gebrauch@@	36
langer	36
biphasi@@	36
MDS	36
Arznei@@	36
Traubenzucker	36
exprimi@@	36
machten	36
Nephritis	36
erst@@	36
ücke	36
Vorsichtsmaßnahme	36
minütige	36
supporti@@	36
Mikrosphären	36
39-@@	36
CYP2C9-@@	36
kammer	36
Behandlungsschemata	36
einhergehende	36
B-10@@	36
Normalerweise	36
tigungs@@	36
vorkommenden	36
Natrium-	36
Muskelsteifheit	36
Hautkontakt	36
Natriumphenylbutyrat	36
Professor	36
d.@@	36
Viele	36
640	36
vernachlässigbaren	36
Typ@@	36
Dies@@	36
ligen	36
metaboliten	36
auton@@	36
res	36
Formel	36
fo@@	36
Fru@@	36
verzögerten	36
äten	36
Lokale	36
Hautreizungen	36
Ausscheidungs@@	36
sein@@	36
basis	36
Magengeschwür	36
ylierung	36
Bekannte	36
Aller@@	36
11.2001	36
Kälber	36
Echokardi@@	36
Nacht	36
241	36
289	36
otisches	36
Ny@@	36
Hauter@@	36
Σ	36
verbleiben	36
Übergewicht	36
nachstehenden	36
Überblick	36
Tiermodellen	36
Std	36
Phosph@@	36
äres	36
aktivierte	36
New@@	36
SF	36
Serumkalium@@	36
Sicherheits-	36
Supp@@	36
etab@@	36
operiert	36
brüchen	36
Verminderte	36
verwandten	36
Grippe-ähnliche	36
fizier@@	36
Kör@@	36
vergröß@@	36
ausgewählten	36
Meldung	36
-1-@@	36
zytotox@@	36
degener@@	36
field	36
anfänglich	36
FIRMAGON	36
2500	36
anweisen	36
Norethisteron	36
line-@@	36
ALL@@	36
ausgeglichen	36
flüssiges	36
Paraffin	36
stämme	36
Hitze@@	36
gert	36
Erklärungen	36
E464	36
motorischen	36
uli	36
trüb	36
gefriergetrock@@	36
Hämoglobins	36
Child-Pugh-Klasse	36
Rückstände	36
Défense	36
Einigung	36
Fegersheim	36
formation	36
Konzentrationsstörungen	36
96@@	36
istischen	36
Muster	36
Reaktivierung	36
grüne	36
Glukose-@@	36
up	36
arthr@@	36
-Zeit	36
multiple	36
eosin@@	36
Metaflumizon	36
Mirtazapine	36
Estland	36
sech@@	36
Forschung	36
atr@@	36
Gummistopfens	36
COP@@	36
Chlorobutyl@@	36
Vergiftung	36
Stabili@@	36
Anaphylaktische	36
Ergänz@@	36
elektronische	36
John	36
dio@@	36
zurückzu@@	36
Trudexa-@@	36
kontrollier@@	36
gewonnenen	36
erleichtert	36
VEG@@	36
ase-Mangel	36
habt	36
Dom@@	36
Primärer	36
bevorzugt	36
fünften	36
4-6	36
fizierte	36
sur@@	36
band@@	36
Organ	36
dienste	36
Response	36
knochen@@	36
patients	36
intraabdomin@@	36
uspension	36
bestandteile	36
kreis@@	36
Inspe@@	36
verlängerung	36
Befassungsverfahren	36
ker@@	36
Lebertoxizität	36
kautschuk	36
abgeschwä@@	35
hinzuweisen	35
genetischen	35
zäh@@	35
tic	35
arrhyth@@	35
Daclizumab	35
Aspir@@	35
gerollt	35
Ramsgate	35
grenz@@	35
septi@@	35
Gefäßen	35
400@@	35
City	35
erhöhung	35
verse	35
Salmon@@	35
nächstgelegenen	35
ie-	35
Familien@@	35
MIT@@	35
TEL@@	35
22.	35
Non-Hodgkin-Lymphom	35
hypot@@	35
Antidepressivum	35
Koordination	35
indung	35
Obstruktion	35
topenien	35
zes	35
gereini@@	35
Isoenzym	35
SICHEREN	35
enzy@@	35
2g	35
Acet@@	35
Kiefer@@	35
Ariclaim	35
verabreichende	35
örtlich	35
siertem	35
Ausnahmefällen	35
NYHA	35
tief	35
lose	35
be-	35
geisti@@	35
dierung	35
Einzel-	35
265	35
anfälle	35
verändertes	35
Bindehautentzündung	35
übermäßiges	35
kumulativen	35
Gener@@	35
kation	35
Subtypen	35
myeloischen	35
exprimiert	35
schwangerschaft	35
onin	35
kontrast@@	35
Pack@@	35
Ps	35
pin	35
1628	35
Renin-@@	35
Fentanyl-@@	35
DUET@@	35
oides	35
gn@@	35
seroton@@	35
stimulieren	35
dringen	35
tox@@	35
Gelb@@	35
einzuhalten	35
HER2	35
ulier@@	35
Rückenmark	35
kru@@	35
UMAN	35
Labyrinths	35
mitglie@@	35
abgelöst	35
Sildenafil@@	35
entzündlichen	35
783	35
ú@@	35
Veterinär@@	35
Facharzt	35
Alkal@@	35
Positionen	35
überschreitet	35
beeinträchtigter	35
49-@@	35
Dienst@@	35
einzustellen	35
verbleibende	35
Die@@	35
567	35
starben	35
ovari@@	35
Beur@@	35
bilität	35
-Hemmers	35
Vereinbarung	35
auszugehen	35
Instrum@@	35
zugelassener	35
ratio	35
thrombozytopenische	35
Diffus@@	35
FSH-@@	35
SE-@@	35
still@@	35
Rec@@	35
itzen	35
Krebsarten	35
klein	35
trägen	35
klären	35
Boulevard	35
entlang	35
behin@@	35
stattung	35
eingebracht	35
Benachrichtigen	35
farbigen	35
Lie@@	35
Gram-negative	35
Ander@@	35
13,5	35
beeinträchtigte	35
mani@@	35
μα@@	35
Plasmaspiegels	35
Path@@	35
Sirolimus-@@	35
Dolmet@@	35
Elektrolythaushal@@	35
Großbritannien	35
reichten	35
Serumkreatinins	35
Vergleichsgruppe	35
ausgewählt	35
Hepatomegalie	35
Doppel@@	35
HAM@@	35
Mitarbeitern	35
3b	35
antihypertensiven	35
Variante	35
Concept	35
Maropitant	35
HARTKAPSELN	35
evaluation	35
harmonisieren	35
Kalender@@	35
Folgeverfahren	35
B.@@	35
pH-Wer@@	35
ols	35
Dig@@	35
228	35
503	35
Linearität	35
fle@@	35
konzipiert	35
Salzform	35
prognosti@@	35
hemmende	35
Herzrasen	35
ausdrücklich	35
krank	35
Optimierung	35
fötale	35
Bescheinigungen	35
core	35
Glucuroni@@	35
061	35
Yttrium-90	35
Trend	35
Intervalls	35
source	35
Nukleosid-@@	35
Verstoffwechselung	35
Gallenblase	35
etzt	35
getr@@	35
Gemeinschafts@@	35
Versorgung	35
dämpf@@	35
Denk@@	35
T-Zell-@@	35
weißliche	35
oster@@	35
Bre@@	35
ST	35
jun@@	35
Duloxetine	35
abnormales	35
50.000	35
anamnestisch	35
Wechsel@@	35
dialysepflich@@	35
Wirksamkeits-	35
wasserfreies	35
Knochenbildung	35
systolischen	35
verblindeten	35
Lisboa	35
Myo@@	35
INJEKTION	35
verschreibt	35
Zen@@	35
LDL	35
AMD	35
MPS	35
gebr@@	35
klassifiziert	35
KAPITEL	35
meth@@	35
den.	35
Dysurie	35
onaler	35
antineoplas@@	35
ehal@@	35
Vin@@	35
Grenzwerte	35
12,0	35
Kaliumdihydrogenphosphat	35
hig@@	35
Vorgang	35
Beru@@	35
Zubrin	35
dopaminergen	35
standardi@@	35
Ras@@	35
Geschmacksempf@@	35
fix@@	35
Hohe	35
Sinnes@@	35
anfängliche	35
befalls	35
dialy@@	35
ormon@@	35
wahrscheinlicher	35
Chol@@	35
gmen@@	35
oftware	35
Finanz@@	35
Glukos@@	35
Projekt@@	35
versagens	35
trei@@	35
trali@@	35
Surrey	35
abilität	35
cut@@	35
CrCl	35
Dosierungsbereich	35
Rocuronium	35
dehydrogenase	35
geometrischen	35
Therapieversagen	35
orangefarbene	35
Propyl@@	35
OT@@	35
Minimierung	35
Aorten@@	35
analysiert	35
Hyperthermie	35
Stuhl@@	35
Dosiseinstellung	35
Inhaltsstoffe	35
Einzelgabe	35
profitieren	35
451	35
diabe@@	35
lympho@@	35
Derivat	35
nmol	35
gestützt	35
Verfahrens@@	35
onin@@	35
Thromboplastinzeit	35
Zuge	35
Wechseln	35
Jungsauen	35
Blutungsereignisse	35
VERBUNDENEN	35
12-wöchigen	35
Insulindetemir	35
alles	35
Hepatitis-B-Infektion	35
Babys	35
am-	35
olin	35
ml-Flasche	35
verbrauchte	35
Erb@@	35
Apfel@@	35
Herr	35
Hef@@	35
Dokumentenverwaltung	35
lich-@@	35
Cytochrom-P@@	35
verdünnten	35
Erweiter@@	35
Pro	35
Eli@@	35
kanzer@@	35
Aclar	35
ierenden	35
herap@@	35
Proje@@	35
lini@@	35
rein	35
leeren	35
enem	35
Methylnaltrexoniumbromid	35
Vertrau@@	35
Band@@	35
0,04	35
rich@@	35
foli@@	35
Doxastad	35
Olanzapine	35
Magnesium	35
tnis	35
Ansammlung	35
Zweifach@@	35
schung	35
Tritazide	35
Körperfetts	35
ulcerosa	35
stimulier@@	35
Bringen	35
kanäle	35
stin@@	35
197	35
Calicivirus	35
furoate	35
334	35
einheiten	35
leben	35
glomerulären	35
zerklein@@	35
üsen@@	35
MRA	35
Aluminium-Blisterstreifen	35
fördern	35
-Population	35
wert@@	35
О	35
Leukämie@@	34
Carboxymethylstärke-Natrium	34
Bruchrille	34
Gre@@	34
Ernährungs@@	34
abel	34
sitzung	34
x1	34
unerwartete	34
durchmischen	34
Ipsen	34
Blutfluss	34
Abwesenheit	34
Studienpopulation	34
chungen	34
derzeitige	34
44-	34
Bisphosphonaten	34
monatliche	34
eit@@	34
öch@@	34
andauernden	34
Forte	34
verschlimm@@	34
Rumänien	34
transportieren	34
Zulassungsbehörden	34
System@@	34
Forum	34
Verhüt@@	34
λι@@	34
RMS	34
klinisch-@@	34
y-	34
298	34
Palifermin	34
CCR5-@@	34
Ant@@	34
einnahme	34
Vorübergehende	34
lia	34
beinhalteten	34
Ali@@	34
Schweiß	34
pfer	34
hindeutet	34
Tränen@@	34
Thrombophlebitis	34
Raloxifen@@	34
Lor@@	34
hen@@	34
Aluminiumkappe	34
Vermehrung	34
gesunder	34
Plötz@@	34
ette	34
TM@@	34
Desinfektions@@	34
einigte	34
Antiemetika	34
Schaf@@	34
Galact@@	34
lasien	34
spezies	34
molekul@@	34
Mehrlings@@	34
Ohr	34
sicherung	34
meningitidis	34
Denmark	34
Flo@@	34
Mehrfachdosierung	34
DK	34
intrazellulären	34
Neuroleptika	34
malige	34
Zytostatika	34
kleb@@	34
.c@@	34
zufrieden	34
ambulant	34
Innen@@	34
genes	34
liposom@@	34
abweichende	34
Hefezellen	34
asymptom@@	34
Luftbläschen	34
BIG	34
publi@@	34
inhibit@@	34
Bedienung	34
Zufuhr	34
Han@@	34
gewählten	34
Dop@@	34
Trau@@	34
hergestelltes	34
fakt@@	34
SK-8@@	34
Einwände	34
stadium	34
HIV-infizierte	34
HL@@	34
Institute	34
Maßnahme	34
Kanülenschutzvorrichtung	34
Venenthrombosen	34
Erhaltungsphase	34
anzeigt	34
Plasma-Clearance	34
erwachsener	34
MCyR	34
Psychose	34
Trometamol	34
Matrixpflaster	34
dal@@	34
orrhoe	34
Strategie	34
Japan	34
Übergang	34
sali@@	34
Mass@@	34
verwendbar	34
abgestimmt	34
Informationspaket	34
Guan@@	34
Knie@@	34
Proteas@@	34
Todes@@	34
brauch	34
Erhaltungs@@	34
Aer@@	34
fördert	34
IGF-1-@@	34
Allé	34
ENE	34
Ramipri@@	34
Rauch@@	34
wissenschaftlicher	34
fizierung	34
ungewöhnlich	34
spricht	34
Kombination@@	34
Langzeitansprechen	34
clearance	34
musste	34
ras@@	34
ANG@@	34
com	34
Kreatin@@	34
VI	34
Gummi	34
ral	34
Herzleistungsschwäche	34
mutagene	34
ungen@@	34
Nut@@	34
zer	34
Opti@@	34
fehler	34
arer	34
Miglustat	34
Partnerin	34
Insulininfusionspumpen	34
verletzung	34
sästhesie	34
farkt	34
lant@@	34
zugunsten	34
feld	34
Lebermikrosomen	34
dd@@	34
Hepat@@	34
GEBRAUCH	34
305	34
-Plan	34
18,7	34
ACE-	34
ütz@@	34
ösung	34
schluß	34
nekro@@	34
Region	34
hals	34
Benz@@	34
behalten	34
gek@@	34
ats@@	34
Pyelonephritis	34
gefährliche	34
.E.@@	34
mati@@	34
Schalen	34
schloss	34
autom@@	34
GnRH	34
pointes	34
ар@@	34
eit	34
Resorptions@@	34
Schwangerschaftsverhüt@@	34
Inhabers	34
CR-@@	34
Jahres-@@	34
Wann	34
Nephrolithiasis	34
Stand@@	34
fran@@	34
Amt	34
bleme	34
impfen	34
miteinander	34
Plasmaclearance	34
endgültigen	34
tabletta	34
inaktivierten	34
modifizierten	34
Maximale	34
HCV-RNA	34
Warten	34
aufhören	34
Einschlafen	34
0,67	34
Gadoversetamid	34
LTD	34
329	34
kongenit@@	34
428	34
masse	34
erre@@	34
proteinen	34
Fon@@	34
Λευκωσία	34
252	34
zoster	34
zytopenie	34
Reinigung	34
terung	34
mid@@	34
Gélule	34
Seine	34
rati@@	34
367	34
weiteres	34
regime	34
Alph@@	34
graphie	34
vierte	34
streifen	34
CYP3A4-Induktoren	34
HE@@	34
Arbeitsauf@@	34
anästh@@	34
pol@@	34
pot@@	34
048	34
ärz@@	34
funktions@@	34
id-@@	34
ff	34
001-003	34
0,06	34
bezeich@@	34
Sign@@	34
Antikörper-@@	34
metho@@	34
Bromobutyl@@	34
verteilung	34
sparameter	34
behörde	34
verbrauchten	34
Propyl-4-hydroxybenzoat	34
komplex	34
bildeten	34
564	34
potentiellen	34
tiefen	34
schmerzhaf@@	34
Empf@@	34
vorheriger	34
oat	34
radio@@	34
Interfer@@	34
Feigwarzen	34
Rem@@	34
bipolarer	34
Verschwommensehen	34
wirkte	34
atmen	34
της	34
gewichts	34
strom	34
Insulinanaloga	34
act@@	34
Langzeitstudie	34
PAN@@	34
por@@	34
Nitisinon	34
Gastro@@	34
blemen	34
Verbrauch@@	34
aufgeklebt	34
Fen@@	34
Metoprolol	34
Mehr	34
Risperid@@	34
Glutam@@	34
-Dosen	34
wiederkehr@@	34
statt@@	34
schwerwiegen@@	34
530	34
RAP@@	34
Einzeldosis-Fläschchen	34
gl.	34
gewöhnliche	34
Estrogen@@	34
treat	34
adjus@@	34
Formaldehyd	34
67640	34
TVT	34
Entscheidungen	34
Plasma-	34
öh@@	34
usses	34
Cholesterin@@	34
zeitlich	34
Porfimer-Natrium	34
Protokoll	34
MAOI	34
tiv@@	34
CYP1A@@	34
Oxi@@	34
folgendem	34
Rachens	34
schätzen	34
saubere	34
Nasenspray	34
Pharmakovigilanz-System	34
toxi@@	34
Phenylketonurie	34
Tetrazyklin@@	34
Standardabweichung	34
kriterien	34
sicherheits@@	34
Beispiele	34
langsam@@	34
-Zeit-Kurve	34
Hem@@	34
entfaltet	34
reichlich	34
Antiarrhythmika	34
Compassionate-Use	34
orphin@@	34
essenzieller	34
tatsäch@@	34
unsicher	34
BAR	34
besprochen	34
Aluminiumhydroxid	34
Filter@@	34
394	34
zug	34
10,1	34
10.2002	34
MRT-@@	34
ethnischer	34
ormonen	34
leistung	34
chirurgischer	34
ст@@	34
follik@@	34
geringerer	34
Terat@@	34
Papier@@	34
Umverteilung	34
lanzapin	34
offiziell	33
HIV-RNA	33
UGT1A@@	33
Meth@@	33
beige@@	33
DR@@	33
Verw@@	33
Gerät	33
ösophagealer	33
ktiver	33
TNFα	33
werk	33
kleineren	33
Fentanyl@@	33
demi@@	33
aschen	33
visuellen	33
progressionsfreien	33
FÜ@@	33
Ton@@	33
Äquivalenz	33
rigen	33
Steroid@@	33
benutzte	33
Regulatory	33
gram	33
Zalcitabin	33
cholin	33
ordnungsgemäß	33
θ@@	33
Polypen	33
Yentreve	33
aufgesch@@	33
MEN	33
Todesfolge	33
angestrebt	33
Land	33
ablen	33
Kennzeichnung	33
mutationen	33
aut@@	33
post-@@	33
Datenlage	33
064	33
zahlreiche	33
GKID50	33
Myositis	33
definierten	33
Normalbereichs	33
Gal@@	33
anhaltend	33
älterer	33
basierten	33
tex	33
flexi@@	33
kontamin@@	33
ga	33
Erythr@@	33
Leberenzymen	33
Halsbereich	33
Uxbridge	33
tili@@	33
Kohorte	33
Lamotrigin@@	33
lossenen	33
Kit@@	33
mg-Filmtabletten	33
Cat@@	33
Vorder@@	33
omot@@	33
Kolbenstopfen	33
enger	33
phosp@@	33
sweise	33
FALLS	33
Glucur@@	33
stoßen	33
absorbiert	33
Selbstmord@@	33
organ	33
juvenilen	33
PRE@@	33
lindern	33
metasta@@	33
Einteilung	33
zide	33
hielten	33
kausaler	33
kulturen	33
Suvaxyn	33
trotzdem	33
herp@@	33
erzeu@@	33
E9@@	33
MHK	33
wässriger	33
familiäre	33
Epilep@@	33
emotionale	33
Einschätzung	33
Verhütungsmethoden	33
wasserfreie	33
zirk@@	33
Holdings	33
Thyrotropin	33
enverschluss	33
cre@@	33
tex@@	33
LDH	33
lierte	33
Ve@@	33
1.1	33
Zähne	33
Fest@@	33
422	33
lähmung	33
mat	33
k-	33
Perforation	33
Reisen	33
Meningokok@@	33
Angioödeme	33
Lederle	33
alleinige	33
98@@	33
College	33
Brustschmerz	33
ham	33
Enterobacter	33
Versuch	33
32-	33
Polyethylen-@@	33
Barbitur@@	33
Titr@@	33
verwaltung	33
0,125	33
Lithium@@	33
Venenpunktionsbesteck	33
or-	33
üben	33
likationen	33
Alexion	33
Angabe	33
Asthmakontrolle	33
Alkoholkonsum	33
Tei@@	33
Ribavir@@	33
Thrombozytenzahlen	33
oberfläch@@	33
Th@@	33
Zuckerkrankheit	33
attacken	33
Pharmakovigilanz-Aktivitäten	33
dargelegten	33
Humanes	33
Transplantatabstoßung	33
Hel@@	33
profil	33
flach	33
zykli@@	33
Steroiden	33
MS-@@	33
termin	33
Überlebensdauer	33
bli@@	33
population	33
Befolgen	33
299	33
reisen	33
Star@@	33
errech@@	33
verlauf@@	33
igkeit	33
Natriumbenzoat	33
236	33
Entwicklungstoxizität	33
estra@@	33
sz@@	33
hf	33
ark	33
Abschluß	33
Prozesse	33
obi@@	33
entfer@@	33
Assessment	33
methode	33
wir	33
therapiert	33
EM	33
inaktive	33
Gran@@	33
erfolgten	33
Vaginal@@	33
Progressions@@	33
Polymer@@	33
kaukasi@@	33
siko	33
ese-@@	33
festen	33
aufgelisteten	33
IPV	33
Absch@@	33
Plastik	33
vall	33
3x@@	33
hinteren	33
erlaub@@	33
tub@@	33
Reifung	33
pur@@	33
neuroleptisches	33
Altern@@	33
Klassifizierung	33
ult@@	33
Mac@@	33
äußert	33
Pankreas	33
interag@@	33
cremefarbene	33
neuropathischen	33
Empfän@@	33
Sulfat	33
Torsades	33
u.a.	33
Drive	33
TAN	33
Maximal@@	33
Days	33
asy@@	33
metr@@	33
Serumkreatin@@	33
843	33
mir@@	33
ensibili@@	33
cholest@@	33
n-	33
umhüll@@	33
Nordic	33
IST-@@	33
Berichterstat@@	33
fenster	33
Grade	33
Fähigkeiten	33
diagnostizierter	33
capsules	33
Studienprogramm	33
Grange	33
Glycerol@@	33
ACR-@@	33
knopf@@	33
pin@@	33
farbloses	33
Lösen	33
ometrin	33
ay	33
vertebraler	33
refraktären	33
Firocoxib	33
Hinzufügen	33
3A@@	33
extension	33
Pneumokok@@	33
Fir@@	33
Cum@@	33
Gemeinsame	33
ys@@	33
Proliferation	33
Erd@@	33
ühren	33
Plazentaschranke	33
freisetzung	33
hebung	33
Start@@	33
Merz	33
Zwisch@@	33
Schweregrade	33
verschw@@	33
Hämostase	33
Dispersion	33
herausge@@	33
fehlen	33
062	33
übung	33
ICH@@	33
gerin@@	33
umgeb@@	33
temperatur	33
SIEHE	33
gebildeten	33
Kenn@@	33
ties	33
einher@@	33
pflich@@	33
Paroxetine	33
Luer-@@	33
TION	33
3-5	33
Zweck	33
B-Impfstoff	33
human@@	33
armen	33
tis-@@	33
hydroly@@	33
DK-@@	33
METALYSE	33
Normalwerte	33
Zuständen	33
notwendige	33
Gebrauchsanleitung	33
Kokzidi@@	33
Phenylalaninblutspiegel	33
Silikon@@	33
AME@@	33
Allgemein	33
Abb	33
Kumulation	33
Masern-@@	33
versucht	33
RENITEC	33
Diagnose@@	33
Kardiotoxizität	33
unerwünschtes	33
wa	33
Serum-Kreatinin	33
onali@@	33
ist@@	33
modu@@	33
anomalien	33
A-10@@	33
0,43	33
Quinta	33
Fak@@	33
rezidivier@@	33
Systeme	33
ART@@	33
orienti@@	33
Kat@@	33
suizid@@	33
505	33
99,5	33
Furoate	33
sensorische	33
462	33
1.8.1.	33
Sili@@	33
hormoneller	33
pflanzlichen	33
Endkonzentration	33
Flüssigkeitsansammlungen	33
eutikum	33
verlänger@@	33
Generi@@	33
CHOP	33
isiert	33
Stammzellen	33
transportiert	33
Embryotoxizität	32
UAWs	32
ZDV	32
Ad-hoc-Arbeitsgruppen	32
Film	32
tropen	32
Aut@@	32
Vil@@	32
14,5	32
HIV-Infektionen	32
milchigen	32
behäl@@	32
Mensch	32
defini@@	32
aufbrauchen	32
grundsätzlich	32
uspensionen	32
Windpocken	32
föt@@	32
Nackenschmerzen	32
vollständiger	32
bra@@	32
Αθήνα	32
Adipositas	32
MRP	32
Tar@@	32
Stoff	32
behandeltem	32
Pleur@@	32
opak@@	32
SRL	32
kongesti@@	32
Warnzeichen	32
Steifheit	32
Basistherapie	32
Glaukom	32
Präparates	32
Botulinumtoxin	32
Poten@@	32
Ioflupan	32
0,5-@@	32
verkürzt	32
Eis@@	32
-Konzentrationen	32
Yarvitan	32
HINSICHTLICH	32
parenter@@	32
Desorientiertheit	32
Liegen	32
Cephalospor@@	32
Unfähigkeit	32
Erröten	32
dene	32
beschichtet	32
zerebrovas@@	32
Transpor@@	32
aktivitäten	32
Herzinfark@@	32
Potenzials	32
gemäß@@	32
P.	32
HDPE-Flaschen	32
indirekte	32
sinken	32
stem	32
pflanzliches	32
kontrazep@@	32
blen	32
phosph@@	32
mittelgradigen	32
juveniler	32
verschwanden	32
krampf	32
multipler	32
sofortigen	32
Les	32
beige	32
Sach@@	32
beabsich@@	32
Win@@	32
salz	32
genetische	32
Koordinierungsgruppe	32
abrup@@	32
orat@@	32
Rassen	32
Antihypertonika	32
erworbener	32
Technische	32
Dopamin-@@	32
Gefäße	32
Rami@@	32
Gripp@@	32
triebs@@	32
abschnit@@	32
MHK@@	32
heute	32
lokaler	32
nukleosidischen	32
Parecoxib-Natrium	32
famili@@	32
bezug	32
QWP	32
extensi@@	32
Enzymen	32
Verzö@@	32
Blutzuckereinstellung	32
Toxi@@	32
city	32
Metaboli@@	32
E-	32
hilfe	32
lar@@	32
Chemotherapien	32
0,004	32
KWIKPEN	32
0,95	32
HAR@@	32
öt@@	32
tiefer	32
AMPULLE	32
Anfangsdosierung	32
wachsende	32
inhydrochlorid	32
Temoporfin	32
arbeit	32
geworden	32
zept	32
eingeschleust	32
24-wöchigen	32
Warn@@	32
ämie-@@	32
Vistide	32
zurzeit	32
Amlodip@@	32
phosphat@@	32
CVMP-@@	32
eci@@	32
2.1	32
Carglumsäure	32
fro@@	32
spä@@	32
herum	32
Grupp@@	32
anerkan@@	32
gigen	32
Handel	32
Farmaceuti@@	32
Wartezeiten	32
Xant@@	32
Thema	32
nter	32
Papier	32
13.	32
gig	32
Kraft	32
jenen	32
1992	32
ELISA	32
abnormes	32
ernsthafte	32
TES	32
Scheide	32
nä@@	32
Stimm@@	32
DER@@	32
umgesetzt	32
versehentlichem	32
21-@@	32
Medikaments	32
Klinik	32
Retino@@	32
ological	32
Immunsuppressivum	32
Gang	32
blatt	32
QT-Intervall	32
Verschluss@@	32
zählt	32
Respirat@@	32
spers@@	32
beiträgt	32
TAS@@	32
Karte	32
Amin@@	32
sitzen	32
warzen	32
Norelgestromin	32
D-5@@	32
Nasennebenhöhlen	32
on-Dosis	32
vernachlässigbar	32
imp@@	32
weis@@	32
Stelara	32
hepat@@	32
ABSATZ	32
schupp@@	32
freier	32
v.	32
Natriummonohydrogenphosphat-Dihydrat	32
Protaminsulfat	32
Gebieten	32
Firmagon	32
dlich	32
mitis	32
TAR@@	32
einigung	32
espiegels	32
Trihydrat	32
plazeb@@	32
Irritationen	32
Schulter@@	32
Panleukopenie	32
Laser@@	32
deter	32
but@@	32
gemessene	32
Va@@	32
450-@@	32
268	32
Beerse	32
transplantat	32
hinweise	32
senkrecht	32
neutralisierenden	32
Glukokortiko@@	32
BioMarin	32
biom@@	32
gelegte	32
IMP@@	32
Phenylalanin@@	32
Methad@@	32
25mg	32
praktisch	32
Ker@@	32
SWP	32
Antihistaminikum	32
grauen	32
ano	32
Gesamt-	32
PBPC	32
schwindelig	32
Schwindel@@	32
Niedrige	32
acin	32
Dr	32
Neurotoxizität	32
Terfenadine	32
Folli@@	32
glicher	32
atyp@@	32
lock	32
zogene	32
erteilten	32
malignes	32
anhaltendem	32
umfassenden	32
Volumen@@	32
Omega	32
Sulfonylharnstoffe	32
gonist	32
Referenzprodukt	32
go@@	32
Zellzahl	32
toxikologischen	32
vet@@	32
Cancidas	32
fokale	32
amm	32
glyk@@	32
besseren	32
SPR@@	32
LDL-	32
mod@@	32
Beurteilungsberichte	32
gerötete	32
Arme	32
Polypropylen-@@	32
DF	32
GPIIb	32
uten	32
Multiplen	32
Membran@@	32
unerwarteten	32
Somit	32
Lähmung	32
empfindungen	32
feuchten	32
P.@@	32
Pharmak@@	32
Betreuer	32
Verdauungstrakt	32
E321	32
Parlaments	32
Gewe@@	32
Retikulozy@@	32
Kombinationstablette	32
ließ	32
Beachtung	32
Sicherheitsprofils	32
katalysiert	32
zentrum	32
postoperative	32
-Harn@@	32
Anstren@@	32
Monozyten	32
H-1@@	32
Sevoflur@@	32
kutan@@	32
durchsichtig	32
Viertel	32
befindliches	32
CLcr	32
QTc-@@	32
EudraVigil@@	32
Triglyzeride	32
AI@@	32
drüsen	32
-KI	32
Spät@@	32
Tulathromycin	32
-Hemm@@	32
fte	32
in-Spiegel	32
Telephone	32
Suizi@@	32
hätte	32
ausgerichtet	32
akzept@@	32
Entwickl@@	32
1.7@@	32
herabgesetzte	32
Blutuntersuchung	32
Toltrazur@@	32
Zulassungsantrages	32
Depreotid	32
lebensbedroh@@	32
Blutproben	32
periode	32
haltiger	32
erektilen	32
wirksam@@	32
PL-@@	32
GLP-@@	32
Lebendimpfstoffen	32
aktionen	32
hervorruft	32
ursäch@@	32
Radioj@@	32
zintigraphie	32
Schilddrüsenh@@	32
ung.	32
2,25	32
cyc@@	32
Frist	32
zentralnervöse	32
0,72	32
sphase	32
Heil@@	32
design	32
100,0	32
Kor@@	32
empfehlenswert	32
Zulassungssystems	32
vielleicht	32
AVAMYS	32
FIN-02@@	32
ordnung	32
zierenden	32
hl@@	32
tropfen	32
ünd@@	32
HDL-Cholesterin	32
444	32
Gadofosveset	32
SONSTIGE	32
Ratten@@	32
Parlament	32
Pent@@	32
schwindlig	32
Präparats	32
А@@	32
Normalwert	32
Etu@@	32
jk	32
progressiven	32
üt@@	32
UN	32
Überlebens	32
wachs@@	32
tierenden	32
gemeldeten	32
Sensitivität	32
biop@@	32
TION@@	32
Oxidation	32
Set	32
obutyl@@	32
Mikron@@	32
0,70	32
unregelmäßige	32
urop@@	32
Eingabe	32
Generaldire@@	32
nern	32
CHMP-@@	32
Mangels	32
TNF-Antagonisten	32
Prostata	32
versorgung	32
Parkinson-Erkrankung	32
Kolorektalkarzinom	32
wider	32
Suizid	32
Natur@@	32
υ@@	31
ασ@@	31
chtes	31
abgetö@@	31
Chemie	31
beschränken	31
äuch@@	31
44-@@	31
iel	31
München	31
laut	31
Histamin	31
läufi@@	31
requirements	31
vermuteten	31
Leberenzy@@	31
Plasmakonzentrations@@	31
würmer	31
EINNEHMEN	31
freigegeben	31
AUC-Werte	31
arium	31
Sinus@@	31
relativen	31
VOR@@	31
Patienten-@@	31
Zysten	31
schwache	31
Kreatinkinase	31
6.5	31
Gedächtnis@@	31
Glut@@	31
Min	31
stechni@@	31
syl@@	31
Implantations@@	31
Hazard-Ratio	31
medizin	31
Augenlids	31
oglobin@@	31
DRAXXIN	31
Chrom@@	31
yp	31
Messbecher	31
verursach@@	31
gestoppt	31
Hepatotoxizität	31
asymptomatisch	31
vertraut	31
9-	31
ausgehend	31
23.@@	31
Embryo	31
Nitr@@	31
FAR@@	31
Mono@@	31
Trockenmittel	31
Verstärk@@	31
abgetötet	31
TT	31
42@@	31
Toxoid	31
ret	31
geleitet	31
Evicel	31
MabCampath@@	31
opri@@	31
Malignome	31
lymphoprolifer@@	31
ACS	31
Regime	31
Chr@@	31
setz@@	31
ungenü@@	31
Hauterkrankungen	31
Aujeszky	31
Darstellung	31
Gelenk-	31
Rech@@	31
Kontraindikationen	31
Wahnvorstellungen	31
Abszess	31
Kontakt@@	31
personen	31
Wurde	31
273	31
RC	31
út	31
Fortführung	31
Herz-Kreislauf-@@	31
Cholesterinwerte	31
geometr@@	31
vergehen	31
Regulierung	31
282	31
gestellten	31
Dehy@@	31
ernsthaft	31
263	31
blister@@	31
Prevention	31
Meda	31
Emodepsid	31
Vital@@	31
Bronchial@@	31
regelmäßiger	31
gewich@@	31
adipösen	31
gestörte	31
Kopie	31
follikelstimulierendes	31
Erfolgs@@	31
Immunreaktion	31
³	31
Umhüllung	31
unkontrollierte	31
Verpflich@@	31
Verweil@@	31
stearat	31
Tetanustoxoid	31
Abfallmaterial	31
angemessener	31
azep@@	31
ocy@@	31
III-@@	31
Makro@@	31
001-002	31
beeinträchti@@	31
Register	31
Europä@@	31
D.	31
Nebenwirkungs@@	31
HCV-RNA-@@	31
alin-@@	31
Prä-pandemischer	31
trockenen	31
psychiatrische	31
zo@@	31
Services	31
Ribavirin-@@	31
63@@	31
rüstung	31
immunologische	31
281	31
zusammenhängenden	31
Blutgerinnungsstörung	31
Kot	31
acht@@	31
otop@@	31
Konsolidier@@	31
Verlaufs@@	31
Leberdekompensation	31
alternativen	31
usk@@	31
leit@@	31
Thrombozytenaggregation	31
psych@@	31
Rechts@@	31
Beratungs@@	31
Normbereich	31
IM@@	31
sätze	31
Sum@@	31
arzneimitteln	31
Vollnarkose	31
12,4	31
akti@@	31
Kommt	31
gegen@@	31
1-ml-@@	31
Schätzung	31
Pegaptanib	31
089@@	31
Hypoästhesie	31
versiegel@@	31
geringgradi@@	31
grün@@	31
ausschei@@	31
SP-@@	31
Plattenepithel@@	31
.1	31
forderung	31
Hyperglykämien	31
Flus@@	31
gehender	31
version	31
Asthma-@@	31
heilen	31
unbeabsich@@	31
TIBOTEC	31
Adjuv@@	31
leich@@	31
eiten	31
IGF-1	31
Schlaf	31
auswertung	31
MAO-Hemmern	31
pharmakokinetischer	31
üf@@	31
South	31
94@@	31
Nüchternzustand	31
Hexa	31
Speichelfluss	31
Studienergebnisse	31
tartrat	31
Unterschie@@	31
dom@@	31
milchig	31
Thrombos@@	31
Sicherheitspro@@	31
deutlicher	31
unzureichenden	31
Nelfin@@	31
isa	31
CAR@@	31
erstmaligem	31
steigert	31
Sprühstöße	31
okkul@@	31
agulation	31
transplantaten	31
land@@	31
beschäf@@	31
Captopril	31
ania	31
geschlossen	31
Protonenpumpenhemmer	31
MAN@@	31
kateg@@	31
wuchs	31
Ausgangswertes	31
zent@@	31
SpA	31
Noradrenalin	31
offen	31
-Wild@@	31
Imatinib-@@	31
MF	31
Vorbereitungen	31
ormon-@@	31
Refluxösophagitis	31
Hämatom	31
1320	31
ppe	31
Guillain-Barré-Syndrom	31
splen@@	31
Convenia	31
Hb@@	31
immunologischen	31
Krankheitssymptome	31
äude	31
Tetanus-	31
Größ@@	31
Follikelreifung	31
2fache	31
spätestens	31
vaccines	31
Eisenüberladung	31
Hypovolämie	31
Prostaglandin@@	31
ausgelegt	31
390	31
Dosierungsanpassung	31
samin@@	31
у@@	31
infizier@@	31
ozyten@@	31
glyc@@	31
Dienste	31
schwan@@	31
viel@@	31
Gem@@	31
dienst	31
6-wöchigen	31
Pig@@	31
dali@@	31
herz@@	31
hypertrophie	31
0,68	31
Kontrollieren	31
komplett	31
Standarddosis	31
anzeige	31
Sinne	31
Abheilung	31
beschleunigter	31
Mang@@	31
ständen	31
lösliche	31
074	31
335	31
Substitution	31
Diplopie	31
dungs@@	31
Behältnisse	31
Gleichgewichts@@	31
Telef@@	31
Monitoring	31
konjugiert	31
oxizitäts@@	31
Lop@@	31
WEITERE	31
Herabsetzung	31
mitgeteilt	31
Ängstlichkeit	31
genotoxisch	31
degeneration	31
ira	31
vermehren	31
Erwar@@	31
23.	31
stellten	31
4er	31
verbrauchen	31
1,08	31
Knöchel	31
Wachstumsfaktor	31
Arzneimittelreaktionen	31
Kolostrum	31
läh@@	31
ATE	31
Levodopa-Dosis	31
12,1	31
populationen	31
Patien@@	31
Grifols	31
produkt@@	31
Glyk@@	31
emm@@	31
steroidale	31
Singulair	31
Brustraum	31
Kortikosteroid	31
○	31
glat@@	31
-Hemmung	31
CYP3A4-Substrate	31
kums	31
Boten@@	31
Geschmack@@	31
UV-@@	31
Gesundheitsberufe	31
Cynomolgus-Affen	31
Asth@@	31
Atem	31
verblindete	31
Film@@	31
zugeteilt	31
interv@@	31
238	31
orrhö	31
Romania	31
lichkeiten	31
Schließ@@	31
isoli@@	31
ab-	31
jene	31
Verlängerungen	31
Konsistenz	31
LA@@	31
orien@@	31
Kurve	31
RSV-@@	31
versteht	31
Korti@@	31
Celvapan	31
Gegenwart	31
Kompatibilität	31
pandemischen	31
otischer	31
intermediär	31
Transfusionen	31
Gerinnungsfaktor	31
NP@@	31
siger	31
12,50	31
В@@	30
orb@@	30
affe@@	30
Losartan-Kalium	30
1-mal	30
Neuralgie	30
gesteigerten	30
CS@@	30
gewiesen	30
Stada	30
packt	30
steroid@@	30
Lebend@@	30
erkrank@@	30
Propylenglykol	30
altungs@@	30
Liposomen	30
reichte	30
Gegenmittel	30
sag@@	30
PTH	30
vorläufigen	30
Funktionsweise	30
zahlreichen	30
voller	30
mittel-	30
Ossifikation	30
Aspergillus	30
Fus@@	30
isoton@@	30
Η@@	30
Regionen	30
Fluktuationen	30
stren@@	30
frage	30
zählten	30
eingeschlossenen	30
IntronA-@@	30
meti@@	30
Rekonstitu@@	30
sanft	30
emet@@	30
Voraussetzung	30
ain	30
SevoFlo	30
belle	30
Rheumatoi@@	30
exis@@	30
Kaplan-Mei@@	30
Effekts	30
männlich	30
annehm@@	30
Assay	30
E-Studie	30
1994	30
Wür@@	30
Ret@@	30
ATCvet-Code	30
saures	30
Hals@@	30
benignen	30
gebärfähige	30
terin	30
K65@@	30
Nutzung	30
usi@@	30
Maß@@	30
offener	30
erkenn@@	30
EST@@	30
sprüfung	30
SEN@@	30
Marlow	30
Ferkeln	30
abwei@@	30
Baseline-@@	30
Arzneimittel-	30
Null	30
rank	30
Nabel@@	30
betreu@@	30
Fibro@@	30
wohingegen	30
Tacrolimus@@	30
Familienanamnese	30
niveau	30
steigender	30
wend@@	30
Pflan@@	30
INHALT	30
sofortiger	30
Oracea	30
stellungen	30
embryofet@@	30
nüchtern	30
Pflege@@	30
schein@@	30
behältnissen	30
Off@@	30
Ohnmachtsanfälle	30
atien@@	30
Zinkchlorid	30
assung	30
Erstimpfung	30
PRIMÄRVERPACKUNGEN	30
Β	30
Östrogen	30
Aufziehen	30
kindergesichertem	30
recht	30
Reversi@@	30
beschrei@@	30
floxac@@	30
dekompen@@	30
tötet	30
vorgesch@@	30
immunsuppressive	30
Pneumokokken-@@	30
idiopathische	30
welchem	30
anwendeten	30
ierungen	30
C-Studie	30
PK	30
λλ@@	30
Heben	30
5.2002	30
postoperativ	30
Erstbeurteilung	30
antiretroviraler	30
anzur@@	30
moderater	30
beiliegenden	30
pfei@@	30
520	30
Fahrzeugen	30
disper@@	30
züchtet	30
klinischem	30
begründet	30
erscheinen	30
342	30
Östrogene	30
ergänz@@	30
wären	30
Diurese	30
2b	30
ophile	30
Raucherentwöhnung	30
Zahnfleischbluten	30
Don@@	30
Atorvastatin@@	30
Gesichtes	30
ViraferonPeg@@	30
geschwä@@	30
Emadine	30
das@@	30
EH@@	30
Bewusstsein	30
ITP-@@	30
amerikan@@	30
verbraucht	30
son@@	30
Testung	30
14.	30
Angelegenheit	30
gewohnheiten	30
ass	30
Anspruch	30
Pankreas@@	30
möglich@@	30
Koll@@	30
Herausforderungen	30
mas	30
QI@@	30
resistenter	30
stof@@	30
Tex@@	30
Tren@@	30
Etiketten	30
rachen	30
abdominale	30
Ritonavir-Arm	30
BLISTER	30
Hoechst	30
eignet	30
zukünf@@	30
übermäßig	30
massi@@	30
rezidivierendem	30
Fil@@	30
Inje@@	30
Überstimulationssyndrom	30
hämatopo@@	30
Penis	30
part@@	30
ordnet	30
hämorrhag@@	30
Interleukin-2	30
Gehstrecke	30
Detaillierte	30
552	30
ektive	30
farkts	30
Spermien	30
vermehrten	30
Zungen@@	30
Loratadine	30
schwenken	30
Dihydrat	30
Inaktivierung	30
teile	30
Gene	30
Nägel	30
Spontanmeldungen	30
sign@@	30
Nierenschädigung	30
Wiederaufnahm@@	30
aktivierung	30
ABGABE	30
kum@@	30
Advate	30
Divertikulitis	30
schritt	30
-Stopfen	30
052	30
isoliert	30
711	30
Entbindung	30
eth@@	30
wiederkehrenden	30
aub@@	30
säugenden	30
Natriumdihydrogenphosphat-Dihydrat	30
persistierendem	30
gentechnisch	30
Lebensmittel	30
datum	30
Diabetes-@@	30
zusammengef@@	30
Serumkreatinin@@	30
Sitz@@	30
Sichelzell@@	30
humani@@	30
satzes	30
1600	30
GS-@@	30
Ranibizumab	30
enanalyse	30
angen	30
ASS@@	30
Neutrophil@@	30
Lauf@@	30
435	30
IIb	30
immunsupprimi@@	30
genehmi@@	30
Iris@@	30
calcium@@	30
kin-@@	30
Initi@@	30
Bir@@	30
Kontrazeptivums	30
Stamm@@	30
Adenuric	30
formalen	30
kräfte	30
teln	30
CC	30
ätigkeit	30
sorgt	30
verstärktes	30
Hämodialysepatienten	30
Calciumcarbonat	30
geeignet@@	30
FT	30
sozi@@	30
187	30
Trotz	30
tur	30
KRAS@@	30
arthritis	30
Nierensteine	30
voneinander	30
H1-@@	30
Report	30
Lab@@	30
ula@@	30
Ansteigen	30
Ansatz	30
0,88	30
Akathisie	30
unkte	30
Partnern	30
Telemati@@	30
lem@@	30
Sekundär@@	30
eindeu@@	30
Pflegekraft	30
FC	30
neugeborenen	30
Ernähr@@	30
Docetax@@	30
LE@@	30
Beurteilungs@@	30
esis	30
Mundhöhle	30
alin@@	30
D-Patienten	30
~	30
ora	30
ha@@	30
Kaliumwerte	30
angeborener	30
Thorax@@	30
Faktor-@@	30
Blutgerinnungsstörungen	30
gefriergetrocknetes	30
Infliximab@@	30
--------@@	30
Lang@@	30
Hemmkörper	30
schwankungen	30
Wachstumsfaktoren	30
Wachstumshormon@@	30
adjuv@@	30
Clarit@@	30
Turnhoutseweg	30
erhobenen	30
Dosiserhöhungen	30
Bovilis	30
uli@@	30
Serumcalciumspiegel	30
Sankyo	30
Fortschreitens	30
menopaus@@	30
FE@@	30
-4@@	30
anregt	30
intr@@	30
weichen	30
iell	30
autologen	30
haf@@	30
Ultraschall	30
redu@@	30
g.h	30
alfa-@@	30
Zah@@	30
letalem	30
onate	30
Insulinpen	30
einfacher	30
metabolischer	30
verträglichen	30
GLASFLÄSCHCHEN	30
Therapeuti@@	30
ability	30
linksventrikulären	30
innerer	30
EE-@@	30
übungen	30
Zukunft	30
aminen	30
verschlechtern@@	30
Herzschwäche	30
Kerat@@	30
bekamen	30
Fosavance	30
empir@@	30
violet@@	30
Deferoxamin	30
E-2@@	30
4.2002	30
Zeitab@@	30
mul@@	30
3-1	30
Muttertiere	30
therapeutisch	30
ELISA-@@	30
Natriumchlorid-	30
TIK@@	30
Typ-2-Diabetikern	30
Elektroly@@	30
kleinere	30
harmonisiert	30
FOLFOX-4	30
Soll@@	30
lic@@	30
NSAR-@@	30
ärzten	30
Stich@@	30
etc.	30
Mag@@	30
Verhaltensstörungen	30
Dra@@	30
F-69007	30
Clo@@	30
nachzuholen	30
Wachstums	30
Herzmusk@@	30
frakturen	30
ter-@@	30
eins	30
herapien	30
undurchsichtig	30
diesbezü@@	30
Engwinkelglaukom	30
Chinolone	30
Fün@@	30
Plättchen@@	30
Lipitor	30
Häufigkeitsangaben	30
leu@@	30
Prävalenz	30
zirkulierende	30
75008	30
Ban@@	30
Folglich	30
schädigungen	30
Ot@@	30
0,61	30
era	30
hit@@	30
Isentress	30
jüngere	30
zogenen	30
digitalen	29
verkleisterte	29
Ventri@@	29
AUC0-24	29
betrachten	29
verläs@@	29
Wochen@@	29
Selektion	29
Abschätzung	29
Novem	29
Buchstaben	29
1-3	29
Generali@@	29
sitis	29
Beamten	29
OD	29
Prost@@	29
0,69	29
Myocet-@@	29
rän@@	29
gige	29
junge	29
auszusetzen	29
Hormone	29
phen	29
Herzwur@@	29
EXUBERA-@@	29
10,8	29
P.O.Box	29
ser	29
hr	29
atch	29
Zev@@	29
sper@@	29
Wirbelfrakturen	29
Spain	29
oide@@	29
Mäuse	29
5HT@@	29
trophie	29
ares	29
zol	29
Oberseite	29
Greenford	29
Alg@@	29
ly@@	29
In-vitro-Untersuchungen	29
schritt@@	29
Wirkstärke	29
berechnete	29
farbe	29
äß@@	29
Schluck@@	29
M184@@	29
HERSTELLER	29
Auß@@	29
offenbar	29
HUMAN	29
PDG@@	29
cell	29
Kapselunterteil	29
Apo@@	29
Cholesterin-	29
radiologisch	29
bes	29
PERF	29
Prodrug	29
Zeh@@	29
Medizin	29
Zytokin@@	29
Butylgummi	29
Überstimulation	29
1050	29
Registration	29
anschließenden	29
resezier@@	29
Brü@@	29
Dat@@	29
Impfserie	29
uter	29
Bewusstseinsverlust	29
dipin	29
Ovarialzellen	29
grund@@	29
2-8	29
Nutzen-Risiko-@@	29
P-Glykoprotein	29
Phenol	29
Auslösung	29
schnellem	29
Est@@	29
0,80	29
transfer@@	29
valls	29
arung	29
gebiet	29
wachstums	29
angeraten	29
Substanz@@	29
Paclitax@@	29
gefährdet	29
gelöstem	29
Kalziumspiegel	29
natürliches	29
initial	29
Nachbeobachtungsphase	29
338	29
Barrier@@	29
cel	29
ton@@	29
Hitze	29
tungsphase	29
Sicherheitsberichte	29
ЕООД	29
vorgebrachten	29
Common	29
muskel	29
proto@@	29
L-	29
Hypoxie	29
zulassungs@@	29
m-	29
0,13	29
Expression	29
Schweißausbrüche	29
verein@@	29
Sachver@@	29
übertrag@@	29
alk@@	29
Solna	29
Stickstoffmonoxi@@	29
Thalass@@	29
utz@@	29
forderten	29
P-	29
Apop@@	29
ankylosierender	29
Actavis	29
Muskelspasmen	29
HIV-1-RNA-@@	29
pton	29
Sussex	29
Ibraxion	29
Außer	29
Levodopa-@@	29
Studienende	29
op	29
Zellzahlen	29
4261	29
Fablyn	29
stimulierenden	29
Sar@@	29
SER@@	29
neutrali@@	29
genit@@	29
gonorrhoeae	29
auftretender	29
Monotherap@@	29
begleitend	29
betreffend	29
aktivierten	29
terungen	29
Aspart@@	29
antien	29
zyme	29
Internationaler	29
ου@@	29
isolierten	29
bezeichneten	29
HIT	29
Bein	29
TL@@	29
aussehen	29
Organismus	29
Hämatokrit@@	29
Chemotherap@@	29
besei@@	29
äuß@@	29
п@@	29
Gall@@	29
schläge	29
ер@@	29
Novo@@	29
verwiesen	29
Ev@@	29
Mann@@	29
zuck@@	29
bewertete	29
Leberenzym@@	29
erzielte	29
J07@@	29
aemia	29
E420	29
Betaferon-@@	29
Behandlungsabbruch	29
Kaliumhydroxid	29
Anhangs	29
Gesamt-Clearance	29
stammen@@	29
jähriger	29
Etiketts	29
c.	29
komponenten	29
sexuelles	29
Tagungs@@	29
FENT@@	29
sesteenweg	29
Frösteln	29
Quaddeln	29
unverträglichkeit	29
Clearance-@@	29
bruchs	29
Gebrauchsanweisung	29
ämmen	29
anormale	29
bläschen	29
Hell@@	29
potenzielles	29
Bewußtlosigkeit	29
ffen	29
etin@@	29
Mumps-	29
11,5	29
persönlich	29
Wachstumsgeschwindigkeit	29
elli@@	29
östro@@	29
verkürzte	29
Einbeziehung	29
Verordner	29
EKG@@	29
Salbutamol	29
Acticam	29
BESCHRIFTUNG	29
Memantinhydrochlorid	29
Akut@@	29
Schaden	29
Berech@@	29
HBV-Infektion	29
Flecainid	29
gewissen	29
Noti@@	29
Dosierbecher	29
Antibiotik@@	29
Augenreizung	29
Rauchern	29
Lympho@@	29
Untereinheit	29
ος	29
361	29
obut@@	29
Zeigefinger	29
lan	29
Gy@@	29
einzelstaatlichen	29
stgefühl	29
HI-@@	29
uch	29
systematisch	29
Zyanidvergiftung	29
Generalisierung	29
marker	29
CHO	29
Furosemid	29
klassi@@	29
befasste	29
Rebi@@	29
Saquinavir-@@	29
Kurzzeitstudien	29
Sulfamethoxazol	29
Risikomanagementplans	29
trieben	29
genanntes	29
63128	29
Dietzenbach	29
6074	29
ase-Werte	29
Epithel@@	29
Tumor-@@	29
placebokontrollierte	29
oleat	29
Pflege	29
11,4	29
Pil@@	29
Cell@@	29
Cus@@	29
Abwasser	29
bronch@@	29
Steri@@	29
Kontrastmitteln	29
0,38	29
Vitamin@@	29
Subtyp	29
Neurotransmitter	29
Oka	29
abgeschätzt	29
Heilberufe	29
Vier	29
ähr@@	29
fassen	29
Wirtschafts@@	29
erfahr@@	29
zulassungsrelevanten	29
later@@	29
Kann	29
gst@@	29
respirat@@	29
ieben	29
Span@@	29
Eprex	29
Erypo	29
NAME	29
COX-1	29
β@@	29
αν@@	29
Herzprobleme	29
Tacrolimus-@@	29
jahr@@	29
Hydrochlorothiazi@@	29
Katheter	29
gewichtes	29
photodyna@@	29
eventuelle	29
NADELN	29
einleitung	29
T4	29
01A@@	29
ITP	29
beurteilung	29
Bemühungen	29
Chromosom@@	29
Herts	29
verschreibende	29
substitution	29
Hämoglobinspiegel	29
oglobulin	29
Drüsen	29
LIS@@	29
komplex@@	29
globulinämie	29
tod	29
Endokarditis	29
markierte	29
Evista	29
1,2-@@	29
Mattigkeit	29
L1-@@	29
orthostatischer	29
Raum@@	29
ker	29
NYHA-@@	29
Muskelrelax@@	29
mass@@	29
BOTOX	29
ASE	29
Serumalbumin	29
vergrößerte	29
trieb@@	29
versagt	29
-chlorid	29
yltransferase	29
Loxicom	29
Computer@@	29
Richtung	29
Fibrate	29
Savene-@@	29
oxy-@@	29
erhab@@	29
2058	29
312	29
B-Zellen	29
standard	29
Hyperämie	29
woche	29
.07.2001	29
monat	29
Gelen@@	29
INE	29
Erreichung	29
EB@@	29
Net@@	29
Mutagen@@	29
Eliminations-Hal@@	29
Fristen	29
typischen	29
Hir@@	29
Dosierungsintervall	29
Anwendungsbeobachtung	29
10,6	29
Spitzenkonzentrationen	29
Abklärung	29
flip-off	29
Dunkelfärbung	29
genutzten	29
OptiMARK	29
ungssystem	29
quantit@@	29
Ere@@	29
B-13@@	29
bringt	29
Eurican	29
natrium@@	29
dens	29
male	29
3.000	29
П@@	29
obier	29
Hauttrockenheit	29
moderaten	29
steigende	29
Fieberbläschen	29
1140	29
Säuglin@@	29
verträgliche	29
Tasonermin	29
schlech@@	29
bedenken	29
trockenes	29
Pille	29
unahme	29
Muttertier	29
32-@@	29
rho@@	29
57@@	29
Harnblase	29
F5	29
Flip-off-@@	29
aux	29
A-Studie	29
Choriogonadotropin	29
Tab	29
Minister@@	29
343	29
ophi@@	29
Kortikoid	29
Sozi@@	29
Entzugserscheinungen	29
beinhaltete	29
hinein	29
Oseltamivir@@	29
Einzeldosis-Durchstechflaschen	29
Wimp@@	29
ALE	29
1.2	29
Mycophenolat	29
MON@@	29
Psychosen	29
wie@@	29
Ausschluss	29
KT@@	29
lig	29
adäquat	29
Insulinresistenz	29
erläutert	29
graphischen	29
bedeckt	29
HIV-1-infizierten	29
station	29
nia	29
Lopinavir-@@	29
Dick@@	29
lab@@	29
geschw@@	29
Sutent	29
kaum	29
derivate	29
att@@	29
Leverkusen	29
Daiichi	29
Piro	29
Optruma	29
Nachfolgend	29
sequ@@	29
ot-@@	29
sensitivität	29
infektiösen	29
enie	29
bilater@@	29
-Amin@@	29
mieren	29
gebro@@	29
Hoche	29
Tractocile	29
Retard@@	29
Haare	29
Abb@@	29
probe	29
Kur@@	29
ulärem	29
ack	29
Minimum	29
RED@@	29
olitik	29
ik	28
ει@@	28
Rhinotracheitis-@@	28
ZWISCHEN@@	28
BEHANDL@@	28
Gly@@	28
verschwindet	28
Schlauch	28
freiwil@@	28
liger	28
fähi@@	28
Lebensmittelerzeugung	28
Exanth@@	28
Konzentrationsbereich	28
doppelten	28
636	28
Genesung	28
stage	28
seitens	28
ernsthaften	28
krani@@	28
Schmerzintensi@@	28
Katarakt	28
stel@@	28
FLASCHENETIKETT	28
Strukturen	28
ga@@	28
Serokonversionsrate	28
Chargen@@	28
Olopatadin	28
spori@@	28
psychischen	28
Kanten	28
sitzt	28
Kunststoff	28
krebs@@	28
0,30	28
Hämorrhagien	28
angelegenheiten	28
Tax@@	28
PegIntron-@@	28
dosiert	28
schwarze	28
ekt@@	28
Atemstillstand	28
gebeten	28
sichtsbehörden	28
Rotaviren	28
397	28
Pf@@	28
richtung	28
präklinische	28
FeLV-@@	28
Ejak@@	28
Abacavir-@@	28
Inaktiv@@	28
Water@@	28
ZULASSUNGS@@	28
karzinogenen	28
ki	28
ho	28
INSULIN	28
Kapseloberteil	28
Spendern	28
Fachkraft	28
Zustandes	28
bew@@	28
Risikopatienten	28
konserv@@	28
ausfluss	28
Rezidiv@@	28
deut@@	28
befall	28
abweichen	28
HYCAMTIN	28
isoden	28
Publi@@	28
verlängerter	28
antra@@	28
Behandlungszeitraum	28
402	28
Hepatitis-A-	28
fäl@@	28
biopsie	28
Populationsanalyse	28
dezentralisierte	28
Verhalten@@	28
Hypotension	28
disp@@	28
abgesch@@	28
Niko@@	28
compri@@	28
HMG-Co@@	28
Level	28
Eierstöcken	28
chs	28
Bedar@@	28
Rückfalls	28
mg@@	28
ester@@	28
chenen	28
länge	28
ämpfen	28
10,000	28
Kein	28
Af@@	28
fekt	28
Teilnahmslosigkeit	28
-haltigen	28
äusch	28
ausgebreitet	28
dronat	28
mendes	28
Crossover@@	28
GU@@	28
DNS-Technologie	28
anfänglichen	28
modell	28
Nukleoti@@	28
ethnischen	28
gische	28
ausführ@@	28
Appetitz@@	28
Techniken	28
Lungeninfiltrate	28
schützenden	28
Υ	28
thromboembolischen	28
Petechien	28
misch@@	28
Tubul@@	28
ungsplan	28
ara	28
Uterus@@	28
zü@@	28
bewäl@@	28
Geschlechts	28
10,3	28
Distribution	28
gefäße	28
reversibler	28
zytogenetische	28
major	28
gemeinschaftliche	28
pel@@	28
versor@@	28
mögliches	28
zuständige	28
extrem	28
Quadrisol	28
resorption	28
BON@@	28
Verringer@@	28
Arsentrioxid	28
Besonders	28
Waarderweg	28
zerkaut	28
Parc	28
pegyliert	28
Hautrötungen	28
28.	28
vorangegangener	28
Industries	28
alkohol	28
ationstest	28
Daraus	28
058	28
msd.@@	28
iler	28
gleichzei@@	28
haften	28
postprandi@@	28
futter	28
Center	28
Endpunktes	28
Locatim	28
Kn@@	28
oquin	28
bemerkt	28
TEMODAL	28
dosislimi@@	28
Blutzuckergehalt	28
232	28
Neuropathien	28
Perfus@@	28
Parkinson@@	28
Austausch@@	28
neh@@	28
IgE	28
acute	28
pharma@@	28
Ziconoti@@	28
0,20	28
entölte	28
Konferenzdienste	28
Herz-Kreislauf@@	28
Simvastatin@@	28
Schreien	28
Zervix@@	28
Bos@@	28
Virafer@@	28
verpackung	28
COMB	28
vorausgegangene	28
dosierungen	28
Viagra	28
SmithKline	28
lösungen	28
Studienteilnehmer	28
anwendet	28
H-Spiegel	28
Moti@@	28
Relistor	28
merken	28
verbleibenden	28
pumpe	28
Gelbfieb@@	28
Inneren	28
Varizellen	28
ECU	28
H7N1	28
M1	28
stall@@	28
person@@	28
retar@@	28
Zeiten	28
Fun@@	28
Anticholinergika	28
Frakturrisiko	28
allgem@@	28
Generell	28
zufügen	28
Tenofovir@@	28
Dreifache	28
etischen	28
HAL@@	28
CIN	28
verleihen	28
AA@@	28
Hyperhidrose	28
kulär	28
Propafenon	28
Naproxen	28
389	28
bis@@	28
asse	28
farblosem	28
Terfena@@	28
arzneimittels	28
21@@	28
nem	28
lebende	28
gebundenen	28
Mann	28
metastasier@@	28
454	28
Studiendauer	28
AE@@	28
Antragstellers	28
fur@@	28
voor	28
М@@	28
450-	28
thel@@	28
überlebten	28
LT@@	28
Chaussée	28
labor@@	28
kindergesicherten	28
Angio@@	28
vaskulären	28
INSGESAMT	28
Houten	28
Entwick@@	28
äm@@	28
Abszesse	28
neuropath@@	28
Risikomanagementplan	28
neimit@@	28
gers	28
Feldstudien	28
IIIa	28
RD	28
Wunde	28
obakteri@@	28
Allerg@@	28
Betr@@	28
nder	28
Anti-HBs-@@	28
DAR@@	28
undi@@	28
Influenzavir@@	28
bleibende	28
ine-@@	28
monovalenten	28
Zoster@@	28
Mikromol	28
thrombotischer	28
Aventis	28
graue	28
Glu@@	28
Plans	28
382	28
Hoddesdon	28
5fachen	28
tät@@	28
aspekte	28
klingt	28
Flüssigkeiten	28
parenterale	28
histologischen	28
Puls@@	28
Fri@@	28
krämpfen	28
PD	28
offensichtlich	28
Mavacoxib	28
geren	28
vivo-@@	28
005-@@	28
COVERSYL	28
Oberbauchschmerzen	28
forme	28
dan	28
Anwendungsdauer	28
Halsentzündung	28
Alzheimer-@@	28
Vertretern	28
Makrophagen	28
6.000	28
hä@@	28
gynä@@	28
beschleunigte	28
Freien	28
gramms	28
Gentoxizität	28
ampullen	28
okuläre	28
Perforationen	28
Betätigung	28
existieren	28
mmen	28
diäte@@	28
1A@@	28
arin-@@	28
Basis@@	28
NPH-Insulin	28
IFN	28
Quantifizierungsgrenze	28
erlangen	28
stände	28
Ammonaps	28
Atemtest	28
Bronchokonstriktion	28
gangen	28
Wiederholungs@@	28
HBeAg-negativen	28
Knochenbrüche	28
441	28
abfall	28
Krankengeschichte	28
objektive	28
obstruktiver	28
irgendein	28
rig	28
SANOFI	28
Isoenzy@@	28
έν@@	28
SW@@	28
präsentiert	28
häl@@	28
O.	28
Rekt@@	28
jektions@@	28
246	28
tinib@@	28
Estrogen	28
yng@@	28
Pharmazie	28
fertig	28
verwandte	28
Ink@@	28
tot@@	28
Beeinträchtigungen	28
Zahl@@	28
Cholesterinspiegels	28
Beta-2@@	28
vitro-	28
ethidin	28
Typ-I-Glas	28
X-@@	28
ells	28
PV	28
imm@@	28
Zahnflei@@	28
Heuschnupfen	28
Calcium-	28
Bioäquivalenz@@	28
eingetreten	28
Ermüdung	28
active	28
scht	28
Antikoagulans	28
persistierenden	28
derivat	28
34-@@	28
Sonstiger	28
maternale	28
Applik@@	28
versiegelten	28
schließ@@	28
483	28
lans	28
Dokument@@	28
253	28
Antikörperkonzentrationen	28
liertes	28
g.@@	28
beherr@@	28
absoluter	28
Infusionsset	28
Kombinationst@@	28
es-@@	28
vereinzelt	28
LAN@@	28
tret@@	28
mithilfe	28
spiegelt	28
Association	28
kompeti@@	28
Dabigatranetexilat	28
Impfempfehlungen	28
ā@@	28
ew@@	28
zulassungsrecht@@	28
keinesfalls	28
Mutter@@	28
behutsam	28
säure-	28
mütter@@	28
ambulanten	28
Defizi@@	28
Neuramini@@	28
PFLASTERN	28
2x@@	28
Glukokortikoide	28
Malabsorption	28
Steady-state-@@	28
silikoni@@	28
opy@@	28
Glukuronidierung	28
umina	28
nehmern	28
gas	28
ernst@@	28
HIV-1-	28
klopfen	28
UV@@	28
komplizierter	28
Mittl@@	28
Standardbehandlung	28
oren@@	28
André	28
umoren	28
int@@	28
Druckempfindlichkeit	28
Clozapin	28
ulf@@	28
klarem	28
GRE@@	28
ache	28
Tumorwachstum	28
Herpes@@	28
norm@@	28
epidemiologische	28
oth@@	28
Glukose@@	28
triumsalz	28
therapien	28
Alp@@	28
Kupfer@@	28
KwikPens	28
8.2002	28
-3@@	28
Bb	28
grau@@	28
2.2	28
Blutbildes	28
strenger	28
schubförmi@@	28
Dopaminagonisten	28
Al-Folie	28
makro@@	28
Verabschiedung	28
dauernden	28
GLYKÄMIE	28
б@@	27
ит@@	27
Chlamydophila	27
trope	27
Eintritt	27
Planung	27
ded	27
dünner	27
steten	27
verord@@	27
begleitender	27
meticon	27
netz@@	27
genutzt	27
Gang@@	27
medikamente	27
EGFR-@@	27
DEX	27
Pfeil	27
sters	27
Seltenheit	27
Nacional	27
Netzwerk	27
Herstellungspraxis	27
Injektionsnadelkappe	27
Natriumchlorid-Infusionslösung	27
illi@@	27
Verglichen	27
Abnormalitäten	27
GR	27
bild	27
to-@@	27
reprodu@@	27
DOX@@	27
Viale	27
Monoamin@@	27
tumore	27
NOR@@	27
D-2@@	27
tene	27
operativer	27
geschwür	27
Einnahme@@	27
Körperteile	27
Versiegelung	27
Fragebogens	27
intrakrani@@	27
steril	27
Thiazolidindi@@	27
Bus@@	27
Len@@	27
Selektivität	27
Gedächtnisverlust	27
Nierentransplantationspatienten	27
Ferkel	27
eil@@	27
haltiges	27
BIOLOGISCHEN	27
Schließen	27
inkontinenz	27
2100	27
gefü@@	27
alien	27
Rezeptor-Antagonisten	27
auswertbaren	27
PC	27
21.	27
Virämie	27
Zwölffinger@@	27
t-	27
K30	27
Rückständen	27
115@@	27
Inkontin@@	27
finanzi@@	27
Kontakte	27
SCHRIFT	27
grenze	27
VIII-Aktivität	27
erforderten	27
General	27
gerech@@	27
Kristalle	27
enar@@	27
Park@@	27
ologischem	27
gebundenem	27
Tode	27
kön@@	27
hyro@@	27
förmi@@	27
Herzanfall	27
deck@@	27
Mitgliedern	27
ina	27
herbei@@	27
Interaktions@@	27
dip@@	27
gas@@	27
artan@@	27
gesun@@	27
Verschwommenes	27
atini@@	27
Kli@@	27
Bauchwand	27
Granulozytopenie	27
topenie	27
Colecalciferol	27
arbeitungs@@	27
Uhr	27
presentations	27
phar@@	27
rigkeit	27
streichen	27
GS	27
gela@@	27
zustandes	27
Dihydro@@	27
Hülle	27
Levonorgestrel	27
Nacken@@	27
Phlebitis	27
größtenteils	27
Hydroxylierung	27
warum	27
chlorid-	27
í	27
ent-	27
Maus-	27
einig	27
vorhergehenden	27
Rechnung	27
auftragen	27
festzulegen	27
Futteraufnahme	27
Vaku@@	27
TC@@	27
Nierenzellkarzinom	27
teils	27
elimin@@	27
leisten	27
Placebo-Patienten	27
dienten	27
B-Zell-@@	27
Phase-I-@@	27
Meter	27
bakteriostati@@	27
Injekt@@	27
liste	27
otoxi@@	27
gerecht	27
Gesichtsfeld@@	27
vene	27
fulmin@@	27
TIV@@	27
Use	27
Sagen	27
endometri@@	27
inklusive	27
andel@@	27
Stoffen	27
Nespo@@	27
Zervix	27
fende	27
H5N6	27
ViraferonPeg-Injektor	27
µm	27
INSUMAN	27
Kurzzeitbehandlung	27
persistierender	27
schrift	27
Р@@	27
ametern	27
DA@@	27
III-Studie	27
Antiepileptikum	27
Antikörperbildung	27
Pharmakovigilanz-Plan	27
Antragstellern	27
erythr@@	27
Galactose-Intoleranz	27
gültigen	27
Leuk@@	27
Suramox	27
ρι@@	27
ής	27
ά	27
δι@@	27
männlicher	27
betreffende	27
Gemeinsamen	27
dehydr@@	27
Reste	27
eme@@	27
ereig@@	27
HPV-16	27
tritts	27
Adren@@	27
Zusammen	27
hierdurch	27
Flexicam	27
ada	27
ombin@@	27
amine	27
ед@@	27
Radiopharma@@	27
nennens@@	27
aust@@	27
gatan	27
product	27
Ohrenschmerzen	27
befes@@	27
Programme	27
angewand@@	27
Lacos@@	27
PI-@@	27
........	27
Normalwertes	27
Absorptions@@	27
Leitungswasser	27
ahl@@	27
räparate	27
ovarielles	27
dürften	27
Durchschnittsalter	27
bieten	27
Perflutr@@	27
siven	27
BV@@	27
erlauben	27
Reports	27
ISCH@@	27
Study	27
Diabetikerausweis	27
selekti@@	27
spongi@@	27
ST-Strecken-Hebung	27
Röteln-@@	27
beur@@	27
llung	27
II.	27
[...]
