"	21843644
,	18701442
the	16766781
.	15965165
of	11989708
/	9357734
and	9093055
in	8146845
to	7476384
)	6544707
(	6441968
:	6358342
a	5419294
is	4609605
with	4033709
for	3800383
The	2828201
or	2678972
be	2676063
on	2468828
-	2148466
1	2140441
that	1960136
are	1893948
not	1862132
as	1854712
you	1787331
mg	1565377
by	1519214
patients	1403432
at	1396554
%	1385674
was	1350052
an	1300921
from	1269545
have	1254702
your	1123060
should	1117446
it	1099791
this	1059948
2	1049571
has	969622
dose	902828
will	875251
In	855533
10	846257
can	836411
been	832774
use	810333
which	807818
may	804813
+	765588
I	763234
one	753897
3	748642
treatment	744964
•	733347
other	722256
?	717989
were	690436
EU	689637
;	686785
ml	686428
used	663339
’	639441
all	637291
4	633959
ine	628070
http	623743
o@@	602821
s	601637
also	580540
in@@	580379
5	577177
if	574703
_	558779
more	550069
A	543655
If	537884
see	534598
than	520244
0@@	513936
after	513909
12	509840
It	509229
This	507998
7	494463
who	493012
20	492171
=	486320
any	483054
we	475802
6	467461
tablets	462838
no	454933
injection	454786
P@@	453462
blood	445546
30	429792
time	428428
*	425805
r	421792
its	420288
00	420165
x@@	409616
-@@	403307
when	402196
their	400471
11	397306
effects	395048
15	394181
>	393808
doctor	391963
al@@	390935
C	390110
up	384916
our	383149
solution	381668
100	379011
studies	377300
but	377047
only	376058
]	375007
50	374417
–	373305
€	371226
0	369616
during	369584
years	365868
these	365173
us	364230
16	363291
8	362819
about	360778
's	355147
!	355123
[	349115
into	346553
day	345859
clinical	344767
x	344186
take	342668
new	338203
18	336240
re@@	331854
European	331730
section	331518
they	331357
on@@	330056
had	329070
g	327397
17	327040
“	325566
C@@	323970
14	323580
such	322374
25	320385
E@@	318952
&	316455
ac@@	314928
recommended	314554
first	313189
<	312546
T@@	311766
side	311625
ate	309003
must	306521
”	305348
there	304876
following	300865
information	300673
l	299760
risk	297559
2016	297510
contains	296890
al	294495
two	290804
ro@@	290458
'	289601
administration	289575
B	289156
data	287234
H@@	286216
out	285471
...	285352
given	283387
avi@@	282485
You	281794
I@@	281303
24	280474
az@@	277706
9	277318
between	276581
before	274731
13	274440
For	273883
vi@@	272307
days	272055
products	270893
therapy	270210
study	269424
What	269368
07	269083
very	268709
y@@	268371
01	268221
S@@	267842
In@@	266126
available	264085
increased	263969
06	261962
do	260059
at@@	259927
including	257652
21	255969
treated	255107
08	253406
daily	251177
an@@	250950
m	250779
over	248423
product	248212
per	248109
ic@@	247784
B@@	247657
system	247572
kg	246092
some	245806
b	245753
age	244930
he	244821
22	244481
disease	243723
A@@	243535
19	242326
#	241415
administered	239442
his	239396
p	239152
U	239128
G@@	238783
V@@	236905
04	236707
medicines	236623
We	234597
03	232816
them	231801
D@@	231030
most	230896
well	230173
di@@	228804
Tel	228775
people	228494
weeks	227737
02	227458
en@@	227225
reported	226705
op@@	226362
am	226339
ia	226039
pro@@	225714
taking	225387
like	225097
de	221708
reactions	221571
pharmac@@	219640
hours	218986
active	217332
vial	216771
children	215201
28	215088
so	214986
N@@	214465
oral	213527
ab@@	213499
common	212390
en	210991
atic	210639
associated	210514
»	209954
con@@	209587
pain	208920
without	208622
within	208546
number	208479
40	208285
levels	207860
t@@	207224
05	206952
L@@	206447
ant	205332
skin	205001
There	204900
O@@	204662
23	204599
p@@	204217
under	204023
om@@	203039
MP	202352
medicinal	201813
severe	201131
b@@	200535
thro@@	199399
taken	199352
R@@	198171
would	197866
renal	197854
body	197160
z@@	196997
combination	196475
ap@@	196467
m@@	196363
increase	195269
less	194861
site	194714
emia	193555
Z@@	193182
am@@	193120
anti@@	192764
ation	192640
months	192588
doses	192397
0.@@	192387
work	192119
M@@	192089
°	192054
o	191805
coated	190779
using	190528
l@@	190154
those	189397
F@@	188491
observed	188156
nights	187212
high	186425
e@@	185750
need	185540
times	185420
year	185242
co@@	185140
ous	185096
patient	185066
tic	184891
tablet	184611
c@@	184255
each	183664
09	183294
human	182115
symptoms	182099
lo@@	181711
ide	181700
S	181487
Do	181124
effect	181042
ase	180817
safety	179819
insulin	179584
found	177074
t	176947
hy@@	176047
EMEA	176016
it@@	175238
ic	175079
ti@@	174922
group	174318
ar@@	174308
pre-@@	174282
ag@@	174061
as@@	174019
id@@	173962
i@@	173828
infusion	173059
inge	172426
where	172011
my	170165
ter	169979
what	169875
d@@	169615
syr@@	169497
same	169488
ol@@	169143
now	168889
type	168537
et@@	168528
compared	168428
No	168047
through	167750
water	167258
liver	166731
many	165430
both	165281
once	164504
Commission	164422
X@@	164268
a@@	163991
ha@@	163818
medicine	163651
made	163519
ir@@	162914
il@@	162603
me	162414
26	161365
make	160321
60	160312
hyper@@	159719
As	159467
or@@	159348
ur@@	159213
un@@	159037
containing	158826
em@@	158730
n	158174
area	158005
2015	157947
every	157277
adverse	157268
plasma	156933
c	156804
i	156747
how	156665
tin	156364
er@@	155947
af@@	155617
heart	155303
plac@@	154997
does	154827
being	154593
because	154534
T	154095
ov@@	153924
here	153766
three	153585
3@@	152705
filled	152659
inhib@@	151998
PM	151931
possible	151235
s@@	151167
dis@@	151140
then	150754
27	150122
experience	149690
ated	149644
K@@	149548
order	149249
g@@	148404
hydro@@	148028
against	147940
ebo	146952
disorders	146891
ul@@	146449
week	146354
way	146193
single	145308
micro@@	145112
ud@@	144967
low	144789
os@@	144490
How	144322
ed	144040
ole	143066
life	142921
least	142505
place	142389
29	141946
es	141656
known	141064
development	141006
TO	140039
Patients	139647
u@@	139142
h	138996
could	138789
considered	138643
weight	138627
AR@@	138588
31	138368
due	138287
ox@@	138222
film-@@	138010
based	137907
events	136724
infection	136627
impairment	136450
ON	136432
n@@	136233
important	135617
part	135605
v@@	135598
ex@@	134679
ad@@	134330
cause	134244
to@@	134117
hep@@	133870
function	132588
free	132456
E	132290
H	132175
rit@@	131890
2008	131758
different	131485
ok@@	131382
D	131289
Germany	131034
80	130895
room	130801
‘	129606
And	129305
tis	128777
May	128672
km	128617
45	128487
49	128478
Each	128151
level	127708
even	127682
shown	127650
mon@@	127646
case	127524
AP@@	127322
CY@@	127298
sat	127183
women	127101
9@@	126938
These	126899
able	126864
CH@@	126789
my@@	126545
www.@@	126328
2010	126292
Y@@	126155
However	126110
av@@	126045
below	125926
response	125790
Europe	125491
≥	125328
pressure	125219
After	124788
powder	124482
ol	124249
efficacy	124225
results	124125
just	123943
2009	123802
until	123704
er	123681
rate	123656
marketing	123431
ep@@	123424
approximately	122707
receiving	122449
related	122310
special	122203
end	122168
When	122070
el@@	122003
total	121743
currently	121605
33	121523
trials	121232
since	121224
trav@@	120453
min	120423
necessary	120187
2@@	119883
90	119736
8@@	119695
cases	119616
r@@	119580
acid	119380
L	119372
sub@@	119058
To	118917
get	118900
page	118896
vaccine	118875
k@@	118803
f@@	118543
world	118480
ed@@	117782
small	117773
2007	117747
35	117598
el	117555
needle	117534
pers@@	116760
sodium	116660
provided	116124
food	116020
32	115940
ensi@@	115709
white	115538
full	115508
AR	115012
200	114944
cells	114927
48	114551
tics	114462
further	114435
ri@@	114420
6@@	114392
last	114268
ax@@	113822
UL@@	113471
4.4	113440
right	113291
problems	113174
potential	113014
og@@	113010
while	112656
therefore	112390
allergic	111732
support	111697
e	111623
long	111507
e.	111288
period	111227
control	111155
«	110927
als	110526
pack	110479
back	110317
Your	110286
met@@	110185
activity	110065
ted	109910
cy@@	109796
IN@@	109594
Posted	109532
u	109431
2011	109391
substance	109173
non-@@	109132
2006	109108
received	108946
56	108914
75	108869
did	108584
All	108569
1.@@	108117
tr@@	108006
concentrations	107874
let	107827
conditions	107789
y	107772
immediately	107694
ne@@	107354
higher	107282
reduced	107206
4@@	106898
hypo@@	106654
seen	106543
studied	106519
exposure	106270
good	106186
contact	106186
above	106135
capsules	106041
Member	105552
view	105543
N	105168
li@@	105132
infections	105117
THE	104897
occur	104817
ren@@	104718
gly@@	104132
art@@	104004
th@@	103839
States	103837
ist	103389
twice	103223
find	103054
change	102994
range	102516
2013	102452
set	102361
similar	102234
own	102147
At	102109
2012	102019
d	101845
2014	101819
5@@	101708
ers	101524
controlled	101472
significant	101118
tri@@	100987
tive	100939
im@@	100575
result	100549
39	100248
44	100092
benefit	99632
her	99541
ric	99269
grams	98777
34	98770
300	98745
36	98307
go	97879
fi@@	97800
ised	97687
Hotel	97623
main	97601
bre@@	97466
Union	97444
man	97353
te@@	97351
0.5	97271
AL@@	97142
IS@@	97128
quality	96968
bi@@	96950
cancer	96731
company	96722
subjects	96658
Pro@@	96460
failure	96403
is@@	96131
.@@	96127
suspension	96034
cell	95948
ING	95908
comit@@	95595
required	95574
minutes	95538
mo@@	95509
um	95400
include	95290
ST@@	95276
ACK@@	95275
much	94921
point	94843
rare	94694
hotel	94687
pregnant	94597
service	94509
500	94389
pregnancy	94368
another	94226
reduction	94091
70	94015
e-@@	93702
either	93516
98	93462
adults	93272
treat	93254
normal	93206
too	93171
care	93135
der	92905
line	92758
AM	92706
atin	92609
ingredients	92387
help	92196
effective	92129
cut@@	92053
serious	91678
blis@@	91667
him	91612
7@@	91399
id	91330
de@@	91306
43	91223
light	91130
AU@@	91109
ent@@	90947
called	90619
per@@	90588
still	90537
second	90387
itors	90373
August	90370
ab	90260
France	90212
cannot	90124
He	90068
URL	90058
best	90014
IM@@	89948
name	89928
pl@@	89542
yl@@	89508
par@@	89471
2000	89364
specific	89320
150	89300
h@@	89288
mean	89210
countries	89111
z	88950
März	88924
ec@@	88832
2005	88803
ut@@	88798
already	88612
September	88606
400	88451
1@@	88378
market	88374
42	88371
authorisation	88216
10@@	88192
chloride	88154
form	88099
ho@@	88098
ing	88060
Re@@	87683
um@@	87673
tension	87643
AG@@	87637
solvent	87601
requested	87483
course	87286
0.0@@	87197
UTC	87141
Council	87138
ine@@	87106
IS	87024
around	87019
November	86998
le@@	86957
down	86909
clearance	86731
U@@	86689
start	86618
prior	86608
lower	86588
changes	86450
services	86389
They	86363
ea	86328
together	86284
Un@@	86283
Committee	86199
ations	85986
hard	85895
tion	85774
shall	85750
ent	85726
said	85577
41	85567
µ@@	85541
et	85477
bleeding	85438
United	85383
95	85291
ca@@	85177
release	85146
But	84914
ig@@	84903
On	84864
max	84821
GmbH	84798
Therefore	84680
become	84652
One	84522
46	84430
appropriate	84071
management	84026
moderate	83989
server	83967
large	83948
addition	83642
f	83527
next	83123
With	83070
continue	83012
loss	82966
toxicity	82942
st@@	82841
example	82820
great	82805
offers	82794
state	82666
local	82629
end@@	82503
provide	82298
know	82114
expected	81882
maximum	81804
tell	81792
rooms	81415
isation	81413
want	81320
MA@@	81042
October	81023
action	80992
dosage	80938
oph@@	80912
J@@	80904
air	80823
und	80771
su@@	80668
ability	80647
Other	80471
red	80470
osis	80315
serum	80307
production	79778
ter@@	79719
pen	79626
via	79575
clear	79514
Nov@@	79263
international	79139
pi@@	79126
million	79062
pre@@	79009
co-@@	78989
process	78731
R	78681
included	78551
W@@	78442
April	78427
P	78316
city	78144
reaction	78118
whether	77902
German	77660
stop	77516
M	77476
PE@@	77422
additional	77357
activities	77322
Use	77232
Treatment	77168
mb@@	77166
old	77052
over@@	77005
2004	76933
car@@	76840
history	76794
ID	76651
feeding	76618
Mr	76612
signs	76523
ically	76468
four	76465
Al@@	76432
June	76288
ER	76279
il	76248
37	76247
ary	76221
sp@@	76209
ch@@	76201
please	76175
respectively	76153
test	76150
ten@@	76118
she	75986
97	75981
according	75912
hepatitis	75795
2001	75775
V	75531
47	75522
iness	75424
HIV	75403
38	75338
tes	75295
52	75148
k	75132
means	75049
especially	75033
glass	74877
individual	74846
growth	74776
New	74594
come	74557
55	74523
ema	74493
decreased	74233
AL	74187
pm	74148
PARTIC@@	74072
list	74049
give	74040
particular	74005
house	73835
application	73764
public	73741
again	73724
groups	73493
II	73451
@	73420
God	73390
bu@@	73293
…	73274
always	73210
mm	73148
tic@@	73129
current	73126
July	73117
S.	72998
present	72919
date	72857
March	72816
2002	72812
working	72787
es@@	72755
alone	72662
g.	72639
few	72638
month	72424
m2	72415
reduce	72378
anti-@@	72349
ensure	72307
away	72258
²	72248
fl@@	72244
show	72159
car	72019
est@@	71928
PVC	71848
interfer@@	71823
ci@@	71617
bone	71576
tivity	71467
chlor@@	71385
ast-@@	71301
ance	71203
Li@@	71190
Our	71154
aneous	70955
cl@@	70949
off	70928
ph@@	70906
G	70871
AT	70752
99	70703
access	70209
open	70104
report	70098
indicated	70081
AC@@	70013
84	69946
concentration	69805
offer	69801
ar	69742
greater	69731
business	69687
OF	69471
Very	69441
FOR	69326
fa@@	69277
protein	69227
do@@	69203
oc@@	69197
TR@@	69188
cre@@	69187
population	69163
Th@@	69099
drug	69097
limited	69057
AND	69045
eye	68922
major	68758
54	68742
dogs	68732
2.5	68726
decrease	68711
rash	68676
established	68676
F	68631
EN@@	68615
AN@@	68590
inf@@	68547
receive	68423
thi@@	68343
agents	68305
caused	68255
le	68055
po@@	67842
pen@@	67834
general	67817
incidence	67815
....	67735
't	67701
several	67676
person	67459
kidney	67331
Common	67264
.com	67228
dosing	67204
vomiting	67119
ten	67054
child	67050
national	66999
der@@	66800
13@@	66692
trans@@	66671
measures	66488
muscle	66448
medical	66328
starting	66322
certain	66311
cm	66299
virus	66262
Con@@	66254
file	66230
ating	66136
areas	66067
51	65969
baseline	65888
International	65872
Aug	65859
bed	65705
duration	65668
An@@	65663
us@@	65567
lim@@	65315
January	65260
might	64988
die	64976
amount	64955
mild	64809
event	64799
od@@	64759
located	64748
nausea	64655
pr@@	64639
Reply	64626
Please	64614
Ac@@	64298
metabol@@	64006
standard	63797
EUR	63776
96	63776
real	63722
lac@@	63668
IR@@	63549
viral	63532
From	63524
Ab@@	63522
injections	63473
substances	63385
ster@@	63318
table	63296
usually	63170
excre@@	63085
Oral	63043
left	62991
58	62803
particularly	62695
AV@@	62649
1000	62648
sive	62622
RE@@	62591
$	62547
frequency	62512
AT@@	62496
drive	62467
healthy	62446
form@@	62372
whole	62337
CP@@	62060
experienced	62049
acute	62039
Take	61943
fa	61916
December	61904
000	61881
Ex@@	61858
inetic	61803
iv@@	61371
performed	61298
diabetes	61264
ob@@	61263
En@@	61257
presented	61178
better	61171
IN	61138
syndrome	61032
analysis	61005
59	60973
Marketing	60954
53	60904
{	60871
meth@@	60848
complete	60798
Win@@	60786
Fax	60689
however	60681
value	60608
monitored	60601
US	60533
si@@	60513
Le@@	60482
adolescents	60468
systems	60443
Q@@	60433
country	60428
flo@@	60350
monitoring	60340
2003	60306
inal	60278
Di@@	60247
Co@@	60243
clo@@	60231
AM@@	60230
250	60186
16@@	60159
Number	60136
2.@@	60114
X	60107
j@@	60107
ven@@	60069
14@@	60063
field	60039
contents	59884
basis	59881
President	59878
Human	59870
affect	59767
machines	59635
inflammation	59460
lit@@	59439
w	59417
AD@@	59375
chronic	59322
IT	59300
65	59089
A4	59007
energy	58936
IV@@	58851
bottle	58831
feeling	58743
12@@	58722
WH@@	58606
lam@@	58589
project	58509
amp@@	58470
social	58398
no@@	58309
medi@@	58280
Dis@@	58225
February	58197
trial	58181
primary	58125
}	58107
animals	58068
Annex	58046
procedure	58010
adjustment	57975
future	57929
fo@@	57877
health	57871
57	57850
throughout	57755
significantly	57687
of@@	57677
Com@@	57661
Ad@@	57592
15@@	57485
HOW	57465
ATE	57438
sy@@	57419
volume	57399
Hum@@	57365
demonstrated	57327
caution	57241
bes@@	57213
ological	57119
intestinal	56971
ard	56938
ing@@	56870
prevent	56851
PC	56820
phase	56788
temperature	56777
power	56768
sure	56635
mouth	56565
various	56556
Y	56505
size	56493
clin@@	56486
protection	56447
in-@@	56430
therapeutic	56416
approved	56332
fully	56326
technology	56312
bo@@	56281
lead	56227
diat@@	56151
urine	56058
put	56022
rats	55949
effectiveness	55900
diarr@@	55851
ates	55842
ts	55808
men	55785
relevant	55738
swelling	55661
fever	55651
LE@@	55631
upon	55605
evidence	55598
ORE	55556
close	55520
A.	55438
An	55434
a-@@	55399
today	55384
itor	55363
developed	55286
My@@	55272
gen@@	55265
adult	55195
Author@@	55114
ver@@	55099
me@@	55039
ence	55016
icity	54987
develop	54983
although	54871
UN@@	54848
breast	54794
vaccination	54785
works	54731
5-@@	54715
cap	54711
position	54617
milk	54609
te	54588
III	54586
4.2	54570
package	54506
Pharm@@	54475
ib	54424
ys@@	54423
ene	54352
17@@	54346
among	54260
often	54186
land	54153
hand	54013
centre	53981
regim@@	53960
distribution	53934
policy	53924
lis@@	53919
mal@@	53910
Par@@	53907
bio@@	53854
ra@@	53851
needs	53838
20@@	53801
ane	53742
ra	53666
ast@@	53611
version	53566
design	53548
tests	53543
IC@@	53542
economic	53540
hour	53498
See	53496
points	53458
positive	53439
family	53417
leaflet	53257
ME@@	53256
disorder	53218
having	53175
longer	53029
600	52992
1,000	52874
4.5	52870
la@@	52827
oma	52812
US@@	52793
ub@@	52711
systemic	52704
ve@@	52667
subject	52553
−	52544
surface	52528
say	52446
early	52408
74	52383
surgery	52354
factor	52335
think	52335
That	52273
von	52083
dium	52081
alcohol	52077
reports	52008
mar@@	52000
soon	51997
AB@@	51992
vitro	51970
During	51767
little	51754
Parliament	51718
flu@@	51684
names	51657
4.8	51578
followed	51566
showed	51528
br@@	51481
ant@@	51449
ure@@	51239
advice	51217
condition	51079
post-@@	50982
Since	50945
ery@@	50909
120	50902
increases	50880
OUT@@	50759
started	50719
ness	50689
third	50654
TA	50626
produced	50593
needed	50587
Group	50556
ad	50471
sections	50434
ly	50419
applications	50418
1998	50328
ally	50229
short	50208
By	50201
Kingdom	50182
ism	50143
tim	50125
2-@@	50099
hydrate	50034
tissue	50011
class	49964
Italy	49865
CO@@	49834
occurred	49734
dizz@@	49716
rates	49708
EX@@	49702
ring@@	49608
values	49572
makes	49564
18@@	49552
yl	49480
ini@@	49446
K	49409
ology	49326
General	49318
home	49292
natural	49200
game	49096
types	49076
Vir@@	49074
Tr@@	49017
hi@@	49002
Fil@@	48990
1.5	48906
raz@@	48881
previous	48871
State	48854
contrac@@	48835
requirements	48823
ously	48802
ta@@	48787
open@@	48744
continued	48741
tre@@	48707
uc@@	48685
O	48621
Ltd	48614
guide	48603
Insul@@	48596
overall	48578
fact	48515
research	48492
ax	48378
English	48374
ty@@	48308
achieved	48301
list@@	48289
glucose	48233
00@@	48147
001	48118
multiple	48106
IL@@	48093
existing	48080
dy@@	48066
Ne@@	48053
young	48028
building	48009
visit	47982
fold	47982
industry	47980
top	47964
financial	47944
abnormal	47916
se	47900
website	47892
death	47883
v	47765
account	47748
ot@@	47696
cin	47622
ular	47593
initial	47574
online	47572
sw@@	47548
ocy@@	47540
calcium	47471
done	47427
ED	47426
look	47425
bin	47319
sugar	47227
added	47204
problem	47185
.htm	47171
ste@@	47108
pri@@	47078
Pen	47054
rix	47027
afil	47012
Pharma	46939
headache	46934
Berlin	46933
usual	46839
TV	46821
companies	46803
rh@@	46787
RO@@	46738
far	46632
IT@@	46626
yellow	46623
vast@@	46574
label	46567
aged	46564
random@@	46553
resistance	46532
ina	46492
face	46456
antibodies	46408
feel	46380
ants	46367
private	46359
mal	46348
Table	46326
y-@@	46315
So	46260
ite	46168
23@@	46158
den@@	46143
fa-@@	46076
maintenance	45982
Home	45979
continuation	45950
dic@@	45914
Internet	45843
stay	45834
Management	45806
rights	45775
tom@@	45772
seconds	45772
ana@@	45758
val@@	45687
six	45671
near	45632
plate@@	45609
elderly	45555
amide	45528
price	45509
and@@	45482
evaluated	45451
things	45430
St@@	45422
w@@	45396
art	45385
DNA	45315
CV@@	45297
ogen@@	45205
avoid	45202
4.3	45156
oli@@	45145
immune	45132
region	45118
designed	45087
listed	45056
programme	45029
live	44985
phen@@	44915
OR@@	44882
5.2	44854
Some	44843
infected	44739
OP@@	44699
performance	44635
ori@@	44583
user	44569
Before	44532
10,000	44503
ting	44498
animal	44476
immun@@	44405
political	44369
supplied	44352
se@@	44262
law	44227
directly	44214
meeting	44213
humans	44201
dry	44195
3.@@	44167
material	44148
AG	44143
constitution	44063
Products	44047
\	43957
Agency	43907
va	43876
EL	43819
25@@	43808
sea	43800
EF@@	43795
five	43766
ou@@	43717
constituted	43698
por@@	43656
ell@@	43653
act	43637
les	43616
neuro@@	43605
chemotherapy	43588
likely	43577
assessment	43514
conducted	43497
keep	43483
request	43442
check	43415
discontinued	43383
read	43376
capsule	43360
delivery	43331
EP@@	43323
Mix@@	43312
Ar@@	43274
play	43253
1-@@	43199
content	43165
mono@@	43123
col@@	43104
availability	43065
UK	43046
Ro@@	43035
AN	43031
half	43006
interaction	42993
authorised	42973
Friday	42961
ser@@	42929
plus	42917
he@@	42909
amine	42896
Nor@@	42895
reach	42849
Saturday	42828
carefully	42810
den	42803
half-@@	42782
night	42766
eva	42727
Ch@@	42716
issues	42613
profile	42513
angi@@	42508
So@@	42507
Spain	42458
train@@	42441
users	42427
agreed	42424
MS	42420
dialysis	42390
count	42347
da	42324
double	42296
provides	42249
5.1	42247
ati@@	42167
Vi@@	42160
long-term	42127
box	42127
men@@	42057
Package	42010
software	41974
gets	41953
ative	41909
ator	41818
upper	41794
PRO@@	41786
CI	41784
cer@@	41660
log	41639
Inter@@	41596
others	41593
28@@	41500
Why	41418
Hep@@	41416
stomach	41400
projects	41392
took	41383
sible	41359
1,@@	41353
training	41344
pae@@	41341
itself	41312
views	41266
be@@	41208
veterinary	41189
m-@@	41179
beautiful	41167
MIN@@	41160
ge	41113
800	41113
abdominal	41104
itis	41092
allow	41077
involved	41019
yet	41016
central	41012
ka	40950
Medic@@	40924
looks	40900
updated	40851
costs	40824
Here	40805
cartridge	40789
ose	40751
Date	40731
ja	40729
metabolism	40704
ago	40694
002	40691
unless	40681
top@@	40680
ans@@	40664
defined	40652
27@@	40642
30@@	40633
path@@	40632
ask	40602
terms	40587
aluminium	40556
More	40544
Let	40541
generally	40490
res@@	40484
post@@	40469
lets	40465
really	40381
na	40347
damage	40343
Ren@@	40339
ev@@	40335
breakfast	40334
für	40326
situation	40308
key	40301
3-@@	40282
benefits	40253
Product	40167
IX	40164
Article	40158
apartment	40144
rib@@	40127
©	40098
respiratory	40095
tide	40088
gastro@@	40071
questions	40069
target	40049
bro@@	40047
absorption	40016
mel@@	40003
re-@@	39967
later	39947
solutions	39938
town	39927
DI@@	39924
contain	39906
whose	39898
living	39893
average	39891
.jpg	39837
pho@@	39836
.de	39835
generated	39794
depression	39782
hormone	39773
instructions	39756
—	39723
scientific	39711
cal@@	39678
06@@	39636
nature	39615
PRE@@	39596
space	39587
location	39579
Special	39565
equivalent	39561
ET@@	39556
zy@@	39535
combined	39527
arm	39508
term	39470
ben@@	39464
ject	39390
told	39387
eyes	39385
os	39384
decision	39369
staff	39356
OR	39346
la	39335
7.5	39311
members	39303
ac	39298
code	39290
Is	39268
carton	39258
text	39239
units	39238
Pre@@	39155
opinion	39142
Ir@@	39131
Following	39109
gi@@	39095
along	39000
comes	38979
are@@	38956
redness	38956
1997	38936
fol@@	38932
Then	38917
ancy	38907
xy@@	38880
address	38854
enzyme	38837
pine	38828
Pu@@	38812
64	38772
ents	38740
original	38726
program	38725
gras@@	38690
going	38689
making	38631
Her@@	38631
role	38601
icon@@	38592
4.@@	38584
prote@@	38583
born	38547
Board	38537
carried	38523
W	38515
corti@@	38502
Do@@	38500
ART@@	38482
itus	38445
a.	38442
unit	38427
World	38386
indication	38370
matter	38363
thus	38347
don	38289
risks	38283
Uhr	38276
parts	38266
disper@@	38240
®	38234
easy	38215
frac@@	38206
described	38144
TI@@	38089
fe@@	38073
ef@@	38068
direct	38052
cardiac	38045
obtained	38017
quin@@	38010
packs	38004
regarding	37951
technical	37938
cit@@	37894
create	37884
mainly	37866
eme@@	37855
issue	37854
xim@@	37843
ve	37818
Belgi@@	37814
security	37804
man@@	37788
Hotels	37763
transport	37737
up@@	37723
intended	37720
ens	37707
Thursday	37674
completely	37600
actually	37598
past	37559
ching	37551
Limited	37546
drink	37538
pul@@	37523
CT	37508
button	37465
ins	37424
Bayer	37410
Rap@@	37331
reached	37323
onic	37318
lack	37274
Peg@@	37265
final	37258
granted	37238
needles	37219
retro@@	37210
±	37178
asis	37177
modern	37171
i.	37143
almost	37126
music	37098
procedures	37068
require	37042
phosphate	37020
something	37014
respect	36991
South	36916
patch	36909
customers	36908
difference	36889
otherapy	36881
ities	36879
held	36871
leading	36849
environment	36845
prescribed	36843
Day	36837
etc	36822
authorities	36775
came	36745
o-@@	36737
Because	36731
question	36728
ladysilvia	36670
suitable	36665
EL@@	36659
presence	36617
responsible	36608
ato@@	36605
resistant	36604
improvement	36601
Name	36595
72	36588
place@@	36579
arthritis	36535
lev@@	36528
sector	36504
files	36488
Inf@@	36433
drugs	36407
ovi@@	36393
professional	36361
dos@@	36352
Op@@	36352
enough	36350
AGE	36329
strong	36284
prolonged	36260
equipment	36247
why	36244
love	36241
colour@@	36227
stated	36213
go@@	36107
Su@@	36085
harm	36080
University	36064
Austria	36005
beginning	35990
guests	35940
produce	35922
ever	35913
stage	35880
includes	35879
towards	35866
adequate	35846
factors	35795
never	35772
highly	35766
cover	35728
bo-@@	35700
looking	35675
61	35673
rubber	35664
180	35623
lot	35605
personal	35602
t-@@	35594
initiated	35576
vision	35498
forget	35496
film	35478
24@@	35434
sites	35356
stop@@	35350
measured	35331
images	35308
Hy@@	35293
return	35291
notice	35278
valid	35274
dil@@	35234
joint	35177
iron	35176
UM	35157
regular	35136
turn	35122
activated	35119
combin@@	35065
alog	35054
injected	35049
VI@@	35043
acet@@	35007
Me@@	34968
Like	34956
follow	34956
ES@@	34955
Mar@@	34949
storage	34928
plastic	34927
ari@@	34909
Sol@@	34907
nit@@	34906
Met@@	34894
agli@@	34875
trade	34859
DE	34851
eron	34843
persons	34809
q@@	34806
Community	34790
oid	34779
tract	34770
oxide	34744
radi@@	34729
document	34724
La	34721
ON@@	34716
affected	34705
card	34682
elimination	34663
ines	34658
meal	34622
advanced	34584
measure	34576
emat@@	34564
facilities	34558
Be@@	34527
estate	34520
potassium	34493
lu@@	34493
Windows	34467
ge@@	34375
q	34361
submitted	34342
wide	34328
coag@@	34326
Preg@@	34290
transfer	34275
morning	34266
Ser@@	34220
diseases	34182
binding	34147
increasing	34138
USA	34134
device	34121
San	34120
difficulty	34094
member	34087
head	34086
P2@@	34058
developing	34051
entire	34040
Rare	34003
enzymes	33997
ulation	33982
ons	33933
media	33916
USE	33905
sal@@	33883
hands	33875
attention	33869
agreement	33847
plan	33844
network	33837
pa@@	33818
method	33798
rep@@	33797
language	33790
emic	33786
prices	33775
road	33768
08@@	33764
enjoy	33764
agent	33759
bar	33736
dia	33731
SA@@	33721
dial	33710
exactly	33706
mixed	33706
London	33697
majority	33694
closely	33680
El@@	33664
older	33620
som@@	33589
urinary	33577
rental	33574
versus	33570
ER@@	33560
bil@@	33547
ATION	33541
evaluation	33532
hotels	33507
sul@@	33497
ile	33486
fat	33462
center	33432
status	33430
ind@@	33429
interest	33420
image	33393
carcin@@	33378
shows	33377
visits	33362
vir@@	33361
st	33351
Sunday	33312
improve	33303
impaired	33259
across	33256
fer@@	33255
Val@@	33238
accordance	33207
oto@@	33203
allows	33202
Not	33134
separate	33133
ID@@	33118
inter@@	33112
sufficiency	33097
adopted	33083
parties	33056
ratio	32988
apply	32978
vaccines	32936
450	32927
Pr@@	32911
Z	32909
IV	32900
team	32898
speed	32891
materials	32888
assessed	32882
sch@@	32878
feed	32868
C.	32866
previously	32856
created	32834
iz@@	32831
07@@	32829
era	32810
.html	32773
Ireland	32760
advised	32712
s-@@	32711
beach	32704
commonly	32700
frequently	32695
peripheral	32686
eth@@	32661
link	32639
Netherlands	32633
counts	32589
requests	32585
completed	32564
style	32554
cooperation	32527
reason	32501
corresponding	32471
ip@@	32445
takes	32427
resulting	32352
brain	32347
front	32346
so@@	32330
ni@@	32326
House	32307
operation	32294
Car@@	32260
occurs	32244
ly@@	32233
published	32228
lan@@	32205
concentrate	32188
Bar@@	32183
reference	32169
8.@@	32155
Belgium	32143
lose	32143
ures	32125
dependent	32056
applied	32041
species	32021
click	32012
pool	32005
accommodation	32002
amp	31998
Time	31923
44-@@	31883
interval	31874
deficiency	31870
26@@	31842
Clinical	31842
book	31842
85	31835
ed-@@	31827
floor	31827
negative	31809
adjusted	31796
-0@@	31792
prolong@@	31761
immuno@@	31759
73	31754
ering	31753
computer	31735
160	31735
meet	31717
4-@@	31710
EN	31706
black	31693
AS@@	31676
components	31674
map	31663
los@@	31639
88	31610
	31592
Pe@@	31569
games	31566
physical	31562
features	31545
91	31529
des@@	31511
5.@@	31479
big	31477
indicate	31467
board	31423
Sch@@	31409
row	31393
Free	31379
zap@@	31350
prevention	31331
toxic	31323
sun	31322
eri@@	31311
kind	31311
e.g.	31285
ysis	31281
ath@@	31275
125	31264
recent	31247
ir	31247
believe	31244
Information	31220
protect	31214
lin@@	31206
safe	31176
rel@@	31150
Im@@	31136
whom	31125
Cy@@	31104
supply	31100
Sun	31096
physician	31089
press	31072
1.0	31070
ae	31055
interactions	31049
qu@@	31025
AF@@	31016
forms	31008
City	31001
Total	30996
Phone	30986
Always	30958
acting	30943
properties	30938
gast@@	30932
series	30925
refrigerator	30919
OT@@	30914
customer	30906
wish	30884
arr@@	30878
ial	30875
Av@@	30801
Children	30780
son	30719
rapid	30717
thesia	30692
legal	30691
unknown	30681
EM@@	30658
emor@@	30646
repeated	30640
re	30633
verse	30615
ice	30609
led	30580
Bon@@	30572
influence	30565
66	30559
DC	30538
machine	30535
VAT	30534
ogenic	30534
French	30510
identified	30493
marked	30472
diabe@@	30454
62	30403
lactose	30398
67	30373
Tuesday	30369
fu@@	30359
09@@	30343
sulph@@	30334
global	30321
differences	30315
gia	30303
sions	30281
oids	30271
mi@@	30257
trac@@	30219
government	30204
male	30197
survival	30196
89	30190
tions	30168
recently	30162
des	30161
68	30160
round	30153
poly@@	30140
tel@@	30140
essential	30131
Monday	30130
practice	30116
impact	30102
call	30072
intr@@	30064
6-@@	30060
fen@@	30053
Ci@@	30027
77	29984
implementation	29980
chest	29980
rac@@	29973
Lord	29965
bit@@	29934
YOU	29934
clearly	29923
ran@@	29908
details	29895
testing	29888
tac@@	29879
century	29878
Park	29853
oil	29845
0.9	29843
tumour	29812
store	29809
sil@@	29802
step	29790
AS	29781
Based	29777
oste@@	29774
SU@@	29767
Although	29720
preparation	29712
breathing	29712
inhal@@	29679
liquid	29662
CON@@	29644
weakness	29623
Wednesday	29595
everybody	29576
ocar@@	29574
king	29568
ket@@	29566
outside	29565
walk	29549
expiry	29543
B.	29536
themselves	29520
BV	29503
AB	29503
ade	29497
Read	29494
UT@@	29494
D-@@	29484
Er@@	29484
proposed	29470
commercial	29469
gener@@	29468
A-@@	29456
recommend	29451
laboratory	29448
vo	29420
peg@@	29406
difficult	29390
pro	29386
search	29362
Now	29360
construction	29359
pol@@	29354
correct	29291
any@@	29271
review	29267
Price	29263
John	29256
money	29250
ng	29244
normal@@	29232
gen	29232
leuk@@	29221
29@@	29220
true	29220
rosis	29215
female	29212
limit	29208
remove	29206
parking	29202
Bas@@	29189
My	29186
Ha@@	29185
ach@@	29164
'@@	29152
kin@@	29144
National	29142
Health	29110
cc@@	29087
phosph@@	29072
causes	29050
everything	29027
prescri@@	29023
remain	28988
str@@	28966
subsequent	28947
ae@@	28913
yourself	28909
sy	28897
Em@@	28886
blind	28871
knowledge	28868
nia	28822
vein	28778
operating	28772
documents	28761
ones	28752
regard	28730
93	28721
evening	28666
rarely	28642
EC@@	28616
tox@@	28604
ept	28601
determined	28601
models	28592
allowed	28574
Portugal	28563
source	28562
actions	28555
α	28537
Click	28525
zo@@	28515
built	28510
euro@@	28505
Eff@@	28482
ling	28477
rules	28469
onia	28463
possibility	28461
sometimes	28442
withdrawal	28424
Once	28396
-1	28391
Of	28356
ough	28354
video	28339
her@@	28339
Breakfast	28325
fin@@	28313
ases	28275
TAK@@	28267
im	28246
83	28245
far@@	28230
fluid	28225
achieve	28202
pneum@@	28194
perfect	28181
zu	28173
recommendations	28152
PE	28144
fatal	28143
route	28127
gluc@@	28109
pin@@	28105
rather	28101
slightly	28087
bring	28078
unique	28074
TS	28066
cholesterol	28032
Hydro@@	28026
dioxide	28019
decided	28017
cycle	28016
-20	28002
rest	27994
DU@@	27993
plas@@	27939
opathy	27918
..	27911
zer	27883
parameters	27868
precautions	27865
involving	27844
bound	27843
ino@@	27803
Sp@@	27797
tation	27783
equipped	27754
stored	27747
war	27734
info	27730
photos	27722
EV@@	27711
talk	27701
Republic	27700
PV@@	27698
Bo@@	27682
em	27670
≤	27668
Die	27648
extent	27643
pos@@	27632
Safety	27620
capacity	27612
primarily	27593
sin@@	27570
Type	27562
Only	27549
emo@@	27547
bul@@	27517
select	27512
Kar@@	27511
1999	27498
words	27487
Tell	27476
onset	27474
aria	27471
web	27471
Paris	27421
λ@@	27420
pin	27413
connection	27412
ere	27402
12.5	27395
Last	27391
82	27363
40@@	27356
station	27350
detailed	27341
ill@@	27329
cardiovascular	27328
69	27326
remains	27313
1996	27297
Location	27293
Due	27277
al-@@	27274
infants	27258
tested	27249
CR@@	27245
ali@@	27242
dl	27241
Also	27240
gas	27232
tors	27212
Am@@	27205
them@@	27190
multi@@	27180
maintained	27179
cu@@	27176
His	27172
6.@@	27168
du	27155
model	27153
proteins	27150
quickly	27135
ang@@	27133
Study	27133
ak@@	27107
China	27075
ie@@	27071
topic	27062
post	27052
Neo@@	27022
Tri@@	27002
EC	26996
Ver@@	26992
office	26987
sick	26940
base	26938
rec@@	26923
send	26920
xis	26913
guidelines	26899
rel	26896
volunteers	26883
172	26834
complex	26830
easily	26827
Or@@	26823
que	26813
stable	26794
Se@@	26791
Directive	26781
consider	26768
antly	26761
receptor	26757
ke	26746
Page	26745
76	26741
37@@	26738
weekly	26737
appear	26727
ch	26724
71	26707
rapidly	26693
LL	26687
au	26673
Sub@@	26638
aes@@	26632
Most	26630
fil@@	26627
resources	26611
approach	26604
mm@@	26599
Israel	26575
Taking	26573
á@@	26573
·	26567
tax	26562
63	26562
enia	26543
hibition	26542
Joined	26535
aid	26508
86	26502
ages	26501
soft	26487
Pl@@	26472
lymph@@	26466
0.3	26464
uro@@	26457
beds	26455
organ	26441
Post	26441
cap@@	26431
prepared	26417
vacc@@	26415
BL@@	26406
internal	26398
inside	26379
92	26375
SC@@	26369
proposal	26367
got	26365
tiv@@	26362
sufficient	26353
11@@	26333
initiation	26302
ics	26301
try	26280
hot	26248
normally	26236
sterile	26236
dysfunction	26217
19@@	26209
went	26207
gra@@	26204
property	26189
monitor	26189
LO@@	26185
confirmed	26162
uncommon	26159
ized	26156
epilep@@	26132
opening	26118
sin	26064
res	26056
immobili	26035
LE	26027
share	26012
visual	25990
concerning	25982
stip@@	25980
Switzerland	25976
Al	25965
decide	25963
success	25960
´	25960
internet	25960
Holder	25908
ies	25896
IF@@	25893
wi@@	25849
pass	25847
fatigue	25840
sup@@	25828
excellent	25803
ella	25795
quite	25775
act@@	25759
Data	25750
out@@	25744
meetings	25736
tor@@	25736
carry	25732
News	25727
Dr.	25713
0.1	25682
th	25656
di	25654
Bi@@	25652
resulted	25652
bathroom	25648
mis@@	25637
latest	25632
Jesus	25620
removed	25617
com@@	25615
village	25608
progress	25605
estimated	25577
du@@	25576
holiday	25569
XP	25558
restaurant	25544
inflammatory	25534
run	25529
Mon@@	25510
F-@@	25509
apartments	25503
LET	25501
ps	25496
Sil@@	25494
Cal@@	25487
tal	25450
5.3	25427
calendar	25426
breath	25422
ture	25419
uploads	25417
ready	25409
cats	25409
ides	25399
tim@@	25377
opened	25374
antibody	25373
dic	25370
steps	25357
forward	25336
ination	25314
das	25309
sleep	25273
Plan	25257
mid@@	25256
maps	25248
Finland	25242
copies	25239
culture	25232
simple	25207
highest	25188
Section	25185
Tre@@	25185
nor	25177
↓	25174
Centre	25159
110	25143
lung	25142
dys@@	25137
choice	25135
atory	25101
bet@@	25100
78	25098
Summary	25091
tem@@	25082
2,@@	25055
cultural	25049
fall	25044
simply	25043
Airport	25023
Mon	25015
forum	25013
double-@@	24998
pep@@	24990
ira	24962
Fer@@	24958
tu@@	24956
ES	24949
partners	24939
undesirable	24935
alternative	24934
xi@@	24917
stopped	24877
suggest	24869
war@@	24848
bus	24847
Per@@	24842
Lil@@	24834
sig@@	24832
7.@@	24826
glycer@@	24813
wine	24794
picture	24789
capital	24785
ard@@	24775
gel@@	24770
oten@@	24768
Kal@@	24765
budget	24762
fast	24762
eu	24760
responsibility	24760
choose	24754
appetite	24736
school	24734
items	24730
improved	24724
SE@@	24718
ideal	24712
sale	24692
variety	24690
cop@@	24678
hal@@	24674
wind	24673
balance	24673
concluded	24670
RA	24654
summer	24641
path	24637
ne	24632
opportunity	24629
er-@@	24622
sed	24615
cost	24602
length	24584
arc@@	24558
Co	24536
asta	24527
uses	24491
cor@@	24489
sa@@	24466
strength	24456
diet	24448
chol@@	24433
PER@@	24417
travel	24413
tro@@	24391
Samstag	24389
induced	24378
blue	24374
garden	24371
noted	24362
Two	24345
society	24319
171	24310
https	24305
successful	24298
environmental	24278
ising	24265
cr@@	24264
pid@@	24254
é@@	24246
treatments	24245
progression	24228
places	24221
50@@	24220
E-mail	24211
mark	24209
changed	24200
transi@@	24194
movement	24188
standards	24170
SY@@	24169
ment	24162
comfortable	24161
END	24138
download	24136
81	24136
Hel@@	24104
hair	24084
component	24083
friend	24071
She	24061
wall	24044
thing	24037
alised	24035
TER@@	24018
party	24014
structure	24009
relationship	24000
basic	23997
hope	23978
reasons	23957
except	23956
follows	23936
written	23931
Working	23930
concerned	23929
IA	23925
007	23920
setting	23912
one@@	23904
transplant	23898
America	23879
enter	23876
wp-content	23867
mentioned	23827
focus	23825
sound	23783
independent	23778
association	23775
za	23769
crisis	23761
influenza	23759
methods	23758
indications	23755
green	23754
Sep	23745
container	23726
Donnerstag	23700
Medicines	23685
purposes	23668
ys	23667
doc@@	23667
became	23664
Mab@@	23633
lines	23623
pal@@	23618
plung@@	23613
bacterial	23612
CD@@	23612
appears	23606
ft	23604
planning	23594
reducing	23590
yn@@	23576
park	23566
communication	23550
fill	23550
System	23543
36@@	23524
paper	23524
First	23523
gives	23513
brought	23497
affects	23483
79	23467
tur@@	23458
illness	23458
......	23448
foreign	23445
Characteristics	23439
seiz@@	23437
Main	23430
metast@@	23429
HD@@	23422
York	23416
B-@@	23405
pe@@	23396
35@@	23390
clean	23386
tools	23366
closed	23365
add	23352
exchange	23342
L-@@	23336
beta	23311
sales	23295
Tél	23285
traditional	23267
flow	23263
placed	23248
institutions	23240
ins@@	23227
particles	23226
processes	23223
mail	23217
22@@	23215
situated	23210
education	23206
Ã	23205
lor@@	23198
famous	23195
Animal	23192
pages	23190
onist	23186
del	23185
colour	23175
ica	23163
mine	23153
press@@	23149
anz@@	23141
une	23138
formation	23136
external	23131
Unit	23120
follow-up	23117
asthma	23103
Pi@@	23100
degree	23082
sh@@	23081
taste	23066
cartridges	23062
030	23045
exposed	23026
depending	23025
Water	23011
regularly	23001
minimum	22995
importance	22994
-10	22990
selected	22984
Lev@@	22980
coming	22967
ich	22954
American	22953
reg@@	22944
woman	22944
www	22944
Deutschland	22939
é	22931
vor@@	22931
Party	22914
schedule	22910
avoided	22898
aus@@	22887
title	22874
94	22868
though	22853
mit	22839
Hyper@@	22829
10.@@	22823
Luxembourg	22818
swe@@	22815
kitchen	22793
comparable	22792
Business	22781
emb@@	22770
score	22745
T-@@	22727
38@@	22715
sexual	22706
í@@	22705
lax@@	22689
beta-@@	22667
Studies	22662
lip@@	22658
Bed	22658
official	22655
ber	22649
auf	22634
ane@@	22626
Next	22621
inform	22620
vitamin	22617
DLL	22614
Cap@@	22606
handling	22592
non	22592
St.	22589
sor@@	22569
ale	22567
IP@@	22556
dr@@	22541
strategy	22536
ids	22523
bearing	22498
etal	22496
Development	22474
on-@@	22470
says	22446
ways	22443
equal	22442
0-@@	22440
pres@@	22430
Fri	22426
adal@@	22423
AC	22422
Download	22402
Commissioner	22395
pay	22394
index.php	22394
note	22384
thought	22375
V.	22373
SP@@	22368
AZ@@	22357
secondary	22351
ACE	22331
rheum@@	22328
elevated	22317
Greece	22315
Caution	22299
sent	22297
concerns	22286
Contact	22280
protective	22280
pip@@	22279
oe@@	22258
citizens	22255
E-@@	22251
Road	22248
force	22234
μ	22228
While	22217
12.@@	22215
Qu@@	22204
maintain	22192
Apartment	22182
peak	22182
Administration	22171
I-@@	22165
rise	22158
p-@@	22153
8-@@	22148
apar@@	22145
symp@@	22121
Mar	22112
Cor@@	22110
ton	22110
UR@@	22108
induction	22095
Sie	22064
dom@@	22047
Merc@@	22037
C-@@	22018
relative	22017
fusion	22017
extension	22015
giving	22013
ada	22009
cular	22008
ans	22001
partner	21999
Service	21996
Research	21993
dro@@	21983
ps@@	21976
experts	21966
absorbed	21947
Week	21932
asked	21913
flu	21905
states	21887
medication	21864
consistent	21847
skeletal	21829
attack	21827
move	21801
Russia	21756
allowing	21749
hydr@@	21742
charge	21741
iso@@	21739
au@@	21730
occurring	21724
nice	21719
ity	21718
Wed	21705
met	21701
luxury	21691
goods	21677
amus@@	21662
unto	21646
na@@	21643
del@@	21636
olic	21616
selection	21588
outer	21578
Africa	21574
Machine	21566
PC@@	21565
Tablet	21556
gic	21555
pic@@	21535
d-@@	21535
fungal	21533
Blood	21512
helps	21509
rit	21503
Keep	21473
possibly	21461
excluded	21458
flat	21440
eu@@	21438
raised	21419
ami@@	21416
Freitag	21410
und@@	21397
Fe@@	21391
P-@@	21385
community	21384
ride	21383
regional	21360
eption	21352
frequent	21331
statistically	21327
throat	21326
mind	21312
Italian	21312
church	21311
ushing	21298
peace	21297
sk@@	21283
46@@	21283
fam@@	21272
ess	21242
Ste@@	21241
leave	21239
vessels	21236
Go	21214
Jan	21214
Games	21204
stand	21191
ITS	21182
continuous	21172
Az@@	21164
exercise	21160
self-@@	21143
Pol@@	21143
shower	21142
nothing	21141
initi@@	21139
Bre@@	21136
Phase	21111
loc@@	21109
port	21105
load	21099
determine	21084
competition	21080
Ri@@	21074
adequately	21070
extra	21070
mechanism	21069
purpose	21063
understand	21055
interested	21054
getting	21041
De@@	21032
Co-@@	21028
Bio@@	21012
PR@@	20997
Tel@@	20995
Note	20977
ground	20934
sizes	20933
plant	20931
ate@@	20920
news	20916
treating	20912
Thus	20903
TA@@	20877
island	20872
episodes	20862
aim	20851
atro@@	20847
No@@	20839
economy	20833
9.@@	20833
0.6	20829
pan@@	20829
immediate	20812
height	20807
4.6	20805
dine	20797
deep	20796
word	20790
-S@@	20780
omet@@	20779
CV	20779
markets	20776
bottles	20769
ung	20759
gr@@	20750
Kin@@	20740
former	20730
investment	20725
mit@@	20721
NE@@	20715
elements	20714
Any	20705
esp@@	20704
gram	20699
framework	20697
lives	20695
90@@	20677
ze@@	20677
percent	20673
bron@@	20670
tig@@	20661
aware	20658
Office	20653
beyond	20647
East	20637
Gen@@	20629
Bet@@	20607
polyethylene	20605
absolute	20603
MR@@	20603
tam@@	20602
airport	20595
severity	20588
context	20573
ret@@	20557
insufficient	20544
As@@	20539
chemical	20538
acy	20521
exhibition	20515
ring	20515
coma	20514
minute	20507
87	20506
waste	20487
ign@@	20487
threatening	20481
Plus	20479
Head	20477
San@@	20469
MAR@@	20457
workers	20456
fertility	20444
ex	20432
option	20413
poor	20409
tron	20405
ski	20400
cep@@	20400
368	20368
industrial	20367
sim@@	20364
cold	20349
extensive	20349
nol@@	20327
ves	20315
mountain	20314
Version	20307
providing	20306
article	20301
onists	20295
lym@@	20291
functions	20290
atitis	20286
eg@@	20281
tan@@	20278
CD	20278
message	20274
2.0	20266
Sev@@	20263
guidance	20262
hospital	20261
sti@@	20259
IC	20252
pictures	20247
terrace	20247
criteria	20238
Rev@@	20237
TH@@	20236
OS	20235
undergoing	20235
tel	20225
numbers	20225
ma	20221
imp@@	20219
Rapid	20209
Frankfurt	20202
dog	20196
0.4	20192
distance	20182
visitors	20177
Br@@	20172
friendly	20147
а@@	20143
ux	20142
birth	20139
amin@@	20132
mat@@	20131
welcome	20129
instead	20115
idea	20110
Thu	20110
transfer@@	20109
Court	20095
encyclopedia	20075
S-@@	20068
zi@@	20066
↑	20064
lesions	20062
consists	20062
IDs	20054
ze	20045
onto	20043
Source	20030
109	20030
Anti@@	20026
Church	20026
Furthermore	20023
radio@@	20017
heat	20015
ical	20010
conference	20009
potentially	20007
Company	20005
North	20001
fon@@	19999
39@@	19988
Important	19974
Barcelona	19968
Using	19964
moment	19957
enter@@	19952
recognition	19950
historical	19947
bit	19945
incl	19943
respond	19939
kidneys	19936
rati@@	19927
seek	19924
lic@@	19906
,000	19893
Skin	19889
slow	19888
van	19872
discussion	19861
Services	19857
ο@@	19854
Store	19851
outcome	19846
gam@@	19842
pur@@	19841
acid@@	19838
Sweden	19832
recep@@	19814
stability	19802
popular	19797
tour	19796
Ber@@	19789
arms	19784
ro	19780
anxiety	19779
Du@@	19771
For@@	19769
probably	19767
White	19765
vascular	19761
Further	19759
neck	19752
Gl@@	19747
gain	19734
behind	19733
ur	19728
05@@	19726
Send	19722
200@@	19720
legislation	19720
bloc@@	19701
stroke	19684
hold	19664
Report	19663
ens@@	19660
um-@@	19652
en-@@	19649
extremely	19649
Si@@	19648
pump	19644
gli@@	19639
ris@@	19637
MB	19616
min@@	19610
goes	19587
oni@@	19578
ker	19577
tumours	19573
Mix	19555
Minister	19551
injec@@	19551
careful	19550
High	19545
ing-@@	19545
sense	19540
kept	19536
IB@@	19536
Art	19531
window	19531
adj@@	19530
relation	19517
late	19489
„	19488
PDF	19482
learn	19469
Pen@@	19467
characteristics	19467
exercised	19464
til	19462
assistance	19462
unlikely	19461
www@@	19450
potent	19450
excessive	19446
mortality	19438
sion	19434
ana	19430
nurse	19427
LAB@@	19422
belongs	19422
intervals	19400
Regulation	19397
ings	19387
Lam@@	19384
contrast	19363
demand	19357
cis@@	19356
gem@@	19324
secre@@	19322
West	19316
plants	19314
gran@@	19310
consideration	19310
investigated	19306
Oct	19306
findings	19303
doing	19299
etra	19291
30-@@	19289
s.	19287
collection	19266
33@@	19266
orb@@	19266
vo@@	19264
largest	19263
VA	19258
Museum	19253
supported	19249
becomes	19244
Picture	19241
cheap	19215
vas@@	19211
Box	19205
database	19204
Vienna	19199
nec@@	19198
Jun	19196
draw	19188
arian	19175
ED@@	19171
conventional	19169
tor	19167
ads	19162
mon	19158
gave	19157
OM@@	19154
net	19149
fixed	19145
Check	19136
debate	19129
rogen	19115
decreases	19115
010	19111
--	19111
48@@	19108
touch	19099
the@@	19097
printed	19096
Remove	19091
friends	19085
crawled	19080
feet	19075
ä@@	19064
induc@@	19063
VIII	19055
students	19052
Wayback	19039
terminal	19025
season	19022
supervision	19021
.org	19017
esp	18995
Reproduction	18995
integrated	18987
ancies	18985
49@@	18979
exceed	18972
bacteria	18959
dar@@	18937
resolution	18932
To@@	18931
Te@@	18929
patches	18923
47@@	18920
entry	18920
driving	18908
metres	18899
bas@@	18884
minor	18883
1.2	18882
email	18879
climate	18874
divided	18871
requires	18866
individuals	18865
recovery	18852
RT@@	18843
1995	18828
amounts	18826
circumstances	18825
options	18820
gene	18819
processing	18812
Jul	18797
cul@@	18784
growing	18784
1.0@@	18780
Risk	18774
guarantee	18770
non@@	18767
ine-@@	18765
Center	18762
ENT@@	18760
Tue	18755
0.2	18748
proportion	18742
mice	18739
7-@@	18718
Pack	18704
Today	18703
Sat	18701
Atri@@	18690
links	18682
relating	18681
Web	18679
bl@@	18669
delivered	18667
policies	18662
Sector	18660
FOR@@	18655
seven	18643
Hamburg	18642
direction	18619
INE	18614
η@@	18613
all@@	18608
pigs	18590
nicht	18589
specified	18586
baby	18579
fields	18573
Apr	18568
fruit	18568
Czech	18564
Room	18562
Central	18558
l-@@	18558
ma@@	18549
tin@@	18542
opor@@	18541
ron@@	18532
irritation	18529
yr	18522
thousands	18518
protected	18510
referral	18502
inated	18497
absence	18493
objective	18490
cut	18488
derived	18479
tool	18479
Tas@@	18472
cardi@@	18471
Bank	18470
Part	18458
digital	18449
antibiotics	18449
Both	18446
Via	18439
mother	18437
regions	18432
cream	18422
Spanish	18418
slowly	18416
update	18409
Press	18406
courses	18406
refer	18404
employees	18394
aspects	18389
grade	18373
core	18367
Tra@@	18367
6.6	18352
0.00@@	18348
Rem@@	18342
2017	18336
04@@	18334
Many	18331
Neu@@	18330
earth	18328
himself	18327
kers	18324
Res@@	18297
advantage	18296
Pos@@	18276
Sh@@	18269
offered	18241
ung@@	18238
sc@@	18223
ver	18218
competent	18203
cart	18202
albu@@	18198
LORD	18183
fum@@	18183
diluted	18180
sit@@	18175
street	18159
remaining	18159
ors	18154
formulation	18144
lowering	18134
Fl@@	18131
carb@@	18120
int	18120
fight	18115
Its	18112
ï@@	18110
numerous	18108
Lat@@	18107
vs.	18098
56@@	18097
replacement	18092
annual	18091
Saved	18084
deal	18084
otherwise	18082
scale	18064
approx	18051
CS@@	18045
ki@@	18042
MI@@	18040
contribution	18008
eff@@	17993
Powder	17989
oxy@@	17980
mobile	17965
appearance	17958
Even	17957
drops	17955
rabbits	17940
Institute	17919
cro@@	17919
Ε@@	17918
Feb	17914
nervous	17910
phone	17901
10-@@	17898
Non-@@	17897
tolerated	17894
ony@@	17893
specifically	17892
discuss	17887
machinery	17884
ner	17882
restaurants	17880
ril	17876
comparison	17873
thanks	17872
prescription	17867
Swiss	17863
dri@@	17863
1.3	17858
jection	17849
pens	17835
rich	17833
Application	17833
iting	17831
reduces	17830
conversion	17829
Christ	17829
ication	17828
origin	17827
ili@@	17811
ses	17810
covered	17803
concept	17792
hen@@	17783
ah@@	17778
eliminated	17777
suffering	17773
tar@@	17770
efficiency	17769
kal@@	17768
ta	17768
mass	17768
wood	17766
140	17753
Vel@@	17745
electronic	17744
Dos@@	17740
GMT	17738
Car	17736
tures	17726
99@@	17724
trop@@	17721
ein	17710
straight	17709
ms	17708
CT@@	17694
job	17688
aar	17661
LED	17650
pH	17647
ion	17646
Mo@@	17646
worked	17642
Book	17633
remember	17630
suppression	17629
salt	17618
Poland	17617
ris	17612
lost	17601
cellulose	17592
On@@	17591
ile@@	17571
sia	17568
efforts	17567
Ag@@	17552
sides	17542
perfor@@	17535
star	17528
tos@@	17528
ber@@	17517
Online	17515
dec@@	17515
crystalline	17509
py@@	17500
wipe	17497
log@@	17497
ble@@	17495
chance	17493
open-@@	17493
index	17459
dedicated	17457
GR@@	17456
programmes	17435
format	17429
Cam@@	17424
introduced	17424
ς	17422
depends	17414
e-mail	17409
life-@@	17406
devices	17404
alo@@	17402
unchanged	17393
player	17392
nucle@@	17387
Nov	17380
operate	17357
chi@@	17353
posts	17344
Tar@@	17343
sign	17339
shipping	17335
About	17325
IM	17319
Pharmaceuticals	17317
mer@@	17311
Set	17306
OL@@	17305
ges@@	17303
high-@@	17302
seems	17301
ros@@	17295
Ce@@	17295
ren	17283
behaviour	17281
nose	17281
ko@@	17280
complications	17273
le-@@	17266
fish	17265
abs	17263
build	17254
thyroid	17249
monthly	17246
strain	17242
square	17229
mental	17225
prov@@	17221
part@@	17210
57@@	17201
3.5	17196
interesting	17194
conv@@	17191
Ret@@	17183
contained	17180
principle	17179
ute	17177
astro@@	17177
item	17170
meters	17163
15.@@	17161
modified	17160
Grade	17157
ML	17150
acts	17144
RIS@@	17142
ace@@	17141
tip	17140
orders	17132
Cell@@	17130
MP@@	17129
icular	17111
nel@@	17109
ano@@	17105
visible	17098
hr	17096
sensitivity	17087
bru@@	17083
looked	17078
ez@@	17070
Back	17053
ENT	17033
if@@	17028
kinson	17026
MA	17008
SA	17007
OJ	16987
Director	16975
Ho@@	16975
According	16973
ρ@@	16970
Dec	16962
dem	16961
eph@@	16954
inger	16951
Ca@@	16938
speak	16938
Sloven@@	16930
Smi@@	16929
steady	16928
lo	16925
Dan@@	16923
a.@@	16920
intake	16904
released	16886
d.	16883
display	16870
seiten	16869
12-@@	16868
anything	16867
Are	16858
tron@@	16850
persistent	16849
anine	16842
delay	16836
lum@@	16832
useful	16832
л@@	16822
acknowledged	16822
father	16819
ca	16819
installation	16818
thal@@	16817
76@@	16810
creation	16805
j	16800
odynamic	16799
whilst	16798
began	16795
Aran@@	16794
drop	16792
ANNEX	16785
languages	16782
save	16775
suffer	16773
Denmark	16766
yr@@	16754
shaped	16752
elev@@	16719
winter	16713
tra@@	16713
're	16706
tap@@	16703
Ras@@	16695
screen	16693
sensitive	16691
coffee	16686
58@@	16682
fair	16674
ding	16673
payment	16672
11.@@	16663
entis	16663
amended	16662
memory	16641
ÇáÓÇÚÉ	16639
ÇáÂä	16638
swimming	16627
single-@@	16625
beat	16622
apparent	16604
measuring	16604
nat@@	16601
eight	16594
45@@	16588
warm	16586
Euro	16582
offering	16580
ro-@@	16569
secure	16568
GE	16554
disposal	16552
properly	16537
Sus@@	16533
sports	16532
Mal@@	16529
210	16520
long@@	16512
innovative	16508
consumption	16501
MB@@	16493
Chinese	16489
cards	16487
psycho@@	16479
esis	16476
manner	16464
selective	16463
employment	16457
ast	16455
Po@@	16450
diagnosis	16449
preparations	16445
olog@@	16441
AZ	16435
begin	16434
TIV@@	16428
Kline	16427
regulation	16424
Where	16421
feature	16403
race	16400
rea	16392
0000	16386
IG@@	16384
detected	16363
contract	16357
agree	16357
insurance	16353
ills	16350
Pan@@	16347
1st	16336
com	16334
CI@@	16326
X-@@	16322
piece	16314
steel	16313
inhibit	16307
playing	16300
34@@	16299
empty	16298
happy	16287
eth	16283
Col@@	16275
á	16274
18.@@	16272
Tab@@	16269
sel@@	16269
summary	16266
responses	16258
comprehensive	16253
transplantation	16249
ution	16239
est	16237
disturbances	16234
shopping	16232
worsening	16229
gre@@	16227
transmission	16216
solid	16215
repub@@	16212
9-@@	16210
mut@@	16210
Women	16187
paid	16178
representative	16175
sensation	16174
vehicle	16172
obtain	16171
TE@@	16166
mati@@	16165
temporary	16164
record	16159
returned	16156
s.@@	16154
Red	16150
guest	16144
answer	16143
attached	16141
fine	16136
ora	16133
Just	16124
biological	16124
Quality	16116
dictionary	16111
macro@@	16104
03@@	16100
Clo@@	16084
arter@@	16073
fun	16052
consciousness	16050
AX	16041
error	16034
spread	16032
PS@@	16016
muscles	16015
0.8	16014
tissues	16011
eces	16008
break	16005
thr@@	16003
ity@@	16002
CE@@	16001
weather	15998
Dy@@	15992
air@@	15987
ches	15986
worldwide	15976
132	15976
ye	15970
fire	15965
band@@	15965
chrome	15956
88@@	15955
tongue	15952
'll	15948
Mic@@	15943
mouse	15943
BER@@	15942
gu@@	15938
.net	15938
occurrence	15935
59@@	15932
370	15932
regulatory	15930
confusion	15929
Nex@@	15923
sen	15904
cers	15894
ural	15894
billion	15875
leads	15871
oly@@	15859
efficient	15858
enc@@	15837
discomfort	15835
ise	15831
Mag@@	15828
ment-@@	15822
walking	15804
Doc@@	15800
adjustments	15799
Cl@@	15797
can@@	15796
arti@@	15796
metabolic	15794
rent	15782
Solution	15747
mutual	15744
icidal	15744
everyone	15739
induce	15738
href	15738
middle	15730
healthcare	15729
packaging	15725
cities	15719
Ap@@	15712
Dr	15703
ators	15703
ach	15702
referred	15689
experiences	15689
concern	15680
bag	15678
adjust	15674
istic	15672
Description	15667
color	15653
houses	15649
under@@	15647
heim	15647
1.1	15643
ry	15634
Sal@@	15629
Additional	15623
People	15615
tives	15607
Men@@	15602
Es	15593
won	15588
interests	15587
atmosphere	15579
reproductive	15574
ator@@	15565
causing	15563
AX@@	15561
icy@@	15557
asth@@	15553
ache	15553
ANCE	15550
reversible	15538
proposals	15537
articles	15525
Conference	15514
RNA	15511
onal	15509
sep@@	15506
watch	15491
myself	15490
discussed	15490
ongoing	15479
Das	15479
allergy	15476
Dec@@	15470
freedom	15463
quiet	15463
saying	15445
connected	15441
INV@@	15427
gl@@	15427
Google	15424
sustainable	15417
Veterinary	15409
19.@@	15406
elec@@	15401
tasks	15401
reliable	15396
Russian	15383
category	15373
thank	15369
we@@	15367
drow@@	15362
retention	15353
typical	15350
larger	15346
confidence	15335
presentation	15332
Sonntag	15328
examination	15326
rod	15316
delayed	15316
3,@@	15314
syn@@	15310
Madrid	15297
RA@@	15291
16.@@	15290
requiring	15284
ore@@	15280
boat	15267
shop	15265
gest@@	15261
professionals	15254
buildings	15254
λ	15252
BO@@	15248
atr@@	15246
vote	15240
generation	15229
ash	15214
excess	15213
77@@	15211
accompanied	15206
track	15205
duc@@	15199
Flu@@	15197
AST	15194
ders	15188
420	15187
assay	15186
brand	15185
ara	15183
contribute	15180
accumulation	15178
meals	15169
Q	15161
prepare	15159
col	15149
train	15143
kinds	15141
statement	15138
child@@	15134
malignant	15131
bing	15128
yel@@	15127
mix	15119
auch	15117
else	15116
consequences	15114
consultation	15112
orange	15111
dark	15108
Cart@@	15094
saw	15093
partial	15092
-R@@	15089
accepted	15076
sleep@@	15071
prop@@	15062
served	15061
buy	15056
130	15056
cam@@	15053
Effects	15053
Farm@@	15048
reviews	15045
Na@@	15044
yp@@	15039
mann	15037
esti	15036
radiation	15027
aph@@	15017
371	15015
eat	15012
sudden	15011
technologies	15006
consult	15006
failed	15006
Area	15002
injury	14998
traffic	14998
magnesium	14994
ideas	14990
low-@@	14975
background	14974
Ty@@	14972
box@@	14970
ocular	14967
SS@@	14965
compar@@	14963
E.	14960
blocking	14958
relations	14957
implemented	14947
goal	14943
PV	14942
tube	14941
Ter@@	14938
Peter	14933
sky	14925
ent-@@	14924
Street	14917
Ly@@	14913
ple@@	14910
pac@@	14907
44@@	14904
planned	14896
Is@@	14886
gal@@	14884
fos@@	14879
Hungary	14872
Rome	14846
sz@@	14846
opportunities	14844
gradually	14841
17.@@	14839
running	14837
240	14832
bor@@	14832
QU@@	14826
linked	14822
reservation	14816
alt	14810
bad	14801
20.@@	14799
14.@@	14794
objectives	14793
pes	14792
Ur@@	14789
ai	14784
periods	14782
Me	14778
intolerance	14772
treat@@	14770
EG@@	14765
worse	14762
muc@@	14760
chosen	14756
tos	14754
uk@@	14753
UN	14753
FIL@@	14746
instructed	14745
photo	14733
Man@@	14726
extended	14726
fied	14695
Pas@@	14692
Social	14690
pension	14689
informed	14688
integration	14688
Ig@@	14671
char@@	14670
decisions	14669
Mittwoch	14665
otype	14659
despite	14658
nic@@	14656
55@@	14650
Federal	14648
ION	14647
Italia	14645
activation	14643
AUT@@	14636
mic@@	14631
od	14628
HOR@@	14622
ilia	14618
calculated	14610
Results	14608
stone	14606
inations	14597
Hg	14597
managed	14592
layer	14582
short@@	14579
1.4	14574
underlying	14570
static	14569
writing	14569
someone	14568
explained	14553
Open	14552
military	14550
Great	14548
voice	14534
letter	14526
documentation	14520
block	14515
trip	14494
Turkey	14492
fluor@@	14491
story	14491
difficulties	14486
David	14472
Association	14461
comp@@	14451
Gal@@	14450
Gr@@	14443
bank	14442
abol@@	14440
orphan	14436
operations	14436
practical	14432
IP	14428
eptive	14420
isol@@	14412
olate	14412
0.25	14405
Mer@@	14396
thy@@	14390
PO@@	14386
applies	14385
ler	14382
actose	14377
tra	14377
sex	14373
multi-@@	14371
ICH	14353
fresh	14342
Sea	14341
Lo@@	14339
EEC	14338
reporting	14336
i.e.	14321
description	14315
automatically	14310
alisation	14309
bacter@@	14301
proph@@	14297
LY@@	14288
Ph@@	14287
bedrooms	14284
Bft	14284
PA	14283
players	14281
cur@@	14281
CA@@	14271
situations	14271
revealed	14267
Air	14259
foil	14257
Deutsch	14246
KO@@	14246
ige	14244
Rom@@	14240
tery	14240
Zer@@	14237
ori	14231
altered	14229
technique	14226
gender	14225
ently	14224
producing	14223
shock	14214
promote	14198
Ma@@	14194
pancre@@	14188
output	14188
suspected	14187
pers	14183
mostly	14170
proper	14166
N-@@	14163
foot	14162
rat	14162
reading	14158
manufacturer	14156
south	14154
relevance	14151
becoming	14143
reverse	14143
ship	14139
gel	14137
an-@@	14119
sind	14115
tion@@	14112
isolated	14111
ani	14105
body@@	14103
MED@@	14103
Christian	14103
Economic	14094
assess	14087
door	14086
sts	14085
Cir@@	14081
ky	14078
IST@@	14073
finally	14069
Photo	14067
ds	14065
optimal	14064
Video	14063
pe	14060
Τ@@	14059
programs	14044
cer	14036
BM@@	14035
pot@@	14033
cycles	14032
installed	14027
я	14022
ff@@	14011
Fab@@	14010
seal	14008
bottom	14006
bedroom	14003
Ben@@	14002
weak	13999
ules	13998
Japan	13997
trem@@	13997
Content	13994
families	13991
initiative	13989
manufacturing	13988
derly	13977
3.0	13965
tle	13959
medium	13949
700	13944
heart@@	13944
estion	13944
-0.@@	13935
smaller	13924
PL@@	13917
Star	13911
Adv@@	13906
Ni@@	13901
amed	13900
fee	13899
gently	13898
HR@@	13894
accept	13894
Treaty	13892
perform	13891
introduction	13887
starts	13886
participants	13885
Hypo@@	13884
unable	13884
Med@@	13880
acon@@	13880
exacerb@@	13872
doesn	13857
joints	13856
Lake	13856
representatives	13849
gh@@	13847
percentage	13844
ther@@	13835
Affairs	13833
motor	13829
o.	13828
He@@	13828
eti@@	13826
menu	13822
s.com	13819
Search	13810
functioning	13808
ø	13801
stam@@	13789
continuing	13783
logical	13776
agen	13771
samples	13769
M.	13766
80@@	13760
112	13760
expressed	13754
rule	13754
Driving	13752
establish	13749
Thanks	13744
density	13742
12th	13741
Brussels	13739
s.htm	13738
wonderful	13736
thinking	13735
hos@@	13733
stock	13730
aci@@	13730
reductions	13730
Le	13722
tablet@@	13714
remained	13710
KG	13695
Lu@@	13691
►	13688
auto@@	13687
J	13684
66@@	13682
updates	13675
fel@@	13675
raf	13670
berg	13669
G-@@	13669
affecting	13666
wanted	13666
lake	13664
cross	13657
asi@@	13654
tons	13650
itu@@	13632
thou	13632
challenges	13626
land@@	13612
cleaning	13607
changing	13606
booking	13598
comfort	13594
vil@@	13593
drawn	13591
understanding	13581
Class	13580
coloured	13574
Bot@@	13573
hire	13571
lessness	13568
string	13568
Shar@@	13567
chem@@	13566
dop@@	13563
enable	13562
telephone	13560
priority	13559
Villa	13556
sto@@	13543
Tem@@	13541
sta@@	13533
78@@	13533
plans	13530
passed	13530
les@@	13524
var@@	13522
legs	13518
Media	13506
continues	13503
heard	13499
bol@@	13494
neither	13490
Place	13488
ino	13482
respective	13480
tec	13473
turned	13473
gelbe	13471
challenge	13458
PH@@	13453
registered	13447
push	13447
184	13443
FS@@	13442
dissolved	13441
enlargement	13439
185	13437
Forum	13434
CEL@@	13434
advise	13432
movements	13431
ker@@	13430
Cardi@@	13429
comments	13428
Fac@@	13427
Overall	13427
vary	13416
gh	13407
advance	13406
SE	13397
hab@@	13396
cars	13389
purchase	13383
therapies	13369
¼	13368
satellite	13366
sight	13366
Weight	13363
horses	13358
relatively	13346
stopping	13345
ado@@	13343
pieces	13342
TO@@	13340
artists	13339
hip	13336
desired	13334
usi@@	13331
ear	13331
ass@@	13331
Add	13319
vehicles	13311
dates	13306
idal	13305
juice	13299
categories	13298
Munich	13293
use@@	13287
Global	13286
formed	13276
LD@@	13271
applicant	13267
0.7	13266
behalf	13265
lies	13260
eine	13259
nationally	13254
900	13252
pharmaceutical	13247
author	13246
antibiotic	13246
administ@@	13245
tting	13244
elle	13239
adapter	13224
Moreover	13219
neph@@	13217
sleeping	13215
ely@@	13214
Holy	13208
regulations	13205
commitment	13186
oda	13185
band	13182
pir@@	13177
instruments	13176
limits	13173
Ge@@	13173
Accommodations	13173
Such	13170
A2	13157
ation@@	13155
task	13152
cin@@	13149
sets	13146
pra@@	13141
Code	13133
clients	13131
nasal	13131
coron@@	13130
nt.html	13130
Mus@@	13128
Der	13127
transparent	13123
Avastin	13123
uv@@	13120
Por@@	13116
idi@@	13114
hydration	13114
certainly	13113
controls	13109
ini	13104
NAME	13091
360	13086
Finally	13085
permanent	13084
isch@@	13084
ill	13082
acids	13078
View	13077
25.@@	13070
dian	13065
images.php	13062
stead@@	13054
ful	13052
201@@	13045
Software	13045
lic	13035
V-@@	13032
Black	13031
Within	13030
â@@	13029
aden@@	13026
Symp@@	13025
Neuro@@	13025
sis	13023
60@@	13021
uss@@	13018
earlier	13014
huge	13011
patent	13006
Increased	13001
k-@@	13001
fundamental	13000
channel	12995
populations	12990
DVD	12981
cb	12980
es-@@	12979
damaged	12978
bo	12977
Website	12977
conjug@@	12977
fri	12969
ette	12966
kit	12966
M-@@	12965
372	12960
24.@@	12951
one-@@	12951
chew@@	12951
un	12949
character	12947
ö@@	12946
irrit@@	12946
cleansing	12933
Pri@@	12932
print	12932
emergency	12929
hydrogen	12928
participation	12926
mode	12922
Every	12916
INT@@	12912
mer	12912
ologic	12912
rapporteur	12911
ie	12910
finished	12909
ium	12908
supportive	12897
river	12895
adding	12894
lar@@	12892
Lac@@	12889
books	12887
127	12887
α@@	12884
har@@	12879
metal	12878
750	12863
ALL	12862
pivotal	12861
pran@@	12854
wait	12851
Don	12842
ba@@	12836
titanium	12833
nor@@	12829
warnings	12829
hear	12828
acceptable	12827
played	12826
demonstrate	12823
founded	12810
sich	12809
Vacc@@	12808
scope	12807
Comments	12805
provider	12800
bodies	12799
Tags	12792
amaz@@	12791
ranging	12790
actual	12789
surgical	12789
applicable	12786
principles	12781
off-@@	12768
ty	12754
exist	12754
ality	12750
rine	12749
warning	12748
zol@@	12748
India	12747
broken	12732
unusual	12727
ventr@@	12723
object	12719
cher	12715
PD@@	12714
cable	12711
acquired	12710
ended	12706
MS@@	12706
Station	12705
Malta	12695
bath	12689
esia	12689
dex	12685
medic@@	12676
Adults	12674
thoughts	12671
predominantly	12668
Studio	12666
distributed	12662
labour	12654
dialogue	12653
Ki@@	12650
cattle	12649
Rib@@	12649
funds	12646
img	12640
Make	12634
techniques	12634
ace	12631
Sand@@	12628
2.4	12621
St	12616
inner	12616
supports	12615
Food	12612
Johnson	12607
Private	12604
constant	12600
expo@@	12600
spirit	12592
Paul	12586
reality	12583
Canada	12580
CER@@	12570
authority	12555
sustained	12551
recorded	12547
serve	12545
clar@@	12544
5,@@	12543
PRO	12541
Rec@@	12536
IST	12533
responded	12533
copy	12533
younger	12529
ich@@	12529
bar@@	12528
43@@	12526
tol@@	12525
WP	12523
4,@@	12521
ó@@	12521
weighing	12516
DS	12516
,00	12515
gallery	12508
20-@@	12503
detail	12502
harmful	12494
We@@	12490
spo@@	12488
GEN@@	12488
organisation	12483
Tit@@	12481
surrounding	12478
HER@@	12478
happen	12477
write	12476
DR@@	12473
covers	12473
enz@@	12469
bargain	12467
literature	12465
Manager	12464
infrastructure	12464
translation	12459
tiva	12447
ks	12446
TE	12445
sures	12444
creating	12443
junc@@	12438
gon@@	12436
hazard	12429
ά@@	12429
died	12429
shops	12413
shape	12406
aus	12401
96@@	12396
deliver	12393
Head@@	12391
Public	12389
ano	12381
platform	12374
Members	12369
ny	12368
ba	12365
jobs	12357
ah	12354
electric	12352
worth	12349
provision	12346
Western	12346
SC	12345
innovation	12344
relief	12343
favour	12340
chain	12339
elled	12334
resolved	12330
finding	12323
ë	12321
appeal	12319
consecutive	12318
examined	12316
claims	12315
STR@@	12312
openx	12312
progressive	12310
banner.gitverlag.com	12306
a5a750bd	12306
cir@@	12303
mor@@	12288
viruses	12288
sed@@	12275
1-0@@	12260
olab@@	12258
Year	12250
calls	12248
mountains	12243
coli	12242
claim	12240
represents	12238
monkeys	12238
53@@	12234
fr@@	12233
ephal@@	12232
to-@@	12229
topical	12228
tuberculosis	12228
mar	12226
anth@@	12225
blog	12222
age@@	12222
Can	12221
Good	12216
Hi@@	12204
north	12193
practices	12193
apart	12192
128	12191
powerful	12187
Б@@	12186
investigation	12178
De	12176
Lo-Fi	12176
War@@	12176
conclusion	12170
2nd	12164
forces	12162
embry@@	12155
Mil@@	12149
enables	12148
eg	12148
Epo@@	12147
vs	12147
unused	12143
positions	12139
fication	12137
mac@@	12137
Eli	12135
standing	12133
-like	12133
AA@@	12133
experimental	12130
Design	12128
3.3	12123
conditioning	12115
enti@@	12112
credit	12111
NOT	12111
4.1	12109
mic	12107
г@@	12102
xa	12099
removal	12098
functional	12093
che	12093
SO@@	12093
Work	12087
exam@@	12087
Rue	12083
Suite	12083
attacks	12083
surveillance	12082
substrate	12073
effectively	12061
FR	12057
directive	12056
medications	12053
provisions	12052
organs	12049
ogen	12047
ll	12047
tec@@	12044
sources	12044
border	12044
automatic	12043
ded	12041
δ@@	12037
two-@@	12036
Energy	12033
Eli@@	12032
FO@@	12025
edge	12024
num@@	12019
350	12019
our@@	12017
mus@@	12016
burning	12016
locations	12015
host	12012
13.@@	12008
accidental	12007
Norway	12004
invasive	12001
irus	12000
Ru@@	11997
Michael	11995
Module	11995
museum	11981
healing	11980
54@@	11971
AD	11970
ura	11969
MwSt	11968
Ram@@	11967
administer	11963
department	11961
bot@@	11961
H.	11959
Bri@@	11959
Hol@@	11958
new@@	11951
32@@	11948
reproduction	11940
structures	11939
ss	11935
heating	11932
inc@@	11925
verte@@	11924
tourist	11922
sten@@	11919
ox	11918
ai@@	11915
blurred	11910
gold	11908
ote@@	11907
expert	11907
Gu@@	11906
artist	11906
court	11904
ish	11902
missing	11895
dining	11894
EPC	11893
ting@@	11889
ck@@	11887
negotiations	11885
nearly	11880
glu@@	11876
regards	11875
Zi@@	11865
stages	11865
paren@@	11863
Instructions	11851
quarter	11848
vet	11847
recovered	11841
effort	11835
thy	11835
expression	11833
28.@@	11833
happens	11832
accommodations	11832
printing	11829
insu@@	11827
diagnosed	11820
figure	11819
sectors	11818
smoking	11816
gy	11815
ancient	11812
Wi-Fi	11811
drinking	11808
02@@	11807
mil@@	11805
engine	11798
Restaurant	11798
learning	11793
balcony	11792
faith	11788
recommendation	11787
repeat	11786
Α@@	11785
Life	11773
ency	11768
ink	11768
beauty	11766
missed	11765
Three	11763
Ris@@	11762
browser	11762
SEN@@	11761
gol	11761
improving	11754
engineering	11752
filter	11746
appeared	11743
slight	11742
97@@	11738
sample	11733
tibility	11732
arrival	11727
agreements	11726
EI@@	11726
grounds	11717
trough	11713
matters	11705
ke@@	11704
Mehr	11699
98@@	11696
establishment	11684
showing	11683
blocks	11682
supporting	11676
Mor@@	11674
measurement	11670
Peri@@	11653
qualified	11652
Find	11651
Applicant	11650
los	11649
dem@@	11649
Body	11646
Bor@@	11646
bubbles	11642
historic	11640
War	11636
RES@@	11635
Technology	11635
opinions	11629
manual	11629
ide@@	11628
preferably	11626
Re	11625
IL	11622
bought	11622
British	11620
ats	11617
Seite	11616
ram@@	11614
I.	11610
creati@@	11607
TEX@@	11600
Executive	11600
Mai	11592
buffet	11588
Yes	11585
ay	11585
equ@@	11584
instance	11579
VEL@@	11575
polypropylene	11575
resort	11573
genetic	11572
trees	11568
signal	11567
Sa@@	11561
'm	11556
enic	11556
.0@@	11552
strains	11550
104	11547
plate	11547
CHF	11546
Asia	11539
bur@@	11538
sule	11534
ascular	11524
hearing	11523
Cro@@	11523
Österreich	11522
tal@@	11522
dieses	11516
Orph@@	11505
Wien	11499
discover	11496
hil	11493
Photos	11490
pas@@	11489
Ind@@	11484
conjunction	11480
mp@@	11478
furniture	11476
abdomen	11476
ici@@	11476
district	11475
ire	11473
π@@	11472
skills	11469
Length	11468
HOL@@	11463
ping	11463
II@@	11463
critical	11457
Holiday	11451
represent	11451
ja@@	11448
booster	11440
owners	11439
2.1	11436
Mrs	11436
thin	11423
susceptible	11422
holding	11419
miss	11419
science	11418
ingredient	11416
easier	11416
anal@@	11416
dum@@	11415
meaning	11415
submit	11414
dn@@	11412
111	11409
glut@@	11408
deposit	11408
ols	11407
implement	11406
Units	11405
directed	11404
Mediterranean	11402
architecture	11402
heavy	11398
Aluminium	11398
destination	11395
conclusions	11394
replaced	11393
Over	11389
ay@@	11387
iro	11386
characterised	11380
CA	11379
Club	11373
deb@@	11372
committed	11371
classes	11371
Κ@@	11369
desk	11362
disk	11359
tells	11358
ese	11354
atine	11352
Vis@@	11351
holder	11351
desirable	11348
scheduled	11347
physicians	11346
Seven	11346
hyp@@	11339
amendments	11338
421	11336
weg	11335
fishing	11335
indeed	11333
approval	11330
ü@@	11329
reform	11329
funding	11323
Be	11322
yn	11321
stress	11321
organisations	11318
100@@	11318
bladder	11317
completion	11313
loading	11312
2.2	11312
ils	11309
unc@@	11307
starch	11301
Evaluation	11300
lungs	11299
Music	11296
consumer	11291
walls	11290
for@@	11287
performing	11283
Single	11277
stra@@	11276
analyses	11268
etus	11265
26.@@	11265
89@@	11264
Nerv@@	11263
BY@@	11256
emer@@	11248
hormonal	11245
ist@@	11244
consequence	11240
Linux	11235
ening	11233
director	11232
breast@@	11232
angle	11230
vac@@	11229
ham@@	11228
Policy	11228
е@@	11227
civil	11224
mia	11222
Government	11221
Mel@@	11217
thereby	11212
successfully	11206
eb@@	11197
well-@@	11196
358	11194
mothers	11189
ská	11185
withdrawn	11185
sing	11185
methyl@@	11178
Under	11171
oo@@	11171
ts@@	11170
Care	11168
Among	11167
ections	11160
truth	11149
102	11149
hall@@	11147
Bar	11145
395	11143
glo@@	11142
cloudy	11142
alogues	11138
Another	11130
sion-@@	11127
rest@@	11121
hall	11116
386	11114
flexible	11114
entered	11113
developments	11113
entrance	11107
Euro@@	11101
wrong	11100
modification	11096
ри@@	11095
EX	11091
Pel@@	11089
No.	11087
Cre@@	11086
whereas	11085
width	11080
lithi@@	11074
Security	11074
attempt	11074
Comb@@	11073
preventing	11068
suscep@@	11067
Days	11067
identify	11066
ut	11061
firm	11057
educational	11055
wear	11054
Spirit	11052
P.	11042
IPS	11042
coast	11036
competitive	11035
Str@@	11033
evaluate	11030
Mac@@	11029
opathic	11026
farm	11026
equi@@	11025
WC	11016
clari@@	11012
interface	11012
expertise	11010
driver	11008
Ger@@	11008
lips	11008
Review	11005
nine	11004
pra	11001
uli@@	10995
objects	10992
alpha	10980
fewer	10975
wants	10973
compliance	10970
22.@@	10970
ster	10962
reveal	10961
phy	10957
prof@@	10955
Bedroom	10951
Test	10947
rose	10947
registration	10946
tia	10945
Standard	10944
131	10944
hundred	10943
Up	10940
spacious	10939
nearby	10935
Events	10935
Wil@@	10935
mutations	10931
5.0	10928
circulation	10927
spine	10923
erv@@	10923
yol@@	10922
ron	10919
pattern	10912
30.@@	10912
Ko@@	10909
inate	10907
FA@@	10906
ade@@	10905
Apartments	10897
initiatives	10897
IONS	10895
List	10894
Nederland	10891
spend	10888
Science	10887
101	10883
win	10882
Rooms	10880
SS	10877
session	10877
tory	10876
bris	10871
females	10866
shared	10864
stimulating	10859
appointed	10859
strongly	10858
mixture	10855
Pal@@	10851
Programme	10850
proven	10849
transparency	10846
SP	10844
grow	10839
2.6	10826
master	10823
sealed	10821
proof	10820
Convention	10817
9.5	10815
install	10812
Polska	10810
27.@@	10808
converted	10799
ken	10796
ei@@	10790
Cel@@	10786
mission	10784
ky@@	10776
iner@@	10775
Game	10774
ъ@@	10768
relax	10768
sen@@	10767
ost@@	10766
co	10763
Ti@@	10758
ann@@	10756
draft	10755
protocol	10754
lowest	10750
SD	10745
committee	10744
Best	10744
ga	10743
client	10737
mu@@	10731
renewal	10730
stars	10729
Bus@@	10720
spare	10713
gland	10711
displayed	10709
pt@@	10709
oint@@	10702
bral	10701
ere@@	10701
command	10701
substantial	10700
0.0	10699
votes	10696
joined	10689
banks	10687
ύ@@	10687
tradition	10685
painful	10685
speaking	10677
rue	10676
WITH	10676
topics	10671
CL@@	10668
ences	10667
280	10666
produces	10666
disturbance	10665
lon	10662
figures	10661
demands	10660
agitation	10658
forest	10658
manage	10657
DO@@	10657
sitting	10657
21.@@	10655
experiencing	10649
Jan@@	10644
ns	10643
enrolled	10638
Flex@@	10637
Technical	10635
compatible	10634
ect	10627
faster	10627
live@@	10626
aise	10624
eci@@	10621
bridge	10621
alia	10616
escent	10614
Mi@@	10608
106	10605
ki	10602
eline	10597
did@@	10593
pleased	10586
strategic	10586
PT@@	10583
register	10575
oidal	10574
trying	10570
apo	10566
centralised	10560
8000	10557
element	10553
significance	10547
Decision	10540
compound	10537
sun@@	10537
stands	10535
120@@	10532
announced	10532
oxygen	10531
offices	10529
ger@@	10524
inadequate	10518
speech	10517
broad	10517
Photo@@	10516
Size	10516
Ran@@	10515
bow@@	10514
els	10512
outdoor	10507
initiating	10504
Oktober	10501
consumers	10501
excl	10498
closure	10498
accidentally	10495
democracy	10491
supplements	10489
Experience	10486
income	10485
gin	10482
21@@	10482
waiting	10481
12.11.2016	10476
11-@@	10469
dynamic	10463
sur@@	10463
ET	10461
cross-@@	10458
23.@@	10454
Saint	10454
switch	10453
rope	10452
seem	10452
bis	10450
ue	10449
vit@@	10449
vis@@	10448
camera	10447
ION@@	10444
4.0	10439
leader	10437
dur@@	10434
diameter	10419
Order	10414
owner	10414
Sk@@	10411
68@@	10410
euro	10409
sach@@	10408
motion	10407
Novo	10402
landscape	10399
nerve	10398
minim@@	10398
depend	10395
agricultural	10393
mechanisms	10390
69@@	10389
enhanced	10389
defects	10388
replace	10385
thousand	10380
default	10379
Side	10377
Grand	10377
MG	10375
Fu@@	10374
Avenue	10374
ani@@	10370
burn	10368
tone	10365
Start	10358
Distribution	10358
ina@@	10354
BR@@	10352
expect	10352
corporate	10350
ess@@	10347
Fi@@	10346
Bal@@	10345
AIDS	10340
so-called	10340
GL@@	10339
lasting	10338
males	10336
exclusive	10334
participate	10333
intensity	10332
rock	10331
substrates	10324
Rs	10322
advantages	10321
named	10316
passing	10312
possibilities	10312
à	10312
cope	10308
parents	10307
ourselves	10306
Who	10305
flight	10302
comparing	10302
gab@@	10299
Festival	10297
INAL	10295
ont	10290
birds	10289
tis@@	10287
Santa	10282
fun@@	10282
Martin	10281
wurde	10279
disposed	10277
alter	10276
diagnostic	10274
6,@@	10267
Bl@@	10266
bos@@	10265
Over@@	10260
Micro@@	10259
ungen	10259
cos@@	10257
fasting	10256
repair	10254
perhaps	10252
Mir@@	10250
e.@@	10248
KB	10243
exact	10238
lipo@@	10236
3D	10236
§	10234
EA	10230
mes@@	10229
Chapter	10223
specialist	10216
Bene@@	10205
Syn@@	10196
onium	10195
organisms	10194
extr@@	10191
MARK@@	10187
ti	10186
Thank	10185
Croatia	10185
mood	10182
el-@@	10178
chamber	10176
Response	10171
Meeting	10170
moving	10169
administrative	10169
radio	10160
Additionally	10157
thee	10156
2.3	10154
anc@@	10153
K-@@	10152
pap@@	10152
emul@@	10151
shire	10148
labelling	10146
stick	10146
rejection	10145
express	10143
bri@@	10143
signed	10139
Law	10136
3rd	10129
manufacturers	10129
sac@@	10127
entr@@	10123
sport	10123
individually	10121
religious	10119
School	10117
proceedings	10113
pleasant	10109
tags	10107
apse	10105
mad@@	10104
Links	10103
Star@@	10101
develops	10098
soluble	10089
Category	10087
ek	10087
ships	10086
VER@@	10086
iris	10085
src	10085
Market	10085
epi@@	10076
ce@@	10076
sorption	10076
fear	10072
6.1	10070
LES	10068
conduct	10068
ley	10062
Romania	10062
tables	10060
Australia	10058
Rit@@	10055
Financial	10052
1994	10050
Hex@@	10046
zone	10046
115	10045
Cas@@	10045
doctors	10040
Islands	10039
irregular	10035
frame	10032
thereafter	10032
NO@@	10031
io@@	10031
Prof.	10030
Medical	10029
Os	10028
TOR@@	10026
democratic	10025
Change	10025
01@@	10024
opaque	10019
swa@@	10014
Ku@@	10013
ou	10012
|	10012
Show	10004
didn	10001
Middle	9991
427	9989
existence	9985
aries	9980
bid	9978
ousness	9977
enza	9975
351	9975
Top	9971
eyel@@	9970
classic	9966
explain	9966
ert	9960
hem@@	9959
105	9957
anyone	9955
ru@@	9954
Tro@@	9952
1.6	9947
improvements	9945
checked	9944
Roche	9943
journey	9943
España	9940
pink	9937
spent	9934
Ukraine	9934
vid	9932
Tac@@	9932
aqu@@	9931
Ministry	9928
EU@@	9926
omas	9926
Duration	9925
bones	9925
evo	9924
Healthcare	9924
len@@	9917
overview	9917
ain@@	9914
swallowed	9912
Several	9910
versions	9909
230	9908
ix@@	9904
Inc	9904
AF	9903
Father	9901
roid@@	9896
cil@@	9893
exists	9893
ê@@	9891
examples	9888
renewed	9887
attractive	9887
Sardinia	9886
formal	9881
hoc	9880
arm@@	9879
p.m.	9878
indicating	9877
BOX	9877
gan@@	9873
fit	9870
join	9869
coordination	9867
fourth	9865
castle	9865
outstanding	9864
Pain	9862
rho@@	9861
aut@@	9861
reflect	9859
desire	9856
discarded	9853
anium	9849
membrane	9847
Manufacturer	9847
ACK	9847
presents	9847
GA	9841
minimal	9841
sufficiently	9840
ym@@	9834
↔	9834
considering	9832
108	9831
wording	9828
url	9822
ton@@	9819
Post@@	9818
tent	9817
31st	9812
instrument	9809
Hor@@	9803
ko	9801
Serious	9800
0,@@	9797
fees	9796
represented	9795
Om@@	9794
maternal	9794
TER	9790
tree	9790
synthesis	9787
keeping	9786
territory	9785
kom@@	9783
Gen	9780
losing	9778
ERE	9778
65@@	9776
Child-@@	9772
357	9771
1200	9771
elegant	9770
respon@@	9768
organic	9767
encounter	9767
x-@@	9767
collaboration	9767
intervention	9766
goals	9765
Magn@@	9763
Egypt	9763
Welcome	9762
ehr@@	9761
med	9759
channels	9755
bike	9753
anticipated	9751
po	9748
www.skepticalscience.com	9745
Heart	9745
и@@	9744
201	9743
Syndrome	9742
partnership	9742
pel@@	9740
organization	9737
wort	9736
weigh	9736
elevation	9733
3Ftaxonomy	9733
Tyrol	9732
ational	9732
Gad@@	9732
225	9729
eling	9727
hom@@	9726
wife	9725
moved	9725
corner	9723
quick	9723
TP	9721
issued	9715
Presidency	9712
Stal@@	9709
fraction	9709
HA@@	9706
zo	9697
Preis	9695
Cop@@	9694
atio	9693
herbal	9693
Debian	9686
magazine	9683
laws	9682
eng@@	9678
ball	9670
BV@@	9670
bright	9668
concrete	9663
collected	9662
Film	9659
teur	9657
mination	9647
Moon	9646
L.	9638
ERS	9635
ESS	9634
errors	9632
detection	9630
spring	9627
inkl	9625
Patient	9624
Their	9624
Zen@@	9623
linear	9614
messages	9609
King	9608
congenital	9607
6.2	9605
Rights	9604
logic	9596
aimed	9594
oxid@@	9593
qui@@	9591
Plasma	9590
cium	9587
ak	9585
vital	9584
Ke@@	9584
sell	9583
ce	9581
Family	9573
Trade	9572
Person	9570
260	9569
subsequently	9564
lyn	9560
146	9559
Har@@	9557
guard	9557
regardless	9557
cuisine	9557
omi	9552
MET	9552
sold	9551
ollen	9550
cat@@	9550
Austrian	9550
harmonisation	9549
135	9548
Aller@@	9543
Fos@@	9543
aims	9540
Old	9537
've	9535
Budapest	9534
mig@@	9533
Active	9532
oval	9530
reserve	9528
Costa	9522
dementia	9522
false	9519
discharge	9518
Catalogue	9517
dangerous	9516
cou@@	9514
WiFi	9510
ger	9508
ow@@	9501
statements	9497
firmly	9496
Inno@@	9495
spinal	9493
-15	9492
itation	9490
discussions	9488
67@@	9488
leaders	9486
beaches	9480
assembly	9480
Eastern	9478
HD	9477
valley	9477
cas@@	9468
polar	9463
trend	9462
Department	9460
rhythm	9459
Labor@@	9456
218	9455
Pure@@	9454
greatest	9452
complicated	9451
combinations	9450
Mexico	9448
talking	9448
rad@@	9447
west	9446
CH	9445
Garden	9439
ecia	9437
Í@@	9433
corrected	9430
Dar@@	9429
pig@@	9428
extreme	9426
History	9423
alk@@	9423
ered	9421
Meer	9421
×	9419
routine	9416
belong	9413
BC	9411
205	9410
valence	9410
Ny@@	9406
om	9405
ensuring	9405
1.7	9403
Vor@@	9402
newly	9402
1992	9400
CAR@@	9400
gut	9399
199@@	9398
hier	9397
withdraw	9397
TIONS	9396
CC@@	9396
Greek	9396
hat	9395
Tru@@	9392
railway	9392
seeing	9390
tum@@	9390
Ros@@	9387
undertaken	9384
observation	9380
f-@@	9379
club	9377
hn	9377
ahead	9376
BAS@@	9375
375	9371
swallow	9371
spontaneous	9370
ick@@	9370
ek@@	9367
.php	9366
KS	9366
knows	9364
850	9360
reception	9360
sa	9359
te-@@	9353
dor@@	9350
publication	9349
allo@@	9348
con	9344
requirement	9343
plan@@	9341
1.8	9340
sons	9339
ENCE	9338
~	9338
R.	9334
DER	9333
Nut@@	9332
fab@@	9331
Adult	9329
settings	9327
sequ@@	9326
1993	9322
ashes	9322
El	9322
wal@@	9321
nuclear	9320
increasingly	9318
Bu@@	9317
Living	9316
packages	9311
bei	9311
fan	9309
л	9309
User	9308
holidays	9305
muscular	9304
nev@@	9304
organised	9302
rub@@	9301
essentially	9298
Gem@@	9295
particulate	9294
routes	9293
thoroughly	9292
r.	9292
gue	9287
dead	9287
Luc@@	9285
coating	9281
laid	9280
cyclo@@	9278
album	9277
vent	9277
variable	9275
ban	9275
absolutely	9274
File	9272
Control	9270
●	9268
none	9266
175	9264
Industrial	9260
Fr@@	9260
ancer	9258
O-@@	9247
till	9245
™	9244
flat@@	9243
operational	9231
NA@@	9230
Enjoy	9227
Live	9224
fre@@	9224
ford	9222
grey	9221
electricity	9219
oder	9218
CRE@@	9211
MI	9210
ety	9209
networks	9209
financing	9208
meas@@	9208
alis@@	9206
pit@@	9204
cent	9203
tried	9202
forgotten	9200
police	9199
1990	9191
osa	9191
pool@@	9187
elling	9186
Systems	9185
Hold	9183
Justice	9179
orph@@	9179
MT@@	9176
transformation	9170
businesses	9165
Update	9164
cup	9164
ital	9157
decline	9157
handle	9153
division	9153
formulations	9149
considerable	9149
tours	9147
aliz@@	9146
Rental	9139
toward	9138
Eye	9130
tab@@	9129
bars	9127
aff@@	9125
gone	9125
31.@@	9117
leg	9117
ore	9115
contemporary	9115
Foundation	9114
NA	9111
Gar@@	9103
Tor@@	9103
exceptional	9101
103	9100
Cases	9099
pale	9099
tourism	9097
tremulous.net	9097
naturally	9097
pati@@	9091
70@@	9089
vacation	9088
indicates	9085
windows	9085
elo@@	9078
izz@@	9074
correctly	9072
75@@	9069
mag@@	9065
Project	9065
neutr@@	9065
hand@@	9064
64@@	9064
det@@	9062
Recor@@	9062
Dutch	9061
strasse	9057
contacts	9054
riv@@	9053
A.@@	9053
at-@@	9052
RI	9047
raise	9043
elin	9041
Those	9041
perfectly	9039
Available	9037
agency	9036
ation-@@	9031
scheme	9027
conflict	9019
atten@@	9019
schools	9013
mi	9011
taxes	9010
felt	9005
Map	9005
ranged	9004
18-@@	9003
6.5	9001
wound	9000
ender	8999
it-@@	8997
ham	8997
enta	8993
Possible	8993
structural	8990
ria	8990
addressed	8989
Prevention	8988
Tour	8987
Ul@@	8987
ory	8986
142	8983
circulating	8983
biggest	8982
87@@	8974
stops	8972
favourable	8971
Thomas	8968
Light	8967
genic	8966
suggested	8965
wrote	8964
ure	8961
van@@	8960
pure	8958
Or	8956
Which	8956
Joint	8954
bial	8951
Wy@@	8951
fli@@	8950
gentlemen	8950
ization	8950
bile	8948
couple	8947
Latin	8945
wird	8944
clos@@	8943
agencies	8941
dishes	8936
29.@@	8935
whe@@	8935
ona	8935
Well	8932
Trans@@	8931
comprising	8930
de-@@	8930
cet@@	8928
xed	8927
shortly	8926
5.5	8926
Bad	8922
solar	8921
sunlight	8916
Prior	8916
stones	8916
transcri@@	8913
med@@	8912
para	8902
tz-otocac.hr	8901
iccaldate	8901
sigFreeId3fcf764576	8901
accordingly	8899
Chairman	8897
narrow	8895
Recon@@	8894
sl@@	8893
violence	8891
EIB	8887
fate	8885
126	8882
Wi@@	8880
abroad	8878
Des@@	8876
soul	8874
Roman	8868
east	8867
boats	8866
photo@@	8866
videos	8861
operative	8860
LA@@	8856
Zal@@	8856
Prague	8855
deze	8850
launch	8849
lie	8843
Mr.	8839
epid@@	8838
144	8838
DL@@	8837
enhance	8833
strengthen	8829
reli@@	8829
surrounded	8828
blank	8828
oz	8827
reviewed	8821
359	8820
array	8814
sum	8813
confirm	8813
Ef@@	8813
mixing	8809
Dublin	8809
CIA	8807
happened	8806
3.1	8805
aw@@	8805
personnel	8802
furnished	8801
dal	8797
definition	8795
114@@	8792
expenditure	8788
interior	8784
je	8783
lay	8783
J.	8783
inclusive	8783
emissions	8782
LEX	8781
initially	8779
stimulation	8778
safely	8775
Bin@@	8774
pull	8771
immunity	8770
suicide	8769
IX@@	8768
Ax@@	8768
confirmation	8767
Ari@@	8763
Beach	8762
covering	8762
colours	8760
izoph@@	8760
lived	8759
H-@@	8758
Christmas	8754
keys	8753
batch	8751
neur@@	8751
Background	8750
segment	8748
oper@@	8748
uz@@	8743
capable	8741
meat	8738
ensures	8737
spaces	8736
scores	8736
productive	8735
Twin@@	8734
rating	8729
interfere	8728
CNS	8720
val	8719
Amsterdam	8717
Email	8717
00-@@	8716
boxes	8713
dinner	8712
tt@@	8710
tolerance	8709
Nevertheless	8706
cooking	8701
aller@@	8701
febr@@	8700
Japanese	8700
CP	8695
psychiatric	8695
GER	8695
ate-@@	8694
-2	8690
Details	8688
9,@@	8686
2.8	8685
stro@@	8684
161	8682
limb	8682
simultaneously	8682
variation	8682
ech@@	8679
β	8676
constantly	8676
stri@@	8676
mechanical	8673
sha@@	8672
SI@@	8671
Quote	8668
accessible	8667
Earth	8667
BS@@	8664
Au@@	8663
mineral	8662
urban	8660
Post-@@	8658
ata	8658
run@@	8658
ν@@	8657
split	8654
catalogue	8653
Pre-@@	8651
24-@@	8649
ff	8649
interact	8643
River	8643
variability	8640
Bel@@	8640
pumps	8640
web@@	8637
PA@@	8629
ι@@	8628
modi@@	8626
2.7	8622
toler@@	8618
oven	8616
Maria	8611
amino	8610
a.com	8610
unstable	8609
notes	8608
oses	8607
eli@@	8606
Luxemburg	8605
involvement	8605
,@@	8603
brings	8603
id-@@	8601
intensive	8596
library	8596
infant	8596
Green	8595
connections	8594
brown	8590
antim@@	8589
ental	8586
Fre@@	8586
fuel	8585
79@@	8584
neurological	8584
episode	8580
Poly@@	8579
superior	8578
sol@@	8576
killed	8575
portion	8575
quantity	8573
Shel@@	8569
photos@@	8568
festival	8567
PT	8565
Aer@@	8562
lift	8560
recognised	8559
Can@@	8556
24-hour	8554
skilled	8554
var	8553
Local	8552
governments	8551
zzy	8550
Society	8543
am-@@	8543
Cer@@	8543
is-@@	8542
trust	8540
forecast	8535
dance	8535
igen	8535
Parking	8534
--------------------------------@@	8531
ew@@	8526
impossible	8524
comparative	8522
Sur@@	8522
sclerosis	8520
connect	8520
cholester@@	8519
carbon	8517
fle@@	8516
i-@@	8514
Gra@@	8509
Agreement	8507
Edition	8505
Ich	8505
int@@	8498
disposable	8497
OS@@	8496
invited	8494
HR	8492
ble	8492
originally	8491
hr@@	8489
6.3	8487
15-@@	8484
Juli	8484
231	8481
yar@@	8481
commits	8480
dreams	8480
3.2	8479
girl	8476
3000	8476
Pharmaceutical	8476
eggs	8475
Reference	8472
RF@@	8471
4.7	8468
sel	8468
151	8468
ettes	8465
psych@@	8465
doubt	8464
camp	8462
smooth	8460
parent	8460
residence	8459
Second	8455
spot	8454
assist	8453
KR@@	8452
shell	8451
LU@@	8451
ha	8448
nar@@	8447
ladies	8446
ame	8445
typically	8439
Gener@@	8438
cho@@	8438
bel@@	8436
achieving	8435
wor@@	8435
African	8433
renia	8433
depres@@	8431
Detailed	8430
facing	8429
Therapy	8426
Get	8425
Small	8425
464	8425
fits	8424
restricted	8424
constitute	8423
bags	8423
stream	8421
Education	8416
DE@@	8416
Bulgaria	8410
stag@@	8409
ear@@	8409
ische	8408
ters	8407
nations	8407
artistic	8404
Log	8403
Conditions	8401
Foreign	8399
wishes	8399
Deutsche	8397
strengths	8397
packed	8397
Ref	8396
cere@@	8395
evil	8394
minimise	8394
contamination	8393
Master	8389
rot@@	8387
SIN@@	8384
degrees	8384
reserved	8383
runs	8378
por	8377
o.@@	8376
Release	8374
adoption	8373
lation	8372
86@@	8371
3.6	8368
connec@@	8365
indig@@	8365
ST	8358
ic-@@	8358
first-@@	8355
guarantees	8355
pleasure	8353
Island	8352
220	8351
audio	8345
Laboratories	8343
spar@@	8342
consisting	8342
MON@@	8341
bis@@	8340
116	8340
fashion	8336
gate	8335
ual	8334
Low	8333
123	8328
tica	8326
tical	8323
input	8322
ays	8321
hex@@	8318
331	8312
binds	8311
compounds	8310
ologically	8309
workshop	8309
lin	8308
presentations	8307
sore	8307
Multi@@	8306
drug@@	8305
Mutual	8301
WHO	8301
Guests	8298
launched	8296
1.25	8296
INFORMATION	8296
profit	8293
thigh	8293
Film@@	8293
Lor@@	8291
DA@@	8290
Travel	8281
pop@@	8280
Support	8278
export	8277
Access	8276
ida@@	8276
Vent@@	8275
relaxing	8273
wh@@	8272
entirely	8272
Microsoft	8272
Thal@@	8270
turning	8268
CM@@	8265
†	8263
Annual	8262
homes	8262
enterprises	8260
sm@@	8256
separately	8255
ves@@	8255
Through	8254
cycl@@	8252
Slovenia	8247
bed@@	8246
organized	8245
flexibility	8244
flowers	8242
opposition	8242
ties	8242
waters	8241
Age	8239
19th	8237
parallel	8234
contin@@	8233
clock	8231
facility	8230
president	8227
exclusively	8225
sid@@	8224
viewtopic.php	8223
ely	8222
career	8221
battery	8218
painting	8216
app@@	8215
tea	8215
Compet@@	8212
ester@@	8210
50-@@	8206
trap@@	8204
Immun@@	8201
severely	8200
fitted	8195
werden	8190
illin	8189
facilitate	8186
reduc@@	8179
trained	8177
spiritual	8177
Janu@@	8176
spa	8172
targets	8170
app	8169
collect	8167
stations	8163
Lisbon	8162
foundation	8160
0,0	8160
ust@@	8159
rid	8158
visited	8156
prevents	8156
Puerto	8155
esium	8152
phos@@	8151
skepticalscience.com	8148
lots	8147
zum	8145
sought	8144
Approximately	8143
stom@@	8141
insert	8138
screw	8137
alkaline	8136
ography	8136
84@@	8131
ofi	8131
Sor@@	8131
exception	8130
Sam@@	8129
sqm	8127
.....	8125
Sav@@	8124
begins	8118
extensively	8118
benign	8116
München	8110
Jerusalem	8107
Disease	8104
yt@@	8102
jec@@	8099
locally	8098
Consequently	8098
og	8098
Should	8095
ends	8094
latter	8094
guided	8092
anted	8088
Juni	8088
mes	8088
teaching	8087
uncontrolled	8086
Prote@@	8086
Gallery	8085
Gi@@	8084
falls	8084
creative	8083
ome	8081
edition	8076
recurrent	8076
module	8075
Transfer	8072
ol-@@	8071
providers	8071
cat	8069
Latvia	8066
opposite	8065
Views	8065
Link	8063
Hall	8059
219	8056
closer	8056
chickens	8051
falling	8050
107	8049
streets	8048
N.	8046
awareness	8045
ug@@	8043
Dr@@	8040
4.9	8035
occasion	8035
Cyprus	8033
â	8033
Str	8033
electrical	8030
Hu@@	8029
Sciences	8026
precise	8025
157	8024
Stuttgart	8023
theme	8023
agr@@	8023
occasionally	8021
sauna	8020
ern@@	8019
analogue	8017
harmonised	8015
obligations	8014
N1	8011
5000	8008
manager	8008
trimester	8005
fax	8004
dated	8000
Culture	7999
168	7998
entitled	7996
ographic	7993
forth	7990
advertising	7986
4th	7986
straße	7982
prostate	7980
composition	7979
surroundings	7978
bular	7978
è@@	7977
convenient	7976
COMP@@	7973
truly	7972
head@@	7971
320	7968
acom@@	7967
Fir@@	7965
raw	7964
crucial	7962
353	7961
fridge	7959
english	7957
Canary	7956
flower	7953
ours	7953
eating	7953
cool	7952
engraved	7950
glau@@	7950
imaging	7949
switched	7946
Blue	7942
Terms	7941
Site	7940
Ara@@	7938
lists	7936
ports	7934
7,@@	7930
maintaining	7930
ram	7929
UC@@	7927
awarded	7925
drinks	7924
texts	7922
Rel@@	7919
63@@	7917
compatibility	7915
import	7914
270	7912
bon@@	7911
	7911
impression	7908
nearest	7901
scan	7898
HA	7898
spots	7894
Dogs	7894
Cet@@	7892
lins	7892
explore	7891
Oro@@	7890
but@@	7889
Dry	7888
floors	7884
Pul@@	7884
mention	7883
containers	7882
finance	7877
U.S.	7877
25-@@	7876
Texas	7875
Gard@@	7875
conges@@	7874
morph@@	7874
inspection	7873
ang	7872
plays	7871
acc@@	7869
electro@@	7869
20th	7869
183	7869
cri@@	7866
30th	7863
FIC	7861
fain@@	7861
Kommentare	7859
university	7858
vessel	7857
helpful	7855
Iron	7854
supplies	7854
vol@@	7853
ix	7852
Land@@	7851
bin@@	7850
West@@	7847
sort	7846
responding	7845
finger	7844
esk@@	7841
pose	7841
alising	7840
toms	7839
configuration	7837
justice	7833
television	7830
Ble@@	7830
accounts	7828
aspect	7825
portfolio	7825
Madam	7824
Step	7822
tes@@	7821
Pres@@	7820
hereditary	7819
Cs	7817
noch	7817
wooden	7816
reaching	7816
variations	7816
ag	7814
MAN@@	7813
Λ@@	7813
Jewish	7812
stiffness	7808
Jews	7808
Tur@@	7807
England	7806
HU@@	7804
symptom	7797
heads	7797
films	7796
Official	7795
Town	7794
cutting	7792
transferred	7792
stat@@	7789
priorities	7789
Activ@@	7787
iti@@	7787
z-@@	7787
wa@@	7787
aj@@	7786
sheet	7785
documented	7784
domain	7784
sus	7779
ned	7776
union	7776
tial	7775
amendment	7772
doors	7770
Monitoring	7770
Blo@@	7769
requ@@	7769
Depo@@	7769
back@@	7768
Despite	7768
phar@@	7766
drawing	7765
Equ@@	7764
facial	7764
CR	7763
uated	7758
institution	7755
hol@@	7754
chy	7750
Meth@@	7747
spray	7747
wash	7746
concurrent	7745
candi@@	7743
Fine	7743
ovan	7742
tram@@	7741
Double	7741
Homepage	7740
self	7740
acks	7738
tek	7734
ICAL	7733
152	7733
PI	7732
8,@@	7732
With@@	7725
tically	7724
charged	7722
85@@	7721
focused	7719
def@@	7718
Brazil	7718
nerv@@	7717
Located	7717
chen	7716
tran@@	7715
satisfaction	7709
Anti-@@	7708
bev@@	7703
Card	7702
ades	7702
ull	7702
alle	7700
nutrition	7700
bear	7700
tre	7697
panel	7692
arbe@@	7690
206	7689
2.	7683
Som@@	7679
villa	7677
pick	7676
stimulate	7675
esca	7675
visually	7674
tw@@	7674
STA	7672
western	7671
118	7671
suddenly	7671
wild	7669
inary	7669
syrup	7668
Talk	7665
amazing	7664
roid	7663
Mary	7660
eous	7660
ISO	7659
alp@@	7658
centrally	7658
elected	7657
membranes	7654
10H	7652
134	7652
fix	7648
0.05	7646
OP	7646
domestic	7643
cand@@	7643
ath	7642
Wh@@	7637
promotion	7636
31@@	7635
Dyn@@	7634
affinity	7634
.at	7634
119	7633
permitted	7632
formations	7630
switching	7627
skin@@	7623
SW@@	7620
cast	7619
Non-smoking	7617
216	7616
Drug	7616
Max	7609
At@@	7609
eda	7608
inhabitants	7604
extend	7603
SH@@	7603
Nature	7601
Kon@@	7599
long-@@	7598
short-term	7597
Current	7595
comment	7594
ola	7594
red@@	7593
trading	7580
icro@@	7577
ras@@	7577
helping	7575
southern	7575
serves	7575
és	7570
horse	7569
1.jpg	7564
DA	7563
ingen	7561
Besides	7561
ya	7554
regime	7550
pregn@@	7550
nach	7550
Nag@@	7548
AP	7547
Region	7541
Him	7538
ises	7535
114	7534
dental	7533
amps	7533
extrem@@	7532
inum	7532
ying	7530
afternoon	7529
solve	7526
Son@@	7525
decreasing	7524
io	7524
multic@@	7524
compl@@	7523
Â	7522
etre@@	7521
attractions	7521
Ob@@	7517
son@@	7517
tra-@@	7516
euros	7516
composed	7514
logo	7513
abe@@	7512
ked	7511
Follow	7509
rural	7508
354	7508
Fund	7507
lat@@	7505
considers	7503
veg@@	7503
ears	7502
deterioration	7499
3.4	7496
FOL@@	7495
miles	7494
uti@@	7493
congestion	7492
stic	7491
award	7490
destruction	7483
lu	7483
ment@@	7477
perspective	7476
Environment	7475
dream	7474
→	7471
seat	7471
hardware	7469
aren@@	7469
leaves	7467
UR	7466
Changes	7464
laser	7464
Chi@@	7464
uth	7462
measurements	7461
Polish	7460
orientation	7460
submission	7459
Arts	7458
1.9	7458
exit	7457
ted@@	7457
add-on	7455
preparing	7453
TY@@	7453
www.rau-consultants.de	7452
profiles	7451
isations	7450
sounds	7450
373	7448
ί@@	7446
investments	7445
yes	7442
spon@@	7441
visiting	7441
musical	7440
reservations	7439
organizations	7438
designated	7438
ong@@	7437
OL	7434
USB	7433
forced	7428
acti@@	7428
microwave	7428
finish	7426
fell	7425
Power	7425
PS	7422
super@@	7422
.dll	7421
Opinion	7419
CL	7418
influenced	7418
ery	7417
Los	7416
corresponds	7414
8.5	7413
expansion	7413
110@@	7409
Del@@	7408
off@@	7406
rial	7403
Flash	7400
κ@@	7400
tho@@	7400
trouble	7398
campaign	7398
Image	7397
Upper	7397
Track	7396
detec@@	7394
6.0	7393
Royal	7391
untreated	7391
forming	7389
ju@@	7389
impressive	7386
spoon	7386
song	7383
manufactured	7383
Nations	7380
Leu@@	7377
knew	7376
133	7374
toilet	7372
FS	7371
uter@@	7371
side-@@	7370
manufacture	7369
eta	7367
wed	7367
Program	7365
ney	7365
Action	7360
Laboratory	7359
barrier	7359
mobility	7358
D3	7356
modules	7355
D.	7354
usion	7354
ome@@	7351
identical	7348
5th	7348
cash	7345
FR@@	7343
Depending	7343
powers	7342
eni@@	7340
pivo@@	7339
suite	7339
Guest	7339
electroly@@	7339
totally	7336
ell	7335
concert	7333
113	7331
refers	7330
assigned	7329
temporarily	7329
Pa@@	7329
Mann@@	7328
helped	7319
229	7319
1.	7318
peaceful	7317
300@@	7317
symbol	7315
tired	7314
widely	7313
Final	7312
VIS@@	7311
flux	7310
exciting	7309
1-2	7306
film@@	7305
pion@@	7304
filtration	7304
v.	7302
passes	7301
arab@@	7297
teli@@	7297
strict	7295
discovered	7294
dispen@@	7293
nom@@	7292
bid@@	7291
derivatives	7291
understood	7290
IDE	7289
τ@@	7288
O.	7286
170	7281
Network	7280
hiking	7280
remote	7279
Procedure	7275
technological	7275
BE	7275
residue	7270
inclusion	7269
namely	7266
compact	7266
letters	7265
clothing	7263
MES	7262
precisely	7261
valuable	7260
frequencies	7259
golf	7258
oration	7257
classified	7256
marketed	7256
6.4	7251
18th	7248
alization	7247
vig@@	7245
ida	7243
payments	7242
1991	7242
peri@@	7242
purified	7242
Unknown	7241
CG	7239
pathway	7238
etra@@	7238
zum@@	7238
continuously	7237
youth	7236
leaving	7235
calling	7235
break@@	7234
varied	7233
0.01	7232
1989	7230
proved	7230
publications	7227
Whether	7223
three-@@	7221
Rip@@	7220
MAN	7220
sie	7220
Bro@@	7220
interpretation	7218
Vec@@	7218
spectrum	7215
ø@@	7207
undergo	7206
lining	7205
removing	7203
ELL@@	7200
Cerv@@	7199
Scientific	7198
fed	7198
Mat@@	7197
Turn	7197
Hi	7192
alu@@	7192
EPO	7191
studio	7191
stabil@@	7191
Spa	7191
tine	7189
Registration	7188
1x@@	7188
colleagues	7186
Ski	7184
Method	7183
Play	7182
Slovakia	7181
Ls	7179
temperatures	7179
143	7179
ark	7177
presenting	7174
sar@@	7174
carrying	7173
scene	7171
BI@@	7170
bread	7169
Close	7167
housing	7166
ably	7166
LA	7165
child-@@	7162
Chr@@	7162
aine	7162
MENT	7162
etic	7162
lasts	7161
encourage	7160
Country	7160
S.@@	7160
ungs@@	7159
inspections	7159
formats	7157
breeze	7156
e.com	7155
borders	7154
SOL@@	7153
rence	7152
1500	7152
52@@	7151
Select	7150
174	7149
haben	7146
ú@@	7146
directory	7146
poverty	7145
½	7144
accident	7141
Real	7139
MO@@	7138
mul@@	7137
Ten@@	7137
mill@@	7135
CDATA	7135
releases	7135
colors	7133
influ@@	7131
ink@@	7131
humidity	7131
ement	7130
proportional	7129
silver	7127
with@@	7127
atri@@	7124
Rent	7122
reflected	7122
dass	7120
reasonable	7117
us-@@	7116
and-@@	7116
ner@@	7113
propylene	7112
-up	7111
ophy@@	7110
g-@@	7109
Venice	7108
centres	7107
pseu@@	7107
eastern	7104
putting	7104
zur	7102
triple	7101
genital	7100
turns	7096
premature	7096
squ@@	7094
ars	7094
Swedish	7093
ser	7092
oz@@	7091
wir	7088
beneficial	7087
Py@@	7083
entin	7082
95@@	7081
Turkish	7078
203	7078
voted	7076
applying	7076
-3@@	7075
declared	7074
zinc	7074
th-@@	7072
Sales	7071
å@@	7071
ferry	7070
mehr	7070
supplier	7070
struction	7068
define	7066
Lab@@	7065
advisable	7062
PRODUC@@	7060
elections	7059
hospit@@	7058
adol@@	7058
jo@@	7057
PP@@	7057
Alo@@	7055
curve	7053
Mim@@	7045
resolve	7043
5.6	7043
Month	7043
ā	7043
yte	7041
mir@@	7036
balanced	7035
EO	7035
PD	7034
Therap@@	7031
lap@@	7027
gift	7025
accurate	7025
collo@@	7024
190	7024
Robert	7021
cessation	7019
-based	7019
authorisations	7018
cle@@	7018
mation	7015
CEP@@	7014
Man	7013
ap	7013
ā@@	7013
Abra@@	7011
audience	7007
pec@@	7006
ments	7006
idation	7005
Protection	7005
transition	7003
tab	7001
interruption	7001
plenty	7001
Terrace	6998
operators	6998
196	6998
websites	6995
relaxation	6992
agriculture	6991
everyday	6991
agenda	6991
girls	6986
shares	6985
ri	6983
recur@@	6983
sev@@	6982
wines	6979
GT@@	6978
strategies	6977
Avoid	6975
sem@@	6974
IO@@	6973
gar@@	6973
bus@@	6971
saved	6970
Professor	6967
trophy	6967
alized	6965
AK	6964
tickets	6962
suppliers	6958
FER@@	6957
Have	6957
additive	6953
Pages	6952
equally	6951
liability	6950
depressed	6949
Ven@@	6949
largely	6948
GS@@	6947
BA@@	6947
definitely	6947
CO2	6945
Qui@@	6943
restrictions	6939
occasions	6939
Points	6938
introduce	6937
Tal@@	6936
Daily	6935
testosterone	6933
substantially	6932
bringing	6932
icals	6929
answered	6926
assi@@	6925
Tak@@	6924
labelled	6923
Yet	6921
urgent	6921
fy	6920
Moscow	6920
3A	6920
EB@@	6919
seizure	6915
survey	6912
magnetic	6912
politics	6909
5-0@@	6908
hPa	6906
heaven	6905
guaranteed	6905
da@@	6904
evident	6901
granting	6901
ranges	6901
117@@	6900
Cologne	6899
Valley	6899
obvious	6894
Vista	6889
COM@@	6886
decom@@	6883
Telephone	6883
Son	6882
Nob@@	6881
lounge	6881
wie	6880
charges	6879
Choose	6878
eral	6877
thermal	6875
vaginal	6875
accounting	6872
Muscle	6871
songs	6870
gy@@	6866
Journal	6865
decades	6864
renewable	6863
sit	6862
vers@@	6861
sharing	6861
mas@@	6861
ATED	6859
believed	6859
Ask	6855
employed	6853
sending	6852
pending	6851
Č	6851
interrupted	6851
š@@	6850
maximal	6847
tennis	6844
victims	6843
CAN@@	6842
currency	6842
osing	6838
Express	6837
Lum@@	6835
aco@@	6835
abant	6834
recognized	6830
marks	6828
chro@@	6828
dealing	6826
adin	6825
Allah	6823
suggests	6818
RU@@	6817
aceu@@	6815
.48	6813
DIT@@	6812
ho	6811
AIR	6809
lock	6809
Award	6807
über	6806
15th	6803
workshops	6802
farmers	6801
meant	6800
mature	6799
all-@@	6798
noise	6798
MRI	6793
Port	6785
.ch	6784
ming	6783
wise	6782
inactive	6781
html	6781
arist	6781
preferred	6780
500@@	6777
precipitation	6777
arrangements	6776
match	6776
VE	6775
accession	6775
mol@@	6775
Sy@@	6772
eas@@	6768
intense	6766
42@@	6763
Square	6763
Heating	6763
Net	6763
factory	6761
kids	6761
Pur@@	6761
-30	6760
jetzt	6758
contributions	6758
promoting	6758
Castle	6757
Team	6757
kann	6756
identity	6755
rings	6753
Da@@	6753
vid@@	6751
gg@@	6746
reas@@	6745
Server	6743
cure	6743
sec	6742
surfaces	6740
ALS	6739
hourly	6738
flights	6738
arly	6737
contracts	6733
babies	6732
relate	6732
fantastic	6730
lunch	6729
assets	6728
tue	6727
leg@@	6723
SAR@@	6722
ita	6721
whatever	6721
arise	6719
adi@@	6719
accessories	6718
195	6718
determination	6713
Legal	6713
Mac	6711
comm@@	6710
ord	6710
2.9	6709
Professional	6709
northern	6709
nation	6708
ena	6705
implementing	6704
nur	6702
involves	6700
Pla@@	6698
acu@@	6698
ylan	6697
³	6691
care@@	6690
revision	6687
affairs	6687
rail	6684
Sim@@	6682
differ	6682
Wind	6676
.07.@@	6675
Digital	6674
mos@@	6673
RY@@	6671
14-@@	6671
infectious	6670
entertainment	6669
communities	6669
destroyed	6665
ido	6664
resource	6664
Wal@@	6664
cos	6662
ov	6659
cum@@	6657
boosted	6656
5.4	6651
155	6650
let@@	6650
or-@@	6647
depth	6646
121	6640
vul@@	6635
www.ypagesusa.com	6634
sub-@@	6632
aspir@@	6631
End	6627
2-3	6625
disabled	6622
legislative	6620
campsite	6616
clic	6613
40-@@	6612
theory	6612
Palace	6610
lich	6609
ICA	6609
Assessment	6608
e-	6607
stitu@@	6606
converting	6603
statistical	6599
industries	6599
214	6596
Oc@@	6595
actively	6595
Iceland	6594
Zurich	6589
bathrooms	6588
113@@	6587
budgetary	6587
258	6586
verti@@	6586
struggle	6585
drivers	6585
SD@@	6584
tari@@	6582
joy	6582
radioactive	6579
mutation	6578
partly	6575
ONE	6573
prayer	6571
stances	6569
cervical	6569
minister	6569
villages	6569
opportun@@	6568
Act	6568
student	6567
directions	6567
tight@@	6564
Four	6564
stric@@	6564
rain	6561
212	6560
Previous1	6558
revised	6557
principal	6557
mea	6555
implant	6554
ey	6552
inserted	6552
teams	6551
Recognition	6551
Frequency	6550
Regional	6550
react	6549
Effici@@	6547
refer@@	6545
compromised	6543
Gly@@	6542
copper	6542
Go@@	6540
sofa	6540
tit@@	6539
Cub@@	6537
adapted	6535
examine	6532
creates	6531
Min@@	6530
ch-@@	6530
Accommodation	6528
the-@@	6528
iPhone	6525
All@@	6525
2020	6524
Line	6524
gens	6521
hit	6520
shorter	6519
Pro	6518
prove	6513
Cr@@	6513
279	6509
fas@@	6508
hidden	6507
amongst	6503
deaths	6502
Moses	6502
208	6501
ms@@	6497
filed	6495
isn	6493
Fol@@	6493
ticket	6492
IAL	6492
Yellow	6491
pat@@	6490
Organ	6489
Division	6489
n-@@	6489
lot@@	6488
thumb	6485
ain	6482
considerably	6481
lighting	6480
prone	6479
dimensions	6478
Val	6478
soil	6476
net@@	6475
Facebook	6475
sand	6474
neo@@	6474
roof	6474
debt	6472
Tourist	6472
rod@@	6471
vic@@	6467
expensive	6466
greatly	6464
ska	6462
gentle	6462
brother	6462
Cat@@	6461
Come	6460
separated	6454
recording	6453
400@@	6453
122	6452
ful@@	6450
Academy	6448
indoor	6446
neum@@	6442
Hell@@	6441
5.7	6440
8th	6438
moderately	6437
129	6436
remission	6436
74@@	6435
intend	6434
Corporation	6432
Golf	6432
guideline	6431
ection	6429
tubes	6429
secret	6428
Analysis	6427
specially	6426
fer	6426
ston	6426
thor@@	6425
islands	6425
thu	6424
GB	6424
teeth	6423
Ham@@	6421
Computer	6417
Jo@@	6417
periodically	6416
concepts	6415
classical	6412
Tek@@	6410
arrived	6410
0.00	6409
characters	6409
involve	6407
Customer	6405
ula	6404
La@@	6400
op	6399
Les	6397
das@@	6395
diverse	6393
mum@@	6390
Big	6389
privacy	6389
vinyl	6387
ian	6385
Authority	6385
age-@@	6384
UF@@	6383
crime	6381
ecz@@	6379
gained	6378
publishing	6377
Ambi@@	6376
ped	6373
satisfied	6370
duty	6370
Zeit	6367
specialised	6363
ha-@@	6362
Cha@@	6360
Non@@	6359
sweet	6356
detect	6356
Repl@@	6353
221	6353
Player	6352
ass	6352
Institut	6350
associations	6349
afterwards	6348
err@@	6347
Sonata	6345
Full	6343
spl@@	6343
Cuba	6337
end-@@	6337
oriented	6336
tane	6336
94@@	6334
decorated	6332
expectations	6331
deleted	6328
bra@@	6328
Way	6328
cad@@	6326
root	6325
relieve	6322
Gre@@	6321
native	6319
Sports	6316
Abb	6315
retinal	6314
seeking	6312
daughter	6312
exceeding	6311
California	6310
Ant@@	6307
vin@@	6306
Tablet@@	6305
mc@@	6305
shake	6305
fans	6301
washing	6299
hormones	6299
charming	6295
aesthetic	6293
OV@@	6292
lights	6292
Inn	6291
dist@@	6289
estimate	6287
Currently	6286
tendency	6286
german	6285
Maintenance	6285
departure	6284
novel@@	6284
contrary	6281
Key	6279
learned	6278
Building	6277
rol@@	6277
Transport	6277
ck.php	6275
avw.php	6274
Candi@@	6274
travelling	6274
cleared	6272
claimed	6272
3.9	6272
avenue	6272
idity	6270
-related	6270
Mc@@	6269
biop@@	6269
lovely	6268
loads	6268
4-0@@	6267
Language	6266
ado	6266
burden	6266
aber	6265
trends	6265
regarded	6265
cell@@	6264
SAN@@	6261
stores	6261
Mobile	6260
rising	6259
emotional	6259
.02.@@	6257
comply	6254
Activities	6250
207	6244
ens-@@	6242
276	6241
consulting	6241
EK	6240
RUB	6239
PAD@@	6238
well-known	6237
Lithuania	6237
revolution	6234
st-@@	6233
Geneva	6232
Scan	6230
pressing	6229
strip	6228
designs	6225
modify	6224
ordered	6222
appropriately	6221
communications	6220
ß@@	6219
Athens	6217
listen	6217
uration	6217
13th	6216
136	6215
Indeed	6215
candidate	6213
Similar	6213
rig@@	6212
illegal	6212
disappear	6211
grown	6210
frozen	6209
fet@@	6209
hill	6209
compromise	6209
password	6208
Kap@@	6208
Unfortunately	6207
dy	6205
ce-@@	6205
TF@@	6204
zoneid	6203
erectile	6202
SL@@	6201
encies	6199
potenti@@	6197
Love	6197
Primary	6193
opted	6193
bach	6192
defect	6191
Care@@	6191
tower	6191
Aus@@	6190
passengers	6189
Alzheimer	6186
gt	6186
ares	6184
meaningful	6179
hl@@	6179
ral@@	6178
6.7	6177
Reduction	6176
kus	6176
army	6175
fifth	6175
che@@	6175
preserv@@	6174
prefer	6174
zio	6172
usage	6171
defence	6171
arising	6170
haus	6169
arma	6169
reaches	6167
agon	6165
quanti@@	6164
Artikel	6163
ition	6161
suffered	6160
skiing	6160
Gau@@	6159
www.regiolab.info	6158
holy	6158
ucle@@	6157
unexpected	6157
enabled	6156
162	6155
operator	6155
transportation	6154
Industry	6153
Iran	6150
Factor	6148
16th	6146
discard	6146
fund	6146
Fin@@	6145
Dic@@	6145
high-quality	6143
grant	6142
work@@	6142
coat	6141
solidarity	6140
uns	6138
Secretary	6138
Training	6138
ni	6137
recipients	6135
familiar	6131
tomy	6130
convention	6130
Pot@@	6126
ces	6126
Suc@@	6125
2a	6125
8.8	6123
EP	6122
revenue	6118
........@@	6116
Clear	6114
hu@@	6114
Prof@@	6114
colo@@	6113
Liv@@	6111
Lis@@	6111
Optim@@	6110
TI	6110
representing	6110
137	6109
pointing	6107
CC	6103
tion-@@	6103
147	6102
cultures	6099
ot	6099
Copyright	6097
Düsseldorf	6096
lov@@	6094
Zar@@	6093
PAS@@	6092
fail	6092
stories	6091
anger	6089
arrive	6089
infect	6087
intestine	6086
Iraq	6085
glomer@@	6078
Super@@	6072
handled	6069
rhin@@	6067
ges	6066
inch	6063
ε@@	6062
c-@@	6062
phy@@	6061
leadership	6059
.01.@@	6055
stem	6055
202	6054
Gast@@	6052
logistics	6051
Together	6051
124	6051
addresses	6050
Facilities	6050
unlimited	6049
hath	6049
az	6049
hia	6047
supervised	6047
punc@@	6046
acquisition	6045
records	6045
returns	6045
377	6044
Between	6043
pretty	6041
wordpress.org	6041
intention	6037
atal	6036
chair	6035
hag@@	6035
branch	6034
erc@@	6034
vom	6032
transactions	6031
ize	6031
prize	6030
plain	6029
processed	6027
sole	6024
Tourism	6022
11th	6021
offspring	6021
KA	6020
Enter@@	6019
Pap@@	6019
115@@	6019
emphasis	6017
establishing	6015
roll	6015
ç@@	6012
volumes	6011
holds	6008
pdf	6008
graphic	6004
Tim@@	6004
PCI	6003
poli@@	6000
book@@	5996
justify	5995
Es@@	5995
lying	5994
kin	5994
о@@	5990
competence	5989
299	5989
lessons	5987
vast	5987
brief	5987
juven@@	5985
7.2	5984
Land	5983
moisture	5982
reforms	5982
set@@	5981
inspected	5978
fitness	5978
3-4	5978
periodic	5978
es.@@	5976
4000	5976
fighting	5974
acne	5974
ey@@	5971
feedback	5971
nursing	5970
producers	5969
Large	5968
Given	5967
beings	5967
membership	5966
.08.@@	5963
dge	5962
sta	5960
deple@@	5960
Mit@@	5960
Phys@@	5959
17th	5957
Jal@@	5957
prolifer@@	5957
Figure	5956
cancers	5956
driven	5955
ll@@	5952
gardens	5952
Administrador	5951
answers	5951
leisure	5950
Inserido	5950
discount	5950
FL@@	5948
uniformly	5947
centuries	5945
Visual	5944
CN@@	5943
institutional	5943
Bosch	5943
managing	5941
13-@@	5941
saving	5939
boards	5938
unemployment	5938
inity	5936
Rock	5936
anniversary	5936
eren	5936
Arz@@	5935
TEL@@	5934
Ak@@	5934
ME	5934
Fran@@	5932
loose	5932
PR	5932
as-@@	5932
.06.@@	5930
controlling	5930
patterns	5930
characterized	5929
artificial	5929
breakdown	5929
234	5928
generate	5927
ick	5926
Jehovah	5924
GAR@@	5923
outcomes	5921
spoken	5918
ero@@	5918
oth@@	5915
460	5911
fic@@	5910
awa	5910
reliability	5908
breeding	5907
combine	5907
tomorrow	5904
Latest	5903
DIS@@	5903
Lin@@	5901
JPG	5899
Upon	5899
Peace	5899
las@@	5898
roads	5898
415	5897
Macro@@	5896
Bur@@	5895
Porto	5893
pathways	5891
Hal@@	5891
Communication	5891
dissolve	5888
etta	5887
Der@@	5885
isi@@	5883
characteristic	5879
light-@@	5879
accuracy	5876
Federation	5875
Level	5875
ss@@	5874
license	5873
exceeded	5870
graphics	5869
PO	5868
245	5868
sessions	5865
snow	5863
blowing	5862
ite@@	5861
CAP@@	5859
3.7	5859
spoke	5858
Volume	5857
6th	5857
dd@@	5851
wellness	5850
Investig@@	5850
officials	5848
abuse	5847
archive	5845
Will	5844
stell@@	5844
Top@@	5844
p.@@	5842
suggesting	5840
£	5840
movie	5840
beer	5839
upright	5838
vari@@	5837
committees	5837
Gel@@	5837
limiting	5837
och@@	5836
ending	5835
.000	5835
ier@@	5833
micro-@@	5830
raft	5829
aps	5829
ma-@@	5828
justified	5828
get@@	5827
1988	5827
New@@	5825
enormous	5825
permanently	5824
ny@@	5823
weighs	5823
nitrogen	5823
ecological	5822
riding	5821
stood	5817
lodging	5816
ank@@	5814
188	5813
household	5813
attempts	5813
explains	5812
Loc@@	5812
burg	5811
Dem@@	5811
omes	5810
Priv@@	5810
preserved	5809
Estate	5808
chromos@@	5808
ruled	5808
signals	5807
ion@@	5805
synthetic	5802
expenses	5801
Elev@@	5800
proud	5799
zer@@	5798
religion	5798
Bathroom	5797
REN@@	5797
kilogram	5796
wiki	5796
resor@@	5796
Stockholm	5794
1a	5793
cotton	5791
Prep@@	5790
Bra@@	5790
Organ@@	5789
eding	5788
stainless	5785
Min	5782
10th	5782
Without	5781
Growth	5779
cord	5778
Ms	5777
shaking	5777
einen	5775
visitor	5774
Comp@@	5772
Korea	5769
Radi@@	5769
plat@@	5767
wave	5767
ew	5761
einem	5760
Specific	5759
flavour	5759
Fort	5758
sugar@@	5758
trips	5757
ched	5755
operated	5755
-C@@	5754
et-@@	5751
thereof	5750
Lip@@	5750
lude	5749
TIVE	5748
dimension	5748
massage	5744
negligible	5744
Effect	5743
battle	5741
heritage	5741
mentation	5740
Rico	5740
towns	5739
thickness	5737
atur@@	5736
d.@@	5736
criminal	5735
Instead	5735
HB@@	5734
fleet	5730
SK@@	5727
entre	5727
Signs	5726
Route	5725
356	5725
renowned	5725
Congress	5724
inability	5724
persist	5723
entering	5721
focal	5720
instruction	5719
Out@@	5716
attributed	5716
erection	5714
breaking	5712
eness	5712
GMP	5712
DO	5708
li	5708
panoramic	5707
319	5707
089	5706
117	5705
Direct	5705
chemistry	5704
Shipping	5703
hel@@	5702
Contains	5702
planted	5701
tech@@	5699
copyright	5699
competitiveness	5698
phas@@	5698
cellular	5695
TUR@@	5694
Ban@@	5692
Britain	5691
MAC@@	5690
amer	5690
SN@@	5688
CHAR@@	5687
tourists	5687
Ba@@	5686
Bruxelles	5686
pronounced	5686
Mari@@	5684
Model	5683
weekend	5683
Long-term	5683
bb@@	5681
ths	5680
2.0@@	5680
sera	5679
glands	5677
responsibilities	5676
ers@@	5673
mem@@	5672
hearts	5671
province	5669
ash@@	5669
renovated	5666
iser	5665
Prime	5665
optic	5663
displays	5662
Simul@@	5658
Investment	5658
Len@@	5656
piano	5656
opens	5655
i.@@	5654
loaded	5653
Salzburg	5653
wil@@	5652
145	5651
Jans@@	5651
script	5650
sam@@	5650
VR	5649
elevator	5649
dial@@	5648
millions	5647
213	5646
pou@@	5645
destroy	5642
indirect	5641
HY@@	5641
breath@@	5640
UE	5639
predic@@	5639
ente	5638
lands	5637
ales	5637
upwards	5636
bic@@	5635
Mu@@	5635
diversity	5633
ern	5632
ylene	5632
fore@@	5631
ale@@	5629
Visit	5626
rou@@	5623
21-@@	5623
scher@@	5621
catalog	5621
6000	5620
Sin@@	5619
modifications	5618
alert	5617
typ@@	5617
Preparation	5616
cookies	5615
ºC	5615
7th	5614
migration	5614
ums	5614
quantities	5613
classification	5611
Less	5610
election	5608
tenderness	5607
weapons	5607
321	5606
registry	5605
2.jpg	5605
Rule	5605
BY	5603
3.8	5600
optional	5600
dried	5597
bs	5596
wheel	5595
wealth	5595
refriger@@	5595
ama	5594
Looking	5594
stimulates	5593
PP	5591
Population	5591
incl.	5586
litres	5585
column	5585
exhibitions	5585
GNU	5584
tan	5583
Prepar@@	5583
ér@@	5578
no.@@	5578
Irish	5578
USD	5577
Gro@@	5577
priest	5575
wer@@	5575
clu@@	5575
sion@@	5574
SEO	5574
eds	5573
dishwasher	5572
10,@@	5572
notified	5571
ein@@	5571
hole	5569
ht@@	5569
rog@@	5568
lib@@	5564
dust	5564
tend@@	5563
Frequ@@	5563
freeze	5563
terrorism	5562
compensation	5559
sn@@	5557
Zy@@	5557
GM@@	5556
ventilation	5553
a.m.	5550
93@@	5550
MBER	5550
Arab	5548
8.0	5548
belonging	5547
ril@@	5547
ero	5547
participated	5546
zero	5545
owned	5543
Pets	5543
ord@@	5542
dew	5542
ari	5542
PH	5540
vers	5539
arts	5539
MP3	5535
raine	5533
kingdom	5532
twelve	5532
faced	5531
intoler@@	5529
sv@@	5529
seasonal	5529
tips	5529
Cli@@	5529
ECT	5526
412	5525
Major	5524
carrier	5524
mid-@@	5521
Drive	5521
fatty	5518
stuff	5518
arranged	5518
lob@@	5516
pandemic	5516
BEST	5516
550	5515
Rep@@	5515
programming	5515
fac@@	5515
breakthrough	5514
alive	5512
convert	5511
orthop@@	5510
facts	5508
cumulative	5508
icum	5508
ico	5508
booked	5507
adopt	5506
Hand@@	5504
PAR@@	5504
Literaturang	5503
slopes	5501
ACT	5501
ken@@	5501
PL	5500
somewhat	5497
forge	5497
seriously	5496
ong	5495
Title	5494
delivers	5494
Ges@@	5493
modest	5490
revolutionary	5488
fast-@@	5488
Web@@	5487
ARD	5487
MER@@	5485
Mol@@	5485
ck	5484
gol@@	5484
leather	5484
conclude	5479
magnificent	5478
oldest	5478
certificate	5477
ebr@@	5477
Basel	5476
contributed	5473
16-@@	5472
Starting	5472
disability	5470
hor@@	5470
judgment	5469
universal	5469
grap@@	5469
Radio	5469
bind	5469
arrest	5468
relationships	5465
Restaurants	5463
Km	5463
LV@@	5463
G.	5462
interim	5461
Roma	5460
premi@@	5459
Sto@@	5459
-4@@	5456
Previous	5456
ier	5456
Milano	5455
LAN@@	5455
rava	5447
molecular	5446
diver@@	5446
highlight	5445
eventually	5444
rim	5443
Europa	5441
CE	5439
delicious	5437
Her	5435
Form	5435
scientists	5433
smoke	5432
2-0@@	5431
215	5431
Lar@@	5430
14th	5429
bers	5428
Pra@@	5428
feelings	5426
winning	5425
8.2	5423
trace	5423
Edi@@	5422
identification	5422
Kr@@	5419
Did	5419
corne@@	5419
controller	5418
investigate	5418
invite	5417
consistency	5417
Complete	5417
50.@@	5416
Las	5416
theatre	5415
Height	5415
paintings	5414
compare	5413
Bs	5412
paragraph	5411
olive	5411
lingual	5411
Cri@@	5410
73@@	5409
antine	5408
zen	5408
ily	5408
5.8	5407
calculation	5406
zu@@	5405
11,@@	5403
Night	5401
Cit@@	5400
teachers	5398
Estonia	5397
XX@@	5397
elt@@	5397
participating	5396
edit	5395
purchased	5395
approaches	5394
kill	5393
en.htm	5393
Sar@@	5392
Milan	5392
ULT@@	5391
supplem@@	5389
ultrasound	5386
211	5386
uk	5385
einer	5385
Poker	5384
gil@@	5383
itary	5382
Questions	5381
vic	5381
CF	5381
Sum@@	5380
Chemical	5379
1987	5378
intra-@@	5378
8.3	5377
.09.@@	5376
headaches	5375
hence	5374
tens@@	5373
relle	5372
correction	5372
Bible	5372
Syste@@	5372
sehr	5371
shot	5371
entries	5370
Cell	5370
ref@@	5368
romantic	5368
Residence	5366
b.	5366
tively	5366
customs	5366
voting	5365
ée	5364
The@@	5363
Paper	5361
str	5360
enjoyed	5359
119@@	5359
ik@@	5358
kl@@	5358
spectacular	5356
portal	5353
Asian	5353
marine	5352
labels	5351
pointed	5351
blocked	5349
ADV@@	5349
Pat@@	5347
extraordinary	5347
R-@@	5346
posted	5345
assessments	5345
reflects	5345
zz@@	5343
gloves	5341
merely	5341
eptic@@	5340
attended	5340
recover	5338
tolerate	5336
suggestive	5335
Having	5334
NL	5334
sheep	5334
combines	5333
verb	5331
May@@	5329
wireless	5329
Nice	5328
Joseph	5326
sustainability	5324
Eis@@	5324
obligation	5324
100,000	5322
consist	5322
Lim@@	5321
pilot	5321
imprint	5321
James	5320
egg	5319
arg@@	5317
Mas@@	5316
dispose	5315
assume	5313
Krka	5312
applicants	5311
ail@@	5310
166	5309
650	5306
153	5306
Phen@@	5304
organ@@	5304
ption	5304
Put	5303
strengthening	5303
fat@@	5302
Cancer	5301
activ@@	5301
designation	5300
formula	5300
Reg@@	5299
threat	5297
pain@@	5297
Continue	5297
threats	5296
inspired	5295
Surface	5294
adventure	5292
Index	5291
oster	5290
zin	5289
Wir	5289
investigations	5288
285	5288
ential	5286
danger	5284
alism	5284
intermediate	5283
humanitarian	5281
Outer	5281
partially	5281
functionality	5281
permission	5280
gro@@	5277
Event	5276
suit	5274
agen@@	5273
Apple	5273
Maximum	5272
ar-@@	5272
rank	5272
Econ@@	5269
Sunset	5267
ity-@@	5266
co-operation	5266
GRO@@	5264
keeps	5262
gradual	5261
readily	5260
ack@@	5260
hardly	5259
Appropri@@	5259
Bavaria	5259
3-0@@	5258
Florence	5258
Natural	5258
asse	5257
chairman	5257
....@@	5257
Summer	5256
agu@@	5255
arrow	5255
DING	5254
thirst	5254
Catholic	5254
fly	5253
summit	5252
generic	5251
residential	5251
turnover	5251
concentrated	5250
ethanol	5250
churches	5248
implantation	5247
1,200	5245
rowing	5243
................@@	5243
æ@@	5243
Fa@@	5242
targeted	5242
Uni@@	5240
don@@	5240
ova	5240
ous@@	5240
enfu@@	5238
MM	5238
Distance	5238
shift	5237
gibt	5237
ben	5236
bal@@	5235
settlement	5234
Chief	5234
certified	5233
hits	5233
attitude	5233
fingers	5230
assumed	5229
Marina	5228
HP@@	5228
ogram	5227
Ein@@	5227
recognise	5227
hib@@	5225
flam@@	5225
bet	5224
investors	5223
leakage	5223
tracks	5223
ñ@@	5222
freezer	5221
describe	5221
chief	5220
anywhere	5219
Agriculture	5218
rises	5217
141	5217
Shop	5217
800@@	5216
Environmental	5215
consistently	5213
-5	5211
propose	5210
stre@@	5210
DV@@	5209
virtual	5208
Reservation	5208
ft@@	5208
investig@@	5208
throw	5207
Casa	5206
Modern	5206
lenses	5200
Fle@@	5198
dietary	5198
shel@@	5198
counter	5197
acceptance	5196
harbour	5195
planet	5193
Long	5193
tag	5193
weights	5192
meets	5189
san@@	5188
9.4	5186
Ib@@	5184
tooth	5183
aircraft	5181
philosophy	5181
405	5180
layers	5180
convinced	5178
la-@@	5174
aer@@	5172
Psychiat@@	5172
lymph	5171
Consumer	5171
ets	5170
î@@	5170
obstruc@@	5167
Soviet	5166
erg@@	5166
emerging	5165
r-@@	5165
workload	5163
officially	5163
star@@	5162
Increase	5162
validated	5162
productivity	5161
conferences	5158
att@@	5157
580	5155
isers	5155
116@@	5155
Ka@@	5154
maybe	5154
Net@@	5154
tz@@	5153
blo@@	5153
clicking	5153
collective	5149
μ@@	5149
forests	5149
spi@@	5148
Fel@@	5144
FIN@@	5140
Gender	5140
explanation	5139
stronger	5138
CK	5138
chapter	5137
165	5135
icians	5135
IES	5133
Tw@@	5130
č@@	5130
TH	5128
expanded	5128
precision	5128
happening	5123
Portuguese	5123
Vid@@	5121
caps	5121
Ministers	5117
specialists	5113
fal@@	5112
strictly	5111
Manufacturing	5111
countryside	5110
ör@@	5110
overcome	5110
universities	5110
shoulder	5109
fin	5109
fur@@	5109
necessarily	5108
ille	5107
surely	5106
Saint-@@	5106
margin	5106
scored	5105
VI	5105
accompanying	5104
comprises	5104
Hot	5102
Balcony	5101
izing	5101
ls	5100
310	5100
lion	5099
temple	5099
deals	5098
tend	5097
welling	5095
finds	5095
COMM@@	5093
lig@@	5093
Apart	5093
Daniel	5092
330	5091
ty-@@	5091
cobal@@	5091
Valencia	5091
agre@@	5091
294	5090
intellectual	5089
mask	5087
Diag@@	5087
developmental	5083
holders	5083
residues	5082
ban@@	5082
rolling	5081
62@@	5081
night@@	5079
Hans	5077
navigation	5077
Antwort	5077
mini	5077
WESTERN	5077
Charles	5076
RE	5076
clothes	5075
hills	5074
whenever	5074
voltage	5073
welcomed	5072
ga@@	5071
College	5071
NV	5071
HTML	5070
summar@@	5070
Maps	5069
Audio	5069
generator	5068
Generally	5066
Cross	5066
ón	5065
Refl@@	5064
occasione	5061
ging	5060
permit	5059
amin	5059
Guide	5059
Sun@@	5057
arf	5056
Organisation	5056
distress	5056
interview	5056
pray	5055
149	5054
ammon@@	5053
arbitration	5051
independence	5051
lab@@	5051
entation	5050
tender	5050
750@@	5050
appointment	5048
analysed	5048
enterprise	5047
glory	5047
192	5047
governance	5046
pu@@	5042
b.@@	5041
bilateral	5041
ingly	5041
GAME	5039
personally	5038
26-@@	5037
›	5036
dollars	5036
Cur@@	5034
paralysis	5032
plex	5032
Baltic	5031
Regarding	5030
reply	5027
Deputy	5025
Finance	5025
Alliance	5024
dual	5024
Concentr@@	5024
21st	5021
CEO	5021
fiscal	5020
í	5019
emergence	5017
Ju@@	5016
OI	5014
suited	5013
George	5013
stayed	5011
newspaper	5011
centers	5009
manifestations	5007
1985	5007
SCH@@	5006
aming	5005
Calendar	5005
enlarged	5005
pathogens	5005
zed	5003
arguments	5003
.05.@@	5002
stein	5002
sexy	5002
à@@	5000
si	5000
infl@@	4996
Guidelines	4994
Fr	4994
sterone	4992
tus	4992
adapt	4991
301	4989
oni	4989
massive	4989
moments	4988
ulo@@	4985
estimates	4985
233	4984
eradication	4982
demonstration	4981
Address	4980
certificates	4980
ville	4978
unter	4977
limbs	4973
port@@	4973
parameter	4969
13,@@	4969
combat	4968
Vig@@	4968
selling	4966
Ed@@	4965
no.8@@	4965
concerts	4965
Dresden	4965
Pope	4964
win@@	4963
predicted	4963
ono	4963
urs	4962
preliminary	4962
Char@@	4962
chairs	4962
19.00	4962
faces	4961
smart	4961
1986	4958
Dil@@	4958
teacher	4958
kilometres	4958
pos	4957
SMEs	4957
CET	4956
je@@	4954
aly	4954
escape	4953
Prop@@	4953
--@@	4953
taught	4953
Reports	4953
rol	4952
agn@@	4952
469	4951
.03.@@	4951
etz@@	4950
depot	4950
se-@@	4950
damages	4950
Initial	4949
intact	4949
Blog	4948
pains	4947
etary	4946
willing	4946
linen	4946
Indian	4945
restore	4945
Francisco	4943
engines	4943
low@@	4943
varying	4942
Course	4942
sperm	4941
benz@@	4940
ford@@	4939
firms	4938
digestive	4938
es.htm	4937
stol@@	4937
Northern	4935
movies	4934
responsive	4933
Engineering	4933
Leipzig	4932
Ann@@	4932
trab@@	4931
Staff	4931
GDP	4930
Partner	4929
impl@@	4928
ened	4928
commitments	4927
researchers	4927
Ober@@	4926
SPEC@@	4926
observe	4925
Virus	4923
overweight	4923
�	4923
timing	4923
Card@@	4922
indicators	4921
satisfactory	4921
exhibits	4921
genuine	4920
Christians	4920
papers	4919
hundreds	4918
peoples	4917
Ta@@	4917
Andreas	4914
A1	4913
8.1	4913
255	4912
lav@@	4912
expand	4912
flash	4911
jury	4911
restored	4911
Kid@@	4910
Lyon	4908
Kab@@	4905
dies	4902
Plaza	4902
cio	4901
Sport	4900
uni@@	4900
breaks	4900
7.0	4899
steam	4896
circuit	4896
1945	4894
improves	4892
asking	4890
Production	4889
sch	4888
realized	4887
Laundry	4883
cheese	4883
Palestinian	4882
der-@@	4880
compartment	4879
Ev@@	4879
null	4878
¬	4877
176	4877
gauge	4876
carries	4876
internationally	4874
tly	4873
Kle@@	4873
ros	4872
................................@@	4872
lang	4869
unity	4869
soap	4868
PET	4868
hum@@	4867
Luggage	4865
statistics	4864
filling	4863
σ@@	4861
Child	4861
tray	4860
fellow	4860
then@@	4859
Downloads	4858
keyword	4857
6.8	4856
pins	4856
Resort	4854
declaration	4853
bonus	4853
aza	4850
authors	4850
execution	4850
dealt	4849
Call	4848
Je@@	4848
12,@@	4848
BTE	4847
ato	4846
Articles	4845
Simply	4845
nevertheless	4845
Sometimes	4845
Bus	4844
Gri@@	4843
Kom@@	4843
transmitted	4842
bag@@	4842
UK@@	4841
t.@@	4841
0.87	4840
enabling	4839
369	4837
Strasse	4837
cardboard	4837
ul	4835
Depression	4831
wittgensteinsource.org	4831
supplement	4830
Young	4830
m.	4830
Space	4829
experiments	4827
alterations	4826
milli@@	4824
167	4824
Internal	4824
Try	4822
ib@@	4821
paths	4821
PHP	4819
museums	4819
supposed	4818
meter	4818
sheim	4816
brands	4815
ateg@@	4815
TRU@@	4815
Sit@@	4814
edges	4814
rescue	4814
Protocol	4813
appreciate	4812
S.A.	4811
composite	4809
CO	4809
Cooperation	4807
ged@@	4807
mir	4806
atives	4806
folder	4804
ISTICS	4803
Sant@@	4803
installations	4802
XL	4802
Bay	4801
465	4801
Chamber	4800
ish@@	4800
č	4799
Hungarian	4799
Ö@@	4798
wet	4796
semi-@@	4796
är@@	4796
GO@@	4795
Tol@@	4794
bb	4794
Dor@@	4794
everywhere	4793
automotive	4793
savings	4793
Alternatively	4792
Ljubljana	4792
representation	4791
WIN@@	4791
ugen	4791
stays	4791
derivative	4790
traditions	4790
gap	4789
Gran	4787
glad	4787
Gli@@	4787
sequence	4786
cast@@	4785
Look	4784
bay	4784
к@@	4783
000@@	4783
wedding	4783
HT@@	4783
Advocate	4782
demanding	4779
dal@@	4778
Basic	4778
ee	4776
reserves	4776
itra	4776
nas@@	4775
K.	4775
Clin@@	4775
Sul@@	4775
Exceptional	4774
optimized	4774
Mos@@	4774
IF	4773
consequently	4772
-to-@@	4771
Alle	4770
strange	4770
consent	4770
Lodging	4769
gregation	4769
Dimensions	4767
receives	4766
eligible	4766
Guidance	4765
deemed	4764
considerations	4764
epidemi@@	4764
courts	4763
än@@	4762
aly@@	4761
tas@@	4761
Was	4759
Strategy	4757
Diese	4757
Fast@@	4757
cont@@	4756
lens	4753
appropriation	4752
promptly	4752
Evol@@	4751
overnight	4749
water@@	4748
600@@	4747
Prize	4747
AU	4746
д@@	4746
markers	4746
LC	4746
bigger	4743
Packaging	4742
explanations	4742
Mountain	4742
blockade	4742
E-Mail	4742
156	4741
Hence	4740
auf@@	4740
7.9	4739
Vil@@	4739
SR@@	4738
TS@@	4738
Bat@@	4737
by@@	4737
proceed	4736
ric@@	4734
underground	4734
optimum	4734
Dig@@	4731
actic	4728
seats	4726
ses@@	4726
assessing	4724
Vol@@	4724
screening	4723
Solutions	4721
prevented	4721
trail	4717
sensor	4717
judge	4717
tional	4716
Phar@@	4716
behavioural	4716
dam@@	4715
sing@@	4715
translated	4714
football	4714
procedural	4713
fr	4713
Properties	4713
colon	4712
INTER@@	4711
hydra@@	4710
residual	4709
foods	4708
realize	4708
serving	4708
osi@@	4707
org@@	4707
Vas@@	4706
Februar	4705
EUR@@	4704
shuttle	4703
pharm@@	4703
robust	4701
Exhibition	4700
431	4700
consulted	4699
aggrav@@	4699
receipt	4698
icon	4698
Spo@@	4698
talks	4698
threshold	4697
fluids	4696
Lower	4696
ologist	4693
Januar	4692
actu@@	4690
О@@	4689
yo@@	4689
favorite	4688
EU-@@	4687
Gran@@	4686
freely	4685
bia	4685
Lift	4685
7.4	4684
Info	4684
Los@@	4683
uls@@	4683
candidates	4683
ž	4682
carbo@@	4682
rejected	4681
passenger	4680
2,000	4679
MM@@	4679
Item	4679
EEA	4678
Lan@@	4677
spending	4677
specifications	4676
Washington	4676
т@@	4675
revenues	4675
Wash	4674
Danish	4673
individu@@	4673
Tu@@	4672
tet	4671
delegation	4671
ician	4670
Applications	4668
rup@@	4667
custom	4667
RAL	4667
dossier	4665
opia	4665
nov@@	4665
1973	4664
Men	4662
eck	4661
Sha@@	4660
larg@@	4660
ning	4660
150@@	4660
Far@@	4659
ordinary	4659
Everything	4658
vor	4656
ASA	4655
Need	4655
bal	4653
certification	4653
Similarly	4651
ral	4651
Ster@@	4651
aches	4651
Works	4650
sting	4650
sailing	4650
kes	4647
org	4647
Ra@@	4646
Plan@@	4646
C.@@	4643
adhesive	4643
stu@@	4643
loved	4642
tok@@	4641
STAT@@	4641
cia	4640
servants	4640
lowing	4639
premises	4639
OG@@	4638
seemed	4638
igh@@	4638
Medi@@	4637
Nr.	4637
Georgia	4637
perc@@	4637
Fas@@	4636
indi@@	4636
Updated	4634
gathered	4633
Sing@@	4632
managers	4632
habe	4631
wounds	4630
disc	4630
Syria	4626
Vo@@	4625
222	4625
mounted	4624
trains	4624
indicator	4624
generations	4623
338	4622
poin@@	4621
intan@@	4620
solely	4620
XX	4619
plates	4619
transaction	4619
heated	4617
asc	4617
ists	4613
Produ@@	4612
Fati@@	4611
410	4610
theoretical	4610
phenomenon	4610
deg@@	4609
nerves	4608
Orion	4608
sees	4608
foli@@	4608
four-@@	4606
carbonate	4606
april	4606
artic@@	4605
rid@@	4605
11-0@@	4602
Pand@@	4602
encouraged	4601
phases	4601
Learn	4600
illa	4600
cake	4599
sentence	4599
inappropriate	4597
hosts	4597
attend	4595
EF	4594
177	4594
526	4594
themes	4594
time-@@	4592
extensions	4592
valve	4587
vier	4586
Never	4585
5.9	4585
Color	4584
wel@@	4583
isti@@	4583
moves	4582
28-@@	4581
5,000	4581
tightly	4581
Alexander	4580
Prices	4579
bes	4577
1,500	4576
catch	4575
upset	4574
pools	4574
9th	4573
Climate	4572
163	4570
p.	4569
delays	4567
destinations	4567
municipality	4566
aggressive	4565
winner	4561
Being	4561
parks	4560
onn@@	4559
Von	4558
poker	4557
9.6	4557
7.1	4557
82@@	4556
rt@@	4556
apr@@	4555
kar@@	4554
exhibited	4554
astic	4553
uniform	4549
aflo@@	4548
Premium	4547
Don@@	4546
ž@@	4546
Discover	4545
LAS@@	4544
Fo@@	4544
Document	4543
afraid	4543
eder@@	4543
biotechnology	4542
mnt	4541
158	4539
fying	4539
emi@@	4537
veins	4536
refugees	4535
arisation	4535
closing	4534
applic@@	4533
sters	4533
TRO@@	4533
Fair	4528
seed	4528
platz	4528
protecting	4527
IR	4525
noticed	4525
variant	4524
nail	4521
rap@@	4521
boy	4521
assisted	4520
ushes	4520
ally-@@	4519
poisoning	4519
compensated	4518
Significant	4517
echo@@	4517
FIR@@	4516
medium-sized	4516
Circus	4514
tank	4514
ila	4514
Art.	4513
25th	4513
vine	4511
isch	4511
retail	4511
Auto@@	4510
7.8	4510
toric@@	4509
1984	4509
Wel@@	4508
priests	4506
Enterprise	4506
aside	4506
recognize	4506
tech	4505
182	4505
itate	4504
trigger	4504
chen@@	4503
mod@@	4502
enhancement	4502
esi@@	4501
hof	4501
Casino	4501
performances	4501
increments	4501
Lop@@	4500
Innovation	4498
victory	4497
lesser	4496
odynam@@	4495
banking	4493
Archive	4493
varies	4486
aux	4485
Twitter	4483
IE	4483
290	4483
Rob@@	4481
169	4481
ease	4480
Capital	4480
MY@@	4480
275	4479
cros@@	4478
grace	4478
racing	4477
ITY	4477
Ker@@	4477
Antonio	4476
Mark	4476
Sant	4476
plane	4474
eria	4473
83@@	4472
judged	4472
clockwise	4471
straat	4471
lasted	4470
fe	4469
consensus	4468
esta	4468
Gam@@	4467
es.com	4467
compres@@	4467
monetary	4467
evolution	4466
photographs	4466
Atlantic	4465
Operations	4464
tap	4464
computers	4464
Louis	4462
ry@@	4461
ause	4461
weakened	4460
www.qlyque.com	4458
Kitchen	4458
alise	4458
228	4457
cooling	4456
SF	4456
tex@@	4456
passage	4454
attach	4454
brothers	4454
thick	4452
fruits	4452
ZA	4451
Dezember	4450
3D@@	4449
RH	4448
cosy	4447
hes@@	4447
Sab@@	4447
Target	4445
aver@@	4442
delete	4442
Assembly	4442
behavior	4442
calm	4442
10-0@@	4442
Compare	4442
END@@	4441
у@@	4441
veterinarian	4441
crushed	4440
loans	4438
Corporate	4437
Pet@@	4434
1980	4434
autumn	4434
RELEASE	4433
killing	4432
535	4431
federal	4430
IK@@	4429
fes@@	4429
decisive	4429
push@@	4429
Att@@	4428
cem@@	4428
sec@@	4425
2-4	4425
viewed	4423
Peak	4423
28th	4422
jer@@	4422
fallen	4422
138	4421
arity	4420
Text	4420
Wor@@	4420
ovascular	4420
Haz@@	4419
wax	4417
b-@@	4415
producer	4415
spir@@	4413
Sc@@	4412
obviously	4412
ste	4412
lys@@	4411
Incre@@	4411
itated	4410
Thi@@	4409
iod@@	4409
3x@@	4407
Share	4406
aster	4406
Cauc@@	4406
REL@@	4405
pup@@	4405
Save	4405
Lau@@	4404
.co.uk	4404
twenty	4403
medieval	4403
highlights	4401
ok	4400
ase-@@	4400
ail	4399
HO@@	4398
simultaneous	4398
opposed	4395
powered	4395
oter@@	4394
suites	4394
transformed	4394
................................................................@@	4394
fulfilled	4394
engaged	4394
HB	4393
worst	4393
span	4393
Push	4392
92@@	4392
armed	4391
dive	4390
Lady	4389
worry	4388
9.3	4388
iner	4388
beck	4388
Dark	4388
139	4387
Until	4387
Early	4386
Vietnam	4386
GU@@	4384
Shopping	4384
proc@@	4384
demonstrates	4383
Youth	4382
227	4382
164	4382
RP	4382
speakers	4380
stylish	4380
matrix	4379
nea	4379
nau@@	4379
Word	4379
begun	4378
tum	4378
stine	4378
homepage	4378
ambitious	4376
promise	4376
aire	4375
Var@@	4374
unforgettable	4372
novel	4372
usal	4372
Hard	4372
Secretariat	4371
arteries	4371
roots	4371
Judah	4370
Super	4370
aren	4368
www.youtube.com	4366
sheets	4366
cohesion	4365
substitution	4363
Help	4363
seminar	4362
с@@	4362
TP@@	4360
hairdryer	4359
Acc@@	4359
Videos	4358
vegetables	4358
Т@@	4358
Alps	4358
U.	4355
wider	4355
bird	4355
ye@@	4355
60-@@	4354
discrimination	4354
systematic	4354
SAP	4353
Oxy@@	4353
Hill	4352
′	4351
Israeli	4351
sickness	4351
accelerated	4349
solving	4348
1400	4347
husband	4345
remainder	4344
Url	4343
VII	4341
specialized	4339
pr	4339
Sunrise	4335
cent@@	4335
MT	4334
hn@@	4333
ART	4333
A-0@@	4332
asleep	4331
rear	4329
Hong	4329
layout	4329
ß	4328
www.eib.org	4327
www.bibliotecapleyades.net	4326
css	4326
escalation	4325
7-0@@	4325
Thailand	4325
architectural	4324
duties	4324
Fri@@	4323
kilometers	4323
donors	4322
Gold	4321
dig@@	4321
159	4320
communicate	4320
collapse	4320
INST@@	4319
Opera	4319
accurately	4318
ep	4316
operates	4315
Rhe@@	4315
bel	4314
instituted	4314
eh@@	4313
Future	4313
NO	4313
deleted@@	4312
Senior	4311
Cultural	4311
ly-@@	4311
dir	4311
Chest	4309
Sa	4309
2-	4309
returning	4308
cim@@	4308
24th	4305
olig@@	4304
suspended	4304
Rules	4304
vertical	4304
Kong	4304
Charter	4302
Dun@@	4301
otic	4299
Advanced	4299
FI	4299
209	4295
argument	4295
urge	4294
notably	4293
CAN	4292
references	4291
consolidation	4291
dependence	4288
NY@@	4288
7.7	4287
instances	4286
EE	4285
Patent	4285
unwanted	4285
WAR@@	4285
.04.@@	4284
8.4	4284
288	4284
aching	4283
stad@@	4283
F.	4283
Right	4283
224	4283
Rapporteur	4282
separation	4282
gr	4281
Vill@@	4280
Ol@@	4279
Mother	4279
atively	4278
Bil@@	4278
Rest@@	4277
Protein	4275
musicians	4274
suits	4274
316	4274
incorporated	4273
Regulatory	4273
fascinating	4273
G1	4273
cel	4272
118@@	4269
passion	4267
Published	4267
welcomes	4266
PDT	4265
tess	4264
HAR@@	4263
jects	4263
ather@@	4263
HP	4262
shaken	4262
coordinated	4261
caus@@	4260
sali@@	4258
yethylene	4258
geometric	4257
bec@@	4256
thel@@	4256
Argentina	4254
licensed	4253
dropped	4253
cloud	4251
clum@@	4251
sk	4250
MBLength	4250
Islamic	4250
Mechanism	4249
system@@	4248
unfortunately	4247
spontaneously	4246
hid@@	4246
initiate	4245
GPS	4245
charter	4244
zon@@	4243
efficiently	4242
disposition	4242
deeply	4241
39.@@	4240
8.7	4240
tracking	4239
penis	4239
flesh	4238
traces	4237
shalt	4237
527	4236
conflicts	4235
mania	4234
societies	4234
cycling	4233
Wall	4233
continent	4232
Bratislava	4232
12,5	4231
Angeles	4230
Gn@@	4230
pride	4230
ever@@	4230
losses	4229
row@@	4229
Performance	4229
Nordic	4229
yearly	4228
tie	4228
zones	4228
в@@	4227
automation	4227
coverage	4227
witness	4226
Personal	4225
Little	4225
411	4224
Representative	4223
Bath	4223
3.jpg	4223
ceremony	4222
Che@@	4222
connecting	4221
xi	4219
Series	4218
PON@@	4217
tight	4216
surprise	4216
yeast	4213
una	4213
ving	4213
adrenaline	4213
297	4213
kon@@	4212
Usually	4212
OD	4211
Immuno@@	4210
shoes	4210
fathers	4210
labor	4210
Born	4209
Sup@@	4209
Moder@@	4208
ority	4207
uck	4207
remarkable	4206
clubs	4205
variables	4205
spite	4203
exhibit	4202
dev@@	4202
neutral	4201
servers	4201
encing	4200
Anna	4200
photography	4200
attained	4197
implications	4196
cognitive	4196
ün@@	4196
Point	4196
towels	4196
34-@@	4195
inating	4194
assurance	4194
cuts	4194
Zürich	4194
childhood	4193
Maybe	4193
holes	4192
calculate	4192
vis	4192
0200	4192
arrange	4191
br	4191
taxonomy	4191
precious	4190
perception	4190
radical	4189
50,000	4188
combining	4188
440	4188
8.6	4185
363	4185
199	4185
Winter	4185
Yahweh	4185
wearing	4184
Indonesia	4183
acknowled@@	4182
diminished	4181
tility	4181
lifts	4179
db@@	4179
14,@@	4178
evaluating	4177
schon	4177
sandy	4177
ran	4177
zing	4177
circle	4176
sights	4176
placing	4176
anim@@	4176
Up@@	4176
Sac@@	4173
223	4172
upside	4172
arrangement	4171
RT	4170
340	4170
Gab@@	4169
chemicals	4169
Ze@@	4168
rox	4168
327	4168
mo	4167
blood-@@	4166
inter-@@	4166
Statistic	4165
WTO	4165
normality	4165
ld@@	4164
235	4163
mandate	4163
Print	4162
imagine	4162
Ox@@	4160
er.@@	4157
457	4157
picturesque	4157
virtually	4156
illnesses	4156
dryer	4155
senal	4155
caught	4154
soldiers	4153
398	4153
pulse	4152
48-@@	4152
ducing	4152
UV	4151
aggression	4150
rely	4150
rella	4150
Direktlink	4150
atec	4150
describes	4147
diving	4147
Tab	4146
constructed	4145
tv	4143
Richard	4142
deadline	4141
Register	4141
GT	4141
integrate	4141
470	4140
draw@@	4139
Released	4138
loan	4137
Cil@@	4137
vacuum	4137
7.6	4135
believes	4134
ack	4134
W.	4133
Exchange	4132
Cathedral	4132
economies	4131
w-@@	4130
prison	4129
garage	4128
Sel@@	4128
transfers	4128
XS	4128
19-@@	4128
RON@@	4127
puts	4127
Transi@@	4125
rabbit	4124
grew	4124
corruption	4123
Author	4123
www.mogelpower.de	4123
nal	4123
9.0	4123
Wolfgang	4120
Train	4120
viewing	4119
warranted	4119
1250	4119
vitamins	4118
Multiple	4117
pub@@	4117
Ein	4116
Vitamin	4116
pollution	4116
MD@@	4115
ge-@@	4114
Overview	4113
paste	4113
189	4113
RD	4113
366	4113
axis	4112
yesterday	4112
servant	4111
magnitude	4111
Rio	4111
---	4111
restructuring	4110
resumed	4110
irreversible	4109
summarised	4108
waves	4107
tag@@	4106
Hello	4105
suggestions	4105
Mountains	4105
Pag@@	4105
17-@@	4105
check-in	4105
Out	4103
drives	4103
therm@@	4103
BA	4102
Storage	4102
observations	4102
а	4101
enhanc@@	4101
3,000	4101
480	4100
prolong	4099
Framework	4099
RS@@	4099
breakfasts	4099
Rotterdam	4098
FC	4098
9.7	4098
Opening	4097
Rating	4096
Den@@	4096
256	4095
horizontal	4094
Hen@@	4094
prime	4093
of-@@	4092
-25	4092
ame@@	4092
emission	4092
staying	4091
ssd	4090
prompt	4089
assium	4089
excursions	4089
hi	4088
magic	4088
iPod	4087
boost	4087
tub	4086
stadt	4086
foam	4085
sunny	4080
Concer@@	4080
280@@	4080
BP	4079
Dear	4079
pkoehn	4079
site-crawl	4079
supplementary	4078
unacceptable	4076
replication	4075
Bonn	4075
AK@@	4074
B-0@@	4074
Apply	4074
191	4073
tiny	4073
TRE@@	4073
Bern	4072
Strength	4068
01-@@	4066
unclear	4065
yield	4065
idence	4064
YS	4064
407	4063
intelligent	4062
Mallorca	4062
pushing	4061
ow	4060
Black@@	4060
Comm@@	4058
pair	4058
CAL@@	4058
Sw@@	4057
Holding	4057
264	4056
Kor@@	4056
graf	4054
Nev@@	4054
Farm	4053
UB@@	4052
Does	4051
humanity	4051
add@@	4050
interference	4049
chy@@	4049
sunset	4049
pon@@	4048
ó	4048
www.vidc.org	4044
repe@@	4044
.eu	4044
Wort	4043
Third	4043
Five	4043
ultimately	4043
sten	4042
Copenhagen	4042
weighed	4042
sympath@@	4042
mandatory	4040
mirror	4039
bicycle	4036
wing	4036
Diego	4035
Repe@@	4034
passive	4034
www.blogigo.de	4034
excluding	4033
married	4032
Insert	4031
Refer@@	4031
enemies	4030
Quick@@	4030
ony	4030
251	4029
offset	4029
headquarters	4028
OK	4028
aking	4026
EMI	4025
ir-@@	4024
trails	4024
Bol@@	4024
Village	4022
overlooking	4022
243	4022
Am	4021
Shake	4020
stor@@	4020
aton@@	4020
knee	4019
branches	4018
Lou@@	4018
subsidiary	4018
Collection	4018
hospitality	4018
Inspec@@	4017
aging	4017
independently	4017
widespread	4016
calves	4014
27-@@	4014
Ga@@	4013
Database	4012
panels	4012
devoted	4011
υ@@	4010
T.	4009
thesis	4009
ali	4009
editor	4009
eliminate	4009
OTHER	4008
.cz	4007
Sen@@	4007
wieder	4007
Helsinki	4007
406	4007
psychological	4006
Morocco	4005
Library	4004
383	4002
1983	4002
actors	4001
activate	4001
cabin	4001
interactive	3999
aluminum	3999
ω@@	3998
Cou@@	3998
Gilead	3998
BAT@@	3997
1981	3997
dion	3997
ECU	3996
flows	3996
º	3994
Hom@@	3994
alian	3994
Messe	3994
newsletter	3994
District	3991
restriction	3990
ceiling	3990
y.@@	3989
designer	3989
sponge	3989
sized	3988
⋅	3988
proliferation	3987
р@@	3985
complement	3985
water-@@	3985
м@@	3984
personality	3983
intelligence	3983
dly	3982
busy	3982
dren	3982
asm	3980
Kol@@	3980
behold	3979
pp@@	3978
pad	3977
337	3974
reputation	3973
Euros	3971
engage	3970
352	3968
ards	3968
Race	3968
Tuscany	3968
jaw	3968
focuses	3966
179	3965
flush	3965
^	3965
cancellation	3965
Jean-@@	3964
Metro	3961
sins	3961
no-@@	3961
Foto	3958
spheres	3957
š	3957
10.00	3957
Pin@@	3957
compete	3957
228@@	3956
293	3956
herself	3956
455	3955
können	3954
ility	3954
molecules	3954
wisdom	3953
focusing	3952
Stop	3952
haven	3952
Ab	3951
Zealand	3949
Material	3948
249	3948
ideally	3947
nu@@	3946
ethnic	3946
conservation	3946
Pic@@	3945
remind	3945
vel@@	3945
mere	3945
376	3943
None	3940
vation	3939
enemy	3938
amenities	3938
Van	3938
cows	3936
Newspapers	3936
。	3936
sen-@@	3936
But@@	3935
substitute	3935
minority	3934
pressed	3933
occupied	3933
Managing	3933
0100	3932
2x@@	3931
ques	3931
Electro@@	3929
Below	3929
ello	3928
1982	3928
ensured	3928
a.htm	3928
DF@@	3928
.......	3927
CB@@	3927
losis	3926
celebrated	3926
ush@@	3924
dea	3924
contributing	3922
Pom@@	3922
ice-@@	3921
Dep@@	3920
donation	3920
atch	3920
guia	3918
databases	3918
ELISA	3918
alities	3917
Compared	3916
academic	3916
ð@@	3915
Forest	3914
belief	3914
ère	3912
yours	3912
rows	3911
ices	3911
acea	3910
til@@	3909
immigration	3907
fisheries	3907
pet@@	3907
abilities	3907
necessity	3906
lovers	3905
fabric	3905
fur	3905
repeatedly	3905
rated	3905
satisfy	3904
equality	3902
esses	3902
sharp	3901
Xen@@	3900
play@@	3900
laying	3900
painted	3898
267	3898
abrup@@	3897
540	3896
Pacific	3896
Democrats	3893
204	3893
237	3892
ister	3890
innovations	3890
	3889
ling@@	3888
for-@@	3888
farms	3887
ONLY	3887
antagon@@	3887
zan@@	3887
Scale	3886
sus@@	3886
9.9	3886
yellow@@	3885
Death	3884
consisted	3883
PRES@@	3883
425	3882
invest	3881
paint	3880
........	3880
rays	3880
thes@@	3880
173	3878
148	3877
Kno@@	3877
nodes	3876
lec@@	3876
chaired	3876
UTE	3875
Chile	3873
Finnish	3871
residents	3871
backing	3871
executive	3870
Jacob	3870
know-how	3870
HE@@	3870
nen	3870
341	3869
Red@@	3867
261	3867
tumblr.com	3866
Praha	3866
year-old	3866
Spr@@	3865
Verlag	3865
dan@@	3865
www.immobilsarda.com	3865
Well@@	3862
ala	3862
ert@@	3861
capabilities	3860
Frank	3860
TC	3859
uncomplicated	3857
expressing	3856
rica	3856
strips	3856
sne@@	3856
Users	3856
maize	3856
Foc@@	3855
excl.	3855
CLUS@@	3854
oul@@	3853
Mis@@	3853
tailored	3851
zen@@	3851
hon@@	3851
eca	3851
img@@	3851
exceeds	3850
sophisticated	3849
Floor	3849
icated	3845
strengthened	3844
moon	3844
Pir@@	3844
Stom@@	3842
ve-@@	3842
deficient	3841
struck	3841
polyester	3840
risk-@@	3840
Respon@@	3840
Singapore	3840
irrespective	3839
belt	3839
Ε	3838
hard@@	3838
Golden	3838
Mul@@	3837
194	3836
anlass	3836
delegates	3833
Southern	3832
Buc@@	3832
ows	3829
Rab@@	3828
organize	3827
oring	3827
alongside	3827
guitar	3827
Clean	3827
Especially	3827
guides	3826
Exc@@	3826
super	3825
Han@@	3825
mileage	3825
Tax	3824
trad@@	3824
31-@@	3823
Universität	3823
Summit	3823
Bron@@	3823
naive	3823
golden	3822
Musik	3821
rin	3821
atically	3820
apple	3820
7.3	3820
ao	3820
profound	3818
reservoir	3818
respected	3818
welcoming	3818
ele	3817
GI	3817
Cup	3817
bands	3817
DS@@	3816
287	3815
benef@@	3814
block@@	3814
32.@@	3814
fen	3814
jo	3813
296	3813
mich	3812
Hall@@	3811
edi@@	3811
12-0@@	3810
alarm	3810
Oh	3810
Di	3810
hazardous	3809
alist	3809
teen	3807
theter	3807
dat@@	3806
232	3806
immer	3806
heading	3806
itz	3805
feld	3805
etc.	3805
tz	3804
Bos@@	3803
finishing	3802
pel	3802
procurement	3802
Vit@@	3802
154	3801
wasn	3800
ately	3800
plaque	3799
precautionary	3799
317	3799
Kre@@	3798
dating	3798
Europeans	3798
Mass	3796
ained	3796
15,@@	3795
stunning	3795
per-@@	3794
wonder	3794
PLUS	3794
immobilsarda.com.2015-12-05	3794
IB	3791
printer	3791
Hz	3790
Bay@@	3790
Jahr	3790
Hannover	3789
45-@@	3789
monuments	3789
hibi@@	3787
moral	3787
atan	3787
w.@@	3784
omer	3784
112@@	3784
Reconc@@	3783
favourite	3783
challenging	3782
Dol@@	3781
o.com	3781
blast	3780
Sti@@	3780
Ther@@	3780
upgrade	3780
6-0@@	3780
hil@@	3779
Parties	3778
attributable	3777
real@@	3777
altar	3776
Ed	3776
ved	3775
vineyards	3775
blu@@	3774
Ds	3773
enberg	3772
celebrate	3772
invention	3771
5.00	3771
AA	3770
10000	3770
evaluations	3770
Fond@@	3769
ulin	3766
248	3766
2B@@	3765
FA	3765
mec@@	3764
ake	3764
County	3762
fulfil	3762
laundry	3762
GES	3761
9.1	3760
Clear@@	3759
diff@@	3759
protects	3758
TION	3757
VEBEG	3757
alm	3757
ei	3756
luxurious	3756
Inc@@	3756
ete	3755
hast	3754
Actually	3754
н@@	3753
enters	3752
exclusion	3752
person@@	3751
186	3749
External	3748
cross-border	3748
Sustainable	3745
selecting	3744
GO	3744
13.11.2016	3744
crimes	3744
obliged	3744
extrac@@	3744
breeds	3744
employee	3743
counter@@	3742
besides	3742
Schweiz	3742
kings	3741
269	3740
thread	3739
Easy	3737
kt	3737
onwards	3736
257	3735
berry	3735
wire	3734
buff@@	3733
tionally	3733
farm@@	3733
exc@@	3732
differently	3732
Und	3732
Belgian	3731
Shower	3730
380	3730
Solar	3730
atics	3730
assistant	3730
Perhaps	3726
ë@@	3726
By@@	3726
techn@@	3725
HOME	3723
ulated	3723
DIN	3723
warmth	3722
Mad@@	3722
Im	3721
è	3721
rela@@	3721
Wo@@	3720
Written	3719
specify	3719
gri@@	3718
palace	3717
Need@@	3717
convenience	3717
PAT@@	3717
collections	3717
sensory	3715
stakeholders	3715
217	3715
70-@@	3715
borne	3714
imposed	3714
49-@@	3714
Fill	3714
lia	3714
headed	3713
'd	3711
Spring	3711
AI@@	3711
parliamentary	3710
Resistance	3709
judgement	3709
makers	3709
22-@@	3709
QUOTE	3708
pursuant	3707
Return	3707
postal	3707
Midd@@	3705
Android	3704
orm	3703
termination	3703
complaints	3702
418	3702
correspond	3701
ware	3700
RC	3700
metro	3700
adds	3700
developers	3700
chicken	3700
beside	3700
292	3698
Items	3698
she@@	3697
embos@@	3697
prospective	3696
checks	3696
Mes@@	3696
politicians	3695
Eth@@	3695
225@@	3695
bling	3694
Situated	3693
Mail	3693
lers	3692
enjoying	3692
323	3691
Gor@@	3691
8.9	3691
intermedi@@	3691
Rate	3690
gene@@	3689
RS	3689
harmony	3689
Camping	3688
sister	3687
lo-@@	3687
over-@@	3686
Relations	3686
liner	3685
chat	3684
Indi@@	3684
Vision	3683
OB@@	3683
prevalence	3682
adaptation	3682
sein	3682
lowered	3681
contributes	3681
198	3679
crossing	3678
mobil@@	3678
Dom@@	3678
Leg@@	3677
ulating	3677
Pierre	3676
8.00	3675
26th	3674
mur@@	3674
idol	3673
Tower	3673
pes@@	3673
Wall@@	3672
Secondary	3672
life@@	3672
cel@@	3670
Duo	3670
fluctuations	3669
ress	3669
paying	3668
ã@@	3668
melan@@	3667
infiltr@@	3666
locked	3665
cleaned	3665
lad@@	3665
mount	3665
grid	3664
Og	3664
dorf	3663
show@@	3662
Bou@@	3661
Secondly	3661
315	3660
chocolate	3660
Gon@@	3659
shield	3659
automated	3659
ii	3656
sules	3656
dress	3655
transported	3655
jpg	3654
COR@@	3653
Open@@	3653
graduated	3651
xy	3650
divine	3650
Haus	3650
ultimate	3648
teach	3646
Activity	3646
png	3646
cameras	3646
fort	3645
Dur@@	3645
accommodate	3644
pro-@@	3644
accessed	3644
elsewhere	3643
onally	3641
fireplace	3641
dish	3640
27th	3640
motor@@	3639
Ps	3639
drawings	3638
Construction	3638
anymore	3637
festivals	3636
Communities	3636
welfare	3636
gear	3635
progres@@	3635
inherited	3635
Mid@@	3634
authentic	3634
IVE	3633
♦	3632
sword	3632
tunnel	3632
affordable	3631
H2	3628
epo@@	3628
20,000	3627
72@@	3627
wind@@	3627
Serbia	3626
absent	3626
Medium	3626
Survi@@	3626
schedules	3625
Harmon@@	3624
symbols	3623
325	3622
Tag	3622
installing	3622
marking	3621
frames	3621
fi	3620
jointly	3620
Bremen	3619
Publications	3617
awards	3617
υ	3616
liable	3616
salmon	3615
rob@@	3614
mark@@	3614
oned	3613
delighted	3613
pipe	3612
Drugs	3611
Afghanistan	3610
SIA	3610
recruitment	3609
She@@	3607
preceding	3607
hostel	3606
abil@@	3606
coastal	3606
Ç@@	3606
necess@@	3605
Pop@@	3605
WE@@	3605
climbing	3605
washed	3603
tape	3603
faint	3602
fem@@	3602
Industri@@	3602
00AM	3602
2500	3601
universe	3600
bikes	3600
fung@@	3600
della	3597
motorway	3596
salts	3596
omo@@	3596
engineers	3595
delta	3595
inst@@	3595
united	3595
voluntary	3594
Translation	3594
345	3593
utility	3593
black@@	3592
Ade@@	3591
Nu@@	3590
It@@	3590
1970	3590
iss@@	3590
markedly	3590
trauma	3589
casino	3589
senior	3588
Books	3588
jes@@	3587
couldn	3586
featuring	3586
enhancing	3586
1979	3586
smokers	3585
soci@@	3585
XXL	3584
determining	3584
discussing	3583
precip@@	3583
Us	3583
crying	3583
sle@@	3582
encouraging	3582
tear	3582
271	3582
ances	3581
onian	3581
physiological	3581
Question	3580
ku@@	3579
alt@@	3579
Premiere	3579
sensations	3578
expanding	3578
pa	3578
audit	3577
cinema	3577
flav@@	3576
optimised	3576
tele@@	3576
Format	3574
chan@@	3574
posi@@	3573
oms	3573
Moonrise	3573
earn	3572
Stefan	3572
Privacy	3572
Kosovo	3572
über@@	3571
strike	3570
polymer@@	3569
defend	3569
1978	3569
fixing	3568
watching	3567
GP@@	3567
anda	3567
boat-@@	3566
modifying	3566
las	3566
seriousness	3565
lakes	3564
segments	3564
Cros@@	3563
maker	3562
administrations	3562
promised	3562
edited	3562
Moonset	3562
gross	3560
electronics	3560
amber	3559
annually	3558
reader	3557
Mun@@	3557
justifies	3557
Oslo	3556
Core	3556
buses	3556
presidency	3556
Guid@@	3555
Economy	3555
aring	3551
dg@@	3551
vi	3550
schemes	3550
examinations	3550
Queen	3550
reconstruction	3549
brow@@	3548
chose	3548
ther	3548
crew	3547
Wa@@	3547
ela	3546
kitchenette	3546
restoration	3545
listening	3545
POW@@	3544
LCD	3544
283	3544
consolidated	3544
molecule	3543
thorough	3543
210@@	3542
sensors	3542
ava	3541
prohibited	3541
9-0@@	3541
marker	3541
EG	3539
Y-@@	3539
bool	3539
asylum	3538
incorrect	3538
air-conditioned	3538
vicinity	3537
by-@@	3536
premium	3536
OD@@	3536
XXX	3536
ati	3534
--------@@	3534
postponed	3533
camping	3533
Kam@@	3532
dominant	3532
ter-@@	3532
dep@@	3532
ucc@@	3531
Rh@@	3530
invalid	3530
asian	3529
flying	3529
408	3528
ight	3528
1944	3527
survived	3527
ams	3526
nes	3526
bunk	3525
worm	3525
speaks	3524
6.9	3523
Draw	3522
insight	3522
refused	3522
preserve	3522
rev@@	3521
congratulate	3519
9.2	3517
orie	3517
332	3515
rotated	3513
ocean	3512
sign@@	3511
Hist@@	3511
wenn	3510
ican	3509
graph	3509
Around	3509
infringement	3508
1975	3508
ILE	3508
seminars	3507
sick@@	3506
lip	3505
dialog	3505
Alcohol	3505
inquiry	3503
bandliste.de	3503
vec@@	3502
forums	3502
Coins	3502
palms	3502
Isol@@	3501
IMG	3501
wich	3500
boys	3500
Kat@@	3498
Employment	3498
BMW	3498
selector	3497
AND@@	3497
Label	3497
Heads	3497
worms	3496
allergies	3495
boot	3494
Albert	3494
Subject	3494
pensions	3493
ought	3493
y.	3493
raising	3492
superficial	3492
conscious	3492
ji@@	3492
inv@@	3491
Otherwise	3491
Jordan	3491
Karl	3490
shed	3490
spe@@	3490
degradation	3488
yard	3487
en.wikipedia.org	3487
Linz	3487
Česk@@	3487
mamm@@	3487
midst	3486
Air@@	3486
Fon@@	3485
eternal	3485
conf@@	3484
disappeared	3484
432	3484
discovery	3483
taxi	3483
215@@	3482
32-@@	3482
TV@@	3481
opt	3480
signature	3480
Bundes@@	3479
Repeat	3479
down@@	3479
1800	3479
faithful	3478
dol@@	3478
exercises	3476
liche	3476
constitutes	3476
pass@@	3476
pairs	3475
Immediately	3474
aan	3474
Wilson	3474
day@@	3473
53.@@	3473
knowing	3473
www.penilefitness.com	3472
arely	3470
interpreted	3470
Tools	3469
pursue	3469
limitations	3468
correlation	3468
cf@@	3467
265	3466
translations	3465
Customers	3464
Dolomites	3463
Dé@@	3463
Process	3462
dairy	3462
highlighted	3462
Bov@@	3461
beam	3460
Record	3460
401	3459
mining	3458
CAM@@	3458
read@@	3457
TEN@@	3456
Köln	3456
Bridge	3456
Nel@@	3456
chi	3455
alles	3455
inging	3454
É@@	3454
wheels	3454
accounted	3454
alteration	3453
Off@@	3453
Enter	3451
litre	3451
181	3450
likelihood	3448
missions	3448
settled	3447
enclosed	3447
SER@@	3446
han	3446
gover@@	3446
salvation	3446
cher@@	3445
Tom	3445
embryo	3444
structured	3444
seit	3444
e.htm	3444
pushed	3443
ler@@	3443
198@@	3443
hl	3442
feels	3442
incorporation	3442
gambling	3442
dos	3442
Cu@@	3441
Eur@@	3440
Force	3439
Behold	3439
finalised	3438
Panel	3437
short-@@	3437
Hil@@	3436
olo	3435
competitors	3435
centr@@	3431
Watch	3431
landscapes	3431
honour	3430
panic	3429
stal@@	3429
X-ray	3429
Cin@@	3429
Mount	3428
409	3428
integrity	3427
sphere	3427
snack	3427
456	3427
optical	3426
Buy	3426
Rever@@	3425
platforms	3425
Remember	3425
22nd	3424
specification	3424
10.5	3424
exclude	3423
barbecue	3423
dispersion	3423
Delivery	3422
surgeon	3422
Short	3421
seating	3420
liked	3420
concentr@@	3420
desktop	3419
node	3419
Coast	3419
isActive	3419
terrorist	3418
hygiene	3417
clouds	3417
FT	3417
notification	3417
collagen	3417
joining	3417
regulated	3415
y.com	3415
1050	3414
chances	3414
searching	3414
womb	3414
Would	3413
rivers	3413
∞	3413
counted	3412
creativity	3412
AE	3412
499	3411
choosing	3411
Log@@	3410
alis	3410
Jobs	3409
Germans	3409
practically	3409
`@@	3409
Edit	3408
gather	3408
achievements	3406
Dam@@	3406
proximity	3405
NU@@	3405
info@@	3405
LAN	3405
Welt	3404
gs	3404
313	3403
overload	3403
Java	3403
milestone	3402
OM	3401
sho@@	3401
Printing	3401
duction	3401
translation.php	3400
Kit	3399
PI@@	3399
admin	3399
pil@@	3397
ements	3396
tella	3396
03.05.2016	3395
Higher	3394
Civil	3393
demonstrating	3392
actor	3392
Tom@@	3392
disaster	3391
approximate	3391
checking	3391
valent	3391
cache	3390
U-@@	3388
Slovak	3387
formally	3386
Orange	3386
ust	3385
barrel	3385
berg@@	3385
poorly	3384
allocated	3383
comprised	3383
handed	3382
keyboard	3379
lid	3379
environments	3379
Playa	3378
Tours	3378
sional	3377
Islam	3377
ect@@	3377
RC@@	3377
197	3377
s1600	3376
MAL@@	3375
Sep@@	3373
Oil	3373
human@@	3373
.info	3373
folk	3373
reflection	3372
Organization	3371
peti@@	3370
999	3370
jump	3370
ense	3370
cz@@	3369
referring	3368
Olympic	3368
Supervisory	3367
Monte	3366
ven	3366
relaxed	3365
Orchestra	3364
180@@	3364
17,@@	3364
ín	3363
mounting	3363
On-site	3362
dispos@@	3362
finden	3361
Kent	3361
deficit	3360
consumed	3359
silent	3359
Ü	3358
ía	3358
www.amarillasaustin.com	3358
venture	3358
cylinder	3357
foundations	3357
writer	3356
uncertain	3354
speaker	3354
EST	3353
rer	3352
178	3352
364	3352
funded	3350
Franz	3350
Ocean	3350
theater	3348
Rad@@	3348
metre	3347
Cham@@	3347
Prec@@	3346
decoration	3346
ceramic	3346
Tip	3345
downloaded	3345
styles	3345
295	3344
520	3344
tr	3344
BE@@	3344
mistake	3343
Converter	3343
pets	3342
amm@@	3342
www.k@@	3341
64-bit	3340
grades	3339
tournament	3339
enting	3339
DG	3338
governing	3338
terior	3337
Ι@@	3337
questionnaire	3337
Wo	3337
commit	3336
Notes	3335
indicative	3335
loop	3335
Mut@@	3335
Nic@@	3334
Later	3334
241	3334
emp@@	3334
illary	3334
Brit@@	3333
Hier	3333
2,5	3333
disciples	3332
Lyme	3332
29th	3332
lit	3331
breathe	3331
Again	3331
NATO	3331
ownership	3330
relates	3329
pig	3329
SAF@@	3329
Michel	3329
Front	3329
altitude	3329
Š@@	3329
José	3328
eri	3328
Odgovor	3327
Sud@@	3327
Wit@@	3326
E.@@	3326
veness	3325
OG	3324
254	3324
Message	3324
ush	3324
hrs	3323
obesity	3322
unions	3322
litter	3322
ester	3322
Adobe	3321
dra@@	3321
TW@@	3320
smell	3320
XML	3320
193	3320
gall@@	3319
EM	3319
Problem	3318
Times	3318
retain	3315
sampling	3315
1976	3314
Consider@@	3314
Pure	3314
lamp	3314
barriers	3313
gen-@@	3312
.it	3312
iPad	3312
625	3311
panc@@	3311
Recommended	3311
rapporteurs	3311
farming	3309
Palma	3309
Suites	3307
Smart	3306
21.0@@	3306
390	3305
.png	3305
Ket@@	3304
stressed	3304
Ü@@	3304
vocational	3303
invitation	3303
readers	3303
tax@@	3303
PB@@	3303
designers	3302
Harbour	3302
unter@@	3302
10.0	3302
instantly	3302
twin	3301
Bild	3301
ф@@	3301
buffer	3301
Prac@@	3300
Property	3300
In-@@	3300
achievement	3300
vegetable	3299
slide	3299
buying	3299
ania	3298
unaffected	3298
ppm	3298
serial	3298
introducing	3297
paradise	3297
bly	3297
lively	3296
252	3296
bass	3296
decentralised	3296
23-@@	3296
judicial	3295
realistic	3295
organism	3295
commission	3294
Trading	3294
occupation	3293
deck	3293
Ä@@	3293
.files.wordpress.com	3293
lifestyle	3292
graduate	3292
Catalonia	3292
iliary	3292
Ads	3291
query	3290
extraction	3290
Allow	3289
plastics	3289
ence-@@	3289
Unter@@	3287
failures	3286
phones	3285
charm	3285
lacking	3284
Mur@@	3283
Bab@@	3281
uma	3280
ener	3278
camps	3278
exports	3277
Bag@@	3277
ophthalm@@	3277
manually	3276
2.00	3275
timely	3274
mares	3273
hasn	3272
fri@@	3272
ort	3271
lamps	3270
prominent	3270
Trial	3270
reflecting	3270
266	3270
institute	3269
imer	3269
Concept	3269
spec@@	3268
shareholders	3268
Made	3267
sche	3267
packaged	3266
Sm@@	3266
eller	3266
marriage	3265
decides	3265
fails	3265
www.gstadt.de	3264
mercy	3264
acquire	3263
photocopying	3263
criticism	3263
bulk	3263
saith	3263
Built	3262
pot	3262
recipes	3262
Value	3261
rhe@@	3260
dre@@	3259
sand@@	3259
article.php	3259
darkness	3258
home@@	3258
hur@@	3258
walks	3258
crawler	3258
buttons	3257
Classic	3257
Bed@@	3257
visa	3257
Cos@@	3257
vice	3256
lag@@	3256
WITHOUT	3255
Cape	3255
19,@@	3255
ICS	3254
clam@@	3253
imbalance	3253
DI	3253
Introduction	3252
addressing	3252
clinic	3251
batteries	3251
heavily	3251
Hampshire	3251
familial	3251
1-	3250
eps	3250
Vice-President	3249
ished	3248
nin	3246
GB@@	3246
Contro@@	3246
esc@@	3246
coordinate	3245
executed	3245
AAAAAAAA@@	3244
Case	3244
Jahre	3244
ires	3243
crush	3242
shore	3242
244	3241
307	3241
invites	3241
tiles	3241
tropical	3240
Sailing	3240
worship	3238
475	3238
23rd	3238
luck	3237
Benelux	3236
Sau@@	3236
Vacation	3234
athy	3233
ik	3232
Amendment	3232
Hostel	3231
decision-making	3231
warranty	3230
ounding	3230
Almost	3230
wat@@	3229
ranking	3228
enjoys	3228
shi@@	3228
SI	3227
definitive	3226
Band	3226
secured	3226
proportions	3226
warrant	3226
apparently	3225
Meg@@	3224
Dal@@	3224
ound	3224
airports	3222
composer	3222
262	3222
pl	3221
aks	3220
login	3219
alternatives	3219
Attention	3218
DB@@	3218
Stand	3218
oning	3218
crystal	3218
pace	3217
easiest	3217
Compl@@	3216
organise	3215
shadow	3214
9.8	3214
evalu@@	3214
beats	3213
Green@@	3213
16,@@	3212
undertake	3212
fairly	3212
yer	3212
constitutional	3211
Still	3211
Pon@@	3211
Karlsruhe	3210
Mwst	3210
zzgl	3209
Glass	3209
Malaysia	3208
Shanghai	3208
Ep@@	3208
Walter	3207
accomplished	3207
plenary	3207
226@@	3207
20,@@	3206
Ano@@	3206
ady	3205
experiment	3204
NE	3204
и	3203
forever	3203
Pick	3203
Airlines	3202
filters	3202
equity	3201
Pictures	3201
formulated	3200
Aden@@	3199
particle	3199
minibar	3199
en.html	3199
aya	3199
icht	3197
playground	3197
inform@@	3197
Hallo	3197
geographical	3196
fraud	3196
Images	3196
JO@@	3196
publish	3195
Cats	3195
guys	3194
Biotechnology	3193
quote	3192
SQL	3192
proposes	3192
founder	3192
light@@	3191
1A	3191
Round	3190
2D	3190
accidents	3189
Stability	3189
varieties	3189
Regulations	3188
277	3188
Nas@@	3187
adjustable	3187
uck@@	3186
Jos@@	3186
succeeded	3186
Competition	3186
Johann	3185
Wellness	3185
proprietary	3184
bli@@	3184
¤	3184
Heritage	3184
lag	3183
gains	3183
246	3183
kil@@	3183
confused	3182
hort	3182
Ide@@	3182
FORM	3181
backup	3181
qualities	3181
sciences	3180
multiple-@@	3180
completing	3179
ume	3179
Abraham	3179
Spe@@	3178
scenes	3177
networking	3177
reinforced	3176
Jihlava	3176
Cube	3175
Differ@@	3175
ANT	3175
197@@	3175
incomplete	3175
ond@@	3173
iter@@	3173
Scre@@	3172
monastery	3172
flora	3171
inspiration	3170
ration	3170
inees	3170
Certain	3170
stocks	3169
desert	3169
injuries	3168
compas@@	3167
resume	3167
bir@@	3167
ached	3166
240@@	3165
Chicago	3165
prisoners	3165
cargo	3165
crises	3164
textile	3164
272	3162
ī	3162
NJ	3161
erotic	3161
intox@@	3161
setup	3161
7000	3161
vering	3161
ature	3160
writes	3160
stin@@	3160
integral	3160
placement	3158
recycling	3158
cups	3157
ista	3157
pharmacy	3155
e.V.	3154
2000-@@	3154
codes	3154
P.@@	3153
elast@@	3153
rinse	3153
pt	3152
tism	3152
347	3152
BW@@	3151
Jean	3151
sanctions	3151
ple	3151
downtown	3150
build-up	3149
realise	3149
Warsaw	3149
degeneration	3149
ged	3148
Empire	3148
pet	3147
surcharge	3146
retained	3146
nobody	3145
Entertainment	3145
matches	3145
flag	3144
grand	3144
Component	3144
investigating	3144
legally	3144
Beijing	3143
abortion	3142
Mark@@	3142
Fal@@	3141
declined	3140
Individual	3140
exploitation	3139
Per	3139
Riviera	3139
Original	3139
authorized	3138
Constitution	3138
Tet@@	3138
structurize	3137
Beginning	3136
scenery	3136
stitute	3135
blend	3135
grass	3135
officer	3135
capitalist	3134
.00	3134
¶	3133
ή@@	3133
VO@@	3133
Holland	3132
Water@@	3131
pour	3130
dé@@	3130
Informationen	3130
Partners	3130
LT@@	3130
thick@@	3130
isa	3129
upload	3128
hosted	3128
departments	3128
energies	3128
Minimum	3127
ole@@	3126
fitting	3126
Nat@@	3126
Glu@@	3125
conversation	3125
fats	3125
xes	3124
Du	3124
liber@@	3123
new-@@	3122
tile	3122
worthy	3122
soya	3122
JavaScript	3121
CF@@	3121
outlined	3120
Verfasst	3120
emerg@@	3120
obstacles	3120
matching	3120
slower	3119
objections	3119
www.google.com	3118
220@@	3118
awaited	3118
Hospital	3118
decade	3117
Auf@@	3117
367	3117
courage	3116
neighbouring	3116
pre	3116
tering	3115
Browse	3115
analytical	3115
ain-@@	3115
Unless	3114
1-3	3114
Alert	3114
geht	3114
measurable	3113
Muslim	3113
б@@	3112
scans	3112
Ñ@@	3112
purple	3112
ante	3111
behavi@@	3111
architect	3111
Neither	3110
cauti@@	3110
mam@@	3109
failing	3109
oli	3108
Vilnius	3108
modular	3108
nav@@	3107
365	3107
moodle	3107
possess	3107
dry@@	3107
BB@@	3105
oric	3105
Province	3105
ups	3105
atom@@	3105
succeed	3105
impotence	3104
ining	3104
Dev@@	3103
taxation	3103
W-@@	3102
adver@@	3101
promotes	3101
oils	3101
fastest	3101
troops	3101
Authorities	3101
Te	3100
altogether	3100
durable	3100
sco@@	3100
neue	3099
Peru	3099
Strasbourg	3099
344	3098
Split	3097
solo	3096
M.@@	3096
0,00	3096
stan@@	3095
N.@@	3094
pop	3094
par	3094
doubled	3093
lifetime	3093
interventions	3092
economical	3092
333	3092
freight	3091
stretch	3091
substitutes	3088
god	3088
dieser	3088
Theatre	3088
silicon	3087
Excellent	3085
ables	3085
abolic	3085
cra@@	3084
Α	3083
PU@@	3083
enforcement	3083
atori@@	3083
lau@@	3083
ministers	3083
contr@@	3083
telling	3082
state@@	3082
4,000	3080
founding	3079
avoiding	3079
bg-bab	3079
thine	3078
circul@@	3077
cult	3077
than@@	3077
Interior	3076
gew@@	3076
systematically	3076
chains	3076
ENTS	3076
courtyard	3076
tival	3076
sacrifice	3075
tru@@	3075
mill	3074
persists	3074
pill	3074
Essen	3072
Fast	3072
Back@@	3072
29-@@	3071
financed	3070
recommending	3070
continually	3069
commun@@	3069
lobby	3069
touching	3068
matic	3068
URE	3068
1600	3066
1972	3066
angel	3066
shapes	3065
Resources	3065
blood@@	3064
galleries	3064
ocr@@	3063
limitation	3063
268	3063
Groups	3063
Pig@@	3063
rar	3063
Lane	3062
seeds	3062
Sound	3061
Various	3060
giant	3058
phenomena	3057
travellers	3057
amen@@	3057
Taf	3057
ested	3057
Measurements	3057
commands	3057
icul@@	3056
surprised	3056
Gaza	3056
extends	3055
profits	3055
silence	3055
cab@@	3055
MAG@@	3054
sake	3053
387	3053
extending	3052
www.fotos.sc	3052
happiness	3051
citizen	3050
confident	3050
PN@@	3050
inn@@	3049
tary	3049
prints	3048
porte@@	3048
editing	3048
Ash@@	3048
sionate	3048
336	3047
Request	3047
clicks	3046
recommends	3046
Ton@@	3046
mobilisation	3045
asks	3045
embedded	3044
Added	3044
shelf	3044
insertion	3043
FI@@	3043
kW	3043
officers	3043
gas@@	3043
worker	3043
ost	3042
u-@@	3042
purchasing	3042
len	3041
icate	3040
gers	3040
Inhal@@	3040
knob	3040
-02-@@	3040
retard@@	3039
Slow@@	3038
1974	3038
kel@@	3037
Eng@@	3037
eaten	3037
ries	3036
contractual	3035
bra	3035
scal@@	3034
Generated	3034
Belarus	3034
campaigns	3034
heit	3034
kernel	3033
Account	3033
tured	3032
lined	3032
vulnerable	3032
tackle	3031
-off	3031
ordination	3031
Haarlem	3030
modes	3030
RI@@	3030
charcoal	3028
Proced@@	3028
gym	3028
positioned	3027
Metal	3027
professor	3027
coins	3026
arium	3026
gram@@	3025
ishing	3025
prestigious	3025
lux	3024
Male	3024
CZ@@	3024
hood	3024
Statement	3024
Riga	3024
birthday	3023
Reserve	3023
COM	3023
3-5	3023
commanded	3022
Acti@@	3020
о	3019
Mi	3019
LIN@@	3019
Tum@@	3019
spac@@	3018
singing	3017
ne-@@	3016
GS	3016
perspectives	3016
ance-@@	3016
heal	3015
winners	3015
www.dutchgrammar.com	3015
25H	3015
eting	3015
iten	3014
Il	3014
ischen	3013
Mono@@	3013
blind@@	3013
Warning	3013
template	3013
aug@@	3012
quarters	3012
Vall@@	3011
mate	3010
Caribbean	3010
Ot@@	3010
33-@@	3009
singer	3009
boote-kleinanzeigenmarkt.de	3008
Nim@@	3008
dann	3007
capture	3007
toys	3007
tobacco	3006
roughly	3005
observ@@	3005
θ@@	3004
idental	3004
asset	3004
Reduced	3004
Average	3003
omer@@	3002
Re-@@	3002
malware	3002
Bolzano	3001
Medicine	3001
Piazza	3001
favor	3001
ruling	3000
ball@@	3000
releasing	3000
peeling	3000
wherever	3000
dom	3000
Sli@@	3000
maritime	2999
satisfactorily	2999
specialities	2998
rocks	2997
Work@@	2997
4-6	2997
defense	2997
obtaining	2996
physically	2996
Straße	2996
mary	2994
Wer@@	2994
arg	2992
Ø	2992
253	2991
abandoned	2991
ented	2991
rever@@	2989
ão	2989
whereby	2989
322	2988
Alpine	2988
rat@@	2988
Hou@@	2987
formerly	2986
484	2986
seeks	2984
Andalusia	2984
Left	2982
pharmaceuticals	2982
dermat@@	2982
notify	2982
Titan	2981
pg	2981
woods	2981
ici	2981
connects	2979
mak@@	2979
Graph	2978
suspicion	2978
inferior	2977
ALL@@	2977
Main@@	2977
trademarks	2976
assembled	2976
distinct	2975
Labour	2975
entity	2974
substitu@@	2973
manifested	2973
Extra	2972
plo@@	2972
disturbed	2972
ITE	2972
exploring	2971
luc@@	2971
ī@@	2971
sport@@	2971
phys@@	2970
delivering	2969
CAD	2969
aves	2969
Π@@	2968
Recent	2968
Beautiful	2967
Ó@@	2967
6,000	2967
302	2966
cloth	2964
APPL@@	2964
Β@@	2964
Spon@@	2964
ec	2964
tl@@	2963
stand@@	2963
essence	2963
hide	2962
Failure	2962
emerged	2961
batches	2959
promises	2958
anti	2957
resonance	2956
scanning	2956
berger	2955
pay@@	2955
án	2955
adversely	2954
gifts	2953
Communications	2953
278	2953
BN	2952
Il@@	2952
roles	2952
cli@@	2952
Sec@@	2952
nam@@	2952
definite	2951
masses	2950
nings	2950
Zentrum	2950
earnings	2950
Stu@@	2949
hesitate	2949
RO	2948
Marco	2948
224@@	2948
Partnership	2947
Industrie	2947
genes	2945
adjacent	2944
endorsed	2943
106@@	2943
Equipment	2943
assure	2943
Seiten	2943
Pension	2941
ied	2940
principally	2940
238	2940
Easter	2940
meantime	2939
bill	2939
IO	2939
hospitals	2938
Position	2938
erung	2937
ward	2937
texture	2937
carriers	2937
aur@@	2937
Weeks	2937
purity	2936
ave	2933
venue	2933
abstract	2933
Van@@	2933
Tool	2932
pent@@	2932
ratios	2932
worn	2930
interfaces	2930
Ve@@	2930
jus@@	2930
Loss	2929
100-@@	2929
Gate	2928
yacht	2928
tex	2928
sensi@@	2928
2100	2927
187	2926
ende	2926
Tan@@	2925
Roc@@	2925
ICE	2924
Veter@@	2924
Lov@@	2924
gul@@	2922
Practice	2921
additionally	2921
041	2920
influences	2920
possession	2920
expressly	2920
App	2920
Pay	2919
hostels	2919
palm	2919
environmentally	2919
Bau@@	2918
well-being	2918
Bir@@	2918
examining	2917
ary@@	2917
lled	2916
rey	2916
Virgin	2916
iri@@	2916
similarly	2915
anom@@	2914
35-@@	2914
survive	2914
mt	2914
alize	2914
talked	2914
refuse	2914
races	2913
incredible	2913
talent	2912
gamma	2912
GE@@	2912
edness	2911
templates	2910
Carb@@	2910
dei	2910
Tallinn	2909
289	2909
bat@@	2909
shipment	2908
nier	2908
acted	2908
refined	2907
admission	2907
Flo@@	2907
fd@@	2907
intends	2907
check-out	2907
Istanbul	2907
Officer	2907
apol@@	2904
ptions	2904
preservatives	2904
Outdoor	2903
ichen	2903
jk	2903
legitimate	2903
superiority	2902
Notice	2902
Lind@@	2901
Play@@	2900
genetically	2900
conservative	2900
buyer	2899
Revision	2897
Status	2897
Railway	2896
flat-screen	2896
282	2896
196@@	2896
differentiation	2895
amar@@	2895
Ltd.	2895
explicitly	2895
640	2895
honest	2895
matched	2894
Les@@	2894
ATIONS	2894
jurisdiction	2893
Declaration	2893
liz@@	2893
Permanent	2893
ez	2892
assured	2892
dispute	2892
grateful	2892
dges	2891
chambers	2891
may@@	2891
nbsp	2890
CAP	2889
link@@	2888
pipes	2888
exhibitors	2888
Boulevard	2887
Balearic	2886
Datum	2886
Presentation	2886
closest	2886
appreciated	2884
binary	2884
Cloud	2884
climb	2884
drainage	2884
MIC@@	2882
anus	2882
deeper	2881
grouping	2881
fec@@	2881
smallest	2880
Dro@@	2880
zeit	2879
TT	2878
Educational	2878
75-@@	2877
informal	2876
glance	2875
din@@	2875
diesem	2875
Guill@@	2875
Personnel	2875
stor	2874
oun@@	2874
utmost	2874
desir@@	2873
narrow@@	2873
Hiking	2873
Gulf	2872
avian	2872
Hits	2872
Thema	2872
tt	2872
Pakistan	2872
bathing	2872
Vice-@@	2872
567	2871
subscription	2871
hen	2871
Stro@@	2870
123@@	2870
298	2869
gases	2869
Firstly	2868
Da	2868
Weekly	2868
upcoming	2868
boasts	2868
ushed	2867
mankind	2867
501	2867
.1	2867
Sebastian	2866
Exit	2866
ee@@	2866
ka@@	2865
263	2865
terraces	2865
cour@@	2865
expose	2864
adap@@	2864
sof@@	2863
Retrieved	2863
foot@@	2862
Amp@@	2862
prep@@	2861
18,@@	2860
air-@@	2860
ishes	2860
thinks	2860
0,5	2860
Sol	2858
Tokyo	2857
bla@@	2857
eving	2857
tonnes	2857
ML@@	2856
Absolute	2856
cellar	2855
realization	2854
Implementation	2854
heter@@	2854
cave	2854
exterior	2854
wars	2853
biom@@	2852
High-@@	2852
Near	2852
Resid@@	2852
385	2852
confirms	2851
Revolution	2851
slot	2851
Á@@	2850
William	2849
displacement	2849
studying	2848
uterus	2848
suspect	2848
Particular	2847
gasse	2847
gum	2847
eter@@	2846
ô@@	2846
opath@@	2846
ü	2845
anyway	2845
divide	2845
tubing	2845
chron@@	2844
horn	2844
ès	2844
Normal	2843
documentary	2843
full-@@	2843
Croatian	2842
Hos@@	2842
Mo	2842
nutritional	2842
Mai@@	2841
Width	2841
inverted	2841
recipe	2840
uble	2840
Ach@@	2840
multitude	2839
Handling	2838
Occasi@@	2838
-4	2837
512	2837
399	2837
Gesellschaft	2836
anxious	2836
pun@@	2835
reject	2835
.06	2834
vigorously	2833
Driver	2833
www.ironmaxx.de	2833
WLAN	2832
celebration	2831
suppressed	2831
Editor	2831
well@@	2830
absor@@	2830
idated	2828
distribute	2828
Valle	2828
Exposure	2828
odi@@	2827
462	2827
ologists	2827
Gay	2826
Titel	2826
Countries	2825
Technologies	2825
Americans	2825
Cab@@	2825
Army	2824
414	2824
big@@	2824
MEP	2823
hotel@@	2823
125@@	2821
UNESCO	2821
Glo@@	2821
s.html	2821
carte	2817
CAB@@	2817
discretion	2815
Rub@@	2815
pulled	2814
1977	2814
140@@	2813
DM	2813
Taiwan	2813
diesel	2813
Soci@@	2813
Ibiza	2813
Nar@@	2812
Gy@@	2812
engagement	2812
sti	2812
attempted	2812
organisational	2812
aling	2811
1.00	2811
kr@@	2811
2012-0@@	2811
gau@@	2810
Term	2810
Friedrich	2810
Swe@@	2810
imports	2810
Luxury	2809
honey	2808
rice	2808
attraction	2807
250@@	2807
offerings	2806
purely	2806
rentals	2805
cultivation	2805
distant	2805
recall	2804
ringing	2804
aying	2804
CIP@@	2804
m.@@	2803
Meetings	2803
Deep	2802
kareha.pl	2801
aesthetics	2801
Difficul@@	2801
souls	2801
constructive	2801
nominal	2801
ł@@	2801
Aqu@@	2801
Siemens	2801
inflation	2800
ues	2800
glasses	2799
Sever@@	2799
Arrow	2798
Beh@@	2798
laboratories	2798
Excel	2798
Years	2798
violation	2798
resi@@	2798
announce	2797
329	2797
orchestra	2797
on-line	2797
presses	2796
Leave	2796
steril@@	2795
booth	2795
Jun@@	2795
Ja@@	2795
polyamide	2795
downloads	2795
nie	2794
catering	2794
dramatic	2794
Six	2794
acia	2793
311	2793
banquet	2793
Iv@@	2793
Juan	2792
gods	2792
CS	2792
9.00	2791
Fun@@	2790
catar@@	2790
Dre@@	2789
adjusting	2789
Whilst	2788
tili@@	2788
praise	2788
Submitted	2787
monkey	2787
hand-@@	2784
Others	2784
Ideal	2784
healed	2784
Adam	2784
Allerg@@	2783
transit	2782
Adriatic	2782
complexity	2781
-01-@@	2781
Bru@@	2781
urgency	2781
Dienstag	2780
п@@	2780
hopes	2780
-of-@@	2780
36-@@	2780
─	2780
Lag@@	2779
enthusiasm	2779
roll@@	2778
Al-@@	2778
SV@@	2778
Egyptian	2778
545	2778
alternate	2778
AI	2777
Inv@@	2777
rin@@	2776
Potential	2776
fragile	2776
ci	2775
chis@@	2774
8-0@@	2774
penalty	2774
Commerce	2773
ruins	2773
alle@@	2773
admitted	2773
prospects	2773
Gas	2772
Appeal	2772
hausen	2772
www.amarillasausti	2772
conception	2771
Mand@@	2771
1.html	2770
Ple@@	2770
291	2770
terminals	2770
tanks	2769
Mé@@	2768
auto-@@	2768
font	2768
erie	2768
bim@@	2768
invol@@	2767
Zone	2766
cooperate	2766
lady	2765
stairs	2765
up-to-date	2765
defining	2765
Junior	2764
Electronic	2764
eled	2763
tens	2763
pigment	2763
419	2762
Deter@@	2761
Tran@@	2761
distinction	2761
zur@@	2761
335	2760
226	2760
Coordination	2759
welding	2759
exceptionally	2758
pupils	2758
itory	2758
Danube	2758
ective	2758
habits	2757
Under@@	2757
ia@@	2757
differential	2757
Lebanon	2757
filing	2756
Examples	2755
jet	2755
Bilder	2755
hir@@	2755
DB	2755
expense	2755
calculations	2754
labyrinth	2754
Everyone	2753
chair@@	2751
www.amarillasestad	2751
Kunst	2750
iel@@	2750
Ticket	2750
anna	2750
3-	2750
Booking	2750
Eg@@	2749
dignity	2748
r.@@	2748
485	2747
graphy	2747
heim@@	2746
inning	2746
355	2746
GN@@	2746
ex-@@	2746
Е@@	2745
moreover	2745
Create	2745
asp@@	2744
Intel	2744
SM@@	2744
Telefon	2743
Um@@	2743
plant@@	2743
harmonise	2742
Economics	2742
Magazine	2742
Client	2742
tioned	2741
ith	2741
Alternative	2740
ister@@	2740
Quali@@	2738
fire@@	2738
yourselves	2738
opera	2738
honor	2737
Relevanz	2736
menus	2736
canal	2736
dell	2735
Capacity	2735
Phoenix	2735
alde@@	2735
baz@@	2735
cant	2735
Terminal	2734
perf@@	2733
brethren	2733
Bacter@@	2733
8,000	2732
eon	2732
281	2732
free-@@	2731
publisher	2731
spect	2730
Bes@@	2730
DF	2730
globe	2730
Patrick	2730
balls	2730
continu@@	2730
Industrie@@	2729
ratings	2729
ult	2729
triggered	2729
Indic@@	2729
enden	2728
ст@@	2728
Barbara	2728
maintains	2728
530	2728
AMD	2728
Colour	2727
Login	2726
Audi	2726
aiming	2726
Fat@@	2725
Ken@@	2724
posed	2723
Victoria	2722
interrupt	2722
distinguished	2721
BG	2721
brit@@	2721
pulling	2721
Santiago	2720
CU@@	2720
sum@@	2720
Wie	2720
Bour@@	2719
Mig@@	2719
ement@@	2719
lowers	2719
License	2719
somewhere	2719
Klaus	2719
crossover	2719
stru@@	2719
titles	2718
liberal	2718
directives	2718
Soleil	2717
Camp@@	2717
230@@	2717
class@@	2716
sur-@@	2716
wouldn	2716
choices	2715
promoted	2715
ARE	2715
plot	2715
aviation	2715
442	2714
owing	2714
violent	2714
rounded	2714
Different	2714
Gö@@	2714
prob@@	2714
Ukrainian	2714
dc	2714
ANT@@	2713
motivated	2713
icht@@	2713
Fire	2713
Fall	2712
Realty	2712
ethical	2712
TOTAL	2712
Languages	2712
worlds	2711
slow@@	2711
boarding	2711
League	2710
df@@	2710
journalists	2710
boo@@	2710
hunger	2709
truck	2709
prosperity	2709
Saul	2709
spr@@	2709
xing	2708
furnishings	2708
ulate	2706
tor-@@	2706
cles	2706
arial	2705
Hoo@@	2705
memories	2705
Sem@@	2705
gates	2705
pocket	2704
Vegas	2704
Sig@@	2703
anal	2703
Swimming	2702
coc@@	2702
ė	2702
beating	2702
steep	2702
uss	2701
rd	2701
itating	2701
mighty	2700
lifting	2700
én@@	2700
villas	2700
Vice	2700
hea	2700
transmitter	2699
metals	2699
uri@@	2699
Univers@@	2698
Rica	2698
grain	2698
maxim@@	2698
GRE@@	2698
Hard@@	2697
accompany	2697
312	2697
Fluid	2697
splendid	2697
lol	2696
BvR	2696
parliament	2696
incre@@	2696
kill@@	2696
Consulting	2696
on-site	2696
hunting	2696
Century	2695
treaty	2694
passages	2693
Cala	2693
complementary	2693
LI@@	2693
Delta	2693
adir	2693
alike	2693
Constitutional	2692
02-@@	2692
dear	2691
recipient	2691
V2	2691
municipal	2691
skull	2691
E2	2690
lectures	2690
phil@@	2690
üssel	2690
Installation	2689
emerge	2688
pit	2688
ais@@	2688
Down	2687
distinguish	2687
breathtaking	2687
581	2686
tabled	2686
cheapest	2686
v.@@	2685
color@@	2685
extracted	2685
bypass	2684
umb@@	2684
auto	2684
cables	2684
HAN@@	2684
cann@@	2683
Along	2682
Ironing	2682
tail	2681
embed	2680
MET@@	2680
Pac@@	2679
urg@@	2679
bow	2679
Structural	2678
slope	2678
opol@@	2678
chart	2677
Doctor	2677
still@@	2677
validity	2676
Eine	2676
Fitness	2676
.c@@	2675
11.5	2675
Gardena	2675
routin@@	2675
GM	2675
productions	2674
Simon	2674
kan@@	2674
ad-@@	2673
tries	2673
responsi@@	2673
high@@	2672
Kir@@	2672
smile	2671
capacities	2671
Lang@@	2671
τ	2671
bit.ly	2670
bug	2670
solved	2670
Stock	2669
040	2669
nominated	2669
delicate	2668
nozzle	2668
EUROPEAN	2667
seln	2666
mel	2666
cottage	2666
terrible	2666
generous	2665
drying	2665
Newsletter	2664
angels	2664
deposits	2663
Desk	2663
Registry	2661
505	2661
Paste	2660
six-@@	2660
TU@@	2660
ovo	2659
ension	2658
Already	2657
vom@@	2657
President-in-Office	2656
Lot	2656
valves	2656
Speed	2655
sol	2655
Z-@@	2655
Jer@@	2655
cathedral	2655
clarity	2655
ing.htm	2654
pipeline	2654
Weather	2654
Sust@@	2654
probability	2653
colleague	2653
rab@@	2653
Initiative	2652
builds	2652
industri@@	2651
HI	2651
Pil@@	2651
accum@@	2651
alpine	2651
Brun@@	2650
finest	2650
Kur@@	2649
CAS@@	2649
chin@@	2649
1,0@@	2648
less@@	2647
ua	2647
FAQ	2647
economics	2646
'clock	2646
Steel	2645
06.@@	2645
Credit	2645
non-smoking	2645
emotions	2645
ejaculation	2645
probable	2644
LF	2644
rigid	2644
PG	2644
NT	2643
tends	2643
baths	2643
aten@@	2642
comfortably	2642
cheaper	2642
blessed	2642
realised	2642
stove	2641
bert	2641
capability	2641
ße	2640
bury	2640
1,5	2640
seller	2639
grants	2639
dark@@	2639
Scher@@	2639
wald	2639
Ring	2638
700@@	2637
acious	2637
80-@@	2636
wage	2635
coal	2635
expects	2635
Torre	2635
Greens	2634
242	2634
ound@@	2634
Lyn@@	2634
NING	2634
translate	2634
motivation	2633
Long@@	2633
Fixed	2633
brochure	2633
newspapers	2631
shar@@	2631
fulness	2631
Test@@	2631
budgets	2630
711	2630
E.ON	2630
oping	2629
01.@@	2629
tic-@@	2629
RSS	2629
determines	2628
neighborhood	2628
Kitchenette	2627
plug	2627
ples	2627
Μ@@	2627
enn@@	2626
fb@@	2626
Operating	2626
distances	2626
ated-@@	2625
Christ@@	2625
bles	2624
differs	2624
analyse	2623
305	2623
259	2623
Silver	2622
cht	2621
rotation	2621
ESA	2620
Displaying	2619
attract	2619
----@@	2619
ulose	2618
basically	2618
49-	2618
463	2618
browsing	2618
capitalism	2617
penetration	2616
arch@@	2615
shooting	2615
gn@@	2615
oured	2615
comparisons	2615
resc@@	2614
Pun@@	2614
opponent	2614
bubble	2614
grows	2614
anes	2614
ambul@@	2614
382	2613
Fig@@	2613
A6	2613
ventil@@	2613
crosses	2612
viewer	2612
2011-0@@	2612
bab@@	2612
intrinsic	2612
alcoholic	2612
springs	2611
www.facebook.com	2611
Mak@@	2611
surf	2610
technik	2610
Cambridge	2609
US-@@	2609
rotate	2608
bau@@	2608
intercourse	2607
mus	2607
astr@@	2606
cruise	2606
fibre	2606
reversal	2606
legendary	2605
Bonus	2605
atus	2605
tee	2604
Sauna	2604
Ο@@	2604
arbitr@@	2604
Pool	2604
monument	2604
ank	2603
start@@	2603
Industries	2603
gent@@	2603
Quad@@	2603
jazz	2602
ulates	2602
warned	2602
catal@@	2601
skip	2601
BU	2601
Canc@@	2601
reveals	2601
Agenda	2601
spreading	2600
semen	2600
existed	2600
carriage	2600
shaft	2600
mouth@@	2600
DK	2600
pack@@	2598
343	2598
h-@@	2598
Directors	2598
power@@	2598
wash@@	2596
Suppl@@	2596
Shi@@	2596
Bike	2595
Solomon	2594
slowing	2594
criterion	2594
resin	2594
bc@@	2593
enhances	2593
DJ	2593
marble	2593
dense	2593
Whereas	2592
Heidelberg	2592
thrown	2591
recognises	2591
greenhouse	2591
Sz@@	2591
tid	2591
unnecessary	2591
DM@@	2591
Operation	2590
RAP@@	2590
Universal	2590
alists	2590
Q-@@	2590
manifest	2589
inc	2589
bond	2589
fir@@	2589
-40	2589
pads	2588
vens	2588
iden@@	2588
236	2588
grave	2587
Offers	2587
forthcoming	2587
2018	2587
economically	2587
TAR@@	2586
s.r.o.	2586
Dance	2586
oxidation	2586
domains	2586
hin@@	2585
colored	2584
highway	2583
Zol@@	2583
undergone	2582
Coffee	2582
Stay	2582
Od@@	2582
perceived	2581
hang	2581
refusal	2581
countless	2580
ht	2580
acht@@	2580
10.1	2579
il-@@	2579
www.m@@	2578
conduc@@	2578
co-ordination	2577
Wine	2576
SAS	2576
ulsion	2575
Display	2575
Artist	2574
suppress	2574
crossed	2573
pion	2573
v-@@	2573
large-scale	2573
080@@	2573
1969	2572
allocation	2572
abl@@	2572
licence	2572
Democratic	2571
03-@@	2571
247	2571
dominated	2570
Kos@@	2570
wo@@	2570
world@@	2570
minds	2570
enburg	2569
394	2569
convincing	2569
snacks	2568
go-@@	2568
3.0@@	2567
1968	2567
need@@	2567
Cycle	2567
covenant	2567
gesch@@	2566
Bedrooms	2565
sad	2565
fs	2565
304	2565
keine	2565
1967	2564
Nord@@	2564
Safe	2563
cancel	2563
vap@@	2563
dig	2562
ì@@	2562
.exe	2562
partnerships	2562
luggage	2562
Making	2561
451	2561
Dubai	2560
UA	2560
parish	2560
defective	2560
Profile	2560
Genoa	2560
retrospective	2560
que@@	2560
www.b@@	2559
shoot	2559
Hair	2559
Nit@@	2558
Gall@@	2558
396	2558
thirty	2558
verify	2557
Intel@@	2557
spinning	2557
recordings	2556
Vol	2556
Conf@@	2556
alty	2556
coach	2556
sealing	2556
skill	2556
compression	2555
Bavarian	2554
Satan	2554
leaf	2554
rough	2553
beige	2553
Ali@@	2553
Veröffentlicht	2552
bio	2552
-out	2551
accused	2551
Orientation	2551
aut	2551
Kalifornien	2551
391	2551
hah	2551
227@@	2551
sibility	2550
495	2550
Thereafter	2550
voices	2550
IT-@@	2549
loves	2549
ilers	2549
retina	2549
Hon@@	2548
directors	2548
superb	2547
blog@@	2545
tered	2544
persistence	2544
sko	2544
Nothing	2544
atology	2544
Cable	2543
aris	2543
ners	2543
Though	2543
phrase	2543
VE@@	2542
tough	2541
configured	2541
ranked	2541
in-depth	2541
Projects	2541
Prince	2541
12.0	2541
1960	2540
conceived	2540
www.amarillas@@	2540
diese	2539
pedi@@	2539
PUR@@	2539
GD@@	2539
council	2539
righteousness	2538
cured	2538
resol@@	2538
ien	2538
uncomfortable	2538
secretariat	2538
illi@@	2538
----------------@@	2538
quet	2538
prophet	2537
plugin	2537
Temple	2537
charging	2537
implants	2536
shut	2536
acrylic	2536
Utrecht	2536
empirical	2536
bath-tub	2535
Funds	2535
contest	2535
12.2015	2535
surprising	2535
900@@	2535
Give	2535
bilities	2534
Schw@@	2533
restart	2533
qualification	2532
MTU	2532
scar@@	2532
ious	2531
tides	2531
donate	2531
ASS@@	2531
stabilisation	2530
Grap@@	2530
murder	2530
predominant	2529
wheat	2529
ku	2529
Cagliari	2528
Motor	2527
redistribution	2527
noon	2527
neu@@	2526
Mit	2526
Hem@@	2526
bonds	2525
560	2525
Eck@@	2525
uted	2525
Sale	2524
Superior	2524
inj@@	2524
senses	2524
reward	2524
icle	2523
sehen	2523
respir@@	2523
justification	2523
latex	2522
Kra@@	2522
arrested	2522
LS	2522
bears	2522
insulation	2521
aka	2521
13.5	2521
ism@@	2520
orus	2520
Fan@@	2519
selectively	2519
bases	2519
fairs	2518
regulate	2518
284	2518
ener@@	2518
Tony	2518
trou@@	2517
fan@@	2516
Camp	2516
inium	2515
11.2015	2514
Explorer	2514
Habana	2513
declare	2512
9001	2512
Thir@@	2512
Consult	2512
ij@@	2512
collecting	2512
471	2511
ür@@	2511
snow@@	2511
Ic@@	2511
ministry	2510
Aaron	2510
Female	2510
protest	2509
Macedonia	2508
Alex@@	2508
resorts	2508
law@@	2507
imagination	2507
craft	2507
audi@@	2507
telecommunications	2507
testimony	2506
belly	2506
bud@@	2506
sightseeing	2505
Diagno@@	2505
reness	2505
map@@	2505
sur	2505
Gol@@	2505
VIP	2504
ä	2504
preservation	2503
fies	2503
discipline	2503
126@@	2502
Berg@@	2502
hectares	2502
preferable	2502
wages	2501
339	2501
Hung@@	2501
aga	2500
illed	2500
cone	2500
durability	2499
fc@@	2499
cs	2499
dealer	2499
Schwe@@	2499
oak	2499
permits	2498
ites	2498
SPA	2497
γ	2497
Freiburg	2497
Result	2497
MySQL	2496
Esp@@	2496
Fernando	2496
state-of-the-art	2496
ading	2496
DN@@	2495
basin	2495
viable	2495
walked	2495
showcase	2495
extract	2495
pper	2494
Extension	2493
ops	2493
brake	2493
dancing	2493
beg@@	2493
ten-@@	2493
pillar	2492
Bosnia	2491
Sekunden	2491
royal	2491
key@@	2491
daytime	2491
10.6	2491
100g	2490
Aff@@	2490
crescent	2490
Win32	2490
toes	2489
Rou@@	2489
sweat	2489
signing	2489
rightly	2488
relatives	2488
BW	2486
eric	2486
Motor@@	2486
www.d@@	2486
minimize	2485
Range	2485
intent	2484
ji	2484
Müller	2484
Agu@@	2484
Castel@@	2483
Hun@@	2482
in-house	2482
optimise	2482
promising	2482
True	2482
appearing	2482
simulation	2481
Electric	2481
studios	2481
certainty	2480
Bü@@	2480
FRANCE	2480
413	2480
onomic	2480
prec@@	2480
hair@@	2480
earned	2480
MAT@@	2479
dition	2479
DV	2478
cozy	2477
-and-@@	2477
10.2015	2477
DP	2477
consume	2476
culinary	2476
commissioned	2475
Power@@	2475
CSS	2474
Features	2474
portable	2474
Visa	2473
mid	2473
resting	2473
halls	2472
Anim@@	2472
y.htm	2472
bell	2472
deciding	2471
334	2471
prophets	2471
forgive	2471
af	2471
Stra@@	2470
izer	2470
Selec@@	2469
Wilhelm	2469
422	2469
ined	2469
ule	2468
brilliant	2468
52-@@	2468
Nuremberg	2468
HV@@	2468
noctur@@	2468
Fern@@	2467
Psych@@	2467
architects	2467
immobil@@	2467
Set@@	2466
sav@@	2466
rav@@	2466
scales	2465
mini-@@	2465
Sofia	2465
impose	2464
Wol@@	2464
17.5	2463
depend@@	2463
tick	2463
subsidies	2463
Roll	2462
daughters	2462
LTD	2462
lt	2462
plateau	2462
publicly	2461
harvest	2461
sor	2460
-free	2459
fragments	2459
Suitable	2459
Dubrovnik	2459
ARY	2458
wood@@	2458
ò@@	2458
invoice	2458
acryl@@	2458
Ath@@	2457
Hamas	2457
enlarge	2457
biodiversity	2456
warms	2455
Engels	2455
versatile	2454
attending	2454
locking	2454
hypno@@	2454
ament	2453
way@@	2452
character@@	2452
Jones	2451
cook	2451
Documentation	2450
nails	2450
brush	2450
1950	2449
invested	2449
debates	2449
Regi@@	2449
s.de	2449
deficiencies	2449
issen	2449
er.com	2449
competitions	2448
Related	2448
ater	2447
wilderness	2447
Σ	2447
bitter	2447
LL@@	2447
ego	2447
Improvement	2446
Start@@	2446
reliably	2445
Centr@@	2445
án@@	2445
Zu@@	2445
surfing	2445
ISBN	2444
Cross-@@	2443
believers	2443
SG@@	2443
tram	2443
NOV@@	2442
traveling	2442
tisation	2441
216@@	2441
950	2440
enbach	2440
archives	2440
random	2440
touched	2440
best@@	2440
scenario	2440
pcs	2440
Commercial	2439
hydraulic	2439
qualifications	2439
demanded	2439
alliance	2438
acoustic	2438
Apostle	2438
Kn@@	2438
1998-@@	2438
LY	2437
sorts	2437
fertile	2437
preventive	2437
Theater	2437
administrator	2437
ital@@	2435
Lap@@	2435
WordPress	2435
exp@@	2435
Norwegian	2434
seals	2434
Kas@@	2433
edings	2433
Zeitschrift	2433
Colonel	2433
ario	2433
coherent	2433
resolutions	2433
atyp@@	2433
arena	2431
illustrated	2431
sculpture	2431
trucks	2430
a-	2430
Created	2430
350@@	2429
announcement	2428
colouring	2428
intensified	2428
t.com	2427
NAS	2426
Muslims	2426
326	2426
Stor@@	2426
Squ@@	2425
Florida	2425
neg@@	2423
Aires	2423
1971	2423
albums	2423
multinational	2422
sorry	2422
customized	2421
Pis@@	2421
encountered	2421
German@@	2421
contaminated	2420
broke	2420
debut	2420
exes	2419
ometer	2419
Catal@@	2418
FH@@	2418
amid	2418
stake	2417
thritis	2417
columns	2417
brates	2417
incentives	2417
Inside	2417
435	2417
End@@	2416
IZ@@	2416
mp	2416
spectro@@	2416
motto	2415
appellant	2415
beverages	2415
alies	2414
Unlike	2414
Meanwhile	2414
alizing	2414
951	2414
Clar@@	2413
sink	2413
ux@@	2413
Budget	2412
utter	2412
employers	2412
test@@	2412
-Email	2411
CK@@	2411
digital@@	2411
Park@@	2411
mail@@	2411
Contacts	2411
Connect	2411
meer	2410
Agr@@	2410
Recovery	2410
Sho@@	2408
safeguard	2408
ed.	2408
Ammon@@	2407
bled	2407
Buenos	2407
immigrants	2407
ures@@	2406
Josef	2406
regret	2406
Mem@@	2406
Mont@@	2405
ann	2404
ACS	2404
GI@@	2403
Run@@	2403
funny	2403
lecture	2403
PF@@	2403
TT@@	2402
Obama	2402
dle	2401
trademark	2400
104@@	2400
rn@@	2400
Tunisia	2400
Omega	2399
rich@@	2399
predict	2399
reads	2398
Happy	2397
Ang@@	2397
Marine	2397
excellence	2396
a7@@	2396
Ip@@	2396
fought	2396
Known	2396
Reviews	2395
validation	2395
Replace	2395
Garda	2395
564	2394
stance	2394
lock@@	2394
hat@@	2394
appl@@	2394
regression	2394
mistakes	2393
folding	2393
Bewertungen	2393
1965	2393
Ulm	2392
Со@@	2392
GP	2392
therap@@	2392
schaft	2392
Alto	2392
quantitative	2392
Parc	2391
Bibione	2391
599	2391
Johannes	2391
wet@@	2391
ump@@	2391
fast@@	2391
423	2391
es.	2390
10-minute	2390
variants	2390
Posts	2389
likewise	2389
ESS@@	2389
circular	2388
Comfortable	2388
in-gene	2388
entities	2388
methodology	2388
forbidden	2387
stered	2387
iger	2387
Heinrich	2387
threatened	2387
5909@@	2387
Cheap	2386
refl@@	2386
ffy	2386
alcohol@@	2386
Marie	2385
cry	2385
Mini	2385
NGOs	2385
503	2384
Smith	2384
guy	2383
crowd	2383
nuts	2383
complaint	2382
Beta	2382
ias	2382
peaks	2382
ordering	2382
calories	2381
sticky	2381
magazines	2381
286	2381
Considering	2380
shor@@	2380
displayimage.php	2379
picked	2379
Alfa	2379
έ@@	2378
Parts	2378
Georg	2378
1-5	2377
Rol@@	2377
positively	2377
565	2377
NF@@	2377
öl@@	2377
colony	2376
trafficking	2376
Ori@@	2376
pped	2375
osph@@	2374
stool	2374
cb@@	2373
Ky@@	2373
teen@@	2373
Palazzo	2373
Monetary	2373
Beitrag	2372
ologie	2372
NT@@	2372
ock	2371
Vatican	2371
Stadt	2371
Low@@	2371
kur@@	2371
467	2371
äl@@	2371
auxiliary	2370
unsure	2370
ECB	2370
ander@@	2368
evenly	2368
corners	2368
LER	2368
listing	2368
conve@@	2367
condado-de-@@	2367
10.4	2366
Für	2366
Provence	2366
tig	2366
recovering	2366
361	2366
sub-categories	2366
229@@	2365
OK@@	2365
last@@	2364
Positive	2363
check@@	2363
desires	2363
Count	2363
zel	2361
ture-@@	2361
sacred	2361
nowadays	2360
elli	2360
Bern@@	2360
algorithm	2360
Liquid	2360
dorp	2359
unt	2359
clause	2359
bre	2359
ode	2358
adher@@	2358
Score	2357
broadcast	2357
å	2357
grapes	2357
entially	2356
Bö@@	2356
physics	2356
speeds	2356
bom@@	2356
succ@@	2355
Graz	2355
16.08.2015	2355
waxing	2355
os-@@	2354
stimulated	2354
durch	2353
Sierra	2353
CDs	2353
screens	2353
feasible	2353
gaining	2353
`s	2352
VW	2352
CIS	2352
ared	2352
robot	2352
positioning	2352
minerals	2352
half-board	2352
homogeneous	2351
minist@@	2351
lesson	2351
arises	2351
Det@@	2350
emann	2350
replacing	2350
Rö@@	2350
understands	2349
Getting	2349
intest@@	2349
Ernst	2349
submissions	2349
160@@	2348
Awards	2348
accepts	2348
imported	2348
Sut@@	2348
Vari@@	2347
izes	2347
libraries	2346
YOUR	2346
BS	2346
indispensable	2346
Apr@@	2346
Participants	2346
Petersburg	2346
tak@@	2345
Mission	2344
journal	2344
remembered	2343
terrain	2343
bild@@	2343
Max@@	2342
-in	2342
prizes	2342
Ped@@	2342
tasting	2342
biz@@	2342
3b	2342
Gren@@	2341
Architecture	2341
Stel@@	2341
remedies	2340
Doc	2340
gang	2340
dness	2340
Deposit	2340
.08	2339
Advice	2339
Shuttle	2339
NI@@	2339
ento	2339
itz@@	2338
main@@	2338
renovation	2338
wake	2338
reinforce	2338
occupational	2338
striking	2337
deletion	2337
9000	2337
Example	2336
dog@@	2336
Cold	2336
emphasized	2336
rov@@	2336
fault	2336
Progres@@	2336
ý	2334
neighbourhood	2334
Applied	2334
flour	2334
bowl	2334
Visitors	2333
6.00	2333
excited	2333
DK@@	2333
103@@	2333
hell	2332
bent	2332
FreeBSD	2332
impressed	2332
patents	2331
statutory	2330
gad@@	2330
Socialist	2330
ationen	2328
pays	2328
-00@@	2328
Jazz	2328
Perfect	2328
omeg@@	2328
Bicycle	2328
briefly	2328
08.@@	2327
timetable	2327
Committees	2327
WS	2327
ouring	2326
Write	2326
Spiel@@	2326
prompted	2326
han@@	2325
Den	2325
Kinder	2325
zi	2325
Erstausstrahlung	2324
beoordelingen	2324
impacts	2324
Wait	2324
Yar@@	2323
Ves@@	2323
Cra@@	2323
ais	2323
Brandenburg	2323
uch@@	2322
dipl@@	2322
Stein@@	2322
towers	2322
Base	2322
Brand	2322
damaging	2322
dc@@	2321
erk@@	2321
wings	2321
frag@@	2321
Å@@	2320
146@@	2320
Typical	2320
ennial	2320
Alt@@	2320
4-star	2320
Highway	2320
kov	2320
descriptions	2320
throne	2319
paras@@	2319
Ass@@	2319
Payment	2319
Wireless	2317
ref	2317
Buddha	2317
sixth	2317
pole	2317
politically	2317
Emul@@	2316
ticks	2316
ise@@	2315
esa	2315
Dra@@	2315
PAN@@	2315
mites	2315
defines	2315
ater@@	2314
490	2314
B2	2314
Hubert	2314
GER@@	2313
Brad@@	2313
entre@@	2313
cha	2313
Montag	2313
Quinta	2313
Gerhard	2313
beginners	2312
Baby	2312
asa	2311
anes@@	2311
cited	2311
preferences	2311
Bishop	2310
NEW	2310
combating	2310
AY	2310
rehabilitation	2309
zoom	2309
tribute	2309
720	2309
no.0@@	2309
alli@@	2309
MC	2307
wins	2306
deliveries	2306
,5	2306
endless	2306
Vin@@	2306
fungi	2306
Gothic	2305
Get@@	2305
seness	2305
plex@@	2305
bridges	2305
436@@	2304
twi@@	2304
Ay@@	2304
lifted	2304
k.@@	2303
polymer	2303
afford	2303
oso@@	2303
judges	2303
nica	2303
bare	2303
transform	2302
Fides	2302
Scotland	2302
breed	2301
asting	2301
serv@@	2301
alit@@	2301
cks	2301
Schengen	2300
2010-0@@	2300
Lounge	2300
twit@@	2299
Cart	2299
pping	2299
accelerate	2298
Cast@@	2298
corn	2298
Produc@@	2298
379	2297
Max-@@	2297
graphical	2296
Want	2296
Independent	2296
portions	2296
Across	2296
unlike	2296
logged	2296
geb@@	2296
Werner	2296
provisional	2296
arriving	2295
Rural	2295
Fashion	2294
ice@@	2294
dt	2294
153@@	2293
render	2293
ş@@	2293
violations	2292
compulsory	2292
Dim@@	2292
inventory	2292
mystery	2292
ported	2292
Os@@	2291
pills	2291
Persons	2291
ef	2290
Kings	2290
www.amarillasestadosunidos.com	2290
tall	2290
hosting	2290
1300	2289
Used	2289
200-@@	2289
Hab@@	2288
leak	2288
tite	2288
masters	2288
outs	2287
invented	2287
usable	2287
273	2287
397	2287
likes	2286
reminded	2286
357@@	2285
rolls	2285
continental	2285
Players	2284
boundaries	2284
04-@@	2284
12.1	2283
compati@@	2283
arose	2282
TB	2282
escal@@	2281
Kri@@	2281
Ciudad	2281
featured	2281
ind	2281
enders	2281
Korean	2280
Field	2280
YouTube	2280
384	2279
Comment	2279
Bulgarian	2278
amic@@	2278
gie	2278
einfach	2277
kanotix.com	2277
Ful@@	2277
doubts	2277
beliefs	2276
progressed	2276
Ill@@	2276
hoo@@	2276
unavoidable	2275
ı@@	2275
bourgeois	2275
And@@	2275
bun@@	2275
dressing	2275
2013-0@@	2275
Rot@@	2274
remedy	2273
ung-@@	2273
Alpha	2273
anni@@	2272
puppies	2271
vista	2271
24h	2270
Keywords	2270
market@@	2269
optimization	2269
2015-@@	2269
iler	2269
instability	2268
Bul@@	2268
whatsoever	2268
cid	2268
fulfill	2268
Dortmund	2267
447@@	2267
wrap	2267
783	2267
kol@@	2267
PB	2267
grip	2267
victim	2266
slo@@	2266
Sydney	2265
Rij@@	2265
Fru@@	2265
paired	2265
chapel	2264
Bereich	2263
amounted	2263
Kil@@	2263
righteous	2263
494	2262
402	2262
ihr	2262
generating	2262
1900	2262
Forte	2262
ical@@	2261
depleted	2261
Magic	2261
punishment	2261
Yesterday	2260
freezing	2260
feast	2260
burned	2259
numer@@	2259
Φ@@	2259
bits	2259
territories	2259
Berlin-@@	2259
ru	2259
warehouse	2258
line@@	2258
doubling	2258
cabins	2257
Sle@@	2257
wa	2257
usr	2257
OF@@	2256
136@@	2256
proves	2255
Matthias	2255
12.3	2255
Memory	2255
pitch	2254
NR@@	2254
sculptures	2254
Sony	2254
musician	2253
margins	2253
fibres	2253
informations	2252
Γ@@	2251
priv@@	2251
tool@@	2251
Socialists	2250
bau	2250
conditioned	2250
Manhattan	2250
buried	2250
218@@	2250
Ou@@	2250
Problems	2250
sli@@	2249
aki	2249
hanging	2248
corp@@	2248
ranks	2247
couples	2247
origin@@	2247
Sco@@	2246
biking	2246
breach	2246
0.014@@	2246
5-10	2246
ually	2246
processor	2245
raises	2245
adopting	2244
multimedia	2244
produc@@	2244
urgently	2244
38.@@	2244
Renaissance	2244
Mario	2243
342	2243
admire	2243
broader	2243
sty@@	2243
Simultane@@	2243
mim@@	2242
meg@@	2242
slip	2242
exic@@	2242
wo	2241
dam	2241
has@@	2241
was@@	2241
Rose	2240
Canadian	2240
Object	2239
perme@@	2239
werk	2239
Learning	2239
Multi-@@	2239
Kids	2239
zes	2239
t.	2238
sponsors	2238
saturation	2238
maturity	2238
motors	2238
840	2238
inspect	2238
ml@@	2237
tible	2237
loving	2237
balconies	2236
subjected	2236
watch@@	2235
Ludwig	2234
biology	2234
day-@@	2234
Workshop	2233
clarify	2233
transports	2232
Bush	2232
Companies	2232
strum	2232
indirectly	2232
1000@@	2231
agrees	2231
aligned	2230
Minist@@	2230
Amazon	2230
Accessories	2230
www.bing.com	2229
gio	2229
abor@@	2229
Objects	2228
217@@	2228
round@@	2228
bytes	2228
straw	2228
LT	2227
conveniently	2227
amending	2227
ación	2227
evenings	2227
fixer	2226
Chris	2226
362	2226
pts	2226
alo	2226
PRI@@	2225
Š	2225
Australian	2225
Initi@@	2225
disagreement	2225
naked	2224
animation	2224
top-@@	2224
oline	2224
determin@@	2223
congress	2223
foreseen	2223
Tou@@	2223
nt@@	2223
633	2222
Howdy	2222
Found	2222
seventh	2222
ems	2222
fts	2222
vagina	2222
acknowledge	2221
travelers	2221
insur@@	2221
KBA	2220
developer	2220
vegetation	2220
fifty	2220
Bad@@	2220
Testing	2220
1943	2219
FE	2219
VEN@@	2219
Auf	2219
het	2219
pp	2218
natur@@	2218
preclu@@	2218
bi	2217
Against	2217
argued	2217
platinum	2216
239@@	2216
donations	2216
gospel	2215
partition	2214
Paren@@	2214
Coun@@	2214
und-@@	2214
392	2214
Bochum	2214
Colombia	2213
intimate	2213
Palestine	2213
termin@@	2212
Bis@@	2212
mini@@	2212
Friends	2212
Auditors	2212
violet	2212
Mannheim	2211
André	2211
materi@@	2211
cran@@	2211
ood	2211
430	2210
appliances	2210
steering	2209
Ê@@	2209
Naples	2209
303	2209
I.@@	2209
liquids	2208
beautifully	2208
lending	2208
ing.com	2208
ander	2208
10.3	2208
author@@	2207
108@@	2207
essive	2207
Contemporary	2207
accumulate	2207
È@@	2206
SF@@	2206
ured	2206
10.7	2205
γ@@	2205
Surgery	2205
blessing	2205
exercising	2205
quar@@	2205
Regular	2205
recreation	2205
Ä	2205
04.@@	2205
Η@@	2204
sisters	2204
Monte@@	2204
Thread	2203
ish-@@	2203
404	2203
ön@@	2203
ο	2202
Representatives	2202
Honduras	2202
D2	2201
headings	2201
tops	2201
.The	2200
effic@@	2200
alum@@	2200
Kl@@	2199
willingness	2199
Dou@@	2199
107@@	2199
tun@@	2198
tribe	2198
globally	2198
ull@@	2198
det	2198
implies	2198
Accordingly	2198
BU@@	2197
gun	2197
fo	2196
aro	2196
licensing	2196
execute	2196
kos@@	2195
444	2195
disappears	2195
Lon@@	2195
966	2194
isia	2194
Simple	2194
protocols	2193
illustrations	2193
Currency	2193
aces	2192
heimer	2192
bore	2192
Stad@@	2192
eve	2192
ski@@	2192
delegations	2191
minus	2191
grasp	2191
newest	2191
linking	2191
gathering	2190
evidenced	2190
spirits	2190
Stage	2190
lucky	2190
butter	2190
profession	2190
jud@@	2189
Kh@@	2189
swim	2189
diagram	2189
poultry	2189
API	2188
Ladies	2188
Fisheries	2187
dissemin@@	2186
CZ	2186
NY	2186
convince	2186
Beiträge	2186
XVon	2186
PEN@@	2186
Campus	2185
SL	2185
ş	2185
Galerie	2185
challenged	2185
33.@@	2185
Gast	2185
alistic	2184
DD	2183
24,@@	2183
190@@	2183
you@@	2183
dirty	2182
inheritance	2182
WR@@	2182
temporal	2182
storm	2182
Pact	2182
Quin@@	2182
burg@@	2182
Lisboa	2182
Goisern	2182
aud@@	2182
Stone	2182
kettle	2181
airlines	2181
moist	2181
EBIT	2181
les-@@	2181
uncertainty	2181
Def@@	2180
progressing	2180
tied	2180
cus@@	2180
solvents	2180
bull@@	2180
categor@@	2179
engineered	2179
483	2179
divisions	2178
pan	2178
technically	2178
OECD	2178
amb@@	2177
packing	2177
Liechtenstein	2177
Lav@@	2177
orn	2177
Degree	2177
Ages	2176
proletariat	2176
328	2175
Otto	2175
Auto	2175
Interview	2175
bou@@	2175
Meier	2175
shop@@	2175
Cour@@	2174
dirt	2174
nd	2174
Sri	2174
employ	2174
anco	2173
2009-0@@	2173
enne	2173
erase	2173
Combined	2173
Wat@@	2173
Key@@	2173
erosion	2172
loud	2172
Inc.	2172
459	2172
Ecologic	2171
aked	2171
Kan@@	2171
interviews	2171
.08.2015	2170
multiply	2170
crystals	2170
ECO@@	2170
rik	2169
Aid	2169
Joe	2169
Urban	2169
kle@@	2169
sr@@	2169
sauce	2168
stellung	2168
43-@@	2168
eleven	2167
Bec@@	2167
physi@@	2167
SO	2167
318	2166
ý@@	2166
wai@@	2166
.ru	2165
flowing	2165
precaution	2165
02.@@	2165
324	2165
itting	2165
eries	2164
cancelled	2164
Bud@@	2164
capit@@	2164
Adjustment	2164
twist	2163
witnesses	2163
nun	2163
heute	2163
laminated	2163
Minutes	2162
Above	2161
Holidays	2161
2008-@@	2161
Communist	2160
Deli@@	2160
archaeological	2160
Did@@	2160
wool	2159
Lausanne	2158
lord	2158
ř@@	2157
Ν@@	2157
heavens	2157
Political	2157
panorama	2157
Suff@@	2157
HD-install	2156
magical	2156
DFG	2156
Jahren	2156
Giovanni	2155
Francis	2155
ßen	2155
exotic	2155
fro@@	2155
2006-0@@	2155
381	2154
Sport@@	2154
xen	2154
transitional	2154
sou@@	2154
integrating	2154
computer@@	2153
ogy	2153
engineer	2153
multipl@@	2153
hybrid	2153
Stephen	2152
chip	2152
exhibiting	2151
Progressive	2151
eluc@@	2150
Directorate	2150
Channel	2149
browsers	2149
ett@@	2149
scre@@	2149
Ï@@	2149
Wild	2149
wards	2149
ung.htm	2148
denied	2148
nis@@	2148
ensemble	2147
NC@@	2147
consultants	2147
0.015@@	2147
Neue	2147
165@@	2146
426	2146
dissemination	2146
fiable	2145
draws	2145
SRL	2145
laminate	2145
Six@@	2144
Travelling	2144
Wenn	2144
odds	2143
territorial	2143
sequences	2142
kn@@	2142
Insurance	2142
hay	2142
messenger	2142
excitement	2141
analyzes	2141
Dominican	2141
21,@@	2141
450@@	2141
statt	2140
liberalisation	2140
liv@@	2140
reign	2140
486	2140
erial	2140
hostility	2140
appropriations	2140
dividing	2140
exchanges	2139
pursued	2139
stuck	2139
etti	2139
attributes	2139
minu@@	2139
239	2139
up-@@	2139
sper@@	2139
endorf	2139
ald	2138
continuity	2138
occasional	2138
Add@@	2137
minorities	2136
607@@	2136
connector	2136
complimentary	2135
130@@	2135
commented	2134
kov@@	2134
suggestion	2134
monitors	2134
Mode	2134
Christianity	2134
compressed	2133
HL@@	2133
SES	2133
389	2133
Ice	2132
eng	2132
ign	2132
elegance	2132
Jersey	2131
Imaging	2131
Siena	2131
Dinner	2131
Resolution	2131
airline	2130
pepper	2130
Specification	2130
refrain	2130
dissolution	2129
pow@@	2129
nis	2129
M1	2128
lateral	2128
exaggerated	2128
arians	2128
diary	2128
Trek	2127
dynamics	2127
DR	2127
governed	2127
zip	2126
forecasts	2126
Д	2126
circles	2125
Thou	2125
.09	2125
SEN	2125
cath@@	2124
Self-@@	2124
me-@@	2124
Rhine	2124
max@@	2124
glaci@@	2124
ì	2124
supermarket	2123
Run	2123
health@@	2123
incoming	2122
households	2122
updating	2122
aspiration	2122
Album	2122
warming	2121
tik	2121
dwell	2121
AH@@	2121
308	2121
sends	2121
onom@@	2121
en.de	2121
Maastricht	2120
estr@@	2120
BIG	2119
Heaven	2119
needing	2119
exer@@	2118
portrait	2118
mas	2117
Pass	2117
lete	2117
1966	2117
floating	2117
Packed	2117
Administrative	2117
institutes	2117
Berlinale	2117
sail	2116
ip	2116
stating	2115
asts	2115
Haupt@@	2115
origins	2115
Fig	2114
Dieser	2114
specificity	2114
Romanian	2114
fuels	2114
conducting	2114
Prophet	2113
Much	2113
deficits	2113
bad@@	2113
grape	2113
globalisation	2112
beef	2112
disrup@@	2112
fit@@	2112
5-minute	2111
Crete	2111
valu@@	2111
erts	2111
nt	2111
Contents	2110
DER@@	2110
concentrating	2110
second-@@	2110
tto	2110
clerosis	2110
10.8	2109
11.4	2109
bloody	2109
Beauty	2108
hlen	2107
cham@@	2107
1964	2107
Andrea	2107
eruption	2107
grill	2106
4x@@	2106
free@@	2106
beneath	2106
noble	2106
ador	2106
05.@@	2105
www.c@@	2105
Soft	2105
YER	2105
pled	2105
akes	2104
fishermen	2104
celebrations	2104
exe	2104
Vag@@	2104
fier	2104
console	2103
Keeping	2103
Cut@@	2103
Quick	2103
Rand@@	2103
oria	2103
Nuraghe	2102
configure	2102
crown	2102
Fischer	2102
xn--12ca8j2al6k.net	2102
drilling	2101
crop	2100
verified	2100
Cycling	2100
109@@	2100
rigidity	2100
admit	2100
iller	2099
kB	2099
attempting	2099
literally	2099
propor@@	2099
shade	2099
Platz	2098
hyster@@	2098
riders	2098
twitter	2098
Applic@@	2098
Wuppertal	2097
secon@@	2097
ðAwww.immobilsarda.com	2097
Gospel	2097
clip	2097
VER	2095
broad@@	2095
thec@@	2095
colonial	2095
roller	2095
muss	2095
expon@@	2095
lawyers	2094
pag@@	2094
deny	2094
fertilis@@	2093
274	2093
payable	2093
Stav@@	2093
pressures	2092
colourful	2092
Manual	2092
integr@@	2092
gues	2092
Anyone	2092
religions	2092
CM	2091
28.09.2016	2091
xx@@	2091
Schul@@	2091
advisory	2091
Standards	2091
gaming	2091
tour@@	2090
doub@@	2090
Aviation	2090
diffuse	2090
Commodore	2090
lethal	2090
454	2090
Kenya	2090
subsidiaries	2089
legacy	2089
AV	2088
clay	2088
disputes	2088
designing	2088
vigorous	2088
Lem@@	2088
Consultant	2088
wit@@	2087
sporting	2087
630	2087
Categories	2087
firstly	2086
hear@@	2086
beloved	2086
arri@@	2086
BRE@@	2086
iden	2086
sweet@@	2086
wicked	2086
allevi@@	2085
indigenous	2085
undoubtedly	2085
modul@@	2085
reminder	2085
513@@	2084
Gew@@	2083
statue	2082
Arabic	2082
negotiating	2082
risen	2082
brass	2082
adhesion	2082
workplace	2081
numbered	2081
decorative	2081
drunk	2081
locks	2080
ecom@@	2080
comforts	2080
echo	2080
harm@@	2079
index.html	2079
Syrian	2079
kop@@	2079
respects	2079
Saf@@	2078
fortress	2078
Brown	2078
FT@@	2078
Est@@	2078
Feed	2077
strive	2077
kat@@	2077
Masters	2076
demographic	2076
SMS	2076
crane	2076
late@@	2076
endemic	2076
guilty	2076
ytes	2075
Integration	2075
hike	2074
PK@@	2074
cavity	2074
asp	2074
emptying	2074
scanner	2073
Wales	2072
landing	2072
ATH@@	2072
Centro	2072
S.p.A.	2072
optimize	2071
1980s	2071
314	2071
mailing	2071
gravity	2070
ffs	2070
fabrics	2070
Plat@@	2070
cabinet	2070
Inhalt	2069
Free@@	2069
Refer	2069
Arbitration	2069
privileged	2069
Eric	2069
weaken	2068
blow	2068
fare	2068
cartilage	2068
2016-0@@	2068
2021	2068
quoted	2067
dered	2067
Sach@@	2067
Automotive	2067
commerce	2067
Bielefeld	2067
isolation	2067
uber@@	2066
Buch@@	2066
Putin	2066
Marx	2065
tournaments	2065
Benjamin	2065
esen	2064
consultant	2064
mitting	2064
tasty	2063
rant	2063
painter	2063
Knowledge	2063
Effective	2062
pler	2062
har	2062
Sou@@	2062
Parti@@	2062
OC@@	2062
table@@	2062
kirchen	2061
instant	2061
Abstract	2061
Function	2061
Four@@	2061
Seminar	2061
Furnished	2061
2013-@@	2060
swings	2060
REACH	2060
prospec@@	2060
dres@@	2060
Merano	2059
Files	2059
struc@@	2059
Halle	2059
Gel	2058
identifying	2058
ami	2058
acy@@	2058
concludes	2058
parasites	2057
contracting	2057
Nutrition	2057
ing.@@	2057
MR	2056
velocity	2056
umin@@	2056
INCLU@@	2055
inviting	2055
palate	2055
investor	2055
ò	2055
fears	2054
Matthew	2054
captured	2053
Classical	2053
dollar	2053
2001-@@	2053
tness	2053
Turn@@	2053
Mess@@	2053
foodstuffs	2053
anch@@	2052
1920	2052
insights	2051
Virtual	2051
deal@@	2050
pseud@@	2050
Bauer	2050
harder	2050
.com.	2050
Jürgen	2050
jar	2050
Bran@@	2049
foremost	2049
O.@@	2049
Prix	2047
Stars	2047
ð	2047
cub@@	2047
Flat	2047
attracted	2047
Paradise	2046
[...]
