"	164988
,	160048
.	155277
the	135754
of	128025
/	88045
and	83858
)	80048
in	80026
(	78621
to	68086
with	53682
a	45584
is	44886
for	40571
or	38902
be	34115
mg	29640
patients	27202
1	26610
The	26258
:	24956
not	22628
%	20747
should	19099
on	18210
as	17966
you	17961
are	17343
dose	15984
that	14965
treatment	13894
by	13823
•	13605
may	13529
was	13460
at	13231
have	13084
ml	12962
your	12829
use	12496
EU	11570
been	11568
-	11126
used	10736
2	10459
an	10244
In	9960
has	9942
were	9612
other	9527
tablets	9024
from	8809
injection	8784
10	8706
blood	8441
see	8401
if	8036
after	7943
If	7900
doctor	7558
than	7286
effects	7280
3	7227
studies	7117
solution	6921
+	6813
;	6629
5	6368
any	6298
it	6250
clinical	6249
this	6248
4	6188
100	6127
section	6115
which	5965
recommended	5927
during	5739
can	5658
who	5593
no	5514
contains	5450
risk	5290
will	5131
’	5103
one	5073
therapy	5000
side	4917
when	4891
study	4834
increased	4795
30	4758
50	4721
day	4682
administration	4678
given	4664
more	4631
<	4599
medicines	4566
disease	4541
kg	4484
also	4431
A	4426
daily	4425
following	4402
20	4401
take	4381
?	4287
reported	4286
reactions	4273
vial	4214
6	4212
treated	4209
days	4209
years	4146
these	4142
weeks	4127
What	4024
oral	3964
pain	3958
administered	3945
data	3934
medicinal	3919
taking	3888
s	3874
all	3859
severe	3854
Tel	3813
including	3799
associated	3784
active	3762
renal	3733
doses	3713
skin	3705
levels	3693
before	3678
product	3654
must	3650
such	3630
observed	3589
tablet	3578
combination	3578
hours	3569
It	3518
insulin	3496
products	3482
patient	3462
symptoms	3460
EMEA	3436
This	3419
12	3395
infusion	3377
syringe	3312
–	3264
had	3216
liver	3214
up	3196
increase	3180
body	3111
into	3100
taken	3089
8	3081
information	3079
available	3075
compared	3073
medicine	3065
two	3064
age	3052
adverse	3042
only	3037
effect	3028
time	3016
IU	3005
15	3003
Do	2994
months	2990
*	2989
plasma	2987
children	2987
safety	2982
=	2940
first	2913
containing	2888
placebo	2862
disorders	2829
C	2814
25	2804
0	2752
For	2751
>	2747
human	2718
Patients	2716
24	2694
film-coated	2665
impairment	2656
TO	2644
using	2601
between	2585
g	2580
infection	2580
once	2574
7	2571
about	2549
system	2538
pre-filled	2527
within	2511
18	2492
per	2468
≥	2447
without	2444
common	2419
efficacy	2412
00	2412
40	2397
powder	2367
type	2364
No	2357
European	2354
-@@	2354
heart	2333
trials	2322
considered	2316
vaccine	2314
x	2308
receiving	2301
some	2300
less	2292
sodium	2281
needle	2272
60	2265
over	2261
cause	2255
under	2250
14	2243
group	2241
hepatic	2214
There	2214
acid	2210
but	2205
its	2203
site	2201
response	2195
4.4	2195
Each	2193
allergic	2168
e.	2165
approximately	2150
low	2138
least	2136
weight	2126
function	2125
”	2118
shown	2107
pressure	2101
known	2093
number	2090
concentrations	2089
high	2086
single	2083
“	2083
due	2068
each	2067
How	2055
capsules	2055
substance	2049
cells	2047
events	2020
infections	2012
there	1978
studied	1965
exposure	1954
pack	1953
_	1953
below	1938
experience	1935
twice	1928
occur	1925
those	1921
I	1888
06	1885
their	1874
women	1871
water	1865
You	1864
9	1863
0.5	1860
reduced	1859
ritonavir	1838
B	1835
THE	1830
suspension	1829
28	1829
potential	1828
cases	1824
pregnancy	1819
week	1816
pregnant	1810
micrograms	1804
80	1804
subjects	1795
very	1789
blister	1788
immediately	1776
out	1767
l	1766
failure	1756
both	1745
‘	1744
three	1742
rare	1731
most	1719
cancer	1714
every	1706
solvent	1699
marketing	1697
CHMP	1691
treat	1684
received	1682
ingredients	1682
adults	1682
200	1675
clearance	1671
need	1671
11	1668
higher	1665
bleeding	1658
times	1655
cell	1650
]	1646
[	1644
significant	1642
ON	1639
However	1635
rate	1635
reduction	1619
inhibitors	1613
white	1609
authorisation	1599
98	1598
total	1597
benefit	1595
seen	1582
problems	1575
based	1575
serum	1569
similar	1565
moderate	1559
activity	1559
toxicity	1557
does	1556
300	1549
07	1537
16	1527
provided	1526
90	1526
food	1526
These	1524
same	1520
necessary	1515
new	1506
until	1504
intravenous	1502
n	1489
pen	1486
After	1484
Treatment	1483
serious	1482
do	1482
prior	1478
hepatitis	1473
°	1471
against	1465
mean	1460
normal	1459
75	1450
150	1447
PARTICULARS	1446
dosage	1446
APPEAR	1436
reaction	1434
p	1433
AUC	1432
21	1430
results	1427
o	1422
decreased	1418
period	1405
respectively	1402
Your	1401
µg	1396
effective	1393
As	1388
500	1387
either	1377
loss	1376
g.	1369
lower	1367
well	1359
possible	1359
HIV	1348
PVC	1348
bone	1344
signs	1342
rash	1341
02	1335
special	1329
being	1323
When	1323
400	1312
related	1311
incidence	1310
FOR	1309
vomiting	1306
kidney	1296
care	1295
appropriate	1289
vials	1289
controlled	1286
baseline	1283
Therefore	1279
decrease	1271
level	1270
full	1268
dosing	1263
concentration	1263
they	1262
nausea	1257
therefore	1249
year	1247
56	1247
required	1247
expected	1246
muscle	1246
hard	1241
AND	1237
dogs	1237
control	1236
agents	1236
Common	1235
injections	1233
maximum	1231
OF	1230
48	1227
mild	1226
13	1223
Oral	1218
Use	1216
Committee	1214
Other	1213
conditions	1212
IS	1210
95	1205
indicated	1202
tell	1201
changes	1195
97	1189
pharmacokinetics	1187
22	1186
above	1184
contact	1183
drug	1179
PACKAGING	1176
development	1176
syndrome	1174
glass	1168
case	1165
acute	1165
duration	1165
adolescents	1165
alfa	1163
alone	1163
red	1161
eye	1154
could	1154
01	1153
70	1149
while	1144
inflammation	1143
monitored	1143
2.5	1140
reduce	1140
further	1134
diabetes	1131
include	1129
5@@	1129
9@@	1125
chloride	1125
Very	1123
stop	1121
chronic	1121
6@@	1119
HOW	1117
virus	1113
84	1111
substances	1109
caution	1104
frequency	1104
45	1104
8@@	1104
where	1103
caused	1102
Cmax	1098
Winthrop	1095
Annex	1094
rats	1086
17	1083
08	1077
did	1076
swelling	1075
minutes	1074
bottle	1072
Marketing	1069
WHAT	1066
change	1065
fever	1065
urine	1065
like	1064
because	1064
work	1063
range	1062
through	1060
healthy	1058
alu	1055
CPMP	1054
affect	1054
protein	1050
7@@	1050
creatinine	1048
them	1046
demonstrated	1044
concomitant	1044
included	1041
diarrhoea	1038
clinically	1037
people	1036
4.2	1035
leaflet	1033
limited	1032
adjustment	1032
population	1032
breast	1026
h	1025
systemic	1024
performed	1019
m2	1019
b	1019
greater	1018
pharmacokinetic	1017
4@@	1017
Uncommon	1014
disorder	1012
−	1011
cap	1010
called	1009
specific	1006
4.8	1005
effectiveness	1005
1000	1005
Human	1001
adult	996
min	995
vaccination	994
ed	993
breast-feeding	992
II	991
result	989
primary	989
OUTER	985
test	984
trial	983
mouth	982
contents	979
CYP3A4	979
4.5	978
Take	977
monitoring	976
vitro	976
medical	976
Commission	975
feeling	971
significantly	967
001	967
1,000	965
made	962
cannot	960
dizziness	960
starting	957
additional	956
addition	949
order	948
usually	947
S.	947
inhibitor	943
99	942
experienced	940
milk	940
surgery	940
alcohol	939
E@@	939
subcutaneous	938
Authorisation	937
child	936
main	936
S@@	935
then	932
glucose	931
how	927
To	927
abnormal	926
established	925
t	925
250	924
23	920
tissue	920
interferon	914
N	913
A.	912
important	911
syringes	910
approved	910
start	907
Pharma	907
headache	906
calcium	906
evidence	906
35	905
04	904
volume	903
occurred	900
33	899
GmbH	897
therapeutic	896
44	896
small	896
antibodies	895
tests	893
another	892
found	891
date	886
III	886
S	884
whether	883
3@@	882
hypersensitive	881
sections	881
de	880
animals	879
32	878
C@@	876
One	876
factor	875
last	874
showed	874
machines	869
second	866
growth	864
increases	859
clear	858
receive	856
Ltd	855
5.2	854
e	853
2000	852
metformin	852
4.3	852
pharmacist	852
France	851
different	850
elderly	850
prevent	848
groups	843
history	841
chemotherapy	839
light	839
area	838
discontinued	838
month	837
phase	836
four	835
capsule	835
@	828
end	828
hypersensitivity	827
600	825
10,000	825
amount	824
ability	824
hypertension	824
procedure	822
96	822
1.5	822
002	819
anaemia	818
release	816
19	815
although	813
long	812
advice	811
oedema	810
sugar	810
74	804
make	801
reconstituted	801
alfa-2b	800
presented	799
Insulin	798
reconstitution	797
65	797
yellow	795
names	795
evaluated	794
Table	793
authorised	792
humans	790
Package	788
d	788
B@@	788
veterinary	786
Member	784
cartridge	784
too	783
aged	783
continue	782
5.1	782
excreted	778
Medicinal	778
distribution	777
become	776
paediatric	776
stomach	776
initial	776
000	774
analysis	774
metabolism	773
overdose	773
relevant	771
E	771
interaction	770
multiple	769
major	768
respiratory	766
especially	766
in@@	766
management	765
carton	761
hormone	761
package	761
drive	761
P@@	760
F@@	759
MAH	759
regimen	757
CI	757
followed	756
United	754
49	754
i	754
26	752
re@@	751
supplied	748
120	748
abdominal	748
ensure	748
2@@	747
depression	747
usual	746
continued	744
according	743
activities	741
non-@@	740
CVMP	740
please	739
2001	739
U	738
individual	737
back	737
cardiac	733
reports	733
003	731
At	729
immune	725
Kingdom	724
A@@	724
conducted	722
i.	720
Agency	719
enzyme	719
&	716
needles	716
discontinuation	716
what	714
half-life	712
develop	711
count	711
action	710
condition	709
overall	709
Bayer	709
list	708
36	708
local	706
34	704
31	702
03	701
D	697
carefully	694
Limited	691
indication	691
L@@	690
prolonged	690
aluminium	690
lead	688
throughout	688
1.@@	687
See	686
prescribed	686
IT	683
ribavirin	683
patch	682
certain	679
±	679
42	678
together	678
particularly	678
resistance	677
injected	677
packs	676
39	675
recombinant	673
M@@	673
potassium	671
G@@	671
animal	671
achieved	670
004	670
Humalog	670
tract	667
since	666
c	663
blisters	663
05	663
dry	662
s@@	661
pulmonary	661
surface	658
Leaflet	657
DNA	654
gets	653
likely	653
upper	652
Rare	652
elimination	651
unless	651
support	651
hour	650
Products	650
urinary	650
application	649
viral	649
maintenance	648
Before	648
general	647
produced	645
median	645
H	645
listed	645
assessment	645
avoid	644
46	643
T@@	643
monotherapy	643
might	642
D@@	642
USE	642
absorption	641
sure	640
Sodium	639
versus	639
so	639
instructions	638
lamivudine	636
profile	636
part	635
phosphate	635
2006	634
vaccines	633
impaired	633
arthritis	633
co-administered	632
Following	632
emea.	631
Union	631
get	630
PACKAGE	630
looks	629
standard	628
hypotension	628
Irbesartan	626
insufficiency	626
rubber	625
randomised	624
temperature	623
Liprolog	623
event	623
long-term	623
Film-coated	623
IMMEDIATE	619
neutropenia	619
peripheral	619
haemoglobin	618
gastrointestinal	618
	617
oxide	616
During	614
drugs	613
2002	613
MINIMUM	610
values	609
K@@	608
contain	607
generally	606
particular	606
2007	605
Clinical	604
obtained	604
29	604
Germany	603
800	603
initiated	602
0.9	601
interval	599
counts	598
monohydrate	597
measures	596
advised	596
L	596
adequate	593
down	592
able	592
H@@	592
27	591
Teva	590
Pregnancy	588
lactose	587
risks	586
meal	586
interactions	585
difficulty	585
equivalent	584
47	584
physician	582
arm	580
N@@	580
inject	579
class	576
help	575
hydrochlorothiazide	574
six	571
SPC	570
measured	569
combined	569
concentrate	568
positive	568
mmol	568
44-20	567
CARTON	566
place	566
7.5	565
stopper	565
agent	565
efavirenz	564
enzymes	563
Always	563
Like	562
granted	562
ng	562
provide	560
mixed	559
expiry	558
agreed	558
assessed	558
death	558
BEFORE	558
improvement	557
binding	557
drink	556
metabolite	555
vein	553
O@@	553
iron	551
occurs	551
needed	551
YOU	551
2.@@	551
contraindicated	551
52	550
present	549
complete	549
form	549
previous	548
weakness	547
005	546
described	546
chest	546
label	545
breathing	545
USED	544
survival	543
V@@	543
state	542
Why	541
diseases	541
R@@	540
≤	540
infected	539
TAKE	538
Dose	537
show	537
tumour	537
next	537
defined	536
m	536
repeated	536
41	536
Management	536
0.3	535
stated	535
intended	535
platelet	535
An	534
43	534
indicate	533
All	531
adjusted	531
Renal	530
Blister	529
008	528
Fax	527
scientific	526
Adverse	526
itching	526
1998	526
factors	525
refrigerator	525
longer	524
even	523
UK	523
vision	523
Special	523
{	522
damage	522
es	522
brain	522
infants	522
precautions	522
early	520
line	520
soon	520
basis	520
1997	520
older	518
M	518
metabolites	518
Europe	518
face	517
started	517
dl	517
cardiovascular	517
Enbrel	517
o@@	516
benefits	516
Please	515
difference	515
rarely	514
antiretroviral	514
prevention	512
}	512
dioxide	512
units	512
12.5	511
course	511
set	511
colourless	510
STORE	510
fluid	510
un@@	509
here	509
closely	509
commonly	508
told	508
withdrawal	506
unknown	506
rates	505
fat	505
hypoglycaemia	505
er	504
cholesterol	504
sterile	503
initiation	502
Tell	502
2008	502
procedures	501
receptor	501
uncommon	501
average	501
Holder	500
several	500
valid	500
liquid	499
affected	499
dysfunction	499
large	499
ALT	499
frequently	498
types	498
al	497
applications	496
0.1	496
rapid	495
evaluation	494
007	494
much	494
via	494
lack	494
ing	493
previously	493
laboratory	492
eyes	492
volunteers	491
metabolised	491
forget	491
corresponding	491
p@@	491
already	490
International	490
everybody	489
would	489
antibody	489
006	488
↓	488
plus	486
fatigue	486
Based	486
55	486
Taking	485
1.0	485
Insuman	485
IV	484
measure	484
I@@	484
37	484
180	483
resulting	483
mainly	482
developed	482
proteins	482
onset	481
C.	480
an@@	480
current	479
B.	479
pharmacovigilance	479
5.3	478
undesirable	477
hydrochloride	477
however	477
EPAR	476
inhibition	475
125	475
Invented	475
protease	474
name	473
require	473
identified	473
health	472
subsequent	472
notice	472
Study	471
Product	470
bioavailability	469
concomitantly	469
sick	469
tenofovir	468
fatal	467
quality	467
appetite	467
ate	465
working	465
1@@	465
way	465
male	465
Summary	464
size	464
presence	464
million	464
030	462
advanced	461
ratio	461
involving	460
weekly	459
Olanzapine	459
Lilly	458
regular	457
Medicines	457
progression	456
influenza	455
Because	455
Ireland	455
tacrolimus	455
PVDC	455
.@@	454
Comb	453
submitted	453
dialysis	452
lung	452
methotrexate	451
deficiency	451
cats	450
Some	450
160	450
seizures	450
hydroxide	448
Characteristics	448
breath	448
differences	448
Al	448
di@@	446
States	446
around	446
free	446
b@@	445
http	444
plunger	444
r	444
LEAFLET	444
OR	443
eu	443
e@@	443
national	442
asthma	442
transient	441
Tél	441
excretion	441
61	440
cartridges	440
europa.	438
opinion	438
38	438
involved	438
ation	438
placebo-controlled	437
General	437
organ	436
72	436
table	436
resulted	435
P	435
still	435
Pen	434
μ	434
give	433
Pfizer	433
HBV	433
beta	433
female	433
marrow	432
Animal	431
rapidly	430
causes	429
Caution	428
levodopa	428
myocardial	427
recommendations	426
whole	424
whose	424
orodispersible	424
T	423
transplant	422
few	422
species	421
slightly	420
maintained	420
induction	420
joint	420
example	419
feel	419
marked	419
transdermal	419
Children	418
copies	417
i@@	417
parameters	417
having	417
t@@	415
check	415
zidovudine	414
reached	414
elevated	413
follow-up	413
k@@	412
indications	412
infarction	412
production	412
anti-@@	411
statistically	410
preparation	410
Belgium	410
life	410
accordance	410
stopped	410
Merck	409
Since	407
target	407
air	407
double-blind	406
en@@	406
Tablet	406
produce	406
fully	405
completed	405
m@@	405
…	405
Article	404
010	403
64	403
diabetic	403
redness	403
estimated	403
means	402
illness	402
affects	401
51	401
Section	401
avoided	401
10@@	400
testing	400
unit	399
particles	399
primarily	399
Unit	399
constipation	398
diet	398
subcutaneously	397
regarding	397
occurring	396
009	396
Blood	396
E-mail	396
cough	396
0.4	396
0.6	396
visual	395
BMS	395
old	395
company	394
haemorrhage	394
carried	394
coated	394
throat	394
dependent	394
tested	393
five	393
y	393
Type	393
determined	391
UNITS	391
increasing	391
polyethylene	390
abnormalities	390
vitamin	390
comparable	390
↑	390
1,@@	390
severity	389
exactly	389
4.6	389
corticosteroids	389
Phase	389
episodes	389
upon	388
room	388
SMALL	387
irbesartan	386
g@@	386
lesions	386
box	386
c@@	386
guidelines	386
urticaria	386
al@@	385
document	385
NSAIDs	385
ic	385
code	384
stored	383
majority	381
cycle	381
reach	381
l@@	381
hands	380
treatments	380
kidneys	380
monitor	379
undergoing	379
many	379
n@@	379
368	379
Plan	379
treating	378
HIV-1	378
Portugal	378
reference	378
short	378
Viraferon	378
vivo	377
Humira	377
Working	377
status	377
symptomatic	376
tumours	376
54	376
requirements	375
0.0@@	375
co-administration	375
olanzapine	375
f@@	375
Netherlands	374
protect	374
abacavir	373
's	372
ViraferonPeg	371
orally	371
Administration	370
negative	370
fold	370
schedule	370
absorbed	370
PegIntron	369
Kaletra	369
2005	369
Skin	368
non	368
half	368
Health	368
66	367
separate	366
noted	366
Keep	366
nurse	366
exposed	365
designed	365
protective	365
remove	364
They	364
bottles	364
added	364
0.2	363
contraception	363
insufficient	363
amlodipine	363
influence	363
sleep	363
often	362
peak	362
Reproduction	362
Studies	362
close	361
Safety	361
Not	360
State	360
excipients	360
Due	360
stable	360
applied	359
exercised	359
concluded	358
Although	358
frequent	358
suggest	358
anxiety	358
anhydrous	357
container	356
mortality	356
physical	356
decreases	355
secondary	355
ciprofloxacin	355
93	355
Nespo	354
d@@	354
term	354
method	353
58	353
off	353
confirmed	353
67	353
irritation	353
rheumatoid	353
V	352
mice	352
73	352
developing	351
Concomitant	351
medication	351
Important	350
www.	350
extent	350
referral	350
post-marketing	349
ar@@	349
currently	349
men	349
Sector	349
pruritus	348
potent	348
diluted	348
potentially	348
patches	348
68	348
pigs	347
unlikely	347
Ciprofloxacin	346
intervals	346
docetaxel	346
PRODUCT	345
excluded	345
E172	345
2003	345
morning	345
V.	345
investigated	345
R	345
thrombocytopenia	345
stroke	345
third	345
011	344
adequately	344
outer	344
on@@	344
intramuscular	344
somnolence	343
EXP	343
fertility	343
soft	343
resistant	342
6.6	342
score	342
Remove	342
rabbits	342
left	342
Hypersensitivity	342
de@@	341
antibiotics	341
person	341
Powder	340
makes	340
allow	339
final	339
v@@	339
Finland	339
programme	338
relative	338
store	338
intravenously	338
normally	338
meeting	338
Day	337
62	336
W@@	336
away	336
AB	335
vs.	335
antiviral	335
pens	335
induced	335
Pharmacovigilance	335
account	334
reducing	334
Risk	334
prescription	333
4.@@	333
receptors	333
endpoint	333
formulation	332
point	331
meetings	331
route	331
89	331
fumarate	331
thyroid	331
Once	331
Pharmaceuticals	330
saquinavir	330
authorities	330
properties	330
lactation	330
removed	330
Week	330
85	330
protection	329
er@@	329
3.@@	329
vessels	329
VIII	329
Store	329
1996	329
tiredness	329
central	328
disoproxil	328
ovarian	328
Grade	328
possibly	327
formation	327
a@@	327
00@@	327
ask	326
012	326
limit	326
consistent	326
Efficacy	326
Pack	325
foetal	325
pH	325
s.	325
prolonged-release	325
tolerated	323
Road	323
metastatic	323
19@@	323
Hydrochlorothiazide	323
ANNEX	322
83	322
recently	322
storage	322
0@@	322
sufficient	322
Severe	321
areas	321
suitable	321
Trudexa	321
53	321
On	320
IntronA	320
component	320
stearate	319
Aranesp	319
guidance	319
at@@	319
exceed	319
complications	319
bacteria	319
Parkinson	319
eliminated	319
decide	318
1.2	318
E171	317
nervous	317
field	317
1.3	317
0.@@	317
excessive	316
erythema	316
82	316
91	316
ampoule	315
device	315
whom	315
neck	315
keep	314
amprenavir	314
NovoMix	313
57	313
F	313
0.8	313
inhibit	313
sexual	313
P450	313
ACE	313
59	312
fentanyl	312
plastic	312
voriconazole	312
ge	312
as@@	312
mellitus	312
Council	312
In@@	311
U@@	311
direct	311
existing	311
toxic	311
flushing	311
republika	310
June	310
Board	310
-2@@	309
swabs	309
completely	309
transfer	309
process	309
86	308
bacterial	308
haemodialysis	308
Luxembourg	308
talk	308
regularly	308
us	307
worsening	307
unchanged	307
neuropathy	307
mechanism	307
1-@@	306
h@@	306
young	306
109	306
peginterferon	306
better	305
Al@@	305
supervision	305
Italy	305
uc	305
14@@	304
pump	304
staff	304
disturbances	304
sites	304
angina	304
Basal	304
With	304
w	303
gastric	303
persistent	303
indinavir	303
platelets	303
technology	302
Cozaar	302
hospital	302
proportion	301
fungal	301
ts	301
bound	301
71	301
ATC	301
July	301
appear	301
proposed	301
review	300
y@@	300
discomfort	300
r@@	300
own	300
strain	299
RNA	299
63	299
Box	299
transplantation	299
adopted	299
reversible	299
diuretics	299
ulcers	298
minor	298
cellulose	298
X	298
various	298
induce	298
grade	297
NovoLet	297
co@@	297
Paediatric	297
RISPERDAL	297
metabolic	296
Water	296
steady	295
mail	295
Mix25	295
microgram	295
lansoprazole	295
intake	295
nose	294
findings	294
sensitivity	294
Name	294
inform	294
works	293
tissues	293
Cmin	293
valsartan	293
activated	293
faeces	293
2-@@	293
except	293
sensation	292
Mix50	292
Betaferon	292
correct	291
outcome	291
J@@	291
version	291
follow	291
sometimes	291
lispro	291
013	290
value	290
Tlf	290
Rebetol	290
it@@	290
st@@	290
Veterinary	290
appears	289
lopinavir	289
always	289
absolute	289
0.25	289
ated	289
GlaxoSmithKline	288
th	288
malignant	288
reproductive	288
Data	288
acknowledged	287
OJ	287
September	287
apply	286
sildenafil	286
absence	285
emtricitabine	285
warfarin	285
components	285
sweating	285
replacement	285
Application	285
belongs	284
13@@	284
rosiglitazone	284
Spain	283
slowly	283
Dosage	283
le@@	283
APTIVUS	283
Solution	283
Hepatic	283
RMP	283
reduces	282
attack	282
black	282
cytochrome	282
round	282
77	282
014	281
ULN	281
fractures	281
5-@@	281
improved	281
Rasilez	280
Co-administration	280
Agenerase	280
ro@@	280
careful	280
sitagliptin	280
pneumonia	279
continuous	279
intolerance	279
Effects	279
or@@	278
371	278
magnesium	278
76	278
en	278
cisplatin	278
regimens	278
12@@	278
report	278
cover	278
leukaemia	277
VIRAMUNE	277
Using	277
detected	277
AST	277
highly	277
angiotensin	277
simvastatin	277
370	277
occurrence	276
allergy	276
alternative	276
among	276
life-threatening	275
0.001	275
assay	275
hair	275
again	275
sizes	274
ine	274
88	274
slow	274
92	274
du	274
dilution	274
osteoporosis	273
inhibits	273
adjustments	273
Deutschland	273
O	273
users	273
depending	273
015	272
conventional	272
LABEL	272
69	272
5.@@	272
determine	272
London	271
mm	271
Head	271
confusion	271
glycol	270
ol@@	270
epilepsy	270
retention	270
MabThera	270
apparent	270
instructed	269
cream	269
z@@	269
li@@	269
fondaparinux	269
Elderly	268
Atripla	268
is@@	268
accumulation	268
questions	268
coagulation	268
responses	268
ic@@	268
2004	268
terminal	268
association	268
au	267
Austria	267
John	267
Pegasys	267
20@@	266
Most	266
delayed	266
diagnosis	266
acetate	266
preparations	266
international	266
Azomyr	266
lamotrigine	265
contraceptive	265
enough	265
dic	265
rod	265
handling	265
IX	265
Party	265
October	265
ti@@	265
inactivated	264
albumin	264
amended	264
Group	264
Z@@	264
ciclosporin	264
needs	264
epoetin	264
re-@@	263
monthly	263
Puregon	263
EC	263
Two	263
April	263
tip	263
muscles	263
leading	263
ating	262
follows	262
mm3	262
respect	262
immediate	262
tongue	262
1.1	262
safe	261
ulcer	261
impact	261
2.0	261
natural	261
An@@	260
summary	260
RE@@	260
me@@	260
strength	260
Belgique	260
detailed	260
Injection	259
clearly	259
respond	259
Directive	259
December	259
Dr	259
ers	259
rhinitis	259
©	258
requiring	258
drops	258
dog	258
open	258
sudden	258
vaccinated	257
think	257
evening	257
ac@@	257
dermatitis	257
3-@@	257
directly	257
responsible	257
Gastrointestinal	256
27@@	256
equal	256
consider	255
right	255
acidosis	255
improve	255
recognition	255
GONAL-f	255
yourself	254
pioglitazone	254
possibility	254
el@@	254
tic	254
competent	254
Eesti	254
insomnia	254
thrombosis	254
sulphonylurea	253
suspected	253
best	253
Read	253
performance	253
February	253
to@@	253
Information	253
u@@	253
se@@	253
orphan	253
baby	253
0.7	252
injury	252
X@@	252
derived	252
January	252
angioedema	252
amounts	252
nasal	251
carry	251
healthcare	251
nationally	251
attention	251
exercise	251
elevations	251
antihypertensive	251
machinery	250
1.4	250
matter	250
HDPE	250
016	249
commercial	249
purposes	249
78	249
antibiotic	249
2,@@	249
blocking	249
CellCept	249
rat	249
consideration	249
foil	249
psoriasis	249
NAME	248
ketoconazole	248
gently	248
maintain	248
Driving	248
Any	248
selective	248
contraceptives	247
issues	247
raised	247
whilst	247
Avastin	247
vascular	247
ro	247
81	246
AUTHORISATION	246
QT	246
KwikPen	246
bilirubin	246
coronary	246
excess	246
arms	245
si@@	245
am@@	245
3.5	245
k	245
Actraphane	245
double	244
operation	244
antagonists	244
Part	244
u	244
bodyweight	244
dissolved	244
anti@@	244
clotting	244
ch@@	244
Total	244
15@@	243
suffer	243
Τηλ	243
pivotal	243
taste	243
Belgien	243
consult	242
points	242
Re@@	242
paclitaxel	242
causing	242
artery	242
FSH	242
Increased	242
Mixtard	241
top	241
lowering	241
pre-@@	241
Regulation	241
behaviour	240
therapies	240
rifampicin	240
pro@@	240
discontinue	240
nelfinavir	240
shortness	240
cm	240
March	240
022	240
Italia	240
lactic	239
Xeloda	239
94	239
recovery	239
later	239
recent	239
'	239
Sharp	239
PE	239
Latvija	238
►	238
Danmark	238
titanium	238
Mean	238
material	238
supportive	238
May	238
relevance	238
clots	237
November	237
Ribavirin	237
remain	236
forms	236
partial	236
contrast	236
shock	236
Neoclarityn	236
user	236
live	235
joints	235
prepared	235
prolongation	235
post	235
ratiopharm	235
v	235
184	234
EEC	234
lo	234
372	234
Adults	233
aprepitant	233
stopping	233
secretion	233
anaphylactic	233
na	233
com	233
haematological	233
Herceptin	232
steady-state	232
reverse	232
lymphoma	232
clopidogrel	232
delay	232
solutions	232
atazanavir	232
reductions	232
warnings	232
Caelyx	232
Co	231
feeding	231
salt	231
cycles	231
just	231
210	231
Eli	231
ad@@	231
Docetaxel	231
titration	231
cleansing	231
altered	231
Penfill	231
Extavia	231
AS	230
gain	230
characteristics	230
hyper@@	230
AL@@	230
monkeys	229
hip	229
hazard	229
Aerius	229
BLISTERS	229
anti-inflammatory	228
aminotransferase	228
79	228
go	228
seek	228
sucrose	228
exposures	228
helps	228
tuberculosis	228
fracture	228
Metabolism	228
atorvastatin	228
carcinoma	228
mofetil	228
Dohme	228
across	227
Tablets	227
Novartis	227
vildagliptin	226
28@@	226
coli	226
done	226
relationship	226
balance	226
suicidal	225
put	225
Note	225
antigen	225
remains	225
systems	225
110	225
professional	225
REYATAZ	225
White	225
administering	225
inhaled	225
mmHg	225
childbearing	224
acting	224
affecting	224
button	224
entire	224
antagonist	224
Filgrastim	224
e.g.	224
Subcutaneous	224
VIAL	224
Remicade	223
predominantly	223
concerns	223
isolated	223
adapter	223
opening	223
comparison	223
gel	223
per@@	223
chills	222
Applicant	222
invasive	222
comparator	222
prescribe	222
mL	222
phenytoin	222
Epoetin	222
ates	222
16@@	222
blurred	222
essential	222
Sverige	221
hr	221
position	221
ations	221
digoxin	221
α	221
breast-feed	221
unused	221
substrate	221
3.0	221
viruses	220
accidental	220
Telzir	220
models	220
weighing	220
stage	220
TEXT	220
topical	220
degree	220
Overall	220
surgical	220
185	219
read	219
blue	219
Park	219
divided	219
bruising	219
België	219
abdomen	218
Only	218
trough	218
inflammatory	218
PRE-FILLED	218
etoricoxib	218
risperidone	218
1999	218
System	218
orange	218
Capsule	217
flow	217
doxorubicin	217
filgrastim	217
®	217
polypropylene	217
SA	217
achieve	217
Women	216
medications	216
Orphan	216
PREZISTA	216
gradually	216
beginning	216
pre@@	216
se	216
published	216
content	216
2.4	216
view	216
adjust	215
regulatory	215
documents	215
Instructions	215
HEXAL	215
lp	215
ra	215
comes	215
teratogenic	214
020	214
foetus	214
remaining	214
vs	214
17@@	214
contained	214
individuals	214
d.	214
w@@	214
6-@@	214
arterial	214
0-@@	214
open-label	214
Exelon	214
tachycardia	214
drop	213
parties	213
018	213
administer	213
CD4	213
IN	213
booster	213
Rebif	213
requested	213
randomized	213
populations	213
updated	212
CYP2C9	212
MIU	212
tube	212
4-@@	212
ag@@	212
radiation	212
Further	212
HPV	212
Module	212
x@@	211
cloudy	211
consecutive	211
empty	211
tingling	211
original	211
ad	210
Tracleer	210
Units	210
temporary	210
ventricular	210
mediated	210
KOGENATE	210
fall	210
susceptibility	210
susceptible	210
led	209
tremor	209
Di@@	209
worse	209
polysorbate	209
87	209
rise	209
gene	209
D-@@	209
responded	209
mutual	209
birth	209
underlying	209
anorexia	209
Rapamune	209
Report	209
drowsiness	209
decided	208
analogues	208
refer	208
market	208
ampoules	208
appearance	208
sustained	208
ZYPREXA	207
losartan	207
asthenia	207
Volibris	207
..	207
numbness	207
mutations	207
pharmaceutical	207
mental	207
starch	206
Sweden	206
calculated	206
Denmark	206
VFEND	206
subject	206
good	206
juice	206
lungs	206
telmisartan	205
8.@@	205
harm	205
seal	205
Vimpat	205
assess	205
suffering	205
7.@@	205
MIRCERA	205
preferably	205
358	205
Polska	205
strains	204
plan	204
bag	204
CYP2D6	204
criteria	204
meals	204
extension	204
feet	204
18@@	204
heparin	204
Lietuva	204
ting	204
relating	204
strong	204
127	204
erythropoietin	203
017	203
ingredient	203
operate	203
straight	203
um	203
112	203
properly	203
Aluminium	203
BYETTA	203
240	203
prophylaxis	203
lo@@	203
4.1	203
regard	203
discuss	203
swallowing	203
Keppra	203
Median	203
be@@	202
driving	202
myalgia	202
bolus	202
sh@@	202
specifically	202
biconvex	202
ur@@	202
ongoing	202
includes	202
750	202
Nederland	202
RA	202
agitation	201
malignancies	201
minimum	201
physicians	201
ointment	201
midazolam	201
prescribing	201
Headache	200
recovered	200
itraconazole	200
MEDICINAL	200
thus	200
nucleoside	200
G	200
New	200
gland	200
2.6	200
om@@	200
ibandronic	200
cold	200
practice	200
experts	199
ocular	199
Rapinyl	199
Neupro	199
CELSENTRI	199
mo@@	199
Hepatitis	199
STRIPS	199
pre-existing	199
hyperglycaemia	199
looked	199
hand	199
alpha	199
problem	198
circumstances	198
minute	198
Österreich	198
spp	198
dihydrate	198
bubbles	198
Rapid	198
cattle	198
gemcitabine	198
ear	198
From	198
dummy	198
diagnosed	198
load	198
cytotoxic	198
disturbance	197
Zevalin	197
pharmacology	197
Novo	197
Additional	197
centralised	197
ally	197
off-white	197
ReFacto	197
Glivec	197
enrolled	197
feed	197
sachet	197
395	197
Date	196
sirolimus	196
initiating	196
j@@	196
Clopidogrel	196
E.	196
hypertensive	196
chemical	196
HCV	196
spine	196
il@@	195
id@@	195
dyspepsia	195
samples	195
sensitive	195
wall	195
chewable	195
measuring	195
fluticasone	195
advise	195
stability	195
6.@@	195
Temodal	195
almost	195
Xolair	195
Community	195
percentage	195
SC	195
Zometa	194
relation	194
accidentally	194
jaundice	194
Via	194
Evaluation	194
reporting	194
resolved	194
Ingelheim	194
BID	194
mentioned	194
019	193
transmission	193
attached	193
yet	193
disposal	193
substrates	193
NOT	193
females	193
services	193
August	193
Class	193
Prometax	193
celecoxib	192
implementation	192
triglycerides	192
TABLETS	192
By	192
return	192
WITH	192
↔	192
she	192
,@@	192
8000	191
Nervous	191
withdrawn	191
lon	191
paroxetine	190
ri@@	190
Me	190
pharmacological	190
ris	190
film	190
damaged	190
gender	190
clarithromycin	190
Alu	190
terms	189
he	189
dyspnoea	189
immunisation	189
swab	189
push	189
sulphate	189
poor	189
pharmacodynamic	189
organs	189
AG	189
ab@@	189
ranging	189
weak	189
35@@	189
Also	189
fluoxetine	189
Effentora	189
K	189
PA	189
lyophilisate	188
provides	188
pancreas	188
hormonal	188
le	188
professionals	188
BOX	188
Liver	188
legs	188
bladder	188
Number	188
Check	188
in-use	188
o.	188
progressive	187
citrate	187
386	187
slight	187
mothers	187
България	187
topotecan	187
periods	187
neutrophil	187
1995	186
Remeron	186
0.0001	186
experimental	186
opaque	186
seconds	186
rhabdomyolysis	186
revealed	186
past	186
2.1	186
fasting	186
source	186
Serious	186
MARKETING	185
swallowed	185
Titanium	185
im@@	185
Pain	185
Fertavid	185
placebo-treated	185
-treated	185
Ziagen	185
public	185
—	185
nor	185
Prolonged	185
maternal	184
now	184
Absorption	184
Retacrit	184
ne@@	184
microcrystalline	184
surveillance	184
reproduction	184
Rash	184
Norge	184
missed	184
soluble	184
deep	184
sealed	184
immunosuppressive	184
lactating	184
younger	183
Pharmacokinetic	183
failed	183
EXUBERA	183
shall	183
comparing	183
discarded	183
antidepressants	183
duloxetine	183
applicant	183
functioning	183
changed	183
adefovir	183
kept	183
z	183
ap@@	182
Anti@@	182
Centre	182
Syndrome	182
Ceplene	182
onto	182
Patient	182
terfenadine	182
Calcium	182
flu	182
6.1	182
tetanus	182
NovoRapid	182
hives	182
ADRs	181
HbA1c	181
TAXOTERE	181
Response	181
nerve	181
coma	181
Healthcare	181
decision	181
depends	181
NexGen	181
FlexPen	181
aripiprazole	180
harmful	180
ct	180
351	180
delivery	180
BeneFIX	180
Y@@	180
Silapo	180
consultation	180
Plasma	180
hot	180
1.6	180
congenital	180
Helixate	180
extensive	180
request	180
card	180
uric	179
entacapone	179
sp@@	179
Advagraf	179
colour	179
closed	179
nicotinic	179
Suspension	179
carcinogenicity	179
horses	179
base	179
900	179
Invirase	179
dementia	179
Greece	178
España	178
InductOs	178
operating	178
049	178
021	178
supply	178
oval	178
radioactivity	178
thereafter	178
solid	178
Distribution	178
Tasmar	178
carbamazepine	178
fosamprenavir	178
compound	178
427	178
fixed	177
representative	177
IONSYS	177
carcinogenic	177
NovoSeven	177
sleepiness	177
irregular	177
know	177
Child-Pugh	177
Of	177
eight	176
rDNA	176
corticosteroid	176
somatropin	176
Respiratory	176
acceptable	176
G3	175
characterised	175
suppression	175
isolates	175
Tarceva	175
Manufacturer	175
infliximab	175
warning	175
particulate	175
Ex@@	175
anticoagulants	175
opioid	175
blockers	175
0.00@@	175
Suomi	175
Boehringer	175
clean	175
others	174
Bondenza	174
technique	174
MabCampath	174
tadalafil	174
et@@	174
swallow	174
naïve	174
he@@	174
bile	174
357	174
1.8	174
Acute	174
IN@@	174
ent	174
Purevax	173
inadequate	173
Stalevo	173
internal	173
Karvezide	173
mouse	173
supplements	173
r.	173
Both	173
Ritonavir	173
Lamictal	173
idiopathic	173
painful	173
ted	173
Undesirable	173
accompanied	173
Combination	173
vardenafil	173
int	173
●	173
paraesthesia	172
pancreatitis	172
Myocet	172
Raptiva	172
Aclasta	172
dexamethasone	172
CML	172
Diarrhoea	171
2.2	171
highest	171
relief	171
SP	171
no@@	171
3.3	171
MG	171
România	171
25@@	171
turn	171
burning	171
fibrosis	171
little	171
-1	171
Infections	170
420	170
ulceration	170
stavudine	170
biological	170
Nausea	170
parts	170
ink	170
Infanrix	170
6.2	170
ranged	170
yl@@	170
inhalation	170
concerning	170
giving	170
Dizziness	169
rue	169
lips	169
methods	169
AR@@	169
t-@@	169
formulations	169
ia	169
rejection	169
,000	169
Norvir	168
Intravenous	168
Trizivir	168
mix	168
demonstrate	168
HCT	168
transcriptase	168
Ar@@	168
Cases	168
SD	168
visible	168
venous	168
MSD	168
pramipexole	168
in-@@	168
Rue	168
InnoLet	168
remember	167
Protopy	167
CO@@	167
countries	167
1.7	167
log10	167
sub@@	167
met	167
Q@@	167
dis@@	167
renewal	167
rivastigmine	167
synthesis	167
single-dose	167
coloured	167
planning	167
fewer	167
Y	166
yl	166
SUMMARY	166
circulating	166
darunavir	166
0.75	166
Abseamed	166
alter	166
parenteral	166
Seretide	166
dopamine	166
Adult	166
stimulation	166
While	166
unusual	166
difficulties	166
ar	166
wording	166
indicating	165
convulsions	165
otherwise	165
10.@@	165
sclerosis	165
official	165
preventing	165
diagnostic	165
limb	165
closure	165
unable	165
pass	165
MS	165
debossed	165
em@@	165
NeoRecormon	164
waste	164
pertussis	164
recommendation	164
experiencing	164
membrane	164
Malta	164
2.3	164
head	164
flu-like	164
febrile	164
sepsis	164
origin	164
touch	164
haemophilia	164
generalised	164
shows	164
optimal	164
reasons	164
venlafaxine	164
Bonviva	164
diuretic	164
eu.	164
nature	163
anticancer	163
aseptic	163
males	163
AF	163
arthralgia	163
wort	163
CYP	163
132	163
immunoglobulin	163
diluent	163
Twinrix	163
mass	163
AC@@	163
herbal	162
ph@@	162
sleeping	162
ina	162
CNS	162
SYRINGE	162
adding	162
ant	162
2.7	162
poly@@	162
reveal	162
Indinavir	162
variability	162
pale	162
hydrochloric	162
Elimination	162
30@@	162
Karvea	162
discussion	161
swollen	161
psychiatric	161
getting	161
sis	161
AIDS	161
sector	161
obtain	161
woman	161
Κύπρος	161
th@@	161
ABILIFY	161
27.@@	161
tipranavir	161
sorbitol	161
140	161
spontaneous	161
12.@@	161
Slovenija	161
37@@	161
Helicobacter	161
anticipated	160
postmenopausal	160
micro@@	160
evaluate	160
po@@	160
acetylsalicylic	160
130	160
te@@	160
neurological	160
OptiSet	160
PACK	159
hoc	159
Zalasta	159
111	159
butyl	159
cirrhosis	159
Soliris	159
consciousness	159
ly	159
glimepiride	159
High	159
relapse	159
Omnitrope	159
Puh	159
Disorders	159
healing	159
AN	158
EMEND	158
Possible	158
Emtriva	158
Side	158
Cardiac	158
9.@@	158
confidence	158
Abbott	158
lithium	158
beat	158
inside	158
took	158
TORISEL	158
co-infected	158
infusions	158
Pro@@	157
Tamiflu	157
wide	157
necrosis	157
Efavirenz	157
-1@@	157
Hold	157
ex@@	157
360	157
Laboratories	157
1.25	157
modification	157
bowel	157
independent	157
SUSTIVA	157
NutropinAq	157
urea	157
thigh	156
Comp	156
Posology	156
Results	156
budget	156
131	156
2.8	156
lowest	156
Pharmaceutical	156
VI@@	156
pooled	156
INTELENCE	156
7-@@	156
concerned	156
09	156
steps	156
access	156
Prevention	156
Bondronat	156
β	156
performing	156
intestinal	156
146	155
persons	155
elevation	155
family	155
opened	155
Ελλάδα	155
infant	155
complex	155
immunity	155
Efexor	155
Januvia	155
genotoxicity	155
Pelzont	155
Zonegran	155
Quality	155
f	155
	155
5.0	155
aware	155
heat	155
malaise	155
Mutual	155
Protopic	155
binds	155
disposable	155
-related	154
harmonisation	154
ten	154
layer	154
oxygen	154
concurrently	154
104	154
Solvent	154
bones	154
fraction	154
analyses	154
conjunction	154
updates	154
4.9	154
aliskiren	154
examination	154
labelling	154
STOCRIN	154
²	154
commits	154
CoAprovel	154
Magnesium	153
INFORMATION	153
id	153
inducers	153
key	153
Bottle	153
ready	153
examined	153
thoughts	153
desloratadine	153
measles	153
pre-	153
ma@@	152
ICH	152
details	152
con@@	152
benign	152
role	152
injecting	152
come	152
setting	152
disposed	152
stimulating	152
alkaline	152
quickly	152
dizzy	152
CYP1A2	152
phenylalanine	152
gas	152
En@@	151
granules	151
Binocrit	151
CV	151
minimise	151
SCIENTIFIC	151
9-@@	151
discolouration	151
loratadine	151
scale	151
Cholestagel	151
sore	151
recurrent	151
density	151
353	151
repeat	151
acts	151
congestive	151
documentation	150
didanosine	150
Inject	150
modified	150
Luxemburg	150
Thalidomide	150
skeletal	150
interfere	150
dehydration	150
consists	150
ORENCIA	150
amino	150
Sandoz	150
450	150
database	150
indigestion	150
wound	150
OPA	150
BMD	149
Prior	149
pa@@	149
rhythm	149
nevirapine	149
Magyarország	149
smoking	149
allowed	149
press	149
drip	149
suicide	149
difficult	149
herpes	149
331	149
uncontrolled	149
Kivexa	149
chickens	148
removal	148
reason	148
BASAL	148
circulation	148
225	148
4.7	148
Furthermore	148
anaesthesia	148
ec@@	148
phosphatase	148
AL	148
loading	148
held	148
Mar@@	147
cl@@	147
capecitabine	147
core	147
sunlight	147
flatulence	147
pylori	147
AN@@	147
drinking	147
MIRAPEXIN	147
pink	147
Slovenská	147
Dynepo	147
ARICLAIM	147
referred	147
defects	147
Lactose	147
percent	147
tolerability	147
Sanofi	147
Symptoms	147
9.5	147
Truvada	147
unstable	147
Eye	147
mood	146
stools	146
virological	146
I.	146
hereditary	146
Avenue	146
Tredaptive	146
depressive	146
INCRELEX	146
ox@@	146
CHAMPIX	146
DepoCyte	146
AD@@	146
8-@@	145
Insulatard	145
materials	145
hypromellose	145
Therapy	145
Thymanax	145
stiffness	145
oil	145
prostate	145
36@@	145
Placebo	145
De@@	145
concurrent	145
intensity	145
Ranexa	145
selected	145
external	145
emergency	144
11.@@	144
Vomiting	144
literature	144
RoActemra	144
421	144
erythromycin	144
Revlimid	144
consequence	144
Disease	144
02@@	144
0.05	144
Carton	143
situations	143
Trevaclyn	143
enlargement	143
placed	143
broken	143
index	143
Thelin	143
Xeomin	143
106	143
4.0	143
Musculoskeletal	143
holder	143
probably	143
anaphylaxis	143
Diacomit	143
connective	143
Diovan	143
hypo@@	143
dosed	143
irritability	143
Non-@@	143
movements	143
fast	142
vertebral	142
colitis	142
length	142
progress	142
lP	142
Copalia	142
Viani	142
MI	142
seven	142
tr@@	142
280	142
1.9	142
interact	142
10-@@	142
Paxene	142
Dynastat	142
mycophenolate	142
Contact	142
es@@	141
disodium	141
Cartons	141
SUTENT	141
immunogenicity	141
Approximately	141
700	141
046	141
variation	141
activation	141
minimal	141
syrup	141
Busilvex	141
engraved	141
remained	141
thromboembolic	141
spinal	141
6.3	141
tubular	141
paper	141
Aprovel	141
Pramipexole	141
0.0	141
batch	141
Fuzeon	141
affinity	141
pregnancies	140
king	140
prepare	140
imatinib	140
CONSTA	140
Active	140
episode	140
Protaphane	140
itself	140
HBeAg	140
schizophrenia	140
Enviage	140
Valtropin	140
359	140
Within	140
CIALIS	140
ul@@	140
That	140
Kineret	139
calcitonin	139
myopathy	139
tri@@	139
ol	139
restlessness	139
posaconazole	139
packaging	139
rest	139
024	139
producing	139
toxicities	139
beyond	139
ischaemic	138
bradycardia	138
Immune	138
Tasigna	138
NRTIs	138
ramipril	138
Neulasta	138
reductase	138
thrombotic	138
SOMAVERT	138
Ebixa	138
US	138
informed	138
Tritace	138
spread	137
Ísland	137
P.	137
contamination	137
su@@	137
Levemir	137
find	137
pravastatin	137
Zerit	137
EVRA	137
PritorPlus	137
completion	137
Zavesca	137
Heart	137
membranes	137
Piroxicam	137
analogue	137
354	137
serotonin	137
850	137
WHO	137
routine	137
extensively	137
St	137
stenosis	137
perforated	136
24@@	136
member	136
PhotoBarr	136
Lda	136
picture	136
ter@@	136
H.	136
RI@@	136
TESAVEL	136
Days	136
spoon	136
Care	136
Pasteur	136
Paris	136
telithromycin	136
opinions	136
mostly	136
027	136
102	136
ter	136
arrhythmias	136
myeloma	136
step	136
VIRACEPT	136
timolol	135
adalimumab	135
Dogs	135
glaucoma	135
congestion	135
transaminases	135
add-on	135
relatively	135
3.1	135
scores	135
numbers	135
RO@@	135
man	135
DULOXETINE	135
BOEHRINGER	135
INGELHEIM	135
MRLs	135
hallucinations	135
TRISENOX	135
requires	135
withdraw	135
untreated	135
dipivoxil	135
hyperplasia	135
harmonised	135
block	135
COX-2	135
Actrapid	135
protamine	135
Serum	135
radiotherapy	135
Gardasil	135
fainting	135
combinations	135
mannitol	135
technical	135
mixture	135
feline	134
L-@@	134
Haemophilus	134
co-	134
lymphocytes	134
Sprimeo	134
Test	134
PSURs	134
cutaneous	134
Abdominal	134
INVEGA	134
mother	134
tells	134
whereas	134
comprising	134
Darbepoetin	134
trimester	134
Filmtabletten	134
Eucreas	134
023	134
031	134
Suboxone	134
als	134
Glustin	134
219	133
6.5	133
purified	133
candidiasis	133
movement	133
el	133
Pre@@	133
Weight	133
Axura	133
over@@	133
40@@	133
uth	133
Efient	133
members	133
375	133
severely	133
Drug	133
scheduled	133
Valdoxan	133
Wyeth	133
ANC	133
av@@	133
Doxazosin	133
parahydroxybenzoate	133
Lucentis	132
pathway	132
Experience	132
Str	132
imprinted	132
MicardisPlus	132
Xigris	132
etravirine	132
la	132
assistance	132
strengths	132
Č	132
3.6	132
Allergic	132
cervical	132
ir@@	132
mutagenic	132
consequences	132
dihydrogen	132
He	132
3.2	131
FeLV	131
Bio@@	131
develops	131
Mylan	131
pe@@	131
incontinence	131
FORSTEO	131
authorisations	131
acquired	131
08@@	131
ver@@	131
distributed	131
Thyrogen	131
doctors	131
pipettes	131
Detailed	131
firmly	131
128	131
Riprazo	131
Vial	131
radiolabelled	130
EXJADE	130
tion	130
26.@@	130
Interaction	130
126	130
3.4	130
decreasing	130
financial	130
post-@@	130
ta@@	130
Abraxane	130
thoroughly	130
observation	130
residue	130
clot	130
os@@	130
cessation	130
Orodispersible	130
training	130
thalidomide	130
373	130
Wien	130
Reference	129
Make	129
National	129
Celgene	129
propionate	129
discharge	129
cramps	129
reviewed	129
0.01	129
bromobutyl	129
visually	129
Galvus	129
Dafiro	129
tolerance	128
Mg	128
lymphatic	128
wheezing	128
Roche	128
gastro-resistant	128
Madrid	128
ECG	128
corrected	128
op@@	128
nifedipine	128
Silgard	128
Vectibix	128
address	128
028	128
testosterone	128
ever	128
despite	128
Pradaxa	128
et	128
becomes	128
agonist	128
imaging	128
height	128
breastfeeding	128
discussed	128
Velmetia	128
depend	127
doxazosin	127
Janumet	127
231	127
Work	127
Johnson	127
specified	127
subsequently	127
standing	127
161	127
AB@@	127
lenalidomide	127
Risperdal	127
rifabutin	127
endometrial	127
nitric	127
ADROVANCE	127
Oy	127
courses	127
lasting	127
Norway	127
insulins	127
gemfibrozil	127
applies	126
029	126
Efficib	126
BOTTLE	126
5.5	126
apart	126
eská	126
memory	126
statin	126
3000	126
proper	126
Feeling	126
leg	126
Icandra	126
seizure	126
contribution	126
†	126
released	126
pyrexia	126
lumiracoxib	126
depressed	126
inter@@	126
025	126
MRI	126
L.	126
essentially	126
te	126
PRODUCTS	126
168	126
Zomarist	126
3A4	126
controls	126
maximal	126
enhanced	125
investigation	125
marketed	125
22@@	125
derivatives	125
VELCADE	125
Combivir	125
undertaken	125
Imprida	125
QTc	125
CRIXIVAN	125
172	125
RotaTeq	125
bipolar	125
protocol	125
compounds	125
CR	125
ing@@	125
introduced	125
Ventavis	125
Polysorbate	125
vaginal	125
additive	125
Hypromellose	125
limits	125
hypoglycaemic	125
glycaemic	125
deterioration	125
Preotact	125
sachets	125
multiforme	125
175	125
exacerbation	125
Oprymea	125
flip-off	125
Invega	125
Mimpara	124
entecavir	124
immunodeficiency	124
Additionally	124
2.9	124
non-	124
favourable	124
tn	124
par@@	124
lethargy	124
returned	124
tions	124
spare	124
nervousness	124
rubella	124
follitropin	124
Staphylococcus	124
mixing	124
sedation	124
occasionally	124
Par@@	124
propylene	123
B-@@	123
AS@@	123
miss	123
born	123
kinase	123
Epivir	123
Method	123
hearing	123
oestrogen	123
postnatal	123
alopecia	123
Le@@	123
inactive	123
ovulation	123
perform	123
Muscle	123
Con@@	123
ase	123
capacity	123
infused	123
ve	123
colloidal	123
des	123
tho	123
103	122
50@@	122
co-@@	122
interruption	122
fluconazole	122
pl@@	122
FABLYN	122
facial	122
protected	122
refractory	122
157	122
Laboratory	122
Crohn	122
od	122
Preclinical	122
dark	122
USA	122
significance	122
Influenza	122
hold	122
ALL	122
Thus	122
concern	122
EWP	121
looking	121
clofarabine	121
flat	121
mutation	121
Renagel	121
centre	121
ity	121
Inovelon	121
takes	121
Vascular	121
genic	121
Hungary	121
submit	121
symptom	121
dosages	121
TE@@	121
Monitoring	121
CYP2C19	121
channel	121
vertigo	120
sight	120
stages	120
Infusion	120
unwell	120
statins	120
Parareg	120
He@@	120
attacks	120
obstruction	120
directed	120
infestations	120
converted	120
pemetrexed	120
hCG	120
motor	120
towards	120
industry	120
INFAI	120
3,@@	120
Director	120
follicular	120
0.03	120
QD	120
Un@@	120
adrenal	120
SIFROL	119
switched	119
S-@@	119
valproate	119
174	119
asymptomatic	119
sample	119
bacterium	119
remission	119
Avoid	119
Three	119
alendronate	119
responsibility	119
undergo	119
Nexavar	119
epidermal	119
CSF	119
pumps	119
checked	119
Organ	119
Recognition	119
Neupopeg	119
night	119
situation	119
260	119
macrogol	119
183	119
bid	118
Frequency	118
BV	118
ins	118
Pull	118
titrated	118
ER	118
N.	118
considering	118
tightness	118
Street	118
opportunistic	118
Development	118
blocks	118
Nobilis	118
135	118
026	118
au@@	118
Mycophenolate	118
cerivastatin	118
equipment	118
alanine	118
ZYPADHERA	118
Ketek	118
Nycomed	118
pectoris	118
ent@@	118
complicated	118
Viread	118
darbepoetin	117
SINGULAIR	117
Ambirix	117
applicable	117
ants	117
1200	117
locally	117
itchy	117
toxin	117
future	117
25.@@	117
recurrence	117
Lantus	117
HR	117
LDL	117
AP@@	117
carbidopa	117
3.9	117
ideation	117
ment	117
forgotten	117
zinc	117
ZOSTAVAX	117
Urinary	117
safely	117
aspart	117
17.@@	117
romiplostim	117
silica	117
206	117
Global	117
buprenorphine	117
Abnormal	116
Sonata	116
Interactions	116
str@@	116
D3	116
dispersible	116
posology	116
never	116
syncope	116
orlistat	116
229	116
ingestion	116
malformations	116
far	116
lisinopril	116
MB	116
parecoxib	116
regardless	116
lesion	116
SoloStar	116
mumps	116
rashes	116
graft	116
Replagal	116
moderately	116
151	116
so@@	116
retinal	116
75@@	116
LE@@	116
manufacturer	116
lipid	116
expressed	116
attenuated	115
5000	115
O.	115
linear	115
5.6	115
spray	115
inspections	115
Doses	115
frequencies	115
gen@@	115
dasatinib	115
comparative	115
parent	115
Streptococcus	115
CH@@	115
HBVAXPRO	115
28.@@	115
Aldurazyme	115
C-@@	115
SPRYCEL	115
extended	114
act	114
genotoxic	114
é@@	114
Posaconazole	114
218	114
CYMBALTA	114
bo@@	114
pull	114
continuing	114
Chronic	114
039	114
printed	114
oc@@	114
ob@@	114
ring	114
aspirin	114
anticoagulant	114
Lactation	114
tasks	114
palpitations	114
manner	114
proteinuria	114
Opinion	114
up@@	114
Interferon	114
bioequivalence	114
mechanisms	114
ProQuad	113
Xyrem	113
stomatitis	113
produces	113
cartons	113
inhaler	113
transport	113
interrupted	113
patient-years	113
detection	113
142	113
N-@@	113
Biograstim	113
171	113
143	113
TYSABRI	113
organisms	113
101	113
stimulate	113
PI	113
Company	113
INOmax	113
VTE	113
da	113
Tabletten	113
Erbitux	113
preservative	113
Business	113
Zerene	113
quinidine	113
grey	113
implant	113
Sebivo	113
·	113
modified-release	113
HepB	112
200@@	112
115	112
periodically	112
finding	112
immuno@@	112
discard	112
ed@@	112
prevents	112
becoming	112
text	112
rimonabant	112
guard	112
Quixidar	112
PE@@	112
erectile	112
foreign	112
Joint	112
29.@@	112
emulsion	112
IgG	112
endogenous	112
hypokalaemia	112
Tekturna	112
Kuvan	112
ACR	112
draw	111
Kinzalkomb	111
eyelid	111
let	111
reflux	111
Micardis	111
intracranial	111
seroconversion	111
Baxter	111
152	111
intestine	111
radioactive	111
nutrition	111
leads	111
44@@	111
stick	111
responding	111
outside	111
Rotarix	111
INR	111
230	111
short-term	111
Panretin	111
TID	111
Tadalafil	111
Actos	111
ketoacidosis	111
ci@@	111
desired	111
SE@@	111
Cedex	111
Infusat	111
furoate	111
subgroup	111
depletion	111
antipsychotic	110
066	110
Xiliarx	110
adjuvant	110
Diskus	110
Red	110
NAMES	110
48@@	110
delivered	110
Starlix	110
fits	110
techniques	110
Cubicin	110
30-@@	110
psoriatic	110
guideline	110
antimicrobial	110
typically	110
centrally	110
lining	110
electronic	110
PROCOMVAX	110
phenobarbital	110
vary	110
eczema	110
Prevenar	110
bu@@	110
genital	110
neutralising	110
214	110
vi@@	110
methoxy	109
uniformly	109
ative	109
Fabrazyme	109
drawn	109
ADMINISTRATION	109
indicates	109
CONDITIONS	109
switching	109
089	109
heartburn	109
Jalra	109
Peripheral	109
sex	109
Ceftriaxone	109
sufficiently	109
Plavix	109
series	109
tools	109
doxycycline	109
filled	109
mineral	109
region	109
Primary	109
alli	108
premature	108
5.4	108
mon@@	108
cancers	108
bioequivalent	108
acne	108
6.4	108
am	108
23@@	108
categories	108
relieve	108
29@@	108
Doribax	108
Myozyme	108
1-2	108
Food	108
108	108
multidose	108
ISENTRESS	108
Savene	108
functional	108
responders	107
e-@@	107
hormones	107
90Y	107
Orgalutran	107
preclinical	107
5.7	107
Reduction	107
oxidase	107
cerebrovascular	107
leflunomide	107
insert	107
juvenile	107
photosensitivity	107
replaced	107
ov@@	107
kilogram	107
Research	107
bronchitis	107
26@@	107
methadone	107
Iscover	107
Pritor	107
transfusion	107
aqueous	107
maraviroc	107
avenue	107
biliary	107
NeuroBloc	107
inf@@	107
genotype	107
monoclonal	107
PCTFE	107
Takeda	107
XERISTAR	107
hypertrophy	107
genetic	106
documented	106
Siklos	106
parathyroid	106
H5N1	106
implemented	106
W	106
Visudyne	106
estradiol	106
Dosing	106
ziconotide	106
passing	106
visit	106
UAB	106
vigabatrin	106
STELARA	106
babies	106
ME@@	106
mucous	106
vessel	106
pegylated	106
embolism	106
temporarily	106
renewed	106
spondylitis	106
Such	106
0.15	106
conjunctivitis	106
allows	106
Changes	106
Sp.	106
negligible	106
Alzheimer	106
118	106
6.0	106
discoloration	106
pandemic	106
Among	106
DE@@	106
suggested	105
starts	105
glucuronidation	105
bortezomib	105
LO@@	105
sides	105
LI@@	105
Chapter	105
pathways	105
Metacam	105
restricted	105
Long-term	105
happens	105
Bruxelles	105
partners	105
½	105
annual	105
shortly	105
recommend	105
Yondelis	105
overdosage	105
Vaccine	105
Decision	105
inspected	105
lacosamide	105
presentation	105
ks	105
potency	105
Executive	105
o-@@	105
Activelle	105
assays	104
packed	104
non-steroidal	104
Cervarix	104
HOLDER	104
end@@	104
uptake	104
Avonex	104
Co@@	104
Tandemact	104
Hycamtin	104
Arixtra	104
Pharmacotherapeutic	104
abatacept	104
cidofovir	104
um@@	104
Single	104
VICH	104
tired	104
ide	104
32@@	104
18.@@	104
conclusions	104
decline	104
Kinzalmono	104
curve	104
OSSEOR	104
Barcelona	104
dissolve	104
Anaemia	104
aspects	104
Baraclude	104
Ad@@	104
90@@	104
Yellow	103
ine-@@	103
encephalopathy	103
DuoTrav	103
Apidra	103
window	103
ig@@	103
Nordisk	103
triple	103
sing	103
CYP3A	103
Simulect	103
provision	103
Glaxo	103
Cetrotide	103
Tevagrastim	103
Dicural	103
individually	103
pseudoephedrine	103
37.5	103
p-value	103
periodic	103
purpura	103
tenderness	103
managed	103
contribute	103
Fever	103
ages	103
proven	103
Zeffix	103
break	103
antipsychotics	103
rituximab	103
consumption	103
Then	103
ON@@	103
Effect	103
acids	103
repaglinide	103
Adopted	103
Hexal	103
116	103
Factor	103
permanent	102
antidiabetic	102
ked	102
shell	102
Arava	102
67@@	102
on-@@	102
dreams	102
NovoFine	102
sanofi-aventis	102
meningitis	102
glycerol	102
Naglazyme	102
gives	102
musculoskeletal	102
muscular	102
linked	102
Fendrix	102
anaphylactoid	102
endpoints	102
newborn	102
MU	102
5-FU	102
uterine	102
Menitorix	102
Mild	102
Signs	102
Myfenax	102
PROTELOS	102
shaking	102
arrhythmia	102
mcg	102
ren@@	102
134	102
Ratiograstim	102
086	102
OPTISON	102
LH	101
antifungal	101
EVALUATION	101
33@@	101
279	101
min@@	101
3.8	101
Authorisations	101
Ch@@	101
shake	101
telbivudine	101
TMZ	101
22.@@	101
PCI	101
thought	101
introduction	101
providing	101
AT@@	101
ORACEA	101
along	101
infectious	101
prefilled	101
Com@@	101
Hyper@@	101
PAH	101
Body	101
YENTREVE	101
antidote	101
Tygacil	101
Office	101
isotretinoin	101
oxybate	101
glands	101
ise	101
suggesting	100
barrier	100
Me@@	100
Econor	100
Candida	100
wait	100
144	100
ivabradine	100
actions	100
initially	100
der	100
ut@@	100
VISTIDE	100
Talk	100
supervised	100
Excipients	100
hypercalcaemia	100
effectively	100
nine	100
Baseline	100
GANFORT	100
Competact	100
showing	100
st	100
metastases	100
thiazide	100
Bone	100
Trazec	100
-0.@@	100
improvements	100
1.8.2.	100
Similar	100
cyclophosphamide	100
variations	100
filtration	100
malignancy	100
agonists	100
offspring	100
11@@	99
Escherichia	99
ses	99
saline	99
sinus	99
Low	99
manual	99
proportional	99
planned	99
appeared	99
influenzae	99
tive	99
intolerant	99
recipients	99
thrombin	99
objective	99
ca@@	99
HMG-CoA	99
isation	99
appropriately	99
do@@	99
dose-related	99
dose-dependent	99
granting	99
Nplate	99
media	99
Procedure	99
ut	99
separately	99
ja	99
350	99
easily	99
LITAK	99
Osigraft	99
persist	99
sk@@	99
long-acting	99
advisable	98
inner	98
Hydrochloric	98
erlotinib	98
ES	98
Glubrava	98
ALIMTA	98
re	98
inhibiting	98
birds	98
bio@@	98
heartbeat	98
cumulative	98
Scientific	98
Nifedipine	98
Page	98
Consequently	98
Non-clinical	98
etc	98
wash	98
Ask	98
Pulmonary	98
JANSSEN-CILAG	98
constant	98
y-@@	98
ous	98
Optisulin	98
Profender	98
nursing	98
Mycamine	98
minimisation	98
356	98
bottom	98
M-M-RVAXPRO	98
eat	98
Republic	98
8.8	98
085	98
NE@@	98
bronchospasm	98
sc@@	98
Assessment	98
filter	98
ceftriaxone	97
levetiracetam	97
Krka	97
tummy	97
reliable	97
234	97
suggestive	97
Anti-@@	97
ING	97
Dublin	97
TA@@	97
antihistamines	97
EVISTA	97
ibuprofen	97
2009	97
larger	97
F-@@	97
threatening	97
Discard	97
Revatio	97
377	97
LeukoScan	97
eggs	97
hypercholesterolaemia	97
converting	97
glycol-epoetin	97
headaches	97
adsorbed	97
Events	97
Intrinsa	97
removing	97
montelukast	97
QUADRAMET	97
Hib	97
diastolic	97
TachoSil	97
Outer	97
EX@@	97
032	97
raltegravir	97
v.	97
3-4	97
formal	97
duodenal	97
Breast-feeding	96
acuity	96
ste@@	96
educational	96
pregabalin	96
ator	96
Xarelto	96
7.2	96
cup	96
CYSTAGON	96
203	96
Ovitrelle	96
urination	96
inducer	96
STAMARIL	96
pneumoniae	96
133	96
lapatinib	96
az@@	96
tic@@	96
Mannitol	96
d-@@	96
ankylosing	96
her	96
exceeding	96
pi@@	96
Maintenance	96
UCB	96
105	96
bexarotene	96
multicentre	96
DI@@	96
276	96
for@@	96
antigens	95
ethanol	95
approval	95
unexplained	95
cross	95
Foscan	95
creatine	95
Lansoprazol	95
functions	95
gut	95
malabsorption	95
TRITACE	95
breakdown	95
Zyrtec	95
tigecycline	95
mitotane	95
People	95
107	95
ultrasound	95
tics	95
ance	95
3.7	95
orthostatic	95
inhibitory	95
haemolytic	95
-like	95
Am@@	95
supported	95
Therapeutic	95
dyskinesia	95
extra	95
stimulates	95
Stevens-Johnson	95
necrolysis	95
Iron	95
steroids	95
Clear	95
web	95
More	95
classified	95
Fluticasone	95
us@@	95
65@@	95
submission	95
warm	95
making	95
258	95
Arzneimittel	94
ical	94
effusion	94
205	94
approach	94
Rapilysin	94
212	94
menstrual	94
conclusion	94
shaped	94
chance	94
want	94
optic	94
Macrogol	94
containers	94
manic	94
outweighs	94
perforatum	94
415	94
designated	94
begin	94
oseltamivir	94
CEPROTIN	94
medium	94
Exforge	94
leakage	94
thoracic	94
autoimmune	94
ou@@	94
enfuvirtide	94
vasculitis	94
fibrillation	94
cleared	94
lymph	94
titres	94
114	94
1.8.1.	94
inability	94
neuropathic	93
SonoVue	93
formed	93
TRAVATAN	93
tocilizumab	93
RA@@	93
adjuvanted	93
upright	93
workload	93
Hypertension	93
19.@@	93
Microcrystalline	93
sugammadex	93
brown	93
practices	93
TNF	93
b.	93
ertapenem	93
substantial	93
Packs	93
classes	93
196	93
hydrogen	93
simultaneously	93
Dry	93
Li@@	93
prothrombin	93
bivalirudin	93
oesophageal	93
Gaucher	93
sign	93
electrolyte	93
interstitial	93
prednisone	93
blind	93
CANCIDAS	93
31.@@	93
46@@	93
033	93
info	93
Equilis	93
intervention	93
Se@@	93
§	93
INVANZ	92
deaths	92
bosentan	92
cure	92
KRKA	92
OVERALL	92
Change	92
thereby	92
ati@@	92
Appropriate	92
structure	92
University	92
208	92
Zarzio	92
stops	92
resources	92
6.7	92
Levviax	92
DaTSCAN	92
Hypericum	92
Psychiatric	92
NSAID	92
320	92
expenditure	92
Genzyme	92
PEN	92
near	92
qualified	92
ens	92
pattern	92
late	92
erection	92
lines	92
presentations	92
Privigen	92
costs	92
look	92
KG	91
J	91
ty	91
paralysis	91
lyophilised	91
MPA	91
corresponds	91
successful	91
pointing	91
rotavirus	91
virologic	91
runny	91
Aerinaze	91
transfusions	91
facilities	91
ambrisentan	91
amphotericin	91
PK	91
race	91
5-fluorouracil	91
'@@	91
PRO@@	91
INN	91
glycoprotein	91
conversion	91
signal	91
Avandamet	91
Brussels	91
measurement	91
NEVANAC	91
Constipation	91
moxifloxacin	91
growing	91
-2	91
neonates	91
Time	91
pathogens	91
Ne@@	91
Macugen	91
036	91
270	91
sion	91
GSK	91
13.@@	91
hepatocellular	91
cy@@	91
PFS	90
angle	90
Luveris	90
smaller	90
sublingual	90
Decreased	90
Circadin	90
Gadovist	90
Botulinum	90
Kepivance	90
121	90
Diagram	90
ST	90
cellular	90
55@@	90
morbidity	90
covers	90
cetuximab	90
NV	90
ProMeris	90
Bleeding	90
add	90
Livensa	90
FOSAVANCE	90
16.@@	90
coating	90
entry	90
Emselex	90
compliance	90
labelled	90
195	90
LUMIGAN	90
developmental	90
nitrogen	90
dated	90
interferons	90
freeze	90
Sími	89
prasugrel	89
der@@	89
culture	89
a-@@	89
5.8	89
Luminity	89
119	89
imprint	89
ZIMULTI	89
obese	89
replace	89
38@@	89
iz@@	89
ho	89
Close	89
E110	89
COMP	89
8.5	89
E132	89
0.088	89
Ac@@	89
reflect	89
induces	89
201	89
Preparation	89
col@@	89
70@@	89
compatible	89
aureus	89
CI@@	89
SARL	89
amiodarone	89
validated	89
programmes	89
85@@	89
21.@@	89
Val@@	89
bags	89
glomerular	89
BO@@	89
outcomes	89
Cerezyme	89
Lo@@	88
Pol@@	88
neuro@@	88
ö@@	88
corneal	88
Systemic	88
impair	88
Wilzin	88
Overdose	88
207	88
glulisine	88
nearest	88
BY	88
variable	88
PSUR	88
anti-HIV	88
Poland	88
Latvia	88
overweight	88
ang@@	88
povidone	88
P-gp	88
diameter	88
Corlentor	88
0.18	88
Kft	88
regulation	88
220	88
4000	88
kit	88
substantially	88
beta-blockers	88
antithrombin	88
Schering	88
319	88
limbs	88
IL-2	88
accordingly	88
tolerate	88
exacerbations	88
Tyverb	88
lumbar	88
relapsed	88
isoenzymes	88
Zenapax	88
involvement	88
we@@	88
Etoricoxib	88
tmax	88
hyperkalaemia	88
412	88
AVONEX	88
basal	88
spasms	88
earlier	87
bitches	87
OPTRUMA	87
outweigh	87
60@@	87
45@@	87
Evoltra	87
du@@	87
0.5@@	87
eradication	87
environment	87
Quintanrix	87
upwards	87
147	87
going	87
INTEGRILIN	87
beneficial	87
thinking	87
sores	87
Population	87
hyperstimulation	87
Industrial	87
ECALTA	87
consisting	87
titre	87
Noxafil	87
Cy@@	87
antibacterial	87
Initial	87
treatment-related	87
Inhibitors	87
myeloid	87
Fatigue	87
AT	87
CHARACTERISTICS	87
mediastinal	87
2-3	87
dihydrochloride	87
Investigations	87
Canary	87
Wharf	87
AZARGA	87
ischaemia	87
tro@@	87
perfusion	87
correctly	87
OPINION	87
legislation	87
ite	87
15-@@	87
113	87
035	87
try	87
49@@	87
ITT	87
systolic	87
ARCOXIA	87
Zyprexa	87
com@@	86
unexpected	86
SI@@	86
strongly	86
Exceptional	86
design	86
ans	86
io@@	86
ons	86
P-@@	86
disability	86
recorded	86
Ab@@	86
expert	86
123	86
oma	86
cytarabine	86
gestation	86
EC@@	86
thirst	86
dr@@	86
states	86
behavioural	86
breakthrough	86
Br@@	86
exact	86
ATryn	86
pronounced	86
20-@@	86
Frequencies	86
Depression	86
pipette	86
188	86
estimate	86
dysphagia	86
Ferriprox	86
Levitra	86
6000	86
PIs	86
ä@@	86
dose-@@	86
gout	86
1,200	86
digestive	86
YYYY	86
cisapride	86
meaningful	86
BLISTER	86
....	86
flea	86
Cell	86
talc	86
Contains	86
Swelling	86
Zestril	86
first-line	86
obstructive	86
0.35	85
House	85
selection	85
stabilised	85
Anxiety	85
nM	85
Specific	85
inserted	85
ARTICLE	85
ents	85
Im@@	85
NovoNorm	85
depot	85
PT	85
blockade	85
Hepsera	85
213	85
18-@@	85
20mg	85
ton	85
Increase	85
caspofungin	85
TH@@	85
MI@@	85
Its	85
sugars	85
µM	85
side-effects	85
conduct	85
migraine	85
rotigotine	85
frozen	85
aspartate	85
contraindication	85
orthopaedic	85
pre-treatment	85
Vidaza	85
cyto@@	85
evident	85
melphalan	85
attempt	85
non@@	85
defect	85
Dispose	85
atopic	85
unborn	85
instead	85
switch	84
80@@	84
TOVIAZ	84
Medical	84
Tmax	84
weigh	84
manifestations	84
Chinese	84
thin	84
beta-@@	84
AG@@	84
MM	84
residues	84
MAOI	84
bind	84
VE@@	84
diphtheria	84
405	84
TEVA	84
antiepileptic	84
referrals	84
La	84
otitis	84
trans@@	84
ings	84
fight	84
immunosuppression	84
falling	84
Avandia	84
Guidance	84
issue	84
folinate	84
background	84
Prandin	84
IVEMEND	84
HRT	84
continues	84
itis	84
MTX	84
ADVATE	84
ra@@	84
establish	83
Sucrose	83
Circumstances	83
BE@@	83
OR@@	83
Where	83
peritoneal	83
finger	83
221	83
15.@@	83
aggregation	83
colon	83
green	83
Neutropenia	83
162	83
disappear	83
fast-acting	83
tendency	83
Angiox	83
HIV-infected	83
naturally	83
drowsy	83
coordination	83
omeprazole	83
054	83
6.8	83
methyl	83
meet	83
appropriation	83
bedtime	83
variety	83
CYP450	83
bevacizumab	83
website	83
Tenofovir	83
EN	83
IS@@	83
derivative	83
gloves	83
Fort	83
Dodge	83
dL	83
ka	82
flu@@	82
experiences	82
Z	82
HCl	82
100@@	82
strategy	82
REFERRAL	82
Cancer	82
Advocate	82
shorter	82
den@@	82
superior	82
ACOMPLIA	82
multi@@	82
Genotype	82
dental	82
301	82
sinusitis	82
ho@@	82
varicella	82
aspartame	82
LABELLING	82
Orion	82
gabapentin	82
dietary	82
ADENURIC	82
eating	82
Hypotension	82
chamber	82
BI@@	82
atrial	82
faster	82
Firazyr	82
Fasturtec	82
cor@@	82
Aldara	82
influenced	82
scan	82
glucuronide	82
Ciproxin	82
Povidone	81
Turn	81
relapses	81
alterations	81
USER	81
bisphosphonates	81
attributed	81
inclusion	81
chain	81
appointed	81
VIAGRA	81
Duration	81
034	81
Agopton	81
MA@@	81
Cyanokit	81
resolution	81
quantity	81
044	81
flavour	81
tt@@	81
Pharmacodynamic	81
suggests	81
les	81
justify	81
Onsenal	81
AR	81
fatty	81
ori	81
zoledronic	81
alert	81
Inc	81
Gadograf	81
pimozide	81
I-@@	81
his	81
statistical	81
trastuzumab	81
Elaprase	81
imiquimod	81
changing	81
extremities	81
increments	81
neutrophils	81
Tacrolimus	81
Preparing	81
Procoralan	81
070	81
Czech	81
tor	81
lose	81
PET	81
CE	80
Points	80
233	80
69@@	80
Po@@	80
294	80
gelatin	80
anti-	80
cefuroxime	80
narrow	80
2-fold	80
23.@@	80
Saquinavir	80
sevoflurane	80
99@@	80
rasagiline	80
amylase	80
molecular	80
EN@@	80
one-@@	80
grounds	80
34@@	80
nelarabine	80
laropiprant	80
varenicline	80
Chemical	80
complication	80
ASA	80
129	80
identical	80
ases	80
probenecid	80
str	80
availability	80
Holders	80
Refludan	80
hypocalcaemia	80
valdecoxib	80
leucopenia	80
poisoning	80
Standard	80
etanercept	80
3-fold	80
245	80
toxoid	80
ds	80
MedDRA	80
intracellular	80
Parliament	80
mania	80
8.3	80
TI@@	79
ini@@	79
veins	79
FI@@	79
rivaroxaban	79
MRL	79
speech	79
bed	79
opioids	79
identify	79
sperm	79
PR	79
A-@@	79
Hypo@@	79
Push	79
mono@@	79
Monotard	79
update	79
ding	79
Manufacturing	79
transparency	79
arbitration	79
ell@@	79
Milano	79
BE	79
br@@	79
useful	79
Significant	79
markers	79
ke	79
arteries	79
hy@@	79
anagrelide	79
Discontinuation	79
Thrombocytopenia	79
conjugated	79
096	79
astemizole	79
Neurontin	79
469	79
PASI	79
val@@	79
antacids	79
someone	79
grapefruit	79
Vivanza	79
neither	79
Don	78
requirement	78
ary	78
network	78
occasions	78
Prialt	78
fasted	78
ill	78
DO	78
Vaniqa	78
124	78
benzodiazepines	78
12-@@	78
tubes	78
boxes	78
improving	78
Wash	78
prostaglandin	78
Ljubljana	78
ce@@	78
il	78
West	78
model	78
readily	78
Less	78
dossier	78
155	78
specialised	78
PO@@	78
processes	78
T-@@	78
designation	78
alfa-2a	78
⋅	78
fluids	78
importance	78
Swallow	78
man@@	78
suddenly	78
Squibb	78
specialist	78
Pharmacokinetics	78
space	78
exceeded	78
Fentanyl	78
degrees	78
Cor@@	78
carbonate	78
pituitary	78
neutropenic	78
implantation	78
achieving	78
Gently	78
431	77
Place	77
sale	77
pains	77
distress	77
hamster	77
stem	77
Hellas	77
cards	77
5mg	77
sed	77
Kidney	77
pol@@	77
methyl@@	77
OptiClik	77
raloxifene	77
contraindications	77
accepted	77
parturition	77
Reactions	77
trend	77
joined	77
Figure	77
M.	77
MIC	77
cord	77
lost	77
measurements	77
generic	77
interested	77
libido	77
LYRICA	77
inspection	77
GMP	77
benzyl	77
recognised	77
conjugate	77
detect	77
GROUNDS	77
collected	77
Chest	77
Westferry	77
Circus	77
E14	77
ones	77
spasm	77
addressed	77
cinacalcet	77
Losartan	77
under@@	77
low-dose	77
pneumonitis	77
ears	77
equine	77
peptide	77
VELOTAB	77
Rapporteur	77
Ibaflin	76
beta-1a	76
predicted	76
adjunctive	76
tightly	76
devices	76
establishment	76
nerves	76
intramuscularly	76
5.9	76
Nonafact	76
blistering	76
revised	76
Talc	76
adolescent	76
rather	76
citric	76
Ultratard	76
Breast	76
residual	76
Depending	76
zoster	76
temsirolimus	76
hydroxycarbamide	76
Nor@@	76
partner	76
12,5	76
atrophy	76
0.9@@	76
spots	76
NeoSpect	76
FOLLOWING	76
cerebral	76
memantine	76
low-@@	76
modest	76
Car@@	76
detectable	76
flushes	76
TRITAZIDE	76
CL	76
Comtan	76
sought	76
9.4	76
oesophagitis	76
Penta	76
weights	76
	76
069	76
explain	75
Programme	75
Subjects	75
ve@@	75
202	75
Clinically	75
biopsy	75
busulfan	75
trouble	75
4,@@	75
AM@@	75
Lysodren	75
glargine	75
ranges	75
analgesic	75
OLANZAPINE	75
maintaining	75
manufacturing	75
sleepy	75
gradual	75
authority	75
Official	75
profiles	75
8.6	75
fact	75
res	75
menopause	75
Released	75
policy	75
agreement	75
upset	75
paliperidone	75
Hertfordshire	75
0.7@@	75
latest	75
lupus	75
moisture	75
Mo@@	75
yellowing	75
amine	75
piroxicam	75
resolve	75
fees	75
05@@	75
strip	75
wear	75
0.6@@	75
ster@@	75
dysgeusia	75
lipodystrophy	75
ising	75
ani@@	75
Intervet	75
464	75
af@@	75
Xagrid	75
portion	75
7.0	75
forming	75
Symptomatic	75
GIST	75
Eisai	75
AVANDAMET	75
cimetidine	75
465	75
Transient	74
medicated	74
pho@@	74
premix	74
happen	74
department	74
Bro@@	74
Technical	74
Tr@@	74
Atriance	74
monoamine	74
exists	74
reaching	74
8.0	74
Inflammation	74
AC	74
basiliximab	74
carmine	74
escalation	74
intraocular	74
GnRH	74
causal	74
MA	74
interest	74
Porcilis	74
dy@@	74
trained	74
56@@	74
enhance	74
org	74
assessments	74
Col@@	74
ED	74
Over	74
gen	74
abnormality	74
eg	74
glucagon	74
BLUE	74
pathological	74
multipack	74
137	74
GE	74
Produtos	74
ast@@	74
da@@	74
brinzolamide	74
hydro@@	74
cyclosporin	74
warranted	74
azacitidine	74
Diabetes	74
acknowledged.	74
369	74
deliver	74
090	74
gram	74
MBq	73
04@@	73
milky	73
amide	73
agree	73
Regulatory	73
investigator	73
Prograf	73
died	73
ep@@	73
PHARMACEUTICAL	73
croscarmellose	73
Fareston	73
covered	73
if@@	73
Upper	73
SP@@	73
Astellas	73
compartment	73
Withdraw	73
ovaries	73
89@@	73
HO@@	73
inappropriate	73
Way	73
colorectal	73
Tritanrix	73
macular	73
injectable	73
ness	73
stress	73
SE	73
Fentanyl-ratiopharm	73
Botox	73
transaminase	73
pr	73
Th@@	73
erg@@	73
Ph	73
AZOPT	73
Reconcile	73
motion	73
theophylline	73
CYP2C8	73
Wort	73
gastritis	73
interim	73
walk	73
7.4	73
G-CSF	73
caps	73
cyclosporine	73
substitution	73
differ	73
fourth	73
Virus	73
trabectedin	73
veterinarian	73
о@@	72
weakened	72
Reproductive	72
ill@@	72
composite	72
iloprost	72
→	72
lenses	72
Inter@@	72
Iceland	72
RELEASE	72
meloxicam	72
Oedema	72
1500	72
ics	72
dic@@	72
PDE5	72
RESTRICTIONS	72
285	72
screw	72
airway	72
confirm	72
08.@@	72
compensated	72
thumb	72
Gen@@	72
Budapest	72
scope	72
Gender	72
pancreatic	72
Be	72
Sciences	72
Triatec	72
note	72
simplex	72
Shake	72
emergence	72
resorption	72
Potassium	72
maturation	72
--	72
program	72
Optaflu	72
8.7	72
passed	72
OS	72
sweats	72
Bristol-Myers	72
prolong	72
epidemiological	72
convention	72
atosiban	72
passes	72
replication	72
192	72
metabolized	72
Infection	72
Should	72
Slovenia	72
122	72
loads	72
enhancer	72
mucosal	72
8.2	72
choice	71
loose	71
215	71
ER@@	71
context	71
respective	71
guide	71
Visual	71
IT@@	71
ranolazine	71
bw	71
allowing	71
gauge	71
gastroenteritis	71
summarised	71
sedative	71
Kentera	71
nail	71
coadministered	71
Ratio	71
List	71
25-@@	71
dro@@	71
agranulocytosis	71
drotrecogin	71
Serono	71
bi@@	71
dehydrogenase	71
PML	71
100,000	71
4HB	71
ruled	71
Per@@	71
eptifibatide	71
crushed	71
split	71
holding	71
shaken	71
Strength	71
haematopoietic	71
Contraindications	71
merck.	71
tray	71
ments	71
ser@@	71
secreted	71
treatment-naïve	71
logical	70
proposal	70
upside	70
CE@@	70
Protein	70
Disorder	70
♦	70
SU@@	70
RELISTOR	70
166	70
haemorrhagic	70
Increases	70
ha@@	70
spleen	70
extreme	70
ence	70
2-	70
metabolisers	70
immunoglobulins	70
IDflu	70
Major	70
personnel	70
sitting	70
geometric	70
mucositis	70
PP	70
promptly	70
ST@@	70
spontaneously	70
revision	70
requests	70
Cerenia	70
coughing	70
proton	70
rodents	70
strontium	70
Elevated	70
PD	70
ris@@	70
Purified	70
calves	70
RILUTEK	70
microbiological	70
photo@@	70
6-month	70
ta	70
msec	70
Yttriga	70
AMMONAPS	70
AD	70
Lyrica	70
soap	70
irreversible	70
ataxia	69
cap@@	69
intact	69
clockwise	69
CK	69
antidepressant	69
axetil	69
move	69
Ramipril	69
sponge	69
tyrosine	69
regards	69
al-@@	69
compromised	69
535	69
167	69
10mg	69
47@@	69
ventilation	69
sia	69
Cyprus	69
energy	69
enalapril	69
isophane	69
7.9	69
Mechanism	69
lactate	69
39@@	69
pins	69
Gemzar	69
research	69
child-bearing	69
Duloxetine	69
teratogenicity	69
perforation	69
undergoes	69
Bridion	69
Comtess	69
410	69
oval-shaped	69
retard	69
Biologicals	69
S.A.	69
blocked	69
CONTAINING	69
immunological	69
7.7	69
Annual	69
................................................................@@	69
sickness	69
inducing	69
modifications	69
deficient	69
chlorobutyl	69
pointes	69
0.8@@	69
wounds	69
Pedea	69
Which	69
lovastatin	69
Kabi	69
testicular	69
Ear	68
PRCA	68
OPATANOL	68
boosted	68
originally	68
0.45	68
fingers	68
153	68
BATCH	68
KIOVIG	68
PI@@	68
5,@@	68
freezer	68
Gliolan	68
RT	68
rabbit	68
Gu@@	68
ale	68
analysed	68
42@@	68
PDT	68
Ter@@	68
00-@@	68
8.1	68
1250	68
emia	68
q@@	68
worsen	68
R.	68
Pharmamatch	68
handled	68
INSTRUCTIONS	68
GFR	68
NPH	68
SO@@	68
Lamivudine	68
va	68
segment	68
Asthenia	68
estrogen	68
O-@@	68
ML	68
...	68
end-stage	68
HA	68
compatibility	68
our	68
compresse	68
my	67
infusion-related	67
location	67
MEMBER	67
ak@@	67
Flebogammadif	67
osteoarthritis	67
ovary	67
pathy	67
9.3	67
lake	67
sarcoma	67
9.6	67
Fondaparinux	67
CPK	67
sa	67
SPCs	67
salmeterol	67
ethinyl	67
operational	67
projects	67
Pasteurella	67
chemistry	67
First	67
fructose	67
worked	67
hospitalisation	67
Neisseria	67
import	67
ement	67
ine@@	67
ulation	67
ino@@	67
Periodic	67
react	67
applicants	67
finished	67
cardboard	67
weighed	67
else	67
catheter	67
focus	67
committees	67
millilitre	67
88@@	67
intensive	67
neonatal	67
lesser	67
radio@@	67
Generally	67
dabigatran	67
60-@@	67
ITP	67
E-@@	67
Recombinant	67
autologous	67
CAPSULES	67
IM@@	67
neuromuscular	67
Disodium	67
naive	67
zaleplon	67
Hypoglycaemia	67
abnormally	67
176	67
IIIa	67
uncommonly	67
IM	67
7.1	67
objectives	67
intermittent	67
supporting	67
ke@@	66
170	66
hypoaesthesia	66
drug-related	66
plaque	66
Ro@@	66
Conference	66
Warszawa	66
initiatives	66
scored	66
ASSOCIATED	66
missing	66
facilitate	66
Inactivated	66
á@@	66
intrathecal	66
indirect	66
ato@@	66
flush	66
227	66
mesto	66
8.4	66
exception	66
10000	66
Vaccination	66
PRE@@	66
Servier	66
anakinra	66
Physicians	66
copper	66
Inf@@	66
LE	66
febuxostat	66
crisis	66
synthetic	66
Gilead	66
clo@@	66
micafungin	66
nearly	66
hypothyroidism	66
MP@@	66
ud@@	66
timing	66
chosen	66
galactose	66
post-	66
045	66
Teл	66
haematoma	66
zeta	66
Farmacêuticos	66
Internet	66
EVICEL	66
HI@@	66
project	66
uncomplicated	66
incidences	66
ene	66
arrest	66
AZILECT	66
Regarding	66
Polyethylene	66
366	66
organisation	66
ROUTE	66
dystonia	66
ie	66
Orfadin	66
fesoterodine	65
VIALS	65
STATES	65
Strasse	65
jaw	65
lasts	65
trimethoprim	65
SIA	65
Aloxi	65
typical	65
24.@@	65
ach@@	65
logo	65
phosphokinase	65
preferred	65
6,@@	65
none	65
implement	65
ized	65
According	65
communication	65
mammalian	65
050	65
qu@@	65
tables	65
NL-@@	65
Analysis	65
q.	65
Daronrix	65
REGRANEX	65
benzalkonium	65
representatives	65
NVR	65
walking	65
182	65
Tyrol	65
Careful	65
enoxaparin	65
Step	65
mucosa	65
rigors	65
success	65
seasonal	65
Mal@@	65
Qu@@	65
tin	65
-1.@@	65
asleep	65
CD@@	65
magnetic	65
prostatic	65
remainder	65
dial	65
457	65
KIU	65
Arthralgia	65
multi-@@	65
LU@@	65
litres	65
postmarketing	65
Yttrium	65
lic@@	65
exchange	65
Synagis	65
biphasic	64
histamine	64
session	64
rectal	64
tooth	64
pharyngitis	64
Put	64
consulted	64
intend	64
Avaglim	64
ni@@	64
polyps	64
Be@@	64
applying	64
fusion	64
Capsules	64
institutions	64
accident	64
ONLY	64
determination	64
327	64
prevalence	64
glucose-galactose	64
13-@@	64
Secretariat	64
VIRBAC	64
CA	64
adjunct	64
uses	64
renin	64
assessing	64
transplanted	64
cat	64
vaccinations	64
hypotensive	64
ten@@	64
vehicle	64
biotechnology	64
Rua	64
cognitive	64
subgroups	64
ae	64
Alternatively	64
uro@@	64
Optimark	64
resumed	64
IGF-1	64
Herpes	64
follicle	64
Peak	64
Insert	64
propyl	64
156	64
Cardiovascular	64
continuation	64
Altargo	64
principal	64
9.0	64
morphine	64
asked	64
LDL-C	64
anaesthetic	64
Faslodex	64
ergot	64
SOLVENT	64
Praha	64
explanations	64
historical	64
ate-@@	64
toxicology	64
ular	64
pen@@	64
del	64
covering	64
polyvinyl	64
accounting	64
ning	64
Secondary	64
und	64
Paroxetine	64
2309	64
reactivation	64
cut	64
Metalyse	64
2377	64
steroid	63
hypo	63
reddening	63
purpose	63
delivers	63
041	63
hydrolysis	63
octocog	63
vital	63
Romania	63
ρ@@	63
NNRTIs	63
ne	63
136	63
ines	63
211	63
aggravated	63
strict	63
diltiazem	63
responsive	63
aggression	63
consistency	63
yeast	63
wish	63
Growth	63
written	63
phen@@	63
Targretin	63
emotional	63
presenting	63
s-@@	63
UL@@	63
IC@@	63
elements	63
knee	63
ch	63
1.73	63
363	63
afterwards	63
Multiple	63
407	63
gave	63
record	63
phosph@@	63
Complete	63
haematocrit	63
Under	63
Berkshire	63
thromboembolism	63
Black	63
diclofenac	63
heavy	63
DE	63
07.@@	63
091	63
Revasc	63
Concurrent	63
dopaminergic	63
service	63
breathlessness	63
falls	63
VA	63
Mr	63
7.8	63
dual	63
TESLASCAN	63
comp@@	63
Follow	63
stand	63
killed	62
ulcerative	62
1,500	62
Vitamin	62
cladribine	62
inc@@	62
Haematological	62
cho@@	62
onic	62
Hazard	62
justifies	62
OHSS	62
EL@@	62
Emtricitabine	62
MRFG	62
406	62
310	62
ies	62
glucocorticoids	62
ET	62
the@@	62
Prepandrix	62
considers	62
fosaprepitant	62
urgent	62
AE	62
micro-organisms	62
Labelling	62
global	62
CT@@	62
177	62
investigate	62
Daily	62
Trocoxil	62
stri@@	62
Injecting	62
medically	62
-containing	62
output	62
Propylene	62
amoxicillin	62
Injections	62
Operations	62
Gr@@	62
ss	62
3x@@	62
7.6	62
e-	62
parallel	62
2800	62
Upon	62
Sitagliptin	62
Lisonorm	62
fo@@	62
bromide	62
things	62
ge@@	62
stones	62
half-lives	62
cytogenetic	62
NA	62
14.@@	62
benefit-risk	62
markedly	62
sive	62
Xenical	62
DA@@	61
supplementation	61
fill	61
Str@@	61
sorafenib	61
cholestasis	61
faint	61
Pergoveris	61
daptomycin	61
turning	61
288	61
Cl@@	61
fil@@	61
multocida	61
Code	61
Cal@@	61
SA@@	61
maize	61
#	61
are@@	61
R-@@	61
assigned	61
unconsciousness	61
HER2	61
leukopenia	61
preparing	61
travel	61
accelerated	61
fee	61
ul	61
con	61
BEROMUN	61
predictive	61
KRAS	61
visits	61
CONCLUSIONS	61
degarelix	61
AstraZeneca	61
Te@@	61
oblong	61
variant	61
physiological	61
focal	61
8.9	61
Nevirapine	61
sions	61
metacresol	61
magnitude	61
sets	61
Sp@@	61
placenta	61
092	61
190	61
158	61
exceptional	61
lu@@	61
pegfilgrastim	61
attained	61
syndromes	61
bleeds	61
varying	61
once-daily	61
P-glycoprotein	61
317	60
Dis@@	60
ws	60
9.7	60
Scale	60
MO@@	60
398	60
coat	60
ised	60
CT	60
Middlesex	60
Lansoprazole	60
Ver@@	60
wing	60
gsk.com	60
Summaries	60
lutropin	60
donors	60
ev@@	60
Rarely	60
Fr@@	60
Crixivan	60
Man@@	60
ib@@	60
verapamil	60
unclear	60
pe	60
intermediate	60
draft	60
trihydrate	60
represent	60
unwanted	60
collagen	60
PTH	60
Valsartan	60
Shire	60
analgesics	60
Rifampicin	60
accurate	60
triazolam	60
salts	60
permanently	60
Financial	60
040	60
go@@	60
warts	60
mal@@	60
TSH	60
lymphadenopathy	60
anidulafungin	60
77@@	60
Survival	60
connection	60
spot-on	60
stoppers	60
Four	60
Beromun	60
tolcapone	60
Reconstitution	60
06@@	60
GI@@	60
Clomicalm	60
sensory	60
Document	60
Cough	60
amber	60
é	60
455	60
rhinotracheitis	59
1g	59
delta	59
mask	59
rotated	59
Ab	59
Gelatin	59
163	59
Α	59
PT@@	59
pleural	59
St@@	59
routes	59
osteonecrosis	59
det@@	59
companies	59
3.75	59
high-dose	59
Press	59
MR@@	59
pimecrolimus	59
Form	59
PO	59
chaired	59
Ap@@	59
Q	59
ation@@	59
lasted	59
nitrates	59
Similarly	59
EEA	59
Back	59
teen	59
selector	59
party	59
Clearance	59
leave	59
∞	59
vet	59
316	59
methylnaltrexone	59
nodes	59
425	59
MAHs	59
anterior	59
though	59
HEXAVAC	59
ILP	59
ization	59
eosinophilia	59
337	59
Evohaler	59
aPTT	59
tis@@	59
Given	59
D.	59
GIVEN	59
VASOVIST	59
decompensation	59
satisfactory	59
carb@@	59
investigations	59
Nevertheless	59
Drugs	59
Dyspnoea	59
Corporation	59
Local	59
50,000	59
rebound	59
normalisation	59
Janssen-Cilag	59
inal	59
haemo@@	59
procedural	59
Ratiopharm	59
341	59
molecule	59
blocker	59
coming	59
surrounding	59
sensations	59
tor@@	59
myelosuppression	59
pal@@	59
inhibited	59
Bo@@	59
illnesses	58
kinetics	58
deferiprone	58
Flushing	58
Kent	58
postural	58
progression-free	58
palivizumab	58
ID@@	58
darifenacin	58
Volume	58
rufinamide	58
Age	58
anthracycline	58
polysaccharide	58
Fe@@	58
embossed	58
mark	58
WINTHROP	58
embryonal	58
os	58
simultaneous	58
NYHA	58
ane	58
non-clinical	58
iness	58
Duo	58
bearing	58
smooth	58
Packaging	58
aid	58
Bi@@	58
SPECIAL	58
push-button	58
tabletten	58
About	58
wax	58
rosuvastatin	58
finalised	58
modify	58
intra-@@	58
VII	58
logy	58
Post-marketing	58
riluzole	58
two-@@	58
overload	58
exhibits	58
and@@	58
estimates	58
automatic	58
pulse	58
instruction	58
ators	58
dependence	58
U.	58
Santé	58
OTHER	58
square	58
ded	58
alpha-@@	58
manufactured	58
sun	58
subset	58
ub@@	58
arm@@	58
Česká	58
2C9	58
Chairman	58
diminished	58
HBsAg	58
carbon	58
adoption	58
restarted	58
castor	58
enlarged	58
Reports	58
retinopathy	58
evaluating	58
dangerous	58
Cephalon	58
logic	58
expertise	57
prophylactic	57
dec@@	57
330	57
len	57
yo@@	57
natalizumab	57
palms	57
Oxyglobin	57
fed	57
tab	57
Amgen	57
432	57
ORAL	57
equivalence	57
Release	57
Focetria	57
doripenem	57
shellac	57
00.00	57
Small	57
Apply	57
Guidelines	57
Stocrin	57
ure@@	57
Somatropin	57
Card	57
01.@@	57
ected	57
Repeat	57
Resistance	57
fl@@	57
uk	57
represents	57
mirtazapine	57
sol@@	57
trauma	57
exhibited	57
familial	57
Sub@@	57
ax@@	57
ial	57
yellowish	57
positions	57
24-hour	57
pelvic	57
dispersion	57
lock	57
classification	57
thrombocytopenic	57
MAOIs	57
lasofoxifene	57
er-@@	57
enter	57
411	57
faecal	57
Pruritus	57
eudra.	57
141	57
country	57
paraffin	57
OÜ	57
straße	57
potentiate	57
09.@@	57
Moreover	57
log@@	57
melatonin	57
tinnitus	57
reteplase	57
ders	57
ying	57
NMS	57
hydration	57
trace	57
instituted	57
epistaxis	57
permitted	57
Lundbeck	57
037	57
ustekinumab	57
fi@@	57
Velosulin	57
progenitor	57
0.02	57
α@@	57
neuritis	57
analgesia	57
cyanide	57
Stockholm	57
newly	57
ACT	57
mol	57
son	57
We@@	57
contra-indicated	57
cetirizine	57
224	57
Aclar	57
Pandemrix	57
instances	57
seriousness	57
gl@@	57
Myalgia	57
Atorvastatin	57
E4@@	57
Prac-tic	56
Sildenafil	56
Cats	56
reservoir	56
expression	56
038	56
Email	56
milligrams	56
ossification	56
Concerned	56
IOP	56
land	56
assisted	56
Intramuscular	56
evaluations	56
lipase	56
squamous	56
hexa	56
SureClick	56
042	56
TTP	56
hydroxocobalamin	56
embryo	56
ended	56
grams	56
seems	56
attributable	56
extravasation	56
ids	56
don	56
graphy	56
cystic	56
panitumumab	56
alteration	56
rac@@	56
Dr@@	56
fe@@	56
child-resistant	56
Angiotensin	56
mode	56
cur@@	56
EGFR	56
den	56
tu@@	56
LY	56
aches	56
´	56
139	56
ppm	56
clumps	56
Aivlosin	56
controlling	56
ect	56
superficial	56
publishing	56
ari@@	56
Croscarmellose	56
XXX	56
IgE	56
Cystadane	56
WITHOUT	56
ides	56
undetectable	56
H-@@	56
164	56
transparent	56
169	56
59@@	56
haemolysis	56
ically	56
Draw	56
SSRIs	56
ley	56
aspergillosis	56
talking	56
van	56
DO@@	56
extremity	56
yearly	56
Organon	56
varies	56
puncture	56
a.	56
AbZ	56
opalescent	56
seeing	56
Ta@@	56
t1	55
×	55
ric	55
iv@@	55
Tri@@	55
reconstitute	55
Benelux	55
adrenergic	55
naloxone	55
Activity	55
likelihood	55
GI	55
shoulder	55
ringing	55
sneezing	55
Even	55
cohort	55
an-@@	55
ening	55
Pre-filled	55
Questions	55
Poly@@	55
breeds	55
STRONGHOLD	55
volumes	55
1A	55
145	55
withheld	55
blast	55
artificial	55
.Ε.	55
statement	55
exist	55
408	55
To@@	55
ties	55
ado@@	55
weg	55
reflected	55
Hard	55
Neopharma	55
CMV	55
prospective	55
allergies	55
spectrum	55
initiate	55
Need	55
Pylobactell	55
Athens	55
BP	55
stiripentol	55
justified	55
Maximum	55
to-@@	55
vo@@	55
lipids	55
spironolactone	55
Terfenadine	55
fetal	55
µmol	55
genesis	55
222	55
Guideline	55
E464	55
418	55
7.3	55
zo@@	55
self-@@	55
matrix	55
sunitinib	55
FORM	55
470	55
µ@@	55
post-operative	55
adhesive	55
proliferation	55
DK-2@@	55
456	55
cautiously	55
channels	55
376	55
4-fold	54
thi@@	54
clothing	54
chromosome	54
Competent	54
regulations	54
Harmonisation	54
Route	54
6.9	54
Farma	54
Carbaglu	54
tricyclic	54
transferase	54
accurately	54
tendon	54
Bratislava	54
app@@	54
AVAGLIM	54
medinfo	54
DU@@	54
PERF	54
coadministration	54
Available	54
540	54
NSCLC	54
crush	54
Relative	54
inflamed	54
267	54
mid@@	54
screening	54
Good	54
brought	54
challenge	54
breast-	54
149	54
cm2	54
PL	54
breeding	54
enhancement	54
reaches	54
NNRTI	54
pha@@	54
Alopecia	54
ly@@	54
anti-epileptic	54
Тел	54
Area	54
HCV-RNA	54
virion	54
Alcon	54
restrictions	54
build-up	54
Administer	54
Component	54
ergotamine	54
117	54
RCP	54
Biotechnology	54
oesophagus	54
bepridil	54
tap	54
ars	54
i.e.	54
our@@	54
continuously	54
approx	54
ac	54
3116	54
Te	54
peri@@	54
j	54
degeneration	54
409	54
TRACTOCILE	54
standards	54
Le	54
cardiomyopathy	54
beta-1b	54
Activities	54
E421	54
judged	54
lymphoid	54
dibasic	54
sen@@	54
molecules	54
Lithuania	54
ending	54
form@@	54
manage	54
CR@@	54
Paget	54
SYRINGES	54
wipe	54
digital	53
UN@@	53
conjunctival	53
323	53
quantities	53
intoxication	53
IC50	53
Usually	53
Edifício	53
got	53
45-@@	53
Disinfect	53
tion@@	53
persists	53
hundred	53
B12	53
fluctuations	53
fluvoxamine	53
peptic	53
Alcohol	53
Meloxicam	53
season	53
332	53
topics	53
salmon	53
vaccinees	53
soya	53
Alert	53
piglets	53
Direct	53
321	53
1A2	53
involve	53
0.50	53
improves	53
AML	53
macrolide	53
obesity	53
Never	53
why	53
del@@	53
consistently	53
placental	53
angioneurotic	53
avian	53
Applications	53
pneumococcal	53
electrocardiogram	53
incorporation	53
comprimidos	53
Caucasian	53
dispose	53
hydroxy@@	53
2-4	53
foetuses	53
255	53
Pseudomonas	53
mutagenicity	53
buccal	53
intranasal	53
indicator	53
sulfate	53
tran@@	53
Amlodipine	53
Insomnia	53
RE	53
rapporteur	53
cows	53
216	53
glucosamine	53
lowered	53
substitutes	53
bleed	53
lactase	53
rinse	53
CYP@@	53
anti-HBs	53
Hikma	53
acetic	53
wild-type	53
strasse	53
78@@	53
rocuronium	53
placebo-	53
Anorexia	53
force	53
X-ray	53
Neuro@@	53
belonging	53
generated	53
Espoo	53
amin@@	53
rises	53
PCR	53
Shelf	53
decentralised	53
Nobivac	53
psychotic	52
INVENTED	52
non-small	52
micronucleus	52
217	52
fer@@	52
249	52
refrigerated	52
ur	52
MRP	52
knob	52
RESPONSIBLE	52
LIST	52
209	52
ā	52
follicles	52
sense	52
NO@@	52
absent	52
Wilson	52
Ho@@	52
evaluable	52
serotype	52
KS	52
indigo	52
Lansoprazol-ratiopharm	52
womb	52
650	52
WBC	52
behaviours	52
front	52
out@@	52
accompanying	52
pups	52
ther@@	52
crying	52
fluoroquinolones	52
impotence	52
Sustiva	52
epileptic	52
edetate	52
bre@@	52
ster	52
gr@@	52
launch	52
051	52
-mediated	52
agalsidase	52
05.@@	52
uc@@	52
CV@@	52
El@@	52
epithelial	52
hallucination	52
и@@	52
ard	52
ham	52
oestrogens	52
correlation	52
No@@	52
UR@@	52
favour	52
surgeon	52
oxidative	52
stream	52
impression	52
ful	52
ache	52
amp@@	52
1400	52
correction	52
inherited	52
composition	52
transferred	52
azathioprine	52
collect	52
Accidental	52
Cardoreg	52
nateglinide	52
recommending	52
zonisamide	52
peeling	52
Month	52
localised	52
egg	52
ss@@	52
est@@	52
postponed	52
BMI	52
Vi@@	52
schedules	52
A771726	52
turnover	52
Light	52
ELISA	52
345	52
Lyon	52
─	52
Hampshire	51
TION	51
340	51
Shelf-life	51
laurilsulfate	51
battery	51
successfully	51
pu@@	51
Hexavac	51
EMADINE	51
folic	51
charcoal	51
MANUFACTURING	51
palonosetron	51
Loss	51
313	51
disposition	51
extremely	51
189	51
PL@@	51
hyperhidrosis	51
TRI@@	51
hyponatraemia	51
Coated	51
tenecteplase	51
business	51
Repeated	51
fibrin	51
9.1	51
satisfactorily	51
ms	51
159	51
exenatide	51
223	51
crystalline	51
Darunavir	51
vas@@	51
widely	51
representing	51
Moderate	51
psychosis	51
infiltrates	51
HUMALOG	51
297	51
substitutions	51
attach	51
2,000	51
teeth	51
0.12	51
grow	51
scheme	51
exfoliative	51
E218	51
LVEF	51
decompensated	51
haemagglutinin	51
indicative	51
Biogen	51
chew	51
Lactic	51
ce	51
14C-@@	51
055	51
06.@@	51
entered	51
E420	51
Immediately	51
Pl@@	51
OP@@	51
amnesia	51
unaffected	51
metronidazole	51
smoke	51
delays	51
proposals	51
B-1180	51
nephropathy	51
401	51
292	51
58@@	51
sulph@@	51
middle	51
max	51
Bu@@	51
Prequenza	51
post-dose	51
des@@	51
imbalance	51
limiting	51
tabletter	51
broad	51
employed	51
allopurinol	51
trac@@	51
Frankfurt	51
235	51
pharmaceuticals	51
generation	51
179	51
53@@	51
quarter	51
arising	51
nilotinib	51
carrier	51
LA@@	51
TIN	51
anything	51
173	51
concentrated	51
SS	51
post-authorisation	50
Immuno@@	50
folate	50
consisted	50
re-evaluated	50
degradation	50
ori@@	50
rel@@	50
AV@@	50
ES@@	50
gu@@	50
insertion	50
HP@@	50
post@@	50
Lansoprazol-CT	50
mi@@	50
deltoid	50
rupture	50
fine	50
Pompe	50
disorientation	50
delegates	50
haematologic	50
1st	50
histological	50
Mycoplasma	50
trigger	50
IF	50
in-	50
293	50
actual	50
notified	50
pancytopenia	50
neurotoxin	50
hypomagnesaemia	50
ory	50
aggressive	50
fluoro@@	50
committee	50
AUC@@	50
2D6	50
87@@	50
Reconstitute	50
Gram-negative	50
haloperidol	50
pushing	50
Idec	50
renally	50
Cellulose	50
lipoprotein	50
HDL-C	50
sor@@	50
MULTIPACKS	50
Staff	50
distension	50
poorly	50
emesis	50
Platelet	50
margin	50
vitamins	50
compassionate	50
prednisolone	50
certificates	50
Wellcome	50
desirudin	50
460	50
repair	50
SQUIBB	50
8,000	50
COPD	50
high-@@	50
Precautions	50
radi@@	50
integrated	50
erythematosus	50
tw@@	50
ym@@	50
foot	50
Reduced	50
7000	50
batches	50
ably	50
INE	50
EE	50
66@@	50
pill	50
3-	50
Dr.	50
RCPCh	49
resuspending	49
prevented	49
283	49
mind	49
packaged	49
ice	49
rules	49
lysis	49
inverted	49
intense	49
US@@	49
arrow	49
bl@@	49
judgement	49
Α@@	49
257	49
Reconstituted	49
DUKORAL	49
partially	49
Sudden	49
BOTOX	49
wind	49
glycolate	49
COM@@	49
apnoea	49
agomelatine	49
lay	49
č	49
14-@@	49
exhibit	49
NL	49
newborns	49
involves	49
580	49
share	49
QU@@	49
irrespective	49
lying	49
atic	49
CL@@	49
cysteamine	49
multiple-dose	49
competitive	49
Pre-@@	49
fitted	49
191	49
ana	49
Laboratoires	49
E216	49
ire	49
haemostasis	49
turkeys	49
considerable	49
Excretion	49
all@@	49
198	49
breakfast	49
haematuria	49
holders	49
RG@@	49
CH	49
ality	49
themselves	49
Pugh	49
accounted	49
ma	49
20.@@	49
Metformin	49
flare	49
distance	49
Percent	49
car@@	49
liner	49
Many	49
271	49
uterus	49
chemically	49
endothelial	49
BRISTOL-MYERS	49
glyco@@	49
applicator	49
HDL	49
clastogenic	49
dilute	49
Anaphylactic	49
076	49
hyperlipidaemia	49
τ@@	49
tal@@	49
approximate	49
DVT	49
precautionary	49
social	49
ranelate	49
mature	49
063	49
backing	49
fifth	49
3-5	49
Reyataz	49
build	49
flushed	49
Wo	49
paid	49
robenacoxib	49
Spot-on	49
BWP	49
cat@@	49
bimatoprost	48
tubing	48
ET@@	48
exceeds	48
foaming	48
paracetamol	48
ip@@	48
Compared	48
ankles	48
berg	48
Voriconazole	48
risk-benefit	48
HUMAN	48
measurable	48
ade	48
yl-@@	48
ik@@	48
Erythema	48
keeping	48
Gram-positive	48
Do@@	48
critical	48
conjugation	48
self	48
Crestor	48
immunocompromised	48
suffered	48
efalizumab	48
Proteus	48
269	48
Viracept	48
composed	48
examinations	48
Post-@@	48
Fluoxetine	48
immunosuppressants	48
364	48
CrCl	48
confirmation	48
PID	48
participation	48
laser	48
ess@@	48
San	48
anticholinergic	48
can@@	48
dryness	48
administrations	48
aching	48
INJECT	48
phenylbutyrate	48
alkaloids	48
travoprost	48
cesta	48
anthracyclines	48
revenue	48
Bar@@	48
ling	48
single-use	48
plain	48
b.i.d.	48
litre	48
LIPROLOG	48
retardation	48
Er@@	48
circulatory	48
murine	48
pan@@	48
Bordetella	48
CHO	48
Sustained	48
Lapp	48
cynomolgus	48
Sal@@	48
elected	48
narrowing	48
gastro-intestinal	48
le-@@	48
olysis	48
Sifrol	48
prompt	48
initiative	48
Laboratoire	48
interference	48
breaking	48
adversely	48
men@@	48
bodies	48
186	48
collection	48
Failure	48
Gabapentin	48
irinotecan	48
02.@@	48
play	48
Estonia	48
LAN@@	48
2C19	48
INTERMEDIATE	47
Actelion	47
rec@@	47
sequelae	47
som@@	47
rescue	47
correlated	47
enter@@	47
344	47
dyslipidaemia	47
248	47
165	47
superiority	47
RIX	47
04.@@	47
pig	47
Lyophilisate	47
CCID50	47
option	47
Haarlem	47
ug@@	47
m.	47
Child	47
St.	47
abrupt	47
Weeks	47
considerations	47
Exubera	47
gens	47
aim	47
myasthenia	47
abortion	47
Aujeszky	47
ACTIVE	47
lists	47
vaccinate	47
Toxicity	47
contacts	47
difloxacin	47
carboplatin	47
anti-cancer	47
Continue	47
administrative	47
formula	47
Dyspepsia	47
50-@@	47
Withdrawal	47
aeruginosa	47
PRILACTONE	47
ti	47
PAR@@	47
3,000	47
exp@@	47
immunosuppressant	47
definition	47
Infants	47
fin@@	47
DA	47
varied	47
myelodysplastic	47
9.9	47
benserazide	47
FA	47
dihydroergotamine	47
something	47
sul@@	47
specially	47
Index	47
D-8@@	47
prolactin	47
Onsior	47
antihistamine	47
Lane	47
Trial	47
sit	47
Consumer	47
agencies	47
Doxagamma	47
H2	47
suspended	47
TOTAL	47
systemically	47
lymphocyte	47
budgetary	47
laan	47
patho@@	47
contractions	47
Ger@@	47
m-@@	47
log	47
Exjade	47
marker	47
CLcr	47
Behring	47
unbound	47
ι@@	47
gamma	47
phases	47
307	47
12-week	47
ONE	47
For@@	47
º	47
nebuliser	47
251	47
visceral	47
tetracyclines	47
separated	47
quinolones	47
polyamide	47
5,000	47
E-01	47
ductus	47
G1	46
Glycerol	46
pad	46
bro@@	46
tional	46
Generalised	46
3350	46
Sandwich	46
forward	46
hydroxy	46
Aspergillus	46
excluding	46
cysts	46
sent	46
Her@@	46
ESRD	46
edema	46
fr@@	46
fibrinogen	46
ford	46
stay	46
Ma@@	46
None	46
excipient	46
vigorously	46
lecithin	46
MAO	46
Parties	46
PR@@	46
arise	46
chromosomal	46
She	46
pigment	46
individualised	46
omalizumab	46
expressing	46
PRI@@	46
largely	46
Institute	46
Paste	46
aemia	46
C.@@	46
Consideration	46
ENT	46
Seizures	46
fulvestrant	46
killing	46
Klebsiella	46
substitute	46
414	46
A10@@	46
für	46
clomipramine	46
SK@@	46
154	46
AMENDMENT	46
01-EN-Final	46
0.65	46
ble	46
became	46
ranitidine	46
lin@@	46
0.5ml	46
Procedures	46
targets	46
za	46
Absolute	46
ba	46
speak	46
ZI@@	46
toremifene	46
routinely	46
oro@@	46
Personnel	46
10.0	46
Cefuroximaxetil	46
description	46
consequently	46
40-@@	46
issued	46
sub-@@	46
T-cell	46
IB	46
high-risk	46
So@@	46
138	46
optimised	46
Cardboard	46
maleate	46
Lopinavir	46
ensures	46
2nd	46
99.@@	46
Fluid	46
strips	46
Viral	46
disturbed	46
grouping	46
SM@@	46
auto@@	46
Generics	46
priority	46
glioma	46
CSL	46
CP	46
Slowly	46
carcinomas	46
affairs	46
items	46
Estate	46
HA@@	46
por@@	46
1.75	46
Prof.	46
recruitment	46
film-	46
Ren@@	46
hyperaemia	46
Excipient	46
TP	46
ters	46
awaited	46
1-	46
of@@	46
Concentrate	46
RSV	46
treatment-experienced	46
484	46
pre	45
triglyceride	45
accounts	45
8,@@	45
ty@@	45
hyperparathyroidism	45
biotransformation	45
Cat@@	45
barrel	45
LA	45
bur@@	45
TO@@	45
322	45
matters	45
OBT	45
questionnaire	45
dexmedetomidine	45
sto@@	45
dermal	45
discussions	45
Fabry	45
Somnolence	45
efflux	45
cont@@	45
MAR@@	45
ency	45
NEOPHARMA	45
sampling	45
Attach	45
sows	45
9.2	45
telephone	45
conference	45
Control	45
thrombo@@	45
gravis	45
70-@@	45
Cs	45
20,000	45
Update	45
pr@@	45
abscess	45
Haemoglobin	45
Ge@@	45
Clostridium	45
raise	45
orrhoea	45
dibotermin	45
cre@@	45
BSA	45
org@@	45
demonstrating	45
progamme	45
active-controlled	45
pharmacologically	45
София	45
attempts	45
gsk.	45
gums	45
basic	45
thrombolytic	45
tam@@	45
Potential	45
diazepam	45
ratios	45
firm	45
INTANZA	45
hem@@	45
Tremor	45
Particular	45
Loratadine	45
Creatinine	45
discoloured	45
194	45
beats	45
household	45
287	45
FIRMAGON	45
mobilisation	45
shield	45
greatly	45
ef@@	45
sulphonylureas	45
yp@@	45
posts	45
Implanon	45
GR-@@	45
elective	45
multicenter	45
demonstration	45
PA@@	45
licensed	45
capable	45
gonadotrophin	45
9.8	45
eligible	45
antithrombotic	45
postoperative	45
ensuring	45
ver	45
Proprietary	45
ences	45
199	45
net	45
Pneumonia	45
325	45
sunset	45
Pharmac@@	45
277	45
lac@@	45
fish	45
Berlin	45
signals	45
embryo-foetal	45
desiccant	45
equally	45
Coadministration	45
383	45
panleucopenia	44
Dex@@	44
restriction	44
labyrinth	44
diplopia	44
extrapyramidal	44
letters	44
Revision	44
Communities	44
9NJ	44
apathy	44
disc	44
Authorities	44
Km	44
big	44
Transfer	44
RMS	44
macrolides	44
ple@@	44
tin@@	44
SAFE	44
CELVAPAN	44
On@@	44
ica	44
discontinuing	44
convulsion	44
framework	44
sts	44
environmental	44
Masivet	44
bright	44
sulphonamides	44
fleas	44
hypertriglyceridaemia	44
11-@@	44
Final	44
crossover	44
sa@@	44
carries	44
CAR@@	44
anticoagulation	44
bovine	44
bacteraemia	44
IRU	44
243	44
preceding	44
preservatives	44
Pure	44
believed	44
alisation	44
ved	44
allogeneic	44
CON@@	44
043	44
feelings	44
е@@	44
resuspended	44
Diabetic	44
deemed	44
µl	44
electrolytes	44
thre@@	44
rasburicase	44
Or@@	44
office	44
Abilify	44
dysplasia	44
sickle	44
Tro@@	44
termination	44
lumps	44
lam@@	44
coll@@	44
Resuspend	44
femoral	44
Incidence	44
supplementary	44
ay	44
involuntary	44
cephalosporins	44
semen	44
tear	44
Fin@@	44
operations	44
SUPPLY	44
15mg	44
Xelevia	44
336	44
MenC	44
consolidation	44
ited	44
blinded	44
Prophylaxis	44
microsomes	44
abscesses	44
Consta	44
440	44
non-inferiority	44
ors	44
Venous	44
5-	44
-associated	44
surfaces	44
sitaxentan	44
CM@@	44
chloro@@	44
367	44
para@@	44
monkey	44
ping	44
Vilnius	44
Post	44
promote	44
psychomotor	44
-based	44
lim@@	44
IV@@	44
examine	44
thickness	44
SNC	44
fac@@	44
detemir	44
tid	44
Ca@@	44
ist	44
dexrazoxane	44
uncertain	44
Arrow	44
figure	44
consist	44
mating	44
Arcoxia	44
arteriosus	44
embryotoxicity	43
TREATMENT	43
car	43
CT13	43
Clean	43
graduated	43
bleedings	43
UV	43
responsiveness	43
Rosiglitazone	43
silicon	43
tim@@	43
printing	43
pg	43
q12h	43
threshold	43
haemorrhages	43
Key	43
Brüssel	43
XX	43
retina	43
harmonise	43
allergan.	43
copy	43
principally	43
PCV2	43
Horses	43
Sec@@	43
3rd	43
lability	43
071	43
30.@@	43
Gemcitabine	43
31-@@	43
thrombocytopaenia	43
abuse	43
observations	43
~	43
E2	43
nephritis	43
k-@@	43
Urticaria	43
iso@@	43
copolymer	43
4mg	43
macro@@	43
cytokines	43
Prepandemic	43
FEV1	43
serotypes	43
began	43
destruction	43
M-@@	43
All@@	43
wa@@	43
Sprycel	43
sti@@	43
www.@@	43
proportions	43
Sanofi-Aventis	43
cytes	43
passive	43
Brussel	43
ching	43
prescribers	43
Post@@	43
Previcox	43
10.5	43
bronchiseptica	43
ru@@	43
non-fatal	43
AMD	43
pharmacodynamics	43
lot	43
lepirudin	43
subtype	43
COZAAR	43
y.	43
sal@@	43
TE	43
Induction	43
001-@@	43
cetrorelix	43
hydrocortisone	43
Rec@@	43
10.2000	43
selectively	43
Medic@@	43
Swine	43
e-mail	43
monobasic	43
065	43
Plus	43
atenolol	43
545	43
Herbal	43
failures	43
glycine	43
Quicklet	43
speaking	43
Vials	43
Forsteo	43
Thereafter	43
prone	43
Pioglitazone	43
204	43
knowledge	43
Tallinn	43
edge	43
intravascular	43
emic	43
stratified	43
percentile	43
chicken	43
s.r.o.	42
hydrated	42
BR@@	42
ats	42
investigating	42
deferasirox	42
lavage	42
Ferring	42
fats	42
Ba@@	42
hex@@	42
M184V	42
l-@@	42
ist@@	42
OG@@	42
hepatotoxicity	42
5-ALA	42
ga	42
13C-urea	42
-up	42
cramp	42
Deputy	42
one@@	42
cross-resistance	42
ganciclovir	42
biochemical	42
Ti@@	42
recognise	42
aluminum	42
200mg	42
liposomal	42
35-@@	42
Pharmacopoeia	42
047	42
manifested	42
pouches	42
Aliskiren	42
microbial	42
cardio@@	42
tremors	42
pup	42
LDH	42
UA	42
Carbamazepine	42
Institut	42
Aprepitant	42
fre@@	42
Target	42
1.08	42
chewed	42
slower	42
travelling	42
experiments	42
Early	42
Swedish	42
Straße	42
dys@@	42
dehydrated	42
elle	42
к@@	42
Services	42
ondansetron	42
CMD	42
menopausal	42
pressing	42
aetiology	42
Postbus	42
ann@@	42
ská	42
microspheres	42
Glucomed	42
reserve	42
AUC0-@@	42
monovalent	42
$	42
181	42
AI@@	42
Gonazon	42
ker	42
non-selective	42
summaries	42
Stalle	42
sessions	42
Professional	42
convex	42
erythrocytes	42
self-injection	42
spike	42
Biotransformation	42
awareness	42
Slovakia	42
ous@@	42
processing	42
475	42
24-week	42
Pi@@	42
packages	42
0.4@@	42
non-specific	42
A-1@@	42
193	42
three-@@	42
History	42
pac@@	42
Warnings	42
art	42
Certain	42
explained	42
myelosuppressive	42
amendment	42
alo@@	42
Occasionally	42
me	42
Division	42
pharmacy	42
Co-Rapporteur	42
Allow	42
BSC	42
DMARDs	42
-dose	42
E460	42
litter	42
Year	42
IA	42
assist	42
0,@@	42
Free	42
278	42
Laboratorios	42
organic	42
primed	42
comprimés	42
effervescent	42
ejection	42
gestational	42
Cartridges	41
GU@@	41
82@@	41
paste	41
GCP	41
super@@	41
hydrox@@	41
persistence	41
considerably	41
thiazolidinedione	41
Exposure	41
ven@@	41
2g	41
paresthesia	41
hypertonia	41
Angioedema	41
07@@	41
-induced	41
ath@@	41
efficient	41
pouch	41
Zidovudine	41
restless	41
publication	41
419	41
ell	41
-22	41
Male	41
anger	41
dates	41
ACS	41
ger	41
tender	41
seem	41
16-@@	41
501	41
Warfarin	41
gum	41
RC	41
Pancreatitis	41
ber@@	41
Maraviroc	41
enti@@	41
ain	41
Commonly	41
PHARMA	41
Ames	41
milestone	41
17-@@	41
gambling	41
FA@@	41
MDS	41
slowing	41
characterized	41
shape	41
148	41
analy@@	41
21-@@	41
osteomyelitis	41
warrant	41
Ovarian	41
nasopharyngitis	41
suspicion	41
handle	41
sch@@	41
blockage	41
labels	41
sho@@	41
calculate	41
induration	41
MERIAL	41
reversal	41
4-91	41
team	41
metal	41
intrinsic	41
0.36	41
releases	41
subunit	41
hence	41
skull	41
625	41
betaine	41
easier	41
ø@@	41
12.0	41
Prezista	41
neur@@	41
262	41
capsule-shaped	41
re-	41
Pyrexia	41
temperatures	41
01@@	41
Ytracis	41
Š	41
Normal	41
adenomas	41
suppress	41
99mTc	41
hyperthermia	41
lymphomas	41
IGF-I	41
4-week	41
Review	41
breathe	41
CD	41
pigmentation	41
oxybutynin	41
BW	41
airways	41
Retard	41
197	41
Handling	41
Amprenavir	41
onia	41
nightmares	41
bilateral	41
Mirtazapine	41
Steady	40
herpesvirus	40
AF@@	40
anomalies	40
Mirapexin	40
Steady-state	40
lowers	40
we	40
pending	40
Medium	40
em	40
HOLDERS	40
TC	40
que	40
gauze	40
Decrease	40
Bre@@	40
resume	40
unsure	40
myo@@	40
collapse	40
PD@@	40
Kit	40
features	40
conduction	40
cle@@	40
ally-@@	40
adrenaline	40
296	40
beige	40
Registration	40
topic	40
implanted	40
Per	40
Oslo	40
DK	40
blasts	40
Stop	40
aminoglycosides	40
4-6	40
glibenclamide	40
aminotransferases	40
ref@@	40
Conditions	40
MRA	40
Inspect	40
EudraVigilance	40
precise	40
penicillin	40
thiazides	40
Finally	40
AUCτ	40
ff@@	40
calendar	40
metres	40
cer@@	40
ferritin	40
bicalutamide	40
co	40
gi@@	40
Injury	40
trimesters	40
053	40
burden	40
2-year	40
bruise	40
drug-drug	40
Bulgaria	40
comprised	40
anaemic	40
Concept	40
metoprolol	40
software	40
la@@	40
Paroxetin	40
operative	40
Isolated	40
survived	40
Zypadhera	40
ish	40
options	40
indicators	40
Another	40
1-5	40
time-@@	40
wipes	40
Ra@@	40
Race	40
mouthpiece	40
HCTZ	40
Blue	40
medi@@	40
whenever	40
oxidation	40
dium	40
PBPC	40
Carcinogenicity	40
smokers	40
bypass	40
predominant	40
cake	40
L01@@	40
bring	40
ase-@@	40
BLISTERED	40
Vertigo	40
calcium-@@	40
237	40
ises	40
GPIIb	40
IB@@	40
Educational	40
Farmacêutica	40
cholestatic	40
tracking	40
canis	40
directions	40
comparisons	40
assumed	40
expose	40
Av@@	40
75-@@	40
Coordination	40
isa	40
breaks	40
time@@	40
Myocardial	40
Intelence	40
wn	40
1ml	40
mechanical	40
352	40
-C@@	40
shingles	40
sal	40
Doxastad	40
ure	40
272	40
anxious	40
ry	40
Ag@@	40
redistribution	40
347	40
lid	40
Byetta	39
practical	39
ism	39
Bad	39
Industrie	39
FRANCE	39
CTC	39
resuspend	39
immature	39
gait	39
lens	39
Transdermal	39
spp.	39
Recommended	39
ects	39
Try	39
aimed	39
REGARD	39
EFFECTIVE	39
pseudo@@	39
Ri@@	39
oestradiol	39
rt@@	39
organised	39
polyarticular	39
back@@	39
Label	39
ero@@	39
Difference	39
Abacavir	39
Psoriasis	39
ophthalmic	39
tablete	39
WARNING	39
ands	39
neutropaenia	39
266	39
Department	39
CA@@	39
0.54	39
Saccharomyces	39
Immunogenicity	39
Adequate	39
256	39
extracellular	39
SUBSTANCE	39
pap@@	39
Stomatitis	39
glycosylated	39
revascularisation	39
pts	39
Chills	39
maculopapular	39
panic	39
goals	39
bronchial	39
17.5	39
De	39
valve	39
obligations	39
а@@	39
VI	39
Europharm	39
link	39
dropped	39
hazardous	39
refers	39
motility	39
displacement	39
demonstrates	39
Azopt	39
ently	39
228	39
retrospective	39
probable	39
а	39
inadequately	39
pegvisomant	39
cataract	39
SI-1000	39
French	39
resonance	39
061	39
ECU	39
Kar@@	39
Between	39
ture	39
ORODISPERSIBLE	39
lie	39
carbox@@	39
survey	39
crospovidone	39
advantage	39
strictly	39
ocyte	39
MPS	39
As@@	39
pathies	39
YTRACIS	39
Replace	39
shivering	39
Kaposi	39
secretariat	39
preferable	39
Sorbitol	39
AU@@	39
pressed	39
pt@@	39
differentiation	39
vecuronium	39
311	39
Entacapone	39
Observed	39
IgA	39
haem@@	39
anhydrase	39
1800	39
4,000	39
Citric	39
Hg	39
Sutent	39
Ketoconazole	39
Members	39
porfimer	39
p-@@	39
Public	39
aden@@	39
lip	39
atypical	39
begins	39
kind	39
pathic	39
CHF	39
Form@@	39
Pen@@	39
cross-@@	39
efficacious	39
intravitreal	39
retapamulin	39
erythematous	39
angiotensin-II	39
throw	39
forecast	39
proliferative	39
bleomycin	39
post-transplant	39
ZDV	38
stre@@	38
339	38
Bra@@	38
300@@	38
800@@	38
aria	38
Pr@@	38
03@@	38
challenges	38
Difficulty	38
241	38
pharm	38
Gmbh	38
064	38
onal	38
thrombophlebitis	38
statements	38
581	38
LV-1004	38
442	38
foam	38
Gener@@	38
-resistant	38
Allergan	38
cu@@	38
supplement	38
Ram@@	38
chemotherapeutic	38
clicks	38
returns	38
zero	38
collaboration	38
1993	38
302	38
Avamys	38
IR@@	38
policies	38
ono@@	38
venipuncture	38
territory	38
expenses	38
MCyR	38
Sh@@	38
efforts	38
electro@@	38
follicle-stimulating	38
333	38
Hepatobiliary	38
Gam@@	38
Neupogen	38
Enterobacter	38
NI@@	38
greatest	38
leuco@@	38
Benzyl	38
ammonia	38
Co-ordination	38
Silica	38
ou	38
donate	38
YMDD	38
furosemide	38
priming	38
F-9@@	38
Heads	38
vir@@	38
pegaptanib	38
BH4	38
ball	38
histology	38
normalised	38
Epistaxis	38
sticky	38
sy@@	38
atory	38
reuptake	38
overdoses	38
Celecoxib	38
beating	38
Pregabalin	38
178	38
Choose	38
syn@@	38
anticonvulsant	38
CIN	38
Tachycardia	38
150@@	38
regression	38
high-fat	38
sparfloxacin	38
relax	38
IL@@	38
Elevations	38
supplies	38
latex	38
amendments	38
Nicotinic	38
6-	38
polymer	38
nephrotoxic	38
acti@@	38
azole	38
post-natal	38
neomycin	38
nefazodone	38
Euro@@	38
Non@@	38
10.1	38
participated	38
480	38
systematic	38
ab	38
Grapefruit	38
refill	38
pharmaco@@	38
carbonic	38
dispensed	38
nor@@	38
Immeuble	38
Défense	38
loaded	38
Colonel	38
ria	38
decisions	38
sapropterin	38
10.6	38
frame	38
neuroleptic	38
jo@@	38
Inspections	38
maropitant	38
est	38
54@@	38
helping	38
daytime	38
warmth	38
ther	38
fibrates	38
phenyl@@	38
cr@@	38
extend	38
ketoprofen	38
longer-acting	38
Cefuroxime	38
Colloidal	38
-3@@	38
rivestite	38
---	38
felis	37
Diphtheria	37
eyelids	37
Oc@@	37
Details	37
double-@@	37
MAN@@	37
washed	37
Sol@@	37
Stevens	37
Forte	37
structures	37
seroprotection	37
EP@@	37
Virological	37
ef	37
co-ordination	37
definitive	37
NRTI	37
Haemorrhage	37
ez@@	37
Sirolimus	37
icatibant	37
DRAXXIN	37
SC@@	37
resolves	37
infrequently	37
har@@	37
Large	37
fication	37
great	37
Pri@@	37
infertility	37
dose-	37
perindopril	37
gilts	37
Isotretinoin	37
Zocord	37
meningitidis	37
organism	37
077	37
1628	37
serological	37
mIU	37
exclude	37
intestines	37
Atazanavir	37
community	37
mites	37
EC50	37
def@@	37
J05@@	37
Protocol	37
ile	37
ú@@	37
chlor@@	37
botulinum	37
Ph@@	37
387	37
Dukoral	37
ici	37
NSTEMI	37
serotonergic	37
Hence	37
ving	37
Reaction	37
run	37
mil@@	37
6-fold	37
eri@@	37
LD@@	37
stearyl	37
hydroxybenzoate	37
myco@@	37
nimesulide	37
aplastic	37
reflects	37
Shellac	37
μ@@	37
TABLET	37
hasn	37
sibutramine	37
division	37
publications	37
12.2000	37
Emend	37
Omega	37
Latvijā	37
carrying	37
onwards	37
arrangements	37
VEN@@	37
Publications	37
depleted	37
patterns	37
endo@@	37
mat@@	37
histo@@	37
tartrate	37
Live	37
MON@@	37
Tissue	37
South	37
Rifabutin	37
Improvement	37
Known	37
252	37
rising	37
Repaglinide	37
Mon@@	37
torsades	37
cost	37
hydrogenated	37
95@@	37
Ster@@	37
ambulatory	37
275	37
Zubrin	37
633	37
Every	37
50mg	37
COX-1	37
radiolabelling	37
FORCALTONIN	37
ator@@	37
nadir	37
Inhalation	37
hyperbilirubinaemia	37
GBq	37
Higher	37
12.3	37
0,5	37
Fegersheim	37
nmol	37
Monotherapy	37
CABG	37
COMT	37
mammary	37
LS	37
a-treated	37
stool	37
ethyl	37
notably	37
calculation	37
palpitation	37
balanced	37
PNH	37
ways	37
Rem@@	37
isoforms	37
tec@@	37
alf@@	37
laying	37
graphic	37
polymerase	37
Hol@@	37
Ringer	37
vehicles	37
cotton	37
462	37
Syncope	36
officially	36
Committees	36
counter@@	36
liposomes	36
buffer	36
ium	36
ο@@	36
dextrose	36
ó@@	36
Ε@@	36
San@@	36
ano@@	36
languages	36
phosphodiesterase	36
oste@@	36
FCF	36
structural	36
Uxbridge	36
soreness	36
precipitation	36
tra@@	36
cerevisiae	36
colostrum	36
bactericidal	36
reflecting	36
eptacog	36
objections	36
62.5	36
ide@@	36
49-@@	36
49-	36
2b	36
maternally	36
Velcade	36
ischemic	36
novo	36
Hyperglycaemia	36
quantification	36
Mix	36
98@@	36
Open	36
SAS	36
ot@@	36
genes	36
Nimesulide	36
0.125	36
tre@@	36
any@@	36
HIT	36
glutamate	36
World	36
н@@	36
63@@	36
FR	36
ova	36
precaution	36
Now	36
cervix	36
Lacosamide	36
Convenia	36
5-fold	36
BM	36
progressed	36
Wait	36
similarly	36
responsibilities	36
host	36
6,000	36
Radio@@	36
intercourse	36
stimulated	36
DS	36
11.5	36
radiopharmaceutical	36
hf	36
í@@	36
rapporteurs	36
light-headedness	36
echocardiography	36
potassium-sparing	36
ker@@	36
ed-@@	36
Lisboa	36
Gélule	36
doubled	36
easy	36
Xa	36
Κ@@	36
saturation	36
Female	36
inactivation	36
HAART	36
048	36
aldosterone	36
fungi	36
Nelfinavir	36
D2	36
polyester	36
py@@	36
Despite	36
CY@@	36
1,6@@	36
METALYSE	36
Flu@@	36
Nordic	36
4-	36
ensured	36
Lower	36
EudraNet	36
ass@@	36
genotypic	36
interpretation	36
1998-99	36
0.70	36
12.1	36
understood	36
Description	36
Ms	36
Risperidone	36
variables	36
062	36
formulated	36
Non-Proprietary	36
246	36
sion@@	36
recover	36
direction	36
100.0	36
Multipack	36
interrupt	36
alpha@@	36
deferoxamine	36
stabilisation	36
244	36
nozzle	36
Porcine	36
30mg	36
Dan@@	36
sevelamer	36
derm@@	36
cholera	36
BA@@	36
FOIL	36
calicivirus	36
Tysabri	36
84@@	36
Ve@@	36
TRA@@	35
choose	35
constitute	35
institution	35
Inhibition	35
TNFα	35
Ipsen	35
Ramsgate	35
medic@@	35
haemodynamic	35
vasodilatation	35
Ox@@	35
Du@@	35
Su@@	35
η	35
radiographic	35
adjuster	35
regions	35
STEMI	35
ephedrine	35
touching	35
0.06	35
ED@@	35
alternate	35
298	35
xi@@	35
recovering	35
NUMBER	35
Ariclaim	35
oliguria	35
ZO@@	35
declined	35
Emulsion	35
265	35
Meetings	35
Consult	35
category	35
gullet	35
ond@@	35
Tipranavir	35
parasites	35
QWP	35
childhood	35
783	35
Robenacoxib	35
sectors	35
breakpoints	35
567	35
endometrium	35
specificity	35
transplants	35
CHOP	35
FAP	35
logist	35
responder	35
format	35
074	35
γ	35
hoarseness	35
sole	35
bupropion	35
Les	35
AIIRAs	35
NO	35
t.	35
mit@@	35
dine	35
tation	35
located	35
chairman	35
ed.	35
HARD	35
10.4	35
hepatomegaly	35
ла@@	35
preliminary	35
zing	35
Loratadin	35
pyelonephritis	35
demyelinating	35
pure	35
noradrenaline	35
268	35
25mg	35
implications	35
Cattle	35
sequential	35
LTD	35
329	35
AX@@	35
complement	35
-B	35
fatalities	35
poliomyelitis	35
differential	35
Pharmaco@@	35
neurotoxicity	35
ber	35
adjusting	35
purple	35
Second	35
Tran@@	35
2x@@	35
451	35
1mg	35
Celvapan	35
AVAMYS	35
antiretrovirals	35
angio@@	35
Lu@@	35
toes	35
dre@@	35
dialy@@	35
tac@@	35
HI	35
0.88	35
Surrey	35
264	35
Renitec	35
epithelium	35
cleaning	35
antifungals	35
slows	35
predispose	35
Telephone	35
AUC0-	35
lethal	35
tes	35
undergone	35
ectomy	35
67640	35
infective	35
methionine	35
intra-abdominal	35
Ste@@	35
unfractionated	35
colouring	35
ºC	35
Tritazide	35
goal	35
Restless	35
Prolonged-release	35
hypophosphataemia	35
head@@	35
Physician	35
Digoxin	35
anti-rheumatic	35
ethinylestradiol	35
wards	35
394	35
tropic	34
keratitis	34
x1	34
leak	34
CTCL	34
ammonium	34
salbutamol	34
Rivastigmine	34
suspect	34
mor@@	34
atus	34
unspecified	34
ETOMEP	34
0.30	34
SUI	34
Ltd.	34
cleaned	34
prescribes	34
Liquid	34
sweat	34
2100	34
tical	34
int@@	34
cytokine	34
Five	34
CI95	34
-free	34
subtypes	34
Add	34
2-8	34
Co-	34
ket@@	34
floor	34
33-@@	34
las	34
premedication	34
phenotypic	34
presents	34
Oracea	34
genetically	34
prescriber	34
call	34
0.95	34
sl@@	34
TR@@	34
yc@@	34
Rate	34
Hb	34
382	34
paenia	34
my@@	34
Japanese	34
1992	34
relapsing	34
rule	34
FILM-COATED	34
L1	34
virus@@	34
Boulevard	34
pre-specified	34
Indigo	34
0.72	34
q	34
Aerobic	34
13.5	34
Specification	34
cultures	34
94@@	34
flares	34
tel	34
Met@@	34
endorsed	34
theoretical	34
lies	34
238	34
02-@@	34
stinging	34
eral	34
550	34
ADR	34
perversion	34
penis	34
ank	34
Merial	34
dispenser	34
oxaliplatin	34
Acticam	34
Advate	34
graf@@	34
3A	34
organisations	34
FT	34
-2-@@	34
cyclic	34
overt	34
myelo@@	34
naproxen	34
enclosed	34
lined	34
acc@@	34
289	34
headings	34
Arthritis	34
Hamster	34
AU	34
comprehensive	34
Gal@@	34
calcineurin	34
relaxants	34
benzodiazepine	34
understand	34
Drive	34
Reported	34
Medi@@	34
infrequent	34
but@@	34
MF	34
640	34
Alfa	34
564	34
antineoplastic	34
S.p.A.	34
deal	34
tasonermin	34
ė	34
T4	34
bronchoconstriction	34
Em@@	34
Febrile	34
Sterile	34
1-3	34
former	34
ona	34
Si@@	34
nitisinone	34
heptahydrate	34
Refer	34
post-treatment	34
proportionally	34
TS	34
lymphocytic	34
renin-angiotensin-aldosterone	34
contract	34
task	34
pericardial	34
emptying	34
Fertility	34
comple@@	34
2.25	34
ATE	34
verteporfin	34
Pigs	34
Science	34
vomit	34
ize	34
34-@@	34
GA@@	34
cartilage	34
adhesin	34
cortical	34
Crospovidone	34
cal@@	34
aggravation	34
ion	34
embryotoxic	34
comfortable	34
SEN	34
Association	34
metre	34
NT	34
sinuses	34
analytical	34
Legs	34
Niemann-Pick	34
334	34
AEs	34
disagreement	34
plans	34
disease-modifying	34
sodium-free	34
glipizide	34
rent	33
lox@@	33
moiety	33
Starting	33
officials	33
9000	33
aspiration	33
ched	33
ble@@	33
recommends	33
eastern	33
non-Hodgkin	33
edges	33
pharma	33
12-month	33
Yentreve	33
Recent	33
ANTI@@	33
Flexicam	33
Yarvitan	33
phosphorus	33
pri@@	33
transporter	33
tetracycline	33
INSULIN	33
predisposed	33
father	33
291	33
combining	33
sitis	33
Fre@@	33
zed	33
bul@@	33
non-nucleoside	33
Whilst	33
temozolomide	33
MR	33
doubling	33
long-	33
Excessive	33
Over@@	33
heads	33
filiaal	33
dispensing	33
7.1998	33
drinks	33
City	33
282	33
La@@	33
whooping	33
0.20	33
quinolone	33
one-half	33
Vienna	33
confused	33
Solna	33
Vistide	33
injuries	33
530	33
Tηλ	33
hostility	33
Alimta	33
bar	33
gonorrhoeae	33
pruritis	33
ecchymosis	33
DATE	33
layers	33
ACTH	33
Bir@@	33
equ@@	33
Alexion	33
Gi@@	33
proximal	33
returning	33
create	33
BC	33
averaged	33
39-@@	33
spo@@	33
Phenytoin	33
Stelara	33
Vietnam	33
hyperactivity	33
ek@@	33
SELF	33
TAR@@	33
meters	33
Considering	33
defence	33
cut-off	33
drainage	33
Thromboembolic	33
M1	33
participate	33
od@@	33
REGARDING	33
Hy@@	33
0.67	33
dom@@	33
fail	33
Organisation	33
diarrhea	33
ged	33
ay@@	33
incomplete	33
lidding	33
regarded	33
adenocarcinoma	33
nutritional	33
Tur@@	33
multi-centre	33
Several	33
5-10	33
REN@@	33
ole	33
deleted	33
goes	33
hi@@	33
mesilate	33
eu@@	33
TIC@@	33
Convulsions	33
ys	33
Grange	33
adreno@@	33
cortico@@	33
EL	33
Pa@@	33
Score	33
IFN	33
bad	33
Gel	33
diffuse	33
freeze-dried	33
registration	33
conf@@	33
335	33
domain	33
ancy	33
CYP2B6	33
EV@@	33
Ser@@	33
reg@@	33
age-related	33
arbitrations	33
Thyroid	33
X-@@	33
gadolinium	33
latter	33
cornea	33
horse	33
zi@@	33
divergences	33
0.04	33
Kapseln	33
homogeneous	33
carbohydrate	33
itr@@	33
moist	33
mitochondrial	33
anaesthetics	33
Serotonin	33
ves	33
B2	33
traces	33
yn@@	33
flo@@	33
Cycle	33
calorie	33
GABA	33
GRE@@	33
eruption	33
Glucose	33
1,8@@	33
Nasal	33
glycollate	32
accumulate	32
Tetanus	32
Adenuric	32
letter	32
Regulations	32
BTP	32
endocrine	32
rotate	32
heartworm	32
L-histidine	32
Αθήνα	32
convenient	32
YOUR	32
eng@@	32
transition	32
SevoFlo	32
tal	32
occlusion	32
myositis	32
Controlled	32
ki	32
1994	32
ga@@	32
Criteria	32
supports	32
LT	32
intra@@	32
idal	32
J.	32
Gemfibrozil	32
Start	32
ites	32
voice	32
Eth@@	32
erythro@@	32
Suvaxyn	32
legal	32
Doc	32
tur@@	32
beta-2-agonist	32
Practice	32
hydroxylation	32
CHR	32
KWIKPEN	32
Holdings	32
Japan	32
Adjustment	32
10.3	32
progressing	32
meta-analysis	32
predictable	32
Opaque	32
macrophages	32
32-	32
van@@	32
supplemental	32
MUST	32
frosted	32
Impaired	32
sias	32
breast-fed	32
HPV-16	32
pulling	32
QI@@	32
lipo@@	32
speed	32
cellulitis	32
pur@@	32
apheresis	32
trembling	32
Paraesthesia	32
met@@	32
Firmagon	32
unavoidable	32
ich	32
exaggerated	32
straat	32
tend	32
genous	32
lab@@	32
SS@@	32
workshop	32
precursor	32
autonomic	32
organogenesis	32
adi@@	32
nocturnal	32
Opgenra	32
predisposing	32
NL-2@@	32
BioMarin	32
notes	32
0.002	32
mar@@	32
inspect	32
gadoversetamide	32
11.2001	32
granulocyte	32
AA@@	32
substituted	32
Vss	32
ALS	32
percutaneous	32
pit@@	32
Malignant	32
343	32
Mac@@	32
14C	32
inate	32
lacrimation	32
uria	32
tension	32
δ@@	32
11.4	32
contributed	32
thiomersal	32
leukocytosis	32
laminated	32
254	32
squ@@	32
precipitate	32
426	32
urge	32
non-linear	32
Main	32
era	32
created	32
2500	32
Across	32
E321	32
incorporated	32
norethindrone	32
Glycine	32
Simvastatin	32
ational	32
Intr@@	32
committed	32
Surgery	32
FOR@@	32
restart	32
actively	32
390	32
inated	32
meat	32
Evista	32
Advice	32
home	32
reassessed	32
Cutaneous	32
II@@	32
parameter	32
290	32
-labelled	32
retinitis	32
odour	32
interleukin-2	32
formaldehyde	32
S.A.S.	32
blood-@@	32
randomisation	32
3-6	32
40mg	32
deposition	32
refrigerate	32
dedicated	32
logically	32
phenylketonuria	32
FIN-02@@	32
Fosavance	32
generalized	32
interfering	32
extensions	32
ours	32
calories	32
10.7	32
95-@@	32
Merz	32
sound	32
mis@@	32
ly-@@	32
degenerative	32
PATCHES	32
Quinta	32
Trials	32
E951	32
hydrate	32
electrical	32
sensitisation	32
glucuron@@	32
rigidity	32
10.2002	32
Furoate	32
manufacture	32
benzoate	32
LV@@	32
Leverkusen	32
Del@@	32
2C8	32
selamectin	32
extracted	32
Ovary	32
pul@@	32
RG	31
F2	31
influenza-like	31
Stada	31
ve-@@	31
compulsive	31
0.69	31
500@@	31
10.8	31
releasing	31
Batch	31
valnemulin	31
lif@@	31
building	31
ESAs	31
SRL	31
ide-@@	31
dar@@	31
deadline	31
partnership	31
spi@@	31
coldness	31
INF@@	31
calibrated	31
ern@@	31
twitching	31
Lor@@	31
ation.	31
particle	31
ATCvet	31
RO	31
Professor	31
bloating	31
avir@@	31
24-@@	31
anc@@	31
commencing	31
insufficiently	31
ging	31
Evicel	31
acetyl@@	31
fibro@@	31
attaching	31
057	31
twelve	31
1,9@@	31
ick	31
dihydro@@	31
SANOFI	31
Б@@	31
foods	31
disappeared	31
44-	31
út	31
represented	31
ARD	31
yours	31
sun@@	31
bubble	31
16.7	31
76@@	31
pads	31
elastomer	31
aplasia	31
appro@@	31
atro@@	31
SE-@@	31
epoprostenol	31
cooperation	31
gadobutrol	31
Blurred	31
wishes	31
deletion	31
0.85	31
bac@@	31
Alternative	31
living	31
profound	31
psychological	31
UG@@	31
001-002	31
miglustat	31
acidic	31
accession	31
appeal	31
elucidated	31
UMAN	31
BIG	31
G2	31
light-@@	31
Up	31
DD	31
12.4	31
Hoechst	31
299	31
concentration-time	31
TG	31
503	31
hepatotoxic	31
remo@@	31
leuk@@	31
001-003	31
ton@@	31
Canada	31
swings	31
27-@@	31
089@@	31
Simultaneous	31
nephrolithiasis	31
058	31
Initiation	31
TIBOTEC	31
bri@@	31
Beerse	31
deficiencies	31
matched	31
Hexa	31
Lithium	31
dairy	31
transactions	31
052	31
ert	31
711	31
cyte	31
proof	31
iting	31
eth@@	31
Λευκωσία	31
305	31
repeat-dose	31
fragile	31
displayed	31
459	31
Fi@@	31
partly	31
well-@@	31
Cancidas	31
captopril	31
Dietzenbach	31
6074	31
Holding	31
IVIg	31
antiplatelet	31
fluvastatin	31
enzymatic	31
SpA	31
neurotransmitter	31
DF	31
glacial	31
Oka	31
ema	31
Inform	31
ering	31
dynamic	31
definite	31
400mg	31
priorities	31
incl.	31
tends	31
1320	31
Y-@@	31
SUL@@	31
wet	31
tors	31
mitral	31
penicillins	31
istic	31
Through	31
Toxin	31
610	31
rectum	31
compare	31
Pgp	31
anti	31
Previous	31
Hydrox@@	31
failing	31
bor@@	31
ulated	31
disseminated	31
0.68	31
sham	31
shelf	31
0-	31
79@@	31
Loxicom	31
toltrazuril	31
Mixing	31
pig@@	31
Replacement	31
broilers	31
ities	31
nephrotic	31
encouraged	31
apple	31
OL	31
thro@@	31
FAR@@	31
ine-treated	31
healed	31
enhances	31
304	31
deoxy@@	31
MRCC	31
antiarrhythmics	31
Grifols	31
latent	31
asth@@	31
ue	31
Singulair	31
empirical	31
444	31
F5	31
ped	31
Keeping	31
Re-@@	31
Acid	31
А@@	31
Zactran	31
ate@@	31
swine	31
ir	31
Piro	31
hyperuricaemia	31
Optruma	31
Tractocile	31
ibafloxacin	31
cyst	31
formally	31
Isentress	31
shed	31
incompatibility	31
Ongoing	31
Vaso@@	31
Infectious	30
plc	30
RS	30
integr@@	30
100-@@	30
bicarbonate	30
aberrations	30
endemic	30
wh@@	30
casualty	30
correspond	30
Screw	30
Men	30
enters	30
Ι@@	30
COR@@	30
sympathomimetics	30
til@@	30
rh@@	30
Tap	30
Rheumatoid	30
ff	30
isoenzyme	30
SIZES	30
Schering-Plough	30
28-day	30
sequence	30
toddlers	30
232	30
sheep	30
HYCAMTIN	30
Ges.	30
plan@@	30
behind	30
lauryl	30
wk	30
402	30
metric	30
Current	30
intending	30
Marlow	30
genicity	30
dal@@	30
hepatically	30
342	30
338	30
examples	30
rosacea	30
MANUFACTURER	30
necess@@	30
ЕООД	30
levonorgestrel	30
20.0@@	30
watery	30
hemodialysis	30
0.004	30
immun@@	30
Impairment	30
ules	30
alertness	30
top@@	30
es.	30
Malaise	30
263	30
ances	30
03.@@	30
Meda	30
enhancing	30
fy	30
Dehydration	30
Actavis	30
Sussex	30
sales	30
propafenone	30
Fablyn	30
Picture	30
proved	30
ach	30
Dur@@	30
ner@@	30
spec@@	30
erythropoiesis	30
Suramox	30
Bl@@	30
ner	30
targeted	30
Needle	30
18.7	30
recognises	30
alk@@	30
assembly	30
187	30
ALAT	30
ASAT	30
Articles	30
vagina	30
BAYER	30
steel	30
sug@@	30
Ocular	30
glucocorticoid	30
defective	30
perflutren	30
30.0@@	30
236	30
Ber@@	30
thereof	30
medica	30
cerebrospinal	30
recur	30
Reversible	30
................@@	30
causality	30
laminate	30
Referral	30
aseptically	30
gentle	30
faced	30
ened	30
Suc@@	30
ς	30
Vildagliptin	30
Monday	30
occult	30
intensified	30
CHAPTER	30
toxicological	30
435	30
outlined	30
IIb	30
consensus	30
omycin	30
0.38	30
solvents	30
tis	30
Varicella	30
Immunodeficiency	30
80-@@	30
carer	30
implan@@	30
ID	30
843	30
1,7@@	30
AX	30
18.1	30
purity	30
protein-@@	30
instruct	30
ini	30
100mg	30
Indications	30
Core	30
contr@@	30
consulting	30
provider	30
Storage	30
GL@@	30
ea	30
SEE	30
OA	30
ken	30
3-month	30
FC	30
consumed	30
coumarin	30
sparing	30
vej	30
glioblastoma	30
Carefully	30
POWER	30
Antibody	30
IARs	30
-4@@	30
gli@@	30
HAQ	30
moving	30
Bipolar	30
raz@@	30
patent	30
Bovilis	30
Cr@@	30
................................@@	30
312	30
los	30
ast	30
‡	30
Cap@@	30
K-@@	30
thromboplastin	30
10-fold	30
desire	30
radioiodine	30
ileus	30
AIDS-KS	30
OptiMARK	30
dried	30
security	30
Eurican	30
om	30
neoplastic	30
19-@@	30
253	30
false	30
contributions	30
chem@@	30
grades	30
unboosted	30
sign@@	30
life-	30
iris	30
cirrhotic	30
Fill	30
50x1	30
Venlafaxine	30
0.43	30
Paclitaxel	30
26-week	30
sources	30
von	30
extraction	30
progestogen	30
Film	30
505	30
Dysgeusia	30
TH	30
Term	30
Vaccines	30
infect	30
Lipitor	30
75008	30
Concentrations	30
Wipe	30
ranked	30
Meeting	30
displays	29
r-HuEPO	29
7-fold	29
disappears	29
vigorous	29
Novem	29
Telmisartan	29
emergent	29
adhesion	29
Responses	29
scans	29
wearing	29
suspensions	29
air@@	29
Court	29
Bor@@	29
Fab@@	29
sympathomimetic	29
326	29
Greenford	29
lev@@	29
Groups	29
Directorate	29
397	29
Activated	29
oily	29
Lapatinib	29
sw@@	29
Sunset	29
Ensure	29
fluoroquinolone	29
relate	29
Hydro@@	29
lacking	29
Percentage	29
Rel@@	29
prodrug	29
ben@@	29
anyone	29
mutated	29
Cam@@	29
0.99	29
Normalised	29
ont	29
sero@@	29
Currently	29
anti-hypertensive	29
ive	29
phy@@	29
Fel@@	29
ara-G	29
character@@	29
evenly	29
0.80	29
nucleotide	29
cytopenia	29
ferric	29
phenotype	29
lymphoproliferative	29
ND	29
determining	29
COMP@@	29
PCV	29
hypnotics	29
š	29
sci@@	29
danazol	29
injector	29
prof@@	29
plasma-derived	29
stric@@	29
encephalitis	29
Allé	29
unabsorbed	29
se-@@	29
Long	29
CART	29
B.V.	29
Waarderweg	29
Ibraxion	29
chromogenic	29
H5N6	29
4261	29
College	29
cytosis	29
urgency	29
red@@	29
androgen	29
Coronary	29
E9@@	29
aff@@	29
oline	29
Service	29
ICS	29
DOSE	29
snack	29
396	29
Qualified	29
TIW	29
caregivers	29
non-comparative	29
anticonvulsants	29
steatosis	29
ey@@	29
Problems	29
lidocaine	29
demand	29
focused	29
wer	29
J07@@	29
ent-@@	29
endocarditis	29
norelgestromin	29
inu@@	29
supraventricular	29
lymphopenia	29
Viagra	29
Printing	29
images	29
1.13	29
259	29
48-week	29
Methadone	29
ligh@@	29
tox@@	29
traumatic	29
BC@@	29
urity	29
sor	29
salicylates	29
tiv@@	29
UFH	29
Hen@@	29
retained	29
H7N1	29
Da@@	29
optimise	29
!	29
ascites	29
rin@@	29
hormone-@@	29
Hepato-biliary	29
platinum	29
mastitis	29
kin@@	29
monomethoxy	29
Sa@@	29
INJECTION	29
Ε	29
candidate	29
Mic@@	29
fell	29
chemo@@	29
ant@@	29
dissolution	29
Houten	29
λ@@	29
	29
hydroxy-@@	29
instance	29
personal	29
modul@@	29
exclusively	29
globulin	29
thickening	29
en-@@	29
noticed	29
Clarithromycin	29
NA@@	29
AMPOULE	29
creation	29
sph@@	29
icity	29
EEIG	29
Stomach	29
Dispersible	29
identification	29
wise	29
o.o.	29
ye@@	29
Pneumocystis	29
NEEDLES	29
Implementation	29
QTcF	29
06.2000	29
0.62	29
Level	29
CLL	29
io	29
co-rapporteur	29
SANOFI-AVENTIS	29
organisational	29
withdrew	29
Chloride	29
transmitted	29
pinch	29
ulating	29
prospectively	29
ISBN	29
Turnhoutseweg	29
icterus	29
tolbutamide	29
twisting	29
understanding	29
spinning	29
067	29
kap@@	29
Central	29
article	29
eventually	29
decides	29
true	29
crosses	29
MY@@	29
Confidence	29
sup@@	29
Direc@@	29
02.97	29
	29
isozymes	29
STE@@	29
ions	29
INCLUDING	29
efficiency	29
ES-@@	29
ARE	29
probability	29
ticks	29
acidity	29
els	29
luteinising	29
akathisia	29
interferes	29
rap@@	29
C-8	29
accuracy	29
keeps	29
tural	29
vit@@	29
norethisterone	29
Appro@@	29
ches	29
painkillers	29
phlebitis	29
reasonable	29
prote@@	29
Adolescents	29
peptides	29
Hoche	29
Opadry	29
vol@@	29
Virbagen	29
р@@	28
3TC	28
Trading	28
Multidose	28
Sta@@	28
needing	28
The@@	28
14.5	28
hypoxia	28
developments	28
DEX	28
saliva	28
registry	28
spacer	28
dispense	28
arc@@	28
1.7@@	28
dor@@	28
97.5	28
fluorescence	28
Bri@@	28
Roma	28
BN	28
salmon@@	28
STRENGTHS	28
palifermin	28
selectivity	28
PDE@@	28
submissions	28
T1	28
Sar@@	28
smell	28
30-50	28
Kaplan-Meier	28
RD	28
flexible	28
toward	28
K65R	28
463	28
1050	28
multipacks	28
Having	28
Positive	28
aded	28
log-rank	28
Janssen	28
click	28
unacceptable	28
Metastatic	28
cul@@	28
intravascularly	28
borne	28
azine	28
Persistent	28
alise	28
fol@@	28
0.13	28
desipramine	28
Forcaltonin	28
EPARs	28
ute	28
polio	28
plas@@	28
μg	28
optimum	28
bacteriostatic	28
question	28
assistant	28
emodepside	28
flecainide	28
Disposal	28
opiate	28
HBeAg-positive	28
HBeAg-negative	28
ix	28
Agitation	28
post-menopausal	28
Caucasians	28
folinic	28
cGMP	28
TIMI	28
Center	28
2a	28
Emadine	28
select	28
fruit	28
TEMODAL	28
AM	28
ер@@	28
Severity	28
Pal@@	28
Bovine	28
FU@@	28
bloodstream	28
Mel@@	28
ain@@	28
Degree	28
simple	28
................................................................................@@	28
COMB	28
Aventis	28
Is@@	28
pieces	28
л@@	28
implants	28
10.96	28
scarring	28
mutant	28
Pur@@	28
rabies	28
nails	28
Ig@@	28
alive	28
wed	28
0.003	28
PLUS	28
beta@@	28
Piro@@	28
ere	28
Basingstoke	28
onate	28
penetration	28
SWP	28
Asian	28
classic	28
cavity	28
HU@@	28
tylvalosin	28
A-12@@	28
table@@	28
compete	28
454	28
cystitis	28
Ir@@	28
ACE-@@	28
angiography	28
ie@@	28
Pres@@	28
Clar@@	28
inase	28
existence	28
ania	28
receipt	28
Substances	28
Sup@@	28
lympho@@	28
DBP	28
HMG	28
resuscitation	28
Event	28
advance	28
tial	28
conjugates	28
yield	28
Sel@@	28
perf@@	28
Sleep	28
protects	28
Parenteral	28
inform@@	28
8-fold	28
Tables	28
navel	28
hypertrophic	28
weaken	28
12.7	28
Unless	28
differently	28
prostaglandins	28
suppressed	28
Herts	28
age-@@	28
oph@@	28
stuffy	28
471	28
cardi@@	28
	28
ath	28
Helsinki	28
ech@@	28
Interferons	28
work@@	28
salivation	28
vitreous	28
GMTs	28
Sankyo	28
Conjunctivitis	28
09@@	28
uniform	28
steroidal	28
um-	28
impurities	28
divergent	28
aks	28
TRO@@	28
nonsteroidal	28
OS@@	28
durations	28
bradykinin	28
hay	28
ii	28
thighs	28
Dermatitis	28
commitment	28
EE-@@	28
OM@@	28
pathology	28
eculizumab	28
prematurely	28
483	28
accumulates	28
Oseltamivir	28
ron@@	28
Doctor	28
11.9	28
belly	28
Arbitration	28
sted	28
etexilate	28
GGT	28
pilot	28
underwent	28
mildly	28
DG	28
FOLFOX-4	28
PhVWP	28
compact	28
pre-treated	28
intent-to-treat	28
DMARD	28
gadofosveset	28
Sickle	28
reassessment	28
vincristine	28
Dose-@@	28
Bel@@	28
POWDER	28
Combined	28
ira	28
324	28
shelf-life	28
Bb	28
EDSS	28
11.1	28
0.61	28
resection	28
engineered	28
Ha@@	28
meth@@	28
sec@@	28
MT@@	28
12.50	28
w.@@	28
calicivirosis	27
A.@@	27
Menarini	27
Ventricular	27
neuralgia	27
München	27
ends	27
stuff	27
Ob@@	27
Riga	27
coded	27
melanoma	27
morph@@	27
worms	27
STEP	27
-23	27
Nacional	27
8ºC	27
Pan-European	27
knows	27
enic	27
dul@@	27
Viale	27
Europa	27
2.	27
1A@@	27
sulfamethoxazole	27
antacid	27
fore@@	27
Tumour	27
Tabs	27
differs	27
pre-clinical	27
ejaculation	27
Glass	27
splenic	27
G-@@	27
skip	27
XE@@	27
viraemia	27
gelatine	27
B-2@@	27
-term	27
ORR	27
glut@@	27
ination	27
brief	27
EU-	27
malformation	27
frag@@	27
administr@@	27
hear	27
pushed	27
Fac@@	27
broached	27
Carnauba	27
5-6	27
RR	27
315	27
3-day	27
226	27
photophobia	27
Acinetobacter	27
twist	27
Addition	27
Tribrissen	27
mission	27
systematically	27
Bioavailability	27
Papillomavirus	27
enterohepatic	27
die	27
worldwide	27
Norfloxacin	27
permit	27
sett@@	27
pool	27
MS.	27
epidural	27
onco@@	27
T2	27
Quadrisol	27
Presentations	27
arsenic	27
trioxide	27
Flatulence	27
carglumic	27
Didanosine	27
delirium	27
INSUMAN	27
Rhinitis	27
Industries	27
Selective	27
Mini@@	27
lacks	27
TIC	27
oper@@	27
Subsequent	27
condom	27
commence	27
emetogenic	27
Locatim	27
ich@@	27
remedies	27
advi@@	27
exhibiting	27
Decentralised	27
titers	27
Nateglinide	27
secre@@	27
orm@@	27
Life	27
ung@@	27
mann	27
diverticulitis	27
labour	27
11.7	27
separation	27
mini@@	27
contributing	27
stainless	27
-radiolabelled	27
imp@@	27
repeatedly	27
iodine	27
trav@@	27
fen	27
passage	27
antidiabetes	27
Cetuximab	27
IgG1	27
sit@@	27
correlate	27
crystals	27
lymphoblastic	27
tone	27
papers	27
PS	27
triphosphate	27
thymidine	27
33.3	27
respiration	27
Hyperkalaemia	27
М@@	27
atives	27
Neuroleptic	27
Chaussée	27
ranibizumab	27
spl@@	27
VLDL	27
weight-@@	27
histidine	27
056	27
Hill	27
BIOLOGICAL	27
5ml	27
Ep@@	27
αν@@	27
mal	27
1.10	27
principles	27
Albert	27
Vice-Chairman	27
inemia	27
twice-daily	27
plays	27
rich	27
ude	27
characteristic	27
hypersexuality	27
Laropiprant	27
millilitres	27
Ki	27
Hoddesdon	27
Mail	27
Urea	27
1,400	27
infestation	27
Fungal	27
07.2001	27
cardiotoxicity	27
first-pass	27
solubility	27
mentation	27
2001-2002	27
zalcitabine	27
ECO	27
TopoTarget	27
Fl@@	27
Fosamprenavir	27
rodent	27
ail@@	27
Hallucinations	27
aspect	27
clinic	27
Ciprobay	27
sis-@@	27
four-week	27
355	27
HealthCare	27
Lin@@	27
interferon-@@	27
ç@@	27
buttock	27
Metabolic	27
Rapporteurs	27
Har@@	27
lex	27
SINGLE	27
HD@@	27
3ml	27
SOLUTION	27
lit@@	27
avoiding	27
CB@@	27
Banérgatan	27
ear@@	27
restarting	27
claimed	27
Is	27
gained	27
neutral	27
Treated	27
13C	27
myeloablative	27
Gro@@	27
agency	27
gre@@	27
Leukaemia	27
dust	27
nia	27
-B@@	27
TA	27
predict	27
biologicals	27
ele@@	27
irrit@@	27
Evra	27
ör@@	27
PASTEUR	27
ulo@@	27
E1201	27
Proportion	27
Parc	27
Chem@@	27
Bacterial	27
Farmaceutici	27
BT@@	27
eno@@	27
Az@@	27
Rheumocam	27
nitrate	27
gluco@@	27
ska	27
evidenced	27
ano	27
Inten@@	27
Garnier	27
Pharm	27
inic	27
SGOT	27
SGPT	27
lun@@	27
10.9	27
ApS	27
her@@	27
STRENGTH	27
non-serious	27
overnight	27
patient-@@	27
E5@@	27
lor@@	27
s.@@	27
housing	27
Daiichi	27
cortisol	27
ference	27
663	27
2,5	27
tearing	27
bought	27
0.4mg	27
minimize	27
multiply	27
fragments	27
N-acetyl@@	27
Doctors	27
AT1	27
clar@@	27
073	27
cool	27
Post-authorisation	26
б@@	26
Chlamydophila	26
Immunisation	26
contributes	26
erosion	26
tended	26
gastro@@	26
hyperpigmentation	26
cylinder	26
-29	26
Respon@@	26
supine	26
GR	26
Can@@	26
DOX@@	26
à	26
˚	26
exerts	26
triacetate	26
Negative	26
UB6	26
hydrolysed	26
slaughtered	26
001-004	26
0.58	26
whe@@	26
WEEK	26
asi@@	26
portions	26
kinases	26
Apo@@	26
PC	26
contaminated	26
unconscious	26
472	26
quantifiable	26
provisions	26
TAN	26
011-@@	26
unique	26
MRSA	26
observe	26
oid	26
atrophic	26
attempted	26
veralipride	26
Icepharma	26
ón	26
0.39	26
Beecham	26
arium	26
sine	26
ological	26
Residues	26
Alli	26
Testing	26
poloxamer	26
MIN@@	26
EMSELEX	26
overactive	26
rati@@	26
amitriptyline	26
CARTRIDGE	26
minimally	26
coordinated	26
1.00	26
Π@@	26
exponential	26
physiology	26
vasodilation	26
ENGERIX	26
Species	26
lipid-lowering	26
somewhat	26
м@@	26
Lam@@	26
cet@@	26
FER@@	26
sum	26
rit@@	26
widespread	26
triggered	26
247	26
barbiturates	26
diuresis	26
380	26
ATION	26
Ru@@	26
usage	26
N-	26
Vacc@@	26
dividing	26
д@@	26
went	26
ps	26
IFN-α	26
Cour@@	26
S.@@	26
necessitate	26
Individuals	26
versions	26
benz@@	26
wiping	26
12h	26
sterilised	26
dip@@	26
counter	26
Leuk@@	26
gingival	26
che	26
RBC	26
261	26
----	26
1-year	26
logies	26
Ó@@	26
pt	26
Eudra@@	26
Timolol	26
COMMITTEE	26
tabs	26
yttrium-90	26
gentamicin	26
physically	26
Prepare	26
12.9	26
non-EU	26
ZALASTA	26
Can	26
two-year	26
putting	26
Rating	26
activates	26
BEN@@	26
CYP3A@@	26
diphosphate	26
ation-@@	26
Statistically	26
strengthen	26
cytomegalovirus	26
independently	26
Go@@	26
quick	26
Neu@@	26
Set	26
CNV	26
inch	26
rot@@	26
comparators	26
numerically	26
investigators	26
asc@@	26
348	26
ess	26
narrow-angle	26
injection-site	26
E-28@@	26
281	26
gon@@	26
esc@@	26
AR-T	26
inj@@	26
José	26
Exp@@	26
50.0	26
Fatal	26
ms@@	26
485	26
GH	26
467	26
389	26
Regranex	26
metabolising	26
80mg	26
lum@@	26
Up@@	26
TT	26
EQUIOXX	26
pharmacologic	26
1990	26
inter-@@	26
Sweating	26
Eprex	26
Erypo	26
210@@	26
π@@	26
080	26
Lar@@	26
tom@@	26
intr@@	26
423	26
N14	26
6BN	26
Fruebjergvej	26
ε@@	26
199@@	26
CLEAR	26
in-vitro	26
colony	26
Tor@@	26
840	26
differentiate	26
Neoplasms	26
platinum-based	26
Turner	26
cleavage	26
Itraconazole	26
Glimepiride	26
aortic	26
P-2@@	26
H1	26
Thiazides	26
stra@@	26
Ammonaps	26
tab@@	26
OB	26
lipoatrophy	26
passages	26
sexually	26
tiny	26
OptiPen	26
New@@	26
731	26
keratosis	26
Neither	26
vis@@	26
BVD	26
imiglucerase	26
StrepE	26
EME@@	26
Circovac	26
guided	26
LY@@	26
parallel-group	26
-3	26
So	26
CO2	26
turbid	26
Whereas	26
9N@@	26
627	26
biopsies	26
2,3	26
concentrating	26
33-	26
ades	26
Telithromycin	26
Introduction	26
Aseptic	26
dissolving	26
Comm@@	26
non-inferior	26
0.86	26
520	26
necessarily	26
anthrax	26
canine	26
val	26
1600	26
1140	26
449	26
sn@@	26
bent	26
Cinacalcet	26
haemato@@	26
Remember	26
pruritic	26
oxy@@	26
™	26
Eckenheimer	26
Gl@@	26
8-10	26
ification	26
Meloxivet	26
mia	26
receives	26
H5N3	26
Peel	26
kal@@	26
lactone	26
Dec@@	26
0.59	26
т@@	26
clozapine	26
marks	26
tured	26
non-haematological	26
unit-dose	26
pH-adjustment	26
hygiene	26
Granules	26
porphyria	26
MP	26
284	26
Derm@@	26
methylprednisolone	26
tain@@	26
pres@@	26
detail	25
vacc@@	25
-filled	25
antiseptic	25
ducks	25
provisional	25
Estrada	25
chickenpox	25
643	25
TIONS	25
But	25
Pierre	25
imipramine	25
Lot	25
Z-@@	25
thorough	25
PPE	25
piece	25
explanation	25
bath	25
half-	25
correc@@	25
Gastric	25
glo@@	25
arity	25
emphasis	25
ATRI@@	25
Imatinib	25
CS@@	25
Support	25
amino@@	25
sting	25
eliminate	25
Rī	25
intradermal	25
non-hormonal	25
desquamation	25
Heparin	25
0.84	25
jection	25
randomly	25
Antibodies	25
CU@@	25
ž	25
entering	25
sounds	25
moroctocog	25
oun@@	25
embryonic	25
eva	25
rejecting	25
infiltration	25
ente	25
Mono@@	25
instability	25
Toxic	25
Rol@@	25
caregiver	25
362	25
Site	25
encapsulated	25
Break@@	25
girls	25
Republika	25
phenol	25
trometamol	25
9-fold	25
273	25
999	25
bloody	25
ger@@	25
Bronchitis	25
monophosphate	25
radical	25
path@@	25
sided	25
7,@@	25
uz@@	25
672	25
0.29	25
p.	25
ore@@	25
topically	25
constituents	25
Sur@@	25
ulate	25
uric@@	25
PRESENTED	25
nephrotoxicity	25
postprandial	25
neurologic	25
HPV-18	25
Benzalkonium	25
с	25
Monoamine	25
relaxation	25
0.63	25
3-11	25
dose-proportional	25
1a	25
NO2	25
Antacids	25
µm	25
puppies	25
Radiation	25
Agents	25
reconsidered	25
Zinc	25
DPP-4	25
torsade	25
Pregnant	25
Status	25
clobazam	25
IRL	25
094	25
ž@@	25
shortened	25
Coaprovel	25
Cushing	25
depressant	25
musculo-skeletal	25
BL	25
exacerbate	25
bmrn.	25
completing	25
Animale	25
Bal@@	25
Gado@@	25
norfloxacin	25
insul@@	25
cured	25
Suprelorin	25
oro-dispersible	25
log2	25
361	25
voor	25
m-cresol	25
element	25
έ@@	25
figures	25
humour	25
y-	25
15.0	25
Azarga	25
Lopid	25
all-cause	25
ays	25
oleate	25
084	25
0.14	25
resin	25
palate	25
alitretinoin	25
Bur@@	25
spot	25
itting	25
EN11	25
phenomena	25
Saint	25
resting	25
541	25
rolling	25
vaso@@	25
lice	25
CEE	25
meningococcal	25
Incurin	25
erv@@	25
sen	25
ν@@	25
ylated	25
seropositive	25
obvious	25
estrogens	25
ived	25
straw	25
Program	25
American	25
aline	25
Dy@@	25
07.2000	25
vie@@	25
N.V.	25
Reco-Pen	25
validation	25
sulphonamide	25
IRBESARTAN	25
porcine	25
rank	25
10,@@	25
IPV	25
tho@@	25
sotalol	25
SOC	25
D-60318	25
Sch@@	25
0.93	25
multinational	25
kinetic	25
parasite	25
ouri@@	25
emerging	25
temporal	25
isotonic	25
Classical	25
HIV-@@	25
Examples	25
Caspofungin	25
tryptophan	25
sheath	25
msd	25
und@@	25
Trans@@	25
depth	25
worsened	25
hirudin	25
Vision	25
darkening	25
Syn@@	25
BUN	25
1.26	25
microalbuminuria	25
eptotermin	25
METHOD	25
q.d.	25
ales	25
approxim@@	25
90mg	25
Ulm	25
RCCh	25
End	25
552	25
Thiomersal	25
Esbo	25
reas@@	25
ritis	25
68@@	25
D-6@@	25
Halocur	25
Des@@	25
IL-@@	25
buttocks	25
ü@@	25
limitations	25
chelating	25
eyelashes	25
446	25
Building	25
318	25
Aplasia	25
Rotigotine	25
glucose-@@	25
hand@@	25
end-@@	25
ild@@	25
aemic	25
BD@@	25
leukocyte	25
farm	25
441	25
Methyl	25
4-5	25
Knodell	25
286	25
tick	25
arg@@	25
Pan@@	25
neoplasia	25
0.82	25
Facilitation	25
COVERSYL	25
classical	25
Lymph@@	25
parenterally	25
discontinuations	25
relieving	25
fertilisation	25
spotting	25
freezing	25
gynaecological	25
oids	25
interests	25
connected	25
Colourless	25
FCV	24
plenary	24
UGT1A1	24
arr@@	24
wid@@	24
extrac@@	24
nuclear	24
justification	24
carcino@@	24
Osteonecrosis	24
SUSPENSION	24
compromise	24
Tel@@	24
Μ@@	24
tos	24
Nature	24
00144	24
acin	24
cholinergic	24
dex	24
38-@@	24
Naxcel	24
PU@@	24
CRP	24
neoplasms	24
Baltics	24
aling	24
condoms	24
stabil@@	24
mic	24
0.1-@@	24
VFD	24
ely	24
sell	24
use@@	24
rooms	24
prime	24
CVP	24
Posatex	24
sion-@@	24
ective	24
eaten	24
NS	24
10.2	24
Their	24
elling	24
co-infection	24
SmithKline	24
GS	24
Intanza	24
Tests	24
379	24
ental	24
XELOX	24
thyrotropin	24
ood	24
Manu@@	24
Switzerland	24
Hum@@	24
EFG	24
Benign	24
thalassaemia	24
ecting	24
Guillain-Barré	24
diffuser	24
East	24
0.98	24
Pesti	24
Receptor	24
alised	24
fashion	24
progressively	24
appointment	24
Essential	24
subj@@	24
fen@@	24
Unknown	24
Ciclosporin	24
inating	24
liaison	24
-agonist	24
Tiredness	24
constituted	24
nephro@@	24
predonation	24
ylate	24
BP@@	24
PRP	24
Pens	24
pose	24
ECOG	24
ky	24
tan@@	24
swirl	24
leaflets	24
600,000	24
hazards	24
0.22	24
cefovecin	24
14.1	24
robust	24
avi@@	24
detachment	24
acted	24
Bleomycin	24
Mul@@	24
paranoia	24
rigid	24
erci@@	24
SSRI	24
OM	24
globin	24
foetotoxicity	24
sation	24
n.	24
act@@	24
gall	24
Lisinopril	24
ges	24
leukocytes	24
1.02	24
reading	24
anemia	24
4411	24
Res@@	24
2E1	24
0.92	24
withdrawals	24
Electrolyte	24
Weakness	24
sleeplessness	24
kill	24
Look	24
atin@@	24
penia	24
Unblistered	24
η@@	24
cop@@	24
Ministry	24
060	24
Β@@	24
PER@@	24
forefinger	24
tered	24
helpful	24
013@@	24
Grootslag	24
Ankylosing	24
16-	24
gn@@	24
hydroxypropylcellulose	24
gro@@	24
dilation	24
temoporfin	24
modifying	24
im	24
Enterococcus	24
G.	24
Boxmeer	24
Lim@@	24
thyro@@	24
transformed	24
3600	24
ached	24
9BU	24
glu@@	24
CONTENTS	24
torticollis	24
4a	24
duct	24
lide	24
Halo@@	24
422	24
Equ@@	24
005-@@	24
pills	24
teno@@	24
saf@@	24
kers	24
Antiviral	24
staining	24
connect	24
0.87	24
taining	24
mut@@	24
summarized	24
tulathromycin	24
effort	24
Notice	24
0.94	24
pellet	24
uncomfortable	24
780	24
tric@@	24
olopatadine	24
alcoholic	24
328	24
lets	24
desmethyl@@	24
Best	24
14.0	24
mecasermin	24
cin@@	24
foreseen	24
ately	24
Interstitial	24
stores	24
trisodium	24
preterm	24
24h	24
AUCs	24
consumer	24
MIX25	24
Recommendations	24
ok@@	24
Developmental	24
12.8	24
breath@@	24
sh	24
She@@	24
sm@@	24
ko	24
ba@@	24
modelling	24
Bucureş	24
bonnet	24
verse	24
sur@@	24
599	24
peel	24
0.81	24
MEM	24
spent	24
Che@@	24
SAG2	24
Instituto	24
Kon@@	24
Polyvinyl	24
deviation	24
FI	24
vers	24
acellular	24
siliconised	24
cytotoxicity	24
kills	24
hepatocytes	24
32-@@	24
renin-angiotensin	24
canal	24
messenger	24
scl@@	24
pyogenes	24
silicate	24
Progression	24
poultry	24
hyperglycaemic	24
pos@@	24
Average	24
1.8.@@	24
ketones	24
ā@@	24
Vardenafil	24
AUC0-24	24
agitated	24
plic@@	24
ola	24
Federation	24
hump	24
09.2000	24
Ethanol	24
REF@@	24
postdose	24
Mania	24
gatan	24
LD50	24
um-@@	24
Febuxostat	24
314	24
D-2@@	24
THE@@	24
homo@@	24
André	24
hist@@	24
milligram	24
peach	24
metabol@@	24
illa	24
CHD	24
lop@@	24
Platelets	24
G4	24
ret@@	24
36-@@	24
Presentation	24
852	24
sveien	24
in-line	24
sus	24
PPP	24
tight	24
alis	24
Reductions	24
2000-2002	24
3.33	24
tiuxetan	24
calcul@@	24
059	24
kinds	24
osin	24
groundwater	24
charge	24
interventions	24
DK-2880	24
PV@@	24
Cer@@	24
ethylene	24
laid	24
Maize	23
gene@@	23
EFV	23
Bradycardia	23
confusional	23
1987	23
VO@@	23
Rituximab	23
Avenida	23
dri@@	23
flav@@	23
instillation	23
bevelled	23
TED	23
Neo@@	23
ingested	23
ras@@	23
HIV-2	23
Pas@@	23
0.5-@@	23
0.08	23
dialogue	23
0NN	23
theoretically	23
watch	23
signed	23
Mat@@	23
eh@@	23
phenomenon	23
c-@@	23
Twice	23
chi@@	23
870	23
Mis@@	23
075	23
tibia	23
hydroxypropyl	23
jer@@	23
Meth@@	23
Floor	23
Leuco@@	23
aberration	23
neuroleptics	23
halobutyl	23
brand	23
indoor	23
atively	23
Annexes	23
revaccination	23
Malignancies	23
granulocytopenia	23
25ºC	23
mer	23
18.9	23
use.	23
perception	23
ão	23
á	23
NCI	23
carnauba	23
07.96	23
0800	23
Suicidal	23
tives	23
ment@@	23
HBs	23
0.89	23
trying	23
0.26	23
NEVER	23
technologies	23
concept	23
dissolves	23
11.2000	23
prostatectomy	23
plateau	23
day-@@	23
N-13@@	23
636	23
Cerebrovascular	23
Cerepro	23
B-1050	23
9,@@	23
anti-retroviral	23
inum	23
ity-@@	23
Edificio	23
Sco@@	23
squeeze	23
ju@@	23
Hel@@	23
sing@@	23
ption	23
Ivabradine	23
David	23
Nervousness	23
082	23
KE@@	23
granulocytes	23
Hot	23
Opinions	23
Just	23
leaking	23
ine-	23
Nelarabine	23
hepat@@	23
single-arm	23
Pharma@@	23
Journal	23
sealing	23
oropharyngeal	23
wor@@	23
rtv	23
daclizumab	23
inten@@	23
filling	23
acromegaly	23
pat@@	23
boo@@	23
Loratadina	23
mac@@	23
suckling	23
digitalis	23
Linearity	23
itates	23
PKU	23
prognostic	23
GE@@	23
Characteristic	23
С@@	23
ame	23
Relistor	23
ANIMAL	23
SAE	23
Dasatinib	23
833	23
86@@	23
Pentofel	23
carboxylic	23
B-2340	23
Full	23
LOCF	23
nystagmus	23
glucocorticosteroids	23
sodium-	23
0.42	23
Ke@@	23
H5N2	23
Bio-Set	23
latex-free	23
PG	23
spoonful	23
ass	23
gynaecomastia	23
ray	23
cardiogenic	23
intra-	23
0.56	23
BTVPUR	23
LV-10@@	23
Eg@@	23
20000	23
Outcomes	23
stration	23
alising	23
humanised	23
Effective	23
1.22	23
CO	23
employment	23
olytic	23
Progressive	23
Thrombo@@	23
ution	23
came	23
declared	23
notify	23
L-	23
404	23
ventricle	23
CC	23
che@@	23
apolipoprotein	23
ès	23
Organ@@	23
comm@@	23
DY@@	23
Hertford	23
atin	23
ns	23
philic	23
recruited	23
wi@@	23
granul@@	23
refrain	23
1B	23
Gluco@@	23
coag@@	23
photodynamic	23
regime	23
ACEI	23
8447	23
8899	23
antagonism	23
Taxotere	23
monocytes	23
iosis	23
ATS	23
10ml	23
protein@@	23
Kiovig	23
ης	23
perforations	23
in-induced	23
378	23
CKD	23
Aden@@	23
Anidulafungin	23
inhal@@	23
Arm	23
CHILDREN	23
hairy	23
Photo	23
tele@@	23
adenoma	23
progesterone	23
menstruation	23
Ben@@	23
warned	23
pentamidine	23
DEXDOMITOR	23
dings	23
Luer	23
Telbivudine	23
Documentation	23
adapted	23
normalized	23
palsy	23
506	23
extrapolation	23
Rome	23
boosting	23
MPAG	23
CEL	23
sters	23
neoplasm	23
unsuitable	23
713	23
row	23
Unopened	23
0.64	23
Mutagenicity	23
drunk	23
0.8mg	23
ic-@@	23
0.31	23
urred	23
laboratories	23
Congestive	23
Pravastatin	23
Ret@@	23
TIES	23
0.73	23
Fer@@	23
Select	23
dos	23
ia@@	23
Statement	23
Cardace	23
synthetase	23
gluconate	23
Alcobendas	23
anastrozole	23
5600	23
attaches	23
monosodium	23
posed	23
г@@	23
glycosides	23
Peter	23
practi@@	23
erections	23
lamivudine-resistant	23
seals	23
dialysable	23
heal	23
VE	23
sibility	23
timely	23
articular	23
scaly	23
ART	23
486	23
Sparfloxacin	23
tonic-clonic	23
Lennox-Gastaut	23
Preliminary	23
adapt	23
22.5	23
ère	23
neonate	23
2-hour	23
HER@@	23
charges	23
Paroxetina	23
pel@@	23
innovative	23
Landstraße	23
doc@@	23
coordinate	23
food-producing	23
nica	23
hum@@	23
disopyramide	23
SCN	23
marking	23
aps	23
43-	23
autograft	23
beta-blocker	23
1.14	23
galsulfase	23
Lipodystrophy	23
69007	23
Syringe	23
0.5mg	23
Aff@@	23
immediate-release	23
ulin	23
ery@@	23
533	23
Delix	23
5.1998	23
larynx	23
astic	23
42.5	23
Topotecan	23
polycystic	23
irritated	23
t-	23
lyophilisates	23
chorionic	23
propyl@@	23
dysuria	23
L04@@	23
8.2002	23
37.@@	23
title	23
Medice	23
Carb@@	23
RI	23
mu@@	23
participants	23
GLP-1	23
principle	23
Mari@@	23
leg@@	23
YS	22
resource	22
circum@@	22
washout	22
Premix	22
haemoptysis	22
LV	22
600@@	22
IDE	22
Individual	22
ADDRESS	22
Complicated	22
Adalimumab	22
Marion	22
sible	22
Forum	22
fa@@	22
begun	22
Phenylalanine	22
disruption	22
Optim@@	22
381	22
0.025	22
Lou@@	22
š@@	22
ester	22
bandage	22
dan@@	22
20-30	22
072	22
toc@@	22
exceptionally	22
bisphosphonate	22
HB@@	22
87h	22
Lab@@	22
meta@@	22
combine	22
K30	22
544	22
ole@@	22
vasodilators	22
tol@@	22
ér@@	22
fluorescence-guided	22
express	22
di	22
foscarnet	22
nitro@@	22
Pirsue	22
jar	22
1.0ml	22
bin@@	22
Function	22
MM-@@	22
SI	22
4.2002	22
478	22
adherence	22
responds	22
Great	22
kets	22
Stopping	22
adeno@@	22
068	22
Inac	22
shiel@@	22
candidates	22
open@@	22
coagulopathy	22
non-proprietary	22
arb@@	22
WNV	22
methyl-@@	22
.Ε	22
randomization	22
usi@@	22
reversibility	22
Ko@@	22
ha	22
Enzyme	22
0.44	22
Those	22
amines	22
combines	22
clin@@	22
Multi@@	22
7.2002	22
html	22
simply	22
RP	22
preceded	22
о	22
consume	22
RENEWAL	22
shock-like	22
moist@@	22
alu@@	22
eosinophils	22
FVIII	22
incompatibilities	22
co-administering	22
28-@@	22
и	22
APL	22
25.0	22
Slovak	22
allograft	22
Saf@@	22
3b	22
Follow-up	22
Discontinue	22
mite	22
BPWG	22
PEG	22
facing	22
stratum	22
ketamine	22
prudent	22
peritonitis	22
H2O	22
iela	22
iring	22
behalf	22
----@@	22
hydroxylated	22
oration	22
ind@@	22
EUROPEAN	22
sin	22
IBR	22
spongiform	22
Mol@@	22
acid-@@	22
glycerides	22
entirely	22
Levetiracetam	22
plenty	22
Vir@@	22
concentrates	22
ication	22
tabletta	22
Endocrine	22
Compar@@	22
predic@@	22
458	22
Urine	22
quarters	22
blood-brain	22
1.2002	22
aud@@	22
Nail	22
sland	22
Regular	22
MIX50	22
aluminium-@@	22
opportunity	22
obut@@	22
whites	22
Looking	22
AND@@	22
pin@@	22
Mineral	22
ω@@	22
hexafluoride	22
outflow	22
neutro@@	22
ios	22
amongst	22
originator	22
682	22
812160	22
belong	22
omo@@	22
exert	22
0.97	22
second@@	22
Gasse	22
allergic-type	22
ax	22
tail	22
dropper	22
velocity	22
debilitated	22
sprays	22
TT@@	22
cit@@	22
conservative	22
alized	22
2mg	22
Decreases	22
EE@@	22
Hungária	22
gyrase	22
metry	22
x109	22
polyvinylchloride	22
ko@@	22
Overview	22
dextromethorphan	22
Charles	22
495	22
char@@	22
facilitation	22
discolour	22
parasitic	22
occlusive	22
capillary	22
VER@@	22
NOS	22
β@@	22
spor@@	22
081	22
Continued	22
inadvertent	22
Psoriatic	22
H-1@@	22
non-melanoma	22
adaptor	22
granulo@@	22
Authority	22
parents	22
erm@@	22
Friday	22
392	22
cholerae	22
242	22
toxins	22
asing	22
Regimen	22
pertechnetate	22
Ingelvac	22
CircoFLEX	22
export	22
liquids	22
res@@	22
interpreted	22
Porte	22
Alpes	22
ido@@	22
disposing	22
Amb@@	22
Jean-@@	22
so-called	22
NHL	22
up-@@	22
infarc@@	22
GAG	22
UNIT	22
necro@@	22
depreotide	22
inf	22
aver@@	22
Loc@@	22
criterion	22
B-cell	22
antihyperglycaemic	22
absor@@	22
ό@@	22
357@@	22
LT@@	22
paresis	22
cross@@	22
Accounting	22
multifocal	22
HVT	22
IBD	22
Stavudine	22
RAS	22
annually	22
5.2002	22
12.6	22
preclude	22
paleness	22
thyroglobulin	22
complementary	22
VAN@@	22
teriparatide	22
retinoids	22
influ@@	22
Cambridge	22
vertically	22
851	22
DK-@@	22
Maidenhead	22
SL6	22
ric@@	22
CRF	22
halved	22
Rabigen	22
scientifically	22
sulf@@	22
coccidiosis	22
node	22
d.o.o.	22
0.34	22
Economic	22
sulfatase	22
EFPIA	22
alternating	22
Retinal	22
burg	22
cell@@	22
ул	22
flip	22
F6	22
384	22
taz@@	22
pyri@@	22
ections	22
olic	22
Indication	22
cystine	22
Na	22
fax	22
flora	22
refusal	22
borderline	22
conclude	22
primidone	22
lorazepam	22
occup@@	22
Centralised	22
497	22
Determine	22
York	22
11.3	22
appearing	22
cautioned	22
26-@@	22
myself	22
eyesight	22
1503	22
TER	22
REACH	22
Elanco	22
SHBG	22
tant	22
48-@@	22
aries	22
HIB	22
uted	22
13.2	22
509	22
buffalo	22
490	22
trivalent	22
Representative	22
Cross-resistance	22
F-69007	22
occasional	22
methylation	22
STORING	22
Atrial	22
eructation	22
rounded	22
nea	22
Roskilde	22
dams	22
prolong@@	22
mock-up	22
GO@@	22
0.24	22
346	22
E-02	22
Poten@@	22
12.1998	22
Noël	22
Startvac	22
AP	22
At@@	22
amen@@	22
mito@@	22
exclusion	22
normotensive	22
erc@@	22
aining	22
plate	22
721	22
Au@@	22
TW@@	22
inferiority	22
cep@@	22
23-@@	22
itor	22
bruises	22
Establishment	22
46-	22
Industriestrasse	22
uri@@	22
Riverside	22
solitary	22
Stability	22
Transparency	22
CTFE	22
CCR5-tropic	22
equipped	22
Affairs	22
oo@@	22
OPA-Alu-PVC	22
Vel@@	21
PACKS	21
0-24	21
enda	21
Pleural	21
n-@@	21
antidotes	21
Pharyngitis	21
Alpheon	21
Micro@@	21
χ@@	21
comments	21
Lung	21
enrolment	21
44-@@	21
farrowing	21
Ara-C	21
sta	21
TIVES	21
Protease	21
Mitotane	21
15.8	21
actu@@	21
ná	21
proce@@	21
es-@@	21
tex	21
Presid@@	21
11.8	21
ino	21
induc@@	21
myelogenous	21
eruptions	21
alent	21
Stat@@	21
Repeat@@	21
Ak@@	21
priapism	21
aerobes	21
vul@@	21
Photosensitivity	21
bs	21
activate	21
Itching	21
lute@@	21
lar@@	21
ata	21
track	21
omhulde	21
Paseo	21
synergistic	21
mononuclear	21
stent	21
cy	21
Cortavance	21
abortions	21
retro@@	21
titrating	21
Jo@@	21
mild-to-moderate	21
940	21
Don@@	21
Cu@@	21
enta@@	21
ito@@	21
puberty	21
definitely	21
Duvaxyn	21
MULTAQ	21
16.6	21
11.6	21
Farmac@@	21
cytidine	21
symbol	21
short-acting	21
MEDA	21
0.33	21
propose	21
Analytik	21
NMR-Imaging	21
D-44799	21
Bochum	21
0.23	21
nr	21
película	21
08.2000	21
ible	21
inhalations	21
by-@@	21
TIVE	21
FO@@	21
Welwyn	21
Garden	21
AL7	21
2000-2001	21
or-@@	21
nostril	21
suc@@	21
Mening@@	21
Lake	21
SVR	21
summarises	21
1.24	21
ously	21
dose-limiting	21
proceed	21
DL@@	21
ella	21
pneum@@	21
terephthalate	21
msd.	21
input	21
gastro-enteritis	21
omimetics	21
VA@@	21
Lä@@	21
Consistent	21
hydroxyurea	21
isk@@	21
Quin@@	21
670	21
unscrew	21
re-treatment	21
Onset	21
с@@	21
25,000	21
Dal@@	21
Mi@@	21
Е@@	21
Title	21
ENF	21
VIR	21
IMPORTANT	21
R-CHOP	21
0.83	21
texts	21
cannula	21
septic	21
plants	21
in-treated	21
wrapping	21
trache@@	21
Na@@	21
Matrixpflaster	21
beta-lactam	21
Peginterferon	21
К@@	21
н	21
hyperthyroidism	21
absolutely	21
38.5	21
Flu-like	21
tage	21
0.006	21
Sw@@	21
optim@@	21
hiccups	21
Conversely	21
Desloratadine	21
fresh	21
13,@@	21
Fevaxyn	21
Vaginal	21
distributes	21
Pemetrexed	21
hypovolaemia	21
withdrawing	21
16549	21
ZYRTEC	21
ergonovine	21
methylergonovine	21
Beta-@@	21
Tylvalosin	21
Pac@@	21
10.2001	21
aro@@	21
1.17	21
flocculation	21
norm@@	21
Raloxifene	21
eb@@	21
bowels	21
„	21
cholestyramine	21
lation	21
Adefovir	21
01.97	21
immobilisation	21
prove	21
1-2@@	21
0.10	21
life-@@	21
98-@@	21
RAP@@	21
Rap@@	21
1.07	21
ix@@	21
usion	21
615	21
worry	21
Travoprost	21
pressurised	21
placing	21
cal	21
CES	21
512	21
PROWESS	21
FIN@@	21
places	21
treatment-free	21
conferences	21
Systems	21
acrylate	21
lymph@@	21
miner@@	21
igh@@	21
0.19	21
Sim@@	21
tamper	21
Citrobacter	21
cen@@	21
ura	21
Cerivastatin	21
ada	21
123I	21
counselling	21
Erlotinib	21
Tolcapone	21
micromol	21
TSE	21
tations	21
manufacturers	21
sac	21
www.emea.europa.eu	21
span@@	21
cephal@@	21
Han@@	21
40,000	21
κ@@	21
dox@@	21
continu@@	21
Palpitations	21
divide	21
Limit	21
mEq	21
Thrombin	21
haemodynamically	21
moxidectin	21
carinii	21
shedding	21
tem@@	21
agreements	21
Hypocalcaemia	21
Temporary	21
ecoanimalhealth.com	21
ures	21
13.0	21
oring	21
unresectable	21
12.95	21
reticulocyte	21
Σ@@	21
-5	21
630	21
Knob	21
pericarditis	21
Rhabdomyolysis	21
arma	21
alization	21
Velotab	21
outbreak	21
America	21
nepafenac	21
valproic	21
circovirus	21
PATIENTS	21
ritonavir-boosted	21
Q-@@	21
ali@@	21
dispersed	21
AC-052-@@	21
Needles	21
DISPOSAL	21
opposite	21
dissemination	21
leaving	21
92-9155-@@	21
Michael	21
papilloedema	21
damaging	21
20.0	21
GEN	21
esia	21
308	21
fallen	21
survi@@	21
HES	21
pulled	21
Zoledronic	21
Continuous	21
gallbladder	21
fel@@	21
gestion	21
CIS	21
bio	21
eration	21
metaflumizone	21
tum@@	21
everything	21
55216	21
Win@@	21
tee	21
SCH@@	21
ick@@	21
1,5@@	21
perennial	21
offered	21
Apart	21
gonadotrophins	21
closer	21
va@@	21
554	21
Vigabatrin	21
ace	21
pediatric	21
carriers	21
six@@	21
Peg	21
two-fold	21
27.5	21
0.60	21
Fle@@	21
education	21
AEDs	21
Range	21
manifest	21
anti-tumour	21
gen-@@	21
o-	21
In-use	21
Pale	21
donating	21
mid-@@	21
PRA	21
6.25	21
yel@@	21
Λ	21
glucose-lowering	21
enia	21
coverage	21
thrombocythaemia	21
halofantrine	21
RIE	21
Cisplatin	21
cataplexy	21
Baycox	21
Ec@@	21
PVdC	21
0.90	21
Mus@@	21
Raltegravir	21
mention	21
Environmental	21
protein-bound	21
pic@@	21
Ol@@	21
Attenuated	21
ο	21
substantiated	21
5-HT@@	21
4th	21
eCTD	21
spra@@	21
HE@@	21
scal@@	21
Bioset	21
druž	21
applicators	21
overdosing	21
Feline	21
SDS	21
actinic	21
3x	21
leuprorelin	21
Treat	21
ca	21
non-diabetic	21
Agranulocytosis	21
30-minute	21
gliclazide	21
37,5	21
Imiquimod	21
hypercholesterolemia	21
ularly	21
Comprimidos	21
metastasis	21
specimens	21
fistulae	21
Ciproxine	21
Langebjerg	21
irritable	21
laronidase	21
ovaloid	21
Technology	21
303	21
confer	21
CDAI	21
ribs	21
settings	21
Chief	21
tub@@	21
kinesia	21
substantiate	21
14.3	21
thrush	21
Bicalutamide	21
becaplermin	21
FIL@@	21
Oxide	21
connec@@	21
Feldene	21
fibrinolytic	21
GRA@@	21
Preferred	21
valent	21
Hu@@	21
VAL@@	21
feasible	21
understands	21
carbohydrates	21
Social	21
enabling	21
Minor	21
crusting	21
filmsko	21
3mg	21
TY@@	21
sity	21
Almost	21
distal	21
w-@@	21
57@@	21
breeders	21
Confusion	21
comprises	21
Find	21
produc@@	21
N-desmethyl	21
Tony	21
Bagsværd	21
6-week	21
sof@@	21
0.77	21
myoclonic	21
Ibandronic	21
gran@@	21
worn	21
Nar@@	21
spermatogenesis	21
1.35	21
sulfone	21
isn	21
tability	21
anti-HPV	21
905	20
WITHDRAWAL	20
Referrals	20
Convulsion	20
nonacog	20
Congenital	20
productive	20
walls	20
Round	20
1.33	20
0.375	20
Mea@@	20
bridging	20
Emil@@	20
Salmonella	20
33.@@	20
Anaphylaxis	20
nominally	20
Piso	20
Carnaxide	20
praziquantel	20
Hair	20
Pandemic	20
psycho@@	20
Cream	20
tomised	20
CCR5	20
impossible	20
INTRONA	20
constantly	20
iro	20
2.1998	20
CHILD	20
exercising	20
GL-3	20
oxygenation	20
Pruban	20
B1	20
les@@	20
organizač	20
vinyl	20
eds	20
ACUITY	20
alveolar	20
tically	20
floxacin	20
tra	20
radiological	20
elled	20
loc@@	20
observational	20
Ly@@	20
nucleoside-@@	20
poenia	20
eve@@	20
leukaemic	20
Abatacept	20
Benefit	20
Por@@	20
lights	20
corpus	20
fur	20
Getting	20
at-@@	20
13.1	20
CIMZIA	20
OL@@	20
repeated-dose	20
colecalciferol	20
display	20
describe	20
charged	20
Amadora	20
1.12	20
osing	20
Minimum	20
25.10.96	20
erythropoietic	20
post-exposure	20
holds	20
pursuant	20
1300	20
DER	20
CARD	20
078	20
1256	20
inter-individual	20
petechiae	20
Haem@@	20
Rs	20
ector	20
Cl	20
fied	20
1.	20
biomedizinische	20
Universitätsstraße	20
Inspection	20
amitraz	20
convenience	20
reminder	20
Leuko@@	20
restore	20
recubiertos	20
image	20
Actiq	20
FDA	20
fulminant	20
LEN@@	20
1TW	20
gram@@	20
NETA	20
Macro@@	20
0.27	20
Elevation	20
0.78	20
racing	20
harming	20
hel@@	20
Position	20
SER@@	20
residence	20
EF@@	20
aligned	20
booklet	20
mobility	20
ome@@	20
depressants	20
Viramune	20
duc@@	20
Advasure	20
-2.@@	20
Hist@@	20
Vc	20
synthase	20
MPD	20
1-4	20
plasminogen	20
SACHET	20
sers	20
Л@@	20
rs	20
Peri@@	20
day@@	20
MON	20
sharp	20
eld	20
utili@@	20
xeno@@	20
elicited	20
Geno@@	20
Adjuvant	20
Fol@@	20
MED	20
beta-	20
maz@@	20
delavirdine	20
OH	20
Works	20
CDMS	20
antihypertensives	20
low@@	20
97@@	20
................................................@@	20
kine@@	20
IP@@	20
withholding	20
Six	20
deciding	20
SG	20
295	20
05.96	20
Unchanged	20
house	20
sac@@	20
spon@@	20
explore	20
SPECIES	20
CY	20
wave	20
087	20
06.96	20
099	20
0.16	20
ODV	20
42-@@	20
aiming	20
RG24	20
IL	20
butyrate	20
oxygen@@	20
plasters	20
Moxifloxacin	20
pow@@	20
competence	20
anide	20
introduce	20
tumor	20
Lasofoxifene	20
Max-Planck	20
secure	20
PVC-@@	20
yr@@	20
B19	20
Operation	20
16.5	20
mim@@	20
ganirelix	20
promotes	20
sulphur	20
Tre@@	20
intrav@@	20
surance	20
6.75	20
methox@@	20
confirmatory	20
CCyR	20
Count	20
Wound	20
PRECAUTIONS	20
CN@@	20
Immediate	20
cytostatic	20
port	20
Farmaceu@@	20
adapters	20
xin	20
0.96	20
rev.	20
wastewater	20
prolonging	20
Formal	20
margins	20
Fluconazole	20
VAN	20
Newmarket	20
curative	20
EDI@@	20
high-grade	20
delusion	20
391	20
checking	20
LDPE	20
AUC0-24hr	20
aw@@	20
complaints	20
sar@@	20
roundworms	20
mus@@	20
Related	20
hydroxytoluene	20
Lan@@	20
MO	20
Depressive	20
errors	20
low-density	20
axillary	20
Grades	20
Techno@@	20
herd	20
Difloxacin	20
catalysed	20
BU	20
wallets	20
sarcoidosis	20
40-50	20
730	20
sponges	20
Steering	20
glasses	20
equi	20
BU@@	20
predefined	20
Booster	20
AER	20
11.2	20
two-week	20
cam@@	20
formalin	20
413	20
PANSS	20
tampering	20
AIDS-related	20
hemi@@	20
adv@@	20
ille	20
strokes	20
Cle@@	20
Recovery	20
vancomycin	20
locked	20
hol@@	20
488	20
a.@@	20
PB	20
troublesome	20
iodinated	20
autoinjector	20
11.0	20
Pe@@	20
destroy	20
pharmac@@	20
TRE@@	20
Concer@@	20
ual	20
Rhein	20
power	20
allo@@	20
amantadine	20
dealing	20
permeability	20
ames	20
ners	20
MEDI@@	20
happening	20
vag@@	20
TB	20
tumors	20
ula	20
injection.	20
q8h	20
Men@@	20
puncture-proof	20
salivary	20
Midazolam	20
MS@@	20
oval-oblong	20
NCI-CTC	20
eff@@	20
vir	20
20.6	20
duodenum	20
43.@@	20
sam@@	20
Fo@@	20
transitory	20
mycobacterial	20
ful@@	20
securely	20
Ziconotide	20
CYP2E1	20
gold	20
thymus	20
onych@@	20
County	20
philia	20
Osteoporosis	20
F4ab	20
F4ac	20
reversibly	20
ban@@	20
HD	20
1-acid	20
ING@@	20
silicone	20
.g@@	20
hal@@	20
single-@@	20
antibody@@	20
appreci@@	20
obtaining	20
spectro@@	20
fenofibrate	20
NOV@@	20
nas@@	20
over-@@	20
impa@@	20
tly	20
inserting	20
kittens	20
Jer@@	20
payments	20
Doc@@	20
966	20
WORDS	20
scales	20
anti-diabetic	20
Patrick	20
ong	20
0.47	20
BioPartners	20
aggressiveness	20
relations	20
nes	20
Willebrand	20
239	20
dilatation	20
alcoholism	20
consequent	20
lands	20
altogether	20
Gastro-intestinal	20
DK-4000	20
bal@@	20
274	20
band	20
0.17	20
gastroduodenal	20
1203	20
anal	20
deposit	20
relieves	20
Bou@@	20
10x@@	20
D-51368	20
rox	20
define	20
aldehyde	20
translucent	20
tardive	20
g-@@	20
349	20
ious	20
ki@@	20
Deep	20
Station	20
firocoxib	20
phthalate	20
uninfected	20
stic@@	20
THAT	20
OUT	20
Pancytopenia	20
nonfatal	20
Lipo@@	20
atological	20
cere@@	20
FEDESA	20
hexavalent	20
Royal	20
homozygous	20
migration	20
sweet@@	20
mono-@@	20
Content	20
095	20
uments	20
AE@@	20
urate	20
Dro@@	20
57.5	20
Epilepsy	20
expel	20
GA	20
Vd	20
maternotoxic	20
Binding	20
Lethargy	20
Malaysia	20
2506	20
colour@@	20
Disp@@	20
thinning	20
physi@@	20
ml-@@	20
declines	20
ify	20
565	19
QUESTIONS	19
mandate	19
waiting	19
2-18	19
Doxyprex	19
crimp	19
antagonistic	19
IS-210	19
Temsirolimus	19
tionally	19
lactam	19
94-@@	19
Netvax	19
nec@@	19
illi@@	19
ου	19
encies	19
TARD	19
13.6	19
ACTG	19
FORMS	19
5HT@@	19
ENTS	19
stiff	19
omyo@@	19
expect	19
taxanes	19
VES	19
1-ml	19
04010	19
pmol	19
Throat	19
iser	19
word	19
Neocolipor	19
ATIONS	19
BRD	19
088	19
splenomegaly	19
durable	19
Intestinal	19
messages	19
proportion@@	19
subacute	19
bullous	19
0.74	19
0.71	19
emea.eudra.org	19
Chlamydia	19
ward	19
ai	19
open-angle	19
cedex	19
syl	19
transferases	19
elapsed	19
cholinesterase	19
ty-@@	19
meaning	19
diabetics	19
Centro	19
Campus	19
hypotonia	19
Diractin	19
Hor@@	19
commencement	19
980	19
Death	19
RAMI@@	19
ma-@@	19
Nov@@	19
heterozygous	19
SK-8@@	19
Glyco@@	19
prohibited	19
438	19
unrelated	19
die@@	19
water-like	19
1.60	19
Rimonabant	19
mirabilis	19
vacuolation	19
diluents	19
PHAR@@	19
Belivon	19
offer	19
626	19
Diluted	19
ACE-inhibitors	19
urinating	19
proteasome	19
xim@@	19
0.09	19
Dyskinesia	19
Workload	19
finishing	19
Mundipharma	19
RECEIVE	19
Min@@	19
Cerebral	19
attempting	19
enantiomer	19
hardening	19
Farmacéutica	19
halo@@	19
489	19
abate	19
methodological	19
laxatives	19
APC	19
HAN@@	19
mic@@	19
Braille	19
Used	19
Extreme	19
928@@	19
incremental	19
ablation	19
43-@@	19
514	19
17.9	19
Clomipramine	19
emedastine	19
aked	19
secretory	19
02.2001	19
hyperuricemia	19
odds	19
970	19
nevertheless	19
VETERINARY	19
della	19
on-treatment	19
AVF@@	19
Spanish	19
dex@@	19
idate	19
Comparison	19
Bosentan	19
vate	19
Inc.	19
ned	19
Skeletal	19
poietic	19
Agre@@	19
posterior	19
id-@@	19
replac@@	19
Llobregat	19
narcolepsy	19
salicylic	19
antly	19
Rh@@	19
ler	19
ylase	19
bitter	19
rin	19
regulate	19
Asthma	19
IVAX	19
Vistor	19
EPREX	19
ERYPO	19
PGA	19
FABLYN-treated	19
spol.	19
2.5mg	19
AMPOULES	19
viation	19
biomarin@@	19
gastroesophageal	19
T-score	19
Methotrexate	19
PPIX	19
2A6	19
AVANDIA	19
blend	19
polymerases	19
5-mL	19
Jaundice	19
ProteqFlu-Te	19
retain	19
potassium-containing	19
homocystinuria	19
ready-to-use	19
thromboxane	19
foodstuffs	19
Follitropin	19
gar@@	19
us-@@	19
hepato@@	19
.3	19
в@@	19
NEEDLE	19
heating	19
generalisation	19
Leflunomide	19
foetotoxic	19
CE-@@	19
circuit	19
Haematuria	19
1.01	19
gel@@	19
arterio@@	19
ENZA	19
recipient	19
D-63128	19
Pegfilgrastim	19
416	19
read@@	19
300-@@	19
CoA	19
0.005	19
preserved	19
2,5@@	19
aerobic	19
methodology	19
intermediate-acting	19
5831	19
antiparkinsonian	19
100ml	19
Arcos	19
Ges@@	19
ioflupane	19
complying	19
Internal	19
Retro@@	19
acetylcholine	19
undertake	19
Mor@@	19
elcatonin	19
alglucosidase	19
syl@@	19
dil@@	19
Chol@@	19
shes	19
attended	19
Neuropathy	19
anti-erythropoietin	19
non-insulin-dependent	19
evolution	19
Associated	19
Paliperidone	19
ion@@	19
Bimatoprost	19
atology	19
deleg@@	19
emp@@	19
raccoon	19
pairwise	19
Measuring	19
CEL@@	19
shallow	19
choriogonadotropin	19
rence	19
Translation	19
Applicants	19
wal@@	19
high@@	19
finally	19
4-8	19
intention	19
prost@@	19
Return	19
sil@@	19
urinate	19
BOTTLES	19
ACE@@	19
institute	19
parvovirus	19
escalated	19
Lyn@@	19
0,1	19
pes	19
burns	19
azide	19
Martin	19
mandatory	19
tel@@	19
433	19
lides	19
cylinders	19
-C	19
penile	19
colds	19
arrhythmic	19
Aspartate	19
INO@@	19
gamma-glutamyltransferase	19
hardware	19
414@@	19
Bex@@	19
UR	19
resorptions	19
slowed	19
self-inject	19
co-operation	19
vesi@@	19
RebiSmart	19
pollakiuria	19
VEL@@	19
Sev@@	19
candidaemia	19
Der@@	19
above-mentioned	19
oestrogen-@@	19
lateral	19
homocysteine	19
opioid-@@	19
words	19
ischemia	19
uting	19
ow@@	19
TTS	19
ία	19
crises	19
XA	19
transported	19
widening	19
7-9	19
Micafungin	19
eal	19
ng.	19
shortest	19
Tg	19
idectomy	19
A16@@	19
limitation	19
payment	19
mening@@	19
FEN@@	19
timelines	19
nat@@	19
Incompatibilities	19
Laboratórios	19
freez@@	19
consul@@	19
thinks	19
chromatographic	19
missions	19
MEDAL	19
mini	19
6.2002	19
Jones	19
Oro-dispersible	19
Gram	19
glob@@	19
paragraph	19
9079	19
UTI	19
effec@@	19
BAS@@	19
Antiretroviral	19
ex	19
560	19
tially	19
Ju@@	19
MULTIDOSE	19
transferring	19
valves	19
F-92@@	19
costing	19
patient@@	19
paren@@	19
Varenicline	19
Advanced	19
Methoxasol-T	19
algia	19
498	19
500mg	19
SolTab	19
cell-@@	19
governing	19
Noviana	19
discretion	19
3A@@	19
proportionality	19
MN	19
homologous	19
hypokalemia	19
tish	19
le-	19
papular	19
nodule	19
capped	19
lip@@	19
usion@@	19
direc@@	19
15.6	19
Ask@@	19
Richter	19
placebo-@@	19
immunised	19
Virologic	19
with@@	19
pyoderma	19
Obj@@	19
7,000	19
Barré	19
Chiesi	19
gone	19
righ@@	19
Propyl	19
glycogen	19
46-@@	19
Radiographic	19
closures	19
Notes	19
namely	19
Sachet	19
Ny@@	19
dFd@@	19
45mg	19
semi-@@	19
Efectin	19
Haemodialysis	19
lex@@	19
ija	19
Poulvac	19
FluFend	19
spen@@	19
palmar-plantar	19
Easotic	19
Demo@@	19
Tar@@	19
Reduce	19
-6	19
dis	19
pharyngolaryngeal	19
uncontrollable	19
answer	19
menorrhagia	19
organ@@	19
Montelukast	19
Allergy	19
workshops	19
Intracranial	19
yst@@	19
static	19
blepharospasm	19
aging	19
dentist	19
rubbish	19
albuminuria	19
EM	19
Ali@@	19
Gy	19
ра@@	19
IC	19
apparently	19
breasts	19
fru@@	19
........................................................@@	19
PFMT	19
Solutions	19
standardised	19
aving	19
answers	19
IDV	19
1.11	19
ox	19
xanthine	19
oblož	19
NAION	19
ibritumomab	19
reco@@	19
heavily	19
99.9	19
15.7	19
Glo@@	19
exploratory	19
muscarinic	19
tapering	19
late-onset	19
centres	19
Correc@@	19
tubules	19
Directorate-General	19
3-week	19
SIDE	19
800,000	19
5500	19
bioset	19
0.79	19
Aggres@@	19
child@@	19
WHITE	19
disintegr@@	19
Kg	19
Progres@@	18
gonadal	18
arginine	18
sel@@	18
nel@@	18
Corticosteroids	18
competition	18
aments	18
Bilirubin	18
Storing	18
sunscreen	18
ocytes	18
Voraxaze	18
ane@@	18
forte	18
BACK@@	18
Orplatna	18
602	18
MW@@	18
nig@@	18
Glutamic	18
ico	18
STA@@	18
BM@@	18
PROLONGED	18
mediators	18
familiar	18
pregelatinised	18
Postmarketing	18
rever@@	18
ined	18
maximally	18
depress	18
radiolabeled	18
numerous	18
11.96	18
cephalosporin	18
N2	18
NRTI@@	18
hydroly@@	18
maculo-papular	18
55-@@	18
Genotypic	18
sponsors	18
0.40	18
disinfectant	18
ship	18
Throw	18
sucrase-isomaltase	18
anxi@@	18
euphoria	18
wild	18
Mas@@	18
08.2001	18
ESP@@	18
12.2001	18
reinforced	18
folding	18
anol	18
worth@@	18
lamps	18
NOAEL	18
ge-@@	18
NECESSARY	18
Metabol@@	18
sweg	18
high-density	18
TY	18
positively	18
contra-indications	18
aths	18
Aripiprazole	18
Lamotrigine	18
Advexin	18
Sexual	18
skills	18
Consider	18
quite	18
START	18
utation	18
sertraline	18
Action	18
mer@@	18
EC-@@	18
learned	18
Ελλάς	18
accomplished	18
dal	18
890	18
cle	18
constriction	18
apoptosis	18
increasingly	18
2031	18
1.27	18
unusually	18
OT	18
Electro@@	18
в	18
precipit@@	18
OD	18
anti-epileptics	18
yielded	18
0.035	18
directive	18
Evidence	18
methacrylic	18
STRI@@	18
oid@@	18
harmless	18
Rīga	18
degraded	18
esthe@@	18
Mu@@	18
oncology	18
adaptation	18
activator	18
Anaphylactoid	18
sulesomab	18
Out@@	18
03.2001	18
05.2001	18
rstā	18
vniecī	18
optional	18
0.007	18
Sevoflurane	18
potentiated	18
trends	18
Angio@@	18
film-coating	18
Factors	18
bas@@	18
participating	18
soles	18
fields	18
Roussel	18
ANT	18
ideally	18
cel@@	18
estim@@	18
preventive	18
eta	18
ocytosis	18
Indonesia	18
methotrex@@	18
Photo@@	18
breastfeed	18
ITL@@	18
------------@@	18
VIRAFERON	18
Г@@	18
addiction	18
incretin	18
C09@@	18
him	18
brownish	18
transmissible	18
anabolic	18
Pharm@@	18
flavouring	18
biop@@	18
RS@@	18
Citywest	18
cardiotoxic	18
714	18
atrioventricular	18
02.96	18
minority	18
elliptical	18
break@@	18
NE	18
Adding	18
non-vertebral	18
dependency	18
invited	18
18-20	18
trading	18
T3	18
dependant	18
infusion-associated	18
reinitiated	18
nodules	18
bility	18
regre@@	18
JO@@	18
st-@@	18
C04-@@	18
surgeries	18
Doxycycline	18
alities	18
ap	18
spoons	18
Kύπρος	18
Branch	18
AEBE	18
alle@@	18
Δ@@	18
upward	18
P.@@	18
compression	18
Contracep@@	18
epines	18
Fif@@	18
Zen@@	18
ares	18
CLASSI@@	18
phosphatidylcholine	18
allowances	18
Neutrophil	18
Uro@@	18
Film-@@	18
445	18
microemulsion	18
nominated	18
archiving	18
dat@@	18
activating	18
Sorbitan	18
LDL-cholesterol	18
emo@@	18
Irish	18
.1	18
flat@@	18
polyolefin	18
ceftiofur	18
Ple@@	18
SUD	18
grasp	18
CZ-@@	18
diff@@	18
Others	18
complexes	18
SAN@@	18
acr@@	18
FOLDING	18
discussing	18
synaptic	18
Ale@@	18
Prote@@	18
YL	18
RCC	18
Dexamethasone	18
encountered	18
Jill	18
reviews	18
4g	18
polym@@	18
aceponate	18
ethnicity	18
Vital	18
Infliximab	18
DFSP	18
ας	18
ής	18
Λτδ	18
But@@	18
In-@@	18
Lipid	18
extraneous	18
Bethesda	18
re-administration	18
16.4	18
.com	18
8501	18
matic	18
mus	18
disinfect	18
dihydropyridine	18
anti-HA	18
-28@@	18
olig@@	18
termin@@	18
Short	18
protocols	18
Parameters	18
Co-administered	18
accumulated	18
Twenty-@@	18
Matrix	18
Dosages	18
I84V	18
Diuretics	18
34-91	18
IVF	18
0.32	18
pepti@@	18
Subsequently	18
TIS	18
masitinib	18
microsomal	18
2.5-fold	18
.Π	18
physiologic	18
ven	18
phototoxic	18
insulin-dependent	18
Suicide	18
WASTE	18
MATERIALS	18
-200	18
424	18
ribosomal	18
ak	18
etr@@	18
200-@@	18
П@@	18
ehf	18
builds	18
oural	18
Industri@@	18
PV	18
post-implantation	18
saturable	18
attenu@@	18
K.	18
96@@	18
2A	18
0.57	18
ACTI@@	18
Existing	18
thetic	18
Flex@@	18
blu@@	18
unresponsive	18
Testosterone	18
Vet@@	18
circ@@	18
orr@@	18
reticulo@@	18
gues	18
audits	18
leukoencephalopathy	18
Altern@@	18
Vaxxitek	18
16.8	18
Cre@@	18
0.07	18
videocon@@	18
ARDS	18
positivity	18
P-27@@	18
lameness	18
436	18
Ce@@	18
ash	18
tablet@@	18
Industria	18
Interval	18
309	18
unopened	18
Infusion-related	18
diet@@	18
neutralizing	18
smo@@	18
LL	18
AV	18
TIA	18
Josep	18
intussusception	18
100x1	18
177@@	18
pathogen	18
OY	18
immunomodulatory	18
Haemo@@	18
confined	18
Fresenius	18
10-12	18
TNF-@@	18
Contra-@@	18
9-hydroxy-risperidone	18
Neur@@	18
gly@@	18
Pooled	18
hyopneumoniae	18
UGT	18
screened	18
discri@@	18
tablety	18
consolidated	18
Invasive	18
penetrates	18
AlSap	18
Cimetidine	18
yttrium	18
Stiripentol	18
all-@@	18
reabsorption	18
Plc	18
Biochemi@@	18
anesthesia	18
ll@@	18
running	18
NSAID-associated	18
T-cells	18
Ci@@	18
Regional	18
Kölblgasse	18
A-1030	18
drug-@@	18
SION	18
29-@@	18
Production	18
regional	18
delivering	18
reactive	18
03A@@	18
off@@	18
43@@	18
Eisenstrasse	18
D-65428	18
Rüsselsheim	18
svägen	18
ces	18
AMI	18
Binger	18
terminated	18
Orange	18
Diagnostics	18
24-48	18
LT-@@	18
let@@	18
reversed	18
azepam	18
Switching	18
Kundl	18
BERG	18
mac	18
Palivizumab	18
CAM@@	18
MD@@	18
processed	18
aqu@@	18
Ambrisentan	18
numer@@	18
reas	18
sequ@@	18
Toremifene	18
intermedius	18
tuting	18
ts@@	18
tramadol	18
penetrate	18
Ps	18
run@@	18
overseal	18
ici@@	18
item	18
Milk	18
r-@@	18
transmitting	18
incompatible	18
qual@@	18
accep@@	18
STORED	18
utero	18
chances	18
Ot@@	18
eti@@	18
VEGF	18
equipotent	18
Adjunctive	18
Rosuvastatin	18
Ae	18
scre@@	18
Hearing	18
ZA@@	18
sorbed	18
40000	18
toxic@@	18
21@@	18
Philadelphia	18
fatality	18
merck.com	18
494	18
TIH	18
intent	18
971130	18
gap	18
comprimate	18
adequacy	18
č@@	18
teratology	18
NEU@@	18
Av	18
bitartrate	18
cancerous	18
Calcichew-D3	18
skeleton	18
TACT	18
irradiation	18
Fil@@	18
King@@	18
Alendronate	18
fixed-dose	18
ting@@	18
convul@@	18
ZAAR	18
quantitative	18
3355	18
rid	18
horizontally	18
cluding	18
TNF-antagonist	18
Seroconversion	18
LU	18
hetero@@	18
sep@@	18
extra-@@	18
strengthened	18
Etravirine	18
PUVA	18
doubt	18
ActiTrak	18
GY@@	18
prohibit	18
В@@	17
Migraine	17
ANSWERS	17
ABC	17
estrus	17
Nut@@	17
1118	17
techno@@	17
Cho@@	17
Mouth	17
registered	17
treatment-emergent	17
arthropathy	17
726	17
EGFR-@@	17
Garðabær	17
1,25	17
iPTH	17
disper@@	17
ARI@@	17
cess@@	17
stays	17
albicans	17
ίου	17
Parque	17
Θ@@	17
reli@@	17
turns	17
abatacept-treated	17
rinsed	17
zol@@	17
aquatic	17
ADAS-Cog	17
wine	17
Latina	17
subst@@	17
transporters	17
anterolateral	17
Gre@@	17
custom@@	17
utilised	17
single-agent	17
Sufficient	17
human@@	17
aring	17
plasia	17
mealtime	17
Vaccinations	17
6-8	17
SH	17
apped	17
SIL@@	17
causative	17
Parkway	17
ong@@	17
dos@@	17
2ºC	17
bet@@	17
Bacteroides	17
P-	17
computerised	17
neuronal	17
Pap@@	17
Rob@@	17
481	17
41-@@	17
Network	17
5-7	17
deep@@	17
Produced	17
Sugammadex	17
CIN@@	17
micro-@@	17
ord@@	17
6-monthly	17
Doppler	17
cyano@@	17
extravascular	17
shared	17
nov@@	17
652	17
ens@@	17
09.96	17
benzo@@	17
nominal	17
laryngeal	17
Fentanyl-	17
18.3	17
eo@@	17
alfa-	17
swellings	17
ough@@	17
rep@@	17
in.	17
Moraxella	17
catarrhalis	17
8.1998	17
two-dose	17
deox@@	17
diagnoses	17
potentiation	17
trazodone	17
ery	17
fulfilled	17
promotion	17
societies	17
phosphoric	17
toco@@	17
ccal	17
ashes	17
desirable	17
promoting	17
evol@@	17
achieves	17
ramiprilat	17
³	17
IL-6	17
BN@@	17
Life@@	17
453	17
avel	17
Vesdil	17
sever@@	17
rhinorrhoea	17
Cast@@	17
ife	17
May@@	17
Capecitabine	17
EFEXOR	17
x-@@	17
atherothrombotic	17
presumed	17
JC	17
atis	17
oxi@@	17
Otherwise	17
Sen@@	17
fibres	17
cyclo@@	17
spective	17
polyisoprene	17
CCR	17
gs	17
isol@@	17
doing	17
insulin-@@	17
Orthostatic	17
ophthalmo@@	17
hyperaesthesia	17
Atri@@	17
GMT	17
punctate	17
thrombolysis	17
Levels	17
HAMA	17
tend@@	17
Solacyl	17
ila	17
IRL-Dublin	17
MULTIPACK	17
High-density	17
rhythms	17
thereto	17
tamine	17
cholecystitis	17
pustular	17
overlapping	17
2400	17
Bosquet	17
Pall@@	17
purchase	17
16550	17
Ishak	17
Britani@@	17
focusing	17
........	17
Modified	17
Ml	17
losing	17
beam	17
Basi@@	17
393	17
aesthesia	17
962	17
Die@@	17
gh@@	17
endophthalmitis	17
Protect	17
irritant	17
Remission	17
399	17
84.0	17
write	17
reform	17
topiramate	17
visu@@	17
quin@@	17
Double	17
blindness	17
Engli@@	17
sulfonamides	17
Co-@@	17
iry	17
ural	17
Xorimax	17
ye	17
utility	17
vist-@@	17
IMPACT	17
porphyrin	17
6.1998	17
basophils	17
gh	17
Nine	17
light-headed	17
sko	17
hepar@@	17
lighting	17
rupting	17
gal@@	17
Berchem	17
renovascular	17
tamoxifen	17
Prescribers	17
microscope	17
overwrap	17
conditioning	17
icidal	17
NUMBERS	17
progestagen	17
............@@	17
viscosity	17
plasmin	17
ered	17
antiretroviral-naïve	17
O2	17
III-IV	17
trabecular	17
lig@@	17
loop	17
cent	17
testes	17
kled	17
Being	17
437	17
Questionnaire	17
Biotech	17
12.2	17
654	17
audi@@	17
ferencing	17
Ointment	17
Hav@@	17
RIT	17
ysis	17
distinguish	17
steri@@	17
Allerg@@	17
tose	17
Odds	17
practically	17
Amsterdam	17
search	17
ERS	17
biologic	17
Morganella	17
Myco@@	17
cleft	17
EG	17
Fon@@	17
Paço	17
maintains	17
comparability	17
replacing	17
sedatives	17
flux	17
gluconeogenesis	17
C12	17
audit	17
mitig@@	17
trophic	17
narro@@	17
............................................@@	17
peri-@@	17
Sunitinib	17
spasmodic	17
Ed@@	17
retroperitoneal	17
hospitalisations	17
xinafoate	17
omas	17
Mavacoxib	17
afforded	17
retino@@	17
016@@	17
Months	17
methaemoglobin	17
erythrocyte	17
Fixed	17
infrastructure	17
recurring	17
PH	17
noticeable	17
implementing	17
Heat	17
Surveillance	17
km	17
chambers	17
te-@@	17
Hatfield	17
AL10	17
olytics	17
05.2000	17
Stroke	17
Es@@	17
cyclooxygenase-2	17
infecting	17
lamivudine-refractory	17
spheres	17
doesn	17
panel	17
CAP	17
specifications	17
Swollen	17
minute-value	17
Connect	17
TRAY	17
launched	17
Wednesday	17
DTPa-HBV-IPV	17
Ang@@	17
7-	17
Patch	17
structurally	17
LED	17
ür@@	17
highlighted	17
Empty	17
Hepat@@	17
harbouring	17
300mg	17
Long@@	17
gestrel	17
Thi@@	17
Vol@@	17
osteoporotic	17
Lag@@	17
sterility	17
UNUSED	17
FROM	17
Sabumalin	17
Opportunistic	17
biosynthesis	17
year-old	17
cholelithiasis	17
sphere	17
Rot@@	17
part@@	17
inscription	17
Aflunov	17
zones	17
Slight	17
Gran	17
copious	17
horizontal	17
abilities	17
abruptly	17
d.@@	17
inspectors	17
resuspension	17
HAL@@	17
TM@@	17
Hypokalaemia	17
Intravascular	17
stabbing	17
thio@@	17
009-@@	17
gia	17
addressing	17
ó	17
cular@@	17
NR	17
SWEDISH	17
ORPHAN	17
overfill	17
DTPw-HBV	17
ark	17
jo	17
adhere	17
hospitalised	17
distinct	17
actuation	17
scleroderma	17
septicaemia	17
deed	17
roll	17
ularis	17
anti-HAV	17
learning	17
turned	17
2010	17
Norm@@	17
Hospira	17
sin@@	17
Muco@@	17
It@@	17
Vil@@	17
procainamide	17
causally	17
ulosis	17
oned	17
Hypertensive	17
Inspec@@	17
Hi@@	17
0,000	17
oric	17
ied	17
1194	17
brady@@	17
weaker	17
Zo@@	17
refrigeration	17
clonidine	17
iron-@@	17
∆	17
FE@@	17
straightaway	17
B-13@@	17
forum	17
non-response	17
CO-@@	17
BIT@@	17
113@@	17
grafts	17
ore	17
30x1	17
Methylnaltrexone	17
CARTONS	17
Conventional	17
ired	17
triacetin	17
controller	17
661	17
Impro@@	17
A-I	17
fimbrial	17
character	17
Brinzolamide	17
E-2@@	17
larvae	17
NO-@@	17
interacts	17
alkylating	17
1737	17
amp	17
facility	17
atis@@	17
Darifenacin	17
wa	17
kD	17
mel@@	17
comply	17
dio@@	17
blepharitis	17
codons	17
scar	17
calculations	17
overexpression	17
L-methionine	17
Gedeon	17
norepinephrine	17
011@@	17
Anhydrous	17
«	17
SIGHT	17
phenylacetate	17
Fabrik	17
invert	17
osteo@@	17
fort	17
disor@@	17
reinstituted	17
ъ@@	17
kes	17
Cytotoxic	17
-treatment	17
UC@@	17
Fonte	17
447	17
6142	17
nar@@	17
hosted	17
Comp@@	17
income	17
228@@	17
Waterloo	17
è@@	17
Paediatrics	17
prescription.	17
tachy@@	17
chel@@	17
nosebleed	17
stupor	17
idursulfase	17
01-@@	17
emea.eu.int	17
ser	17
Restlessness	17
carbapen@@	17
Immunosuppressants	17
oul@@	17
real	17
DP@@	17
01.00	17
maxim@@	17
dyspnea	17
TIN@@	17
Protective	17
domains	17
.org	17
similarity	17
Self-@@	17
ingham	17
inconsistent	17
Issues	17
800-@@	17
GENERAL	17
CATION	17
E15@@	17
chairmanship	17
thirsty	17
donation	17
longer-term	17
Worsening	17
epid@@	17
anovulatory	17
Hauptstraße	17
Outcome	17
sadness	17
Buprenorphine	17
catalogue	17
GAR@@	17
hrs	17
ASAS	17
wider	17
D-83607	17
99mTc-depreotide	17
efficiently	17
chromo@@	17
Hem@@	17
occasion	17
ud	17
TNF-antagonists	17
file	17
bacteriological	17
E553b	17
Hunter	17
Corresponding	17
10.1998	17
dossiers	17
2ml	17
sunburn	17
CIPROFLOXACIN	17
MT-@@	17
0.49	17
Holzkirchen	17
fili@@	17
onised	17
Bud@@	17
Budgetary	17
65-@@	17
appropriations	17
son@@	17
Usual	17
cholesterol-lowering	17
lock@@	17
second-line	17
Hand@@	17
Sk@@	17
vinblastine	17
binders	17
sist@@	17
cranial	17
databases	17
subsidy	17
payable	17
Lymphoma	17
deafness	17
erosions	17
vax	17
Epi@@	17
vertebrae	17
1.16	17
Angina	17
Toxic@@	17
HAE	17
si	17
Animals	17
bert-@@	17
reliably	17
Dark	17
17.6	17
challenged	17
Fran@@	17
alpha-blocker	17
ented	17
Validation	17
ater	17
zz@@	17
CIPROXIN	17
pallor	17
weaning	17
Analyses	17
hypos	17
viscous	16
polymorph@@	16
rant	16
glossitis	16
Orlistat	16
CD20	16
Taste	16
400@@	16
556	16
50-80	16
func@@	16
Insufficient	16
Requirements	16
6B	16
cationic	16
Η@@	16
ahead	16
halves	16
Threonine	16
805	16
UE	16
DAT@@	16
notification	16
tar@@	16
SIN	16
urethral	16
hirsutism	16
UNBLISTERED	16
intrauterine	16
555	16
main@@	16
phe@@	16
99.4	16
shor@@	16
transformation	16
dra@@	16
lysosomal	16
isoform	16
1-hour	16
sco@@	16
ecto@@	16
XA@@	16
hour@@	16
01.2001	16
closing	16
Blisters	16
RC@@	16
Superficial	16
abor@@	16
additionally	16
rtM20@@	16
reflex	16
eni	16
Pharmacology	16
2-5	16
delaying	16
Rijksweg	16
Puurs	16
17.8	16
785	16
1986	16
1988	16
ophthalmologic	16
NV-02B-007	16
tte	16
paediatrics	16
1.18	16
malfunction	16
wat@@	16
Medicine	16
Bucks	16
SL7	16
itory	16
separ@@	16
staphylococci	16
fever@@	16
nicotine	16
reinfor@@	16
cable	16
GX	16
lamivudine-@@	16
worm	16
499	16
529	16
utilisation	16
pinched	16
S-	16
ilities	16
gains	16
Opio@@	16
Chri@@	16
Wo@@	16
C5	16
19.5	16
Marcel	16
nitr@@	16
Titration	16
litis	16
xia	16
exposing	16
idity	16
Romain	16
487	16
ер	16
thir@@	16
39.@@	16
Clo@@	16
mine	16
Monthly	16
isations	16
mo	16
dwelling	16
engage	16
elicit	16
maltitol	16
fic@@	16
approaches	16
Point	16
sulfa@@	16
428	16
transf@@	16
remitting	16
disabling	16
pseudomembranous	16
EPC	16
portal	16
voluntarily	16
784	16
CARE	16
BOND@@	16
Fibr@@	16
707	16
Equibactin	16
ampton	16
drop@@	16
capsular	16
IMPLEMENTED	16
hyperlipaemia	16
tapered	16
RECOR@@	16
Certific@@	16
stro@@	16
sic	16
тел	16
stream@@	16
methic@@	16
oxytoca	16
possesses	16
LIM@@	16
Pheno@@	16
Valnemulin	16
microlitres	16
Speak	16
eli@@	16
Orathecin	16
ethyl@@	16
Hoff@@	16
benzodiazepine-like	16
Registry	16
phagia	16
sp	16
fails	16
hyperammon@@	16
occurrences	16
cope	16
Together	16
test.	16
sely	16
Vogt-Koyanagi-Harada	16
budgets	16
Fanconi	16
dual-chamber	16
habits	16
tian	16
haemolytica	16
XX@@	16
proto@@	16
CHB	16
ator-@@	16
minate	16
geneic	16
Maropitant	16
arry	16
diazine	16
403	16
Pipette	16
suring	16
attending	16
sentence	16
exterior	16
seldom	16
ADP	16
soil	16
noea	16
Substance	16
REMERON	16
wrapped	16
NaCl	16
Enfuvirtide	16
de-@@	16
Sant	16
0.008	16
0.51	16
är@@	16
pupils	16
sharps	16
inyl	16
vec@@	16
DOSES	16
15.3	16
CEPT	16
transfer@@	16
defences	16
latency	16
TAVI@@	16
fibrate	16
CARD@@	16
M2	16
Franc@@	16
Sleepiness	16
Chineham	16
Magne@@	16
tol	16
1.05	16
14-day	16
phosphorylated	16
discre@@	16
AIS	16
Ty@@	16
communications	16
E903	16
Roderveldlaan	16
synovial	16
Training	16
Reinhard	16
bis@@	16
28.6	16
deposits	16
NR@@	16
vic@@	16
Va@@	16
Att@@	16
hysterec@@	16
Sil@@	16
Tw@@	16
ni	16
BAXJECT	16
XR	16
ULAR	16
Tenecteplase	16
φ@@	16
embryo@@	16
dom	16
amn@@	16
AMEND@@	16
transcription	16
A2	16
Antineoplastic	16
HEALTHCARE	16
dura	16
clinician	16
itation	16
í	16
STA	16
bioavailable	16
histologically	16
TRIT@@	16
six-@@	16
18-related	16
parosmia	16
epi@@	16
430	16
Sinusitis	16
Cel@@	16
legislative	16
LL@@	16
zer	16
Dor@@	16
surge	16
polystyrene	16
Providencia	16
declar@@	16
Wim	16
emerge	16
Hein@@	16
oC	16
anti-PRP	16
infliximab-treated	16
15000	16
ligand	16
negatively	16
hemo@@	16
Ket@@	16
respected	16
chair@@	16
translations	16
motiv@@	16
mas@@	16
mircera	16
Unipessoal	16
formerly	16
pressor	16
Wear	16
EDTMP	16
chol@@	16
register	16
Salmon@@	16
th-@@	16
Neck	16
Palazzo	16
Segrate	16
CY-10@@	16
atr@@	16
seronegative	16
lipoproteins	16
IPLEX	16
Abrupt	16
Cardiomyopathy	16
imidacloprid	16
Handels	16
co-trimoxazole	16
fetus	16
rich@@	16
intermedi@@	16
-0.7	16
cin	16
idine	16
Placebo-Controlled	16
CLINICAL	16
PRP-@@	16
titer	16
iver@@	16
SRH	16
Australia	16
surroun@@	16
Probenecid	16
workers	16
Mosquito	16
9SN	16
BOX@@	16
rest@@	16
tures	16
community-acquired	16
clou@@	16
tomy	16
Occur@@	16
accel@@	16
1.5-@@	16
experim@@	16
ning@@	16
Italian	16
Fir@@	16
conduc@@	16
CrCL	16
dispositif	16
transdermique	16
FIX	16
peanut	16
Porto	16
Salvo	16
inotropic	16
Sixty-@@	16
incineration	16
consum@@	16
ΑΚΗΣ	16
ΠΑΝΑΓΙΩΤΟΥ	16
ΥΙΟΣ	16
LIPID	16
F-69800	16
Eczema	16
LAND	16
CTCAE	16
mavacoxib	16
oughing	16
reich	16
FDC	16
44-171	16
volunteer	16
Levodopa	16
Lang@@	16
meto@@	16
butylated	16
polyoxyl	16
у@@	16
Influenza-like	16
Alanine	16
639	16
enterotoxicosis	16
rine	16
endoscopic	16
z.	16
externa	16
MD	16
København	16
dodecahydrate	16
kg-1	16
erythropoietins	16
ssing	16
PGN	16
Ballerup	16
CP@@	16
62@@	16
embol@@	16
Immunologicals	16
Tel-No	16
uur	16
pleister	16
wals	16
Line	16
adenomatous	16
neovascularisation	16
LLN	16
caffeine	16
ed-	16
promyelo@@	16
cytic	16
exacerbated	16
minimised	16
outstanding	16
pellets	16
heim	16
PL-@@	16
Lenalidomide	16
Includes	16
Under@@	16
saturated	16
Cetirizine	16
symptomatically	16
alogue	16
flavoured	16
broaching	16
generate	16
covariates	16
persisted	16
porphyrins	16
F-92058	16
EN3267-@@	16
Roaccutane	16
Instruc@@	16
9.1998	16
glycosuria	16
Z.	16
Leu@@	16
board	16
RTV	16
tefl@@	16
per-protocol	16
prolifer@@	16
Meta@@	16
Intron	16
platz	16
SYNAGIS	16
Ф@@	16
B-1@@	16
CZ	16
inous	16
ming	16
nic@@	16
detrimental	16
MBC	16
rFVIIa	16
Spe@@	16
Sanit@@	16
NC	16
ophthalmologist	16
opacities	16
Hypothyroidism	16
graduation	16
gitis	16
pocket	16
Written	16
SUMMARIES	16
persistently	16
post-injection	16
ptosis	16
Wyeth-Lederle	16
terin	16
Cholesterol	16
beliefs	16
ham@@	16
histoplasmosis	16
Rivaroxaban	16
MERCK	16
Prophylactic	16
32.@@	16
Cooperation	16
RO-@@	16
Dem@@	16
foxes	16
absorb@@	16
moves	16
sics	16
geograph@@	16
Neurological	16
line@@	16
3736	16
Thrombotic	16
logn@@	16
self-limiting	16
flint	16
aux	16
Swirl	16
tried	16
ropinirole	16
overview	16
BA	16
farms	16
enteritis	16
solely	16
SmPC	16
tool	16
ł	16
epinephrine	16
Achilles	16
HIV-HCV	16
natal	16
O1	16
commun@@	16
jk	16
anti-diabetes	16
operated	16
P-value	16
delegation	16
estrogenic	16
optimisation	16
5x@@	16
775	16
saccharin	16
Gö@@	16
body@@	16
micturition	16
71178-0	16
long-lasting	16
Guillain	16
star@@	16
remodelling	16
Veterinari@@	16
H2-receptor	16
control@@	16
relax@@	16
quantitation	16
621	16
40.0	16
MAC@@	16
Fak@@	16
1.61	16
720	16
Ibafloxacin	16
spasticity	16
ώ@@	16
30-60	16
meter	16
I-Neb	16
flutter	16
glyc@@	16
Parox@@	16
drain	16
myoclonus	16
architecture	16
viability	16
strawberry	16
15.1	16
eflornithine	16
Nore@@	16
GP	16
Hormone	16
Candi@@	16
06.2001	16
Nucleoside	16
glucose-	16
5-aminolevulinic	16
Meglumine	16
Forty-@@	16
multiplying	16
azolam	16
Avda.	16
19.8	16
0.91	16
total@@	16
vasculature	16
VL	16
Ma	16
pulses	16
Veraflox	16
6-12	16
groin	16
Fat	16
non-smokers	16
D-13@@	16
Cardi@@	16
malate	16
Gra@@	16
Van	16
Associations	16
clum@@	16
ASCOT-LLA	16
wri@@	16
interpreting	16
compar@@	16
LIS	16
A-1210	16
Sintra	16
amycin	16
Moul@@	16
flexi@@	16
Sortis	16
endoc@@	16
Pirox@@	16
PL-02-@@	16
Contrast	16
722	16
hypothalamus	16
11.2002	16
penta@@	16
Call	16
pre-submission	16
parti@@	16
DOS@@	16
Eff@@	16
inity	16
Making	16
cles	16
910	16
9-	16
Mit@@	16
Conduct	16
moclobemide	16
Investig@@	16
21.7	16
ck@@	16
halogenobutyl	16
meperidine	16
Sometimes	16
hemoglobin	16
Triple	16
accommodation	16
4P	16
ATC-@@	16
0.00	16
Da	16
thirds	16
Europé@@	16
thyroxine	16
667	16
Genotoxicity	16
humoral	16
FVC	16
www.alli.@@	16
machine	16
phenothiazines	16
hyperaldosteronism	16
zation	16
-out	16
vis	16
initi@@	16
Clofarabine	16
Protection	16
24.4	16
ia-@@	16
Ferric	16
world	16
LYON	16
notifications	16
intracell@@	16
BH	16
Dysphagia	16
orrhoids	16
MOTIVATE	16
moved	16
qd	16
0.021	16
Antibacterial	16
gluteal	16
thrombolytics	16
diffusion	16
anaer@@	16
clom@@	16
dominant	16
------------------------------------------------------------------------------------------------------------------------@@	16
RVR	16
technetium	16
luer	16
Calcitonin	16
MIX@@	16
083	16
Terfenadin	16
ulants	16
pictures	16
vari@@	16
onitis	16
prenatal	16
ADCS@@	16
EFFECTS	16
fridge	16
bone-@@	16
hypom@@	16
olate	16
fix@@	16
Pu@@	16
»	16
Erythromycin	16
elev@@	16
MRZ	16
outpatients	16
piston	16
IG	16
1.1998	16
PART	16
children.	16
gasse	16
adulthood	16
Below	16
relaxant	16
reacts	16
Chi@@	16
WC@@	16
poliovirus	16
-tocopherol	16
Bed@@	16
01.01.95	16
ProteqFlu	16
MAC	16
biotype	16
multiplic@@	16
rig@@	16
inser@@	16
Toviaz	16
ит@@	15
canarypox	15
APPLICATION	15
necessity	15
ssed	15
omyelitis	15
resi@@	15
sively	15
fri@@	15
Add@@	15
veno-occlusive	15
Bauskas	15
-3.@@	15
prostacyclin	15
Cladribine	15
hemorrha@@	15
categorised	15
stu@@	15
214@@	15
friend	15
SW@@	15
stud@@	15
variants	15
diamond	15
excellent	15
pol	15
αρ@@	15
CMS	15
-to-@@	15
thioridazine	15
740	15
Injectable	15
Background	15
ovariohysterec@@	15
Gastro-resistant	15
scoliosis	15
qui@@	15
beer	15
Codex	15
ri	15
Ful@@	15
vap@@	15
encephal@@	15
outdo@@	15
EXELON	15
blastomycosis	15
hydrolyzed	15
Dic@@	15
endothelin	15
cies	15
Al3	15
Vien@@	15
new-born	15
expanded	15
d-	15
PSA	15
bluetongue	15
Farnell	15
dreaming	15
microwave	15
515	15
GLOBE	15
links	15
mast	15
Ñ@@	15
observable	15
ectopic	15
BRAILLE	15
PUPs	15
PWS	15
udder	15
borg	15
una	15
-DFUR	15
hypercalciuria	15
Strada	15
16.3	15
tons	15
Phosphate	15
illin-resistant	15
photosensitive	15
623	15
External	15
hypospadias	15
36.@@	15
001-005	15
461	15
Conjug@@	15
Det@@	15
ection	15
QT-@@	15
05-@@	15
unfavourable	15
Angioneurotic	15
contra-indication	15
EUC@@	15
equals	15
-Λ@@	15
nonpegylated	15
315@@	15
cha@@	15
war@@	15
Omalizumab	15
three-dose	15
antipyretic	15
IE	15
Stable	15
under-@@	15
Question	15
acceptance	15
ush	15
lan@@	15
encephalo@@	15
CK@@	15
reflexes	15
Sero@@	15
ony	15
cip@@	15
CEP@@	15
notable	15
steroid@@	15
balloon	15
candi@@	15
globulins	15
hypersecretion	15
Plaine	15
AsIII	15
bourne	15
edi@@	15
Triacetin	15
therapy-@@	15
tendons	15
mSv	15
Farmaceutica	15
Differences	15
F.	15
Д@@	15
sorbitan	15
anthan	15
cloacae	15
zur	15
Spironolactone	15
Assay	15
Mydriasis	15
vesicles	15
ale@@	15
inaemia	15
medicin@@	15
Justification	15
ī@@	15
365	15
microscopic	15
-0	15
three-year	15
chi-square	15
1.04	15
inver@@	15
п@@	15
North	15
two-thirds	15
ли	15
ед@@	15
491	15
amending	15
1.19	15
dus	15
Idiopathic	15
translation	15
aims	15
sec	15
mg@@	15
bic	15
Kil@@	15
dian	15
agen@@	15
azoles	15
atropine	15
assum@@	15
whichever	15
anti-emetic	15
Nat@@	15
Produ@@	15
Ker@@	15
BO	15
Fibro@@	15
impac@@	15
ounding	15
13.8	15
004-006	15
jittery	15
DDC	15
B-1070	15
EU-@@	15
hyperkinesia	15
personality	15
31-	15
Contr@@	15
549	15
ambient	15
dilated	15
dness	15
OH@@	15
antimicrobials	15
ergo@@	15
Estradiol	15
beta-adrenergic	15
morphology	15
eudra.org	15
digestion	15
Whole	15
Myelo@@	15
Industriepark	15
aggreg@@	15
Proce@@	15
tha@@	15
shar@@	15
ineffective	15
Fernand	15
Sauer	15
Embryo@@	15
buffered	15
CALCI@@	15
cryst@@	15
Nitisinone	15
Relief	15
HT@@	15
Sanohex	15
781	15
SGA	15
inz@@	15
Memantine	15
HT	15
reskedelmi	15
compet@@	15
teams	15
efavirenz@@	15
Priory	15
Ware	15
HBV-DNA	15
rose	15
pe-@@	15
507	15
75,000	15
epididy@@	15
Ven@@	15
guarantee	15
BRI@@	15
18.2	15
Industry	15
no-effect	15
sequestrants	15
---------------------------------------------------------------------------------------------------------------------------	15
XO@@	15
sera	15
Φ@@	15
Αγίου	15
Vice-chairman	15
stry	15
hypothermia	15
Би@@	15
Replaced	15
Dioxide	15
angioplasty	15
3.00	15
parkinsonian	15
ust	15
offices	15
1.15	15
Stage	15
pools	15
oligo@@	15
hydr@@	15
possess	15
disease-free	15
semble	15
NL-3991	15
Proteinuria	15
Newbury	15
Hospital	15
Thrombosis	15
Sul@@	15
30000	15
normo@@	15
1.06	15
titis	15
prot@@	15
Schweit@@	15
34.@@	15
mg.	15
estro@@	15
Bucuresti	15
013-@@	15
spar@@	15
tle	15
Histo@@	15
950	15
Album@@	15
pre-term	15
usions	15
equine@@	15
ylene	15
dar	15
ril	15
learn	15
shortening	15
Eur@@	15
CONCENTRATE	15
biosimilar	15
peristal@@	15
corpora	15
UD@@	15
examining	15
ime@@	15
graduate	15
yne	15
cramping	15
ight	15
MICROGRAMS	15
institutional	15
sors	15
geriatric	15
Desirudin	15
557	15
Asc@@	15
668	15
079	15
699	15
mber@@	15
windows	15
tear-off	15
herds	15
COATED	15
pra@@	15
ví@@	15
enty-@@	15
recall	15
spe@@	15
Aspartame	15
proprietary	15
cess	15
ologic	15
gy@@	15
Enterobacteriaceae	15
Fra@@	15
RESIST	15
7136	15
norfluoxetine	15
Fentanilo	15
microgramos	15
parches	15
Bs	15
Thirst	15
GMBH	15
o.@@	15
19.0	15
Vibrio	15
atemesis	15
Afr@@	15
where@@	15
yne@@	15
Rufinamide	15
Alexandre	15
dipine	15
meant	15
Combinations	15
hernia	15
newly-diagnosed	15
BPH	15
beverages	15
ao	15
BACTE@@	15
yethyl@@	15
omegaly	15
150mg	15
phospho@@	15
stomy	15
ash@@	15
Priest	15
Acne	15
uration	15
Bronchospasm	15
lipophilic	15
flanged	15
Parameter	15
Gastritis	15
Confirm@@	15
alters	15
ermal	15
fungus	15
surrogate	15
Tardive	15
2-week	15
ival@@	15
restric@@	15
bin	15
PREPARATION	15
Mark@@	15
mangafodipir	15
Autoimmune	15
Sed@@	15
ann	15
K103N	15
program@@	15
ROX@@	15
Dilution	15
Non-steroidal	15
04.2001	15
templates	15
Authorised	15
Cro@@	15
transdermaal	15
gebruik	15
‰	15
B-CLL	15
insignificant	15
RH@@	15
JONES	15
Gerhard	15
30ml	15
stom@@	15
auce	15
MC	15
inferior	15
apo	15
thousand	15
IMPOSED	15
grey-@@	15
Def@@	15
710	15
distrib@@	15
Old	15
centr@@	15
Bec@@	15
Induced	15
δι@@	15
neurotransmitters	15
entero@@	15
neovascular	15
nucle@@	15
Co-infection	15
unaltered	15
Ad	15
0.6ml	15
ventilated	15
exfoliation	15
labeled	15
Topical	15
200-400	15
ço@@	15
7.2001	15
medetomidine	15
ells	15
atologic	15
aller@@	15
ENO@@	15
Ur@@	15
choroidal	15
advises	15
Eradication	15
wer@@	15
Erectile	15
Rixensart	15
dyl@@	15
scar@@	15
-2b	15
611	15
alaan	15
516	15
bil@@	15
ello	15
epidem@@	15
9.2002	15
assurance	15
blo@@	15
mbH	15
Med@@	15
RENT	15
extr@@	15
max@@	15
502	15
aracts	15
UK@@	15
4x1	15
interchangeable	15
non-arteritic	15
Bath	15
sensing	15
suspiciousness	15
Uncontrolled	15
muco@@	15
questionable	15
benchmarking	15
My@@	15
IF@@	15
apha@@	15
subfoveal	15
570	15
656	15
KIT	15
mark@@	15
770	15
Louis	15
6-minute	15
13.3	15
K99	15
524	15
Non	15
vo	15
STATEMENT	15
toxoid1	15
dop@@	15
chicks	15
onates	15
1A1	15
NK1	15
12.5mg	15
3a	15
purine	15
regurgitation	15
745	15
am-	15
loo@@	15
28108	15
product-@@	15
IDDM	15
vice	15
rely	15
Fa@@	15
stating	15
coord@@	15
2.00	15
ston	15
1x@@	15
grape	15
follow@@	15
H-2@@	15
ocytic	15
Saint-@@	15
Cervical	15
25-30	15
Bun@@	15
Conferences	15
anion	15
B-cells	15
texture	15
UM	15
Potent	15
deficits	15
594	15
Sabril	15
Burgos	15
GT	15
18-60	15
S01@@	15
carp@@	15
PROFESSI@@	15
Ib	15
meticone	15
572	15
Alf@@	15
non-infectious	15
Epidemiological	15
sures	15
06516	15
stratification	15
relapsing-remitting	15
att@@	15
illary	15
146@@	15
lat@@	15
folliculitis	15
Jonas	15
Salk	15
annia	15
APPLICANTS	15
osmol@@	15
locations	15
Immun@@	15
mediate	15
suit@@	15
Warning	15
Trometamol	15
Artificial	15
AZ@@	15
calf	15
EXULETT	15
STO@@	15
specification	15
20.1	15
0.52	15
ovulating	15
tropin	15
fibre	15
Edi@@	15
eze	15
Physical	15
protamine-crystallised	15
kage	15
well-controlled	15
guinea	15
park	15
Incontinence	15
gamma-@@	15
intran@@	15
lar	15
SBP	15
beverage	15
indices	15
regulator	15
adenosine	15
pyrimidine	15
risk-@@	15
Rispolin	15
Til@@	15
Wil@@	15
overgrowth	15
Agencies	15
chemie	15
masked	15
3-dose	15
tuberculin	15
Diagnostic	15
ECT	15
23.3	15
60,000	15
Γ@@	15
triptans	15
establishing	15
valu@@	15
film@@	15
observ@@	15
13CO2	15
assess@@	15
Floridsdorfer	15
A-10@@	15
ocyto@@	15
excessively	15
non-responders	15
Frequent	15
Zarator	15
stovybė	15
gonorrhoea	15
tubule	15
з@@	15
QJ	15
ultraviolet	15
exer@@	15
Load	15
-0.8	15
12.1997	15
VIIa	15
haematology	15
Oss	15
identi@@	15
beta-blocking	15
589	15
aying	15
Coagulation	15
HIV-positive	15
sub-group	15
ICH@@	15
Endo@@	15
fistula	15
MSDBelgium	15
558	15
Ris@@	15
rix@@	15
mixtures	15
idur@@	15
Theophylline	15
Performance	15
hair@@	15
atous	15
10-20	15
Overdosage	15
LD	15
Single-@@	15
Membership	15
itchiness	15
LANZO	15
fif@@	15
0.76	15
∗	15
canister	15
biologically	15
Postboks	15
asse	15
parkin@@	15
Den@@	15
les-@@	15
36.4	15
revaccinated	15
LILLY	15
SCCHN	15
sucr@@	15
ices	15
obacterium	15
NOVOMIX	15
thick	15
Hodgkin	15
13.4	15
one-year	15
atitis	15
accidents	15
ribon@@	15
omatous	15
EFTA	15
TU@@	15
ained	15
hear@@	15
700@@	15
358-	15
712	15
mb@@	15
provo@@	15
LAS	15
philiac	15
associations	15
FORTE	15
OPV	15
Breathing	15
90-@@	15
É@@	15
dealt	15
ette	15
obes	15
ves@@	15
14.6	15
vasoconstriction	15
RED60	15
CC@@	15
REG@@	15
Deferasirox	15
1-10	15
stepwise	15
erb@@	15
trifluoro@@	15
Leave	15
TAX	15
212@@	15
MABTHERA	15
ventilator	15
fib@@	15
fertile	15
620	15
Queenborough	15
awa	15
teur	15
grown	15
kcal	15
anthracycline-@@	15
FLU	15
0.66	15
Bé@@	15
ance-@@	15
Muscular	15
Relapse	15
guanine	15
Ciflox	15
434	15
fordshire	15
Ethin@@	15
sulfonylurea	15
PM	15
automatically	15
Leukopenia	15
disrup@@	15
famotidine	15
facilitated	15
Diagnosis	15
Spontaneous	15
2B@@	15
ания	14
bir@@	14
ading	14
eri	14
El	14
Lumiracoxib	14
apharm	14
itre	14
CSII	14
Vilbel	14
Huningue	14
ses@@	14
Inflammatory	14
ary-@@	14
Beaufour	14
bevelled-edge	14
scaling	14
viations	14
30-49	14
VASPI	14
entation	14
pretreatment	14
bridge	14
Mer@@	14
cross-referred	14
º@@	14
collabor@@	14
Ds	14
03.97	14
Dilute	14
worsens	14
fum@@	14
losis	14
νά@@	14
Λ@@	14
fying	14
Médicament	14
Lyme	14
terminals	14
vise	14
secondment	14
dural	14
bas	14
polyribosylribitol	14
finalisation	14
Sorafenib	14
strial	14
methylated	14
amer	14
Hives	14
Im	14
p-glycoprotein	14
gested	14
Gait	14
comfort	14
PURSUIT	14
76-@@	14
BRE@@	14
anuria	14
OLE@@	14
zlož	14
SK-821	14
Vic@@	14
rtL180M	14
crucial	14
Belgian	14
informal	14
bra@@	14
Fosaprepitant	14
Leydig	14
Cidofovir	14
lifetime	14
Fast	14
Reprezentan@@	14
volu@@	14
mitratapide	14
1YL-UK	14
494026	14
Vantas	14
kilo@@	14
lj@@	14
san@@	14
angiooedema	14
gest@@	14
016-@@	14
Cilag	14
glucurono@@	14
03-@@	14
caring	14
oxides	14
Eigh@@	14
felt	14
G03@@	14
11-fold	14
icam	14
clarification	14
yro@@	14
PHN	14
itating	14
embryofoetal	14
AVENTIS	14
boulevard	14
pre-dispensed	14
aft	14
chromocytoma	14
rex	14
phenprocoumon	14
incid@@	14
665	14
emptied	14
1100	14
.Β	14
LORZAAR	14
Numbness	14
vity	14
uk@@	14
far@@	14
Gy@@	14
ome	14
TCF	14
Srl	14
sept@@	14
mares	14
pharmacists	14
simpli@@	14
referring	14
911	14
innovation	14
DL	14
Poloxamer	14
Strep@@	14
.Ε@@	14
selegiline	14
individu@@	14
decay	14
sticker	14
EF	14
diaz@@	14
Casodex	14
PG@@	14
λλ@@	14
ην@@	14
Inst@@	14
Lip@@	14
lightly	14
tonsils	14
09.2001	14
LOW@@	14
offal	14
Lederle	14
482	14
inis	14
new@@	14
tensive	14
contusion	14
Electrocardiogram	14
li	14
Plas@@	14
FIRST	14
acet@@	14
predisposition	14
encouraging	14
antiemetic	14
binge	14
week@@	14
wav@@	14
etiology	14
1.45	14
wee@@	14
Thir@@	14
sk	14
Single-dose	14
STR@@	14
retinoid	14
ТП	14
6-7	14
center	14
convincing	14
immunization	14
Digestive	14
676	14
bore	14
Coombs	14
Shi@@	14
Get	14
neuropathies	14
Consol@@	14
idation	14
lump	14
phosphor@@	14
Haemophilia	14
Increasing	14
stakeholders	14
stat@@	14
BB@@	14
proteinaemia	14
tizanidine	14
ar-@@	14
0.015	14
cir@@	14
tamide	14
antiallergy	14
Produc@@	14
TSS	14
emia@@	14
triangular	14
mul@@	14
-0.5	14
wallet	14
Aug@@	14
olone	14
523	14
IU@@	14
19.9	14
Colitis	14
92@@	14
rotation	14
737	14
prevalent	14
instr@@	14
surgeons	14
Benzo@@	14
N-dealkylation	14
calibration	14
ylo@@	14
neostigmine	14
Fernando	14
SR	14
kalemia	14
AOM	14
ros	14
TUBE	14
enalaprilat	14
donor	14
12-14	14
ventil@@	14
BIC@@	14
MAO-B	14
DIC	14
bilirub@@	14
proline	14
unopposed	14
2,8@@	14
particulates	14
TV@@	14
tracts	14
RIS@@	14
chemicals	14
amentous	14
HYZAAR	14
ergic	14
virtually	14
peg@@	14
hemif@@	14
133.3	14
elli	14
spoonfuls	14
quet	14
Whether	14
deslorelin	14
eous	14
chronically	14
non-union	14
KGF	14
corresponded	14
iritis	14
lymphocy@@	14
ara	14
Agriculture	14
388	14
ет@@	14
TAB@@	14
Benzodiaz@@	14
observers	14
adrenoceptor	14
immunogenic	14
births	14
Device	14
dy	14
sterases	14
eta@@	14
Bucureşti	14
posi@@	14
vesic@@	14
prim@@	14
Prostate	14
confounding	14
lix	14
ith@@	14
etoposide	14
leukemia	14
antiarrhythmic	14
vide@@	14
EasyMIX	14
inconclusive	14
acetyl	14
double-	14
υ@@	14
Χ@@	14
ι	14
Αττικ@@	14
osmia	14
hype@@	14
23.0	14
peptid@@	14
SIZE	14
1.09	14
Trac@@	14
Localised	14
toilet	14
3g	14
Gerard	14
faecalis	14
Campylobacter	14
aerogenes	14
vulgaris	14
iu	14
PI-@@	14
Barbara	14
tumorigenic	14
Prague	14
accept	14
iditis	14
KFT	14
apar@@	14
DNA-@@	14
catech@@	14
olamine	14
I-201@@	14
contra@@	14
plaster	14
Significantly	14
Pegvisomant	14
cross-react	14
cycl@@	14
endoscopy	14
Lovastatin	14
Ioflupane	14
concentration-dependent	14
Fri@@	14
dobutamine	14
D-65926	14
1234@@	14
GVHD	14
downward	14
513	14
559	14
GHB	14
KEP@@	14
well-tolerated	14
nodosum	14
ρο@@	14
Docteur	14
pre-vaccination	14
post-vaccination	14
Ranolazine	14
linearly	14
swirled	14
splenectomised	14
samine	14
Frances	14
produk@@	14
Lymphadenopathy	14
atherosclerosis	14
RRR	14
thick@@	14
differentiated	14
DK-2100	14
marješ	14
522	14
stir@@	14
full-@@	14
stabilized	14
C-reactive	14
immunosuppressed	14
intern@@	14
18.5	14
methyldopa	14
reactivity	14
733	14
regulated	14
8820	14
fluoropyrimidine	14
omed	14
transdérmicos	14
98.8	14
Unscrew	14
atri@@	14
pers@@	14
71@@	14
advantages	14
unavailable	14
lessen	14
compres@@	14
meas@@	14
iling	14
filmtabletta	14
sle@@	14
rectomy	14
7-8	14
azole-@@	14
4.	14
annes	14
aved	14
retreatment	14
exertion	14
ACTRAP@@	14
Requests	14
-triphosphate	14
Paras@@	14
CYP2@@	14
chlormezanone	14
D-79@@	14
641	14
sol	14
FIN-00@@	14
Kornelia	14
О@@	14
lit	14
Squ@@	14
records	14
remind	14
glucocerebro@@	14
Behavi@@	14
SI2	14
antioxidant	14
stimuli	14
14.9	14
itus	14
bus	14
Lewy	14
manganese	14
somatostatin	14
HGD	14
graded	14
C12@@	14
vast@@	14
Suffolk	14
Ø	14
δα	14
migra@@	14
xx@@	14
applic@@	14
MARK	14
Frederiks@@	14
2700	14
Off-white	14
Lautrup@@	14
Eric	14
Rib@@	14
és	14
integration	14
amenorrhoea	14
logy-@@	14
stim@@	14
Norfloxacine	14
PF@@	14
adaptors	14
entary	14
Dolovet	14
grow@@	14
Royaume-Uni	14
Sha@@	14
0mg	14
lef@@	14
ctu@@	14
belching	14
yes	14
tively	14
rt	14
1.28	14
1.0@@	14
appended	14
quinazol@@	14
eller	14
presently	14
le.	14
THST	14
33.6	14
determinations	14
Standards	14
TRADENAME	14
five-@@	14
incubation	14
carers	14
post-dosing	14
chains	14
Experimental	14
30-	14
refilled	14
Temozolomide	14
inadvisable	14
Discuss	14
13-week	14
Seven	14
Re-administration	14
Danish	14
46.@@	14
elastomeric	14
fies	14
Wisconsin	14
metallic	14
30-40	14
Reduc@@	14
Nutrition	14
realise	14
tioned	14
Stock@@	14
ample	14
thrombus	14
gol@@	14
Asymptomatic	14
Laborator@@	14
mobil@@	14
5300	14
-off	14
kerato@@	14
diver@@	14
ticular	14
icillin	14
52-week	14
anth@@	14
h.	14
MN@@	14
24.0	14
306	14
tide	14
EST@@	14
mistaken	14
vacuum	14
Anti-inflammatory	14
eter@@	14
DUET-1	14
CYP2A6	14
uni@@	14
cheek	14
antitumour	14
rays	14
FIV	14
branch	14
2,9@@	14
assume	14
lotions	14
globinuria	14
ese	14
well-known	14
CAP@@	14
04.2000	14
antivirals	14
re-uptake	14
50-60	14
K88@@	14
enes	14
inadvertently	14
Mig@@	14
Tinnitus	14
gross	14
generics	14
Rules	14
opacity	14
mand@@	14
Budget	14
carboxylate	14
Enter@@	14
Gall@@	14
Four@@	14
orph@@	14
2.26	14
epirubicin	14
bi-@@	14
metering	14
virosis	14
dipalmito@@	14
417	14
NM	14
laxative	14
Effervescent	14
emission	14
1c	14
hen	14
scopic	14
Reserve	14
clock	14
Observ@@	14
drawing	14
versa	14
uraemic	14
awa@@	14
Lowering	14
31.0	14
SCINTIMUN	14
estr	14
gener@@	14
Different	14
	14
1975	14
Veterinär	14
filiā	14
lr	14
006@@	14
blood@@	14
ICU	14
phag@@	14
sized	14
DSM-IV	14
lacto@@	14
self-	14
19.3	14
ature	14
Chickens	14
classi@@	14
conta@@	14
migraines	14
sleepwalking	14
reminded	14
enables	14
cascade	14
955	14
Cox@@	14
alternatively	14
incorpor@@	14
alcohol@@	14
library	14
ep	14
itted	14
rhesus	14
WRAPPER	14
hydrolytic	14
BG	14
izing	14
CTP	14
14.4	14
arryth@@	14
deform@@	14
tetrahydro@@	14
hypertriglyceridemia	14
moul@@	14
antiproliferative	14
spreads	14
Baltic	14
fetuses	14
embryo-@@	14
Nem@@	14
blin@@	14
HAR@@	14
ectively	14
18.6	14
veien	14
sy	14
labile	14
Arterial	14
pleuropneumoniae	14
axis	14
adjudicated	14
mydriasis	14
market@@	14
hemihydrate	14
Pink	14
cri@@	14
haz@@	14
GEN@@	14
1-7	14
relationships	14
Agence	14
ARAN@@	14
Dyst@@	14
quicker	14
dep@@	14
093	14
0.55	14
andro@@	14
Heumann	14
Nephro@@	14
Cytochrome	14
Retapamulin	14
Chap@@	14
Agu@@	14
convened	14
Puteaux	14
Facial	14
lingu@@	14
overexpress	14
ison@@	14
ough	14
break-out	14
rijk	14
illin	14
TAN@@	14
LOORTAN	14
brac@@	14
weighted	14
preserv@@	14
866	14
yrs	14
solicited	14
morpho@@	14
rationale	14
reddish	14
Haemolytic	14
Haematologic	14
determines	14
ASI	14
WT	14
prescriptions	14
ankle	14
2008-EN	14
HANE	14
3.2002	14
Novo@@	14
stromal	14
fat@@	14
tch	14
не@@	14
Pertussis	14
transgenic	14
malnutrition	14
Cross	14
603	14
Neonates	14
R-1@@	14
trade	14
Gou@@	14
Telematics	14
STI@@	14
cyclo-oxygen@@	14
hes@@	14
fighting	14
acar@@	14
N1	14
WATHION	14
CB1	14
Inspectors	14
polyuria	14
unvaccinated	14
Hoofddorp	14
PCP	14
RESIST@@	14
isotope	14
22-@@	14
Shortness	14
certificate	14
needleguard	14
24.3	14
002-@@	14
Stearic	14
squeezing	14
milli@@	14
excitation	14
progeny	14
pencil	14
Tigecycline	14
annex	14
F-75013	14
describ@@	14
tili@@	14
cellaneous	14
E.@@	14
denti@@	14
116@@	14
burn	14
Irritability	14
353-@@	14
rej@@	14
2B6	14
neuraminidase	14
Proj@@	14
BX@@	14
stock	14
Pharmacologically	14
ZYME	14
AH	14
glottis	14
EFFI@@	14
microbubbles	14
yto@@	14
Trabectedin	14
served	14
catalyses	14
accelerate	14
Norton	14
arthro@@	14
ren	14
rating	14
t-to-@@	14
ethan@@	14
B02@@	14
adhesins	14
antidiabetics	14
myeloproliferative	14
Química	14
anorectic	14
mineralisation	14
worth	14
Smoking	14
thing	14
prise	14
well-lit	14
än@@	14
four-@@	14
High@@	14
meg@@	14
re-occurrence	14
non-myeloid	14
RECONSTI@@	14
hol	14
anda	14
Agomelatine	14
illed	14
810	14
antirheumatic	14
mini-@@	14
licensing	14
Resume	14
ographic	14
452	14
patch-free	14
filmdragerade	14
1084	14
gall@@	14
32.5	14
Multi-@@	14
alprazolam	14
Prav@@	14
uveitis	14
infectives	14
aerosol	14
P1	14
DEHP	14
Arrhythmia	14
IMMUNO@@	14
J01@@	14
Louvain-la-Neuve	14
decarboxylase	14
Recor@@	14
Ca	14
Exp	14
D1	14
1.5-fold	14
Sunday	14
listlessness	14
exist@@	14
UT@@	14
Terfen@@	14
Blo@@	14
Cap	14
Omeprazole	14
ί@@	14
echinocand@@	14
Gly@@	14
........@@	14
CPA	14
resist@@	14
LUD@@	14
B-1348	14
Recommendation	14
Expert	14
AGOPTON	14
ticlopidine	14
art@@	14
Various	14
HYPERGLYCAEMIA	14
HYPOGLYCAEMIA	14
CZ-110	14
Minister@@	14
nitroglycerin	14
addic@@	14
Dental	14
geno@@	14
655	14
las@@	14
fir@@	14
0.28	14
omer	14
crushing	14
Sore	14
EFFENTORA	14
Lactated	14
TORO	14
199.5	14
L4	14
Sau@@	14
Barrett	14
8EP	13
Berlin-Chemie	13
S.L.	13
extrasystoles	13
wn-@@	13
YEL-@@	13
atine	13
metered	13
mics	13
eso@@	13
secretarial	13
elec@@	13
lupus-like	13
ds@@	13
moniliasis	13
bosentan@@	13
Hörgatún	13
hook@@	13
platform	13
streptococci	13
asm	13
expansion	13
tana	13
thers	13
Lecithin	13
displace	13
λι@@	13
asis	13
indirectly	13
Trimethoprim	13
stimulants	13
Rasagiline	13
parenchymal	13
António	13
Algés	13
eder	13
15.9	13
FVF@@	13
indu@@	13
1.0-@@	13
-10	13
orgasm	13
dru@@	13
mobilised	13
mitted	13
rimal	13
Hypercholester@@	13
globinaemia	13
Contra@@	13
ems	13
6172	13
686	13
GF@@	13
Riquent	13
Sitaxentan	13
whatever	13
[...]
