#version: 0.2
e n</w>
e r
c h
e i
u n
e n
e r</w>
t i
i e</w>
a n
i n
d er</w>
t en</w>
ei n
o n</w>
m i
s ch
un g</w>
s t
l i
b e
g e
s i
a l
o n
d en</w>
e l
d ie</w>
c h</w>
a u
un d</w>
a r
o r
a ti
g en</w>
e h
v on</w>
d e
mi t</w>
t r
u r
i n</w>
i r
t e</w>
a b
d i
o l
n i
h r
t e
I n
ch t</w>
e t
an d
a s
v er
w er
i s
f ü
be i</w>
z u
r o
w en
e s
k ti
A n
o der</w>
ein e</w>
ati en
un gen</w>
P atien
w ir
t er
o m
g en
d e</w>
u s
Patien ten</w>
a m
S ie</w>
e b
i t
m g</w>
wer den</w>
n a
z u</w>
m a
r e
l a
ch en</w>
A r
ein er</w>
o si
ei t</w>
e s</w>
o p
is t</w>
V er
s p
m p
d a
S t
d er
fü r</w>
i er
c k
mi t
i sch
de s</w>
b er
l ung</w>
en t
li ch</w>
B e
0 0</w>
D ie</w>
ni cht</w>
g e</w>
w ur
au f</w>
m en</w>
g s
Ar z
u t
a p
r i
el l
on s
a t
r ei
t er</w>
B eh
e m</w>
u m
w ei
i l
S ch
ei n</w>
s e</w>
Beh and
j e
u l
wir d</w>
a ch
E in
li ch
ä n
un gs
ol l
a n</w>
E r
er h
k an
k eit</w>
f i
on en</w>
d ung</w>
da s</w>
n ei
g r
mp f
l ei
i e
h er
D osi
i m</w>
zu r</w>
s en</w>
al l
ä l
al s</w>
b i
nei mit
Behand lung</w>
l et
g er
s u
de m</w>
o r</w>
f or
A b
na ch</w>
z ei
r a
u m</w>
wir k
o h
ö r
te l</w>
0 0
ü b
n en</w>
r an
ab let
e p
St u
Arz neimit
ati on</w>
v i
e m
isch en</w>
s in
au f
m l</w>
z i
wur de</w>
z en</w>
k l
an ge
tr a
o f
o t
B l
üb er</w>
s oll
a hr
g t</w>
o x
ö s
W ir
p er
i ch
d ur
sin d</w>
0 ,
kti on</w>
In je
kan n</w>
Wir k
E U</w>
s am
en d</w>
en en</w>
wen dung</w>
e ch
bi s</w>
t el
di es
r u
R e
T a
t s
h al
a t</w>
kti ons
s ti
eb en
de t</w>
p r
. .
ge b
An wendung</w>
li e
d as
au s
D i
e u
A u
1 0</w>
A l
te t</w>
wur den</w>
l en</w>
a h
sch e</w>
ran k
das s</w>
ablet ten</w>
er en</w>
her ap
m e</w>
o b
t ei
e l</w>
P ro
ein em</w>
m m
w ie</w>
l e
s el
v or
Dosi s</w>
di en</w>
Bl ut
fü hr
as s
wen n</w>
f e
si ch</w>
l an
5 0</w>
na h
e mpf
a r</w>
ä r
d u
ein en</w>
Be i</w>
wirk ungen</w>
wen det</w>
eh men</w>
v or</w>
g er</w>
E n
h ar
E N</w>
si eh
g lei
w e
sch en</w>
ni t
on a
u s</w>
ö h
I hr
t ä
m er
k on
l e</w>
a c
h and
R i
sch nit
ä u
h ab
ös ung</w>
l as
w ä
om b
D a
sieh e</w>
li chen</w>
N a
b ei
Arzneimit tel</w>
k o
er ung</w>
st ell
st of
e ti
a f
kl in
Stu dien</w>
a ck
f en</w>
Arz t</w>
h äl
N eben
dur ch</w>
m en
g i
d o
si on</w>
g keit</w>
ö n
w i
te s</w>
h y
z en
un ter</w>
Inje ktions
be hand
Ab schnit
u r</w>
al e</w>
k t
tr e
lich e</w>
p p
f ol
soll te</w>
k ön
un den</w>
g lich</w>
un ter
U n
ü ber
H y
k eine</w>
k rank
d ar
ange wendet</w>
herap ie</w>
C H
H er
us s</w>
a li
D ur
isch e</w>
n ehmen</w>
z ier
g ung</w>
f l
E s</w>
s o
ati onen</w>
Neben wirkungen</w>
I n</w>
tr i
häl t</w>
au s</w>
ü n
h i
f la
ab rei
A us
o g
ma l</w>
- -
hab en</w>
Dur ch
4 .
f er
eh r</w>
Abschnit t</w>
Sch w
kti onen</w>
2 0</w>
m in
o l</w>
äu fi
a m</w>
W o
V or
ent hält</w>
p ro
A N
ge s
au ch</w>
0 00</w>
t en
r in
1 00</w>
H au
hr end</w>
n o
l o
G e
st er
en n</w>
n e
v ir
nah me</w>
behand el
I N
kön nen</w>
z y
M a
U N
I h
ox i
ge sch
K on
Ri si
ti s</w>
vi r</w>
D er</w>
D E
K in
r it
ch e</w>
d osi
3 0</w>
ti k
S y
ä m
L eb
si ch
Arzneimit tel
M i
t z
T abletten</w>
omb in
W enn</w>
d ro
erh öh
d en
eh r
er e</w>
f un
s y
Au f
sch wer
N ier
h o
wä hrend</w>
t a
v en
be s
and eren</w>
zu m</w>
om men</w>
E N
al en</w>
t ung</w>
E R
Ü ber
ü s
si er
empf oh
wei se</w>
har ma
st ech
kti v
2 00
a l</w>
ahr en</w>
glei ch
1 ,
erh al
ti gen</w>
.. ..
ob ach
I S
k t</w>
er s
w ar
it ä
Un ter
Leb er
ar t
Risi k
Durch stech
mer zen</w>
tr ä
w ar</w>
l in
ti on</w>
Durchstech fla
f u
sp re
ör per
F il
h in
Stu die</w>
en e</w>
m ö
h an
Nier en
2 5</w>
be obach
g an
tre ten</w>
w ie
ge l
M et
z w
en z</w>
klin ischen</w>
o li
tä glich</w>
l u
t om
zen tr
en s</w>
soll ten</w>
w ach
et z
A U
z e</w>
e v
sch af
ni s
ti ge</w>
k g</w>
P ack
ell en</w>
en den</w>
l ösung</w>
ti g
in n
I mpf
1 2</w>
lie ß
li n</w>
unter su
der n</w>
1 0
ti g</w>
M E
d in
r au
mi n</w>
mp tom
eh en</w>
e di
t abletten</w>
e x
st ör
for m
k in
ge gen</w>
Fil m
o s
ge h
sch ließ
K ombin
ur op
ver abrei
2 ,
or m
in d
c k</w>
a st
W ie</w>
Ein e</w>
T el</w>
g in
er g
z in
st än
dar f</w>
o v
itä t</w>
ah l</w>
Wo chen</w>
1 5</w>
Z us
P la
ge m
t hr
In fe
n e</w>
Wirk sam
ei t
or i
ein es</w>
el lung</w>
dur ch
ü ck
en de</w>
gen ommen</w>
Da ten</w>
St unden</w>
h äufi
st e
g lich
M P</w>
M en
beobach tet</w>
t h
In fu
Er krank
s ein</w>
ber ich
führ t</w>
stof f</w>
s ä
a s</w>
n ur</w>
for der
dies er</w>
G en
D o
S p
en z
pp e</w>
u b
F er
ge l</w>
t lich</w>
Ein nahme</w>
wen den</w>
Durchstechfla sche</w>
on der
z we
k ro
L ösung</w>
äm ie</w>
ü r
d r
ei ts
a k
T herapie</w>
Ih r</w>
ab e</w>
f a
Wirksam keit</w>
be l
ablet te</w>
s t</w>
ol og
Ta g</w>
h at</w>
all s</w>
E ME
ä ß
harma ko
ch ung</w>
a g
z eit</w>
x i
as e</w>
d a</w>
an ger
e -
gleich zei
stof f
all e</w>
y c
L i
mit tel
e k
al l</w>
Risik o</w>
i el
dosi s</w>
am men
An ti
m uss</w>
o m</w>
B er
4 0</w>
än der
b ar
Zus ammen
m ehr</w>
empfoh len</w>
er t</w>
6 0</w>
Da s</w>
k ehr
P las
sch merzen</w>
fol gen
1 9
Sy mptom
S T
1 8</w>
P ar
d in</w>
untersu cht</w>
EME A</w>
am m</w>
s a
Di es
k en</w>
-- --
ä h
d enen</w>
be st
s ie</w>
tr op
ein i
y l
zier t</w>
so wie</w>
q u
l ungs
st ellung</w>
h eit</w>
2 4</w>
t o
behandel t</w>
Kombin ation</w>
ti n
I E</w>
sch w
er forder
Inje ktion</w>
si cht</w>
mm un
v er</w>
war en</w>
an d</w>
E x
sp rit
dies e</w>
si g
ge wi
wach s
P r
verabrei cht</w>
st and
z el
Ihr en</w>
Film tabletten</w>
1 4</w>
d ri
Schw anger
d ru
DE R</w>
üs sen</w>
a vir</w>
is ch</w>
B E
z wei
En t
st u
M ona
ass ung</w>
In su
n t</w>
hal ten</w>
ge gen
a ktionen</w>
In ter
c eb
schließ lich</w>
Na tri
m üssen</w>
wei ter
I I
g te</w>
Arzneimittel n</w>
ol y
A R
spre ch
er weise</w>
c e</w>
8 0</w>
In form
f äl
B li
and ere</w>
stän di
ch l
b re
b it
k ar
p en
E urop
gr u
gr amm</w>
A B
ge führt</w>
Na ch</w>
ier t</w>
ge w
p ack
han g</w>
s ol
sch l
P ul
auf treten</w>
s en
Injektions lösung</w>
ie gel</w>
sti mm
ar z
J ahren</w>
b rin
T I
führ en</w>
mit tel</w>
eh mi
in -
tei le</w>
i ger</w>
do ch</w>
nis se</w>
C h
sch ie
Fer tig
V ir
un g
geb en</w>
ter i
at ten</w>
a b</w>
K örper
c i
etz t</w>
S ich
ein genommen</w>
de l</w>
G abe</w>
u t</w>
ein schließlich</w>
1 .
M on
Mi kro
S er
T ier
Pla ceb
stell t</w>
Schwanger schaf
zw ischen</w>
fun ktion</w>
ni e
f f
p ot
erforder lich</w>
P h
Dosi erung</w>
p o
ell e</w>
a ktiv
ti n</w>
Symptom e</w>
5 .
UN G</w>
or en</w>
Be stand
zei gt</w>
A L
m a</w>
Kin dern</w>
M it
Hy per
p ar
. E
si ons
empf ind
erhal b</w>
er krank
ei ten</w>
us k
Wirk ung</w>
Ver abrei
s or
brin gen</w>
na ch
zwe i</w>
be kan
ein mal</w>
m äß
k ap
er n</w>
wi ck
H äufi
zu sam
Pul ver</w>
Sich erh
stör ungen</w>
nie dri
kin eti
9 8</w>
- 2
pr o</w>
ati on
i c
s ul
oh ne</w>
A C
in tra
1 1</w>
sel n</w>
st er</w>
b ar</w>
an ti
1 2
N e
onder e</w>
Gen ehmi
m et
l l
T y
berich tet</w>
harmako kineti
ö ß
un d
ab oli
n eu
Dosi s
Ih nen</w>
a mi
es en</w>
ar b
C Y
Inform ationen</w>
v e</w>
p osi
d an
Behand lungs
ver kehr
erhal ten</w>
kon tr
T E
In verkehr
b l
ol li
t u
o se</w>
om p
us pen
f fi
ge sam
tr an
ar i
Inverkehr bringen</w>
st ens</w>
z ep
glei ch</w>
.... ....
gegen über</w>
em m
lie gen</w>
je doch</w>
.E .</w>
Aus sch
ges etzt</w>
f in
1 7
S S
H ep
e zi
h än
Do sen</w>
al er</w>
w or
V -
ge stellt</w>
Verabrei chung</w>
F äl
R E
s o</w>
v oll
m edi
be stimm
I mmun
isch er</w>
inn erhalb</w>
a si
o c
0 6</w>
tr o
u ten</w>
g ten</w>
Her z
S ub
J e
Ein nehmen</w>
Ta ge</w>
1 6</w>
Er wachs
st e</w>
Genehmi gung</w>
mö glich
e g</w>
ati ons
Insu lin</w>
ein nehmen</w>
G r
a tr
a kt
ungs mittel</w>
la g</w>
kon zentr
t l
ent sprech
U m
Schwangerschaf t</w>
Vor sicht</w>
L ös
ni fi
all erg
I .E.</w>
erh iel
h er</w>
et zen</w>
Dies e</w>
nifi kan
4 -
1 3
nah men</w>
ul är
be tr
be sch
Hau t</w>
Fertig sprit
g l
W ass
bre chen</w>
Erkrank ungen</w>
er ten</w>
Ihr em</w>
l än
g lichen</w>
G ru
trä gt</w>
gr und</w>
gr öß
h öh
4. 4</w>
G el
eb en</w>
n ung</w>
2 1</w>
ers ten</w>
z ahl</w>
sig nifikan
ber ei
uspen sion</w>
min de
rei ch
R it
a be
W ei
ge f
Natri um
S pr
2 8</w>
o gen</w>
in s
AN G
in i
Bli ster
B i
e t</w>
al y
Z u
lan d</w>
p l
H I
a te</w>
tei l
z ol</w>
m on
O N</w>
7 5</w>
G es
m us</w>
erhiel ten</w>
e c
lich keit</w>
sy st
mäß i
K rank
folgen den</w>
ar k
Mikro gramm</w>
e st
arz neimit
te m</w>
O R
las sen</w>
K ap
ffi zi
ä ch
Ver gleich</w>
N eu
ver b
ech sel
Hau t
rin ger
behandel ten</w>
b a
J ahr
tä t</w>
durch geführt</w>
9 7</w>
G eb
er k
J u
Her stellung</w>
ü t
um an
dies en</w>
gin n</w>
r än
F l
Europ ä
s ons
Placeb o</w>
minde stens</w>
b en</w>
CY P
0, 5</w>
en ie</w>
zusam men</w>
la ge</w>
e g
au er</w>
Infu sions
Ein zel
voll ständi
Rit ona
o zy
Bestand teile</w>
eu ti
0 7</w>
kontr olli
f ahr
be trägt</w>
p f
o i
best eh
n te</w>
f all</w>
v om</w>
Al l
b il
N ov
ger in
Pack ung</w>
Zusammen hang</w>
op f
in di
Infe ktionen</w>
ge fü
S ti
rau en</w>
1 3</w>
M I
oxi z
P V
p er</w>
el l</w>
el n</w>
T ablette</w>
er te</w>
p i
F rauen</w>
f alls</w>
spre chen</w>
et w
ur e</w>
er i
ffizi enz</w>
intra ven
0 1</w>
ü f
o gen
, 5</w>
N ut
ü h
k eits
m ale</w>
bei m</w>
W as</w>
r on
m ei
IS T</w>
no ch</w>
Pack ungs
Spr it
In sul
mi s
i en</w>
empfoh l
Re aktionen</w>
fun ktions
D e
an ce</w>
Plas ma
9 0</w>
D ar
k te</w>
hy dro
S i
2 00</w>
k a</w>
7 0</w>
B es
ne t</w>
1 -
b in
Wass er</w>
Al ter</w>
r es
m b
Ritona vir</w>
Arzneimittel s</w>
s etzen</w>
at h
s ten</w>
möglich erweise</w>
Dosi er
CH MP</w>
bekan nt</w>
Ihr e</w>
F or
ör per</w>
ati tis</w>
art an</w>
pack ung</w>
b en
re i</w>
al t
v a</w>
d ür
hr omb
ch en
gen d
ge le
ver ur
su ffizienz</w>
s ehr</w>
0 2</w>
F ü
rei g
Gru ppe</w>
v en</w>
zwei mal</w>
A c
hän gi
Kon zentr
M y
t s</w>
s -
be ein
zei ch
r el
w o
d -
w ich
9 5</w>
häufi g</w>
K no
Bl ut</w>
ä di
su b
ö ch
b zw
gewi cht</w>
bzw .</w>
W A
ab er</w>
sch er</w>
gru ppe</w>
z un
fe st
Lös ungsmittel</w>
on ie</w>
1 8
st an
sp ezi
z ur
er fol
en k
Wo che</w>
I m</w>
stell en</w>
chl ori
F la
st a
Pro t
A T
sch ein
5 6</w>
p h
In hal
2 2</w>
L an
E reig
stell e</w>
H in
1 4
Men schen</w>
re du
n ten</w>
b t</w>
eti n</w>
w oh
AU F</w>
F i
em b
P R
Mona te</w>
ma n</w>
P oly
O r
A S
dru ck</w>
Jahr e</w>
o g</w>
wen iger</w>
T hromb
dür fen</w>
W ar
ch t
Infe ktion</w>
A M
Ver f
for mi
tei l</w>
o d
Fertigsprit ze</w>
el t</w>
- H
2, 5</w>
3 ,
sp iegel</w>
en t</w>
Hy dro
ho sp
Wirk ungen</w>
ot herapie</w>
h oh
bes s
wie gen
M in
Sch merzen</w>
1 7</w>
lei ch
L I
1 5
a d
oxiz ität</w>
k ut
a zi
9 6</w>
3 00</w>
le ar
N i
äh n
auf ge
A -
Je de</w>
ver wendet</w>
un de</w>
P ers
f r
L y
Insul in
3 5
te ten</w>
B el
w a
U r
per i
er w
pp en</w>
O N
M usk
K r
s sen</w>
v u
Erkrank ung</w>
ün sch
i tis</w>
ati n
n orm
ge geben</w>
Körper gewicht</w>
og l
1 9</w>
rei ch</w>
te m
sier t</w>
k ation</w>
wei ß
Met aboli
fü g
---- ----
- C
I R
lear ance</w>
1 6
Di abe
etw a</w>
ati n</w>
A ktiv
L u
AB EN</w>
o b</w>
Ver änder
9 9</w>
4 5</w>
ab hängi
W EN
Infu sion</w>
u g</w>
o f</w>
5 00</w>
s e
ge zeigt</w>
D y
ANG ABEN</w>
p ri
µ g</w>
Ges am
intraven ö
verur sa
h atten</w>
sp ro
Ber ei
1 50</w>
of f
sti eg</w>
Erwachs enen</w>
ch ti
Wirk stoff</w>
Pro du
t ablette</w>
Kin der</w>
bes ondere</w>
sä tz
formi eren</w>
An tik
s el</w>
i ge</w>
r en
ni s</w>
Sch l
H äm
wirk sam
stör ung</w>
a ten</w>
Er geb
an wenden</w>
zu ck
st är
B .</w>
3 3</w>
in e</w>
art kap
Pr ä
st ü
erhöh t</w>
Er brechen</w>
a x
0 -
p un
Ü bel
ß nahmen</w>
ver ringer
schwer en</w>
si st
P harmakokineti
P en</w>
Übel keit</w>
di es</w>
M ut
F Ü
schwer er</w>
ma b</w>
st h
ona l</w>
ma li
auf grund</w>
all en</w>
a ktion</w>
arzneimit tel</w>
fi l</w>
3 5</w>
d rei</w>
h l</w>
entsprech end</w>
n dro
a x</w>
Q u
min der
wei s
er rei
k örper
pr es
H artkap
i hr
Fäl len</w>
län ger
Kno chen
in en</w>
ei te</w>
FÜ R</w>
Sprit ze</w>
M edi
An zahl</w>
Sicherh eit</w>
g on
E L
sons tigen</w>
ent wick
stu dien</w>
k ombin
F alls</w>
ter e</w>
posi tion</w>
Packungs bei
tr au
si erung</w>
Z ei
zu sätz
pr ä
Häufi gkeit</w>
4 8</w>
Z U
3 7
o mi
T ran
wer te</w>
ä hi
u li
e f
ent halten</w>
Ta gen</w>
w ahr
h au
W el
Impf stoff</w>
ver sch
H ar
Fü r</w>
lich er</w>
rän k
ein gesch
E IN
3 1</w>
ra t</w>
Er fahr
0 8</w>
woh l</w>
R es
f an
W echsel
Packungsbei lage</w>
erhöh te</w>
h in</w>
for t</w>
ver änder
Ser um
4 00</w>
h ol
S uspension</w>
D a</w>
vu din</w>
us t</w>
G lu
F ra
A tem
ar k</w>
ver füg
sä ure</w>
tra t</w>
s ch</w>
eh l
Be ginn</w>
z er
f ach
HI V-
Nieren funktion</w>
Europä ischen</w>
ti ger</w>
ach ten</w>
I r
h eiten</w>
UN G
H al
sel ten</w>
M A
Ju gend
ah r</w>
tik a</w>
st ei
o -
E T
über wa
m ehr
fer on</w>
8 4</w>
f t</w>
en der</w>
K opf
for t
ber eit
Unter su
UN D</w>
we der</w>
and er
K om
N or
Mona ten</w>
PV C</w>
00 1</w>
erw ünsch
or d
Ta bel
Ar bei
m an
4 4</w>
R ück
i gen</w>
es t</w>
es s
Nut zen</w>
g ungen</w>
g liche</w>
zei chen</w>
p t
2 -
b an
Pharmakokineti k</w>
gen tlich</w>
M il
sub kut
An stieg</w>
ch ungen</w>
F ol
ar d
Er höh
z ogen</w>
V i
m ul
eben s
ah l
weiter e</w>
op h
klin ische</w>
4 ,
gleichzei tige</w>
tei lung</w>
U ni
m el
dru ck
bin dung</w>
K an
ch ten</w>
erkrank ung</w>
dies es</w>
y k
k ons
Men ge</w>
Inhal t</w>
or ti
Ty p</w>
betr ug</w>
2 3</w>
R ep
on e</w>
mis sion</w>
di en
Nov o
aly se</w>
II I</w>
ün dung</w>
w el
chlori d</w>
i l</w>
Über empfind
er war
ei g
au ch
W in
la s</w>
3 2</w>
T ei
H uman
E mpf
zei t
bar keit</w>
R I
C i
AU C</w>
z ü
um ini
re atin
f a</w>
Durchstechfla schen</w>
tran s
ch ron
C P
Tabel le</w>
Au gen
t op
C learance</w>
wirk ung</w>
da her</w>
5 -
j e</w>
W IE</w>
R atten</w>
Blister packung</w>
ver l
p assung</w>
S it
B ru
k ommen</w>
aus gesch
U M
stoff e</w>
Al umini
it t</w>
Hep atitis</w>
ma x</w>
Hy p
oxi d</w>
P har
wor den</w>
E f
j i
h ö
Bel gi
k om
be din
P atr
let z
Fi eb
Ex position</w>
A gen
k ulär
in suffizienz</w>
gr a
on -
ein ge
ck e</w>
F lu
Ereig nisse</w>
2 6</w>
ins besondere</w>
bit te</w>
Musk el
Kon tr
sch lag</w>
ox ac
wen di
oll e</w>
di enen</w>
sy ste
fl us
besteh t</w>
Sch la
Gesam t
ot wendi
B a
An zeichen</w>
al fa</w>
5 ,
T herap
wirk t</w>
ver glichen</w>
e li
un erwünsch
S eite</w>
errei cht</w>
ck en</w>
Di es</w>
Z eit</w>
Ma sch
lan t
aus reich
Diabe tes</w>
gewi esen</w>
Z y
Win thr
gi bt</w>
Er y
s k
ma xi
H R
o p</w>
k ein</w>
2 7</w>
0 4</w>
behand lung</w>
S u
0 5</w>
hal b</w>
Min uten</w>
k ur
so fort</w>
- W
ier ten</w>
lei den</w>
g lie
re gel
hi azi
0 3</w>
empfohl ene</w>
Masch inen</w>
A L</w>
wie der</w>
ndro m</w>
zü glich</w>
s at
Z ul
. 000</w>
g -
200 1</w>
t t
pro du
Ent wick
o ti
k oh
ge s</w>
WA S</w>
6 5</w>
4 9</w>
klin isch</w>
ab en</w>
Fla sche</w>
Bi o
Winthr op</w>
3 6</w>
h at
Kopf schmerzen</w>
fi zier
f rei
i d</w>
N ahr
or p
gleichzei tig</w>
E I
be vor</w>
a .
R ap
it te</w>
f ar
ar d</w>
B en
2 000</w>
der en</w>
f assung</w>
P fla
3 A
wer t</w>
lan z
konzentr ationen</w>
tra ten</w>
l len</w>
erkrank ungen</w>
Ergeb nisse</w>
zep t
op p
gen an
Sub stan
tra gen</w>
Z ur</w>
mit tl
Fieb er</w>
ß er
schw an
ün d
v as
T ri
schwer wiegen
Aus gan
ä hr
zu ge
ut z
o di
Ef fe
A CH
3 6
w öch
t herap
st and</w>
M ahl
B et
tei len</w>
E in</w>
fl oxac
M ar
A pp
schwer e</w>
In du
Blut zuck
ak teri
En tz
sch ei
fl u
D ah
wie der
sol l</w>
mi sche</w>
L un
Dah er</w>
ev an
3 4</w>
A P
Thromb ozy
te d</w>
sier ten</w>
dar auf</w>
tr et
ra te</w>
mö glich</w>
hy la
Pro ban
g fäl
ona zol</w>
hö her
Proban den</w>
zy me</w>
Fl üs
R o
Dosis an
kontrolli erten</w>
el ten</w>
dan n</w>
Injektions stelle</w>
ta z
S .
O ber
syst em</w>
af er
T ra
s etz
vir in</w>
ier te</w>
Hartkap seln</w>
ä ß</w>
z ellen</w>
D es
trau m</w>
bereit s</w>
P harma
C om
ti tu
erh äl
Ir bes
sor gfäl
T EN</w>
Patien ten
........ ........
ab in</w>
sti n
em s</w>
A V
st eh
P ra
All gem
1 000</w>
kons titu
k am
zei gte</w>
r h
gesam t</w>
e d</w>
dosi erung</w>
a -
lo ssen</w>
h ek
C y
t liche</w>
in ji
ver minder
d auer</w>
G l
A R</w>
ot en
bei den</w>
emm er</w>
Irbes artan</w>
d .</w>
aus ge
Z i
Sti ll
y s</w>
kar di
Risi ko
Berei ch</w>
o ber
k eiten</w>
d y
sch n
op ro
L ab
6 .
3 -
Infusions lösung</w>
Auf treten</w>
H u
Sch wer
N ach
Kap seln</w>
wei sen</w>
st at
ge eig
L eu
2 9</w>
v ast
A D
A pot
pun kt</w>
chl or
T um
Apot hek
ac t
rau ch
hi bit
än n
st herapie</w>
d ün
K reatin
t ur</w>
em e</w>
R et
g ri
be gr
D ep
C o
gs ten</w>
sich ts
regel mäßi
al fa
t lichen</w>
Bes ondere</w>
A mp
gefü hl</w>
wen d
verb unden</w>
i s</w>
empfind lich</w>
abhängi g</w>
2 8
ap in</w>
Leber funktions
tr itt</w>
ol e
k um
g s</w>
Ver bindung</w>
ath ie</w>
an e</w>
si onen</w>
Ver schl
k r
in del</w>
gru ppen</w>
a z
Na del</w>
Arbei ts
2 .
i v
G mb
zei gten</w>
Haut aus
as ti
ie der
6 ,
über geh
ter n
mi schen</w>
Patien t</w>
Film tablette</w>
Aussch uss</w>
zi ehen</w>
k einen</w>
ich t
floxac in</w>
ast ro
glich keit</w>
F OR
Ri ba
Har n
beein flus
Veränder ungen</w>
Risik en</w>
Inter feron</w>
Ma gen
E -
N ehmen</w>
Blut ungen</w>
s am</w>
St ör
zier en</w>
r a</w>
lan g</w>
f or</w>
ter en</w>
ri eben</w>
J ahr</w>
4. 2</w>
u te</w>
I L
C l
Bru st
2 7
C O
mi l
indi ziert</w>
S ehr</w>
tin nen</w>
E X
Injektions na
m s</w>
f en
eini gen</w>
Phar ma</w>
V al
Schw indel</w>
0 8
lie gt</w>
hy l
Entwick lung</w>
Über wach
st ri
bes onder
4 6</w>
T h
posi ti
p e</w>
L ami
Impf ung</w>
Ar thr
200 2</w>
f fen</w>
en te</w>
au t</w>
Patien tinnen</w>
Neu trop
i mm
T -
L ev
ul ation</w>
p harmakokineti
m ark
bl ut
3 9</w>
überwa cht</w>
kt or</w>
in formieren</w>
as e-
Mit glie
signifikan t</w>
nach gewiesen</w>
schwan ger</w>
ein zel
Gmb H</w>
CYP 3A
er at
Pers onen</w>
Aktiv ität</w>
2 50</w>
L ei
oxi b</w>
ot hiazi
chlor othiazi
Zei traum</w>
Injektions zwe
Ch em
M or
A .</w>
führ ung</w>
bi o
M an
CP MP</w>
C al
T i
medi zin
el b
Blut druck</w>
g il
f ra
fl uss</w>
Wei tere</w>
S CH
Hydro chlorothiazi
E P
B auch
fin den</w>
Still zeit</w>
m 2</w>
allerg isch</w>
t enen</w>
L t
Sy st
ar bei
L L
alfa -2
Wechsel wirkungen</w>
T R
Apothek er</w>
p ti
olog ischen</w>
ar e</w>
olog ische</w>
k ali
erhäl tlich</w>
c et
bil dung</w>
konzentr ation</w>
Mi x
m e
h eits
O R</w>
Kom mission</w>
En d
Re aktion</w>
Injektionszwe cke</w>
F akt
E is
00 2</w>
gesam ten</w>
ein gesetzt</w>
st ra
je wei
Riba virin</w>
A m
ei m</w>
IS T
D auer</w>
An sprechen</w>
vast atin</w>
hab er</w>
fäl le</w>
stär k
il l
f arb
bar en</w>
Z eit
Ausgan gs
ö ff
v e
w w
ati ve</w>
ßer dem</w>
zuge lassen</w>
dies em</w>
sp r
d on</w>
S te
P eg
Met for
Her zin
imm er</w>
An gi
1. 000</w>
ent weder</w>
K omp
in te
Zusammen fassung</w>
ob en</w>
tran sp
an zu
am p
Überwach ung</w>
yc in</w>
ti gt</w>
ent z
Krank heit</w>
rel evan
Ni cht</w>
Pfla ster</w>
therap euti
sch rei
Jugend lichen</w>
In tr
B -
Über dosierung</w>
p la
K ar
In di
Fäl le</w>
7 4</w>
ß e</w>
i li
Ly mp
on i
fl ä
Z um</w>
and omi
4 2</w>
der ung</w>
lei cht</w>
begr enz
t nis</w>
Dosisan passung</w>
über empfindlich</w>
kti on
K lin
6 00</w>
ä tz
ier ung</w>
P i
K örper</w>
de ut
Unter schie
es sen</w>
spezi f
je dem</w>
f e</w>
R ei
t ali
G em
ma t
eini g
P an
D N
w as</w>
met aboli
da mit</w>
berei tung</w>
O P
S al
G E
ver gleich
stu die</w>
tel n</w>
an z
4. 8</w>
m al
us s
ch es</w>
4 7</w>
n otwendi
p en</w>
Lab or
W ach
d rat</w>
sa gen</w>
eingesch ränk
E t
Ver wendung</w>
4 3</w>
zun ehmen</w>
Lan g
I -
C max</w>
j u
V ER
An ämie</w>
ß en</w>
gr asti
erfol gen</w>
Re du
erhöh ten</w>
c ro
U SS
Sy ndrom</w>
Hyper t
ti er
mei den</w>
Mut ter
ver schie
den z</w>
W ä
Kr eb
et t
M erk
ni cht
c it
F all</w>
Ar t</w>
ut sch
Wä hrend</w>
M P
Therap ie
Lun gen
u mp
P harmako
zei gen</w>
verursa cht</w>
vi er</w>
a min</w>
Met ho
ver s
ri ch
WEN D
8 ,
T e
Aus wirkungen</w>
re p
in fe
a fil</w>
alfa-2 b</w>
te te</w>
li k
1, 5</w>
grasti m</w>
it an
Ihr er</w>
ähi gkeit</w>
a. e
De utsch
A t
A N</w>
Z ellen</w>
Kin d</w>
Deutsch land</w>
Al koh
ev a</w>
bestimm t</w>
Merk male</w>
Antik örper</w>
ges unden</w>
Mon otherapie</w>
st ung</w>
p hosp
b wer
Wach st
R ah
5 5</w>
ä f
osi gkeit</w>
Erhöh ung</w>
4. 3</w>
T N
sich tlich</w>
r auch</w>
hal ten
Re fer
Leb er</w>
In haber</w>
ie gel
am et
T re
An hang</w>
ol u
E i
n g</w>
k omp
Re zept
Hautaus schlag</w>
os e-
kar zin
am in
ER EN</w>
Dosier ungs
Abschnit te</w>
l s</w>
be zeich
T oxizität</w>
I I</w>
4. 5</w>
k or
ent sp
I D
Ci pro
Be dienen</w>
00 4</w>
ter n</w>
st ati
Nieren insuffizienz</w>
Gel e
AC K
r andomi
y -
wahr schein
Verf ahren</w>
li t
chti gkeit</w>
berich teten</w>
5. 2</w>
4 1</w>
Ä n
olog ie</w>
b u
o ten</w>
kön nte</w>
Konzentr ation</w>
Hau pt
00 3</w>
po etin</w>
men t</w>
Z ahl</w>
ver ges
pr ol
en n
eingeschränk ter</w>
beein trä
Rah men</w>
ogl ob
ah me</w>
T o
P ACK
C V
pr üf
d au
Ph en
är en</w>
em e
Stu dien
H um
9 ,
zi denz</w>
ole ster
en ten</w>
all ein</w>
3 7</w>
zur ück
wieder hol
gem äß</w>
z ol
l ebens
f il
ie l</w>
th e</w>
stell er</w>
pri m
lan gs
UNG EN</w>
Hy pot
1 20</w>
em a</w>
Agen tur</w>
ver wenden</w>
li p
Vir afer
In hibit
g ro
c a
ausgesch ie
Lang zeit
Erfahr ungen</w>
al og</w>
Unter nehmen</w>
T el
stän den</w>
inte stin
Konzentr ationen</w>
gleichzei tiger</w>
gen e</w>
ge lan
de s
an t
a d</w>
Blutzuck er
An weis
tik el</w>
s h
i g
g re
es e</w>
S U
t ungs
si e
b ro
D -
sorgfäl tig</w>
B itte</w>
V ON</w>
Ä USS
sat z</w>
T ro
M ehr
u la
häufi gsten</w>
führ te</w>
f ass
Uni on</w>
n ation
G ra
ung sp
st ehen</w>
asi s</w>
z ell
lei tung</w>
form ation</w>
E p
folgen de</w>
a u</w>
Mitglie d
Ge wich
D ox
ver meiden</w>
ma ßnahmen</w>
UM H
Ba y
op fen</w>
di p
Leber funktion</w>
fest gestellt</w>
b e</w>
An fan
ö sen</w>
Ü LL
w is
UMH ÜLL
p her
ier en</w>
mp erat
m er</w>
h l
ci um
syst ems</w>
ck en
bl eme</w>
O lanz
op i
UMHÜLL UNG</w>
ausgeschie den</w>
stof fen</w>
ep ti
dr ück
är e</w>
P re
Durch fall</w>
10 .000</w>
pres si
notwendi g</w>
di s
as p
ä s
s uspension</w>
H unden</w>
ster oi
ami d</w>
Ver l
Untersu chungen</w>
G las</w>
2 0
Pr üf
Hin weise</w>
Arz tes</w>
ri cht</w>
6 4</w>
z eb
empfohl enen</w>
Ver bess
Glu c
teil t</w>
ra cht</w>
Ta ges
Bli ster</w>
5. 1</w>
Or gan
K al
Bay er</w>
pack ungen</w>
Ery thr
ag no
ü di
Nieren funktions
K o
Hypert onie</w>
An tra
z .
sy mptom
Ur in</w>
7 ,
mi sch
g abe</w>
H M
kon tra
bi li
bestimm te</w>
P er
g aben</w>
Hum alog</w>
5 2</w>
äl teren</w>
t herapie</w>
S -
wi esen</w>
fa vir
ent lich</w>
b ru
E favir
verges sen</w>
W IR
M üdi
K at
B r
k ul
er wachs
vi tr
h uman
f ahren</w>
In zidenz</w>
Al u</w>
so wohl</w>
le gen</w>
ben ö
Metfor min</w>
B o
we gen</w>
ger inn
Gewich ts
wo bei</w>
n eh
R a
Blut druck
re tro
er n
allerg ische</w>
Chem otherapie</w>
körper chen</w>
ins gesamt</w>
her vor
S tr
Impf stoff
Ihr es</w>
B il
ogl yk
n äch
lich keits
y l</w>
P o
N er
A sth
x y
tre x
sy ch
geb enen</w>
ge zogen</w>
art on</w>
-------- --------
Blut körperchen</w>
ra zol</w>
h .</w>
ati ven</w>
Ph ase</w>
Müdi gkeit</w>
3 8</w>
astro intestin
K üh
ger n</w>
Ein fluss</w>
g ie</w>
Pro p
olu men</w>
d el
For m</w>
ÄUSS EREN</w>
vi gil
Z un
L -
B R
führ ten</w>
Dep res
Be sch
kombin an
be w
S a
An wend
vollständi ge</w>
ur en</w>
sp or
sich er
e tr
ri x</w>
kap pe</w>
über wie
d ir
Kon tra
8 00</w>
vor übergeh
u e</w>
höh er</w>
d om
T en
Be ur
gr es
wahrschein lich</w>
je der</w>
a ch</w>
trop in</w>
re aktionen</w>
pot en
W or
Schl uss</w>
N am
ul f
Alumini um
st r
p ass
eben falls</w>
wel che</w>
s op
om ycin</w>
Ma ßnahmen</w>
E m
sieh t</w>
sen schaf
in ter
St and
erk en
ent nehmen</w>
Geb rauch</w>
äh r</w>
z. B.</w>
setz ung</w>
or gan
be ginn</w>
a vir
En de</w>
E L</w>
gef ähr</w>
Ret ard
H emm
Ein heiten</w>
ro du
Pro te
Pharmako vigil
F ach
5 1</w>
pf er</w>
o s</w>
is ten</w>
ass ungs
Z ell
Olanz apin</w>
Mahl zeit</w>
Erwachs ene</w>
Cipro floxacin</w>
A d
mer n</w>
b li
ar at</w>
G li
E li
x a</w>
ungs mittel
Vir us
Sp iegel</w>
Efavir enz</w>
zu mab</w>
om men
ich te</w>
da t
berei ch</w>
V or</w>
I N</w>
Gele gentlich</w>
E S</w>
v a
un ver
mil ch</w>
prol og</w>
or alen</w>
gen den</w>
Li prolog</w>
CYP 2
A G
ell er</w>
Injektions suspension</w>
HR EN</w>
wirk sam</w>
verursa chen</w>
of o
O per
AU F
ox etin</w>
be u
Ver kehr
stü chtigkeit</w>
retro vir
erhöh en</w>
Kontr olle</w>
I CH
Häufi g</w>
G er
ü l
ten e</w>
z er</w>
stü tz
ach tet</w>
Natri um</w>
la st
D en</w>
Arthr itis</w>
k am</w>
Verkehr stüchtigkeit</w>
IN DE
Dosier ungen</w>
Stör ungen</w>
Plas ma</w>
Neutrop enie</w>
Tei l</w>
T est
po st
ange l</w>
M S</w>
H B
0, 9</w>
peri pher
aus sieht</w>
Kombin ation
Häm oglob
soll en</w>
mei sten</w>
fol gt</w>
ei ch
Rep rodu
Plasma konzentrationen</w>
c in
ander er</w>
Verbess erung</w>
H e
st ab
si gkeit</w>
letz ten</w>
B u
Auf grund</w>
Anti bio
flu enz
5 4</w>
li taz
i g</w>
as sen</w>
Antik örper
k al
gefü ll
d opp
ausreich end</w>
in avir</w>
I C
Europä ische</w>
Vor teile</w>
P or
Blut gerinn
sier te</w>
ran k</w>
Lami vudin</w>
BE H
Anfan gs
geh ör
aktiv en</w>
Sicherh eits
K ali
schl uss</w>
mperat ur</w>
la gen</w>
Mutter milch</w>
wei s</w>
ter ung</w>
ma to
in du
5 8</w>
wen de
vollständi g</w>
jewei ls</w>
d eln</w>
Kon ta
I S</w>
6 7</w>
de u
Küh l
re kombinan
ma il</w>
ger ung</w>
Ma g
. 0
öh n
wer tung</w>
anti retrovir
S IE</w>
P s
AL T
verl ust</w>
k el
g reich</w>
Eli min
ACH TEN</w>
un gefähr</w>
ent an
wä che</w>
gen en</w>
T r
Pla zeb
sti llen</w>
sel tenen</w>
S eh
Metaboli ten</w>
mittl ere</w>
Substan zen</w>
w echsel
bwer ts
Ty p
St a
M INDE
MINDE ST
Ab setzen</w>
pharmakokineti schen</w>
Er hal
CV MP</w>
be t
MINDEST ANGABEN</w>
Vir us</w>
I mp
hin sichtlich</w>
g ut</w>
b ung</w>
ange zeigt</w>
di oxid</w>
c a</w>
U l
T A
Entz ündung</w>
or ale</w>
größ ere</w>
gele gt</w>
gan g</w>
H a
Überempfind lichkeits
Ä L
ni b</w>
anzu wenden</w>
norm al
o zi
gew öhn
di o
as se</w>
U L
O L
En zy
Dies es</w>
op har
lant ation</w>
do sen</w>
d rei
Hypot onie</w>
Fakt or</w>
J an
rei z</w>
isch es</w>
flä che</w>
empf ahl</w>
H AN
200 6</w>
hoh en</w>
6 6</w>
ö tung</w>
top enie</w>
on e
in tr
M ö
ädi atr
y n</w>
kontra indiziert</w>
en -
ein zunehmen</w>
W O
K ö
Ab nahme</w>
zu führen</w>
weiter en</w>
ant wor
T eva</w>
H and
BEH ÄL
zwei ten</w>
z ö
h il
be den
Anwend ungs
häl tnis</w>
fach e</w>
W ieder
Li mi
K l
Ge sch
oh y
kon nte</w>
besch rieben</w>
Tum or
Tier arzneimittel</w>
Res orp
Human arzneimittel</w>
h e</w>
Hydrochlorothiazi d</w>
BEHÄL TN
ta gon
n er</w>
Vor sichts
F in
ver hin
in fizier
L e
Hyp oglyk
H o
geh en</w>
W erte</w>
6 1</w>
s er
op o
mel z
gele gentlich</w>
einig tes</w>
P ur
wis senschaf
s ei
or aler</w>
et t</w>
SS EN</w>
Kühl sch
00 5</w>
ück sich
mi d</w>
Limi ted</w>
tra cht</w>
ri gkeit</w>
orti ko
hi er</w>
gelan gte</w>
erwachs enen</w>
Ju ck
F L
su chen</w>
litaz on</w>
F -
Einzel dosis</w>
00 8</w>
Überempfind lichkeit</w>
inji ziert</w>
ne um
j a</w>
gen au</w>
Sch melz
Re konstitu
Herzin suffizienz</w>
C ep
00 7</w>
zu stellen</w>
z e
unerwünsch ten</w>
eini ge</w>
Ge f
ti sche</w>
op er
el o
Dy sp
nis sen</w>
hau p
bew ahren</w>
Verf all
Lan sop
1 .</w>
ap hyla
ange gebenen</w>
BE WA
9 1</w>
st ro
geeig ne
ati onal</w>
V it
Patr onen</w>
ver si
ho ch
bwerts zeit</w>
as en</w>
WEN DE
S ulf
Allgem einen</w>
6 -
ver ord
m t</w>
entsp richt</w>
B ei
orm on</w>
m alen</w>
Patr one</w>
dat um</w>
cit abin</w>
WIR D</w>
Juck reiz</w>
z eu
ten si
durch schnit
ab zu
O b
v ari
redu ziert</w>
U R
ähn lich</w>
nicht -
hydro xi
hin aus</w>
ch e
besonder s</w>
Re sist
I X</w>
BEWA HREN</w>
6 9</w>
unter schie
F un
vergleich bar</w>
sen k
op athie</w>
lich es</w>
cet ax
Wachst um
M el
Do cetax
B ar
vollständi gen</w>
re ch
as en
Wor tl
Um k
Tier en</w>
F rank
ov as
ot ox
War um</w>
N orm
i sierung</w>
Kühlsch rank</w>
t ö
p o</w>
erhöh tes</w>
b r
ZU BEWAHREN</w>
V OR</w>
0, 3</w>
sch üt
ech an
Wo für</w>
Ver ringer
AUF ZUBEWAHREN</w>
orm on
o ck
neu e</w>
Schw ellung</w>
R is
Mitglied sta
mul ti
m y
es ie</w>
Wirk stoffe</w>
Blister packungen</w>
schaf ten</w>
a din</w>
K ol
überwie gen</w>
gl yc
WENDE T</w>
ANG E
Pack ungen</w>
MI T
on at</w>
geb oten</w>
Ne ur
Beur teilung</w>
su p
TI ON</w>
Kreatin in-
Gr und
ANGE WENDET</w>
7 ,5</w>
0, 1</w>
ts äch
st ark</w>
lo ck
lei tet</w>
is mus</w>
fü gung</w>
bar e</w>
Wortl aut</w>
Belgi en</w>
Mil li
8 6</w>
7 2</w>
to se</w>
haup tsäch
farb lo
b lei
Zeit punkt</w>
S tra
G eh
E tik
us ten</w>
trä glichkeit</w>
sel b
s ech
mm ol</w>
WO FÜR</w>
V IR
zu g</w>
zei ten</w>
op a</w>
Ver fügung</w>
M Ü
M R
d l</w>
be mer
TE L</w>
MÜ SSEN</w>
b is
U m</w>
S äu
em mern</w>
Bil dung</w>
5 7</w>
1 2,5</w>
vi du
ver sagen</w>
geb or
eb e</w>
Kö ni
IS S
Gel enk
E poetin</w>
fer nen</w>
N es
Mit tel</w>
L eit
BE ACHTEN</w>
ös er</w>
ron ch
ogen e</w>
o de</w>
D r
B akteri
dip in</w>
H C
1 80</w>
un abhängig</w>
n ungen</w>
Ver länger
Mon at</w>
- A
h ei
do se</w>
d .
Injektionsna del</w>
I V
wo für</w>
osi n</w>
Prä par
I tali
Erfahr ung</w>
B in
h ä
ge m</w>
Zul assungs
Sit z
Nut zen
A sp
00 6</w>
Plas m
G las
Docetax el</w>
en d
D ru
intravenö se</w>
ihr e</w>
hauptsäch lich</w>
Vorsichts maßnahmen</w>
L a
Fra gen</w>
F ähigkeit</w>
lip tin</w>
bru ch</w>
Verringer ung</w>
Umk arton</w>
Hu man</w>
Fertigsprit zen</w>
su lin</w>
s ehen</w>
hat te</w>
er teilen</w>
K et
- M
unver züglich</w>
geb racht</w>
TE L
S c
IN FOR
ur ie</w>
ti s-
ste t</w>
g lin
Köni greich</w>
J oh
- P
y p
indi vidu
hy th
an z</w>
Rekonstitu tion</w>
K op
ä sth
INFOR MA
B on
we ge</w>
teil te</w>
ab gesetzt</w>
Ten ofo
N S
C ell
Be zeich
m g-
m ark</w>
Lt d</w>
I T
ös t</w>
thr omb
c euti
O pti
In formieren</w>
H unde</w>
7 3</w>
ti c
il e</w>
Geb rauch
A S</w>
un ten</w>
sti m
or al</w>
niedri ger</w>
neu en</w>
häufi ger</w>
Anfangs dosis</w>
An alyse</w>
200 7</w>
n or
ä mpf
beden k
rit ten</w>
kulär e</w>
kl är
Ver w
O ste
M änn
F ax</w>
lie fer
vor zu
st opf
eb s</w>
19 98</w>
1, 0</w>
hy per
f all
af t</w>
P RE
Lymp h
App eti
sp iegel
wich tig</w>
verringer t</w>
ver länger
m ut
itä ten</w>
gin nen</w>
far kt</w>
Medi kam
zusam men
ur g</w>
schl ech
lo k
P u
EP AR</w>
4 4-
mö gliche</w>
k e</w>
entz ündung</w>
dar über</w>
Z N
L in
Kreatinin- Clearance</w>
6 2</w>
m l
al es</w>
Qu ali
Flüs sig
Be tracht</w>
ähn liche</w>
z n</w>
sor b
signifikan ten</w>
signifikan te</w>
p sych
M er
s ach
Veränder ung</w>
T ru
E V
D at
r hyth
r ho
op ulation</w>
men sch
i cht</w>
glei chen</w>
vitr o</w>
li mus</w>
la t
ers t</w>
Hep ati
6 3</w>
f ähi
Kon zen
Ei gen
p harma
Wirk stoff
PR O
Flüs sigkeit</w>
Em tri
ER A</w>
sch ach
pro p
il d
en g
be wahr
C arb
A z
ü fen</w>
g al</w>
S on
verschie denen</w>
ei mpf
Sch mer
L akt
C -
weiß e</w>
tr ap
al d</w>
verfüg barkeit</w>
na t
m us
kom mt</w>
A k
sti ll
F alt
Besch werden</w>
zusätz lich</w>
subkut an
pro t
intravenö s</w>
i ch</w>
gesch rit
da ys</w>
all gem
Bestand teil</w>
wei ß</w>
ub li
ehl ungen</w>
Plasm asp
Frank reich</w>
Amp ul
besch werden</w>
atien ten</w>
P ol
vi a</w>
ari a</w>
CYP3A 4</w>
ä t</w>
zier te</w>
stati sti
be gon
S il
Gra d</w>
G ut
F entan
enk ung</w>
bemer ken</w>
Ta cro
Resorp tion</w>
Au gen</w>
AN WEND
A v
0 30</w>
w .
gre l</w>
UNG S
P ri
Kat zen</w>
ti on
sons tige</w>
l and
geh ö
fol ge</w>
S ek
P e
K ur
be ginnen</w>
ass ozi
St unde</w>
S. A.</w>
M EN
Leu k
Des halb</w>
Alumini um</w>
ur eti
den e</w>
Neben wirkung</w>
G EN
D an
län ger</w>
lin ie</w>
dosi s
de x</w>
Un bedenk
Ner ven
te mperatur</w>
Sch utz
Bio verfügbarkeit</w>
17 2</w>
xi mab</w>
n ational</w>
mäßi g</w>
entwick eln</w>
Falt schach
Arbeits gruppe</w>
wirksam e</w>
ver stär
oph il
k ri
gen de</w>
c ep
INFORMA TION</w>
8 3</w>
y n
unterschie d
k ten</w>
er in
begon nen</w>
ati v</w>
am usk
ab ge
Zul assung</w>
Unbedenk lichkeit</w>
Mar kt
E U
Di ar
Ch olester
ill y</w>
be achten</w>
st ark
erwar ten</w>
er teilte</w>
da von</w>
Wel chen</w>
L et</w>
Insu man</w>
Dy s
44- 20</w>
. c
x e</w>
st ru
sel tene</w>
sch ema</w>
ne g
gen s</w>
auf nahme</w>
L illy</w>
Kan ü
IN G
9 3</w>
therapeuti schen</w>
s s
gesch w
geh end</w>
fort geschrit
ep sie</w>
e ktiv
ange m
amet er</w>
Redu ktion</w>
Lev od
Inje ktor</w>
D C</w>
C an
ANWEND UNG</w>
selb st</w>
ohy drat</w>
di abe
de fin
Z u</w>
Prot ein
N o
te ch
lin ien</w>
ceuti c
c ar
ati schen</w>
ak uten</w>
Tran sp
S lo
P hosp
Metho trex
L ebens
G ri
9 4</w>
tz t</w>
S enkung</w>
G um
Auf li
A B</w>
0, 6</w>
off enen</w>
einzel nen</w>
R au
Aufli stung</w>
6 8</w>
5 3</w>
trans der
pres sion</w>
or at
leich ter</w>
kardi ovas
Untersu chung</w>
A p
c oxib</w>
be züglich</w>
aus zu
P -
Effe kt</w>
1 60</w>
äf rigkeit</w>
kön nten</w>
karzin om</w>
Risiko -
M und
Kombination stherapie</w>
In -
D is
Cal cium
ä qu
weiter hin</w>
ti gung</w>
sich er</w>
re sist
per s
mäß iger</w>
da zu</w>
a zep
Stand ard
Sicherh eit
oxi c
m ent
L ac
un mittel
mö glichen</w>
c o
T er
3 .
v ier
ul ti
ti va</w>
op hi
h emm
Packungs größ
F A
200 8</w>
wei ter</w>
vi tro
schn ell</w>
li gen</w>
l auf
ati sche</w>
PV DC</w>
Hepati tis-
E R</w>
Do kum
C I</w>
u kl
sch ri
regelmäßi g</w>
ma sch
T é
Retard tabletten</w>
M ab
C ef
einge leitet</w>
Depres sion</w>
ständi gen</w>
her gestellt</w>
chron ischer</w>
An teil</w>
veränder t</w>
r et
b er</w>
Zu bereitung</w>
Schl äfrigkeit</w>
K ri
v olumen</w>
schwerwiegen de</w>
m änn
Ver dün
P han
Mon ohydrat</w>
For t
p ädiatr
ne si
j ähr
bezeich nung</w>
an i
O V
M yc
H usten</w>
Com b</w>
Bauch schmerzen</w>
p lan
eng masch
Unterschie de</w>
Leberfunktions störung</w>
wirksam en</w>
tä ts
har n
ger e</w>
Wel ches</w>
P l
subkut an</w>
sier end</w>
er s</w>
Té l</w>
Hemm ung</w>
Al le</w>
17 1</w>
sech s</w>
schließ en</w>
ni ti
k ür
er neu
Kontr oll
- Dosis</w>
ä ure</w>
sp iel
hand elt</w>
en h
Symptom en</w>
S ep
Phan ta
A g
sch mer
ger en</w>
fäl len</w>
den afil</w>
au ß
at s</w>
S om
Produ kt</w>
5 9</w>
ä r</w>
vor gefüll
ver bess
ar it
F r
9 2</w>
vir us</w>
fr ü
ein führung</w>
c us</w>
Ri f
Phanta sie
Nier en</w>
r ati
Verlänger ung</w>
Säu glin
Lu x
Flüssig keits
Ein gri
An sprech
är z
ä us
ri ge</w>
i mmun
ch te</w>
beeinflus st</w>
Verschl ech
V en
MI T</w>
Au ßerdem</w>
sch ränk
pr üfen</w>
Markt einführung</w>
Lux emb
Indi kation</w>
In din
G ran
m u
kur z
fi ziert</w>
H -
Grund lage</w>
0 10</w>
ü ck</w>
ulär e</w>
lit us</w>
Zi do
Verfall datum</w>
H il
s eine</w>
ober en</w>
Phantasie bezeichnung</w>
In s
Europ e</w>
sich tig</w>
gen er
Tages dosis</w>
Syst em</w>
Plazeb o</w>
P fi
Konta kt</w>
Antra g
vers eh
ukl e
tra li
s ep
kl us</w>
Ver einigtes</w>
T hy
In fluenz
An der
ri si
ophar m</w>
c in</w>
best ä
0, 4</w>
öff ent
klin ischer</w>
k at
elb lin
1 25</w>
ww w.
versch rei
syste mische</w>
lo spor
kti v</w>
ab ili
Verschlech terung</w>
HI V</w>
B L
u ali
t ox
höher e</w>
hydroxi d</w>
Ver hältnis</w>
Konzen trat</w>
Inje ktionen</w>
C I
Alkoh ol
AC E
n en
T est</w>
Eis en</w>
CH E</w>
1 00
prüf t</w>
opi do
ophi li
mel litus</w>
k o</w>
genan nten</w>
drei mal</w>
zusätz liche</w>
g lu
ch s
bestimm ten</w>
Thrombozy topenie</w>
Bezeich nungen</w>
x o
tt p</w>
sch ädi
intravenö sen</w>
h ttp</w>
ange b
Z iel
Refer enz
K L
Eigen schaften</w>
8 2</w>
z euti
mittel s</w>
metaboli siert</w>
ihr er</w>
gem ein
d ungen</w>
a v
wä hr
tr än
s mus</w>
r y
normal erweise</w>
ger t</w>
er ste</w>
en di
beeinflus sen</w>
S A</w>
Pfi zer</w>
M ess
K ortiko
Bl u
we g</w>
r z
ir n
T ech
ST E
Entz ünd
Cl opido
Ausgangs wert</w>
Angi oten
An trä
0, 0
ö tz
steh t</w>
misch t</w>
kon tin
C E</w>
8 5</w>
y p</w>
w ass
k re
c on
ali do
Mitgliedsta aten</w>
M ac
Fil grastim</w>
Blut ungs
u x</w>
tri um
nation alen</w>
intr amusk
au ßerdem</w>
ör den</w>
Ä rz
vor ges
sch es</w>
pri l</w>
om y
St off
Nutzen -
I F
8 9</w>
oly se</w>
al gie</w>
L act
K las
19 97</w>
z a
F ran
F le
- Gruppe</w>
War n
ä mi
met ast
je de</w>
er zi
gem essen</w>
ar teri
S or
P il
Indin avir</w>
Gel b
si t
ch s</w>
Prote as
P en
Ge w
0 7
p ra
fü n
ch er</w>
wirk en</w>
ö dem</w>
or t</w>
T itan
Kali um
Hämoglob in
Be we
Anweis ung</w>
vor liegen</w>
tö d
relevan ten</w>
lich em</w>
in dem</w>
gew ich
gel öst</w>
Mer ck</w>
Lansop razol</w>
w and
U K</w>
Natrium chlorid</w>
zu vor</w>
w es
v all</w>
ungsmittel n</w>
statisti sch</w>
kin s
P oten
H ä
Ar tikel</w>
unmittel bar</w>
ti gkeit</w>
o .</w>
ne ur
lan ge</w>
kt s</w>
kr ebs</w>
dosi er
a ge
G la
3 0
st s</w>
st o
li mm
i h
emb er</w>
ali n</w>
ab gesch
ab geb
St är
N A
F ar
Effe kte</w>
C is
Au f</w>
itä ts
ild dr
ell ungen</w>
dro h
Ste ad
Nierenfunktions störung</w>
Inhibit oren</w>
An tagon
200 3</w>
ver dün
ra ten</w>
f et
be ur
Levod opa</w>
F rei
Ab ac
-2 -
z .</w>
sp ä
re konstitu
b le
Hypoglyk ämie</w>
Am lo
ent schei
Pharma ceutic
Oper ation</w>
All erg
ü hr
ü ch
zier ten</w>
ti mm
ox y
je den</w>
fa chen</w>
el te</w>
Titan dioxid</w>
Sa qu
Krank heits
Kap sel</w>
Ander e</w>
vor her
pass t</w>
ein mali
Ps ori
P ER
I b
Be zug</w>
ti schen</w>
s es</w>
p las
maxi male</w>
ir e</w>
höher en</w>
Thrombozy ten
R ot
R icht
Poly et
Clopido grel</w>
Aussch ei
00 9</w>
ut z</w>
si n</w>
der t</w>
R hin
Kan in
H D
Behandlungs dauer</w>
ber ücksich
ausgesch lossen</w>
auf zu
Zun ahme</w>
Ver gleich
P E</w>
BR AU
Än der
eme a.e
chron ischen</w>
V ene</w>
R A</w>
sä ur
langs am
emea.e urop
de me</w>
am ma
Ur tik
Leber erkrankung</w>
Fl ä
ut yl
schließ end</w>
sch ä
m o
k la
bre l</w>
a.e u</w>
Schla f
GE BRAU
F orm
B MS</w>
wöch entlich</w>
ble men</w>
Jugend liche</w>
En brel</w>
Dar m
tä gliche</w>
gen phosp
Urtik aria</w>
Blut ung</w>
Auf nahme</w>
Ac trap
han e</w>
g eimpf
emea.europ a.eu</w>
bli ck</w>
auf geführt</w>
a e</w>
Zido vudin</w>
Z Y
36 8</w>
uli er
min i
m ell
gr am
ch ro
benö tigen</w>
auf genommen</w>
B ronch
-W ert</w>
vi v
s an
pl ötz
kar die</w>
ch tigen</w>
Placeb o-
Ge trän
ö se</w>
gl ob
da ten</w>
d enn</w>
Unter stütz
Nam en</w>
Nahr ung</w>
Mag nesi
EIN EN</w>
8 8</w>
äl ter</w>
we be
untersu chungen</w>
randomi sierten</w>
b us</w>
agno sti
TI K
Por tu
Mahl zeiten</w>
Hy po
ven tion</w>
lei m
kontrolli ert</w>
k um</w>
infizier ten</w>
dan ach</w>
O DER</w>
Faltschach tel</w>
A I
5. 3</w>
üb liche</w>
wei st</w>
vi el
te c
si s</w>
o k
n er
g in</w>
beeinträ chti
an ge</w>
U S</w>
se i</w>
eu mato
erfol gt</w>
en des</w>
c t
am pf
Substan z</w>
Sal z
Rezept or
Kanin chen</w>
FL AS
D ex
C el
spro fil</w>
hemm t</w>
g ab</w>
R in
A l</w>
................ ................
zur ück</w>
ter at
su cht</w>
lospor in</w>
i a</w>
fort gesetzt</w>
ent u
V A
V .</w>
Leu ko
I so
Gebrauch sin
0, 8</w>
re versi
geb ie
endi gung</w>
din gs</w>
Par kins
KL EINEN</w>
Behand l
weiß en</w>
verfüg bar</w>
ver zö
tei lungs
h ep
f est</w>
W ich
M und</w>
CYP2 C
4 5
nei lich</w>
gehör t</w>
be l</w>
Portu gal</w>
Bes timm
u bi
t o</w>
poten zi
ot oxizität</w>
m or
echan ismus</w>
L at
Kreb s
0, 00
s ek
ob ald</w>
h ie</w>
f ro
eumato i
c om
Leberfunktions störungen</w>
Kop ien</w>
I niti
Be endigung</w>
Au ge</w>
AB L
hervor ru
all er</w>
S o
Methotrex at</w>
K O
A r</w>
unerwünsch te</w>
g astrointestin
f el
erhöh ter</w>
di um</w>
T ach
Schwer e
Pharmakovigil anz
P un
än dern</w>
rati opharm</w>
pl us</w>
ange passt</w>
S oll
Plasma konzentration</w>
P neum
Empf ind
D IE</w>
Aussch lag</w>
Angi o
wer ten</w>
syste mischen</w>
en ter
Virafer on
Schwer e</w>
II I-
Glu ko
E X</w>
Antrag steller</w>
verfüg baren</w>
kulär en</w>
es s</w>
de pressi
auf tritt</w>
Sp ezi
Hu mi
0, 2</w>
verabrei chen</w>
om en</w>
ir ur
deu tet</w>
b akteri
Unterstütz ung</w>
MI R
Lt d.</w>
E l
sol chen</w>
m ung</w>
lich erweise</w>
gegen sei
auf bewahren</w>
T ä
S elten</w>
L D
Gebrauchsin formation</w>
Überempfindlichkeits reaktionen</w>
verb un
st at</w>
k n
hydro chlorid</w>
hy si
h len</w>
entsprech ende</w>
e -</w>
Mi t</w>
M äus
Kontra zep
Gum mi
Dies er</w>
wirksam er</w>
wiegen d</w>
verord net</w>
ver fahren</w>
ro chen</w>
re aktion</w>
ogen ität</w>
mi kro
c tion</w>
C ar
B as
ir gend
c -
Rap id</w>
In f
8 -
. V.</w>
ä tt
wissenschaf tlichen</w>
ol -
m usk
erken nung</w>
defin iert</w>
be droh
Ver stopf
Tier arzneimit
Her steller</w>
EN T
B O
ig keiten</w>
Z en
BEHÄLTN ISS
wä gung</w>
pädiatr ischen</w>
mehr ere</w>
h em
fa ch</w>
D u
er mittel
ausge prä
Un ter</w>
Rau m
Kr ampf
Hal bwertszeit</w>
vor sichtig</w>
ver mehr
li kation</w>
hyla xe</w>
e den</w>
S ir
Re gel</w>
A tri
9 -
8 .
überwa chen</w>
vitro -
th eit</w>
on in</w>
n a</w>
l ösen</w>
h el
geeigne te</w>
arz neilich</w>
T em
Sch ilddr
M o
Be din
Antibio tika</w>
Änder ungen</w>
währ lei
l f</w>
fu sion</w>
fahr ens</w>
ex a</w>
Tro p
Peg Intr
Leber -</w>
GEBRAU CH
An erkennung</w>
Amlo dipin</w>
8 1</w>
7 1</w>
ästh esie</w>
m eti
langs am</w>
g än
ati nib</w>
T u
Sch üt
P ir
My o
H i
AR ZN
redu ktion</w>
mali g
iv al
fra gen</w>
be tre
Unterschie d</w>
Um ständen</w>
Mö glichkeit</w>
Jan u
wei b
tik um</w>
ein zu
Ver träglichkeit</w>
Tacro limus</w>
F alle</w>
F O
Ery th
A ni
ta x
ob ac
gef äß
en er</w>
b lock
an aphyla
Ö ff
schränk ung</w>
ol er
l og
ein gestellt</w>
aus hal
al em</w>
Nahr ungsmitteln</w>
N ieder
Mehr fach
E C
C omp
Be ein
Abac avir</w>
x 1</w>
sch chen</w>
ra dio
ra chen</w>
lik ationen</w>
c ts</w>
beeinträchti gt</w>
Schw ellungen</w>
Risiko s</w>
Leber en
Kur z
. o.</w>
ol o
ier igkeiten</w>
entwick elt</w>
al t</w>
Tru de
Magnesi um
Ly ophili
C ic
ver h
ulär en</w>
Schwere gra
Plasmasp iegel</w>
H eli
Gr und</w>
G al
F on
Ein mal
Ben ommen
v iel</w>
ter s
schei dung</w>
op ti
le gt</w>
al og
aktiv ität</w>
a gen</w>
Virafer on</w>
V on</w>
Saqu inavir</w>
Nieren -</w>
N el
CYP3A 4-
ARZN EI
A min
Ö ster
tro cken
tro ck
t ungen</w>
sprit zen</w>
lebens bedroh
hi st
ge mischt</w>
f re
aktiv e</w>
Verstopf ung</w>
HAN G</w>
G R
Fran ce</w>
Benommen heit</w>
BEHÄLTNISS EN</w>
-H emmer</w>
- Therapie</w>
l ös
as t</w>
D em
sp e
kl en</w>
intraven öser</w>
h öch
en ti
Z ah
P ens</w>
Fol ge</w>
Di ureti
un zur
ri s</w>
rh eumatoi
aktiv iert</w>
Labor at
Injektionsna deln</w>
Hin blick</w>
Hartkap sel</w>
Fla schen</w>
C H</w>
Ausschei dung</w>
A Z
7 6</w>
wir r
ver su
schrei ten</w>
itan t</w>
ff t</w>
Krampf an
Dar über</w>
Öster reich</w>
we gs
st üt
n th
k ationen</w>
gesam te</w>
for m</w>
anti vir
S mit
AN HANG</w>
1 10</w>
rei s
op or
eti l</w>
ch ar
Be w
8 7</w>
7 7</w>
tri fft</w>
rei chen</w>
er dings</w>
en en
ber u
auf tret
au en</w>
Metaboli smus</w>
K ons
Hau tre
Ber at
ut er</w>
urop athie</w>
ti v
sch la
qu e</w>
ml -
la gern</w>
krank heit</w>
in je
all em</w>
Prot ein</w>
Milli onen</w>
Mi x</w>
Alkoh ol</w>
ü se</w>
verringer n</w>
v ac
sul f
oxic am</w>
kür z
kt oren</w>
ep hr
ent sor
da ß</w>
at z
Wich tige</w>
S S</w>
R ötung</w>
C er
Beh örden</w>
A G</w>
0 11</w>
transp lantation</w>
sup pressi
sorb at</w>
sel ben</w>
s weise</w>
ge liefer
an halten
Ges und
F ir
DE S</w>
Atem wege</w>
Anträ ge</w>
AR T
Ü ber</w>
ver wende
in -</w>
gehö rige</w>
fr üh
dir e
as si
ar tige</w>
an han
Gef äß
Be wertung</w>
um s</w>
ul ozy
o den</w>
in v
et u
Rück en
-W erte</w>
i zi
hervorru fen</w>
erwar tet</w>
de ssen</w>
Ver minder
R ati
Poly sorbat</w>
P f
C re
Bedin gungen</w>
zi eh
L op
Klas se</w>
Gut achten</w>
10 9</w>
är bung</w>
verminder te</w>
ec t
bekan n
P eg</w>
Nes po</w>
Humi ra</w>
GEBRAUCH S
Erhal tungs
C T
12 .
ter min
peri don</w>
f te</w>
da l</w>
an es
alt ungs
Verl auf</w>
V ari
Raum temperatur</w>
Männ ern</w>
Ge sichts
Ar anes
Anweis ungen</w>
.c om</w>
ubli ka</w>
ti li
st all
sol che</w>
mittl eren</w>
k ehr</w>
f t
Val s
S PR
Packungsgröß en</w>
Kortiko steroi
C ro
AT E</w>
ä sionen</w>
wei l</w>
sprit ze</w>
s at</w>
rei fen</w>
on yl
in sulin</w>
hal tung</w>
f ehl
da p
a de</w>
Pharmaceutic als</w>
Klin ische</w>
GEBRAUCHS INFORMATION</w>
D AL</w>
C D
An sicht</w>
Ac et
0 .
äu ß
stän de</w>
op f</w>
o at</w>
li cht</w>
h ase</w>
dopp elblin
Natrium chlori
ET T
Amp ren
ARZNEI MIT
0 12</w>
Än derung</w>
st opfen</w>
p ran
niedri gen</w>
kt uren</w>
k enn
dy na
bis her</w>
at -
Warn hin
Smit h
Schla gan
S P
R IS
Natrium hydroxid</w>
H än
wiederhol ter</w>
Ver wirr
Mor bus</w>
trans fer
pers onal</w>
orat adin</w>
or ische</w>
l n</w>
gin ter
gele gten</w>
gel ass
ell es</w>
ar t</w>
Par ameter</w>
Etik ett</w>
z a</w>
pr en
mi eden</w>
maxi mal</w>
ginter feron</w>
gebor enen</w>
dosi s-
di agnosti
c onazol</w>
ac li
ab brechen</w>
Ro ad</w>
Mäus en</w>
Emtri citabin</w>
sier ter</w>
ri t</w>
ma c
hoh er</w>
auf traten</w>
Rei z
Ph ot
Klin e</w>
risi ko</w>
pl atin</w>
kl are</w>
hä mat
hydro genphosp
her a</w>
gen d</w>
au e</w>
War far
Slo ven
S ev
S an
Pro bleme</w>
Hau p
v el</w>
pro bleme</w>
it zen</w>
gen heit</w>
Vor ic
Unter neh
Smith Kline</w>
Si m
S el
R ate</w>
Novo Mix</w>
N icht
Myo kar
Blutzucker spiegel</w>
ver mieden</w>
um arat</w>
sti tu
osi g
erh eb
d ge
V il
Pe ginterferon</w>
O ri
Lymp ho
Lac tose</w>
Fertig pen</w>
ul i</w>
p ur
geeig net</w>
auß er</w>
Z om
TI V
Empf ehlungen</w>
DN A</w>
uli erung</w>
pl ätt
or b
of ern</w>
l y
k tes</w>
f rei</w>
el on</w>
da bei</w>
Tenofo vir
Sch lu
S AM
- Studie</w>
schein t</w>
onyl harn
isch em</w>
gerin ge</w>
g ter</w>
b las
ange geben</w>
Ver h
M ark
Ha ar
urop ä
ungs störungen</w>
trop fen</w>
sch wäche</w>
par in
ot herap
metast a
g st
da parin
auf weisen</w>
am n
Vals artan</w>
Intr on
p ul
norm ale</w>
medi kam
ma ß</w>
ge folgt</w>
begrenz t</w>
V ar
Sulf onylharn
Met h
Fon daparin
E G
za ar</w>
m ie</w>
fla sche</w>
d al
R osig
R N
M T
K G</w>
F eb
E v
ur t</w>
ukle osi
op ri
nat ür
m ol
h u
geb rauch
antiretrovir alen</w>
Sit ag
R at</w>
L it
Kanü le</w>
Geträn ken</w>
zun ahme</w>
ro ten</w>
ons äure</w>
näch sten</w>
hydro xy
hoh e</w>
gl yk
ges etz
f lich
dir ek
O pi
Mix 25</w>
Lyophili sat</w>
I s
Hal ten</w>
Blut plätt
s fer
ro g
op enie</w>
ein nahmen</w>
drück en</w>
ch irur
be dienen</w>
Nutzen- Risiko-
F olli
Ar i
200 5</w>
är er</w>
Ö deme</w>
schl ä
rit t</w>
maxi malen</w>
kt ur
gin a</w>
gi tis</w>
fün f</w>
f ten</w>
Schmelz tabletten</w>
7 8</w>
z ogene</w>
s eit</w>
s -</w>
or e
n ologie</w>
g u
ex u
est i</w>
eh y
anhan d</w>
abgeb rochen</w>
PACK UNGEN</w>
P fer
Knochen mark
F u
Aranes p</w>
vor gesch
schw anger
rep itant</w>
ogen en</w>
kla r</w>
in g</w>
f ör
etr a</w>
begrenz te</w>
ab sol
Warfar in</w>
WEND EN</w>
Vor beu
Trude xa</w>
N ex
HM EN</w>
G astrointestin
A Z</w>
tei li
rep ublika</w>
mi p
en dem</w>
am o
Sitz ungen</w>
Novo Let</w>
Mix 50</w>
Li cht</w>
Leber insuffizienz</w>
Kal etra</w>
Behandlungs beginn</w>
Be obach
B AS
opro t
Wei se</w>
W P</w>
Sprit zen</w>
P os
O C
Myokar din
EU -
Dur ch</w>
A pro
A ID
är fähi
is s
in s</w>
i den
er ase</w>
entz ünd
bedin gt</w>
Zus ätz
Viraferon Peg</w>
P ast
Co zaar</w>
zwei te</w>
zu gelass
ol a
niedri g</w>
medizin ische</w>
Z er
Wirk ungs
Wel che</w>
W ert</w>
S elb
RIS PER
R u
Pi og
N asen
Apro vel</w>
Aktiv itäten</w>
AL T</w>
4 50</w>
ge geb
ZU WENDEN</w>
Prop hylaxe</w>
Pharma zeuti
Inhibit or</w>
Gru ppen</w>
Gr un
Au fl
Ampren avir</w>
AN ZUWENDEN</w>
pharma k
mip ex
last a</w>
kri stall
bedin gte</w>
Cic losporin</w>
Antagon isten</w>
10 .
ur it
sicher zustellen</w>
l ä</w>
gra f</w>
fun ktion
fortgeschrit ten
c yl
Vorbeu gung</w>
Verw altungs
Lact ose-
Gesch ma
Al s</w>
0 13</w>
v is
spiegel s</w>
re chen</w>
p hysi
lie genden</w>
kontr olle</w>
geh t</w>
aufge führten</w>
T lf</w>
T ar
Prä gung</w>
Mac rog
Impf stoffen</w>
H ei
Be glei
um fass
u ier
stei gen</w>
rech ter
pp e
j ün
hy drat</w>
gro ße</w>
gres sion</w>
g keiten</w>
Sp an
RISPER DAL</w>
Pra mipex
PegIntr on</w>
K or
I rel
Hand hab
E- mail</w>
Anwendungs gebie
äqu ival
zu gehörige</w>
to chro
ox in</w>
ober fläche</w>
l en
j en
i mpf
h e
ein ger
des halb</w>
ac t</w>
Voric onazol</w>
Irel and</w>
Ins gesamt</w>
IST A</w>
H 2
Gla xo
Fentan yl</w>
D er
19 96</w>
verringer te</w>
pro blemen</w>
leich te</w>
l t</w>
kor re
gewöhn lich</w>
gerin ger</w>
gegensei tigen</w>
ar y</w>
Ver wenden</w>
Sitag liptin</w>
N R
Kreb s</w>
Immun system</w>
H emmer</w>
H P
Fer tili
Et ori
Au s</w>
0 14</w>
η λ</w>
wi cht</w>
t an
es sen
entsprech enden</w>
be deutet</w>
Pers on</w>
N -
HIV- Infektion</w>
F ahr
C M
Angioten sin
0, 7</w>
verhin dern</w>
us -
urit us</w>
ste arat</w>
inji zieren</w>
gr ap
erneu t</w>
er niedri
er -
be f
azi dose</w>
an tra
Piog litazon</w>
N otwendi
G en</w>
spezif ische</w>
sch lu
it ze</w>
f umarat</w>
Sub st
Sch wäche</w>
Re bet
P eri
Ne uropathie</w>
F e
AT C
zusätz lichen</w>
vorges ehen</w>
hau t</w>
S D</w>
Resist enz</w>
Ob wohl</w>
Glaxo SmithKline</w>
Di agno
Bl ock
Au ch</w>
1 2,
---------------- ----------------
spr o</w>
r as
nach dem</w>
li spro</w>
eh e</w>
e gen</w>
chirur g
c al
an t</w>
a gem
Be u
A li
1 A
l äs
ic in</w>
g ab
dis opro
ber ech
Z al
Vit amin</w>
Ge wicht</w>
D EN</w>
BAS AL</w>
Alkohol tu
uss es</w>
un i
peripher e</w>
ol est
is oden</w>
in folge</w>
ag ul
Tenofovir disopro
Po st
O m
Häm odi
Handhab ung</w>
Gewichts zunahme</w>
Ent fernen</w>
E u
B ra
Asth ma</w>
ämpf e</w>
subkut ane</w>
s einer</w>
gef unden</w>
d. h.</w>
W enden</w>
Stör ung</w>
Rif amp
Notwendi gkeit</w>
Lat vi
Lactose- Monohydrat</w>
Ep il
Elimin ations
Aus maß</w>
1, 2</w>
xi s</w>
veränder ungen</w>
geb ärfähi
fe ktionen</w>
ek tr
dr onat</w>
besteh enden</w>
auf bewahr
at ment</w>
Zu stand</w>
Ver teilungs
T al
Sil denafil</w>
Schilddr üs
SCH ACH
Richt linie</w>
G all
Ein stellung</w>
Cy tochro
u lin</w>
teri en</w>
op las
au b
ar abin</w>
agem ent
acli tax
abili tät</w>
Rei he</w>
Ph ase-
Norm al
Entzünd ungen</w>
-C ode</w>
z in</w>
der zeit</w>
T ER
Schw itzen</w>
Rifamp icin</w>
Pr uritus</w>
Na del
Hautre aktionen</w>
Erythr opo
Blut zellen</w>
Beein trä
Bakteri en</w>
An gina</w>
An gaben</w>
ts or
fü hlen</w>
al u
T oxiz
T ablet
Pl us</w>
IST ER
I V</w>
EIN Z
Beu tel</w>
BL ISTER
37 1</w>
- Behandlung</w>
spro chen</w>
op ath
norm alen</w>
leich ten</w>
gesch ichte</w>
ec oxib</w>
e uropä
dire kt</w>
best ehen</w>
Vir en</w>
Pan kre
Intron A</w>
Ge gen
Etori coxib</w>
En tsor
CH EN</w>
ö l
p et
or e</w>
or din
mensch lichen</w>
ma cht</w>
i .
Itali en</w>
Inter v
Empfind lichkeit</w>
Dru ck
Di g
Cis platin</w>
9 .
3 70</w>
2 5
vor gelegt</w>
unter stüt
tic as
infe ktionen</w>
ak ute</w>
Wirksam keits
To d</w>
Th e
S ach
R asi
Oste opor
O X
Elimin ation</w>
2 .</w>
1, 3</w>
teri al</w>
or t
o ster
no e</w>
kon nten</w>
f f</w>
er er</w>
ch olester
Tier e</w>
Th alido
T hera</w>
Stead y-
Schla fl
Nieren erkrankung</w>
M angel</w>
K ep
Flu ticas
E HMEN</w>
Alkoholtu pfer</w>
ti elle</w>
ster il
medizin ischen</w>
kt ur</w>
infe ktion</w>
ger u
gen ehmi
e si
cin al</w>
be teili
an sprechen</w>
a ktiv</w>
Ta dal
Mab Thera</w>
Leit linien</w>
E pi
E TIK
13 2</w>
üb licherweise</w>
p .</w>
m od
m i</w>
f o
engmasch ig</w>
en s
de uten</w>
ck t</w>
Schw ierigkeiten</w>
SCHACH TEL</w>
Rosig litazon</w>
Rhin itis</w>
Par tikel</w>
H2 O</w>
Blutzuck er</w>
B asis</w>
AM UN
0, 25</w>
ver schw
t ablet
sek und
r is
le z</w>
gra di
g ül
farblo se</w>
b rei
aufge treten</w>
ap on</w>
Wass er
R el
R an
Dosis reduktion</w>
Blut gefäß
An passung</w>
rh ö</w>
pla ceb
hu man</w>
g ste</w>
den ken</w>
St ellen</w>
Sim vastatin</w>
Rasi lez</w>
In spe
Hydrochlorothiazi de</w>
7 .
un wahrscheinlich</w>
ubi cin</w>
schw er</w>
re m</w>
re cht
le cht</w>
gerin gen</w>
g ungs
ein her
di ert</w>
aufbewahr t</w>
V as
Tei l
Si ehe</w>
P aclitax
Erhaltungs dosis</w>
Ein ige</w>
woh l
s ka</w>
männ lichen</w>
kurz em</w>
Verminder ung</w>
Stoff wechsel
R om
Nam e</w>
Krank enh
I g
Blut hoch
Ab bildung</w>
ren nen</w>
on en
h af
fr is
enen falls</w>
ation sp
Typ -2-
O hr
Eis en
ETIK ET
App lik
wöch igen</w>
tig te</w>
mell ose</w>
erg ab</w>
ent fer
be legt</w>
Ser ot
Schlafl osigkeit</w>
Lop inavir</w>
L os
DN A-
Acet yl
ul ose</w>
schwerwiegen den</w>
oph en
n den</w>
han den</w>
en zen</w>
do m</w>
di kat
c re
angem ess
a gel</w>
Ver fahrens</w>
Rebet ol</w>
Re v
R en
R O
Phen y
O n
N ase</w>
Inter national</w>
wi k
ver tragen</w>
u p</w>
qu ali
ma ßen</w>
en glyc
Stär ke</w>
S ter
Pharmakovigil anz</w>
Opi oi
Lei den</w>
K wik
Hy pro
H aushal
H EX
F o
Empf än
C a
Ber ich
At or
10 -
. .</w>
Über lebens
t nis
schüt zen</w>
met ho
mer k
land e</w>
iden ti
ent lichen</w>
alt h</w>
Schüt tel
R eb
Joh an
0, 0</w>
0 15</w>
vor handen</w>
s z
s .</w>
redu zieren</w>
ophen ol
fi zi
bet a</w>
bei spiel
beeinträ chtigen</w>
b lu
Verl ust</w>
Pur eg
Komp likationen</w>
Hypro mellose</w>
Haup tin
Can di
Beh äl
zu ständigen</w>
peri ment
en ze</w>
an der</w>
al tra
Vergleich s
VIR AMUN
Test s</w>
St elle</w>
Myc ophenol
In- vitro-
He alth</w>
Hauptin dikat
F ehl
Ar m</w>
AU C
u gen</w>
ti eren</w>
pl a</w>
o emb
ic al</w>
i r</w>
glich er</w>
ep il
au t
at m
Un wohl
Schmer z
Pureg on</w>
Nieder lande</w>
Ch l
AP TIV
zier ung</w>
um gehend</w>
th or
t hi
st ar
sk ri
da cht</w>
be en
U B
I G
Gew ebe</w>
G a
D E</w>
üs se</w>
zen de</w>
wi es</w>
ven tri
unzur eich
spezif ischen</w>
of akt
las t</w>
in hal
Mit tel
Met hyl
Kon fi
I A</w>
E esti</w>
B enz
z ent
versch rieben</w>
us st
te c</w>
re ag
oc cus</w>
ktion st
is men</w>
gerin g</w>
eb enen</w>
am in-
Plasma prot
O vari
Magnesium stearat</w>
Ger inn
Er n
Berat ung</w>
Atri pla</w>
A ut
7 -
6. 6</w>
zi di
ung spro
sch utz
res orb
kristall ine</w>
jen igen</w>
fro st</w>
aus gesetzt</w>
a ge</w>
Zu ck
Schwanger en</w>
Schmelz tablette</w>
Salz säure</w>
S O
Prüf ungen</w>
Myokardin farkt</w>
Ber ichte</w>
x ie</w>
w in
vor behandelten</w>
p os
f ähigkeit</w>
beobach teten</w>
as ys</w>
Schüttel frost</w>
Mil ch</w>
L amo
K I</w>
Johan nis
J un
E le
CO X
C EL
Bet afer
si tzt</w>
ge tr
e i</w>
chti gung</w>
ch ungs
beispiel sweise</w>
Unwohl sein</w>
Schlagan fall</w>
S kel
Rezept oren</w>
Peg asys</w>
Lamo tri
Konfi den
Hin weis</w>
Enzy m</w>
DE L
D UR
Al ters
z war</w>
kulär er</w>
ermittel t</w>
durch zuführen</w>
da durch</w>
Verdün nung</w>
Tadal afil</w>
PACK UNG</w>
Kal zi
E sp
t licher</w>
l eu
häufi ge</w>
human en</w>
g nis
ell a</w>
da r</w>
c er
anaphyla kti
ST EL
Risik ofakt
MP -
Hil fe</w>
Hau tr
Gall en
Dox az
Ampul le</w>
0 9</w>
st en
sam in
ras ch</w>
li ximab</w>
hal tigen</w>
din -
ar ko
Ver dau
Schweregra d</w>
Macrog ol</w>
Gen er
FLAS CHE</w>
F S
Belgi que</w>
Agen erase</w>
w ür
verhin dert</w>
ven ue</w>
un e</w>
produ cts</w>
li s</w>
lan g
gleichzei tigen</w>
ge währlei
ex periment
bezeich net</w>
Ma l</w>
HM E</w>
Fun ktions
4. 6</w>
1, 1</w>
и я</w>
Ärz te</w>
ti erung</w>
taz an
o ck</w>
mon at
h n
ge stell
f fer
en ver
Zi ehen</w>
L U
Einzel dosen</w>
A vas
A tazan
7 9</w>
0 2
Τ ηλ</w>
or a</w>
ju g
h r</w>
fol gen</w>
er tes</w>
d ra
Um stellung</w>
Impfstoff s</w>
Her p
HB V-
Er re
APTIV US</w>
0, 001</w>
0 16</w>
zurück zuführen</w>
w ech
ori s</w>
m angel</w>
l eben</w>
k rau
forder ungen</w>
ein ander</w>
b ein
Z w
Wei ch
Uni ted</w>
Tach y
R ami
Par oxetin</w>
Leuk ämie</w>
Fondaparin ux</w>
End punkt</w>
An gst
Ö dem</w>
z ir
sach e</w>
rho e</w>
o kontrollierten</w>
it ze
h äm
gew ebe</w>
ber kul
Wechsel wirkung</w>
Verschl uss
Sch utz</w>
NA HME</w>
Muskel schmerzen</w>
Komp on
Johannis krau
G u
Dokum ent
C lo
Blutplätt chen</w>
Ab stand</w>
äch st</w>
x in</w>
x il
verh ü
verabrei chten</w>
stark e</w>
sch rit
fin det</w>
erg aben</w>
e a</w>
Stra hl
Ser um</w>
Quali tät</w>
O -
N ic
Initi al
IN E</w>
Epil epsie</w>
Ele k
B ro
Anti ko
Ab ständen</w>
A F
zy klus</w>
ver mittel
trocken heit</w>
to c
o -</w>
etw as</w>
errei chen</w>
ar in</w>
akt uali
Z EI
Verteilungs volumen</w>
Ter fen
S har
DE M</w>
Avas tin</w>
ATC -Code</w>
200 4</w>
1, 4</w>
1 1.
ver antwor
t ard</w>
qu i
qu enz</w>
ge änder
fass ungen</w>
be g
b -
and r
a dr
T rit
Span ien</w>
Sach ver
Nieren versagen</w>
Men gen</w>
Einzel dosis-
Cep t</w>
Be darf</w>
Actrap hane</w>
zin ter
tra gung</w>
steroi d
sch u
prä par
olog isch</w>
of fen</w>
de d</w>
S EN
Prä vention</w>
Johanniskrau t</w>
Geschma ck
Fr üh
Ern ähr
E MEN
C har
Antikörper n</w>
zun eh
thor is
sich ts</w>
sch e
ord nung</w>
kali ämie</w>
hyper tensi
bei de</w>
au thoris
Wachstum sh
Mor tali
Mix tard</w>
M ulti
Konfiden zinter
Kin g
II -
DUR CH
C yc
Beeinträ chtigung</w>
Aluminium -
A C</w>
Ä l
zen trali
zeich net</w>
subkutan er</w>
sel ektiv
sat z
prim äre</w>
op ul
obac ter</w>
hoh em</w>
entschei den</w>
beobach ten</w>
al tung</w>
UN EHMEN</w>
Phen yl
Paclitax el</w>
Nel fin
L is
Krampfan fälle</w>
K -
Je doch</w>
Flu or
E HR
öffent lich
ten de</w>
s ali
l auf</w>
klär t</w>
genan nt</w>
ge stei
ev entu
et a</w>
da g
al u</w>
Vil dag
Re gi
Pos ac
Osteopor ose</w>
King dom</w>
EINZ UNEHMEN</w>
Diagno se</w>
D ul
Cell Cept</w>
A s
vorgefüll ten</w>
un verändert</w>
s ofern</w>
mm t</w>
h ier
ak uter</w>
Wachstum s
W ahr
VIRAMUN E</w>
To des
S in
R -
Polyet hyl
Pheny to
N AM
H üf
Dat um</w>
D en
Cell ulose</w>
AL -
37 2</w>
verschrei b
ut zen</w>
te mb
pharmakokineti sche</w>
or s</w>
o transfer
kontin uier
j ahr
ho ch</w>
geimpf t</w>
ent fernen</w>
ef fe
de ten</w>
bin det</w>
betr offenen</w>
be kommen</w>
arbei tung</w>
an schließend</w>
amn ese</w>
allerg ischen</w>
ab schie
Tu berkul
Serum -
Ne oc
Kol ben</w>
Ket oc
J uli</w>
Immun glob
Hauptindikat or</w>
H g</w>
Ge fü
Diureti ka</w>
Ba sierend</w>
B .V.</w>
Ab hängi
- oxid</w>
yc lin</w>
wä hl
wer tet</w>
temb er</w>
stri bu
sich t
s s</w>
pi d
hydrogenphosp hat</w>
empf eh
c m</w>
b enz
arz t</w>
Warnhin weise</w>
Ver tret
Shar p</w>
Sep tember</w>
Ris peridon</w>
L en
Krank heiten</w>
K ART
Her cep
Cre me</w>
zun ächst</w>
tl osigkeit</w>
s obald</w>
regelmäßi ge</w>
pul mon
pf lanz
kur z</w>
ju v
gemein sam
c ur
be glei
ap en
St opfen</w>
STE CH
Proteas eh
Pil zin
Ketoc onazol</w>
Dan mark</w>
DURCH STECH
CH N
B eim</w>
Atazan avir</w>
AD E</w>
- Syndrom</w>
über prüft</w>
therapeuti sche</w>
t um
s al
ni mmt</w>
k ol
e x</w>
c um
besch ri
be enden</w>
X A</w>
Verschl uss</w>
Tum oren</w>
T opo
Ne o
L o
Kwik Pen</w>
Itali a</w>
ICH T</w>
F ALT
Er wägung</w>
EMEN D</w>
C min</w>
Arz nei
2 10</w>
0 22</w>
Öff nen</w>
webe s</w>
verminder t</w>
ta vi
om e</w>
m echanismus</w>
kl er
hau t
ge te
erken nen</w>
entfer nt</w>
Vor geschichte</w>
P y
Jun i</w>
Hercep tin</w>
Diar rhö</w>
C on
Ator vastatin</w>
AD R
3 ,5</w>
ück en</w>
tä glichen</w>
per for
ophil ie</w>
gebärfähi gen</w>
ep ir
ect oris</w>
da für</w>
d s</w>
d ritten</w>
bekan nten</w>
ander es</w>
Tra c
Su izi
ON S
Impfstoff es</w>
Hyper glyk
FALT SCHACHTEL</w>
C ir
19 99</w>
ρ ο
ren ale</w>
p tion</w>
p opulation</w>
m m</w>
kl einen</w>
gew ünsch
eingesch rän
eich el
ap p
ali en</w>
Mi car
Metaboli sierung</w>
Li ste</w>
Latvi ja</w>
Dox or
D ir
B or
B asi
yl -
w le
ter stat
ter s</w>
o kon
o c</w>
niedri ge</w>
geb il
fl u</w>
doppelblin den</w>
amet h
age ment</w>
Tenofovirdisopro xil
T RI
Seh störungen</w>
R einig
Ma xi
Kontrazep tiva</w>
Kno chen</w>
El i</w>
EIN NAHME</w>
Ap repitant</w>
vi don</w>
ver stärk
sch ätz
olog ischer</w>
ma chen</w>
kn opf</w>
gl y
fü llen</w>
ba u</w>
an sp
Tachy kardie</w>
T LI
Poly prop
L on
Fahr zeu
Ch olest
Be dien
Aussch usses</w>
Asth enie</w>
wend bar</w>
w eit</w>
vorübergeh end</w>
oh me</w>
lit ten</w>
hervor geru
gegeb enenfalls</w>
frü her
et an
drück t</w>
ZEI CHN
Tel mis
S AV
R MP</w>
Phosp hat
Nach weis</w>
K au
H itze
F ett
D ohme</w>
Antiko agul
sti ch
ster s</w>
rheumatoi der</w>
mm Hg</w>
men ge</w>
men den</w>
l arit
ier ter</w>
eri us</w>
di mmun
behandel n</w>
Ver halten</w>
P al
P A
Na deln</w>
Körper oberfläche</w>
Human insulin</w>
Gastrointestin altra
D as
Bluthoch druck</w>
Be deut
A erius</w>
z t</w>
www. emea.europa.eu</w>
schrei bung</w>
mi scher</w>
inv asi
hän gt</w>
gro ßen</w>
dom in
deut lich</w>
be sitzt</w>
be h
Wir d</w>
Ver b
St at
Re mission</w>
Herz rhyth
Ge sicht</w>
G ON
Flä schchen</w>
F ab
Ein satz</w>
Blutdruck s</w>
Angiotensin -
An ne
öch st
wer tes</w>
verabrei ch
sulf at</w>
prüf ung</w>
n i</w>
medi ane</w>
bedin gten</w>
aktiv er</w>
Tran skri
Sicherheit sprofil</w>
Parkins on-
P rit
In t
Gen ot
En zyme</w>
C ap
2, 0</w>
weib lichen</w>
vor genommen</w>
subkutan en</w>
spä ter</w>
sp iel</w>
re tion</w>
prim ären</w>
nach weis
le er</w>
indi gkeit</w>
gebrauch sfer
el y
dr üse</w>
behandel te</w>
azep in</w>
au er
ar tis</w>
Typ-2- Diabetes</w>
Nov artis</w>
IN V
Hepatitis- B-
Gem ein
Ge schw
F ru
Arbeits gruppen</w>
Arbei t
Anne x</w>
AN D
35 8</w>
z äh
um in
tä ten</w>
stab il
näch ste</w>
mor gens</w>
l esen</w>
durchschnit tliche</w>
ca .</w>
bro chen</w>
be poetin</w>
assozi iert</w>
T S
M B
L äsionen</w>
GON AL-
F os
Behand elten</w>
Äl tere</w>
p ectoris</w>
or ischen</w>
berücksich tigt</w>
ber icht</w>
b o
b bel
authoris ed</w>
ausreich ende</w>
ar en</w>
an s</w>
Zah n
Vildag liptin</w>
T as
Som a
Si li
Nahr ungs
IC H</w>
Ereig nissen</w>
Ep isoden</w>
Ein leitung</w>
Di ät</w>
Dat en
C hin
Bedeut ung</w>
λ λ
über zogene</w>
z al
sh ire</w>
sch enk
randomi siert</w>
norm aler</w>
k op
ier tes</w>
gerin g
beg inn
Zun ge</w>
M e
Lamotri gin</w>
Lakt at
Ko ordin
Inter fer
In gel
Ge schlech
E G</w>
Dar bepoetin</w>
Carb am
Ca ely
Bew usst
- 1
а р
sy nth
s exu
oemb oli
n ungs
jewei ligen</w>
dan ken</w>
Tablet ten
Reprodu ktionst
RE Y
Pi pet
Ma gen</w>
Luxemb urg</w>
Fach personal</w>
F ut
F et
D opp
AN CE</w>
zol am</w>
w är
ve x</w>
v an</w>
s .
regelmäßi gen</w>
of etil</w>
mäßi ge</w>
mittel schwerer</w>
f ung</w>
et s</w>
erw ogen</w>
elo da</w>
blei bt</w>
betre ffen</w>
benz oat</w>
been det</w>
ange wende
all eine</w>
Wachst um</w>
T etan
RE L
R as
H üh
Ereig nis</w>
AN Z
A pril</w>
ähn lichen</w>
zy ten</w>
wel ches</w>
ti ert</w>
stribu tion</w>
pro vi
omy r</w>
ne u</w>
geb unden</w>
fil l</w>
ent an</w>
am m
Z it
Ver teilung</w>
Ver su
V olumen</w>
Schwangerschaf ts
Pen fill</w>
K reis
H irn
G ar
Bel ast
Az omyr</w>
An wen
AM P
0 20</w>
ung stu
sy ndrom</w>
ol i</w>
n s
kon v
blei ben</w>
bil dungen</w>
antwor t</w>
ak u
X eloda</w>
T aub
St amm</w>
S ver
Los artan</w>
Insul in-
Fin land</w>
Fertili tät</w>
Bei spiel</w>
v es</w>
untersu chen</w>
ti ons
ma x
larit yn</w>
hin reich
dap ter</w>
betr achtet</w>
VA X
Sver ige</w>
Sp on
Reinig ungstu
Ni fe
Neoc larityn</w>
Mycophenol atm
M I</w>
Lun ge</w>
L eben
Je der</w>
Gr ün
Gesch lecht</w>
G leich
Betafer on</w>
18 5</w>
1 12</w>
viel e</w>
u n</w>
sp on
provi ded</w>
p re
m atitis</w>
h eit
fr isch
fl üs
ep i
bu min</w>
be häl
Su cro
S ehen</w>
S and
Reprodu ction</w>
REY AT
R ö
Q U
Phenyto in</w>
P art
N ot
H ER
Doxaz osin</w>
C amp
BLISTER PACKUNGEN</w>
3 0-
0 18</w>
wle dge
us e</w>
tec an</w>
no wledge
nah m</w>
mäßi gen</w>
m odi
h eim</w>
entwick elten</w>
ein bar
ack nowledge
Zusätz lich</w>
Sor bit
Risikofakt oren</w>
R ech
PRE Z
P opulation</w>
Mycophenolatm ofetil</w>
MI G
Grun dimmun
Ga do
G ro
Auf frisch
Allgem eine</w>
A mb
mehr eren</w>
medi cinal</w>
kl eine</w>
er b
beru h
b ra
an de
al koh
W a
Tenofovirdisoproxil fumarat</w>
Tem o
R em
PR O</w>
O S</w>
Nierenfunktions störungen</w>
Man nit
MIR C
MIRC ERA</w>
KART ON</w>
Gr öß
45 0-
zy t
vorübergeh ende</w>
ungsp flich
ti al</w>
stim men</w>
sp p.</w>
s af
ob er</w>
er reich
bestä tigt</w>
al an
Risik om
Reb i
REYAT AZ</w>
Mo du
K u
Hydro x
F el
F EN
Etik et
E D
Allerg ie</w>
4 ,5</w>
ven tion
sub stan
pla n</w>
pf lich
o urg</w>
metasta sier
fi bro
cum ent</w>
ar ten</w>
ab sich
Telmis artan</w>
TI G
T E</w>
Son nen
Rap am
P SU
M G</w>
Luxemb ourg</w>
Lu ft
Geschmack s
Empfän gnis
E r</w>
E 172</w>
C e
9 .</w>
4 -</w>
- 2</w>
ämi en</w>
trop hie</w>
stra di
s a</w>
resorb iert</w>
hr omycin</w>
glei che</w>
gete stet</w>
er l
as epti
ZY PRE
ZYPRE XA</w>
V EL
Tr ä
Lon don</w>
H A
F arb
F act
Ent scheidung</w>
Bo x</w>
BEHÄLTN IS</w>
18 4</w>
positi ven</w>
o tin
m als</w>
er st
eme a.
V el
Sucro se</w>
Schilddrüs en
Psori asis</w>
Pro stat
Pramipex ol</w>
Nelfin avir</w>
Kri bbel
Konfidenzinter vall</w>
Kar zin
H äl
Ein schränkung</w>
Dar un
Brust krebs</w>
B us
1. 8.
üb lichen</w>
Über tragung</w>
viv o</w>
v s.</w>
t us</w>
reich ungs
re cht</w>
n ommen</w>
b in</w>
ab end
Zei chen</w>
T rin
St ei
Skel ett
P osi
Li etu
KO GEN
KOGEN ATE</w>
Joh ns
J J
Ex tre
Ampul len</w>
4 20</w>
über prüfen</w>
ungs an
ster ile</w>
schmer z
op aus
od y
o sin
nation ale</w>
kt ober</w>
ger ungen</w>
e ge</w>
cyl säure</w>
Verwirr theit</w>
Indu stri
Indi kationen</w>
Hämodi alyse</w>
HIV- 1-
G el</w>
Ch il
Belgi ë</w>
tr a</w>
rich tung</w>
nach folgenden</w>
l y</w>
ir n</w>
g h</w>
fre quenz</w>
erzi elt</w>
eb s
besonder en</w>
at mi
ange sprochen</w>
Zus atz
Tä tig
Sch ein
Quali täts
Pol ska</w>
Par k</w>
PREZ ISTA</w>
Neutrop hil
Modu l</w>
Kin zal
H ormon
Blu ter
Bestimm ung</w>
ABL ET
9 0
t -
sta at</w>
schaf t</w>
in fiziert</w>
glyc eri
en -</w>
be deut
Wirk stoffen</w>
Sch leim
Reinigungstu pfer</w>
Poten zi
O ktober</w>
Mannit ol</w>
M är
HEX AL</w>
Fakt oren</w>
Ent ac
Dis k
App likation</w>
Ani mal</w>
Acetyl sali
y li
veränder ter</w>
tig ten</w>
redu zierte</w>
oi de</w>
in t</w>
ent s</w>
eb si
e mi
durch führen</w>
das e</w>
ca de</w>
besch ädi
b ut
Z ev
Trop fen</w>
Transkri pt
Re mi
P ap
Ober schenk
Nov o</w>
Herzin farkt</w>
Fle x
Extre mit
Dysp noe</w>
Ab b
ühr en</w>
ü tzt</w>
zi r</w>
u k
te -
stimm ung</w>
schädi gung</w>
mm 3</w>
li ru
in tern
för mi
dar an</w>
ati ne</w>
an zi
VAX PRO</w>
Tel zir</w>
Syst ems</w>
Ib andr
Ex elon</w>
Bi liru
Behandl ungen</w>
An or
An amnese</w>
3, 0</w>
unterschied lichen</w>
tri ax
spezi ellen</w>
p on
no t</w>
n ö
mon i
l ene</w>
geliefer t</w>
gastrointestin ale</w>
ein deu
atmi gkeit</w>
Ra dio
ON ST
Gefü hl</w>
Dar reichungs
Cef triax
Carbam azepin</w>
B Y
5 0
1 40</w>
zu berei
zei tige</w>
um e</w>
schwanger en</w>
sch war
p ir
kl asse</w>
kardiovas kulären</w>
gr enze</w>
entsor gen</w>
ent liche</w>
emb ry
einger ei
dom y
Syst em
ST RE
R al
Mund trockenheit</w>
M as
Gl yc
GONAL- f</w>
Feb ru
Caely x</w>
B is
Ab bruch</w>
0 17</w>
zen den</w>
vor wiegend</w>
sp as
prä klinischen</w>
men opaus
kon vention
kali sche</w>
k ologie</w>
frei e</w>
beur teilt</w>
acknowledge d</w>
Sit u
Re c
Ps eu
Pir oxicam</w>
Ne der
M al
Kurz atmigkeit</w>
Janu ar</w>
Gem citabin</w>
Cl arit
Bin dung</w>
An forderungen</w>
An aphyla
ARZNEIMIT TEL
7 50</w>
wass er</w>
vor gelegten</w>
unter brochen</w>
sich eren</w>
niedri gere</w>
m ol</w>
läs st</w>
l a</w>
gri ppe
a ktions
Wahr schein
Verh üt
Sir oli
S P</w>
Neder land</w>
Mär z</w>
M üt
Kribbel n</w>
Immun antwort</w>
Ibandr onsäure</w>
IF EN</w>
Gran ulozy
verl äs
unter ziehen</w>
sch em</w>
sam m
ge kenn
frei en</w>
durchschnit tlich</w>
alog a</w>
Zit tern</w>
STRE IFEN</w>
Rücken schmerzen</w>
Prüf ung</w>
Pro met
Mut ationen</w>
Mortali tät</w>
Mi da
Infe ktions
I M
Hyperglyk ämie</w>
H ormon</w>
Febru ar</w>
F ER
Dem enz</w>
BY ETT
Auf druck</w>
Anti depressi
12 7</w>
ün sti
ox an</w>
ne te</w>
mon ati
lin ical</w>
ind el
i di
h ormon
gem el
gel be</w>
g n
et h
bre chung</w>
blut ung</w>
bekann ter</w>
ar m</w>
Wir bel
Virus last</w>
Ver sion</w>
T ub
S et</w>
Qu i
Lu ft</w>
Lietu va</w>
Laborat ori
Haupt studien</w>
Grundimmun isierung</w>
Entac apon</w>
Eliminations hal
Cholester in</w>
Auf bewahr
Acetylsali cylsäure</w>
vor her</w>
versu s</w>
verdün nt</w>
t yp
t l</w>
stei gt</w>
sol ange</w>
pi v
ph an</w>
or rh
ni a</w>
kom pen
gef ähr
europä ischen</w>
blut druck
all u
a tes</w>
Nerven systems</w>
NAM E</w>
N E
Impf stoffe</w>
Herz schlag</w>
H allu
Genehmi gungen</w>
De z
Aus wirkung</w>
ür en</w>
üb e</w>
vas tig
um gestellt</w>
ula t
ti scher</w>
ta l</w>
ge webes</w>
es k
do cument</w>
de fo
d rin
X ola
Vi a</w>
Tierarzneimit teln</w>
Tenofo vir</w>
Sch we
Ri vastig
Reproduktionst oxizität</w>
Patienten gruppe</w>
LI EN
Ingel heim</w>
Gummi stopfen</w>
FO LIEN
EME A-
Dysp epsie</w>
Dig oxin</w>
Dez ember</w>
C A</w>
Au g
Applik ations
A ME
über sch
vor hand
verbun dene</w>
si on
si l
relevan te</w>
n ol
men de</w>
k ün
en an
che mische</w>
ch mal</w>
beteili gt</w>
Z we
T I</w>
Sp rechen</w>
Nov ember</w>
Neu geborenen</w>
My algie</w>
Initial dosis</w>
Geh irn</w>
Dr ücken</w>
A defo
4 21</w>
ρο ς</w>
verseh entlich</w>
ul in
schlä ge</w>
schein ungen</w>
p .
om s</w>
o .o.</w>
mul ation</w>
la n</w>
is ation</w>
g h
eventu ell</w>
dar unter</w>
ac il</w>
V FEN
Säuglin gen</w>
Schw indel
S .</w>
Novo Rapid</w>
Nic otin
Hallu zin
H b
Gelenk schmerzen</w>
D op
B ri
35 1</w>
2 3
sor ption</w>
s erung</w>
or -
o fi
n -
gs weise</w>
gl au
fü gi
fest stellen</w>
durch ge
ci al</w>
al tern
ab fall</w>
Sy ndro
SS UNG</w>
S tre
Re Fact
ReFact o</w>
O p
Mida zolam</w>
In n
CO M
A -</w>
λλ ά
um mer</w>
tel s</w>
stärk e</w>
sam pren
ly mp
ktiv e</w>
kontrolli erte</w>
ier tem</w>
hol en</w>
gekenn zeichnet</w>
bi d
ac ep
abend s</w>
Vertret er</w>
St ate</w>
Kl ein
Fo sampren
FOLIEN STREIFEN</w>
E k
D in
Bes serung</w>
Berei chs</w>
Ari pi
9 9
3 95</w>
ύ π
um f
transp lan
ti ges</w>
ten den</w>
star ken</w>
pr a</w>
mi de</w>
gan z</w>
emea. eu
eli min
di stribution</w>
ation s</w>
aly sep
V oli
TR I</w>
Sch ock</w>
SEN TRI</w>
S ol
RN A</w>
N ICHT</w>
Influenz a</w>
I tra
Häl fte</w>
Hydro xy
CEL SENTRI</w>
B ol
ALT A</w>
A ffen</w>
2 4
0 19</w>
-H emmern</w>
v al
ungsp hase</w>
thi s</w>
te sts</w>
ta via</w>
rau chen</w>
p ump
oler anz</w>
o gramm</w>
mis ch</w>
gin al
gehör en</w>
frei setzung</w>
ex ie</w>
eini ger</w>
bestimm ter</w>
an k
ameth as
ZU SAM
Xola ir</w>
Wahrschein lichkeit</w>
Vi mp
Tuberkul ose</w>
Th e</w>
Soma tropin</w>
R hab
Pneum onie</w>
N at
I ONS
Ex tavia</w>
ENT RE
Ben e
Asp art
Ab schluss</w>
2, 4</w>
1 30</w>
verstär ken</w>
ver teilt</w>
v .</w>
sk á</w>
sk ir
nol enz</w>
l osigkeit</w>
blutdruck senk
al th
ag ie</w>
ZUSAM MEN
Som nolenz</w>
Schmer z</w>
Prop yl
O X</w>
Nier e</w>
Ne vir
Mit arbei
Häufi gkeiten</w>
E 171</w>
Dex amethas
Be denken</w>
Ali skir
AS T</w>
5 N
3 86</w>
0 1
, 0</w>
Über prüfung</w>
ur oni
ung stherapie</w>
transder male</w>
sprit zt</w>
reag ieren</w>
n on</w>
mer s</w>
m ess
le x</w>
gres si
fa ktor</w>
cholester in
V is
Rap in
Ra tes</w>
P T
Immun systems</w>
Cal ci
C L
Br ust</w>
BYETT A</w>
Arbeit spro
ABLET TEN</w>
8 000</w>
л г
лг ар
лгар ия</w>
Überempfindlichkeits reaktion</w>
fl äch
et erin
ent er</w>
c or
c omp
beu tel</w>
bess er</w>
a -</w>
Vimp at</w>
Ver füg
Promet ax</w>
Pers onal</w>
Neu pro</w>
Geb urt</w>
G -
Form ulierung</w>
CYP2 D
Bluter g
Angio ödem</w>
An leitung</w>
Abhängi gkeit</w>
ъ лгария</w>
Б ългария</w>
öff el</w>
zier ter</w>
verur sach
verantwor tlich</w>
gen ü
eben so</w>
b le</w>
ast a</w>
a c</w>
X O
Ti pran
Rhab domy
Resist enz
Rapam une</w>
Ph .E
P ali
Natriumchlori d
Kep pra</w>
Itra conazol</w>
I c
Hän de</w>
Ho ch
Ex positi
ETIKET T</w>
Durch führung</w>
Cef ur
Bra dy
Be tr
Auf tret
ä t
v ali
symptom e</w>
st est</w>
schmer z</w>
sch on</w>
off ene</w>
mer cial</w>
lok ale</w>
gi en</w>
gering fügi
er on</w>
Ver dacht</w>
Trac leer</w>
TER E</w>
Str ep
Stat us</w>
Schw einen</w>
Inf liximab</w>
In no
F re
E H
Darun avir</w>
D el
Cel ecoxib</w>
Bo eh
3, 3</w>
vor liegt</w>
ul e</w>
p harmako
p assen</w>
neu trop
neu er</w>
i atr
e ad</w>
ba sierend</w>
ausreich enden</w>
Unterneh mer</w>
Un ver
St ell
Rebi f</w>
Medikam ente</w>
Indu ktion</w>
Immun isierung</w>
H 5N
Fach in
Erhöh ungen</w>
Ein geben</w>
Atem not</w>
At men</w>
Anor exie</w>
vorzu gsweise</w>
verschreib ungspflich
verlänger t</w>
verhü tung</w>
ven tis</w>
ti nib</w>
ti erten</w>
ma r</w>
größ er</w>
f al
eb ro
c arb
ange wand
Zy klus</w>
ZUSAMMEN FA
U rin
Studien beginn</w>
Si la
Schw eine</w>
Sch ädi
M iss
Li p
Fosampren avir</w>
F IX</w>
Aliskir en</w>
0 21</w>
zy m
x ate</w>
uli tis</w>
t a</w>
st ungs
schwerwiegen d</w>
my elo
m epir
er geb
Zal asta</w>
Wei ter
Subst rat</w>
Schlaf störungen</w>
Rami pril</w>
Pf le
Par ästhesie</w>
Nor ge</w>
N ur</w>
N ukleosi
M ir
M ini
Heli xate</w>
Gli mepir
Diabe tik
Ceftriax on</w>
An t
6 0
ör tlichen</w>
wass er
vir ase</w>
trop e</w>
peripher en</w>
on ly</w>
om e
mer -
man chmal</w>
kti n
i z
i dan
hydroxy benzoat</w>
geeigne ten</w>
ec t</w>
di sp
da li
com mercial</w>
bil den</w>
antivir alen</w>
abhängi ge</w>
Ver wendbar</w>
Q T-
Pun kte</w>
O J</w>
N etz
Musk eln</w>
I mi
Fun ktion</w>
Flu oxetin</w>
Eingri ff</w>
E ff
Dul oxetin</w>
Des l
35 7</w>
2. 5</w>
2 40</w>
1, 8</w>
ύπ ρος</w>
Ε λλά
versch limm
ve c</w>
ur .</w>
re gi
pur pos
purpos es</w>
p H
mus störungen</w>
je des</w>
inn en
ge prüft</w>
esk á</w>
entwick lung</w>
ent herapie</w>
ar a</w>
allerg ischer</w>
ab setzen</w>
Zi agen</w>
Vor sit
Ul zer
S ur
Ret ac
Rem eron</w>
Ph.E ur.</w>
Pankre atitis</w>
Ober fläche</w>
Harn wegs
Gli vec</w>
Ge genan
G AN
Flex Pen</w>
E K
Chil d-
B utyl
Auftret ens</w>
Appeti tlosigkeit</w>
12 -
10 .</w>
1, 7</w>
1 11</w>
Ä N
wo durch</w>
vorgesch la
un gewöhn
ti ve</w>
sto ß
rin ger</w>
ri cht
positi v</w>
p razol</w>
kontrolli eren</w>
k s
k einer</w>
hy len</w>
h ell
gr an
ent ora</w>
einmali gen</w>
be absich
b ris</w>
aus schließlich</w>
at h</w>
absol ute</w>
Y t
Verabrei chungs
Therap ien</w>
Terfen adin</w>
Psori asi
PACK UNGS
Nex Gen</w>
Neur o
Kontra st
Iso en
In virase</w>
IV A</w>
I m
G -C
Eff entora</w>
C hr
Bon den
Aripi prazol</w>
A F</w>
6 5
4 27</w>
zu bereitung</w>
w a</w>
t on</w>
sie gel
sch wä
placeb okontrollierten</w>
on ale</w>
idan ce</w>
gin g</w>
fäl li
fol ie</w>
fe ktion</w>
eben e</w>
c eva</w>
c en
be zogen</w>
avir -
as y
a ñ
Y S</w>
Voli bris</w>
Toxiz itäts
T OR
Rapin yl</w>
Lös ungsmittel
Lös ungen</w>
Inhal ation</w>
G 3</w>
Esp añ
Erhal t
Brust schmerzen</w>
Boeh ringer</w>
Ber ücksich
All erdings</w>
ä par
ä n</w>
z on
w il
st reifen</w>
spezi ell</w>
si ge</w>
senk ung</w>
reversi bel</w>
ozy ten</w>
lang fris
la t</w>
ko k
idi opath
i t</w>
hal t</w>
ger te</w>
ent halten
a vi
TA XO
Geschlech ts
E fe
Child- Pu
C or
Bonden za</w>
AC T
un bekannt</w>
ten s</w>
oxi l</w>
la fa
ge spritzt</w>
er wiesen</w>
chirurg ischen</w>
ati ver</w>
alkoh ol</w>
Zev alin</w>
Z wei
Vor bereitung</w>
V oll
V -</w>
Tran samin
Thy ro
Tas mar</w>
Rivastig min</w>
Mehr zahl</w>
Ma i</w>
Kap pe</w>
Jahr es
In v
H ex
H Be
Gesund heits
Fer tavi
E W
D ori
Auf sicht</w>
Auf rechter
ul är</w>
u z
stoff wechsel
sp eichel
schwer em</w>
schri ften</w>
ro te</w>
p ol
f ast</w>
er enden</w>
da pti
c oli</w>
be findet</w>
aufzu bewahren</w>
auf weist</w>
angemess ene</w>
Tran s
S kler
La ge</w>
Kap sel
Hep arin</w>
Gef ahr</w>
Erhöh te</w>
E mb
Da bei</w>
übergeh t</w>
Ö stro
v ezi
ti din</w>
ter nen</w>
t nisse</w>
oti sche</w>
om ed</w>
komp li
g a</w>
en do
dr ehen</w>
c es</w>
at hi
an -
al z
Sila po</w>
Selb st
Präpar at</w>
Pro f
O s</w>
Magen -
Lin derung</w>
Laktat azidose</w>
Klein kin
Kar vezi
Fertavi d</w>
Durch schnit
Blu tes</w>
An fälle</w>
δ α</w>
unter zogen</w>
sep ar
schä d
opri l</w>
kut ane</w>
gil t</w>
aus fall</w>
Ver halten
VFEN D</w>
V III</w>
Transp lantation</w>
Temo dal</w>
Tar ceva</w>
R ue</w>
M isch
Karvezi de</w>
Herzrhyth musstörungen</w>
HC T</w>
G an
Españ a</w>
D än
Co .</w>
Bauch speichel
Anti diabe
12 8</w>
0,00 01</w>
un bedingt</w>
tra g</w>
si eren</w>
sch leim
s on
rekonstitu ierte</w>
pharmako dyna
o grap
mod ellen</w>
l yn</w>
komp let
it y</w>
individu ellen</w>
häufi gste</w>
gel b</w>
f ärbung</w>
ent nommen</w>
el s</w>
e z
acep t</w>
Typ -
T hiazi
Su om
My oc
Mab Camp
L ar
Eryth em</w>
EX UB
Dän em
Der matitis</w>
Depres sionen</w>
Co Aprovel</w>
Bas al</w>
5, 0</w>
2, 6</w>
0, 75</w>
z ung</w>
ung in</w>
u si
tr ation</w>
tech ni
t us
ste sts</w>
schrit t
s eite</w>
post menopaus
pass ungen</w>
on ar
n üch
le gte</w>
f ir
et er</w>
ehy dr
blut ungen</w>
al ev
Zusammen fassungen</w>
Suom i</w>
Sti ck
Re flu
P sych
Nicht -
Nes sel
N u
Indu ct
Hal s
Fl us
DURCHSTECH FLASCHE</w>
Clarit hromycin</w>
Blut untersuchungen</w>
Berücksich tigung</w>
Bene FIX</w>
Be fun
Aug ust</w>
Arzneimittel -
Ab gabe</w>
A n</w>
A X</w>
9 00</w>
10 2</w>
zu verläs
thr omycin</w>
ter in</w>
steh enden</w>
schn eller</w>
s e-
ra ft</w>
r und</w>
ph in</w>
n ie</w>
mittel schweren</w>
l eb
jahr e</w>
j ungen</w>
eu r</w>
beschri ebenen</w>
behandel nden</w>
ba siert</w>
aufge li
Verschluss kappe</w>
Verfüg barkeit</w>
Soll ten</w>
Sc ore</w>
S e
Retac rit</w>
Pro gression</w>
Patienten gruppen</w>
I L</w>
Halluzin ationen</w>
H IN
Glimepir id</w>
Dänem ark</w>
C AN</w>
Bedien ungsan
Aufrechter haltung</w>
A 1
7 5
2 18</w>
ür e</w>
zu l
w and</w>
ver schlech
tz eit</w>
tr ot
r z</w>
phosp h
li fer
j un
größ e</w>
fu sions
for dern</w>
ev ax</w>
ein tritt</w>
cin es</w>
ati scher</w>
ac et
Unter brechung</w>
Topo tecan</w>
Sorbit ol</w>
Sek unden</w>
Remi cade</w>
Pur evax</w>
Patien tin</w>
Met ac
Magen- Darm
L auf
Hämoglob in</w>
HAN DEL
HANDEL S
H AR
Gewichts verlust</w>
B I
Ab fall</w>
12 9</w>
1, 6</w>
â nia</w>
vor ange
nor mali
k el</w>
eti no
dosier tem</w>
behand lungs
alt a</w>
Tech nologie</w>
System organ
Sy n
S. p.
S ac
Rom ânia</w>
Rhabdomy olyse</w>
Ovari al
Metho de</w>
M ER
HANDELS NAME</w>
Ergeb nissen</w>
Di hydrat</w>
D rei
Arthr algie</w>
Arbeitspro gramm</w>
A m</w>
3 2
zu stand</w>
wiederhol t</w>
weiß er</w>
unzureich end</w>
sup pression</w>
sen ken</w>
kr ämpfe</w>
ich tet</w>
i ja</w>
gen eti
er vier
er achtet</w>
di ent</w>
br ü
at a</w>
ap ri
an n</w>
a gen
Tre atment</w>
Thrombozyten zahl</w>
Sta vudin</w>
St alev
Sitz ung</w>
SP C</w>
S ons
S oli
P A</w>
Metfor min
Leberen zyme</w>
K re
F a
Cep lene</w>
Bedienungsan leitung</w>
Ad va
A kt
z es</w>
vi va</w>
oprot ein</w>
lin e
k reatin
individu ell</w>
hy dr
empf ehlungen</w>
ac e</w>
Y S
Ven lafa
Tech ni
Soll te</w>
SCH AF
Redu zierung</w>
M alta</w>
Kontroll gruppe</w>
K oh
In tra
In fan
HD PE</w>
Fra kturen</w>
FS H</w>
F est
Ar ten</w>
4 4
ver m
spr ün
schlu cken</w>
p ation</w>
o x</w>
ne ten</w>
mikro bi
gs t</w>
größ erung</w>
g ar</w>
er ol</w>
el en</w>
ec it
dau erh
chs alz
al ter</w>
a zy
a te
Z O
V ol
V ec
Sti llen</w>
S etzen</w>
Pra xis</w>
Mitglied s
Metaboli t</w>
M SD</w>
Krank en
IT Z
Hä mat
Her z</w>
E F
DE R
Bon viva</w>
Blutgefäß e</w>
BE ZEICHN
zugelass enen</w>
wach st
verschie dene</w>
verl auf
sp an
medi kation</w>
malig nen</w>
m or</w>
fortgeschritten em</w>
fan g</w>
elimin iert</w>
el ektr
bedin gungen</w>
auftret ende</w>
Ver ordnung</w>
Sulfonylharn stoff</w>
Or phan</w>
Nevir apin</w>
Konzentr ations
He alth
Fol ge
E ier
Da durch</w>
10 4</w>
Κ ύπρος</w>
w o</w>
verschreibungspflich tige</w>
va c</w>
ter t</w>
st ate</w>
rich tigen</w>
plan en</w>
op hosp
nor mal</w>
nach folgen
n de</w>
met hyl
ihr en</w>
en tr
en si
d ge</w>
chron ische</w>
bwer tzeit</w>
Zom eta</w>
W y
Sep sis</w>
M A</w>
Leuk openie</w>
LD L-
Inno Let</w>
Induct Os</w>
Immun suppressi
Häufi ge</w>
Hb A1
Har mon
H and</w>
H EI
Ein stich
EP T</w>
Diar rhoe</w>
Antidepressi va</w>
AR T</w>
AME T</w>
zy klen</w>
verbess ert</w>
untersu chung</w>
ula t</w>
still enden</w>
produ ziert</w>
par enter
n am
kombin ierten</w>
es se</w>
ati sch</w>
an i</w>
ZUSAMMENFA SSUNG</w>
Schwindel gefühl</w>
SPR ITZ
Retard tablette</w>
Pilzin fektionen</w>
Phenyl alan
Om ni
Kri terien</w>
Jahr es</w>
Infan rix</w>
I sol
I LI
HBe A
H alt
End pun
E T</w>
Cytochro m</w>
An aly
1A 2</w>
Ελλά δα</w>
ur sprün
tr in
tr etino
ti ef
schri ft</w>
ri mi
ra zol
p oly
mi en</w>
li pid
intern ation
gebor ene</w>
f s
di s</w>
di erung</w>
d s
amp ul
am ini
Zy klen</w>
U SA</w>
Tre mor</w>
Stu hl</w>
Schutz kappe</w>
Sac char
Pharmazeuti scher</w>
Or g
Nutzen-Risiko- Verhältnis</w>
No te</w>
Inspe ktionen</w>
Hautr ötung</w>
Geb ie
Fort schreiten</w>
Ergeb nis</w>
Di dan
Blutgerinn sel</w>
B ER
Antibio tikum</w>
An bruch</w>
Ac lasta</w>
10 1</w>
1 16</w>
ti onen</w>
rit te</w>
re s</w>
ox eti
i k
har moni
gesch ätz
ge st
es p
e mp
ab u
Verwaltungs rat</w>
Tipran avir</w>
Rel evan
Pu h</w>
Pro fil</w>
NR TI
Li ppen</w>
L oratadin</w>
Injektions zubereitung</w>
H öchst
Genot yp</w>
Fachin formation</w>
Behäl tnis</w>
B ot
3 3
-C learance</w>
ä ten</w>
zyt otox
ver einbar
ve a</w>
untersu chten</w>
trop in
trock ene</w>
gon isten</w>
gener ali
fu hr</w>
farblo s</w>
er wies</w>
enz ahl</w>
block iert</w>
arb eit</w>
an genommen</w>
abhängi gen</w>
W E
Rück gang</w>
Pro ben
Potenzi al</w>
N ephr
M Y
G LI
Diabe te
Di en
Desl oratadin</w>
. int</w>
ungs metho
te mpf
stradi ol</w>
stat t</w>
schä den</w>
ru e</w>
osi tät</w>
op hr
iz ophr
gewährlei sten</w>
eti de</w>
eg a</w>
do kum
de te</w>
de m
c tal</w>
berech net</w>
be ta
akt u
Z in
Unter zuck
Ser etide</w>
R olle</w>
Psoriasi s-
Prot op
P ent
Mikro kristalline</w>
Medi an</w>
Kar vea</w>
Immun ogenität</w>
G lie
G L
F OL
EN T</w>
Dexamethas on</w>
B ind
2, 3</w>
13 1</w>
, 7</w>
über wiegend</w>
unter halb</w>
tä glicher</w>
thromb oemboli
symptom atischen</w>
s. r
pro pi
p yl
omi d</w>
n ep
l em
kal z
ini ti
i. v.</w>
gew on
geschw indigkeit</w>
ge la
for men</w>
d nis
besteh ender</w>
besteh ende</w>
as ste</w>
app li
Wirkstoff freisetzung</w>
TOR IS
TI N</w>
Sub stitu
Sili cium
SU ST
Relevan z</w>
R I</w>
Ori ginal
Körper s</w>
Kar di
Inter nationale</w>
Heli c
Haar ausfall</w>
Fluticas on
Dy nep
C op
Ar b
x -
wä ss
weiß es</w>
tox ische</w>
t an</w>
st ren
si mpf
s aft</w>
n ern</w>
medikam ent</w>
gebil det</w>
frü her</w>
erreich ten</w>
blu ten</w>
anzi en</w>
angewand t</w>
ab wei
Z one
Sch ritt</w>
Placebo- Gruppe</w>
P el
Mil ch
Lami ctal</w>
Kanü len</w>
Ir land</w>
Häm ophilie</w>
De fer
Bon dronat</w>
A mi
3 .</w>
1 -</w>
y len</w>
x or</w>
verursach te</w>
re g
os om
o z</w>
mi flu</w>
ma top
hal tige</w>
größ eren</w>
gan gen</w>
ein hibit
beschädi gt</w>
be trifft</w>
Wirkstoff s</w>
W il
T win
Sev en</w>
Sal be</w>
Novo Seven</w>
Nach beobach
Muskel schwäche</w>
Mess l
H emmern</w>
FER TIG
F en
Entsor gung</w>
Empfängnis verhütung</w>
Elek tr
C ONST
Aufl ösen</w>
Arb eit</w>
über schreiten</w>
är b
zu trifft</w>
wirk ungs
vor liegenden</w>
verb lei
ven öse</w>
unter en</w>
ula tur</w>
symptom atische</w>
sti pation</w>
r unde</w>
mal es</w>
lymp h
kalz ämie</w>
in g
hr en</w>
englyc ol</w>
ech en
e o
ch in
bil d</w>
be wertet</w>
an th
all erdings</w>
ac i
Vi ani</w>
Ver kehr</w>
Twin rix</w>
Tri zi
TI ER
Sloven ija</w>
Sand oz</w>
Pi m
Omni trope</w>
Ob stipation</w>
O xy
Mut ter</w>
Injektions -</w>
Herp es</w>
Her stell
HP V-
Geb är
Dys funktion</w>
C .</w>
Akt uali
z o</w>
vir -
verbun denen</w>
v ol
ulär er</w>
te gr
sz á
substan z</w>
pir at
or szá
o sen</w>
lie gende</w>
letz t</w>
h ül
gef r
f es
f allen</w>
end gül
ek te</w>
c y
c al</w>
an er
V I
TAXO TERE</w>
St ap
Schwangerschaf t
S L
Rezeptor -
Qu in
Q T
Pel zon
P a
Nor vir</w>
Ner v
MA O
II I
Harmon isierung</w>
Gri echen
Geh irn
Far mac
CH AMP
Ar rhyth
Adva graf</w>
ARZNEIMITTEL S</w>
A T</w>
1 1.</w>
wer fen</w>
trin ken</w>
sorgfäl tige</w>
se am
sal z</w>
of i</w>
neu trali
mit glie
mei st</w>
kl on
kl ein
is tische</w>
hat -
ent sprechen</w>
emea.eu .int</w>
eindeu tig</w>
de pression</w>
c are</w>
W und
W ien</w>
W ech
TE IL
SUST IVA</w>
Protop y</w>
Polyprop ylen</w>
OV I
Natriumchlorid lösung</w>
Mö glich
Magen-Darm -
Lit hi
Kre uz
Krankenh aus</w>
Ko chsalz
Inform ation</w>
Herz erkrankungen</w>
Größ e</w>
Griechen land</w>
Dosisan passungen</w>
Didan osin</w>
Di alyse</w>
Anwendungsgebie te</w>
35 3</w>
19 95</w>
00 1-
üch tern
transp lant
stell te</w>
st -
ru he</w>
ph t
orszá g</w>
kro se</w>
konvention ellen</w>
k eit
gram ms</w>
gewi es
gen aue</w>
fi kation</w>
er wor
ach e</w>
Var denafil</w>
Trizi vir</w>
Ta miflu</w>
T hi
Schwe den</w>
ST OC
Rati o</w>
N üchtern
My el
Lansop razol
IN C
Helic obacter</w>
Gem fibro
Emb ry
Einstich stelle</w>
Din a
D AS</w>
Com p</w>
CONST A</w>
CHAMP IX</w>
C entr
AG E</w>
6 7
2 25</w>
14 6</w>
10 6</w>
1, 9</w>
00 -
Über leben</w>
zentrali sierten</w>
wirk te</w>
uli ert</w>
terstat ter</w>
radio aktiv</w>
ona do
ommen es</w>
of fizi
niedri geren</w>
kon ta
for me</w>
el on
den .</w>
berücksich tigen</w>
ange wiesen</w>
Zen tr
Ver sch
U T
Tre dapti
Transp lant
Tal kum</w>
Stalev o</w>
Soli ris</w>
San ofi</w>
STEL L
S auer
Rap tiva</w>
Po vidon</w>
Phot o
Pelzon t</w>
Nahrungs aufnahme</w>
M ischen</w>
L ich
Kalzi um
K iv
Infu sionen</w>
Inform ations
H und</w>
Ek z
Efe xor</w>
Cholester in
Cap ecit
CM L</w>
C li
Bl asen
Bin oc
Aufbewahr ung</w>
Ab seam
A dali
3 75</w>
zy ten
y ar
vorange gan
ver schluss</w>
v öl
töd lich</w>
to s</w>
termin ale</w>
schüt teln</w>
ov ari
or alem</w>
olo gi
ob wohl</w>
n ä
n d</w>
mat a</w>
hy lo
gres sions
ge plan
el las</w>
dar gestellt</w>
ck ung</w>
c on</w>
c am
be tragen</w>
be darf</w>
abzu setzen</w>
abschie det</w>
abgesch lossen</w>
W ebsi
Ur sache</w>
Ti mol
TORIS EL</w>
Sprit zen
Siroli mus</w>
Polyet hylen</w>
Plasmaprot eine</w>
Mag yar
Kons ervier
ILI F
Hüf t
Gesund heit</w>
AB ILIF
A dapter</w>
5 5
3 60</w>
0 24</w>
, 1</w>
ö hr
zi l</w>
wen ige</w>
verschrei ben</w>
ver pflich
uss fol
ungs -</w>
th e
s au
rho se</w>
post nat
per si
ov ale</w>
oli tis</w>
ol in
multi zentr
konv ex
in den</w>
en tion</w>
Z e
W i
Venlafa xin</w>
TEL EN
Sti mulation</w>
Kortikosteroi den</w>
IN TELEN
H or
Antidiabe tika</w>
Ant wor
Amin os
Alters gruppe</w>
Abseam ed</w>
AC E</w>
A den
9 ,5</w>
6 .</w>
2 80</w>
äl tere</w>
tropin A
tem ra</w>
so mit</w>
positi ve</w>
ot t</w>
opi c</w>
ona zol
om er
lok alen</w>
g um
g -</w>
früher en</w>
f o</w>
erwar teten</w>
erheb lich</w>
erg än
eingesch lossen</w>
e zu</w>
auf recht</w>
an en</w>
an c
ali a</w>
Wieder hol
Tredapti ve</w>
T ol
Stap hylo
Silicium dioxid</w>
Ro Ac
RoAc temra</w>
Radio aktivität</w>
RI N</w>
Opti Set</w>
OL ANZ
OLANZ AP
O hn
Nu tropinA
Natrium di
NS AR</w>
L et
Kom a</w>
Herz frequenz</w>
Gl yk
Erythropo etin</w>
E s
Dep o
Chem otherap
Binoc rit</w>
An gst</w>
10 8</w>
y pen</w>
verstär kt</w>
versch lossen</w>
verminder ter</w>
tnis ses</w>
str ie</w>
st ag
spezi ali
s einen</w>
s ation</w>
r in</w>
oti schen</w>
o ur
ni er
konvex e</w>
hem men</w>
gr an</w>
ep tika</w>
din e</w>
angem essen</w>
an om
W ISS
Skelett musk
Refer at</w>
Ra di
Prot opic</w>
Phase- III-
Patienten jahre</w>
Nicotin säure</w>
M B</w>
L esen</w>
K äl
K un
Halt barkeit</w>
H ör
Gemfibro zil</w>
Gebär mut
Etiket tierung</w>
Er st
Emtri va</w>
E tra
Befun de</w>
Anti hist
ABILIF Y</w>
2- mal</w>
t yp</w>
stan den</w>
st a</w>
schw ach</w>
o spas
neg ativen</w>
min dern</w>
mi erung</w>
man chen</w>
li g</w>
l .</w>
impf ung</w>
ho stati
ein zi
e te
e an</w>
be zieh
b ene</w>
au st
ander s</w>
allgem einen</w>
Zone gran</w>
WISS EN
WISSEN SCHAF
WISSENSCHAF TLI
Tru va
Tre vac
Ti er</w>
STOC RIN</w>
S I
R K
Nerv osität</w>
Magyar ország</w>
M AR
Europ ean</w>
Eier st
CI AL
Arzneimittel wirkungen</w>
An sti
An al
Ab at
4 .</w>
37 7</w>
3 31</w>
- Patienten</w>
äm me</w>
weis ung</w>
verwende te</w>
rin g</w>
psych o
ox y-
otransfer ase</w>
nö tig</w>
li ert</w>
k e
in sul
in aktiviert</w>
ges und
fortgeschrit tenen</w>
erg ri
eb ung</w>
begrenz ten</w>
aus lösen</w>
and au
X T</w>
Un ruhe</w>
Tri glyceri
Schl ussfol
Präpar ate</w>
Prot eine</w>
Produ ktion</w>
Metho den</w>
Ma kro
Kiv exa</w>
INC REL
GE R</w>
F ä
EV RA</w>
Be vor</w>
Auf gaben</w>
Atem beschwerden</w>
A venue</w>
4- hydroxybenzoat</w>
, 6</w>
zu letzt</w>
weiter er</w>
verwende ten</w>
vas kuläre</w>
tretino in</w>
tre sist
stim ulier
relevan t</w>
rekombinan tes</w>
olog isches</w>
ma terial</w>
hy re
gewünsch t</w>
genü gend</w>
g keits
fl un
ff in
es ca</w>
ergri ffen</w>
empfeh len</w>
d un
c learance</w>
auszu füllen</w>
angeb or
an wendung</w>
ab lock
VIR AC
VIRAC EPT</w>
Truva da</w>
Syn kop
Rec ormon</w>
Poten tial</w>
Posac onazol</w>
Per tus
P I
Neo Recormon</w>
L da</w>
Kochsalz lösung</w>
K il
Janu via</w>
Gesamt über
Er reichen</w>
E mul
D ro
Blister streifen</w>
Aussch u
ünd el
ün di
zir k
ungs hem
sp ar
son dern</w>
sen kt</w>
schritt weise</w>
sch en
s land</w>
s etzt</w>
par ti
on s</w>
möglich st</w>
kardiovas kuläre</w>
k ran
hi elt</w>
gi gen</w>
ge wähl
er ungen</w>
e ur
di mpf
di eren</w>
be stimmen</w>
ad äqu
Tierarzneimit tels</w>
T eli
Spezi es</w>
Serum kreatin
P opul
Nife dipin</w>
Langzeit behandlung</w>
Kun st
Kali um</w>
Inn erhalb</w>
Gran ulat</w>
Di ffer
D I
CYP2C 9</w>
Bin de
Bet ablock
Al tern
35 9</w>
10 3</w>
0 5
, 3</w>
ver is</w>
spezi elle</w>
samm lung</w>
saf tresist
s ein
ro limus</w>
oti d</w>
neum oni
nah ezu</w>
mon o
li tis</w>
klin gen</w>
gew oh
experiment elle</w>
esi en</w>
er fordern</w>
d -</w>
arbei tet</w>
am b
Z U</w>
Ver zö
Ty ro
Trevac lyn</w>
TE XT</w>
S.p. A.</w>
Reiz barkeit</w>
R at
Plas tik
P ax
Mar avir
MabCamp ath</w>
Lis in
Inhal ations
Haushal ts
Gelb sucht</w>
Gegenan zeigen</w>
Fu ze
FERTIG SPRITZ
EXUB ERA</w>
Doxor ubicin</w>
Di ov
DE N
D O
Cefur oxi
CIAL IS</w>
B ündel
Augen innen
Atem wegs
Appeti t</w>
Anti epil
Al bumin</w>
AP EX
- -</w>
zer b
vi x</w>
ver mö
ti de</w>
t ub
quali tät</w>
of t</w>
li ter</w>
lat ard</w>
kombin iert</w>
ger aten</w>
gen der</w>
gefüll t</w>
g ar
er ter</w>
a .</w>
Zulassungs antra
W H
Verdün n
Unver träglichkeit</w>
T ABLETTEN</w>
Rif abu
P L
Not fall
Männ er</w>
Kombin ations
Insu latard</w>
Influenz a-
Imp lant
Fuze on</w>
Fra u</w>
Eliminationshal bwertszeit</w>
Cro s
Cholest agel</w>
Behandlungs wo
Aus wertung</w>
Actrap id</w>
6 9
16 1</w>
08 .
0 46</w>
verminder ten</w>
so for
sch utz</w>
p ens</w>
oxi fen</w>
om etr
o ste
mittel gradi
m ar
kontin enz</w>
gefü gt</w>
g ünsti
fi eb
es ti
besch rän
bes ten</w>
be wirkt</w>
ap hane</w>
af l
Zwe i</w>
Z av
Websi te</w>
W erten</w>
Tei len</w>
Schädi gung</w>
Schlu ck
SU T
Rev li
Prot aphane</w>
OR EN
OREN CI
M oxi
Knochen mark</w>
Fut ter</w>
En ter
Dosierungs schema</w>
C eri
Bu sil
Blutdruck abfall</w>
B M
2 C
ü len</w>
te st</w>
stimm t</w>
randomi sierte</w>
monat lich</w>
li x</w>
lei ten</w>
l er</w>
kin der
h äu
f ett
et h</w>
ei genen</w>
b ronch
angeb racht</w>
ange l
an steigen</w>
a zerb
Zav esca</w>
T in
Sti mm
St ar
Sloven ská</w>
Skler ose</w>
Sch wä
S ICH
S EL
Plasma -
Messl öffel</w>
Kompon ente</w>
Kin er
Health care</w>
HBeA g-
Gar da
G ab
Fin anz
F E</w>
En vi
Di ac
Capecit abin</w>
C R</w>
Abb ott</w>
3 -</w>
2, 7</w>
2, 1</w>
2 9
13 5</w>
12 6</w>
übersch ritten</w>
vis u
v us</w>
us tin</w>
t .</w>
stütz t</w>
stab il</w>
st ündi
potenzi elle</w>
persi sti
p y
opro st</w>
oll en</w>
lan gen</w>
gel b
ergeb nisse</w>
erforder t</w>
er al
en kt</w>
beginn t</w>
at s
ar tigen</w>
allgem eine</w>
Ver stärk
Tran spor
TE SAV
TESAV EL</w>
Ste ven
St abilität</w>
Proteas einhibit
Pla n</w>
NutropinA q</w>
N V</w>
Maxi mal
In ji
Hydro chlorid</w>
Gel atine</w>
Folli tropin</w>
F R</w>
Ex azerb
Envi age</w>
Emul sion</w>
Diac o
D au
Calci um</w>
Benz odi
AL I
A x
8 50</w>
4, 8</w>
4, 0</w>
yn gitis</w>
verm uten</w>
ur a</w>
u p
trot z</w>
ret ention</w>
rekombinan ter</w>
re zidi
orti onal</w>
okon ver
ob ar
nah e</w>
me o</w>
log 10</w>
kum ulation</w>
kr äf
k no
iegel s</w>
ge öff
fer tigt</w>
cit onin</w>
betr ugen</w>
bein hal
am ine</w>
Y N</w>
Ver letz
V A</w>
Ty pen</w>
Teli thromycin</w>
Te mperatur</w>
Strahl entherapie</w>
Stick stoff
Ser okonver
Schlu cken</w>
Sch izophr
Pfle ge
Neu lasta</w>
N ei
MIR APEX
Luft blas
Leber erkrankungen</w>
F as
Erhalt ungstherapie</w>
En zep
Dynep o</w>
Diov an</w>
C R
Bl äh
Bauchspeichel drüse</w>
B os
At mung</w>
ACE -Hemmer</w>
2, 8</w>
14 4</w>
ä schen</w>
ä rem</w>
ver mindern</w>
ter us</w>
te plas
t amin
steril en</w>
stab ili
sier ende</w>
richt ungen</w>
re zept
os a</w>
metastasier tem</w>
krank ungen</w>
it zen
in aktiv
hel fen</w>
han ol</w>
genan nte</w>
beruh t</w>
ber eit</w>
antiretrovir ale</w>
angewende ten</w>
Versu chs
UM KARTON</w>
UL N</w>
Ta sig
Sp ri
Ris per
Past eur</w>
O H
Nieren problemen</w>
Medikam ent</w>
MIRAPEX IN</w>
Lac os
Impf ungen</w>
INTELEN CE</w>
Gl ustin</w>
Elektr oly
Cl of
Blutgerinn ung</w>
Augen li
Ad v
4 6
14 2</w>
ärz tliche</w>
z erk
veränder te</w>
si l</w>
schmerz haf
ru din</w>
rel ativ</w>
postmenopaus alen</w>
post oper
pharmak ologischen</w>
neg ative</w>
lie b</w>
j ahr</w>
in fluenz
hämat ologischen</w>
hin zu
gro ß
gegen wär
fizier ten</w>
eu ch
e kt
Wy eth</w>
Verf ärbung</w>
Val tropin</w>
V III-
Spri meo</w>
Revli mid</w>
Pro z
Plazeb o-
Pharmako dyna
Mitarbei ter</w>
M eri
Lympho zyten</w>
Len alido
Kon fer
Inji zieren</w>
IONS YS</w>
Hypoglyk ämien</w>
Har n</w>
F ABL
Etra virin</w>
Er satz
E re
Depo Cy
C E
Appeti t
Al ph
5 0-
4, 6</w>
0 31</w>
0 27</w>
wen ig</w>
viv o-
verstär kte</w>
v in
spiegel n</w>
rich tige</w>
ra di
osi s</w>
my el
m -
ge halten</w>
en ia</w>
ein schränkung</w>
e qu
de mi
besteh end</w>
berich te</w>
be legen</w>
b lieb</w>
am -
a cht</w>
Zy to
Y C
X -
Verabreichungs ort</w>
Unterzuck erung</w>
Unter teil</w>
TR IS
TRIS EN
Sta dium</w>
SO MA
SOMA VER
S obald</w>
Qui xi
Produ kte</w>
Photo Bar
Laboratori es</w>
Hän den</w>
Hypo kaliämie</w>
Ha em
Et hin
End ome
Cep hal
Blutgerinn ungs
Bet a-
Behandlungs gruppen</w>
Aus nahme</w>
Al op
1 18</w>
0 49</w>
vi tis</w>
thr ombin
ra x
pack t</w>
p op
or ange</w>
om ie</w>
obar bit
o gruppe</w>
man ax</w>
m äh
jün geren</w>
individu elle</w>
in formi
ih r</w>
gr ünd
gesch ützt</w>
ges enkt</w>
f ur
erhöh ung</w>
eh lung</w>
der selben</w>
c ov
c l
best and</w>
aufgeli stet</w>
at or</w>
all mäh
ZU R</w>
Thy manax</w>
Sub kutane</w>
Sir up</w>
SUT ENT</w>
Ri pra
Pri m
Phosphat ase</w>
P ädiatr
Oberschenk el</w>
Natriumchlori d-
L AI
Kiner et</w>
Gluc ose-
Fü hren</w>
Fertig pens</w>
Ex anth
Empf ehlung</w>
E bi
Du o
Blutdruck senkung</w>
Behandlungs zyklus</w>
B rennen</w>
B ab
Anti psycho
Adefo vir
7 00</w>
2 4-
ä mische</w>
zei tigen</w>
vers e-
ver siegel
unter schei
tempf ind
teil s</w>
t ar
schw ellen</w>
os e
ma gen
lu ckt</w>
lok al</w>
k en
geänder t</w>
gab atr
eingeschrän kte</w>
durchge führten</w>
d oxan</w>
Vi gabatr
Val doxan</w>
V ent
Transkript ase-
T IS
Syndro ms</w>
St om
Rück stand
Risikom an
Ripra zo</w>
Quixi dar</w>
Phen obarbit
Lu cen
Kau tabletten</w>
K arton</w>
IC LAI
Hitze w
Fä zes</w>
Fol gende</w>
Er teilung</w>
Ent fer
EG A</w>
Dy na
Diaco mit</w>
Busil vex</w>
Brady kardie</w>
B V</w>
Anti -
Ansprech rate</w>
AR ICLAI
37 3</w>
35 4</w>
2 2
15 1</w>
ä ur
wissenschaf tliche</w>
vorher ige</w>
ver packung</w>
ver langsam
u mab</w>
ständi ge</w>
sche mata</w>
rich tet</w>
pp en
ol ie</w>
inje ktion</w>
hin weisen</w>
heits gefühl</w>
gi f
gen aus
gela gert</w>
geb ung</w>
form ationen</w>
fest zustellen</w>
den er</w>
bil d
betre ff
benö tigt</w>
ben utz
ausgeprä gt</w>
an tagon
an a</w>
af en
X i
W egen</w>
Ver schreibung</w>
Trit ace</w>
Tr äch
Timol ol</w>
Thalido mide</w>
St r</w>
St ar</w>
Schizophr enie</w>
Risper dal</w>
Re verse-
Produ ktes</w>
P T</w>
Or li
M g</w>
Inter aktions
I st</w>
Gerinn ungs
Fel d
E fi
D U
Blutungs risiko</w>
B -</w>
Antihist amini
An schluss</w>
4 64</w>
Í sland</w>
wich ti
ver ändern</w>
um et</w>
sich ere</w>
p it
neumoni ae</w>
meti a</w>
jähr igen</w>
indu ziert</w>
gerin geren</w>
ger ech
gen tliche</w>
ge halt</w>
dri d</w>
di e
cre as</w>
besch le
auf wiesen</w>
au se</w>
and ra</w>
ag lin
a den
WIR K
Vel metia</w>
Test oster
Tasig na</w>
Sons tige</w>
Re st
Pro je
O y</w>
N arko
M echanismus</w>
Ic andra</w>
Hyper cholesterin
Haupt studie</w>
H ier
Granulozy ten</w>
For ts
F ami
Erythr omycin</w>
Efi ent</w>
Ebi xa</w>
E ffi
Dina trium
D ehydr
Bio äquival
Ausschu ß</w>
Auf fassung</w>
ARICLAI M</w>
AN O
2 0-
0 26</w>
0 25</w>
0 23</w>
äquival ent</w>
zer ebro
wichti gsten</w>
verringer ten</w>
ti bi
sä ule</w>
st ungen</w>
ri gen</w>
plötz lich</w>
p lo
ona te</w>
m essen</w>
l ungen</w>
ier ungs
gr än
genaus o</w>
fäl lt</w>
erforder liche</w>
eli x</w>
el la
ck el</w>
bar er</w>
az in</w>
auf gelöst</w>
ar ist</w>
ad juv
a di
Zom arist</w>
Wei ße</w>
Stom atitis</w>
Stei gerung</w>
Serum spiegel</w>
S per
Ro che</w>
Rep aglin
Produ ktin
Phenobarbit al</w>
OP A</w>
Muskel krämpfe</w>
Lenalido mid</w>
Kombin ationen</w>
Jan umet</w>
ING EL
INCREL EX</w>
HIV- infizierten</w>
H .</w>
Garda sil</w>
Flä che</w>
Er weiter
Eingri ff
DepoCy te</w>
Da fir
DN S</w>
Bläh ungen</w>
Berei che</w>
An thr
Alop ez
AID S</w>
A ST
2, 2</w>
17 5</w>
15 7</w>
10 5</w>
0 1.
, 4</w>
zäh len</w>
ver mu
stark er</w>
sp itze</w>
saftresist ente</w>
ro ter</w>
ogen er</w>
ma g
k raft</w>
k ortiko
hinreich enden</w>
hin gewiesen</w>
gemel det</w>
flä chen</w>
etw a
er geben</w>
d- ho
berei chs</w>
al ten</w>
a Te
Zusammen arbeit</w>
Vec tibi
Um fang</w>
UL OX
ULOX ET
ULOXET INE</w>
Todes fälle</w>
Tacro li
T W
St amm
Rot aTe
Packungsgröß e</w>
Maravir oc</w>
Li terat
INV EGA</w>
INGEL HEI
IN GER</w>
I v
Gl ob
Gen otoxizität</w>
Gal vus</w>
Fe L
Eingri ffen</w>
EX J
EHR INGER</w>
Dox yc
Dafir o</w>
D ULOXETINE</w>
CY P</w>
Blut spiegel</w>
BO EHRINGER</w>
Alopez ie</w>
Adefovir di
ös oph
vi sion</w>
ver öffentlich
steh end</w>
s et
res ulti
on -</w>
nüch ternen</w>
mittel n</w>
länger e</w>
h lung</w>
geschw oll
eri t</w>
er y
entsor gt</w>
beobach tete</w>
at um</w>
asy mptom
ampul le</w>
ab nahme</w>
ab domin
Z erit</w>
Versuchs modellen</w>
Uni versi
Thalido mid</w>
T ox
T ex
Sp itze</w>
Sch ie
Pre dnis
Pra vastatin</w>
Parkinson- Krankheit</w>
P 450</w>
M L</w>
Lucen tis</w>
Le flun
L as
Inv ega</w>
Hypercholesterin ämie</w>
Gab apen
Eu creas</w>
Entfer nung</w>
Centr e</w>
CT FE</w>
Benzodi azep
BE R</w>
Ausgan g</w>
Antra g</w>
Anaphyla xie</w>
4 9
0 4
0 28</w>
ä den</w>
Ärz ten</w>
vorges eh
verzö gert</w>
ul t
tre ffen</w>
teplas e</w>
säur e-
or g</w>
ni ch
neg ativ</w>
mon ab
lin -
körper liche</w>
is tika</w>
informi ert</w>
fest gelegt</w>
eo min</w>
eh emmer</w>
e ci
bi konvexe</w>
auß erhalb</w>
aus ea</w>
ange sehen</w>
adr en
X y
X eomin</w>
Ver suchen</w>
Ver packung</w>
Val pro
VER K
VEL C
Tier studien</w>
Sc an</w>
Ri monab
Ran exa</w>
ORENCI A</w>
Myoc et</w>
Ma drid</w>
M ali
Let har
Leben dimpf
K enn
INGELHEI M</w>
Haem ophil
Frei wil
Fra ge</w>
F ö
Darreichungs form</w>
Cop alia</w>
C ol
Be gr
Aufl ösung</w>
Angioten sin</w>
An schwellen</w>
Abat acept</w>
Ab rax
A d-ho
2 -</w>
0 29</w>
- D
Ü N
z ah
unerwünsch ter</w>
stabil er</w>
sol cher</w>
so ur
schleim haut</w>
s.r .o.</w>
ri chten</w>
rh e
rhe um
off en
nah m
m es</w>
lo s</w>
intramusk ulär</w>
ihr em</w>
hämat ologische</w>
hin derung</w>
gesch luckt</w>
gerin gere</w>
genehmi gt</w>
geb o
ers atz
ent hal
de kompen
cet at</w>
be sprechen</w>
anaphylakti sche</w>
altern ative</w>
all i</w>
Vectibi x</w>
Tä tigkeit</w>
Sek ret
Sch ul
Re tin
Propyl englycol</w>
Pra da
Nor m</w>
Mel oxicam</w>
Lei ter</w>
Kreatin in</w>
Gastrointestinaltra kts</w>
G astro
Flu conazol</w>
CD 4-
3, 4</w>
2 06</w>
18 3</w>
y le
wis sen</w>
verpflich tet</w>
t y</w>
so gar</w>
rezidi vier
plas ie</w>
nier en
n ukleosi
mu mab</w>
l eben
hän gen</w>
hervorgeru fen</w>
her gestell
gän glich</w>
ges ehen</w>
er wä
emi r</w>
e kti
disp ers
dis Plus</w>
am ol</w>
ak zep
V eterin
Thrombozy ten</w>
Taub heitsgefühl</w>
R omi
Pul ver
Pre ot
PhotoBar r</w>
Par is</w>
Micar disPlus</w>
Mi mp
Lu mi
Lev emir</w>
Lethar gie</w>
Konta kt
Kon jug
Imp ri
Immunglob ulin</w>
Immun ität</w>
I U</w>
Hor n
Herz -</w>
HB V</w>
Gut ach
Fol gen</w>
Extremit äten</w>
Ein führung</w>
EXJ ADE</w>
E WP</w>
Dyna stat</w>
Com bi
Cel gene</w>
CYP2D 6</w>
C RI
Belgi um</w>
B rin
Augen tropfen</w>
Adali mumab</w>
A .
17 4</w>
10 x1</w>
Über ein
Ö S
zusammen gef
wich tige</w>
ver suchen</w>
ta mi
stra ße</w>
sta dium</w>
sel tami
po ol
piv oxil</w>
p H-
ort hostati
multi forme</w>
kon i
k einem</w>
it one
h ali
g ard</w>
etz ung</w>
eri v
erfol gte</w>
er fahr
echan ismen</w>
dispers es</w>
der iv
ci b</w>
cep t</w>
bru ch
be antra
ar d-
ab nor
ab l
a er
Wirk mechanismus</w>
Vit amin-
Ver sagen</w>
Tel bi
Romi plo
Risikoman agement
Rezept or</w>
RE ICH
Pro zent
Prada xa</w>
O seltami
Lei stungs
L ap
Kortikosteroi de</w>
Kin des</w>
Indu strie</w>
Impri da</w>
IN T
GEN EH
GENEH MIG
Er g
Effi cib</w>
Dru ck</w>
Car bid
Binde gew
, 9</w>
ß t</w>
zy l
zen der</w>
zei tig</w>
z eh
tr übe</w>
tr an</w>
teil weise</w>
syste mischer</w>
sicher stellen</w>
osi tis</w>
ofi -
of l
k un
inn land</w>
in tensi
immun suppressi
i x</w>
human es</w>
gri s</w>
gewich ts</w>
ep he
dr in</w>
bekan nte</w>
ab ra
ab gew
ZO ST
ZOST AV
Z iel</w>
Z A
Xi gris</w>
Therapie beginn</w>
S ei
S IF
Redu kt
Par ar
P oli
P .
Orli stat</w>
N yc
Mark ierung</w>
Man agement</w>
Luftblas en</w>
Li po
Lan tus</w>
Kreis lauf
K eine</w>
Hep at
H ün
Fle cken</w>
F innland</w>
Ethin yle
Dysp h
Das atinib</w>
Combi vir</w>
BE IL
Ax ura</w>
Angiotensin- II-
2 60</w>
2 5.
2 31</w>
16 8</w>
13 4</w>
0, 05</w>
0 5.
- Lösung</w>
Über prüfen</w>
z eri
w ann</w>
poten ti
or Plus</w>
nach gewies
mit geliefer
kin ase</w>
kali um
k li
k ein
ju ck
indu zierte</w>
ie -
geh enden</w>
fortgeschritten er</w>
fach er</w>
en .</w>
direk te</w>
der male</w>
bereit ungen</w>
al -
Verhalten s
Tro cken
Sil gard</w>
SOMAVER T</w>
SIF RO
S eb
Pseu do
Prit orPlus</w>
Pre gab
NRTI s</w>
Miss bildungen</w>
Mimp ara</w>
Lumi ra
Lisin opril</w>
L ÖS
L Y
Im atinib</w>
IN J
Grün den</w>
Fet us</w>
Eryth ema</w>
Ceri vastatin</w>
Bol us
Ab wägung</w>
A X
15 2</w>
1 15</w>
0, 01</w>
zerk aut</w>
wiegen de</w>
stri a</w>
st am
r -
ord net</w>
or phin</w>
intramusk uläre</w>
gs k
gly zeri
gemein sam</w>
flä schchen</w>
f ri
erzi elen</w>
e ar
druck t</w>
bili s</w>
beta -1
bei der</w>
be we
b rennen</w>
an gi
X IV
WE IS
Träch tigkeit</w>
Stre et</w>
SIFRO L</w>
S C</w>
Rit u
PACKUNGS BEIL
P eme
P D
Nor mali
No bilis</w>
N ausea</w>
Mir taz
Lauf e</w>
J al
Haupt metaboli
Enzy ms</w>
Ent nahme</w>
EW G</w>
Cal citonin</w>
CRI XIV
Bu pren
Block ade</w>
B einen</w>
Auffrisch impfung</w>
ARZNEIMIT TEL</w>
3, 6</w>
2 19</w>
2 16</w>
14 3</w>
0 39</w>
ärz tlicher</w>
wech sel</w>
trä chtigen</w>
teri alien</w>
st ets</w>
signifikan ter</w>
resist ent</w>
res pirat
ph log
ob en
my ko
ma s</w>
lipid ämie</w>
kürz lich</w>
kran i
kombin ierte</w>
k ämpf
hy p
ges unde</w>
gel ö
g o</w>
f in</w>
d äch
auf rechter
ati bili
ass t</w>
ar in
abzu brechen</w>
Weich kap
TRISEN OX</w>
T or
Sub ox
RotaTe q</w>
Referenz arzneimittel</w>
R auch
Pro Qu
Pre ven
Peme trex
O P</w>
Nex av
Nessel sucht</w>
Ma il</w>
Leflun omid</w>
LI N</w>
L icht
Krankenh aus
K os
Iv abra
Iso tretinoin</w>
Inf us
Indu ktoren</w>
Immunsuppressi va</w>
IN FA
GENEHMIG UNG</w>
G S
E S
D ub
Char gen
CRIXIV AN</w>
C in
Bewe gungen</w>
Bet a
B auch</w>
Antikoagul anzien</w>
Al an
Adefovirdi pivoxil</w>
4 8
08 8</w>
08 6</w>
-H B
überwie gt</w>
zu gr
unterstüt zende</w>
ungewöhn liche</w>
ump e</w>
tz ell
tu n</w>
sier ungen</w>
physi kalische</w>
pharma zeuti
organ e</w>
om m
nä her
nachfolgen d</w>
man i
lin der
hau tzell
hal opathie</w>
gemeinsam e</w>
fi ehl
fiehl t</w>
erhiel t</w>
emp fiehlt</w>
d u</w>
d ofo
ci en
be z
assozi ierte</w>
asepti schen</w>
arzneimit teln</w>
an o</w>
Z ir
Verw altung</w>
Ver hinderung</w>
Unterneh mers</w>
Tier experimentelle</w>
Staphylo c
S olo
Rifabu tin</w>
Rep la
Referenz mitglie
Produ kt
ProQu ad</w>
Parar eg</w>
Mas ern
Kreatin in
Kil ogramm</w>
Injektions spritze</w>
In ov
INFA I</w>
IN O
Gelenk e</w>
E con
Clof arabin</w>
Clo mi
Bewe gungs
Al en
Ak ne</w>
10 7</w>
, 2</w>
ver fü
ti d</w>
tech n
stoß ung</w>
sti m</w>
sorb iert</w>
rich tig</w>
ren alen</w>
rau m</w>
r y</w>
psych iatr
or y</w>
mi eren</w>
k örper</w>
ih nen</w>
ic on
her aus</w>
gew and
f än
di a</w>
be wirkte</w>
b len</w>
ali zumab</w>
a ted</w>
Tätig keiten</w>
T M
Steven s-
Solo Star</w>
Situ ationen</w>
Serot on
Schie ds
SS EN
S edi
Proteaseinhibit oren</w>
Pharmazeuti schen</w>
Nerven system</w>
Nasen bluten</w>
Lumira coxib</w>
Leit linie</w>
Leber versagen</w>
Höchst dosis</w>
H am
Gebie t</w>
Ge fahren</w>
Frei setzung</w>
Fentan yl-
Er lo
Dr ehen</w>
Disk us</w>
Ci dofo
Cefuroxi max
Bronch itis</w>
Ben zyl
Auf tropfen</w>
4, 4</w>
2 6
2 29</w>
ê u
ärb ungen</w>
z hei
wer den.</w>
wachst um</w>
ver tret
transder males</w>
tra l</w>
stag land
si eben</w>
sa chen</w>
rekombinan ten</w>
oxy- Polyethyl
o kok
nah me
met h
lo ss
kl opfen</w>
kl eb
k reis
indu zierten</w>
i den</w>
gewich ts
gastrointestin alen</w>
fla schen</w>
ete k</w>
erhöh tem</w>
berich ten</w>
an ten</w>
Z icon
W is
Vir ead</w>
Verdau ungsstörungen</w>
Unter hautzell
U R</w>
Stevens- Johns
Si mul
Romiplo stim</w>
Rimonab ant</w>
Ren agel</w>
Referenzmitglie d
Pro stagland
Neu pop
N ie
Medikam enten</w>
M D
L .</w>
K etek</w>
Inter vall</w>
ING EN</w>
HIV- 1</w>
H ERA</w>
Gri pp
Gr ap
Fi bro
Et hanol</w>
Econ or</w>
Carbid opa</w>
Bus in
BR INGEN</w>
Ansprech raten</w>
Abrax ane</w>
AL E</w>
A te
zentr alen</w>
zen s</w>
wech seln</w>
ventri kuläre</w>
sich erh
rei chung</w>
ospas mus</w>
mit teilen</w>
in fusions
gesch la
for d</w>
er zeu
en es</w>
din g</w>
cer a</w>
be folgen</w>
bakteri elle</w>
auf einander</w>
anti hypertensi
al ph
Wech sel</w>
Wasser lassen</w>
War te
VERK EHR
Um setzung</w>
Tetan us</w>
Sy nth
Subox one</w>
Sel tene</w>
Sch rau
Repaglin id</w>
R ach
Pro gramm</w>
Pharmakovigilanz -
Par t</w>
PA H</w>
Oper ationen</w>
OP TIS
O SS
Leberen zym
Ket o
Infusions lös
Infusions beutel</w>
Hil fs
H als</w>
Gem äß</w>
Gabapen tin</w>
FOR T</w>
Dub lin</w>
C etu
Blutgerinn seln</w>
Behandlungs zyklen</w>
Au ges</w>
Ansprech ens</w>
Allerg ische</w>
Ak kumulation</w>
15 -
, 8</w>
Überein stimmung</w>
zul assungs
tox ischen</w>
toc occus</w>
ter min</w>
schätz bar</w>
ri g</w>
propi onat</w>
p as
ozy ten
or i</w>
ody na
ob stru
o st
n un</w>
möglich er</w>
mg- Dosis</w>
magen saftresistente</w>
kon jug
h ör
gr und
ger ät</w>
g la
förmi ge</w>
epil epti
ent hromb
empfind lichkeit</w>
durch sich
dar stellen</w>
b asi
avi s</w>
ari x</w>
all ungen</w>
Zu gang</w>
YS AB
Vis u
Ver öffentlich
Te ktur
T rau
T YSAB
Säuglin ge</w>
Staphyloc occus</w>
Schwä che
Sch erin
PACKUNGSBEIL AGE</w>
Möglich erweise</w>
Meth ad
Jal ra</w>
J AN
IN VERKEHR
H un
Gal act
G A</w>
Flus h</w>
Epi vir</w>
Ent hält</w>
Ein richtungen</w>
Dori ba
Bis phosph
Biliru bin</w>
Beglei t
Aus sehen</w>
Aluminium- Blisterpackungen</w>
Al zhei
Ab wei
AR A</w>
AN Z</w>
08 9</w>
- R
º C</w>
zu gs
vorgefüll te</w>
vermehr tes</w>
ver sa
v et</w>
stin je
res uspen
pro fen</w>
on- Syndrom</w>
ob last
kl ären</w>
kl assi
kl assen</w>
identi fiziert</w>
hydroxi d-
hil ft</w>
her aus
grippe ähnliche</w>
glau ben</w>
gerin ger
geimpf ten</w>
erl au
do s</w>
de t
be halten</w>
bakteri ellen</w>
aufrechter halten</w>
ansp rachen</w>
abgesch wä
a ventis</w>
Verhüt ungsmetho
Vent avis</w>
The lin</w>
Tektur na</w>
Sa ven
Neupop eg</w>
Mit ot
Ma terial</w>
Lami vu
I M</w>
I B
Hämoglobin wert</w>
Haemophil us</w>
Farmac êu
FOR STE
Er bit
Entzünd ungs
Dys kin
D K
Ab fall
8 5
zuverläs sige</w>
x o</w>
wöch iger</w>
wer t
tr at
tec avir</w>
ta zi
sier enden</w>
rekombinan te</w>
re fra
om a</w>
na chl
männ liche</w>
mut lich</w>
ma tern
k er
i mp
gründ lich</w>
gen des</w>
flus s
farb ene</w>
eh t</w>
c ap
ban k</w>
a gi
Zell zahl</w>
ZOSTAV AX</w>
Z ar
Yt tri
Un erwünsch
TRI T
T ur
Stell ung
Serum konzentrationen</w>
Sedi erung</w>
S od
Proteaseh emmern</w>
Pla vix</w>
Pfer den</w>
O M
Nyc omed</w>
Mi o</w>
M amma
Lap atinib</w>
Körper temperatur</w>
Kor onar
INVERKEHR BRINGEN</w>
Hitzew allungen</w>
HM G-C
Ethinyle stradiol</w>
En tecavir</w>
Dosierungs empfehlungen</w>
Diabete s
Dar m</w>
D ING
Chl or
CYP 1A2</w>
Busin ess</w>
Antiepil eptika</w>
Al dur
Ac tos</w>
Ac tiv
Ab w
4 15</w>
2 x</w>
0 66</w>
.0 7.
-H ar
vor aus
ver werfen</w>
ver sor
ver k
um gewand
stärk er</w>
sp atienten</w>
s on</w>
ri pro
r e</w>
produ kte</w>
potenzi ell</w>
p eg
ot yp
on or
oc y
o d</w>
mö g
mo der
m um</w>
m ef
krank ung</w>
j or</w>
identi sch</w>
gan genheit</w>
führ liche</w>
fet ale</w>
f le
erst mali
ektiv en</w>
einzel ne</w>
einge stu
diabe tischen</w>
brü che</w>
ben utzen</w>
ax ter</w>
Wieder aufnahme</w>
Versch limm
Ver gangenheit</w>
Ver an
Vari abilität</w>
Um gang</w>
TE C</w>
T it
Son ata</w>
Schwäche gefühl</w>
Rot arix</w>
Reprodu ktions
Pipet ten</w>
Phosp ho
Ober fläch
OV ANCE</w>
OSS E
My opathie</w>
Musk el</w>
Min ute</w>
Micar dis</w>
Ma ße</w>
Isoen zyme</w>
Hyper kaliämie</w>
Hy dr
HMG-C o
HER STELL
FABL YN</w>
Erre ger</w>
Doxyc yclin</w>
DK -2
D rit
Cytochro m
Brust kor
BE DING
B axter</w>
AI R</w>
ADR OVANCE</w>
A ffin
ö pf
zu gänglich</w>
zirk ulier
y ra
wür de</w>
ver trä
v um</w>
tre atment</w>
trau ms</w>
tr onen
t sp
sch er
ri g
ra cet
pht her
otox ische</w>
omm enen</w>
ofi- aventis</w>
odi lat
mö chten</w>
mell ose-
mac t</w>
krank heiten</w>
ko se</w>
ih n</w>
h C
glu c
ger ade</w>
flüs sigkeit</w>
eti racet
et hyl
er ende</w>
ent schie
en em</w>
emb ran
di ureti
cov er</w>
ci trat</w>
beur teilen</w>
beeinträ ch
be hältnis</w>
ande mact</w>
an fän
allgem ein</w>
ab le
Verzö gerung</w>
Ver eini
VA X</w>
T andemact</w>
Rot avir
R s</w>
Psoriasis- Arthritis</w>
Pregab alin</w>
Pharmakokineti sche</w>
OSSE OR</w>
Lev etiracet
J J</w>
Insulin s</w>
Inov elon</w>
Infus at</w>
In-vitro- Studien</w>
HC V-
HB VAXPRO</w>
Gluko kortiko
Gel en
G ad
En do
Doriba x</w>
Dan ach</w>
Anti phlog
An tazi
Aldur a
AL L
8 8
1 14</w>
-W ertes</w>
ähn licher</w>
vin yl
v ul
unterstüt zen</w>
umgewand elt</w>
tr ach
stech ni
spezif isch</w>
sion sp
ra ch</w>
oprot ein
nachl äs
misch ung</w>
mellose- Natrium</w>
mark ierten</w>
lo se</w>
kom b</w>
kan zer
ili ar
il lin</w>
il li
geh ende</w>
ge pool
folgen der</w>
erniedri gt</w>
ein heit
ef ru
dar in</w>
b ri
b rauchen</w>
at ho
anz a</w>
ab schätzbar</w>
Zer ene</w>
X iliar
Visu dy
Ul tra
UR TEIL
Transp ar
Stead y</w>
Sod brennen</w>
Sekret ari
Protein urie</w>
Posi tion</w>
NR TI</w>
N .V.</w>
Mon o
Leber problemen</w>
Leber funktion
Lacos amid</w>
Koh len
Kinzal komb</w>
Ivabra din</w>
IG F-
Hautaus schläge</w>
Grap efru
Gele gentliche</w>
Ge däch
G ER
Fehl ens</w>
Ernähr ung</w>
E M</w>
C ubicin</w>
Bos entan</w>
Be x
Bar c
B P
Au stria</w>
Anwendungsgebie t</w>
Antipsycho tika</w>
All er
Ad juv
ACE -Hemmern</w>
5 -</w>
- 1</w>
z omi
z ahl
w it
verseh ent
v ar
u st
tro tide</w>
te zomi
sten ose</w>
steh ende</w>
sp üren</w>
regel mäßiger</w>
r .</w>
oxi d
opti male</w>
ogen es</w>
multi pl
mol ek
medizin isches</w>
le di
ke da</w>
k ulitis</w>
h om
ge trock
fu sionen</w>
es tig
elektr on
ec tin</w>
c y</w>
c o-
c linical</w>
c an
blutdrucksenk ende</w>
bil det</w>
asp of
am y
a venue</w>
Wirk dauer</w>
Ta keda</w>
T P</w>
Sonnen licht</w>
Sicherheit sp
Ritu ximab</w>
RN A-
Prit or</w>
Preven ar</w>
Pan re
PRO COM
Mitglieds staat</w>
Misch ung</w>
Mess ung</w>
Kunst stoff
Is cover</w>
Gesichts fel
Freiwil ligen</w>
ETT E</w>
E ssen</w>
E .</w>
Di aly
Cefuroximax etil</w>
C V</w>
Bru ch
Bor tezomi
Benzyl alkohol</w>
BEDING UNGEN</w>
BE URTEIL
Ar a
Amb ir
3, 1</w>
3 000</w>
2 2.
zy to
zen tral</w>
vari x</w>
stat t
sel ösung</w>
rekonstitu ierten</w>
qu ili
prim är</w>
ort un
orat a
on al
mög licht</w>
merk sam
kt ors</w>
irgend welche</w>
iegel n</w>
gly ko
getr en
gen it
g amma
fen ax</w>
ev a
er möglicht</w>
en ic
dosis abhängig</w>
be finden</w>
ati o</w>
as u
art hr
Xiliar x</w>
Verstärk ung</w>
U AB</w>
TYSAB RI</w>
Stimm ungs
Si kl
S h
Re vas
Pseudo ephe
P EN</w>
OR ACE
OLANZAP IN</w>
Nor dis
N ummer</w>
N as
My fenax</w>
Mit tl
Min de
Mi grän
M M</w>
Ku van</w>
Konservier ungsmittel</w>
IL AG</w>
ID E</w>
Hyper ic
Gutach tens</w>
Erlo tinib</w>
Entsor gen</w>
Ent steh
Diabetik ern</w>
Den noch</w>
Da zu</w>
Cer varix</w>
Ce dex</w>
C aspof
C AN
Bupren orphin</w>
Br us
Beobach tung</w>
4 000</w>
3 A</w>
2 6.
ä mischen</w>
zu minde
zuminde st</w>
verschie dener</w>
u tin
ro p
peg yli
orti co
on de
oly tische</w>
oc ar
neh m
kum ul
kti vitis</w>
kombin ation</w>
jun ktivitis</w>
in fun
gr aft</w>
gl omer
gesetz ten</w>
ge achtet</w>
ex pon
er ster</w>
eingestu ft</w>
diagnosti ziert</w>
di chte</w>
cre mef
cam tin</w>
bi pol
b ald</w>
an schließ
an alyse</w>
amb ul
al ner
ab le</w>
ZY P
ZYP AD
YC EL</w>
V R</w>
V IS
U C
Trin k
Tra v</w>
T rän
T erat
Sulf ona
Star lix</w>
Spon tan
SPR YCEL</w>
Reverse- Transkriptase-
Proteaseh emmer</w>
Placeb ogruppe</w>
Pax ene</w>
Panre tin</w>
Nordis k</w>
NS AI
Meth oxy-Polyethyl
Lithi um</w>
L assen</w>
Kurz zeit
Kompon enten</w>
JJ JJ</w>
I bu
Hex al</w>
HA BER</w>
Gesamt dosis</w>
GAN FORT</w>
Fre m
Europ a</w>
Erbit ux</w>
E- Mail</w>
E stro
D os
Ce trotide</w>
CY MB
Bewusst sein
Atem depression</w>
Asp ir
An tigen</w>
Ambir ix</w>
AS S</w>
3, 9</w>
äuß ere</w>
zy topenie</w>
viel en</w>
verschw ommenes</w>
ver stopf
ver mutlich</w>
us -</w>
unter brechen</w>
stinje ktion</w>
sti egen</w>
schaf ts
sch we
resist enz</w>
oli schen</w>
ol- Epoetin</w>
nicht steroid
mus -
mon o</w>
m ot
iv o</w>
intramusk ulären</w>
infe kti
ihr es</w>
h en</w>
gif tung</w>
g astro
fu vir
f lei
esp iegel</w>
enthal tenen</w>
englyc ol-Epoetin</w>
el op
dopp elte</w>
besonder er</w>
ber eiten</w>
b ie
aufge tret
arb en</w>
ZA AR</w>
Vor liegen</w>
UL AIR</w>
Thyro gen</w>
TR AV
Stär ken</w>
Strahl en
Spon dy
So wohl</w>
Sikl os</w>
Schwer wiegende</w>
S ING
SING ULAIR</w>
PRO TEL
P DE
NSAI D</w>
N et
Maximal dosis</w>
Lympho m</w>
IN HABER</w>
Gewichts abnahme</w>
Ge webe
G ast
Fü ßen</w>
Fluor our
Exanth em</w>
En fuvir
Duo Trav</w>
Dopp elblin
D eriv
Cros car
Cetu ximab</w>
CYMB ALTA</w>
CY ST
Bru x
Bewe gung</w>
Barc elon
Asth ma
Ak ute</w>
A chten</w>
4 60</w>
37 ,5</w>
0 32</w>
zuneh men
vorübergeh enden</w>
vorgeschla genen</w>
verur s
verurs achten</w>
verlänger te</w>
ver f
v o
ut eln</w>
tion stherapie</w>
tel uk
tegr avir</w>
ständi g</w>
san ofi-aventis</w>
rheum ati
pyl ori</w>
pro gressions
poten tielle</w>
perfor atum</w>
p a
ob utyl
ma ß
m ab
le i</w>
l es
kardi ale</w>
ier enden</w>
häufi gkeit</w>
gu idance</w>
ge sich
ge klärt</w>
en sein</w>
den noch</w>
c t</w>
bili ru
arbei ten</w>
an te</w>
an stieg</w>
a ze</w>
a den</w>
Zulassungs in
Zin k
Vor hand
Virus -
Verschlimm erung</w>
VELC ADE</w>
V iel
Unterhautzell gewebes</w>
U A
Subst rate</w>
Su gamma
Sicherheitsp harma
Selb stinjektion</w>
Seb ivo</w>
Ral tegravir</w>
Pädiatr ische</w>
PROTEL OS</w>
PROCOM VAX</w>
P CTFE</w>
Or ale</w>
ORACE A</w>
Nor wegen</w>
Neuro Bl
Müt ter</w>
Mon teluk
M od
Keto azidose</w>
Int oleranz</w>
Indi g
Immunglob ul
Hyperic um</w>
Hy camtin</w>
H az
H R</w>
Grapefru it
Glob al</w>
Glas fläschchen</w>
Gla xo</w>
Fru cht
Forts etzung</w>
Fab ra
F ett</w>
Eu dra
Dosis bereich</w>
Cytochrom -P
Comp et
C orp
C P</w>
Bündel packung</w>
Bestimm ungen</w>
Barcelon a</w>
B ic
Auf merksam
Affin ität</w>
AL L</w>
A pi
8 .</w>
2, 9</w>
0, 03</w>
zell ulären</w>
x tra</w>
vorhand enen</w>
vitr elle</w>
ver packt</w>
tr ei
ter ie</w>
su pp
sit zen</w>
re li
produ kt</w>
p ons
one ur
n al
mil ch
m ü
m es
lan s</w>
k et
gh -
g at
f er</w>
et y</w>
eingeschrän kt</w>
eingerei chten</w>
durchschnit tlichen</w>
du ktion</w>
del kappe</w>
ch olin
ch ari
bei tragen</w>
bef ind
aus scheidung</w>
antivir ale</w>
ali s</w>
ad di
Y onde
X ER
XER IST
Wachstumsh ormon
Ultra sch
Telbi vudin</w>
T eva
Synkop e</w>
Strep tococcus</w>
Sch ach
Rin der</w>
Repla gal</w>
Rati o
Pulver s</w>
Pipet te</w>
Pal pit
PSU Rs</w>
O G</w>
Nadel schutz
Na gla
My ozy
Mitgliedsta at</w>
M u
Lymph systems</w>
Lin ie</w>
Levetiracet am</w>
Gesamt -
G anz
Flüssigkeits an
Fi brin
F assung</w>
Di phther
BM D</w>
Ausgangs werte</w>
Ari xtra</w>
An schließend</w>
An fällen</w>
ALI MT
6, 7</w>
6, 0</w>
5, 4</w>
4, 2</w>
2 01</w>
öh e</w>
zy kli
währlei stung</w>
ti k</w>
stü ck</w>
spr ache</w>
s äm
pur a</w>
pra min</w>
ov al</w>
monati gen</w>
m angel
lin gu
ledi glich</w>
kor rig
isch -
i d
ge still
fra kturen</w>
estig ation</w>
er tem</w>
engmasch ige</w>
eingerei cht</w>
din nen</w>
di ast
d d
behäl ter</w>
au sch
Ze ffi
Yonde lis</w>
XERIST AR</w>
X ar
Wachstumsh ormon</w>
Verfall s
Ur sachen</w>
U hr
Ty g
Tit er</w>
Sicherheits daten</w>
Schein medikament</w>
S G
Ro tig
Preot act</w>
Pfla sters</w>
P O
Ohn macht</w>
N E</w>
Mitglie der</w>
Methoxy-Polyethyl englycol-Epoetin</w>
M ON
Literat ur</w>
Leuko Scan</w>
Leber schädigung</w>
LI TA
Kr ämpfe</w>
Kleinkin dern</w>
Hün dinnen</w>
Herz erkrankung</w>
Her t
HI V-</w>
Gluc os
Ge währleistung</w>
Ent sprech
Eierst ö
Brux elles</w>
Ara va</w>
Aktiv ierung</w>
Ab sorption</w>
Ab bau</w>
A mm
7 7
5- F
5 8
5 000</w>
2 08</w>
2 07</w>
2 03</w>
12 3</w>
. org</w>
ö t
zei traum</w>
y sin</w>
ta g</w>
spr äpar
sen si
schn ellen</w>
prim ärer</w>
oxy b
ot amin</w>
ogen itäts
lebensbedroh lichen</w>
ko m</w>
jähr lich</w>
il ysin</w>
gew iss
genehmi gten</w>
er gen</w>
ensi bili
em an
elop ment</w>
dr a</w>
dosier ungen</w>
ci li
bedin gter</w>
be achtet</w>
basi eren</w>
auf trat</w>
ast h
an aly
ah y
ack en</w>
ac al
Zw isch
Zeffi x</w>
Xy rem</w>
Unerwünsch te</w>
Tyg acil</w>
Tei le</w>
Tach o
Säuglin g</w>
Simul ect</w>
Sicherheitspharma kologie</w>
Sek retion</w>
Sch u
Sch ritten</w>
ST AM
Res er
Re g
Rap ilysin</w>
Pur pura</w>
Präpar aten</w>
Pemetrex ed</w>
O x
O vitrelle</w>
Nieren transplantation</w>
Migrän e</w>
Medi cines</w>
Labor werte</w>
Kinzal mono</w>
K AP
In tensi
Imi qui
INO max</w>
Häufi gkeits
Harnwegs infektionen</w>
HC V</w>
Gr enz
Fen dri
Fabra zyme</w>
Er fol
Endome trium
D AR
Cin acal
Aktuali sierungen</w>
Ad-ho c-
8 0
6. 1</w>
27 9</w>
2 34</w>
2 05</w>
12 2</w>
12 1</w>
1 x1</w>
0, 15</w>
. -
zu erst</w>
zah len</w>
verbess erte</w>
vast atin
unterschied liche</w>
ung sta
töd lichem</w>
teri tis</w>
speziali täten</w>
pla zeb
pH- Einstellung</w>
p atienten</w>
oi d</w>
oi d
neutrop hil
nachweis bar</w>
mensch liche</w>
m g-</w>
lu de</w>
in kontinenz</w>
in es</w>
h n</w>
erk enn
erhäl t</w>
ent or</w>
ei l
eb r
do l</w>
c in-
bl aue</w>
b ur
b rel
ap ax</w>
angeb oten</w>
al ie</w>
ac lude</w>
Zy linder
Zen apax</w>
ZYPAD HERA</w>
X X</w>
VIS TI
To cili
Richt linien</w>
Plasmaprot ein
Org alu
NeuroBl oc</w>
Natrium oxyb
NS AID
Myozy me</w>
Multi p
Mi c
Men in
MR T</w>
L ändern</w>
Imiqui mo
HAR MA</w>
Glie d
Gefäß erkrankungen</w>
Gebärmut ter
GS K</w>
Ex tra
Er kenn
Ekz em</w>
Croscar mellose-Natrium</w>
Caspof ungin</w>
Behandlungs schema</w>
Bar aclude</w>
Asp erg
Analy sen</w>
Alen dronat</w>
5, 6</w>
3, 2</w>
3 56</w>
12 00</w>
08 5</w>
.. .</w>
-------------------------------- --------------------------------
- Durchstechflasche</w>
üs sel</w>
Ö s
Ös oph
wirk endes</w>
verbess ern</w>
utin em
umf assen</w>
so dass</w>
res ol</w>
opp ortun
mitgeliefer ten</w>
m ord
länger en</w>
limm ern</w>
körper lichen</w>
i tel</w>
hep at
gsk .com</w>
gleich mäßig</w>
gin gen</w>
geb un
geb oren</w>
fel ine</w>
ex position</w>
erh ol
er ge</w>
elb e</w>
eini gungen</w>
ein sch
do ster
bei ge
ati ves</w>
aktu ellen</w>
abgew ogen</w>
Zahn flei
Z I
Weichkap seln</w>
Vorhand ensein</w>
Vol um
Ver mei
V E</w>
Tocili zumab</w>
Te tra
Tacho Si
TachoSi l</w>
Sugamma dex</w>
Stickstoff mon
Selbst mord
STEL ARA</w>
S us
S F</w>
Prä klinische</w>
Prozent satz</w>
Posac onazol
Pfla ster
O s
NSAID s</w>
Müt tern</w>
Moxi floxacin</w>
Milli liter</w>
Metac am</w>
La gerung</w>
Kon junktivitis</w>
Kap itel</w>
Interv alls</w>
HIN WEIS
Gl ut
For men</w>
Fol genden</w>
Bio grastim</w>
Au st
Api dra</w>
Ab satz</w>
ALIMT A</w>
2 58</w>
2 12</w>
- S
ön t
ze c</w>
we g
ung s</w>
tra te</w>
ten sion</w>
schn ell
s ac
ori x</w>
oi den</w>
ofl ur
o tin</w>
mp ro
mark iertem</w>
k ö
it orix</w>
hC G</w>
gestei gert</w>
ger eini
gen ommenen</w>
experiment ellen</w>
ern sth
erforder lichen</w>
er weiter
enthalten e</w>
einher gehen</w>
den den</w>
d ämie</w>
c te
bis her
auftret enden</w>
aktiv ierung</w>
Verdünn ungsmittel</w>
UC B</w>
Trä ume</w>
Tra zec</w>
Teva grastim</w>
Ste u
St ämme</w>
Spondy litis</w>
Sachver ständigen</w>
Re ti
QU ADR
Pfer de</w>
OPTIS ON</w>
Nach dem</w>
N ona
Mit te</w>
Men itorix</w>
MA N</w>
M -M
Injektions stellen</w>
In dex</w>
IS ENTRE
ISENTRE SS</w>
Hä mato
Glu bra
Gleich zeitige</w>
Ge sichts</w>
Fla schen
Einzel fälle</w>
Di hydro
CYST AG
C ortico
Be zieh
Be schreibung</w>
BEURTEIL UNG</w>
3 9
100 00</w>
1, 25</w>
0 9
0 33</w>
-C ILAG</w>
ο υ</w>
ärz tlichen</w>
wel cher</w>
vor schriften</w>
utinem äß
um -
ul enz</w>
tier theit</w>
stab ile</w>
re xie</w>
r ä
phosp hat</w>
p neumoniae</w>
p ap
or ange
one x</w>
ma hl
k ungen</w>
hydroxid- oxid</w>
gre g
ge gefühl</w>
gar n</w>
fü ll
früh e
dokum enti
der jenigen</w>
dau ern</w>
c yclin</w>
c o</w>
beu gen</w>
beschrän kt</w>
aus gelöst</w>
at ation</w>
an g</w>
Zulassungsantra gs</w>
Vor h
Verl auf
Un garn</w>
Tex t</w>
TRIT ACE</w>
Sch ema</w>
S cien
Ratio grastim</w>
QUADR AMET</w>
Pr asu
Pla t
PSU R</w>
P E-
Ober b
O si
Men stru
Magen schmerzen</w>
Li ven
Kranken schwe
Kr ka</w>
JAN SSEN
J e</w>
Inter essen
Impf dosis</w>
Ibu profen</w>
INV ANZ</w>
ID AS</w>
Häm orrh
Herp es
Glyk oprotein</w>
For sch
FeL V</w>
Enfuvir tid</w>
Endpun kte</w>
En gegefühl</w>
En brel
Einmal gabe</w>
CAN C
CANC IDAS</w>
Av onex</w>
Anti do
Al b
8, 8</w>
5, 7</w>
3 50</w>
27 6</w>
2 70</w>
2 30</w>
1 19</w>
zugr unde</w>
zu fri
zi o</w>
vereinbar t</w>
ver letz
v ist</w>
ur in
ur -</w>
top en
su izi
par t</w>
organ ismen</w>
ophosp h
oi mmun
o V
ni en</w>
ließ en</w>
lem enti
lebensbedroh liche</w>
lauf enden</w>
k terus</w>
it hel
internation alen</w>
gew is
gen -
g rei
früh en</w>
fort geführt</w>
forder t</w>
for d
er scheinungen</w>
er gibt</w>
el to</w>
ei li
dies elbe</w>
da n</w>
be wirken</w>
ab bruch</w>
Xar elto</w>
Vermei dung</w>
Ver größerung</w>
TA Z
Sp ei
Son oV
Si g
RK A</w>
Nexav ar</w>
Neben wirk
Nagla zyme</w>
Mel dungen</w>
Ma tri
MP L
K RKA</w>
JANSSEN -CILAG</w>
Intra venöse</w>
Insulin en</w>
I T-
Flüssigkeits retention</w>
Fer ner</w>
Er sch
E ben
Bex ar
Be f
BEZEICHN UNGEN</w>
Appetit verlust</w>
Anwen der</w>
Antihistamini ka</w>
Antazi da</w>
Aldura zyme</w>
Activ elle</w>
AV ON
3, 7</w>
- Virus</w>
- Test</w>
ü tz
ä res</w>
zuberei tet</w>
zell uläre</w>
voll e</w>
vers ehen</w>
vac i
u ma
sist enz</w>
schädi gen</w>
schwerwiegen der</w>
scher ich
sch är
ran g</w>
prop ortional</w>
pla te</w>
n ephr
kl einzel
i c</w>
höch sten</w>
hin deuten</w>
han -
gewon nen</w>
geringfügi g</w>
ge sti
g l</w>
g .</w>
er scheint</w>
er fahren</w>
en heit</w>
empfeh lung</w>
el -
d ehy
che mischen</w>
c en</w>
auf suchen</w>
anaphyla kt
allmäh lich</w>
aktuali siert</w>
Zy r
Y ENTRE
Vigabatr in</w>
Ti ge
TS CAN</w>
Sy mp
Str on
Sev oflur
Schleim häu
Prof ender</w>
Pri vi
Osi graft</w>
Opti sulin</w>
Novo F
NovoF ine</w>
Nieren probleme</w>
N o</w>
Metformin hydrochlorid</w>
Lungen emb
Lich tempfind
Lakt ation</w>
Krankenschwe ster</w>
Kon tamin
Indig ocar
Hüh nern</w>
Herz krankheit</w>
Hei lung</w>
Grün de</w>
Grapefruit saft</w>
Glyc erol</w>
E scherich
E quili
Dokum ente</w>
Da TSCAN</w>
Cro hn</w>
Ber eit
Belast ung</w>
Be vaci
Arznei spezialitäten</w>
Arrhyth mien</w>
Ar men</w>
Amb ris
AV AND
AB E</w>
8 9
8 ,5</w>
3A 4</w>
18 -
0, 18</w>
0 6.
0 35</w>
................................ ................................
ί α</w>
ü le</w>
ör de</w>
äu ft</w>
zei ge</w>
verabreich tem</w>
ver wand
ver stoffwechsel
ti ven</w>
sä ch
synth ese</w>
suizi d
sti t
stat us</w>
st es</w>
sp ülen</w>
sin n</w>
sier tes</w>
schw ellung</w>
ro utinemäß
re us</w>
ox amin</w>
oper ativen</w>
näher nd</w>
men gen</w>
korre kte</w>
klär ung</w>
hül le</w>
höher er</w>
ho teri
hi b
hat- Dihydrat</w>
getr offen</w>
ge gebenen</w>
ford shire</w>
fol lik
ex tra
ery the
erfahr enen</w>
em als</w>
dr onsäure</w>
bl äschen</w>
betr offen</w>
ate g
ar er</w>
an passen</w>
am et</w>
am er</w>
alog on</w>
all er
a i</w>
YENTRE VE</w>
W est
Trän en
Tra gen</w>
TN F-
TE R</w>
S R
S AR
Proben eci
Privi gen</w>
Placebo- kontrollierten</w>
N r.</w>
Myel om</w>
Monteluk ast</w>
Laborat o
L än
Kontroll en</w>
K n
K am
Injektions knopf</w>
I P
Harn wege</w>
Gen zyme</w>
G auch
Fluorour acil</w>
Erweiter ung</w>
Equili s</w>
Cyc l
Cortico steroi
Compet act</w>
Cidofo vir</w>
CYP2C 19</w>
Berich terstatter</w>
Bar r
Av and
Augeninnen druck</w>
Aspart am</w>
Amp hoteri
Alzhei mer-
90 Y</w>
9 9,
6, 2</w>
4 7
3, 8</w>
0 55</w>
.. ..</w>
ä uren</w>
zusammengef asst</w>
zu folge</w>
un zugänglich</w>
um chlorid</w>
transplan tierten</w>
stro ph
stabil en</w>
si en</w>
se -</w>
schla gt</w>
rekombinan tem</w>
r t
qui b
pro z
opi pran
ol on</w>
l öst</w>
kö mm
kap sel
inter sti
ins a</w>
influenz ae</w>
human em</w>
gestei ger
ge lung</w>
g men
frei es</w>
for ts
ex pri
et er
ar rhyth
angemess enen</w>
alysep flich
Verfalls datum</w>
Ven enthromb
Transpar enz</w>
Tier arzt</w>
SonoV ue</w>
Referenzmitglied staat</w>
Py rexie</w>
P le
N plate</w>
Min eral
Man agement
M ump
Lar opipran
Kan zer
K M
Isol ate</w>
Intr insa</w>
Immun de
I kterus</w>
H ol
Gluc uroni
Fu ß
Ex for
Escherich ia</w>
Er t
Entsteh ung</w>
Doxor ubi
Dinatrium hydrogenphosphat</w>
D 3</w>
Cycl ophosph
Chr om
Br üssel</w>
Blutgefäß en</w>
Bet eili
Bei trag</w>
Bei de</w>
Antibio tik
An ag
AD V
5, 8</w>
4. 1</w>
3 20</w>
28 5</w>
2 1.
18 8</w>
13 7</w>
13 3</w>
1- er</w>
0, 088</w>
0 36</w>
0 -</w>
-M ark
-Har n
über tritt</w>
ösoph age
Ä hn
wi der
vir ale</w>
versch ri
vergleich bare</w>
ver teilung</w>
v it
unterschied lich</w>
un zerkaut</w>
umf asste</w>
ti c</w>
te x
st or</w>
schär fe</w>
prä gt</w>
pra kti
pharmak ologische</w>
o dar
niedri gem</w>
nach zu
kein er
keiner lei</w>
karzin oms</w>
kar te</w>
k ations
is oli
insul in
inji zier
her ab
gran ulozy
gewährlei stet</w>
gebrauchsfer tigen</w>
es zen
er eig
ein stellung</w>
druck s</w>
di erten</w>
depressi ven</w>
ch ens</w>
ch em
c an</w>
assozi ierten</w>
anhalten den</w>
and in</w>
V TE</w>
Tätig keits
Te mperat
TRAV AT
TRAVAT AN</w>
Steady- State</w>
Rotig otin</w>
Rev atio</w>
Phenylalan in</w>
OP TR
O c
Neu geborene</w>
Nel arabin</w>
My lan</w>
MIG AN</w>
M-M -R
M-M-R VAXPRO</w>
M .</w>
LU MIGAN</w>
Kop f</w>
Glas flasche</w>
Gen it
Gado vist</w>
GE M
G ent
Fendri x</w>
FERTIGSPRITZ E</w>
Ert apen
Enzep halopathie</w>
Ein gesch
ER S</w>
Durchschnit t</w>
Dokument ation</w>
De si
D un
Bot ulin
Bi ologi
Betr eu
Be wer
Ate mpro
Antiphlog istika</w>
19 5</w>
ä tigung</w>
Überlebens zeit</w>
Über dosis</w>
zugelass ene</w>
zu stände</w>
wes entlich</w>
vermö gen</w>
tik eln</w>
synth eti
selektiv en</w>
p hal
p -Wert</w>
omy eli
ol tra</w>
ol ol</w>
ol ek
nation aler</w>
mess er</w>
man agement</w>
loss enen</w>
lebensbedroh lich</w>
kon vex</w>
kon stan
kl eben</w>
kal a</w>
inv estigation</w>
intra krani
hervorgeru f
gr ün
gelan gt</w>
g no
frühe stens</w>
fort schrei
f and</w>
ev alu
er ör
empfind liche</w>
ein heit</w>
cur al</w>
ci o</w>
bar es</w>
as e-</w>
anti -
anhalten de</w>
ab normale</w>
a k</w>
Zuck er</w>
Zar zio</w>
Visudy ne</w>
Var enic
Ul cera</w>
Tumor e</w>
Thromb in</w>
Sp .</w>
Seh schärfe</w>
Schw ank
STAM AR
SAR L</w>
S í
R h
Pro Meri
ProMeri s</w>
Plasmaprotein bindung</w>
P CI</w>
O PR
Natriumoxyb at</w>
Me d
Lungen entzündung</w>
Liven sa</w>
Laropipran t</w>
LITA K</w>
Injektions spritzen</w>
Infusions geschwindigkeit</w>
Her zens</w>
HINWEIS E</w>
Gluc ose</w>
Glied maßen</w>
Gastro en
Frem d
Fol gendes</w>
Fla t
Faltschach teln</w>
Exfor ge</w>
Ev oltra</w>
EC T</w>
Di cural</w>
CE PRO
Bortezomi b</w>
Bi vali
Behandlungswo chen</w>
Beh älter</w>
Aus führliche</w>
Anti myko
Anfan g</w>
Ami odar
5-F U</w>
4, 7</w>
4, 1</w>
3 21</w>
20 x1</w>
19 6</w>
1 24</w>
0, 35</w>
ü r</w>
zeh n</w>
wit h</w>
vor richtung</w>
verzö ger
ung sprofil</w>
ti erte</w>
ter krankungen</w>
sto ßen</w>
stand s</w>
sp rachen</w>
schließ t</w>
s sen
ri tis</w>
rel ative</w>
redu zierten</w>
pulmon ale</w>
produ ktion</w>
or th
ograp hie</w>
o trach
n as
l entor</w>
koni umchlorid</w>
kardi alen</w>
in- Dosis</w>
har m</w>
gesch wä
eth ni
einzu leiten</w>
c og
c et</w>
beglei tet</w>
at -</w>
as part</w>
as e
apri d</w>
appli ziert</w>
anti en</w>
al koniumchlorid</w>
aku tem</w>
Zyr tec</w>
Zusatz therapie</w>
W ahl</w>
Veran schlagt</w>
Valpro at</w>
V a
Tra stu
Sí mi</w>
Stellung nahme</w>
STAMAR IL</w>
Ritona vir-
Res sour
Reiz ung</w>
Prote ase-
Pen ic
P. O
N P
Met hi
Lu p
Lit er</w>
Je des</w>
In hab
Hal bwertzeit</w>
Gri ppe
Glubra va</w>
Ger man
Flat ulenz</w>
Fe ten</w>
Et aner
Erythr ozyten</w>
Ersch öpf
Er hol
Cor lentor</w>
Cir ca
CYSTAG ON</w>
CEPRO TIN</w>
Blutzucker spiegels</w>
Bind eh
Bevaci zumab</w>
Benz alkoniumchlorid</w>
Avand amet</w>
Aussch üsse</w>
Amphoteri cin</w>
Ambris entan</w>
AVON EX</w>
A SS
4, 9</w>
1- 2</w>
über gewich
önt gen
z on</w>
vermittel ten</w>
ung simpf
u xo
tre ff
tief e</w>
ti tis</w>
t oxi
stroph ie</w>
ste chen</w>
sen kte</w>
sche mas</w>
peripher er</w>
oxac in</w>
orm one</w>
matop o
lip -
lin e</w>
lauf ende</w>
kün st
kardiovas kulärer</w>
jün ger</w>
in nen</w>
ie b</w>
i din</w>
hei lung</w>
günsti g</w>
gewähl t</w>
fähi g</w>
fizier ung</w>
f act
es y
entsp rach</w>
ek r
einmali ger</w>
dar a</w>
bi ologischen</w>
bi di
bein halten</w>
ati v
ap par
abgeb aut</w>
Zulassungsin haber</w>
Y ME
Verf ärbungen</w>
Vas kulitis</w>
Tige cyclin</w>
Tem si
T at
T OVI
TOVI AZ</w>
Scherin g</w>
SAV ANCE</w>
S ul
Rück sprache</w>
P- g
Oseltami vir</w>
OPTR UM
N ox
N ekr
N O
Myc amine</w>
Man i
Mal ab
Mac ugen</w>
MPL ETTE</w>
M O
M H
La ger
L ie
KO MPLETTE</w>
Insulin aspart</w>
Inform ation
Impf schema</w>
Hi st
Hep B</w>
Gelb färbung</w>
Fahrzeu g</w>
FO SAVANCE</w>
Er gän
Ent zugs
E osin
Cyclophosph amid</w>
Cinacal cet</w>
Bezeich nung</w>
Aut oimmun
Anti rheumati
Al dara</w>
6 000</w>
6 ,5</w>
4 05</w>
1 13</w>
0, 5
öhr e</w>
yn ä
yc arb
weib liche</w>
verminder tes</w>
ver nachläs
ve au</w>
unter stützt</w>
ump hosp
tä gigen</w>
tum oren</w>
therapeuti scher</w>
te gie</w>
t hal
si gen</w>
ser a</w>
separ aten</w>
sch einen</w>
rau ms</w>
rau cht</w>
p epti
p ath
om yc
offizi ellen</w>
o ster</w>
o den
normal es</w>
na trium
na i
mono klon
medi anen</w>
le x
la kti
infun diert</w>
ind ungs
i de</w>
hör en</w>
gewiss ern</w>
gestell ten</w>
gef äß</w>
geeig n
gebrauchsfer tige</w>
g ute</w>
fer ner</w>
et ab
erwar tete</w>
entzünd ungshem
ella ck</w>
e ffizi
di on</w>
den jenigen</w>
cor al
coral an</w>
bedeut sam
ausge wähl
au reus</w>
arteri elle</w>
amin otransferase</w>
alysep atienten</w>
aku tes</w>
ag greg
abnor me</w>
Zy pre
Zicon otid</w>
Zah len</w>
Z ole
Wil zin</w>
Ver schw
Ver abschiedet</w>
Unter gruppe</w>
Tum or</w>
Tu pfer</w>
Suizi d
Sch ellack</w>
SCH RI
Rin dern</w>
Rezeptor- Antagonisten</w>
Rep ubli
Rat te</w>
Probeneci d</w>
Pro coralan</w>
Po in
Parkins on</w>
OPR YME
Neutrophil enzahl</w>
Nekr olyse</w>
Mittel wert</w>
M eman
Lu veris</w>
Leuko zyten
L j
Körper gewichts</w>
Herz klopfen</w>
Hep sera</w>
HD PE-
H5N 1</w>
Gra des</w>
Gastrointestinaltra kt</w>
Fluticason propionat</w>
Feb uxo
FLAS CHEN</w>
Expositi onen</w>
Cy an
Cis aprid</w>
Cer e
Beobach tungs
5 ,5</w>
verzö gerte</w>
ver w
tig ter</w>
t able
syst eme</w>
st eln</w>
sicher gestellt</w>
schwar zer</w>
sac chari
rän kte</w>
rei cht</w>
pro lifer
potenzi ellen</w>
postnat ale</w>
pharmakodyna mischen</w>
pH -Wert</w>
p ande
or es</w>
op hyl
on tin</w>
nam ens</w>
mikro kristalline</w>
li sin</w>
geschwoll ene</w>
gel ten</w>
et hi
eh len</w>
dro gen
di asis</w>
c lo
bio äquivalent</w>
b an</w>
aufge teilt</w>
at ch</w>
ac in</w>
WISSENSCHAFTLI CHEN</w>
U N</w>
U G
Tra be
Taub heit</w>
Systemorgan klasse</w>
Schwanger e</w>
Sch ritte</w>
Prostat ak
Pr andin</w>
Ph asen</w>
Pers onal
OPRYME A</w>
Nox afil</w>
Novo Norm</w>
Natrium citrat</w>
Nahr ungsmittel</w>
N EV
Mut ation</w>
Mel phal
Mali gn
MER KM
MERKM ALE</w>
M un
Lungen erkrankung</w>
Lipo dy
Kos ten</w>
Koordin ierung</w>
K ft</w>
K I
I sch
Ho use</w>
Gum mi</w>
G E</w>
Fol ie</w>
EC ALTA</w>
Dysph agie</w>
DNA- Technologie</w>
D R
Circa din</w>
Cere zyme</w>
Brustkor b</w>
Bronch i
Brin zol
Ab domin
AT EN</w>
A granulozy
A D</w>
4 0
200 9</w>
2 14</w>
0 2.
-W erten</w>
- hydroxid-oxid</w>
- 0,
ι κ
wirk enden</w>
wes enheit</w>
vi ax</w>
verstärk ten</w>
verstoffwechsel t</w>
ver fahrens</w>
var ox
varox ab
varoxab an</w>
ulat ur-</w>
termin alen</w>
t end</w>
st ein
si g</w>
oc ate</w>
ni emals</w>
n es</w>
meti din</w>
mer ck
li mi
leu k
ktiv en</w>
inter v
h a</w>
geöff net</w>
ger einigtes</w>
fun ktionen</w>
fa ktoren</w>
erlau bt</w>
erin aze</w>
er es</w>
er ekti
eb s-</w>
der artige</w>
dauerh af
block er</w>
aufge tragen</w>
at oren</w>
agi lin</w>
WEN DER</w>
Vi da
Universi tät</w>
UNGS MIT
Toxiz itäten</w>
TE VA</w>
Stevens-Johns on-Syndrom</w>
Sp itzen
Situ ation</w>
Ri varoxaban</w>
Ras agilin</w>
R ani
Ple ur
Pali peridon</w>
Opioi d-
Nach kommen</w>
Mil ano</w>
Met ast
Makro li
Lev viax</w>
Lebens qualität</w>
L og
L a</w>
Klas si
I l
G re
Fibro se</w>
Einzel dosis
Eingesch ränkte</w>
Ein haltung</w>
Dosis stei
Daten bank</w>
Das s</w>
Ci metidin</w>
Bronch ospasmus</w>
Bewusst losigkeit</w>
Beur teilungs
Betablock er</w>
Av an
Anträ gen</w>
Antido t</w>
An ge
Adv ocate</w>
AN WENDER</w>
ADV ATE</w>
A- Redukt
A erinaze</w>
6, 6</w>
5 .</w>
4 12</w>
2 94</w>
2 5-
2 13</w>
13 -
0 54</w>
0 3
-A gonisten</w>
wöch ige</w>
wiederhol ten</w>
ver te
ursprün glich</w>
ub l
u gh</w>
sä t
sy ndro
reversi blen</w>
resist ente</w>
präpar ate</w>
pro gressi
ph ase</w>
p -
orp tion</w>
ore kt
og amma
neur ologische</w>
natür lichen</w>
natür liche</w>
na l</w>
multi p
mit tier
mi d
malig ne</w>
m uni
lo w</w>
lin ks
kun ft</w>
ju ven
höch ste</w>
hil fe</w>
har ma</w>
geschla genheit</w>
gehö rigkeit</w>
fil s</w>
farb e</w>
ep razol</w>
e tri
doppelblin de</w>
den de</w>
c s</w>
benö tigte</w>
arteri en
anzu passen</w>
an sprech
af il
ab b
Zell -
Wo chen
Vas odilat
V AS
Trastu zumab</w>
T e</w>
Sub lingu
St ati
SCH L
Pseudoephe drin</w>
Protein bindung</w>
Posaconazol e</w>
Pla zent
Pap ill
Ori on</w>
Orgalu tran</w>
Neur ontin</w>
NEV AN
Mit teln</w>
L umin
L orata
L -</w>
Kreb spatienten</w>
K li
Hydrox ycarb
Gastroen teritis</w>
Folli kel
Fer ripro
Fami li
EIN SCH
Dur st</w>
Disk us
Chin idin</w>
Bivali rudin</w>
Belast ungs
Au ß
Angio x</w>
Anag reli
6 0-
2 20</w>
0 34</w>
üs sel
Ü b
zytotox ischen</w>
zu treff
wiederhol en</w>
ubl j
trä glich
tre cog
trecog in</w>
tin g</w>
ti ca</w>
ten er</w>
str ation</w>
spezif ischer</w>
sier ungs
sekund äre</w>
schränk ungen</w>
reig abe</w>
q a</w>
plötz liche</w>
ori en</w>
of f</w>
oben ac
obenac oxib</w>
neutrop en
multizentr ischen</w>
metast asen</w>
le gung</w>
le genheit</w>
kti eren</w>
kor on
hinreich end</w>
gi s</w>
fe ste</w>
erfol greich</w>
ei chen
de ckt</w>
ch tet</w>
c el</w>
bis lang</w>
betr offene</w>
best and
be wertung</w>
azy r</w>
au ßer
arbei tete</w>
ag ri
ag on
ab gegeben</w>
Zusätz liche</w>
Vida za</w>
Vi v
Ver häl
Trabe cte
TLI CH</w>
TIER UNG</w>
Suizi dge
Steady- Sta
Ste chen</w>
St abili
Saven e</w>
Re zidi
R obenacoxib</w>
Poly vinyl
Pol y</w>
Pharmakovigilanz plan</w>
Patienten population</w>
Past e</w>
Par ecoxib</w>
O MP
Natriumdi hydrogenphosphat</w>
Natri uma
NEVAN AC</w>
Mor bidi
Ly so
Lipody strophie</w>
L ov
Kep iv
J ung
Insulin bedarf</w>
Indigocar min</w>
In c</w>
H ig
H A</w>
Gesichtsfel d
Fir azyr</w>
Ferripro x</w>
F ast
Etaner cept</w>
Er adi
Em sel
Durch messer</w>
Child-Pu gh-
Candi diasis</w>
C ri
C la
C ali
C K
Bro mb
Be enden</w>
Az aci
Antirheumati ka</w>
A dr
7, 2</w>
7 0
5, 3</w>
1. 200</w>
.0 1.
über wach
üb en</w>
verte br
verb lin
ver b</w>
un veränder
ublj ana</w>
toc og</w>
tan rix</w>
syste misch</w>
syst em
ste ten</w>
sig n</w>
sicht bare</w>
si a</w>
sekund ären</w>
sch wach
ret ar
p assi
orth op
onado trop
ona tri
on itis</w>
mi ert</w>
mes uli
m T
l au
körper eigenen</w>
invasi ven</w>
infizier te</w>
höch st
hep atischen</w>
glu lisin</w>
geänder ten</w>
ge stör
fil m</w>
est o</w>
erfol g</w>
er füll
ein her</w>
ein ander
de cyl
ch ts
bi ologische</w>
berich tete</w>
ati ni
arzneimit tel
angi oneur
ach richtigen</w>
a gitis</w>
Zypre xa</w>
Zw ischen</w>
W er
Vor teil</w>
Verwirr ung</w>
VIR B
Ty verb</w>
Trink wasser</w>
The ophyl
TRI TAZ
TRITAZ IDE</w>
TM Z</w>
TI ON
TE K</w>
Sy na
Sicherheits system</w>
Ser on
Sacchar ose</w>
S. A.
S exu
Pro thrombin
P epti
Opti Cli
O B
Mit berich
Mil z
MA H</w>
Le gen</w>
LI CH</w>
Krampfan fällen</w>
Knochen erkrankungen</w>
Industri al</w>
Hei l
HMG-Co A-Redukt
H oh
For t</w>
Fir st-
FORSTE O</w>
Erythr ozyten
Ertapen em</w>
Erschöpf ung</w>
En g
En erg
E ur
E la
E di
Dro trecogin</w>
Do dge</w>
D ap
Ci tronen
CYP 3A</w>
C max
Bri st
Blutzucker kontrolle</w>
Blut bild</w>
Ber ech
Anti gene</w>
An aloga</w>
2 21</w>
0 44</w>
é s</w>
vor kom
vitr a</w>
vermittel te</w>
usi tis</w>
ti ere</w>
tablet s</w>
t ären</w>
still stand</w>
sta at
schätz ung</w>
ro t</w>
ra l</w>
r DNA</w>
oti sches</w>
orthop ädi
on alen</w>
olog ischem</w>
ol an</w>
mi meti
merck .com</w>
li ge</w>
la gerung</w>
la an</w>
kontinuier liche</w>
infizier en</w>
h ex
fr ieren</w>
eti n
dra .org</w>
dr en</w>
dauerh aft</w>
d. o.o.</w>
char akteri
bekann ter
beh örden</w>
b ös
b lin
antiretrovir al</w>
an nähernd</w>
al ters
ak ter
ag li
ZN S-
Z äh
Wechsel wirkungs
Warte zeit</w>
Viv anza</w>
Ver n
VI AG
U RI
Tätigkeits bericht</w>
TA B</w>
Stra ß
Serum konzentration</w>
Schw ein
Quin tanrix</w>
Prednis on</w>
Prasu grel</w>
OptiCli k</w>
ON E</w>
O titis</w>
O ran
Mon otherap
Methad on</w>
Melphal an</w>
Ma jor</w>
Lumin ity</w>
Lj ubljana</w>
Le vitra</w>
Langzeit -
Kontrast mittel</w>
Johns on</w>
In- vivo-
IM UL
Gen eri
Gedäch tnis
Gado graf</w>
G alle</w>
G UT
Fentanyl- ratiopharm</w>
F ur
Et wa</w>
Elek tro
Einzel heiten</w>
ETIKET TIERUNG</w>
E KG</w>
Dr .</w>
Doxorubi cin-
Child-Pu gh</w>
Block er</w>
Beteili gung</w>
Be züglich</w>
Avan dia</w>
Ansti ege</w>
Ag op
A st
8 7
8 4
7 .</w>
5, 1</w>
0 70</w>
μ g</w>
ästh esien</w>
Überlebens rate</w>
wor fen</w>
war ten</w>
w äre</w>
vorzu beugen</w>
verh üt
unzur eichen
umfass ten</w>
tig ungs
sp hase</w>
si ko</w>
setz ungs
schn elle</w>
re st
pulmon alen</w>
p or
ol ogen</w>
mi k</w>
meth opri
ko s</w>
hoh es</w>
gesetz te</w>
ger ichtet</w>
gener ell</w>
forts etzen</w>
fall s
f ok
f act</w>
eti k
ers etzt</w>
er leich
epi demi
du oden
du la
do sen
dau ert</w>
bi konvex</w>
benö tigten</w>
ati d</w>
athi en</w>
ari s</w>
al di
Zylinder ampulle</w>
Zir rhose</w>
Z -
W ur
VISTI DE</w>
VEL O
Ulzer ationen</w>
Tri methopri
Trabecte din</w>
Thromb ose</w>
Suizidge danken</w>
Stron ti
Str u
Spei ser
Sin usitis</w>
Sauer stoff
ST R
Rech ts
Pro ben</w>
Pla qu
Pim ozi
Nona fact</w>
Nach weis
N L-
Mut agen
Langzeit studien</w>
Kreis lauf</w>
Kepiv ance</w>
Inter aktion</w>
IV EMEND</w>
Hals schmerzen</w>
H UM
Gelen ken</w>
Fl oh
Fin ger</w>
Emsel ex</w>
EV ISTA</w>
Dien st
CH AR
C l</w>
Bindegew ebs-</w>
Bakteri um</w>
B rechen</w>
Av agli
Amiodar on</w>
Al doster
Agranulozy tose</w>
4 69</w>
3 1.
16 2</w>
07 .
0 96</w>
ö l</w>
zu fuhr</w>
wir bel
vitro -</w>
vir ologisches</w>
vernachläs sig
ver kürz
ter o
ta min</w>
str eb
stan des</w>
reversi ble</w>
r ebs</w>
pädiatr ische</w>
pro gramm</w>
nicht- steroid
ne kro
m s
m aler</w>
lei ter</w>
l le</w>
kreis lauf</w>
kin -
ir on
indu zieren</w>
in fo</w>
hep atische</w>
gem ess
erwachs ene</w>
erniedri gte</w>
er inn
entsprech ender</w>
dula fun
do decyl
dodecyl sulfat</w>
d rang</w>
con c
c als</w>
ber aten</w>
au tom
ar m
ander em</w>
andau ern
an nt</w>
al ut
al li
a tri
Zole dronsäure</w>
W har
Vorh off
Verhütungsmetho de</w>
Stoffwechsel -</w>
Spr üh
Sch wei
S C
Ressour cen</w>
Ren in-
Produ kten</w>
Polyprop yl
Pharmakovigilanz system</w>
Phar yngitis</w>
Phar m
P F
Organ en</w>
OPTRUM A</w>
Ni mesuli
Neben nieren
Natrium dodecylsulfat</w>
My ers</w>
Mon ats</w>
Magen -</w>
LÖS UNGSMIT
Kontra indi
Kom muni
ICH -
I sop
Hypo kalzämie</w>
Hydroxycarb amid</w>
Gehirn s</w>
Galact ose-
Fast ur
Far ma
Ela pr
Eben so</w>
EIN ER</w>
Durch bruch
Dopp el
Can ary</w>
Cali ci
Brinzol amid</w>
Bi s</w>
Bewusstsein s
Bereit stellung</w>
Ben utzen</w>
Anthr azy
Antagon ist</w>
Ani dulafun
Agop ton</w>
AT r
AN C</w>
6, 1</w>
5- Fluorouracil</w>
5 mg</w>
4, 3</w>
2 02</w>
17 0</w>
14 7</w>
- Tabletten</w>
- Spiegel</w>
е л</w>
ü sen</w>
wes halb</w>
veröffentlich ten</w>
ver worfen</w>
transder malen</w>
tier experimentellen</w>
säur e
stoff s</w>
sin ken</w>
si ve</w>
schri f
sa is
s .c
ri p
r äpar
otox isch</w>
op ause</w>
om er</w>
ne urop
mis sions
l äufi
k üh
it ali
her abgesetzt</w>
gan zen</w>
fr ier
fan den</w>
f oli
erwä h
erwor bene</w>
er ol
er min</w>
er litten</w>
enver kehr</w>
ent le
ent ation</w>
dopp elt</w>
der zeitigen</w>
cal cium
blut zuck
bli eben</w>
bisher igen</w>
bei behalten</w>
be tra
b ende</w>
ax yn</w>
at op
at er</w>
a zol</w>
Wis senschaf
Whar f</w>
W är
Vorhoff limmern</w>
VIAG RA</w>
U E</w>
Transamin asen</w>
Toxizitäts studien</w>
TE G
T UNG</w>
Straß enverkehr</w>
Si gn
Seron o</w>
S we
Rö tel
Rech nungs
Pro d
Ober teil</w>
Normali sierung</w>
Mittl ere</w>
Mic af
Menin gitis</w>
Interv et</w>
Her zen</w>
Haut -</w>
H ellas</w>
Gro up</w>
German y</w>
Geb ur
Fra ktur
Enzy m
DU K
Cyan ok
C A
Bluterg üsse</w>
Bic alut
Bexar oten</w>
Ber icht</w>
Ben utz
Behandl ungsp
Augen erkrankungen</w>
Ab sz
ATr yn</w>
A tt
4 31</w>
36 9</w>
3 19</w>
3 01</w>
19 .
15 5</w>
-H al
ühr en
über mäßige</w>
ö deme</w>
äm men</w>
ÄN K
Ä R
zentrali sierte</w>
zeit punkt</w>
zei ger
wie gen</w>
wich tigen</w>
wen igen</w>
wa schen</w>
verstopf te</w>
ver kehr</w>
untersu chte</w>
u ter
trat ard</w>
tech nologie</w>
t oxizität</w>
stechni k</w>
sen al</w>
schmerzhaf te</w>
r at
quib b</w>
ox ap
medizin ischer</w>
m .</w>
las e</w>
kol ben</w>
hä matopo
hin weise</w>
hi elten</w>
hand elte</w>
h emmer</w>
ge macht</w>
g ut
fü gen</w>
etik ett</w>
essen zi
er klären</w>
er ender</w>
entsp rachen</w>
en ce</w>
ein geführt</w>
ei tigung</w>
eg alie</w>
ec a</w>
dosis abhängige</w>
dis mus</w>
di l</w>
de men</w>
chron isch</w>
bess ere</w>
besch ich
be s</w>
aus wirken</w>
anc e-
an halten</w>
ag l
afen i
Zu stände</w>
X agri
Ver k
V ier
Ul tratard</w>
URI C</w>
Tages zeit</w>
T oxin</w>
T P
Sor afeni
Skelettmusk ulatur-</w>
Schieds verfahren</w>
S quibb</w>
S T</w>
Resorp tions
Rau chen</w>
R öntgen
R ÄNK
Produ cts</w>
Pimozi d</w>
Par ästhesien</w>
On senal</w>
Om eprazol</w>
N Y
Mono amin
Mikro organismen</w>
Li pid
Len den
L V
Kin der
Insulin glulisin</w>
Ib af
Hüh ner</w>
Hert fordshire</w>
Her aus
Gesam tz
Gelb fieb
G n
G amma
Fö tus</w>
Fut ter
Form ulier
Fahrzeu gs</w>
Er stellung</w>
Dy st
Del eg
DEN URIC</w>
D ichte</w>
Cyc losporin</w>
Cyanok it</w>
CH EN
C S
Bioäquival enz</w>
Bes eitigung</w>
Avagli m</w>
At osi
Ange sichts</w>
An a
Adjuv ans</w>
A DENURIC</w>
8, 3</w>
5, 9</w>
13 6</w>
.0 2.
zi el
zentr ale</w>
vorgeseh enen</w>
vorgeschla gene</w>
vor legen</w>
verord nen</w>
v ierten</w>
ut os</w>
ungs verfahren</w>
un regelmäßiger</w>
uli eren</w>
t oler
stündi ge</w>
selektiv er</w>
resist enten</w>
rekonstitu iert</w>
rank e</w>
r ück
pro ben</w>
pr ädi
ph ot
par asi
omyeli tis</w>
o ate</w>
neur ologischen</w>
nal trex
modi fizier
li pi
krank heits
kehr t</w>
j ahren</w>
inn eren</w>
idiopath ischer</w>
glu tin
gen er</w>
ge drückt</w>
fü r
fi li
eti ri
epi dermale</w>
ep l
en gung</w>
e ktion</w>
di alysepflich
comp ri
c e
benutz t</w>
az ol
ausgeprä gten</w>
as tin
ap ine</w>
ani qa</w>
al kalische</w>
adjuv anti
ab ig
Zuck er
Zu gehörigkeit</w>
Z IMUL
ZIMUL TI</w>
Verletz ung</w>
V aniqa</w>
Typ s</w>
Tri glyzeri
Temsi rolimus</w>
TEG RI
Steu er</w>
Sich el
Schlussfol gerungen</w>
Sal met
S am
R andomi
Produ kts</w>
Prod utos</w>
Pflege personal</w>
Per for
Pent a</w>
Par oxeti
Palpit ationen</w>
Original verpackung</w>
Organ e</w>
OP T</w>
Nat ur</w>
Mi o
Methyl naltrex
Mar kt</w>
Magen s</w>
M uk
M olek
Langzeit therapie</w>
Kontrazep tiv
Ju cken</w>
Indu ktor</w>
In stit
IN TEGRI
ID flu</w>
H Y
Gu idance</w>
Gn R
Gli olan</w>
Fü ße</w>
Fos ap
Fastur tec</w>
F R
Er forder
Elapr ase</w>
Druck knopf</w>
Dosis erhöhung</w>
D abig
Com tan</w>
Chin ol
CO P
Bab y</w>
B last
B al
An om
AZ OPT</w>
AZ AR
A stra
8, 0</w>
6, 8</w>
4 65</w>
2 33</w>
0 69</w>
über ein</w>
ör delkappe</w>
zeiger sinn</w>
visu ell</w>
verschlimm ern</w>
ungsimpf ung</w>
tom e</w>
tic os</w>
terat ogene</w>
t arabin</w>
str asse</w>
ster ben</w>
stam men</w>
so li
si tz
sexu ellen</w>
schwan kungen</w>
s.c .</w>
s äu
s et</w>
s eh
res orption</w>
r an</w>
qu enz
präpar at</w>
prot ein
produ zieren</w>
pharmakodyna mische</w>
ph asi
otrach ei
or ales</w>
neu es</w>
n M</w>
liefer n</w>
li erung</w>
in hib
human e</w>
gr af
ger äu
ge danken</w>
eti schen</w>
erk zeu
ent steht</w>
ent stehen</w>
enan tigen</w>
einmali ge</w>
einge prägt</w>
einge halten</w>
de ckel</w>
dar stellt</w>
c apon</w>
bl em</w>
bekannter maßen</w>
bei gefü
behandel nde</w>
at onin</w>
ad sorbiert</w>
Wirkungs weise</w>
WIRK SAM
VELO TAB</w>
Uhr zeigersinn</w>
Trit an
Tol capon</w>
Teil nahme</w>
Tech n
TIK EL</w>
Stu di
Schüt teln</w>
ST A
RÄNK UNGEN</w>
Ru fin
Rezeptor antagon
Republi k</w>
R os
Produktin formation</w>
Pro to
O li
Nukleosi dan
Nife dip
Nebenwirk ungsprofil</w>
Man ie</w>
LY RI
LI A</w>
Kombinations behandlung</w>
Interfer on-
Ibaf lin</w>
IL -2</w>
Hyper kalzämie</w>
Hyp om
Hormon s</w>
HBV- DNA</w>
Gl y
Febuxo stat</w>
Expositi ons
Ev alu
Ein setzen</w>
EIN EM</w>
D A</w>
Cy tarabin</w>
Calcium -
C etiri
C L</w>
Bromb utyl
Bolus injektion</w>
Blasen bildung</w>
Beh in
Begr ündung</w>
Bas el
B rei
Anidulafun gin</w>
Anal ge
Al p
Abw ehr
Ab lauf</w>
AR TIKEL</w>
AP S</w>
5, 2</w>
3 40</w>
2 45</w>
1 5.
über tragen</w>
über legen</w>
äh mung</w>
Über sti
wöch entlichen</w>
wä gen</w>
www. emea.eu.int</w>
wel t
w ahl</w>
us ie</w>
umfass t</w>
thromb in</w>
terat ogen</w>
teil nehmen</w>
ste kin
spro p
s einem</w>
rit an
rheumatoi den</w>
ra tes</w>
ot on
oper ation</w>
o spor
niedri gste</w>
ne oplas
kün f
konta kt</w>
k y
ind ir
hy ro
gum mi</w>
gen ug</w>
fol in
eu tika</w>
er ungs
enter a</w>
emb ran</w>
ell -
eg s</w>
diabe tischer</w>
da gegen</w>
d o</w>
cal c
c yc
best an
aufge fordert</w>
auf einander
ati k</w>
at z</w>
al -</w>
a tec</w>
Zu bereitungen</w>
Zen eca</w>
Xagri d</w>
Wirbel säule</w>
W e
Verlauf s
Verhäl tnisses</w>
U stekin
Transplant at
Tat sache</w>
Syna gis</w>
Stand ard-
Sichel zell
Schach tel</w>
S o</w>
Rhin otrachei
Resist enzen</w>
Ra chen</w>
Pilzin fektion</w>
Phosp h
Pharmakodyna mische</w>
Peg fil
OV IST</w>
Nimesuli d</w>
Malab sorption</w>
Ma si
M ein
Lov ast
Lansoprazol -
K entera</w>
Hyp onatri
HbA1 c</w>
H B</w>
Gesamtz ahl</w>
Gauch er-
GUT ACHTEN</w>
G il
G au
Exazerb ationen</w>
Ere ktion</w>
En al
Drit tel</w>
Differ enz</w>
CP MP-
Blut werte</w>
Bio technologie</w>
Be st
BO X</w>
Auf stehen</w>
Antwor ten</w>
An alogon</w>
AR D
AC T</w>
9, 4</w>
4 10</w>
16 6</w>
1 4-
0, 000</w>
über zug</w>
üb ung</w>
µ M</w>
vorübergeh ender</w>
vor zunehmen</w>
verseh entliche</w>
ungs weise</w>
tr ations
ti gem</w>
t i</w>
stim uliert</w>
sorgfäl tiger</w>
so zi
sicht bar</w>
sa gt</w>
r ötung</w>
pons e</w>
ot h
op ie</w>
normal em</w>
n om
n eben</w>
mit t
la stung</w>
kur zen</w>
korre kt</w>
je glicher</w>
invasi ver</w>
ind ungen</w>
il u
gelb liche</w>
ge usie</w>
ex tr
el s
el ben</w>
edi kation</w>
ear ch</w>
e f</w>
dap est</w>
d or
ci lis</w>
beinhal tet</w>
be tracht</w>
be druckt</w>
azep am</w>
au m
ath ek
ass ungen</w>
W erkzeu
W EI
Verwaltungs rates</w>
VER FA
Um gebung</w>
UNGS FOR
Tritan rix</w>
Trimethopri m</w>
Tra v
Tin nit
Techni k</w>
QT c-
Pro gram
Pri alt</w>
Por cilis</w>
Pim ec
Per itone
O G
Neo Sp
Muk ositis</w>
Men opause</w>
M -
Lungenemb olie</w>
Lovast atin</w>
LYRI CA</w>
Kur ve</w>
Kor re
Kontamin ation</w>
Kontakt lin
Interessen gruppen</w>
Insu ffizienz</w>
Imp lantation</w>
Imp lan
INJ EK
Hyper lipidämie</w>
Herz -
Geschlechts verkehr</w>
GR ÜN
Funktions störungen</w>
F eu
Erkenn tnisse</w>
Er niedri
Er arbeitung</w>
Enal apri
Eis ai</w>
Ein heit</w>
Ein druck</w>
Eierstö cke</w>
Dyst onie</w>
Di ck
Darreichungs formen</w>
Comp an
Clo stri
Calcium folin
Bu dapest</w>
Bio trans
Behand elte</w>
B eine</w>
Aufmerksam keit</w>
Atri ance</w>
Arzneimittel- Agentur</w>
An betracht</w>
Allgem einer</w>
AR -
AC OMP
A er
7, 9</w>
3 00
2 27</w>
.0 9.
.0 6.
Über dosierungen</w>
zutreff end</w>
z ungen</w>
vor behandelte</w>
versiegel t</w>
verschlimm ert</w>
unterschei den</w>
ung st
ump en</w>
tom ycin</w>
tiv ität</w>
ti tr
te glin
syste men</w>
stru ktur
st r</w>
selektiv e</w>
sch ützt</w>
rimi dos</w>
relevan ter</w>
pt afl
ptafl u</w>
proz entu
p s
ox i</w>
otox ischen</w>
ot ard</w>
oni um
ol- Myers</w>
ol act
ohy dro
ob al
mensch lichem</w>
line ar</w>
lakti erenden</w>
kur ze</w>
ko s
irgend einem</w>
in hali
i eben</w>
hyre ose</w>
hyper t
hy l</w>
h en
h ebung</w>
geschätz t</w>
fa din</w>
f heit</w>
eti ng</w>
es o
entschei det</w>
ein frieren</w>
eg ar
carb onat</w>
blutdrucksenk enden</w>
bli ster
betreff enden</w>
at mung</w>
ange streb
Wieder auftreten</w>
Wachstumshormon mangel</w>
Vor behandlung</w>
V in
Ulzer a</w>
Tri atec</w>
Synth ese</w>
St ock
St atin</w>
Spezi f
S uni
Re conc
Past eur
Par tikeln</w>
P ET</w>
Or fadin</w>
O ptaflu</w>
Mon otard</w>
Mo bili
Mirtaz apin</w>
Metac resol</w>
Medi astin
Ma is
MON APS</w>
MIT GLI
L ä
Kat ze</w>
Infusions stelle</w>
Immun suppression</w>
IN -
Gesamt cholester
Gast ritis</w>
Ernähr ungsstörungen</w>
Entsprech end</w>
Einzel fällen</w>
Ein richtung</w>
E vi
E 14</w>
Dokum enten</w>
DAR REICH
D es</w>
D egar
Com te
Cla dri
C olitis</w>
C h</w>
C .
Brist ol-Myers</w>
Bewegungs appar
Ber ühr
Ast ellas</w>
Arzneimittel wechsel
Anagreli d</w>
Ana kin
Aller gien</w>
AM MONAPS</w>
ACOMP LIA</w>
A gi
9, 0</w>
8, 6</w>
6, 3</w>
5 35</w>
4 5-
1 1
-C i
η ς</w>
äu men</w>
wiederhol te</w>
voll en</w>
verf är
ver an
te tes</w>
t max</w>
t gl</w>
ste mi
sp o
sofor tige</w>
so weit</w>
sau ber
s eines</w>
refra kt
r ö
produ kten</w>
pharmazeuti schen</w>
orthostati sche</w>
ona s</w>
ol azin</w>
m esto</w>
lo kali
langfris tige</w>
konzentr ations
kontr oll
kons ulti
it um
i en
her r
her edi
gepool ten</w>
gen heiten</w>
gelan gen</w>
gel enk
gegenwär tig</w>
geb r
ge teilt</w>
g o
frei em</w>
fra ge</w>
fer tigen</w>
eti ka</w>
epl on</w>
entzünd liche</w>
ent -
eb ri
direk ten</w>
dar m
blas e</w>
be kämpf
aus genommen</w>
ari fen
ar tiger</w>
ar me</w>
ar e
an orm
al karzinom</w>
aktiv itäten</w>
abge kl
Wa y</w>
W INT
WINT HR
WINTHR OP</w>
Vor schriften</w>
Verbess erungen</w>
VERFA HREN</w>
Ultrasch all
Tub e</w>
Terat ogenität</w>
Teil chen</w>
Stoff e</w>
Ster b
Scien ces</w>
Sauer stoff</w>
Res earch</w>
Ran olazin</w>
RI LU
REL IST
Pharma k
Pertus sis</w>
Pegfil grastim</w>
Part ner</w>
P I</w>
Nie dri
NeoSp ect</w>
Muskel stei
Mor gen</w>
Micaf ungin</w>
MB q</w>
Lup us</w>
Las of
Lamivu din-
L H</w>
Krebs zellen</w>
Krankheits gefühl</w>
K a
Ins besondere</w>
I X-
Hyper tri
Hyp op
HD L-
Gluc o
Gebrauch san
Ge frier
Fl eb
Farb e</w>
Far est
Er ör
ER E</w>
E M
Dosierungs an
Doppelblin d
DARREICH UNGSFOR
D arifen
D UNG</w>
Blut -</w>
Biologi cals</w>
Berei chen</w>
BEZEICHN UNG</w>
B ein
B ase</w>
As sa
Antimyko tika</w>
An gele
Am y
AZAR GA</w>
A gonisten</w>
6 40</w>
0 4.
wes entlichen</w>
wei t
völ k
völk erung</w>
vorgefüll ter</w>
vir us
versehent licher</w>
verschlech tern</w>
vermehr ter</w>
ver zeich
ver lie
un klar</w>
transp orti
thromboemboli sche</w>
t h</w>
stärk ere</w>
spä teren</w>
spiel t</w>
schw ierigkeiten</w>
ri l</w>
ra y</w>
piv ot
or te</w>
or ischer</w>
or ie</w>
om usk
om at
of en
mul ations
mag glutin
l am
kompli zierten</w>
kl einer</w>
is ode</w>
is e</w>
iron olact
höch stens</w>
hin weg</w>
gewöhn lichen</w>
gefr oren</w>
fi b
fer ry</w>
et a
erneu te</w>
ergän z
en glyko
ektr um</w>
di f</w>
de c
charakteri siert</w>
beta-1 a</w>
bestan den</w>
beschle uni
beglei tende</w>
beden ken</w>
be sitzen</w>
arthr itis</w>
an al
alfa-2 a</w>
al so</w>
abgekl ungen</w>
Zahnflei sch
Yttri ga</w>
West ferry</w>
W ell
V elo
Ul cus</w>
Tinnit us</w>
Tier es</w>
Ti tel</w>
Thrombozyten aggreg
Tal spiegel</w>
Ta ges</w>
TE SL
Su p
Sexu al
Schilddr üse</w>
S ant
Risiko -</w>
RILU TEK</w>
RELIST OR</w>
R .
Pr es
Pertus si
Pan zytopenie</w>
Pan itum
Na teglin
N al
Medi kation</w>
Mamma karzinom</w>
MR L</w>
Leuko zyten</w>
Lenden wirbel
L ach
K er
Infusions rate</w>
INTEGRI LIN</w>
I mm
Hüf te</w>
Hyponatri ämie</w>
Hin ter
Gil ead</w>
Geschw üre</w>
GEM Ä
Fos can</w>
Fluticas one</w>
Elektroly t
Eingriff e</w>
De fin
Comte ss</w>
Compan y</w>
Clostri dium</w>
Cir cus</w>
Cephal ospor
C linical</w>
Blister n</w>
Bl e
Biliru bin
Astra Zeneca</w>
Aspir in</w>
30 9</w>
19 9
15 00</w>
1 180</w>
. Ε
- Studien</w>
é r
äuß eren</w>
äh e</w>
zusätz licher</w>
zir rhose</w>
wo che</w>
verfü gt</w>
verabrei chte</w>
ver öffent
ulf an</w>
tt herapie</w>
teil ten</w>
techni sche</w>
t äre</w>
t nissen</w>
spo vidon</w>
spezif isches</w>
sp ektiven</w>
sicherh eit</w>
setz te</w>
sch lossen</w>
r .
pti fib
pf ei
orthopädi schen</w>
or ation</w>
op sie</w>
oli n</w>
mo du
mittel schwer</w>
mi li
mahl zeit</w>
li tät</w>
li eren</w>
langsam e</w>
l -
konv ul
komplet te</w>
kombin ierter</w>
kan üle</w>
kam en</w>
k ologischen</w>
höher es</w>
her kömm
gener ation</w>
gan genen</w>
fur oat</w>
fi gkeit</w>
fe kt</w>
et -
er re
empf än
em ents</w>
effe ktive</w>
direk ter</w>
da -
d eh
c ine</w>
bin den</w>
biliru bin
antihypertensi ve</w>
ange sichts</w>
anaphylakt oide</w>
al a</w>
abhängi ger</w>
ab in-
Z on
Yt trium
X en
Vorsit zender</w>
TI S</w>
TESL AS
T max</w>
Substitu tionstherapie</w>
Sp uren</w>
Serokonver sion</w>
Sek und
Schwangerschaf ten</w>
Schutz wirkung</w>
Sch ei
S ofern</w>
S kala</w>
S af
Reconc ile</w>
Re gel
Peri pher
Par all
P AS
Ovari en</w>
Ober arm</w>
Netz wer
N il
N ACH
Mitot an</w>
MI X
Lichtempfind lichkeit</w>
Kontaktlin sen</w>
Kl are</w>
Kalzi um</w>
Jan ssen
Insulin dosis</w>
I de
Human -</w>
Hoch disperses</w>
Grun der
Geschw indigkeit</w>
Gelb orange</w>
Fosap repitant</w>
Flüssigkeitsan sammlung</w>
Farest on</w>
Erhol ung</w>
Elektro kardi
EL IS
E ptifib
Cro spovidon</w>
Bus ulfan</w>
Blut tests</w>
Bewer tungs
Behandlungs gruppe</w>
Azaci tidin</w>
Aspart at
Anakin ra</w>
Adr en
Abwei chungen</w>
Ab setz
A th
A b</w>
8, 4</w>
7 0-
6. 3</w>
2 11</w>
17 7</w>
00 .
Östro gen
µ l</w>
wel chen</w>
vol l</w>
versch oben</w>
ver trat</w>
ver größerung</w>
ver giftung</w>
unter liegt</w>
ungspro gramm</w>
u .</w>
trä ge</w>
top ischer</w>
ti az
tiaz em</w>
ster i
spon tan</w>
si dase</w>
sel s</w>
schlu ß</w>
rip ent
pres se</w>
potenti ell</w>
po t</w>
p fla
otherap euti
or rhoe</w>
ogamma dif</w>
o der
multipl em</w>
mon ohydro
lo ss</w>
lo dex</w>
kräf tig</w>
kleinzel li
k ern</w>
intr athek
i pr
hin weist</w>
h a
gru pp
gelö ste</w>
gebrauch te</w>
ge sp
f öt
ex in</w>
erfol g
ein -</w>
ec es</w>
e den
d ungs
chin ol
brei tung</w>
brei ten</w>
bl ass
ben ig
begr ün
beabsich tigen</w>
aufge klärt</w>
atho mimeti
arm ut</w>
am ma</w>
Wa schen</w>
W es
W eg</w>
Ven en
V ICH</w>
Ustekin umab</w>
Triglyceri de</w>
Tri azol
Sti ripent
Steady-Sta te-
St d.</w>
Ser vi
Sch ätz
Salmet erol</w>
S inn
Ro su
R ilu
R ich
Qu adr
Prot onen
Phase-III- Studien</w>
Per ind
Par lam
Par asi
P h</w>
OP AT
OPAT ANO
N ähe</w>
Mehr heit</w>
Mediastin ums</w>
LÖSUNGSMIT TEL</w>
Lyso dren</w>
Lo u
Langzeit anwendung</w>
Labor untersuchungen</w>
Konfer enz
Knochenmark transplantation</w>
Indu ktion
IN R</w>
Hyper trophie</w>
Gro ß
Gr am-
GAN G</w>
G eben</w>
Fort pflanz
Formulier ungen</w>
Fleb ogammadif</w>
Fas lodex</w>
Farmacêu ticos</w>
F- 9
En oxap
Defer ipr
Cytochrom-P 450-
Brust raums</w>
Br aus
Bluterg uss</w>
Blut armut</w>
Be arbeitung</w>
BE GRÜN
B N
B E</w>
An schrift</w>
Al oxi</w>
AVAND AMET</w>
AUC 0-
9 N
3 8
3 4
18 2</w>
16 7</w>
15 3</w>
1.8. 1</w>
0, 45</w>
zy tose</w>
zi d</w>
zen t</w>
z k
z eta</w>
xi l</w>
war zen</w>
w ollen</w>
vir ologischen</w>
veröffent licht</w>
verstärk ter</w>
ver mischt</w>
ve j</w>
un r
töd lichen</w>
trä ume</w>
t om</w>
s za
s A
ri ca</w>
rau chten</w>
plazeb okontrollierten</w>
p opul
or rho
om ot
nachweis lich</w>
monohydro genphosp
mini mieren</w>
mehr erer</w>
ly ophili
lo s
lei stungen</w>
kontinuier lichen</w>
ko g
kog niti
kl ar
k shire</w>
inn ere</w>
ier getrock
hal b
h usten</w>
grap hie</w>
gew or
geplan t</w>
gefr iergetrock
ge ometr
funktions fähig</w>
funktion iert</w>
flu or
fet trei
etr on</w>
eso tero
ek retion</w>
eini gung</w>
ein stellen</w>
ei gene</w>
e ktiv</w>
dr än
dies elben</w>
de pot</w>
d op
calc ämie</w>
c ul
bid o</w>
ber n</w>
b -</w>
ationsp atienten</w>
arteri eller</w>
anhalten der</w>
anaphylakti scher</w>
a PT
Zwisch en
Verh är
Ver antwor
Velo sulin</w>
Tumor zellen</w>
Tran sfer
T V
Speiser öhre</w>
Sp ironolact
So j
Serokonver sions
Schluck beschwerden</w>
S IA</w>
Risikom ini
Reflu dan</w>
R G
R A
Protonen pump
Pharmaceutic al</w>
Pharm am
Peritone aldi
Part ner
OPATANO L</w>
O xi
Netz haut
Nateglin id</w>
Narko se</w>
Nachbeobach tungs
Na gel
NACH GANG</w>
Mi dd
Menstru ations
Magen-Darm- Tra
M aus
M E</w>
Li bido</w>
Levod op
Leber zirrhose</w>
Leber werte</w>
Lasof oxifen</w>
Kalium spiegel</w>
Interaktions studien</w>
Insulin pump
Implant at</w>
Immun schwä
IN SU
Hä ma
Human arzneimitteln</w>
HC l</w>
H an
Gew eben</w>
Gem z
Geb ühren
GR AN
GEMÄ SS</w>
G ehen</w>
G aben</w>
Fun ktionen</w>
Fa eces</w>
F esotero
Entwick l
EX P</w>
Dap tomycin</w>
Da mit</w>
D il
D A
Blut trans
Biotrans formation</w>
Beein fluss
Basi s
Aut o</w>
Auf schrift</w>
Anwen der
Antwor t</w>
Ag al
AR COX
AID S-
99 mT
9, 6</w>
7, 0</w>
6. 2</w>
6, 4</w>
5 6
0 90</w>
0 9.
0 45</w>
-M angel</w>
übergewich tigen</w>
ähn liches</w>
zy sti
zuneh mende</w>
x en</w>
vorangegan gene</w>
versu ch</w>
ver größ
thromb otische</w>
ten -
tax ie</w>
sä um
sp ru
sin ter
s em
rat sam</w>
pun kten</w>
plötz lichen</w>
ovari ellen</w>
ophar ma</w>
olog y</w>
ogen ese</w>
mittl erer</w>
mini male</w>
metasta sierten</w>
matop ro
m echanismen</w>
lauf en</w>
l lung</w>
juven il
intersti tielle</w>
hepat o
h aft</w>
geb rauch</w>
fil m
fest gelegten</w>
fehl ende</w>
fa mili
fa kt
f reigabe</w>
ers etzen</w>
ernsth af
er möglichen</w>
ep ithel
entzünd ungen</w>
einzi ge</w>
ein nimmt</w>
dür f
din -</w>
dan e</w>
d. d.</w>
chlori d-
bronch i
blu t</w>
be wer
be gan
ausgeprä gte</w>
auf fälli
at ten
ap las
ap an</w>
an fälle</w>
Zal eplon</w>
Wi der
VER PACKUNG</w>
Tumor s</w>
Thiazi d
Te л</w>
TW OR
Sorafeni b</w>
Sekretari at</w>
S N
Rach en
Pra ha</w>
Phenylalan in
Penic il
Oberfläch enantigen</w>
Nadelschutz kappe</w>
Mö gliche</w>
MITGLI ED
Leberenzym werte</w>
L O
Krebs erkrankung</w>
Inter leu
Inter aktionen</w>
Insulin therapie</w>
Infu sionsp
Hepatitis- B-</w>
Haz ard</w>
H el
Glas art</w>
Gemein schaft</w>
Gaucher- Krankheit</w>
G eimpf
Ein nahmen</w>
EV IC
E st
Dosisstei gerung</w>
Dehydr atation</w>
Degar elix</w>
Defin i
De ckung</w>
Dau men</w>
Dar on
Cholest ase</w>
Chl amy
Cer enia</w>
CHAR GEN
Beeinfluss ung</w>
Basi liximab</w>
BEGRÜN DUNG</w>
Anthrazy klin
Aminos äuren</w>
Al ex
Agen cy</w>
Ab stoßung</w>
Ab dom
ARCOX IA</w>
AN TWOR
A taxie</w>
A stemi
8, 7</w>
4 57</w>
36 3</w>
3 27</w>
2- 3</w>
19 4</w>
17 6</w>
ÄN DER
µ mol</w>
wöch entliche</w>
wieder kehr
vorzu legen</w>
verschw inden</w>
verlänger ten</w>
ver -</w>
tin -
teri um</w>
ten der</w>
ta te</w>
sza wa</w>
sp in
schrit te</w>
sch ech
sch aden</w>
r hö
oxi das
organ is
ore mi
omy opathie</w>
ograp h
o u</w>
no ch
noch mals</w>
neutrali sierende</w>
neur omusk
neu n</w>
min ü
mi d-
man agement
k au
j etzt</w>
invasi ve</w>
glau kom</w>
gl ut
fin fusion</w>
ei gen
dun kel
dop amin
dien ste</w>
de -
beige pack
auszu schließen</w>
aufge zogen</w>
auf geb
and rix</w>
al bumin</w>
Wei teren</w>
War szawa</w>
W est</w>
W en
Viraferon Peg
Vern eb
Ver kürz
V enen</w>
U MAN</w>
Tri men
Tor sa
Theophyl lin</w>
Ter min
TESLAS CAN</w>
T schech
Sti m
Standard therapie</w>
Selbstmord gedanken</w>
Schwank ungen</w>
Schein behandlung</w>
Sc ores</w>
Sachver ständi
Rufin amid</w>
Riba vir
P umpe</w>
P rep
Ohr en
OVI G</w>
O mali
N VR</w>
My elo
Morbidi tät</w>
Met alyse</w>
Mark er</w>
Mani fest
Ma ß
Ma k
MR L
Leberen zy
Lebens jahr</w>
Kreatin in-</w>
Kardi omyopathie</w>
KI OVIG</w>
K ath
K ab
Isch ämie</w>
Inje ktoren</w>
Inje ktion
Harn drang</w>
HP V</w>
GLI CH</w>
G onadotrop
G icht</w>
F all
Erör terung</w>
Ein schränkungen</w>
Dosi erk
Dop amin</w>
D ün
D RA</w>
D MAR
Chargen freigabe</w>
COX -2
C -</w>
Bri dion</w>
Blutzucker s</w>
Blut fett
Bi matopro
Benutz ung</w>
Be uteln</w>
B N</w>
Astemi zol</w>
An nahme</w>
An falls
Alzheimer- Demenz</w>
AZ IL
9, 7</w>
4 HB</w>
4 07</w>
2 4.
18 4
14 5</w>
1, 73</w>
1 56</w>
0. 5</w>
win kel
vergleich baren</w>
ver halten</w>
v eterin
v et
te stin
t at
stra hlung</w>
separ ate</w>
senk ende</w>
schäd lich</w>
recht fertigt</w>
prot ein</w>
pl atin
ori en
opportun istische</w>
oplas ma</w>
onor m</w>
oc obal
neutrophil en</w>
n .
land s</w>
kno ten</w>
hal be</w>
gleich gewicht</w>
geschw ür</w>
geräu sche</w>
ger ich
ge kehrt</w>
f ebri
ex trap
eti sche</w>
esi schen</w>
erneu ten</w>
ermittel n</w>
entwick elte</w>
drin gend</w>
de to
chro m
behandel ter</w>
behand lungen</w>
beantra gte</w>
be trä
be für
be cher</w>
b .
ase- Mangel</w>
ar gin</w>
ansp richt</w>
WH O</w>
Varenic lin</w>
VIRB AC</w>
USS FOL
Tyro l</w>
Typ- 1-
Thromb oemboli
Testoster on</w>
Steady- state</w>
Stamm zell
Sicherheit spro
SCHL USSFOL
Re vision</w>
RE GRAN
Prothrombin zeit</w>
Pro tamin</w>
Prep andrix</w>
Pol en</w>
Pneum okok
Pimec rolimus</w>
Pali vi
P P</w>
Oste one
Omali zumab</w>
Nukleosidan aloga</w>
Nei gung</w>
Natriumchlorid- Lösung</w>
N on
Medi zin
MT X</w>
Lymph aden
Ly rica</w>
Leberfunktion stests</w>
Leber transplantation</w>
L ungen</w>
L V-
Körper größe</w>
Kreuz resistenz</w>
Kopf schmerz</w>
K i
Isoen zy
Inter esse</w>
Infusionslös ungs
Immunde fizi
Hämat urie</w>
Harn säure</w>
Gesamtüber leben</w>
Feu chtigkeit</w>
Fest legung</w>
F oli
F IL
Er satz</w>
Er k
Dop amin
Dil tiazem</w>
Blutungs ereig
Be fass
B EN
Asp ekte</w>
Arbei ten</w>
Ar c
Antra gs
AZIL ECT</w>
8, 9</w>
4 06</w>
18 .
16 3</w>
12 50</w>
1.8. 2</w>
0 41</w>
-H emm
-Ci lag</w>
zi p
yn ge
vor bestehenden</w>
vir us-
vir ologische</w>
ver abschiedet</w>
ur ik
ungspro z
un behandelten</w>
ul v
tub uläre</w>
ti sch</w>
su s</w>
sons t</w>
si der</w>
sh eim</w>
schw ier
schl äf
ro ma</w>
r o</w>
psychiatr ischen</w>
pflanz liche</w>
par tielle</w>
on at
om el
o bi
natür lich</w>
multizentr ische</w>
mittelgradi ger</w>
mi cro
medikam ent
leb itis</w>
le -
komp atibili
kan äl
intramusk ulärer</w>
inhal ativen</w>
in stabiler</w>
ie -</w>
ic s</w>
hyre oi
hol m</w>
hier zu</w>
hat ämie</w>
gen ommen
fl am
en g</w>
em mers</w>
ec teplase</w>
durch sichtig</w>
deto mi
dan al
com presse</w>
c la
bez ogenen</w>
be vorzu
ausgeprä gter</w>
aufgetret enen</w>
at t
art an-
ani a</w>
ami l</w>
am ectin</w>
allgem eines</w>
ag gressi
adäqu ate</w>
ad ul
abge tö
a z</w>
Werkzeu ge</w>
Weich teil
Veröffentlich ungen</w>
Ver schrei
Trop finfusion</w>
Trav oprost</w>
Tar gre
Stati nen</w>
Spr ach
Sp iegels</w>
Sich t
Schrau b
Schlussfol gerung</w>
STA ATEN</w>
SCHLUSSFOL GER
S IN
S D
Rück seite</w>
Ru a</w>
Rosu vastatin</w>
Rilu zol</w>
Revas c</w>
Res t</w>
Reflu x
REGRAN EX</w>
Pro gramms</w>
Pe de
Pasteur ella</w>
PR IM
P ML</w>
Nierenfunktions einschränkung</w>
Ne w</w>
Muskel -</w>
Methyl -
Lu tropin</w>
Lei terin</w>
Leber entzündung</w>
Lager ungs
L T
Kol la
Knochen schmerzen</w>
Klin isch</w>
Janssen -Cilag</w>
Jahres bericht</w>
Is land</w>
II b</w>
I X
Hitze gefühl</w>
Hepatitis-B- Virus</w>
H öhe</w>
Gripp e-
Gemz ar</w>
Gemein sam
Geh alt</w>
Gebur ts
GR -
Frucht barkeit</w>
Ex kre
Entwick lungs
Eis pr
E bene</w>
E 110</w>
Dys geusie</w>
Dosier spritze</w>
Dir e
Daron rix</w>
DURCHSTECH FLASCHEN</w>
Cephal on</w>
Bicalut amid</w>
Bestand teils</w>
B y
Auf satz</w>
Anwend ungen</w>
Angst zustände</w>
Ac erb
A E</w>
5 fache</w>
4. 9</w>
0, 6
0 6
0 57</w>
, 000</w>
zu fügen</w>
yl osi
wen ien</w>
w .</w>
voraus sichtlich</w>
vor bestehender</w>
vor ausge
vir alen</w>
verdün nte</w>
unzureich ende</w>
ula r</w>
te ter</w>
ta bel</w>
stell ungen</w>
stell end</w>
st em</w>
ss eri
span ne</w>
sk ala</w>
sh öchst
setz ungen</w>
sel tener</w>
schüt zende</w>
schlä gen</w>
respirat orische</w>
qu anti
on ische</w>
od on</w>
od g
o w
notwendi gen</w>
neurop ath
nei gung</w>
nach folgende</w>
monoklon aler</w>
mi r</w>
m .
leich terung</w>
lei dung</w>
lei det</w>
ktiv er</w>
konzentr ats</w>
kontrolli erter</w>
kontinuier lich</w>
konta ktieren</w>
je gliche</w>
her absetzen</w>
gesetz ter</w>
ges un
geringer em</w>
gereini gt</w>
gemeinsam en</w>
frei gesetzt</w>
f ark
ers enk
ep h
ek ten</w>
ei cht</w>
e ase</w>
den afil
de x
c ir
beginn end</w>
be ste
aus ch</w>
as ehemmer</w>
an steigt</w>
akzep tabel</w>
af lu
ZN S</w>
VAS OVIST</w>
U se</w>
Tin te</w>
Thiazid diureti
The men</w>
Ten ecteplase</w>
Sp ar
Slo wenien</w>
Sevoflur an</w>
Seroton in-
Sei fe</w>
SCHLUSSFOLGER UNGEN</w>
Rückstand shöchst
Rückstand s
Re y
Re aktions
Poin ts</w>
Phot os
Panitum umab</w>
P yl
O ffi
Nutzen s</w>
Nei sseri
Min ut
MRL s</w>
Komp likation</w>
Kab i</w>
K ra
K olitis</w>
In kompatibili
IT T</w>
Glu kur
Gesamtüber lebens
Ge danken</w>
Gastrointestin ale</w>
G-C SF</w>
Fondaparin u
Fluticason furoat</w>
Ev oh
Erk äl
Er leichterung</w>
Eosin ophilie</w>
EVIC EL</w>
Dosis -
Dosierungs empfehlung</w>
Dosi sti
Dori pen
Diar rhö
Cy sta
Corp oration</w>
Bimatopro st</w>
Best ätigung</w>
Berich ten</w>
Be achten</w>
B -2
Augen schmerzen</w>
Arzneimittelwechsel wirkungen</w>
Antikörper ti
Alph a-
Al ters</w>
Ag omel
Ab geschlagenheit</w>
Ab Z</w>
8, 2</w>
36 6</w>
3 16</w>
28 8</w>
19 0</w>
15 8</w>
0, 9
0 92</w>
0 50</w>
.0 5.
üs en
üb lich</w>
zyto geneti
zusammen hän
zufri eden
zerebro vaskuläre</w>
zell karzinom</w>
xi mab
vor kommen</w>
vol um
vier mal</w>
verges s
v o</w>
v ei
us w.</w>
uroni um</w>
u din</w>
to -
stra at</w>
steril es</w>
sp las
so genannten</w>
sexu elle</w>
schu he</w>
schläf rig</w>
sch icht</w>
s omen</w>
rezept oren</w>
rech nen</w>
radio aktiven</w>
pla t
pivot alen</w>
pas siert</w>
parenter alen</w>
or g
oph thal
om nie</w>
ocobal amin</w>
ober e</w>
ob je
o so
nesi ämie</w>
neh men
monat lichen</w>
medizin isch</w>
ma terialien</w>
m üh
lin derung</w>
la gerungen</w>
kul t
kl usi
k s</w>
k IE</w>
isch ämische</w>
inter mittier
inje ktions
initi ale</w>
ier ende</w>
i k</w>
gül tig</w>
gri ff</w>
gr enz
getren nt</w>
ge -</w>
g ei
fass t</w>
erheb liche</w>
entschie den</w>
ent fal
empfind lichen</w>
einzel n</w>
einheit lich</w>
eh er</w>
die jenigen</w>
diast olischen</w>
de coxib</w>
cremef arb
cl ofen
ci clo
brei te</w>
bie tet</w>
beru fe</w>
bei gefügt</w>
acet at</w>
Zentr alner
Xen ical</w>
Wechselwirkungs studien</w>
Verdau ungs
Ver gewissern</w>
Untersu chungs
Unter lagen</w>
Trin ken</w>
Terfen a
Targre tin</w>
T yl
T oremi
Sup pression</w>
Stoff wechsel</w>
Stickstoffmon oxid</w>
St atine</w>
S. R.
Rück fall</w>
Ris k</w>
Retin opathie</w>
Reproduktions studien</w>
Randomi sierung</w>
Pro graf</w>
Pro blem</w>
Post -Mark
Peritonealdi alyse</w>
Opti mark</w>
Oli g
Nukleosi d-
Nil oti
Nieren erkrankungen</w>
Musk ulatur</w>
Mio .E.</w>
Medi cinal</w>
Man u
MY L
MYL AN</w>
Lymph omen</w>
Lungen ödem</w>
Levodop a-
Leber probleme</w>
LI M</w>
L E</w>
Kombination st
K le
Information stech
In stitu
Il oprost</w>
Hypop hy
Hypom ag
H om
Gl ycin</w>
Gallen erkrankungen</w>
G I
G FR</w>
F üt
Extra vas
Ein schla
Ei weiß
Diskus sion</w>
Di clofen
D ev
Corticosteroi den</w>
Cli ck</w>
Chrom osom
Calciumfolin at</w>
Ber kshire</w>
BE S
B ur
B re
Atosi ban</w>
Applikations stelle</w>
Applikations spritze</w>
Antra gs</w>
Alan in
Agal sidase</w>
8 2
6 3
5 9
4 55</w>
4 25</w>
4 2
3- 4</w>
19 2</w>
16 9</w>
13 .
10 x</w>
0 91</w>
ül t</w>
über la
öffent lichen</w>
änder ungen</w>
ämi scher</w>
zu dem</w>
zirkulier enden</w>
wäss rige</w>
vor nehmen</w>
vor behandelt</w>
versu che</w>
va gin
urik ämie</w>
unterschei det</w>
trocken er</w>
tel t</w>
techni schen</w>
tar go</w>
stat tung</w>
st ein</w>
sicht baren</w>
schäd liche</w>
s la
ro sa</w>
risi kos</w>
re chten</w>
ran t</w>
ra z
prädi spon
pers ön
oti scher</w>
orp hy
organ i
opro te
oper ationen</w>
ol epti
mut agen</w>
mini mal</w>
langsam er</w>
l osin</w>
ko sten</w>
je mals</w>
j us
iv losin</w>
isch erweise</w>
intra vas
initi alen</w>
hinzu gefügt</w>
ger e
gebo oster
fen ster</w>
etwa iger</w>
enz ep
en ge</w>
embry onale</w>
ect or</w>
e Click</w>
durchsich tige</w>
dosis abhängigen</w>
di aly
de cken</w>
dau erte</w>
dau ern
c .</w>
bro mid</w>
beur teilung</w>
beschle un
anti mikrobi
aner kan
al kali
abwei ch
a in</w>
Zentralner ven
Wär me
Wissenschaf tliche</w>
Weiter hin</w>
W unden</w>
Vor mischung</w>
V II
Ur spr
Tyro sin
Tub en</w>
Trä ger
Therapie dauer</w>
Tabel len</w>
Sur eClick</w>
Stu hl
Stra ße</w>
Str ei
Stiripent ol</w>
St art
Sch ä
Sch n
Sant é</w>
SEL N</w>
S eit</w>
Ru hel
Risikomini mierung</w>
Pro blemen</w>
Placeb os</w>
Phospho lipi
Phase-III- Studie</w>
P O</w>
P 450-
Oxy glob
OH NE</w>
O v
O F
Nat alizumab</w>
Nachbeobach tung</w>
Na cken
M ass
Lis onorm</w>
Lebendimpf stoff</w>
Knochenmark s
Kleinkin der</w>
K ateg
Interfer onen</w>
Insulin in
Inje ktors</w>
I .
Hydrox y-
Ho sp
Hin sichtlich</w>
Herz- Kreislauf
Hau tin
Gl au
Gewichts reduktion</w>
Flu v
Evoh aler</w>
ER L
E F</w>
Cy R</w>
CV MP-
CD 4</w>
C ons
C -Harn
Blutgerinnungs faktor</w>
Ble omycin</w>
Bisphosph onate</w>
Ber om
B- 10
Arrhyth mie</w>
Antikoagul antien</w>
Anti hypertensi
Angiotensin-II- Rezeptor-Antagonisten</w>
Al targo</w>
AL T-
A ivlosin</w>
9, 3</w>
7 5-
4 0-
3 41</w>
20 9</w>
2 24</w>
15 .</w>
14 1</w>
00. 00</w>
- Exposition</w>
ül en
än de</w>
zuberei tete</w>
y rat</w>
xi van</w>
vir en</w>
verl auf</w>
ver abschie
ul zer
top ischen</w>
to ci
ti v</w>
thromb ozy
teil nahmen</w>
te li
t ypen</w>
t ungsphase</w>
st re
sek retion</w>
schu pp
s edi
ru p
ret ard</w>
pro gre
postnat alen</w>
par ameter</w>
p art
onado tropin</w>
on os
o ch
o an
nich ts</w>
neh mer</w>
mul toci
merk male</w>
la u</w>
la ter
koron are</w>
konvul si
kleb t</w>
in e-
in avir-
her e</w>
harmoni sierten</w>
glomer uläre</w>
gl .</w>
gesund heit</w>
gemein schaf
g ue</w>
g it
g f
g .
follik el
ex is
europä ische</w>
erythe mato
er teilt</w>
dem rix</w>
dekompen sierter</w>
de ter</w>
bronchi ale</w>
beruh en</w>
berei ches</w>
berei che</w>
be lastung</w>
außer gewöhnlichen</w>
aufeinander folgenden</w>
auf lösen</w>
ationsp harmakokineti
ationsp ak
ap amil</w>
aktiv em</w>
Z elle</w>
Wes entlichen</w>
Wei ß
WISSENSCHAFTLI CHE</w>
W un
Vor aus
Ver apamil</w>
Vasodilat ation</w>
Ser vier</w>
Saf ety</w>
SIN D</w>
SCHRI F
S eiten</w>
S ap
Res pon
Re ver
R oc
R S
Q D</w>
Plaqu e-
Pharmakodyna mik</w>
Pan demrix</w>
PRIM ÄR
P.O .</w>
P erg
Osteone krose</w>
Ober grenze</w>
OP HARMA</w>
Natrium monohydrogenphosp
Nachweis grenze</w>
NE OPHARMA</w>
N y
N ational</w>
Mehrfach dosis-
Med DRA</w>
Magen ver
Leber schäden</w>
Kor rel
Komp lex</w>
Kenn tnis</w>
K ent</w>
Ir rit
Hypomag nesiämie</w>
Hautr ei
HB sA
Gener ali
G ynä
G ute</w>
Frei setzungs
Film überzug</w>
Erfol g</w>
Er scheinungen</w>
Eptifib atid</w>
Ent nehmen</w>
Einmal dosis</w>
Ein reichung</w>
E ur</w>
Dyskin esie</w>
Dosisti tration</w>
Diclofen ac</w>
Di agnosti
Dev elopment</w>
Cri xivan</w>
Cladri bin</w>
Blutzucker werte</w>
Bezieh ung</w>
Beh örde</w>
BER OM
Am oxic
Agi tiertheit</w>
Acerb on</w>
Abdomin al
Ab end</w>
7, 7</w>
5. 000</w>
4 11</w>
3- mal</w>
2C 9</w>
0 40</w>
- Arm</w>
änder ung</w>
Üb licherweise</w>
zu setzen</w>
vorhand ene</w>
vi s</w>
versa gens</w>
vermu tet</w>
vermittel t</w>
und be
umfass ende</w>
teil ungen</w>
t fertigt</w>
stra ten</w>
spiel en</w>
sie gelung</w>
ris e</w>
resulti ert</w>
ren al</w>
radio aktive</w>
qu ir
prol ose</w>
po in
p atien
ord nungs
om ers
oli scher</w>
oglob in
ob e</w>
nukleosi di
nicht -</w>
natrium frei</w>
n s</w>
mitt lung</w>
mani fes
m embran</w>
les ex</w>
lei stungs
langfris tigen</w>
l ab
konsulti eren</w>
kol l</w>
k oll
inter medi
infusions bedingte</w>
in dung</w>
immunsuppressi ven</w>
idiopath ischen</w>
iatr ische</w>
hydr oly
hei ßt</w>
groß er</w>
gesch üt
gerech tfertigt</w>
gen utz
gei sti
ge kommen</w>
gan gs
g lat
fi kationen</w>
erkrank t</w>
erinn ern</w>
erh oben</w>
erg reifen</w>
en ati
dür fte</w>
d ation</w>
but yn
bur ic
ber ühren</w>
b asis</w>
all einigen</w>
al b
absol uten</w>
Yttrium -
Wirksam keit
Wen iger</w>
Vereini gten</w>
Ver meiden</w>
Ver engung</w>
Tier arten</w>
Studi ent
Sp eichel
Sol che</w>
Ruhel osigkeit</w>
Rotavir us-
Re kombinan
Ras buric
Qui ck
Pseu dom
Prot einen</w>
Pr äm
Pneum onitis</w>
Pan de
P-g p</w>
Oxy butyn
Or t</w>
O ff
Ne w
Mitberich terstatter</w>
Midd lesex</w>
ME T
Lymphaden opathie</w>
Lei chte</w>
Leberfunktions einschränkung</w>
L OR
L A
Korre ktur</w>
Kol ben
Karzin ogenität</w>
Kan ülen
KAP SELN</w>
Isop han-
Interv allen</w>
Infusionslösungs konzentrats</w>
Infusions reaktionen</w>
Hyper urikämie</w>
Hyp ästhesie</w>
Hy prolose</w>
Hilfs stoffe</w>
H amp
G ona
Fluv oxamin</w>
Fi b
Exazerb ation</w>
Ex enati
Erythr oblast
Enoxap arin</w>
E c
E -2
D ol
Cysta dane</w>
CD4- Zellzahl</w>
Bu cur
Berom un</w>
Behin derung</w>
B an
Agomel atin</w>
Ac ti
4 18</w>
3 37</w>
2 15</w>
16 5</w>
14 9</w>
12 h</w>
1. 500</w>
1 17</w>
0 42</w>
-C T</w>
ö lf</w>
ämpf en</w>
wi ch</w>
weit gehend</w>
verlangsam t</w>
unterschied licher</w>
undbe ck</w>
ulv est
u gin
tr ol</w>
tr it
tig ste</w>
t ü
t au
sla va</w>
sist ent</w>
se c</w>
rel ax
recht fertigen</w>
psych otischen</w>
ps eu
positi ver</w>
perfor ierte</w>
ot enz</w>
orrh ag
om eth
ody splas
mini malen</w>
lös liches</w>
letz te</w>
lementi erung</w>
le t</w>
k eln</w>
jähr lichen</w>
is tischen</w>
höh len</w>
gmen tierung</w>
gl argin</w>
geschätz te</w>
gesch i
gehö rigen</w>
fehl ender</w>
ethi ster
erwar tenden</w>
endgül tige</w>
ektiv e</w>
ec oxi
detomi din</w>
de ta
d rit
con sider</w>
ciclo vir</w>
ci a</w>
brü chen</w>
bi phasi
bestä tigen</w>
berech nen</w>
ausge gangen</w>
ati slava</w>
at men</w>
arterien stenose</w>
an gen
an amn
ack e</w>
Zul assungen</w>
X XX</w>
W AR
Volum en
Verw .</w>
Verk auf</w>
Ver träglich
Ver einbar
U p
U LL
Stock holm</w>
Spironolact on</w>
Sel amectin</w>
Sch übe</w>
Sch af
S ANO
SANO F
Rötel n-
Risik ore
Reprodu ktion</w>
Rati opharm</w>
Ral oxifen</w>
Pul s</w>
Pro zent</w>
Popul ationen</w>
Poly mer
Plat ten
Pharmam atch</w>
Pede a</w>
P P
Ovarial karzinom</w>
Oran gen
Nor ethister
Nieren arterienstenose</w>
Ni veau</w>
Neisseri a</w>
Natriumdi hydrogenphosp
Nal ox
My asth
Mais stärke</w>
Ma terialien</w>
L undbeck</w>
L or
Krebs erkrankungen</w>
Kli cken</w>
Kam mer
K it</w>
K aus
Inter net</w>
In nen
I .</w>
Häm olyse</w>
Hydrox ocobalamin</w>
Hauptmetaboli ten</w>
Hauptmetaboli t</w>
H -</w>
Glucuroni dierung</w>
Gesamt population</w>
Ger einigtes</w>
F ulvest
F RE
Ep isode</w>
Ef alizumab</w>
E 9
Diabetes ber
Dex me
Defini tion</w>
Cyc lo
Cy ste
Co de</w>
Citronen säure</w>
Chr onische</w>
Cholesterin spiegel</w>
Cetiri zin</w>
Br atislava</w>
Bot ox</w>
Blast enk
Be fassungen</w>
B ut
B ul
Aus gaben</w>
Aluminium folie</w>
Altern ative</w>
AU SS
AMP ULL
AL S</w>
AC R</w>
7, 8</w>
4- 91</w>
4 08</w>
3 98</w>
3 30</w>
14 00</w>
100 .000</w>
0, 02</w>
0 37</w>
.0 3.
- 1,
zi dose</w>
wür den</w>
war e</w>
versor gung</w>
vergess ene</w>
verfär bt</w>
ver glich</w>
un beabsich
u k</w>
transp ar
tr on</w>
tat säch
t al
sech s
sam ml
resuspen diert</w>
re gt</w>
ra sche</w>
prim ärem</w>
phosp ho
peri ode</w>
perfor ierten</w>
parasi täre</w>
p hän
ona ten</w>
om egalie</w>
ob ut
o o</w>
nis ses</w>
n ter</w>
n em
myelo ischer</w>
multoci da</w>
mu ß</w>
mp lex</w>
medizin ischem</w>
me din
m asse</w>
links ventri
kti sche</w>
kat aly
karzin ome</w>
k rin
k ma</w>
it ation</w>
in ta
in hibit
ier e
i. m.</w>
hä t
heredi tären</w>
her stellung</w>
gi g</w>
geplan ten</w>
gem äß
geeign eter</w>
follikel stimulier
fest gestellten</w>
far bi
etwa ige</w>
est a</w>
er -</w>
endgül tig</w>
em et
de p
cir ca</w>
ch y
c- tic</w>
but yrat</w>
ben ommen</w>
b a</w>
ausreich ender</w>
ausge wertet</w>
aus schlag</w>
auf nehmen</w>
ap am
ange ls</w>
all in
Zu dem</w>
Zon is
Zeit -
W ER
Vorsit zenden</w>
Verkürz ung</w>
Verb rauch
Venenthromb ose</w>
Val decoxib</w>
Tro c
Tri ac
Trau ben
T T</w>
Systemorgan klassen</w>
Su c
Str asse</w>
Sit ax
Sig nifikan
Sh ire</w>
Sch äden</w>
S.A. S.</w>
S. L.</w>
Pra c-tic</w>
Pharma kologie</w>
Parall el
Pal onos
PF S</w>
Oxyglob in</w>
Opioi den</w>
Oper ations</w>
O L</w>
Nutzen- Risiko-</w>
Neutrop en
N ä
N on-
Milli gramm</w>
Metaboli te</w>
Magenver stimmung</w>
Magen beschwerden</w>
M an</w>
Lösungsmittel s</w>
Lansoprazol- ratiopharm</w>
Lakt ose</w>
L e</w>
Komp atibili
Intensi tät</w>
Insulin injektions
Insulin e</w>
Ig G
Hämorrh agie</w>
Hi kma</w>
Herz musk
Hand els
H is
H AL
Gr enze</w>
Fil trations
Exkre tion</w>
Erythroblast openie</w>
EINSCH RÄNKUNGEN</w>
E mail</w>
Dul oxeti
Diarrhö e</w>
Des infizieren</w>
Ch ori
Ch irur
CYP 450-
C r
Bruch ker
Blastenk rise</w>
Behandl ungsta
BL UE</w>
B ördelkappe</w>
Auf stoßen</w>
Asperg il
Anwen dern</w>
Antrag stell
Analge tika</w>
Am gen</w>
Aluminium -</w>
AN D</w>
8, 1</w>
4 56</w>
4 00
3, 75</w>
17 .
16 4</w>
100 -
Т ел</w>
ε υ
über mäßiger</w>
öh nung</w>
zulassungs recht
zei traums</w>
wich tiger</w>
wen ken</w>
vorgesch rieben</w>
verl oren</w>
verbess erten</w>
v axyn</w>
ursprün glichen</w>
ul ar
tum or
tra g
tl äsionen</w>
symptom atischer</w>
symptom atisch</w>
stüt zen</w>
sta xis</w>
st ation</w>
sk op
si gs
si ges</w>
schein bare</w>
samml ungen</w>
q .
pot enten</w>
pfla ster</w>
op eri
op ak
okon stri
ober fläch
mut a
monati ger</w>
ma kul
is -
ir es</w>
in- Behandlung</w>
in tran
illi erte</w>
hyreoi dismus</w>
her vor</w>
her stellt</w>
h eter
gän ge</w>
gewon n
geschüt telt</w>
geringfügi ge</w>
ger -
geh ei
gebie t</w>
ge sicher
gat an</w>
folgen der
folgender maßen</w>
fet alen</w>
fest legen</w>
f í
erkrank ten</w>
erheb lichen</w>
englyko l</w>
ch em</w>
c m2</w>
bipol aren</w>
b enden</w>
aust ritt</w>
abgeschwä cht</w>
ab len</w>
a terin</w>
Zyto kin
Wochen -
Verhüt ungsmittel</w>
V an
Triazol am</w>
Triac etin</w>
Thromboemboli en</w>
Sub straten</w>
Stronti um
St ück</w>
St and</w>
Spritzen kolben</w>
Schmerz mittel</w>
Sachver ständige</w>
Res uspen
Refer ats</w>
Re teplase</w>
Platten epithel
Pflaster n</w>
Peripher e</w>
Perg o
OH SS</w>
O Ü</w>
No bi
Niloti nib</w>
Neuro trans
Natriuma cetat</w>
Mon ats
Mitglieds sta
Lymph knoten</w>
Ly on</w>
Lin e-
LDL- Cholesterin</w>
Käl te
Ko infektion</w>
Interfer one</w>
Informationstech nologie</w>
Imiquimo d</w>
Im atini
Hä magglutin
Hyp erh
Hun des</w>
Haut farbe</w>
Haushal t</w>
Geträn ke</w>
Gegen satz</w>
Funktions störung</w>
Fulvest rant</w>
Fra ktur</w>
Fra ktion</w>
Fra geb
Far ma</w>
Fa chen</w>
F- 69
F ün
F oc
F IN-
Exenati de</w>
Epi staxis</w>
Elektrokardi ogramm</w>
Ein weg
Edi fí
EU- Nummer</w>
Dün n
Diureti kum</w>
D rei</w>
D eta
Clomi cal
Br ü
Blut gefäß</w>
Bind ungs
Bewegungsappar ates</w>
Bestand teilen</w>
Berich terstat
Antikörper spiegel</w>
Anti thrombin</w>
Anom alien</w>
Amin otransfer
Alters gruppen</w>
Al con</w>
7, 1</w>
6 6
6 -</w>
4 32</w>
4 01</w>
3 17</w>
3 116</w>
1. 25</w>
.Ε .</w>
-H odg
α ρ
zw ölf</w>
zurück geführt</w>
zer ebr
winkel glaukom</w>
vis om
vir ologischem</w>
vi k
verord nete</w>
ut h</w>
un ge
tü chtigkeit</w>
terat ogenen</w>
tablet ter</w>
t 1</w>
stell ten</w>
spar ameter</w>
sin kt</w>
sch üre</w>
ro x</w>
rin o
retar diert</w>
rei zung</w>
rei fung</w>
re x</w>
p fer
ox azol</w>
or en
op ap
niedri gsten</w>
n o</w>
n der</w>
mel dungen</w>
maß nahme</w>
man ischen</w>
m -</w>
kon genit
komp ati
kap pen</w>
juck ender</w>
inhib iert</w>
in gi
i er</w>
häm olytische</w>
hoch disperses</w>
hier für</w>
h ormon</w>
gewoh nten</w>
gerinn ungshem
gerin gem</w>
ger ö
generali sierter</w>
gend lichen</w>
g or</w>
fro l</w>
flus ses</w>
f äden</w>
etri a</w>
er v
er klär
emm t</w>
ell eicht</w>
eit s</w>
ein fluenz
ein fach</w>
diagnosti sche</w>
di hydrochlorid</w>
di git
d ritte</w>
d ort</w>
d einfluenz
com e</w>
bi om
beste ck</w>
ber t</w>
beigefü gten</w>
behäl tnisse</w>
be ziehen</w>
be fall</w>
b y</w>
ar men</w>
anhalten des</w>
an fall</w>
al tabletten</w>
ak zept
agl u</w>
ab r
Zei traums</w>
Wirkungs eintritt</w>
WH O-
Verletz ungen</w>
Ver unr
Ver mehr
Troc oxil</w>
Toremi fen</w>
Thi az
Ter min</w>
Tenofovirdisopro xil</w>
T on
Säu ge
Sulfonylharn stoff
Sublingu altabletten</w>
Stand ard</w>
Spar floxacin</w>
Si frol</w>
Schl üssel
Schilddrüs enh
Sch icht</w>
S. A</w>
S Y
Risikore duktion</w>
Rezeptor s</w>
Reverse-Transkriptase- Hemmer</w>
Pun kt</w>
Psych iatrische</w>
Pfer deinfluenz
Perind opril</w>
Pankre as
Palonos etron</w>
PV C-
P age
P U
O L-
Non -Hodg
Natri ump
N eben</w>
N I
Mund schleimhaut</w>
Mil z</w>
Mess ungen</w>
M echanismen</w>
M au
Kons oli
Kommuni kation</w>
Kanzer ogenität</w>
K nie
Isol aten</w>
Interleu kin
Inhab ern</w>
Impf dosen</w>
I rino
Hämoglobin werte</w>
Ham sters</w>
HEX AV
HEXAV AC</w>
H ung
Geimpf ten</w>
Gebärmutter hal
Ge sta
G icht
Folli kel</w>
Foc etria</w>
Fentan yl
Er suchen</w>
Einzeldosis- Blisterpackung</w>
Edifí cio</w>
E 1</w>
Du o</w>
Dosierungs interv
Doripen em</w>
Den ken</w>
Defer asi
Darifen acin</w>
Clomical m</w>
Carb aglu</w>
Candi da</w>
CYP2C 8</w>
COX -2</w>
C ard
Bindeh aut
BEROM UN</w>
B- 1180</w>
Ausgangs werten</w>
Ar terien</w>
Aminos äur
Abdom en</w>
AR s</w>
A 10
7, 6</w>
7, 4</w>
7 4
4- er</w>
4 09</w>
37 6</w>
28 7</w>
20 .
2 D
2 22</w>
2 04</w>
16 .
13 9</w>
1 4.
0, 7
-W er
-- -</w>
ü tung</w>
zuck er</w>
zel er
zeit lichen</w>
z odon</w>
z ehr</w>
vorher igen</w>
verlie fen</w>
up fen</w>
um fan
typ ischerweise</w>
transplant ationspatienten</w>
transplan ta
transfer ase</w>
top ische</w>
thromboemboli scher</w>
thi asis</w>
sy l
stra tegie</w>
stimm te</w>
ster geb
stark em</w>
st öß
sp h
sor gen</w>
so ci
schädi gungen</w>
resuspen dieren</w>
regi on</w>
pulmon aler</w>
or eti
or eg</w>
ophar yngitis</w>
op urin
oc rin</w>
normali siert</w>
nie der
n au
mon at</w>
mi r
medin fo</w>
lei tungen</w>
le gten</w>
kor onar
k i</w>
juck ende</w>
ill us</w>
i st
häufi gen</w>
h le</w>
gr au
gestei gerte</w>
gel tenden</w>
geb rochen</w>
etr or
el ux</w>
el at
einzi gen</w>
einzel staat
dru g</w>
dr eht</w>
dosi sprop
deut liche</w>
den s</w>
che misch</w>
bl auen</w>
befür wor
be folgt</w>
azi d</w>
ati ban
ar in-
ank ylosi
an gen</w>
ami de</w>
afl oxacin</w>
adjuvanti ert</w>
Zu be
Ziel e</w>
Vor her
Verdau ung
V OR
Tier gesundheit</w>
Thiaz oli
TR ACT
TI D</w>
T oxi
Suni tinib</w>
Studient eil
Stre cken
St ocrin</w>
St ehen</w>
Spezi elle</w>
Sp iel
Si cht</w>
Schwangerschaft stri
Schla fen
Ri gor</w>
Ret apam
Reser ve</w>
Rasburic ase</w>
R CP</w>
Pramipex ol
Pr üfen</w>
Pleur a
Pergo veris</w>
PegIntr on-
Peg visom
Par at
P orphy
P G
Organ isation</w>
OR AL</w>
O T</w>
Nobi vac</w>
Net her
Ne opharma</w>
Nas opharyngitis</w>
N L</w>
Myelo suppression</w>
Myc oplasma</w>
Multip le</w>
Mein ung</w>
Mak ula
MR F
MP A</w>
MA D
Kat ar
K um
In aktiv
Imp otenz</w>
Immunglobul ine</w>
Ic atiban
IG ABE</w>
Hal operi
Gri ppe</w>
Glie der
Geschma ck</w>
Geschlechts organe</w>
G é
Früh stück</w>
Früh geborenen</w>
Flüssigkeits verlust</w>
Fesotero din</w>
FRE IGABE</w>
F ALL
Esp oo</w>
Erniedri gung</w>
Erhöh ter</w>
Empf oh
Einmal gebrauch</w>
EU- Mitgliedstaaten</w>
Dire ktor</w>
Diphther ie</w>
Di bo
Dex raz
DARREICHUNGSFOR M</w>
D- 8
D K-
Ch e
Card oreg</w>
CO MP</w>
Butyl hydroxy
Brus sels</w>
Bo ul
Bioäquival enz
Berech nung</w>
Beobach tungen</w>
Ben elux</w>
Begleit medikation</w>
Beglei ttherapie</w>
Bef und</w>
Aus weisung</w>
Aspergil lose</w>
Anwendungs beobach
Angst störung</w>
Altern ativ</w>
All opurin
Ab klingen</w>
AV AG
AG EN</w>
4 8-
3 fache</w>
3 45</w>
3 23</w>
28 -
17 3</w>
15 4</w>
13 8</w>
12 .</w>
100 E</w>
1, 000</w>
0, 8
0 63</w>
0 3.
- System</w>
- Natrium</w>
über mäßi
öffent liche</w>
äs se</w>
Über arbeitung</w>
Ösoph ag
zuge stimmt</w>
zeu gen</w>
zerebro vas
völ lig</w>
vorangegan genen</w>
vor bestehende</w>
verletz ungen</w>
verdün nen</w>
un geborene</w>
u ß
u ti
tri ebs
termin aler</w>
sub stitu
stru ktur</w>
spru ch</w>
sp ray</w>
soli den</w>
sch -
reag iert</w>
r- DNS</w>
qu ival
pun kt
prä gung</w>
pri dil</w>
p s</w>
oxy gen
oly mer</w>
o kardi
nau ba
nachgewies ener</w>
nach stehend</w>
mü de</w>
mot orische</w>
la r</w>
kon gesti
ken nung</w>
hypertensi ven</w>
human therapeutischen</w>
her mie</w>
han gs</w>
h exa</w>
gemeinsam er</w>
fact ur
etin g-
ers eits</w>
el e
einger ichtet</w>
ein schließen</w>
ein halten</w>
ein genommenen</w>
echsel t</w>
deut lichen</w>
ck -
chirurg ische</w>
bilirubin ämie</w>
bezieh ungsweise</w>
bef es
b lau</w>
asepti sche</w>
arko m</w>
ar tik
ar -
ami d-
alph a-
ali tät</w>
ab rup
ab nehmen</w>
a da</w>
Wirkungs mechanismus</w>
W äh
Vitamin- D-
Verdauung stra
Ver zehr</w>
Urspr ungs</w>
Typ-1- Diabetes</w>
Thi omers
Tablet s</w>
TRACT OC
TRACTOC IL
TN F
T TP</w>
T AR
Sulfonylharn stoffen</w>
Studien medikation</w>
Schrau ben</w>
ST Ä
Rücken mark
Retapam ulin</w>
R aten</w>
R am
Präm edikation</w>
Prostagland in
Pro gno
Peri odi
Palivi zumab</w>
PR CA</w>
Oxybutyn in</w>
Organ on</w>
Norm wertes</w>
Ni esen</w>
Na cken</w>
Muskel relax
Methotrex at-
Meman tin</w>
Matri x</w>
Ma ß</w>
M ei
M 184
Lungen krebs</w>
Kreatinin clearance</w>
Korrel ation</w>
Knochen dichte</w>
K lassen</w>
Inspe ktions
Ig G-
Hyper bilirubinämie</w>
Hyp ox
Hormon ersatz
Harn inkontinenz</w>
Hand flächen</w>
HUM AL
HUMAL OG</w>
Gleich gewichts
Gesichts ödem</w>
F lip-
F ließ
F ehlen</w>
F R-
F IR
Erg otamin</w>
Energ ie</w>
Durchschnit ts
Dibo termin</w>
Deferasi rox</w>
D V</w>
CHARGEN FREIGABE</w>
C etror
C K</w>
Bruchker be</w>
Brei te</w>
Bo den</w>
Bis her</w>
Bew ahren</w>
Be pridil</w>
Be atmung</w>
B V
B 6</w>
Auf gabe</w>
Antihypertensi va</w>
Ag itation</w>
Adefo vir</w>
AVAG LIM</w>
ANZ A</w>
A- Studie</w>
A- 1
A ch
9, 1</w>
5 50</w>
5 40</w>
4. 7</w>
28 3</w>
2 67</w>
2 48</w>
2 17</w>
19 1</w>
17 9</w>
1, 75</w>
1 1-
0 51</w>
0 38</w>
.0 4.
- Gummi</w>
übergeh en</w>
über ein
äuß ern</w>
äu ßer
zuneh menden</w>
zul assung</w>
zuberei teten</w>
zer drückt</w>
wieder gefunden</w>
wich tigste</w>
wasser frei</w>
wach sen</w>
w ill
verschri ebene</w>
vermehr te</w>
v es
u ch</w>
tier ende</w>
ti sin
ter er</w>
t on
sol u
so genannte</w>
sigs äure</w>
sen tr
selb st
sel ektiv</w>
sei tiger</w>
schl uss
sch t</w>
s om
ro t
re produ
ra schen</w>
pun kte</w>
präpar aten</w>
plan s</w>
or ts</w>
ophil en</w>
oli p
ole at</w>
oder mie</w>
ober halb</w>
ne tes</w>
nai ven</w>
merk sam</w>
mei stens</w>
m as
leich tem</w>
langsam en</w>
l ation</w>
kur zer</w>
komp on
komp eti
kl ang</w>
k ologische</w>
j es
itä t
in fil
haf te</w>
gewünsch te</w>
gew echselt</w>
gesch ul
gehei lt</w>
ge ordnet</w>
ge -
gan gene</w>
g asse</w>
fün f
frü h</w>
f -
etab liert</w>
ess es</w>
erythemato des</w>
er klärt</w>
en ab
el at</w>
ein gefroren</w>
e d
drück ung</w>
diabe tische</w>
de v
da te</w>
co ated</w>
ck s</w>
c esta</w>
bezieh t</w>
betra fen</w>
bestä tigte</w>
beigepack ten</w>
be herr
ausge lassen</w>
ausge deh
aus führ
auf merksam</w>
ativ em</w>
anaphylakti schen</w>
all einiger</w>
Zy ani
Wäh len</w>
Wund heilung</w>
Win kel</w>
Wil son</w>
Well come</w>
Vit al
Viel zahl</w>
Verschrei b
Vereini gte</w>
V ac
Tum orp
Trimen on</w>
Temperat uren</w>
TRACTOCIL E</w>
T -</w>
Sus tiva</w>
Substan z
Sta dien</w>
Schwangerschaft stest</w>
Schmerz linderung</w>
Schlafen gehen</w>
Sch weiß
Rückstandshöchst mengen</w>
Quick let</w>
Qu ad
QU IB
Pun kten</w>
Por fi
Plasmasp iegeln</w>
Ph än
Pegvisom ant</w>
Papill om
PAS I</w>
P H
Offi ce</w>
Nifedip ine</w>
Ne krose</w>
Mutagen ität</w>
Mas ern</w>
Li pos
Leit fäden</w>
Leberfunktions werte</w>
Lebens mittel
Lansoprazol -CT</w>
Lan e</w>
Lach s-
L epir
L T-
Knochen metastasen</w>
Kau tablette</w>
K ie
K R
Instit ut</w>
Ins omnie</w>
Inhalations gerät</w>
Influenz avir
Indu ktions
In- vitro-</w>
Ide c</w>
IS CHEN</w>
I B</w>
Hüh ner
Hyper tension</w>
Hi b</w>
H orm
Gu il
Gluco selösung</w>
Genit al
Ge geb
G P
Fondaparinu x-
Fin gern</w>
Fakt or-
Erhal t</w>
EN TIS</w>
E MAD
E 218</w>
Di floxacin</w>
Di alysepatienten</w>
Deferipr on</w>
D auer
CO ZAAR</w>
C hi
Bro m
Bi ogen</w>
Ber ühren</w>
Behandlungswo che</w>
Bas al
B P</w>
Aus wahl</w>
Anti em
Aktuali sierung</w>
Ab sterben</w>
7 000</w>
3 10</w>
28 .
2 57</w>
2 55</w>
2 35</w>
Č eská</w>
ös es</w>
ö stro
ätz t</w>
ämi e
Ä quival
zer vik
zeich nung</w>
yra mid
wirk endem</w>
wand lung</w>
wach s</w>
vi si
verzeich nen</w>
vermö gens</w>
verlänger n</w>
verl äuft</w>
vali dierten</w>
un sten</w>
trop fen
stündi gen</w>
stati ka</w>
st al
sk el
sch lecht</w>
s er</w>
ritan nien</w>
redu zierter</w>
pti ons
prä sen
progressions freie</w>
plas ma</w>
pharmak ologisch</w>
ph en
par at
pH -Wertes</w>
oxid hydrat</w>
opti malen</w>
oly tika</w>
neur olepti
n arko
mus sten</w>
mod ell</w>
metastasier endem</w>
lin ken</w>
liefer t</w>
leben s</w>
l üf
kul ar
kt omie</w>
kr ebs
komp likationen</w>
kardi tis</w>
kanzer ogenen</w>
kan nte</w>
k rit
k en-
jähr iger</w>
irgend eine</w>
intran as
häm orrhag
hist orischen</w>
hier bei</w>
her zustellen</w>
h eben</w>
grap h
gest re
gesich erten</w>
gesch l
gere cht</w>
geh en
ge gangen</w>
gastrointestin aler</w>
fra ktion
folgen des</w>
fol ge
flam mat
fi xe</w>
fehl enden</w>
erkrank en</w>
erhöh ungen</w>
erfüll t</w>
equ enzen</w>
ens wert</w>
det at</w>
comp rimidos</w>
ch enzahl</w>
bestä tigten</w>
bereit gestellt</w>
be zogene</w>
avir -</w>
aut schu
auf zunehmen</w>
auf gefüllt</w>
asp ekte</w>
ar yl
ar di
angem essen
anal ge
an ämie</w>
an stelle</w>
an hält</w>
am e</w>
alt ablette</w>
allerg ie</w>
alkali schen</w>
al te</w>
akzep tiert</w>
ag amma</w>
abhängi gkeit</w>
ab stoßung</w>
ab oh
ab -
Zonis amid</w>
Wärme gefühl</w>
Vorsit z</w>
VER ANTWOR
Uni t</w>
UA W</w>
Tyl val
Trop f</w>
Thiazoli din
TION EN</w>
Symptom atik</w>
Sterb lichkeit</w>
Soj aboh
Si bu
Schweregra des</w>
Schleimhäu te</w>
STÄ RK
S.R. L.</w>
S QUIB
SQUIB B</w>
Rö teln</w>
Rezeptorantagon isten</w>
Respon der</w>
Reb o
Pul mon
Prim är
Oc tocog</w>
Oberschenk el
OL- MY
OL-MY ERS</w>
O pr
Neu e</w>
N OV
Mump s</w>
Multi pl
Monoamin oxidas
Magen säure</w>
MITGLIED STAATEN</w>
M etr
Lachs- Calcitonin</w>
Kopf -</w>
Ko sten
K erat
Insul ins
Inkompatibili täten</w>
Initi ativen</w>
Inform ationspak
Influenza- Impfstoff</w>
Imp lementierung</w>
IL -
Hypot hyreose</w>
Hi b-
Hex a
Herz stillstand</w>
Gesamtüberlebens zeit</w>
G y
Fahr tüchtigkeit</w>
FIL MT
Es sigsäure</w>
Eliminationshal bwertzeit</w>
Einzel dosi
EMAD INE</w>
E ch
E 216</w>
Dyskin esien</w>
Drei fach
Diabetesber aterin</w>
Dexme detomidin</w>
Desi rudin</w>
De sign</w>
CYP3A 4-</w>
Ben ser
An wesenheit</w>
Aktiv koh
9, 8</w>
7 8
7 1
5 80</w>
33 50</w>
3 07</w>
2 49</w>
19 9</w>
19 8</w>
10. 96</w>
07 6</w>
-A min
о ф
Öff ent
zu läs
y me
w der</w>
vi tre
verringer ter</w>
vergleich enden</w>
verblei bt</w>
verabreich tes</w>
ver spüren</w>
ver lieren</w>
ver ein
umphosp hat</w>
tä tig</w>
tri zykli
thrombozy topen
t y
sulf ase</w>
ste te</w>
st eine</w>
st ation
sp ack
si or</w>
r einigen</w>
prot eine</w>
pp m</w>
plötz licher</w>
placeb o
orti c
opti mi
ol g
ob ie</w>
nukleosi danal
mpf ung</w>
mpf stoff</w>
metaboli sche</w>
man u
mali ges</w>
m sec</w>
länger er</w>
line are</w>
leich tes</w>
l o</w>
l em</w>
kompen sierter</w>
kal zi
internation ale</w>
in spiegel</w>
il le</w>
i dro
hyp oglyk
her ange
gum mi
gi ge</w>
gewich tes</w>
generali sierte</w>
geh emmt</w>
ff us
ess ment</w>
erkenn bar</w>
erken nt</w>
erg otamin</w>
er stellt</w>
ent ations</w>
ell em</w>
elektron ischen</w>
el li
ein treten</w>
e ster
e detat</w>
de cke</w>
chin esischen</w>
blutzuck ersenk
ber g</w>
beeinflus ste</w>
al k
aktuali sierte</w>
ach tung</w>
Zu gabe</w>
Zido vu
Zeit punkten</w>
Z Ü
Wieder auf
W I
Verhär tung</w>
Verb indungen</w>
Verantwor tung</w>
VERANTWOR TLICH</w>
Unter drückung</w>
Thiomers al</w>
Tacroli mus-
TR AC
Sulfona mide</w>
Strontium ran
Sin g
Serot ypen</w>
Ser oprote
Schw amm</w>
Sch rei
Sand wich</w>
STE MI</w>
Reiz ungen</w>
Refer ats
Rechts vorschriften</w>
RI X</w>
R T</w>
R CP
Pleura erg
Par acet
Pande mie</w>
PR OL
PROL OG</w>
PACKUNGS GR
PACKUNGSGR Ö
Oste o
Opr yme
Oper ations
On sior</w>
Oberb auch</w>
OL OG
Normal insulin</w>
Non-Hodg kin-
Ni tisin
Nether lands</w>
Ner ven</w>
N UR</w>
MAO -Hemmer</w>
Lä sion</w>
Lympho zyten
Lungen funktion</w>
Latvi j
LI PROLOG</w>
L 01
Koordin ations
Konzen tra
Knochen gewebe</w>
IST OL-MYERS</w>
ID 50</w>
I T</w>
Hämoglobin konzentration</w>
Hämato krit
Hyperh idro
Hyper parat
Herpes virus</w>
Hamp shire</w>
H ir
Gr amm</w>
Glukokortiko iden</w>
Geschmacks störungen</w>
Gesam tin
Gelbfieb er-
G ür
G o
Früh stadium</w>
Filtrations rate</w>
Fieb er
Ex j
Erythropo ie
Ein nahme
Efavir enz
E 132</w>
Dun kel
Dox agamma</w>
Dosierk n
Dihydro ergotamin</w>
Diabetik er</w>
Des methyl
DN S-
Carb op
CYP2D 6-
C CR
Brust drüse</w>
Betr ieb</w>
Benzodiazep ine</w>
Behandlungs erfolg</w>
Beglei terkrankungen</w>
BR ISTOL-MYERS</w>
BE ST
B MI</w>
B A
Au jes
As soci
Abschnit ten</w>
Ab teilung</w>
ALT -Werte</w>
AB l</w>
A kut
A 77
A77 17
9, 2</w>
6 50</w>
4 84</w>
30 .
27 .
2- 4</w>
18 9</w>
13 C-Harn
10. 2000</w>
0, 12</w>
-C on
ω σ
öff nen</w>
ö s</w>
zen ti
will kür
wachs enden</w>
w unde</w>
vor ausgesetzt</w>
volum ens</w>
verb rauch
verb li
ver tin
vari ieren</w>
v ak
un bekannter</w>
ul l</w>
tt gehen</w>
ts y
tic s</w>
testin g</w>
teli on</w>
syndro ms</w>
su m</w>
spräpar at</w>
sier ender</w>
si mplex</w>
se- Patienten</w>
sa ge</w>
räpar ate</w>
ru hi
ran d</w>
r öhr
q. d.</w>
prüf te</w>
prozentu ale</w>
peripher es</w>
par tikel</w>
ox im</w>
oso l</w>
ori d</w>
ol et
ol ar
oglyk osi
offen sich
o sus</w>
nom olg
neh mern</w>
ml- Durchstechflasche</w>
mittel schwere</w>
makul opap
l äu
kämpf ung</w>
kumul ative</w>
ktiv ität</w>
kompli zierter</w>
kok ken</w>
inte gr
inje ction</w>
infe ktions
in- vitro-
i m
hämat ologischer</w>
hervorgeruf enen</w>
h ef
gesteiger ter</w>
geschi eht</w>
gen otyp
gen dem</w>
gel bes</w>
g as
früher e</w>
fettrei chen</w>
factur ing</w>
f urt</w>
ex ternen</w>
essen ti
erl äu
eri ode</w>
epilepti sche</w>
entschie d</w>
e y</w>
drogen ase</w>
det ella</w>
de te
dar gelegt</w>
compri m
carb oxy
c r</w>
bio techn
be fähi
athomimeti ka</w>
athi op
ap t
andau ern</w>
an aloga</w>
ahy per
aPT T</w>
ZÜ GLICH</w>
Zube ttgehen</w>
Zeit dauer</w>
Vor schlag</w>
V III
Um wandlung</w>
T ie
Sy ste
Strontiumran elat</w>
Strep to
St ämmen</w>
Sp ektrum</w>
Serum calcium
ST -
S. r.
S an</w>
S AT
Resistenz entwicklung</w>
Re kt
Rani tidin</w>
R asse</w>
Protein -
Popul ations
Poly sacchari
Placeb o-</w>
Phosp hat</w>
Pf ei
Parkins on
Paracet amol</w>
PR IL
P ump
P lan
P L</w>
Opryme a</w>
Oberb auch
Natrium salz</w>
Mel atonin</w>
Mehrfach gabe</w>
Medi ane</w>
Maxi mum</w>
Lymph ome</w>
Lei stung</w>
Lat via</w>
L -2
Konzentra tes</w>
Kol orekt
Kapsel hülle</w>
Kanülen schutz
Infusionslös ungen</w>
In tel
IN H
Hyper calcämie</w>
Hyp ophosp
Ho den
Hig h</w>
Hexa vac</w>
Herzrhyth mus</w>
Haloperi dol</w>
H- Spiegel</w>
Guil la
Gesamtcholester in</w>
Generi kum</w>
Gebärmut ter</w>
G H
Funktions fähigkeit</w>
Frank furt</w>
Finanz kontrolle</w>
Fi x
F ör
Extremit ät</w>
Evalu ation</w>
Erwachs enen
Ent schei
Enalapri l</w>
Eisen oxidhydrat</w>
Eingriff s</w>
E me
Dr eh
Dosierkn opf</w>
Dexraz oxan</w>
De ckel</w>
DUK ORAL</w>
Cy nomolg
Cir co
Carb oxy
Candi dose</w>
C are</w>
Bor detella</w>
Bol us</w>
Blut kreislauf</w>
Bl asen</w>
Bes onder
Ber lin</w>
Beh ring</w>
Begr enz
Be kämpfung</w>
B H
Az athiop
Atemwegs erkrankungen</w>
Ar z</w>
Anti thrombin
Amin oglykosi
Ac telion</w>
AC R
A ten
9, 9</w>
7. 5</w>
7, 3</w>
5 3
36 4</w>
3 83</w>
3 32</w>
12. 5</w>
1 g</w>
07 1</w>
0, 50</w>
0 2-
-HB V-
-A roma</w>
- Impfstoff</w>
С оф
ä d
ÄNDER UNG</w>
zi sta</w>
x a-
wa y</w>
w u
vor läufi
vor liegende</w>
vor kommt</w>
vermehr t</w>
ver tik
ver einzel
ven öser</w>
ut eini
us st</w>
unter liegen</w>
u c
u ber
töd liche</w>
ts ehen</w>
titr iert</w>
tig o</w>
ta s</w>
sätz lich</w>
sul es</w>
stu fen
stradi ol
stoß ungs
st amm</w>
sekund ärer</w>
se tron</w>
ro li
ri ger</w>
re c
prä -</w>
prop hyla
per n</w>
pap er</w>
p al
p H</w>
of t
nachzu weisen</w>
na pp
li ste</w>
li erten</w>
l ten</w>
kti nte</w>
koronar er</w>
konstan t</w>
ko ordin
k i
k aus
jähr ige</w>
is on</w>
indu zierter</w>
in säure</w>
in flammat
höh le</w>
hämatopo etischen</w>
häm odyna
hyro id
hydro gen
hin g</w>
hi bi
herange zogen</w>
glyceri dämie</w>
gemess enen</w>
gel n</w>
gegensei tige</w>
fun g
fra ktur</w>
ev ard</w>
ett a</w>
erwor ben
ern annt</w>
er gi
endo genen</w>
en der
em oti
el d</w>
ein setzen</w>
effe kt</w>
e w</w>
e fen</w>
e at</w>
di ffer
dan setron</w>
d yl
ci s</w>
c ktinte</w>
c er</w>
bewe gungen</w>
bew usst</w>
befähi gt</w>
ati gue</w>
at az</w>
ase werte</w>
antiretrovir ales</w>
angebor enen</w>
an teil</w>
an gaben</w>
amet ern</w>
am at</w>
alb umin
al zusammen
al dehy
al be</w>
abzu geben</w>
Zy pern</w>
Wirksamkeits daten</w>
Wieder herstellung</w>
WAR N
W ind
Virus infektionen</w>
Virus infektion</w>
Um stände</w>
Transkript ase</w>
Te stergeb
T hr
Ster oide</w>
Standard s</w>
Stabili sierung</w>
Sta aten</w>
Sp alt
Ser ump
Schleim haut</w>
San ofi
SEL B
S olu
S I-
Rey ataz</w>
RCP Ch</w>
R EN
Protein s</w>
Pil z
Parat hyroid
Page t</w>
PRIL ACT
Organ system</w>
Ohr s</w>
Ohn ma
OL D</w>
O ral</w>
O l
Nutzen-Risiko- Abwägung</w>
Nor floxacin</w>
Neurotrans mit
Nessel ausschlag</w>
Mobili sierung</w>
Manifest ationen</w>
Lit auen</w>
Li qu
Lendenwirbel säule</w>
Laborato ires</w>
Laborato ire</w>
Labor tests</w>
L and
Kontrazep tion</w>
Kons equenzen</w>
Kon vul
Knochen resorption</w>
Kl ebsi
Kaus alzusammen
Immundefizi enz
Ig G</w>
Icatiban t</w>
Ib afloxacin</w>
INT ANZA</w>
INJ I
INJI ZI
IL P</w>
Hypertri glyceridämie</w>
Hautre aktion</w>
Haar lem</w>
HBV- DNA-
Gly ko
Gluko se</w>
Gegen stände</w>
Fil ter</w>
Fertili täts
FILMT ABLETTEN</w>
FERTIGSPRITZ EN</w>
Exj ade</w>
End gültig</w>
Ei weiß</w>
EMEA- Jahresbericht</w>
EIN E</w>
E 5
Dru cktinte</w>
Dis per
Dig ox
Dialy se
Dehydr ierung</w>
Cre stor</w>
CS L</w>
Blut glu
Bl ase</w>
B od
Azathiop rin</w>
Aufbewahr ungs
Ath ens</w>
Allopurin ol</w>
AM L</w>
3 18</w>
3 13</w>
27 8</w>
20 mg</w>
2 97</w>
2 69</w>
2 64</w>
2 23</w>
18 1</w>
17 -
1. 5</w>
1 0,0</w>
0 43</w>
................ ........
-C al
Соф ия</w>
τ ικ
τ α
ü lung</w>
ü ll
ü l</w>
Öffent lichkeit</w>
Ähn liche</w>
zu ständig</w>
wir t
wei che</w>
veterin ary</w>
vertin g-
ver ständigen</w>
v on
uss albe</w>
unzureichen der</w>
unterschie d</w>
um tox
tran samin
ti e</w>
th aushal
ter te</w>
tel ro
te por
t oleranz</w>
symptom en</w>
stoff wechsel</w>
ste cken</w>
sin g</w>
schwar zen</w>
schw ellungen</w>
sch ub
san k</w>
s sa
rei fe</w>
rau b
quenz a</w>
pro fi
pot enter</w>
pas s</w>
p an
otox in</w>
opro lifer
nichtsteroid ale</w>
ni us</w>
na del</w>
n ot
myel odysplas
mp el</w>
min eral
m ussalbe</w>
m c
l ie</w>
l atin</w>
körper licher</w>
kri t</w>
klin isches</w>
k asi
intra vitre
hormon elle</w>
gewis se</w>
gesp ült</w>
geschw üre</w>
genommen e</w>
gefü hle</w>
ge tragen</w>
ge misch
ge dreht</w>
g tem</w>
g reifen</w>
fe kte</w>
f eu
erwar tende</w>
erniedri gten</w>
er r
er br
ep har
enn eben
engmasch iger</w>
en de
ell en
einzu holen</w>
einmali g</w>
dr eh
dosier tes</w>
diagnosti schen</w>
der artigen</w>
den selben</w>
da ten
ct us</w>
co x</w>
bekämpf en</w>
bar keits
ationsp hase</w>
arteri ellen</w>
ar tig</w>
amp f</w>
ab norm
Weiß es</w>
W ild
Vir acept</w>
Verschluss krankheit</w>
Vergleichs studie</w>
Ver tigo</w>
Ver tepor
Ver langsam
Ver langen</w>
VIII- Spiegel</w>
Up date</w>
Tumorp atienten</w>
Transpor t
Todes fällen</w>
Tacroli mussalbe</w>
Studien ab
Stell vertret
St atin
Sp eich
Skelettmusk ulatur</w>
Sitax entan
Sch napp
Sch aum
Sanofi -A
Sachverständi gen
S -</w>
Risiko- Management
Resuspen dieren</w>
Re tik
Pseudom onas</w>
Prostat ahyper
Prednis olon</w>
Pre vi
Pre quenza</w>
Post bus</w>
Peri ode</w>
Per form
P omp
Ox ali
On dansetron</w>
Ober ar
ON IN</w>
Nüchtern -
Nas enneben
N NRTIs</w>
Minde st
Methi onin</w>
Mehrfach dosen</w>
Masi vet</w>
Manu facturing</w>
Man che</w>
Mag ne
Ma x
MP -</w>
M ich
Leukozyten zahl</w>
Lepir udin</w>
Lebens alter</w>
Krankenhaus es</w>
Kle be
Karzin ogenitäts
K euch
K ern
K ei
K S-
K IN
J ungs
Int ent-
IN N</w>
II -</w>
Hämat ologische</w>
Häma tome</w>
Hypophosp hatämie</w>
Hyper plasie</w>
Hydr olyse</w>
Horn haut
Hier zu</w>
Hier bei</w>
Herz schla
Herz funktion</w>
Haut fal
HPV- Typen</w>
Glucos amin</w>
Gluc omed</w>
Gesichts rötung</w>
Geschmacks veränderungen</w>
Galactose- Malabsorption</w>
G IST</w>
Freisetzungs -
For ste
Fi steln</w>
Fehl bildungen</w>
Empfängnis verhüt
Ein fuhr</w>
EW R</w>
Dau erin
Con sta</w>
Cefur oxim</w>
CL C</w>
C oll
Bu c
Botulin umtox
Blutungs neigung</w>
Bl ässe</w>
Bl ephar
Bi os
Betablock ern</w>
Behäl tnisses</w>
Behandlungs ende</w>
Be strahlung</w>
BE ZÜGLICH</w>
B WP</w>
Aus bildung</w>
Anti konvulsi
Alb umin
Ab sinken</w>
A- 12
6, 9</w>
4 59</w>
2 93</w>
2 377</w>
2 309</w>
16 -
-P lans</w>
---------------------------------------------------------------- --------------------------------
ü mp
ümp chen</w>
äm lich</w>
Übersti mulations
ÄUSS ERE</w>
zu zu
zu ständen</w>
zu legen</w>
[...]
