#version: 0.2
e n</w>
e r
c h
e i
u n
e r</w>
e n
i e</w>
t i
a n
i n
d er</w>
s t
s ch
ei n
e l
a l
o n</w>
c h</w>
a u
t en</w>
un d</w>
l i
un g</w>
m i
g e
d en</w>
d ie</w>
o n
a r
s i
b e
o r
d e
i n</w>
g en</w>
t e</w>
u r
i e
v on</w>
e h
t r
a ti
i s
mi t</w>
o l
i r
t e
d a
h r
a b
f ü
v er
i ch
e t
r o
i t
s s
t er
r e
l a
d er
z u
e s</w>
w er
I n
z u</w>
d e</w>
m m
ein e</w>
d i
g en
is t</w>
s p
A n
un gen</w>
2 0
r a
S ie</w>
fü r</w>
m a
g e</w>
el l
ei t</w>
li ch
u s
b er
V er
w ir
be i</w>
w en
a t
de s</w>
c k
en t
au f</w>
an d
ich t</w>
o der</w>
k ti
s e</w>
n a
i l
B e
i sch
ei n</w>
S t
wer den</w>
m p
o p
i er
D ie</w>
u t
e m</w>
r ei
da s</w>
li ch</w>
e b
ein er</w>
A r
n icht</w>
a n</w>
0 0</w>
S ch
w ei
un g
t er</w>
de m</w>
b er</w>
a ch
o m
i m</w>
P ati
en ten</w>
a m
i s</w>
ä n
n en</w>
al l
u m</w>
r i
f f
Pati enten</w>
u m
ch en</w>
t t
w ur
m g</w>
R e
d ie
o si
wir d</w>
ol l
u l
E r
s in
E in
j e
ung s
a s</w>
h al
l ei
al s</w>
o r</w>
a p
e u
s ti
on en</w>
f or
t h
o h
k an
a hr
a t</w>
l ung</w>
g er
r u
g t</w>
s s</w>
G e
20 1
A u
a h
si ch</w>
v i
isch en</w>
sin d</w>
m en</w>
z i
ch t</w>
k eit</w>
U n
au f
l e
zu r</w>
a r</w>
r an
z ei
ge b
ü ber</w>
k o
a f
P ro
s u
Ar z
s t</w>
st ell
l o
au s
. .
i g
na ch</w>
d ung</w>
ati on</w>
s en</w>
t s
d en
ä l
A b
ein en</w>
ö r
B eh
an d</w>
w e
o t
d ur
z en</w>
on s
w ie</w>
mp f
te l</w>
da ss</w>
au s</w>
li e
g el
20 0
h er
st e
l in
ä r
ö n
u r</w>
Beh and
w i
E n
ss en</w>
te t</w>
tr a
l et
h ab
n e
ein em</w>
au ch</w>
st en</w>
b ei
wur de</w>
1 0</w>
A l
e p
d u
l u
M a
e l</w>
n o
sch en</w>
kan n</w>
n ei
en d</w>
b is</w>
g i
p er
k t
v or
wir k
a m</w>
s o
m e</w>
w w
l en</w>
D osi
er h
an der
eh r</w>
lich en</w>
Behand lung</w>
S p
nei mi
t ei
o m</w>
a l</w>
St u
ch e</w>
an ge
r ü
l e</w>
s oll
die s
de t</w>
k ön
m l</w>
sch e</w>
fü hr
ge s
T a
mm en</w>
o b
v or</w>
k on
e m
dur ch</w>
hab en</w>
I hr
W ir
kti on</w>
A us
a ss
ab let
t a
sch af
s ie</w>
s si
Arz neimi
lich e</w>
eb en
t z
g an
f i
n eh
f er
s on
ö s
isch e</w>
h tt
d o
l an
D er</w>
un ter
na h
s er
s el
wen n</w>
0 ,
h o
H er
f e
k t</w>
p p
t tel</w>
htt p</w>
c k</w>
te s</w>
E U</w>
g r
kön nen</w>
w ä
et z
t ung</w>
ti g
s e
u s</w>
f ol
An wen
ü n
o g
s en
2 0</w>
ü ber
0 0
i si
wur den</w>
g lei
5 0</w>
tt el
d ar
Wir k
V or
p ro
ä u
zu m</w>
ran k
er ung</w>
h r</w>
ü r
s a
In je
al e</w>
E s</w>
h at</w>
sch n
w ar
st o
D as</w>
h i
ä t</w>
er t</w>
I n</w>
r it
ö h
K on
t en
un ter</w>
1 9
a d
a c
un den</w>
si ch
m e
x i
ati onen</w>
h ar
Un ter
b in
ur op
Anwen dung</w>
h and
a ten</w>
s am
B er
ge sch
neh men</w>
l ut
us s</w>
n e</w>
tr e
D e
ä ch
r in
w ie
el t</w>
m er
z en
m ö
f en</w>
e mpf
1 0
kti ons
z ier
1 2</w>
J ahr
Au f
st er
di en</w>
t s</w>
Be i</w>
g ung</w>
3 0</w>
g lich</w>
N a
w ar</w>
D ie
s o</w>
eh r
ablet ten</w>
er en</w>
m in
en t</w>
ge h
M i
r ä
der n</w>
mm er</w>
wen det</w>
D i
si eh
P la
f a
E N</w>
f in
wi r</w>
T h
k eine</w>
L e
st a
st eh
ti k
h in
B lut
Dosi s</w>
n ur</w>
a ck
st e</w>
q u
wirk ungen</w>
schn it
g ra
i el
al en</w>
M on
ma l</w>
h äl
ös ung</w>
o li
P ar
hal ten</w>
M it
1 5</w>
i en</w>
o v
w as</w>
S y
k en</w>
W en
K om
ti on</w>
b en</w>
. 0
z w
l ä
r au
D ur
mm en
K in
soll te</w>
er n</w>
ei ten</w>
sieh e</w>
H au
ati on
w .
i hr
C H
T e
for m
Ü ber
f ahr
S u
c e</w>
ge m
ti g</w>
a k
ell e</w>
g er</w>
s ein</w>
1 2
n eu
Wen n</w>
o l</w>
re ch
k lin
ww w.
f t</w>
4 .
Arzneimi ttel</w>
wä hr
1 1</w>
n is
Stu dien</w>
W o
be hand
Z u
1 6</w>
v e</w>
er k
en den</w>
N eben
ge w
Arz t</w>
E urop
i ch</w>
ein es</w>
all e</w>
1 00</w>
th e</w>
h y
ell en</w>
m ehr</w>
ander en</w>
it ät</w>
n i
. c
H y
s y
kti onen</w>
en en</w>
dies er</w>
b ar
Ab schnit
ar t
En t
un d
ah l</w>
en s</w>
t ä
M e
el e
si on</w>
i c
die se</w>
n t</w>
en de</w>
d in
häl t</w>
Dur ch
M en
ap ie</w>
e ti
- -
nah me</w>
t o
ti gen</w>
ange wendet</w>
A N
1 8</w>
w ach
2 5</w>
wei se</w>
Sch w
E R
D o
schaf t</w>
f la
ber ei
1 7</w>
I N
In ter
g lich
w or
z e</w>
ä h
1 4</w>
st än
n er
ru pp
g in
K o
tr i
rei ch
U N
lie ß
r ie
Neben wirkungen</w>
b t</w>
h eit</w>
ent hält</w>
.c om</w>
al l</w>
201 6</w>
t u
P er
zen tr
sch ie
ti ge</w>
ne t</w>
währ end</w>
n ung</w>
Abschnit t</w>
F or
wi ck
v en
b a
h nen</w>
b i
m ü
M ar
f un
Inje ktions
p o
c o
wei ter
e x
a s
o f</w>
Z us
d an
D E
v er</w>
ü ck
R isi
ma n</w>
no ch</w>
z y
d ro
h an
k te</w>
ab er</w>
k l
glei ch
.. .</w>
s or
ge gen</w>
be tr
a g
etz t</w>
er g
en z</w>
ä m
H o
so wie</w>
sch wer
f u
son der
sch ließ
s ch</w>
d a</w>
erh öh
F il
en e</w>
ti s</w>
1 ,
un ser
E N
st er</w>
a b</w>
s ol
t lich</w>
p r
hal b</w>
al i
ier t</w>
vi r</w>
M et
U m
p h
ol og
d osi
W e
m m</w>
for der
v om</w>
I S
C o
.. ..
z we
kti v
g u
Arzneimi ttel
G r
2 1</w>
F er
l and</w>
Ein e</w>
1 3</w>
T abletten</w>
ss e</w>
b e</w>
0 7</w>
f f</w>
P o
den en</w>
In form
geb en</w>
ie l</w>
0 1</w>
a te</w>
L a
empf oh
G en
dur ch
tre ten</w>
b o
ste ch
sti mm
4 0</w>
gen o
2 4</w>
T her
stell t</w>
s ä
m an
h t
T o
N ier
m o
soll ten</w>
t om
eb en</w>
1 9</w>
ob ach
führ t</w>
W ei
Pro du
stell ung</w>
har ma
re chen</w>
z eit</w>
N e
W ie</w>
k in
sto ff
ör per
en z
w el
ig er</w>
zw ischen</w>
Zus a
i ge</w>
s ehr</w>
S e
ß e</w>
eh en</w>
E x
el n</w>
B a
mü ssen</w>
mi ttel
ssi on</w>
I hnen</w>
k rank
li n</w>
W i
2 2</w>
0 6</w>
O r
Zusa mmen
v ir
l au
ei te</w>
S er
f all
h ei
mi n</w>
do ch</w>
z in
g keit</w>
b ar</w>
c i
1 8
t o</w>
w oh
L i
geno mmen</w>
ti n
D aten</w>
ge l</w>
sp e
ß en</w>
0 2</w>
1 3
m uss</w>
mer zen</w>
rei cht</w>
I hr</w>
v e
Stu die</w>
Le ber
er e</w>
T el</w>
be obach
i mmer</w>
r ich
na ch
is ch</w>
0 8</w>
Ta g</w>
Durch stech
un s</w>
ab e</w>
nis se</w>
g s
Durchstech fla
A U
a st
h at
st ü
g ro
ck en</w>
ut z
. ht
S o
tä glich</w>
k g</w>
ar bei
sch w
l y</w>
a vir</w>
l ösung</w>
ent sp
Q u
i gen</w>
ander e</w>
el l</w>
be sonder
C h
in ter
1 6
dar f</w>
war en</w>
1 7
Nier en
v oll
Europ ä
m en
F ra
F a
er te</w>
fol gen
g te</w>
M E
rupp e</w>
st ör
klin ischen</w>
Z ei
ie h
G eb
stän di
Ihr e</w>
zwe i</w>
l t</w>
b il
unter su
P ack
än der
z el
1 .
n ation
or m
er ten</w>
Jahr en</w>
F ü
z wei
ko mmen</w>
si cht</w>
d ru
Die se</w>
th er
k o</w>
wen den</w>
b rin
1 5
k ehr
ä hr
st r
or en</w>
St unden</w>
in d
h äu
S ich
2 3</w>
Fil m
stell en</w>
Kom bin
ge gen
ver ab
I mpf
oh ne</w>
0 3</w>
h a
2 8</w>
I m</w>
Inform ationen</w>
0 4</w>
p ar
sch ä
M in
ah r</w>
mp tom
in g</w>
ge f
st and
Wo chen</w>
k e</w>
l än
mm un
0 5</w>
gi bt</w>
n er</w>
1 4
b li
p la
b en
l ungs
te m
t abletten</w>
D a
ber ich
zu sa
c on
k ro
h er</w>
st u
ier en</w>
19 9
Wi r</w>
L ösung</w>
Ihr en</w>
s k
m ar
o ff
S T
zier t</w>
l or
n te</w>
n is</w>
Na ch</w>
m ä
Th e</w>
t hr
sto ff</w>
f t
y c
Un i
b ie
f e</w>
6 0</w>
la ge</w>
w ich
st at
si g
201 5</w>
sam keit</w>
d ri
h e
ö ff
In fe
h än
p ri
or t</w>
B o
N äch
gel e
b it
I ch</w>
pr o</w>
s -
L ei
, 5</w>
de l</w>
führ en</w>
J u
ch te</w>
in e</w>
ar i
gr ö
R o
gra mm</w>
T ei
N ach
zei ch
J e
ig keit</w>
fin den</w>
g s</w>
w o
e -
f äl
Ber ei
g lie
Sich erh
S tr
A R
B il
M P</w>
Er krank
z ep
gleich zei
z ahl</w>
ge führt</w>
n ie
L u
beobach tet</w>
ge stellt</w>
hi er</w>
Näch te</w>
y p
z eu
i l</w>
M o
d re
er forder
schließ lich</w>
ges am
l uss</w>
i li
steh t</w>
l ü
p f
mö glich
In fu
W ass
Kom mi
0 9</w>
s at
or d
m u
zei gt</w>
m a</w>
1 -
Ar bei
in s
nah men</w>
B ei
be ss
i zi
ste d</w>
ge s</w>
us t</w>
z ur
Z eit</w>
dies em</w>
An ti
s er</w>
N ov
B li
be kan
k ar
empfoh len</w>
m ei
dies es</w>
je doch</w>
5 .
brin gen</w>
i g</w>
in ner
er halten</w>
s et
an ger
4 -
Ein nahme</w>
H e
Per s
o s</w>
Ther apie</w>
el ten</w>
k ul
Men schen</w>
fahr en</w>
die sen</w>
b el
Wirk samkeit</w>
Durchstechfla sche</w>
isch er</w>
S ti
er sten</w>
äm ie</w>
Jahr e</w>
sch ei
vi el
tei le</w>
P rä
n ten</w>
v en</w>
G er
B E
de ut
ablet te</w>
E ME
harma ko
st em</w>
Risi ko</w>
z e
m on
-- --
ati ons
wach sen
dan n</w>
mä ß
da ß</w>
o xi
ver b
sch la
an ti
ihr e</w>
a z
be stimm
R ei
er weise</w>
han g</w>
ch en
ir e
al t
m us</w>
aus ge
De ut
W ar
or t
mi ttel</w>
tr an
I I
Ent wick
tr op
i d
glei ch</w>
ei ts
8 0</w>
ich t
rit ze</w>
2 6</w>
st an
Sy mptom
dosi s</w>
2 7</w>
g ten</w>
p a
Kombin ation</w>
tr ä
untersu cht</w>
ges etzt</w>
M an
te d</w>
be sch
sch merzen</w>
behand elt</w>
Al l
s a</w>
f an
P a
f ra
st ra
ch ten</w>
z ieh
ein mal</w>
u ten</w>
m b
Re a
z o
r on
N eu
2 -
I E</w>
p er</w>
el s</w>
A T
f re
i d</w>
M är
ah l
B i
ff en</w>
Mit glie
k eiten</w>
p ack
är e</w>
S eite</w>
A L
EME A</w>
v a</w>
y l
al er</w>
me di
let z
.ht m</w>
al isi
rei ch</w>
3 1</w>
st ens</w>
DE R</w>
ur e</w>
e d</w>
lich keit</w>
U S
m et
em ber</w>
Pro b
B u
ol y
c a
Ho tel</w>
gr und</w>
mm t</w>
Kommi ssion</w>
g lichen</w>
E in</w>
f ass
s ach
ti schen</w>
Pla s
e t</w>
V i
inner halb</w>
it ä
lie gen</w>
bei m</w>
p osi
pro du
s etz
2 5
in -
A B
Inje ktion</w>
4 5</w>
W as</w>
U R
hal t</w>
ti on
ch n
r en
l er</w>
S on
w ahr
al y
kti on
ar b
Schw anger
U r
verab reicht</w>
D ar
Fü r</w>
J ahr</w>
In s
D at
r än
K ap
entsp rech
st ar
Film tabletten</w>
b u
ar e</w>
eh mi
ent wick
set zen</w>
ein schließlich</w>
Mi kro
f lu
sp ro
steh en</w>
ß er
ti n</w>
st en
woh l</w>
P M</w>
fall s</w>
y o
Fer tig
erforder lich</w>
ter i
gegen über</w>
n en
2 9</w>
an t
st and</w>
.0 00</w>
in di
ie gel</w>
P ul
K örper
In su
Ta ge</w>
c eb
Mär z</w>
K re
un de</w>
ver fü
k ap
Na tri
la ssen</w>
die s</w>
ar z
1 .</w>
Arzneimittel n</w>
schaf t
er fol
sch er</w>
lich er</w>
sel n</w>
p un
wie der</w>
V ir
. de</w>
ei gen
h ö
3 3</w>
ger in
f ach
m s</w>
Kin dern</w>
sch ein
4 9</w>
R E
F lu
Europä ischen</w>
auf treten</w>
all en</w>
0 00</w>
R i
A C
3 5</w>
Er geb
Ihr em</w>
au er</w>
gan g</w>
nie dri
Be stand
kon tr
fi g</w>
tr au
St a
m ent</w>
e s
g ungen</w>
200 8</w>
sta g</w>
E U
d s</w>
L o
s es</w>
i h
tei l</w>
f o
S a
spe zi
Wirk ung</w>
ver schie
W in
3 2</w>
zusa mmen</w>
l l
t z</w>
rü n
UN G</w>
Injektions lösung</w>
s eine</w>
K a
h oh
fun ktion</w>
T ra
201 0</w>
sch rei
9 0</w>
T E
grö ß
ff izi
f rei
d ür
k m</w>
2 ,
R a
di en
Ver ab
F ol
ch lor
fe st
20 0</w>
ein genommen</w>
H in
7 5</w>
o b</w>
Ein zel
G abe</w>
te m</w>
F äl
L an
Symptom e</w>
on e</w>
Hy per
T ran
Ge sch
i p
7 0</w>
da mit</w>
gen d
L ös
k ur
An zahl</w>
k er</w>
200 9</w>
4 8</w>
Un d</w>
folgen den</w>
M il
h in</w>
Pla ceb
l y
z er
g ri
o x
Dosi erung</w>
w a</w>
V -
su ch
dre i</w>
ier ung</w>
F rei
ver kehr
. E
t ät</w>
F rau
L in
H äu
p ass
ta g</w>
- 0
K ar
empf ind
ut zen</w>
ti gt</w>
F in
K rank
z un
h öh
A c
P rei
min de
W el
F re
besonder e</w>
Gen ehmi
sä tz
lie gt</w>
B lu
oll e</w>
Wass er</w>
2 8
200 7</w>
en k
3 5
tr o
ko mp
p rä
T ier
k ten</w>
stör ungen</w>
sy ste
A ut
a be
rei chen</w>
e g</w>
ab en</w>
Pul ver</w>
no t</w>
ti sche</w>
i hr</w>
Kin der</w>
neu e</w>
sp en
reich ung</w>
berich tet</w>
A S
voll ständi
2 .
O R
stü tz
Mi t</w>
Su b
w is
w ür
. .</w>
th e
sti tu
ck e</w>
s ei
in tra
Frau en</w>
kon zentr
4 4</w>
Unter nehmen</w>
B au
k om
E -
a u</w>
a ktiv
p re
ü h
G ruppe</w>
M us
st är
f or</w>
berei ts</w>
ß nahmen</w>
k a</w>
m el
h au
W eb
si ons
Her z
G el
O N</w>
b zw
v an
.... ....
kin eti
bzw .</w>
ff e
T I
tei l
sp iel
Er wachsen
K op
Hau p
5 6</w>
B .</w>
B el
bekan nt</w>
W oh
F e
ab oli
h ol
f all</w>
ter n</w>
F la
Y P
Zusammen hang</w>
Wo che</w>
d y
d in</w>
P re
P h
m ehr
s an
et t
ch sel
gin n</w>
v a
m ale</w>
Behand lungs
Entwick lung</w>
i a
200 6</w>
ar d</w>
h eiten</w>
op p
t or
harmako kineti
Plas ma
ge fü
201 1</w>
In verkehr
d -
k un
en g
eu te</w>
s ehen</w>
al ität</w>
b rechen</w>
3 4</w>
hr om
tra gen</w>
Inverkehr bringen</w>
St ad
mi t
ther apie</w>
Hau t</w>
eh men</w>
ol li
2 7
t ungen</w>
Deut sch
h af
.E .</w>
sat z</w>
k en
H ep
S it
B en
g -
durch geführt</w>
wen iger</w>
de s
Re p
Ge m
I T
k la
2 6
Kon zentr
ungs mittel</w>
stell e</w>
tig keit</w>
är en</w>
Do sen</w>
Genehmi gung</w>
e urop
eben s
geb o
9 8</w>
se -
kt or</w>
b st</w>
3 6</w>
U hr</w>
w a
minde stens</w>
c ur
rin ger
S te
K an
te ten</w>
N am
erk rank
r is
Sch la
kt u
R ück
g re
weiter e</w>
Verab reichung</w>
dru ck</w>
sol l</w>
it on
et wa</w>
mi tt
ab hän
Wei ter
at h
um an
Die s</w>
Her stellung</w>
der ung</w>
wie sen</w>
o g</w>
sp rechen</w>
ot en
3 9</w>
be t
ni fi
U T
an ce</w>
Ver gleich</w>
su b
en der</w>
mö glich</w>
D a</w>
ein nehmen</w>
öff ent
ver wendet</w>
201 3</w>
Pers onen</w>
d ungen</w>
i mm
Me di
in en</w>
201 2</w>
201 4</w>
Berei ch</w>
o se</w>
Ge sam
O p
w il
Ein nehmen</w>
k re
nifi kan
a se</w>
in i
neu en</w>
th is</w>
i m
M ö
H I
schla g</w>
Insu lin</w>
Schwanger schaft</w>
Vor sicht</w>
ör per</w>
c e
k eits
ur en</w>
Er fahr
be ein
for t</w>
d rü
tik el</w>
Erkrank ungen</w>
en tr
f il
all erg
k el
ich te</w>
Be tr
ent s</w>
ge geben</w>
ein ig
ti c
4 3</w>
ei g
I .E.</w>
H ot
g ar
t zen</w>
kontr olli
ver ur
sig nifikan
Re gi
betr ä
n u
S ep
Deutsch land</w>
I mmun
H ar
AN G
R u
Mitglie d
G la
geh en</w>
4. 4</w>
a -
Fertig sp
a d</w>
beträ gt</w>
ffizi enz</w>
Sicherh eit</w>
p rü
P e
G ra
T er
v ol
ati n
3 7
4 1</w>
on i
h e</w>
Po sted</w>
l er
3 0
f te</w>
A -
spen sion</w>
d ire
for mi
5 -
ie der
Gr und
t op
H al
I R
hat ten</w>
unser e</w>
9 5</w>
Ge s
ihr er</w>
s eit</w>
erh iel
Hau t
k ation</w>
Ko mp
sp iegel</w>
erhiel ten</w>
st ei
Al ter</w>
zi mmer</w>
H and
3 ,
son sti
Bli ster
D an
lan g</w>
e ch
A ktiv
er i
b ur
h il
Aus sch
w s</w>
la ss
Arbei ts
n orm
K no
ö l
gu t</w>
d u</w>
0, 5</w>
i en
der en</w>
tra g</w>
wen di
L ie
St and
l ö
R ah
at ur</w>
2 9
gem ein
Mit t
verur sach
Mikro gramm</w>
A M
mi l
O N
B et
o -
bie tet</w>
wor den</w>
for t
äh n
z ü
et er</w>
behand elten</w>
g abe</w>
arz neimi
Uni on</w>
tei lung</w>
3 -
dür fen</w>
5 00</w>
bin dung</w>
3 00</w>
auf ge
gen de</w>
Natri um
Ar t</w>
ati ve</w>
P ra
Bestand teile</w>
en te</w>
schaf ten</w>
pun kt</w>
en ie</w>
fin det</w>
4 2</w>
re du
ch er</w>
s einer</w>
Ver fü
er war
ot wendi
zu sätz
Placeb o</w>
möglich erweise</w>
häu fig</w>
k ein</w>
u p
C YP
be din
4 6</w>
ver sch
N or
H u
M u
P V
rei g
te te</w>
E reig
R iton
tig er</w>
hat te</w>
Infe ktionen</w>
be steht</w>
Mon ate</w>
J an
Di en
I r
ün sch
dar auf</w>
l ungen</w>
E i
j p
ck t</w>
y p</w>
P R
C a
Pack ung</w>
st ru
fa ch</w>
A d
f ar
gew icht</w>
L än
u g</w>
Pro je
k um
abhän gi
rupp en</w>
E r</w>
führ ung</w>
3 6
d is
ins besondere</w>
j e</w>
T i
lo ssen</w>
gen an
s art
T ablette</w>
sel bst</w>
Rea ktionen</w>
lei ch
zei gen</w>
wä h
Au g
Sp iel
J un
Infu sions
un der
IS T</w>
pack ung</w>
fun ktions
d r
da y</w>
hy dro
verfü g
e c
st ä
intra ven
zei t
h l</w>
empfoh l
A S</w>
A pp
gen d</w>
bit te</w>
Blu t</w>
st al
M ut
In du
3 7</w>
all s</w>
m al
t ur</w>
F ahr
qu e
tr it
auf grund</w>
Tei l</w>
Ins ul
Ergeb nisse</w>
glich keit</w>
Pack ungs
Ge w
a .
su chen</w>
b r
UR L</w>
l a</w>
Sep tem
L E
3 8</w>
b ung</w>
ma cht</w>
er s</w>
Aug ust</w>
la gen</w>
G mb
Septem ber</w>
Dosi er
te g
ant wor
ier te</w>
ver si
ier ten</w>
ss t</w>
g liche</w>
H ei
H a
zwei mal</w>
4 7</w>
Arzneimittel s</w>
on ie</w>
Riton avir</w>
Min uten</w>
ent fer
ati tis</w>
9 7</w>
K un
P oly
tik a</w>
L I
1 50</w>
9 9</w>
k or
CH MP</w>
3 .
Haup t
bar keit</w>
er n
ol e
200 5</w>
A M</w>
geh t</w>
sart an</w>
Zei t
p oli
k s</w>
da her</w>
bei den</w>
b in</w>
E mpf
ti k</w>
jp g</w>
Ver änder
schä f
Gmb H</w>
fi zier
ph p</w>
5 5</w>
su ffizienz</w>
UT C</w>
zo gen</w>
olog ie</w>
ma chen</w>
s el</w>
u t</w>
S tra
s h
kt o
b y</w>
O ber
mi r</w>
we der</w>
Rah men</w>
F un
P u
o c
geh ör
i t</w>
w o</w>
t ur
S al
4 00</w>
K at
sti eg</w>
L y
pri l</w>
6 .
Mitglied sta
gen e</w>
d ungs
B ar
nation alen</w>
f ig
ti onen</w>
ent halten</w>
Al le</w>
en -
20 00</w>
an z
viel e</w>
son dern</w>
Gem ein
g aben</w>
Hot els</w>
gel a
it te</w>
ü b
Nov ember</w>
ach ten</w>
re gel
gen er
em o
i a</w>
Ma sch
wie der
ob en</w>
Au f</w>
ul ti
tig ung</w>
wel che</w>
si te</w>
hab e</w>
mi ch</w>
Z immer</w>
ein ige</w>
Ihr er</w>
Lös ungsmittel</w>
st ung</w>
st ri
T ab
In halt</w>
W elt</w>
sch ri
Ta gen</w>
le ar
Ar tikel</w>
ge zeigt</w>
v ie
gen den</w>
si s</w>
d ra
entsprech end</w>
be g
formi eren</w>
En de</w>
Je de</w>
Hy p
rü h
2 4
lä che</w>
An zei
k al
län ger
I t</w>
n at
k ün
europ ä
R at
zieh en</w>
s am</w>
J ul
E L
r icht</w>
gesam t</w>
AU F</w>
sa gen</w>
ü ck</w>
Ä n
z ität</w>
neh m
gen en</w>
5 2</w>
Kon tr
m es</w>
F all</w>
D y
gi en</w>
eti n</w>
den n</w>
itä ten</w>
st au
g ruppe</w>
8 4</w>
v iel</w>
ver änder
n äch
T hrom
wei s
0 -
B ru
h ä
b au
wer t</w>
Be ginn</w>
Infe ktion</w>
Fäl len</w>
P ri
ho sp
t ungs
F rank
G ro
b lei
en d
f ung</w>
wer te</w>
bar en</w>
wel t
el i
H i
---- ----
Hy dro
Sch merzen</w>
is mus</w>
ein gesch
F alls</w>
r ent
zur ück
V on</w>
Ju gend
o mi
Wirk ungen</w>
w eit</w>
ar d
c ro
ch s</w>
j a</w>
fa st</w>
ö ch
ver ringer
sch on</w>
we gen</w>
an zu
t liche</w>
s c
wir t
erhöh t</w>
sp ra
da zu</w>
og ra
er w
200 1</w>
ti ert</w>
D -
f igkeit</w>
w it
Fertigsp ritze</w>
k örper
g li
wei sen</w>
k ut
w oll
je wei
J o
al ien</w>
r a</w>
H il
v u
Or gan
wei ter</w>
ch i
l len</w>
ko mmt</w>
er reicht</w>
kun ft</w>
be wer
k auf
em a</w>
dru ck
Unter such
C on
ati n</w>
5 4</w>
W a
al t</w>
. php</w>
ar y</w>
l auf
lu s</w>
s ent
D u
Europä ische</w>
si ert</w>
Erkrank ung</w>
aly se</w>
Mon aten</w>
setz ung</w>
b an
G ot
unser er</w>
sti n
g a
ßer dem</w>
tran s
O b
5 1</w>
wirk sam
stoff e</w>
R au
gan z</w>
A pril</w>
Gesam t
Jan u
her e</w>
sp iel</w>
V ol
letz ten</w>
A p
m us
kom bin
über wach
bil dung</w>
vi ce</w>
rie ben</w>
si er
ihr en</w>
posi tion</w>
8 .
Ver wen
vi er</w>
lin e</w>
ch es</w>
Z ur</w>
G ar
Di abe
200 4</w>
ie b
gr enz
N o
ein zel
K ön
Mil li
4 ,
Sy n
di enen</w>
Körper gewicht</w>
Men ge</w>
schwer en</w>
i ti
f ten</w>
ge eig
ma xi
k u
si den
T re
H art
stör ung</w>
Re ch
rän k
c t</w>
W ähr
il la
trit t</w>
9 6</w>
I t
v o
t nis</w>
K ur
An tik
sich er
Met aboli
Verfü gung</w>
C ar
n ungen</w>
ti eren</w>
Pro t
C O
M or
v al
lear ance</w>
Erwachsen en</w>
ther ap
F ran
F lü
al og</w>
6 5</w>
cur rent
a ch</w>
W EN
f l
A N</w>
U M
ger n</w>
ü l
W er
Ver bindung</w>
an wenden</w>
sp ar
g il
so fort</w>
AB EN</w>
k am
k a
Weiter e</w>
A m
g o
berei ch</w>
Stad t</w>
Infu sion</w>
ch e
U m</w>
mi schen</w>
ser ver</w>
mp er
fo und</w>
at ur
T ro
erh äl
200 2</w>
erk en
in s</w>
.. ..</w>
Mitgliedsta aten</w>
b rau
D is
opp el
h eute</w>
tei len</w>
ANG ABEN</w>
om e</w>
f ro
h t</w>
Sp e
intraven ö
µ g</w>
zu g</w>
Kon ta
ei ch
schaf ts
Wirk stoff</w>
wei l</w>
P -
or gan
We chsel
zu ck
F Ü
N utzen</w>
T u
current ly</w>
ein igen</w>
Ei gen
ob il
re que
.ht ml</w>
t ablette</w>
H äm
O kto
schwer er</w>
gleichzei tig</w>
vi a</w>
mi sche</w>
y -
a ktu
n otwendi
ma b</w>
E le
S S
sä ure</w>
- 2
T ri
j etzt</w>
k einen</w>
S am
i do
C -
Ma ßnahmen</w>
T R
je der</w>
Sy ste
sonsti gen</w>
f lo
ur e
K or
Her r</w>
5 ,
ell er</w>
thr o
k tr
Ü bel
f el
et was</w>
Okto ber</w>
W ach
s einen</w>
Europ a</w>
de u
be l</w>
zü glich</w>
P or
or g</w>
ma sch
Er brechen</w>
bur g</w>
ma x</w>
Hart kap
o ber
a kti
p e</w>
Ver sch
Kop f
P en</w>
z .
Übel keit</w>
li gen</w>
sel ten</w>
f er</w>
ut z</w>
Die ses</w>
K li
be vor</w>
UN G
Kno chen
gef ä
reque sted</w>
st s</w>
c m</w>
stu dien</w>
so wohl</w>
kön nte</w>
Au gen
y s</w>
den e</w>
arzneimi ttel</w>
FÜ R</w>
5 8</w>
T yp</w>
5 7</w>
ati ven</w>
verschie denen</w>
f ä
be wahr
her apie</w>
M ehr
F eb
M y
f ri
regel mäß
E P
p ra
i tis</w>
00 1</w>
me ss
zier en</w>
f a</w>
e ss
2 .</w>
Bi o
t lichen</w>
unter schie
Er höh
Sp ritze</w>
le me</w>
al d</w>
erhöh te</w>
k ra
K l
ss y
Ma i</w>
5 9</w>
ein ge
All gem
Met ho
P harmakokineti
B itte</w>
p m</w>
ein fach</w>
Häu figkeit</w>
am ar
L ebens
ch ron
sor g
D ah
um ini
k oh
ach t</w>
si tz
mi d</w>
ko sten
hei ts
in te
Co mp
Au ch</w>
Packungs bei
aus gesch
Z um</w>
ma t
stell er</w>
lo s</w>
er ste</w>
ah n
F ar
UN D</w>
um en</w>
lich es</w>
A tem
Be sonder
For m</w>
Risi ko
all em</w>
f en
l s</w>
Throm bo
P an
II I</w>
3 8
C learance</w>
G lu
äh igkeit</w>
A V
geb ra
t h</w>
S o</w>
sy stem</w>
wirk t</w>
Impf stoff</w>
tr äch
in g
te chn
Al s</w>
d au
d .</w>
gele gt</w>
Sch wer
mm e</w>
mei sten</w>
je dem</w>
E ur
Tab elle</w>
Dah er</w>
gem ä
P ha
r .</w>
an t</w>
Produ kte</w>
lei cht</w>
P rü
ün sti
An stieg</w>
Sy stem</w>
a gem
5 3</w>
p u
trau m</w>
erw ünsch
E I
aus reich
hal ten
Prei s</w>
le ch
Jun i</w>
ho ch
HI V-
Al umini
St ar
F ach
ff e</w>
Packungsbei lage</w>
pass ung</w>
Masch inen</w>
besonder s</w>
Su spension</w>
C i
ob ili
G eh
an n
schei dung</w>
En erg
ih n</w>
vu din</w>
wirk ung</w>
ih m</w>
a ge</w>
s eh
Fra gen</w>
er st</w>
g än
bar e</w>
E is
um s</w>
soll en</w>
verb unden</w>
N ahr
da bei</w>
ter n
Rep ly</w>
P un
A D
abhängi g</w>
C al
tei lt</w>
Ser um
le gen</w>
Nieren funktion</w>
Ma y</w>
Th is</w>
in k
0 8
9 .
ele van
lan g
be gin
D ru
Ereig nisse</w>
ste t</w>
u te</w>
L ab
d lich</w>
sich tlich</w>
PV C</w>
A L</w>
tr et
De s
V al
gesam ten</w>
z. B.</w>
fer on</w>
Jul i</w>
bie ten</w>
P f
Wach st
gen tlich</w>
st or
arb eit</w>
E p
j ähr
entfer nt</w>
T -
L -
E ffe
b lo
ul ation</w>
betr ug</w>
Be sch
st op
o th
z ö
H uman
gro ße</w>
her vor
Re g
d el
re a
all er</w>
nu n</w>
D on
ung sp
N i
t -
p s</w>
j u
ben ö
Z entr
A P
Au g</w>
b is
sel ten
T ele
Par t
ß t</w>
klin ische</w>
Feb ru
j i
m 2</w>
B -
h ör
I mp
fass ung</w>
war e</w>
K ra
F u
Währ end</w>
L eu
200 3</w>
ß er</w>
nat ür
EU -
ov ir
l en
Verwen dung</w>
Pharmakokineti k</w>
hau p
Ver fahren</w>
i hnen</w>
C P
trä ge</w>
sub kut
li t
Flu g
Ar b
da von</w>
I D</w>
on -
gleichzei tige</w>
lei den</w>
N u
ge wiesen</w>
ti er
O n
A gen
S el
zusa mmen
La ge</w>
I s
Nov o
W or
Insul in
in n
ol o
et a
EU R</w>
a de</w>
gro ßen</w>
k am</w>
mar k
Dat en
In di
D ep
Unter stütz
m or
F ir
st ungen</w>
kon nte</w>
st re
stau ran
Te chn
S -
C hr
be findet</w>
An fan
l and
Th e
Te x
der t</w>
Par la
sp lan
it y</w>
ba u</w>
Z y
A t
H aus</w>
chlor id</w>
Arb eit</w>
b s</w>
ein gesetzt</w>
behand lung</w>
ver wenden</w>
6 -
F ie
I -
rit zen</w>
l äu
h el
H R
P i
10 00</w>
Ther ap
eben falls</w>
Über empfind
d auer</w>
n et
gebra cht</w>
L and
wis sen
lan z
be steh
zeich net</w>
7 4</w>
n g</w>
dire kt</w>
Wir t
Z ahl</w>
. net</w>
f läche</w>
Nam en</w>
v ier
S .
p lan
Pa tr
Ex position</w>
sch ü
ie t</w>
sich ts
re gi
C om
Mus kel
AU C</w>
ti mes</w>
P oli
R at</w>
Durchstechfla schen</w>
mm er
olog ischen</w>
oxi d</w>
p e
s eiten</w>
L un
S i
Bei spiel</w>
folgen de</w>
Re zep
si onen</w>
A po
ver min
B re
Rat ten</w>
ins gesamt</w>
P har
sp rech
posi ti
unser en</w>
N icht</w>
Ver bess
an e</w>
W IE</w>
bli ck</w>
all es</w>
ei t
ut er</w>
mm ern</w>
ver glichen</w>
z er</w>
Zu lass
Z U
Hep atitis</w>
l eben</w>
H aus
B r
6 ,
se i</w>
ün dung</w>
ter en</w>
Anzei chen</w>
K örper</w>
un ver
I mm
olog ische</w>
Blister packung</w>
s eite</w>
un erwünsch
ly k
e i</w>
lo b
S ehr</w>
f luss</w>
b ra
R ap
s al
medi zin
l op
W erte</w>
y er</w>
gela ssen</w>
S c
Fa x</w>
hin aus</w>
si st
Sch ul
2 50</w>
Z iel
be grenz
7 .
gen au</w>
6 4</w>
W ert</w>
M ahl
c a</w>
de ssen</w>
sorg fäl
x ac
F ot
l eb
sp ä
St .</w>
te i</w>
min i
Sub stan
5 0
Pers on</w>
ch an
zy me</w>
W il
zei gte</w>
arbei ten</w>
Diabe tes</w>
Aus gan
2 3
isch es</w>
Schla f
Sp ra
Mu si
schw an
ast ro
ab ili
L eben</w>
Lu x
Fla sche</w>
Dosi s
in suffizienz</w>
K al
Mö glichkeit</w>
A .</w>
S CH
A CH
Unter schie
A R</w>
To xi
al fa</w>
erhäl tlich</w>
gemä ß</w>
itä ts
ca .</w>
dro m</w>
ru ch</w>
di gung</w>
zun ehmen</w>
sieh t</w>
S ü
lin ie</w>
wil l</w>
A G
gel an
Pati en
b ro
z ung</w>
si l
Unterstütz ung</w>
man y</w>
Do kum
Me ss
Veränder ungen</w>
w öch
Sp an
d lichen</w>
schwer e</w>
t te</w>
in du
ÿ ÿ
2 ,5</w>
Or t</w>
Ge gen
k r
Über wach
erkrank ung</w>
Pro gra
tra ten</w>
vi du
Flü ssi
P harma
Ta ges
kt oren</w>
sich er</w>
Aus wirkungen</w>
st ati
C y
G ele
spezi f
Ver w
ge ssen</w>
schwer wie
12 .
G u
nation al</w>
az ol</w>
empfohl ene</w>
Web site</w>
o k
al so</w>
Zei traum</w>
kt ur</w>
Aussch uss</w>
W ieder
D auer</w>
I I</w>
F rüh
mitt l
öffent lich
f eh
f rü
sy ch
fol gt</w>
ein zi
6 00</w>
sch lä
e di
g ar</w>
R et
an den</w>
1 1.
d ün
W AS</w>
. org</w>
Kopf schmerzen</w>
Er y
amar illa
D en
siden t</w>
in formieren</w>
än n
ma il</w>
klin isch</w>
ent weder</w>
or i
K unden</w>
t an
z ellen</w>
Be wer
En d
thro p</w>
at s
äch lich</w>
schn ell</w>
berei tung</w>
Ver k
wich tig</w>
d on</w>
w n
mö chte</w>
beein flu
Win throp</w>
ne te</w>
nis sen</w>
K üh
ver bess
P fla
I C
En tz
pla tz</w>
r el
ich ts</w>
da für</w>
an der</w>
Die ser</w>
K la
K ü
fäl le</w>
Ver einig
Risi ken</w>
all ein</w>
z äh
Fie ber</w>
N ehmen</w>
aus zu
S in
3 A
dar über</w>
da r</w>
bestimm t</w>
P ol
l ust</w>
zur ück</w>
konzentr ationen</w>
flo xac
Erfahr ungen</w>
Pati ent
Her r
wür de</w>
S ei
L and</w>
A ber</w>
notwendi g</w>
therap eu
führ te</w>
fer n</w>
9 ,
S ol
op er
B an
hab er</w>
Fra u</w>
Har n
I N</w>
m als</w>
A mp
schaft lichen</w>
l em</w>
Wei se</w>
ie gel
P al
ä tz
Janu ar</w>
o i
Re stauran
lan ge</w>
ch ni
l auf</w>
V iel
M ü
G E
zu stellen</w>
R icht
........ ........
M erk
weiter en</w>
en n
Mon o
Blut zuck
lo k
Z u</w>
Sam stag</w>
Gen er
Tei l
f ör
lei tung</w>
ie s</w>
Ver kehr
all gem
en s
gel be</w>
f on
Sti ll
Ver sion</w>
su cht</w>
on nen</w>
J oh
D en</w>
eb er</w>
ah len</w>
kontrolli erten</w>
e v
ff t</w>
E IN
glei chen</w>
wei s</w>
p hy
gefü hl</w>
pro b
Re fer
mi li
S k
An t
Kin d</w>
St ör
T EN</w>
bi o
g ünsti
US A</w>
Sch rit
T yp
Frank reich</w>
Thrombo zy
1 20</w>
L L
Prob anden</w>
kon stitu
de x
r elevan
Don ner
zei gten</w>
Hartkap seln</w>
fü n
af er
at er</w>
T um
wo bei</w>
je den</w>
ta z
Ge schäf
mittel n</w>
Lan g
Woh n
De z
i ma
europä ischen</w>
Frei tag</w>
mei den</w>
Apo the
e f
ab in</w>
er -
F eh
sch t</w>
da t
V or</w>
Dosi san
p or
Injektions stelle</w>
ck en
ss es</w>
öh n
For sch
G o
O P
st ad
yo u</w>
mper atur</w>
Donner stag</w>
So ft
wahr schein
F OR
vir in</w>
gebo ten</w>
eigen en</w>
ungs an
sp or
al es</w>
di a
äh e</w>
geh end</w>
Auf treten</w>
j en
E X
8 ,
ra te</w>
Ges und
ch t
Ir be
Besonder e</w>
Dez ember</w>
B in
Bil d</w>
Inter net</w>
in ji
Kap seln</w>
B ür
li k
for m</w>
n icht
dosi erung</w>
I D
c al
Impf stoff
g rün
Vi de
gen heit</w>
ver stär
h .</w>
Ho ch
We g</w>
kar di
W is
r auch</w>
w and
Schw ell
A m</w>
her en</w>
ma ßnahmen</w>
erk l
st lei
sch rit
B ro
E T
ran k</w>
L it
Rea ktion</w>
ath ie</w>
di p
C har
ander er</w>
nation ale</w>
Irbe sartan</w>
Vor teile</w>
b rei
bestimm te</w>
Überwach ung</w>
s op
ück sich
Ma g
Bru st
häu fig
v ast
so zi
Krank heit</w>
ab ge
Inje ktion
an z</w>
Hi er</w>
hoh en</w>
Infusions lösung</w>
O per
L t
u e</w>
ten si
Erfahr ung</w>
T en
empfind lich</w>
ent schei
lo se</w>
Z iel</w>
ges ehen</w>
unter stütz
Pati ent</w>
zei ten</w>
hi bit
in dem</w>
K ul
12 .</w>
tin nen</w>
Qu alität</w>
gel ei
b st
A G</w>
Fra ge</w>
Wass er
x y
Aktiv ität</w>
et te</w>
me ssen</w>
in del</w>
hand elt</w>
W erk
sch luss</w>
tr at</w>
per s
au t</w>
zwei ten</w>
Än der
er reichen</w>
Kre atin
t ation</w>
10 .</w>
Na del</w>
4. 2</w>
z ahl
erfol gen</w>
al fa
Lab or
Ma gen
floxac in</w>
stän den</w>
indi vidu
10 .
woll en</w>
ho f</w>
Fäl le</w>
ell schaft</w>
ver gleich
7 ,
Verbess erung</w>
in e
ach tet</w>
le x
überwach t</w>
Kön ig
1 1.</w>
sat z
b s
ss el
form ation</w>
Fer ien
osi gkeit</w>
hr en</w>
ap in</w>
h en</w>
O R</w>
Leber funktions
B lo
Ihr es</w>
kt ur
gew öhn
Arbei t
ch tigkeit</w>
mo der
tu n</w>
ch s
Sch wei
we g</w>
din gs</w>
st a</w>
Produ kt</w>
u b
no w</w>
C or
7 6</w>
de ten</w>
Milli onen</w>
Ber icht</w>
Haut aus
Sicherh eits
erkrank ungen</w>
For t
em e
all er
sor p
us e</w>
ver gessen</w>
wieder hol
forder ungen</w>
Re du
1 .000</w>
m ati
op ti
Mut ter
Film tablette</w>
D N
S eh
I L
g ab</w>
al ten</w>
Ri ba
ger ung</w>
6 7</w>
Uni versi
Nam e</w>
st herapie</w>
K ir
op ro
N ieder
Blut ungen</w>
Phar ma</w>
s ep
Mo d
N utz
R ich
Dur ch</w>
E l
mö glichen</w>
Inter feron</w>
nach gewiesen</w>
N ähe</w>
oll e
S or
IS T
tra g
la g</w>
T el
Kontr olle</w>
über wie
h under
u p</w>
k li
zu gelassen</w>
7 2</w>
g l
0 .
G a
Jugend lichen</w>
indi ziert</w>
wit h</w>
Schw indel</w>
V il
signifikan t</w>
Geschäf ts
s einem</w>
si e
7 -
ver k
Mit arbei
Impf ung</w>
G rün
Küh l
Injektions na
Mar k
pa ge</w>
zwe cke</w>
ra z
1, 5</w>
ati v</w>
o f
Gr ö
schwan ger</w>
Patien tinnen</w>
Got t</w>
je de</w>
sch a
b lut
entwick elt</w>
oth ia
mer k
6 6</w>
k ri
er neu
pf er</w>
f o</w>
r and
sch es</w>
Hil fe</w>
La mi
Zusammen fassung</w>
Mi x
L ac
zeich nung</w>
Mit tel</w>
Ar thr
ger ich
hö ch
9 -
M w
jewei ls</w>
6 1</w>
verursach t</w>
ver meiden</w>
eu ch</w>
ß en
c t
H ol
Bau ch
Neu trop
v öl
ab zu
Hydro chlor
B al
g al</w>
gefä hr</w>
deu tet</w>
stat t</w>
sti m</w>
00 2</w>
g ei
fro m</w>
p harmakokineti
gehör t</w>
Blut druck</w>
4 5
Pro gramm</w>
M er
g ruppen</w>
we g
ein ander</w>
Al koh
ho w</w>
CYP 3A
di o
führ ten</w>
r h
s etzt</w>
ur t</w>
Mar kt
M al
as kul
Febru ar</w>
st h
w ass
en zen</w>
othia zi
Konta kt</w>
gef unden</w>
Stu dien
S ach
Pro ze
tr a</w>
G ä
ver hin
H M
wn lo
CP MP</w>
4 8
Wechsel wirkungen</w>
F -
Ausgan gs
6 9</w>
Erhöh ung</w>
gemein sam
häl tnis</w>
allerg isch</w>
au ss
l ebens
d o</w>
m eine</w>
ti ve</w>
geb enen</w>
Zusammen arbeit</w>
konzentr ation</w>
ag no
Apothe ker</w>
Hydrochlor othiazi
viel en</w>
Still zeit</w>
Mon at</w>
star k</w>
einzel nen</w>
m -
19 8
un ten</w>
Z un
F o
be stä
den z</w>
sch en
de fin
z a</w>
M el
alfa -2
co mp
wei ß</w>
P harmako
o .</w>
Injektion ss
wahrschein lich</w>
n a</w>
z ell
fach e</w>
B on
t on</w>
gel ö
Prob leme</w>
kl är
E L</w>
Min i
ve sti
Her zin
g lau
f r
hal tung</w>
a ted</w>
Ö ff
fol ge</w>
Merk male</w>
st all
7 3</w>
sa mm
Injektions zwecke</w>
Ma teri
An sprechen</w>
et t</w>
we chsel
Riba virin</w>
vor zu
d liche</w>
sch ö
vollständi g</w>
o gen
el te</w>
S ER
stu die</w>
1 00
vast atin</w>
Z ellen</w>
mm ung</w>
ent z
w är
I S</w>
Ly mp
Ste u
ein zu
ä mpf
Ch emo
In tr
F el
An gi
et s</w>
no v
H öh
Agen tur</w>
fra gen</w>
Be deut
p -
E S</w>
ord nung</w>
Ein fluss</w>
Met for
ung spro
la t
V en
E m
k at
B R
Eur o</w>
da ten</w>
d ort</w>
yc in</w>
d rei
Pfla ster</w>
Au gen</w>
8 00</w>
D oppel
sch rank</w>
C hin
Mitt el
x el</w>
Gr und</w>
un gefähr</w>
weiter hin</w>
An weis
schließ en</w>
ges etz
Über dosierung</w>
än de</w>
fä hi
ss o
Sch lu
erhöh ten</w>
i de
fre i</w>
pf lich
C an
oten zi
ge sp
Be din
N etz
ge zogen</w>
Ber lin</w>
4. 8</w>
Prä sident</w>
beein träch
isi erung</w>
U S</w>
E li
ange zeigt</w>
ig keiten</w>
Dosisan passung</w>
über empfindlich</w>
U l
thr om
ak fast</w>
Therap ie
l -
d or
men sch
alisi erung</w>
h uman
Ver an
K ons
um fass
wis sen</w>
L T
d .
ge währ
f on</w>
am in
Pha se</w>
fest gestellt</w>
lä ssi
c ar
M S</w>
Syn drom</w>
ges unden</w>
h ü
s h</w>
fra ge</w>
nehm er</w>
teg or
empf eh
lin ien</w>
C max</w>
erhöh en</w>
Gla s</w>
met aboli
ck er</w>
An hang</w>
Bedeut ung</w>
In haber</w>
Grund lage</w>
ah me</w>
c es</w>
v el</w>
Konzentr ation</w>
sorgfäl tig</w>
De sig
Lun gen
fun ktion
A g
st ro
fe st</w>
ne w</w>
m y
S il
gri ffe</w>
i r</w>
ne ten</w>
g rei
M P
H ER
9 1</w>
näch sten</w>
6 2</w>
kl einen</w>
h aus</w>
ü tz
dra t</w>
Au ßerdem</w>
tre ffen</w>
hin sichtlich</w>
ken n
ent er</w>
arbei tet</w>
agem ent</w>
str ie</w>
An ämie</w>
Sch i
sen den</w>
F i
um e</w>
4. 5</w>
Au s</w>
l ar
mehr ere</w>
ent lich</w>
stimm ung</w>
m ali
b wer
ber u
a min</w>
ge m</w>
be sten</w>
ti scher</w>
i v
höh er</w>
lö sen</w>
vie w</w>
Hin weise</w>
f arb
K ali
in nen</w>
H um
rau m</w>
Lu ft
Zeit punkt</w>
r e</w>
t yp
ch ung</w>
In stitu
sch ul
T ä
4. 3</w>
Des halb</w>
geb ung</w>
er lau
entwick eln</w>
An der
son al</w>
Untersuch ungen</w>
H an
k rä
N er
O ri
on s</w>
Bil dung</w>
Ge wich
si schen</w>
sp iegel
de te</w>
B ra
It alien</w>
L eber</w>
at or
B us
H -
I T</w>
6 3</w>
w an
entsp richt</w>
S eiten</w>
S .</w>
WEN D
auf bewahr
d om
s .
Son n
G al
War um</w>
Abschnit te</w>
C V
di gkeit</w>
i o
af il</w>
de x</w>
gen s</w>
Antik örper</w>
S ter
m ents</w>
li er
vollständi ge</w>
ti me</w>
UNG EN</w>
mi e
kön nten</w>
Län dern</w>
Geb rauch</w>
S an
stad t</w>
7 1</w>
V ER
ter ung</w>
N orm
är er</w>
r und</w>
ati schen</w>
S lo
5. 2</w>
Rech ts
eingesch ränk
T it
mö chten</w>
In iti
alfa-2 b</w>
En gli
Au ss
P AC
t y</w>
be u
re cht</w>
O L
a vir
P ap
sor b
be deutet</w>
erwar ten</w>
z war</w>
Be zug</w>
pr ol
m ut
un ser</w>
den ken</w>
P en
Mono therapie</w>
Dat ei
H el
f lü
ver fahren</w>
ter s</w>
eb e</w>
c o</w>
Kun st
zi al
berich teten</w>
6 8</w>
ko mmen
kl eine</w>
Dien stlei
häufig sten</w>
fü h
In hal
schein t</w>
v ari
st ab
is ation</w>
ihr em</w>
er zi
di g
H B
d i</w>
H ä
sorp tion</w>
ge macht</w>
Kühl schrank</w>
genan nten</w>
prü fen</w>
qu i
Ver tr
Auf grund</w>
t ö
Toxi zität</w>
Erwachsen e</w>
199 8</w>
größ ere</w>
Hautaus schlag</w>
00 3</w>
Un ser
Be dienen</w>
I CH
geb or
äl teren</w>
eingeschränk ter</w>
rand omi
Pro te
um -
su pp
ole ster
G ol
k op
te x
Ci pro
r o</w>
Mw St.</w>
Regi on</w>
ei cht</w>
t el
der zeit</w>
Ca mp
si erten</w>
inter nationalen</w>
V it
Nieren insuffizienz</w>
Be d</w>
Prob lem</w>
10 .000</w>
n or
p en</w>
syste ms</w>
m ent
Ph en
Win do
Prü f
b ene</w>
il e</w>
gri ff</w>
li g</w>
on e
G ran
Ö ster
ta g
qu e</w>
Da tei</w>
ni mmt</w>
ver ein
te -
Z er
off en</w>
utz t</w>
p hosp
po etin</w>
V ON</w>
Bedin gungen</w>
arbei tung</w>
verfüg bar</w>
pack ungen</w>
A k
PAC K
W ahr
auf genommen</w>
Sch luss</w>
haf en</w>
p lä
schri ften</w>
mmun i
k s
gleichzei tiger</w>
l es</w>
s ul
rich tung</w>
ti sch</w>
ange l</w>
. jpg</w>
An alyse</w>
imm obil
zu führen</w>
Konzentr ationen</w>
Ein satz</w>
D ire
Hyper t
zi denz</w>
bess er</w>
ausgesch ie
ett bewer
re ssion</w>
blei ben</w>
P lan
li p
i st
Rei he</w>
In hibit
Ben utz
Be ur
9 .</w>
8 -
off enen</w>
Ser vice</w>
y l</w>
Vir afer
Ne w</w>
b re
Me er</w>
schrei bung</w>
inte stin
5. 1</w>
og lo
sol che</w>
gin g</w>
la dy
H unden</w>
00 4</w>
d it
w in
ak ter
om e
ausreich end</w>
gil t</w>
vol l</w>
Kon tra
aktiv en</w>
ci en
Gesch ichte</w>
S P
vor her
d op
K ol
la s</w>
vermin der
la r</w>
el o
fi l</w>
gen ie
ir gend
R olle</w>
kt s</w>
kti ve</w>
Parla ment</w>
bestimm ten</w>
G ei
tri fft</w>
Sonn tag</w>
ge tr
Ä US
1 .0
R ö
7 7</w>
sil via</w>
lady silvia</w>
verschie dene</w>
w äre</w>
ÄUS SER
B la
si erung</w>
wirk sam</w>
Z wei
E R</w>
t a</w>
den k
-------- --------
Do x
Wirk stoff
sch lu
p rei
ie b</w>
gu te</w>
Z ell
sch ön
Tele fon</w>
ap hy
lich keits
sy mptom
ri p
Ph ot
Gro ß
verursach en</w>
b ald</w>
ir e</w>
su ch</w>
UM H
t ten</w>
schaft liche</w>
Leber funktion</w>
Unser e</w>
än dern</w>
Sp iel</w>
hoh e</w>
Ü ber</w>
Ein heiten</w>
begin nen</w>
Energ ie
Gewich ts
vor über
se chs</w>
Ba yer</w>
Ü LL
Ma l</w>
ausgeschie den</w>
wer k</w>
UMH ÜLL
art on</w>
un mittel
Z we
Ç á
ar t</w>
kon tra
d rit
Durch fall</w>
Soft ware</w>
AT I
10 -
sch utz
Beh ör
lä sst</w>
fün f</w>
empfohl enen</w>
er wachsen
lau t</w>
P osi
c -
S tre
ati sche</w>
Sch utz
m ulti
f li
gr und
li ert</w>
st ungs
Bre akfast</w>
Bel gien</w>
b lin
UMHÜLL UNG</w>
p ä
Ant wor
E- Ma
Y o
O lanz
Arz tes</w>
z eb
ad in</w>
haup ts
M ehr</w>
Th ema</w>
Imm obili
fol gen</w>
ä d
Anwen dungs
G i
su s</w>
gelei tet</w>
auf zu
To ur
stan den</w>
be finden</w>
sch i
durch schnit
Son nen
S ul
W IR
be ginn</w>
Sch ü
di gen</w>
i elt</w>
z eh
a v
st eu
Ent scheidung</w>
F r
erfol gt</w>
or e</w>
mäß ig</w>
mittel s</w>
pers ön
kla r</w>
L on
St unde</w>
unser em</w>
besch rieben</w>
ster n</w>
Dru ck
Ur in</w>
ol -
9 3</w>
Sp iegel</w>
alt ungs
con azol</w>
ell es</w>
u x</w>
s weise</w>
Lei t
Sch utz</w>
8 5</w>
c in
s on</w>
Bli ster</w>
Dat um</w>
ar at</w>
K u
Ar chi
stü tzen</w>
ent nehmen</w>
wich tig
Hypert onie</w>
D in
Zentr um</w>
stü ck</w>
so gar</w>
pri v
ch er
c tion</w>
St ell
au ßerdem</w>
Nieren funktions
des halb</w>
Fa mili
a x</w>
it abin</w>
Nahr ungs
T V</w>
ad s</w>
le sen</w>
Lang zeit
au ßer
Chemo therapie</w>
Pla tz</w>
we sent
Cal ci
D u</w>
Jahr hunder
ink l</w>
g ie</w>
3 .</w>
Span ien</w>
f rie
Hum alog</w>
Al u</w>
Ba de
B rü
n ungs
un abhängig</w>
ele ktr
Sit u
A sth
ss e
Stu di
A ktu
tran splan
In zidenz</w>
Mü digkeit</w>
E fa
Efa vir
erkl är
Empf eh
Li ste</w>
Blut druck
8 9</w>
allerg ische</w>
kt uren</w>
körper chen</w>
sch u
Vir us</w>
K lin
be mer
I G
ent an
F ähigkeit</w>
ber g</w>
Metfor min</w>
ti ons
I X</w>
ab le</w>
L a</w>
Blutzuck er
tre x
G leich
ter e</w>
us -
S h
Blut körperchen</w>
18 0</w>
Aktiv itäten</w>
j ahr
Ent fer
Richt linie</w>
7 9</w>
B ü
og lyk
Ge tr
Allgem einen</w>
ber ücksich
w ahl</w>
b ruch</w>
kur z
ne u</w>
An gebo
7 8</w>
ähn lich</w>
H and</w>
mil ie</w>
redu ziert</w>
astro intestin
Re gel</w>
raz ol</w>
tr o</w>
Fin anz
haupts ächlich</w>
ab gesch
c yc
m alen</w>
n ichts</w>
spiel en</w>
Inter e
9 2</w>
k er
ständi gen</w>
Stör ungen</w>
p sych
Fahr zeu
Wis sen
Sicherh eit
p en
rich ten</w>
R ot
h ier
Häu fig</w>
C re
w er</w>
c an</w>
vi gil
dat um</w>
Eigen schaften</w>
ma to
kap pe</w>
oni sten</w>
stell ungen</w>
chni k</w>
be achten</w>
at s</w>
St är
kar zin
be züglich</w>
Op ti
Mahl zeit</w>
i c</w>
ch ar
F rie
ÄUSSER EN</w>
Fa ktor</w>
Mitt wo
mö gliche</w>
sp an
P il
n it
D L
ri x</w>
erfol g
her gestellt</w>
Öster reich</w>
Krank en
bi li
H af
ver lust</w>
Änder ungen</w>
König reich</w>
Fran ce</w>
Wel t
rea ktionen</w>
I de
Wachst um
W ort
mil ch</w>
zusätz lich</w>
ti v
Au ff
norm al
c ation</w>
Un ter</w>
st -
dar an</w>
Ver hältnis</w>
mittl ere</w>
wirk lich</w>
aus sieht</w>
Re produ
or din
Do wnlo
ver y</w>
fi ziert</w>
A HR
trop in</w>
Mittwo ch</w>
ber ech
hel fen</w>
m er</w>
H AN
er st
gesam te</w>
on a</w>
I V
f al
w le
prü ft</w>
co xi
Tran s
au tom
in fo</w>
ange gebenen</w>
spä ter</w>
er möglich
her r
li eren</w>
o ti
wirk en</w>
bei spiel
ie fer
l ös
hy l
f ris
tz e</w>
am p</w>
ne g
zusätz liche</w>
be kommen</w>
M IN
ic in</w>
schließ end</w>
stän de</w>
rich tungen</w>
wei st</w>
AU F
z .</w>
li g
An g
E M
b la
kombin an
G -
4 0
ts zeit</w>
st he
mm ent
we sen</w>
geh ö
re tr
Do c
S an</w>
hi stor
Z imm
we ge</w>
Bli ck</w>
Anti bio
p l
alisi ert</w>
k ämpf
Qu al
all y</w>
ah n</w>
or alen</w>
öffent lichen</w>
Ber at
Ret ard
dan ken</w>
Gele gentlich</w>
O ff
u spension</w>
geeig net</w>
an ge</w>
Medi kam
N ation
Substan zen</w>
Pharmako vigil
ab sol
be w
ak teri
h u
nicht -
Cipro floxacin</w>
Ges ellschaft</w>
Str u
mo d
gehö ri
zu mab</w>
ris e</w>
Olanz apin</w>
R en
Ger many</w>
z z
anzu wenden</w>
ssi on
ti erung</w>
Arthr itis</w>
gehör en</w>
c ep
ver antwor
vollständi gen</w>
C D
ver wen
Inter national</w>
8 3</w>
deut lich</w>
He mmer</w>
Efavir enz</w>
0, 9</w>
O -
veränder t</w>
ti e
Mus e
Plas ma</w>
Re gel
I F
D em
Dar über</w>
dy na
G ut
a zi
Lac to
8 8</w>
wä che</w>
CYP 2
Bel gi
Natri um</w>
ger ade</w>
prol og</w>
Li prolog</w>
R is
län ger</w>
Injektionss uspension</w>
T E</w>
K ün
G li
te mperatur</w>
ox etin</w>
stü chtigkeit</w>
Lie fer
o ft</w>
bis her</w>
per ip
bedin gungen</w>
retr ovir
ger t</w>
sen k
Herr n</w>
l lt</w>
em b
pass t</w>
M yo
Her steller</w>
Anfan gs
ul o
kon nten</w>
Flug hafen</w>
E tik
selten en</w>
Dosier ungen</w>
yo ur</w>
erh eb
blei bt</w>
P D
M ie
199 7</w>
Por tu
Ver ringer
8 2</w>
sp ir
lu si
c u
Mitarbei ter</w>
be tei
pu bli
Hyp ot
Verkehr stüchtigkeit</w>
benö tigen</w>
AHR EN</w>
L eben
man n</w>
Kombin ation
Neutrop enie</w>
g ül
S IE</w>
Li mi
N r.</w>
9 4</w>
Kontr oll
Mö glich
op o
Antik örper
fall en</w>
r et
erwar tet</w>
ser vice</w>
M is
s au
Hy po
T ieren</w>
Häm oglo
al tung</w>
flu enz
F L
am eter</w>
En zy
se con
öff net</w>
v el
gewähr lei
D E</w>
k e
sti llen</w>
Plasma konzentrationen</w>
W O
f ähigkeit</w>
li erung</w>
An teil</w>
Zu kunft</w>
str um
ich ten</w>
regelmäß ig</w>
n ie</w>
L auf
kon tin
kt or
Blut gerin
z t</w>
b ein
16 0</w>
mar k</w>
an zi
ges a
Fe st
A n</w>
en des</w>
di oxid</w>
o .
sich t
en er</w>
je des</w>
12 -
ve d</w>
au en</w>
L icht</w>
ma t</w>
in avir</w>
0 .0
Bestand teil</w>
K ri
P at
Mutter milch</w>
Gew icht</w>
x -
ge t</w>
9 0
rei z</w>
ger e</w>
Lami vudin</w>
si en</w>
j ahr</w>
N ex
Eli min
o ut</w>
wa gen</w>
ten t</w>
komp let
H Ä
A dre
M ach
n -
Bil der</w>
zwei te</w>
ser v
A B</w>
kin g</w>
C li
sel ben</w>
rit ten
Untersuch ung</w>
de m
zier ung</w>
e u</w>
V ari
W ettbewer
Dosier ungs
I M
K olle
gro ß
Ab nahme</w>
B un
H C
sach e</w>
Par k
ausge stat
ACH TEN</w>
ermöglich t</w>
D r.</w>
Entz ündung</w>
anti retrovir
zier te</w>
er fü
do sen</w>
Ch e
wäh len</w>
ri g
T au
R O
Mar kt</w>
re ssi
gele gentlich</w>
ari a</w>
k ür
Beur teilung</w>
Pri v
T ru
DE ST
Restauran t</w>
hi li
Pla zeb
Bewer tung</w>
Prei se</w>
lan gen</w>
Ne ur
ger en</w>
D or
A X
ma teri
Metaboli ten</w>
ver länger
Limi ted</w>
pri m
fizier ten</w>
beg onnen</w>
Gra d</w>
Sta aten</w>
Ab setzen</w>
in t</w>
jen igen</w>
oten ti
MIN DEST
c ts</w>
Fa milie</w>
ähn liche</w>
x is</w>
wen ig</w>
re kombinan
Europ e</w>
ein zunehmen</w>
unterstütz t</w>
beispiel sweise</w>
g o</w>
8 6</w>
Sch mel
ne um
sol chen</w>
CV MP</w>
ru fe</w>
pharmakokineti schen</w>
Ba sis</w>
MINDEST ANGABEN</w>
ba ck</w>
Veränder ung</w>
Verringer ung</w>
Kon fer
ord net</w>
ä r</w>
Um k
zu vor</w>
Un ser</w>
spro chen</w>
h en
d al
di r</w>
Sch we
Län der</w>
ver w
sa gte</w>
Be we
ver öffentlich
Fol ge</w>
k tes</w>
Lux em
schlä ge</w>
hy th
sa gt</w>
äch st</w>
n ü
b ele
ad a</w>
4 .</w>
Ander e</w>
natür lich</w>
or ale</w>
ni b</w>
St at
M R
gan zen</w>
O ste
Behör den</w>
an a</w>
Auf ent
gener ated</w>
empf ahl</w>
e ar
r .
Proje kt</w>
ti ges</w>
sor gen</w>
Bo o
arzneimi ttel
tro ck
St o
s mus</w>
stell te</w>
Grö ße</w>
verfü gt</w>
ts eite</w>
00 5</w>
vergleich bar</w>
Geb rau
Ver länger
ut zen
gelan gte</w>
sch e
6 0
dan ach</w>
unter stützen</w>
Ä r
ass o
13 .</w>
Woh nung</w>
Hypot onie</w>
de -
i de</w>
fre und
S oll
geb aut</w>
Geb äu
Ter ra
gra stim</w>
p op
dia tr
Zu gang</w>
vor gesch
St elle</w>
hal t
an g</w>
Vor sichts
it al
S im
00 7</w>
eme a.
PR O
teil te</w>
An forderungen</w>
gelö st</w>
auf nahme</w>
S en
Windo ws</w>
kontra indiziert</w>
00 8</w>
Patient en
Ergeb nis</w>
oh y
top enie</w>
8 1</w>
H unde</w>
f s
T ur
H ü
in fe
G ruppen</w>
di tion
S at
BE HÄ
T A</w>
Schmel z
N et
gan ze</w>
TE L</w>
Ein ige</w>
lich em</w>
Te va</w>
IS S
N ad
erwachsen en</w>
Überempfind lichkeits
B or
sch utz</w>
F on
l osigkeit</w>
LT N
w n</w>
er zeu
verringer t</w>
taz on</w>
ru fen</w>
Human arzneimittel</w>
Co de</w>
unver züglich</w>
Hin blick</w>
Tier arzneimittel</w>
M IT
BEHÄ LTN
dro h
c el
fach en</w>
U L
St off
SS EN</w>
Hydrochlorothiazi d</w>
Inter net
c or
Aussch u
ti ko
0, 3</w>
unerwünsch ten</w>
ch ungen</w>
kauf en</w>
Rich tung</w>
secon ds</w>
b ri
sti mmen</w>
Hyp oglyk
Ge f
M ün
Ju ck
sti sch</w>
ö se</w>
S äu
d l</w>
ven tion</w>
M an</w>
Re cht</w>
8 7</w>
Kli ma
indi gkeit</w>
c ap
g a</w>
Lös ungen</w>
Produ kt
An gaben</w>
D rit
l eu
or aler</w>
V oll
C ep
o d</w>
Höh e</w>
y n
e ffe
d oppel
la den</w>
Spiel e</w>
H ome</w>
f ac
wi k
den ti
- 20</w>
ko sten</w>
Herzin suffizienz</w>
erken nen</w>
Überempfind lichkeit</w>
z ungen</w>
inji ziert</w>
7 ,5</w>
me chan
An sicht</w>
Produ ktion</w>
v is
Einzel dosis</w>
BE W
Is ra
di schen</w>
F ör
H all
Ver ein
Er fol
Re konstitu
f iger</w>
Ver fall
maxi male</w>
b us</w>
in tr
H am
Wort laut</w>
C R
Ba d</w>
kla ssi
G l
P op
Dy sp
Getr än
fäl len</w>
a ff
E V
m änn
ber eit</w>
0, 1</w>
h aus
op athie</w>
Kü che</w>
orm on</w>
Patr onen</w>
w elt</w>
Än derung</w>
le xi
lo g
niedri ger</w>
Nach t</w>
Z w
Kir che</w>
Lan sop
www. amarilla
ali a</w>
sonsti ge</w>
al ter</w>
N ur</w>
cro li
Wirk stoffe</w>
Ko sten</w>
aphy la
de d</w>
wer k
In formieren</w>
Dienstlei stungen</w>
Patr one</w>
Hu man</w>
leich ter</w>
c ra
Um gebung</w>
Juck reiz</w>
bwer tszeit</w>
Te st</w>
el en</w>
N S
Be such
WEN DE
Tum or
en an
alisi er
WIR D</w>
FOR M
an s</w>
sy n
Alumini um</w>
eben so</w>
p it
zy ten</w>
hö here</w>
Zu griffe</w>
a mi
entsprech enden</w>
da ys</w>
ss el</w>
Star tseite</w>
C lo
n utzen</w>
Da bei</w>
An sprech
verab reich
Sal z
G R
d rin
Unterschie de</w>
Sel bst
n ö
be deut
ANG E
erhöh tes</w>
hydro xi
Ob je
In nen
ell eicht</w>
geb iet</w>
ten s</w>
Lymp h
gerich tet</w>
ktiv en</w>
al og
trä glichkeit</w>
BEW AHREN</w>
er teilen</w>
V I
V OR</w>
wo für</w>
A z
sp rä
Doc eta
gesch ritten
M ein
V .</w>
fel d</w>
Prä par
N atur</w>
le men</w>
c to
Wo für</w>
ot ox
C ell
D C</w>
ff er
7 6
Schwell ung</w>
t an</w>
N atur
tin g</w>
Flüssi g
abili tät</w>
häu figer</w>
Sch mer
wei ße</w>
d y</w>
199 9</w>
de pre
il ep
überwie gen</w>
da durch</w>
Pack ungen</w>
ov askul
Pe g
K rie
ZU BEWAHREN</w>
E C
jewei ligen</w>
Fin an
o mmen
sp on
ma s</w>
Auf nahme</w>
entsprech ende</w>
nah m</w>
K et
2 2
Ka tegor
T r
AUF ZUBEWAHREN</w>
ver sagen</w>
a x
Um welt
zeich nungen</w>
j ün
z ahlen</w>
Betr acht</w>
12 ,5</w>
han den</w>
dip in</w>
i mp
Blister packungen</w>
Geb iet</w>
Stand ard
asso zi
S U
12 5</w>
Komp on
Effe kt</w>
Lon don</w>
Ferien woh
K enn
WENDE T</w>
ös er</w>
m ein</w>
- F
Musi k</w>
s -</w>
V IR
W ich
Ur lau
zen t</w>
M Ü
enk ung</w>
T or
ho ch</w>
Portu gal</w>
a sta
hei m</w>
se x
betei li
Fer n
hal ts
ban k</w>
00 6</w>
po st
Kreatin in-
lie genden</w>
ANGE WENDET</w>
N utzen
geb ie
m g-
f är
ation s</w>
Schrit t</w>
R an
gel iefer
da p
Besch werden</w>
S IN
wel ches</w>
Lt d</w>
ent u
in a</w>
z a
an -
li ge</w>
ra t</w>
di gt</w>
x o
welt weit</w>
et er
vor handen</w>
c re
mm ol</w>
Universi tät</w>
WO FÜR</w>
Par k</w>
mittel t</w>
MÜ SSEN</w>
or al</w>
op har
S eit</w>
t ar
ober en</w>
schw er</w>
C ro
up lo
n o</w>
nach dem</w>
F alle</w>
k le
Fun ktion</w>
äu ß
in ed</w>
D ig
Ko mment
Un be
1, 0</w>
n um
Be schreibung</w>
Är z
h n
frei en</w>
di um</w>
A Z
osi n</w>
u bli
x e</w>
in dex
I A</w>
Rau m
lö tz
BE ACHTEN</w>
E poetin</w>
4 4-
k ol
E-Ma il</w>
dop a</w>
wirksam e</w>
Aus wahl</w>
P r
S ar
th at</w>
TE L
k ationen</w>
rei che</w>
Dis k
fi ge</w>
Ge schw
P hosp
n eben</w>
ab gesetzt</w>
ma g
normal erweise</w>
prä sen
Kün st
us kul
1 1
p harma
3 9
il s</w>
lie fer
be stehen</w>
Kar te</w>
ger e
Web seite</w>
Ap art
c en</w>
Vorsichts maßnahmen</w>
F l
on line</w>
neh mer
K -
Injektionsna del</w>
ä sthe
S. A.</w>
verb un
ell a</w>
Zulass ung</w>
X -
O M
Be zieh
R om
L il
c eu
w under
ssy stem</w>
sch ränk
sch war
z on
Kin der
H inter
Flüssi gkeit</w>
Doceta xel</w>
Wachst um</w>
Ner ven
Kla sse</w>
teg ie</w>
intravenö se</w>
unmittel bar</w>
erken nung</w>
ger u
FORM ATI
om en</w>
tre ff
ich ts
sist enz</w>
K il
App eti
In vesti
gan gen</w>
Ha ar
Reg ierung</w>
al -
da te</w>
zier ten</w>
R in
T ür
bekan n
C I</w>
th eit</w>
D eb
r hyth
M und
fahr t</w>
su lin</w>
Umk arton</w>
Arbeits gruppe</w>
spra ch</w>
17 2</w>
stal tung</w>
Bil d
ci al</w>
Fertigsp ritzen</w>
bei de</w>
Kat zen</w>
rei fen</w>
ati v
ag o</w>
hö heren</w>
0 4
kün f
o d
L ehr
M än
a si
ti s-
Rep ubli
Nieder lan
Desig n</w>
sier end</w>
Rekonstitu tion</w>
L at
lin e-
Re mi
G ast
Sp it
To d</w>
con tent</w>
n ern</w>
Sei te
ot or
beeinflu sst</w>
st ück
au ßer</w>
Vir us
Ko mmuni
Wirt schafts
Z N
r ho
signifikan te</w>
Ver s
D eta
sch ach
fort geschritten
immobil i</w>
G re
B O
k lus</w>
Zu stand</w>
besch werden</w>
är z
vol umen</w>
sp rün
Se k
ap p
genan nt</w>
un i
us er</w>
Er n
E u
Anfangs dosis</w>
ier igkeiten</w>
Schwei z</w>
h and</w>
bemer ken</w>
Sch lä
auf rufe</w>
ri si
bedin gt</w>
zi p
Kl ein
tr ap
Anfan g</w>
han ta
signifikan ten</w>
wich tige</w>
pro t
en ze</w>
voll e</w>
ge änder
Kur z
N otwendi
U K</w>
far kt</w>
S ie
Be w
verfüg barkeit</w>
de ck
hy per
S enkung</w>
erlau bt</w>
Ser vi
we ch
k ons
Sp a
stat t
Fü hr
ein geleitet</w>
dar in</w>
b ut
Gesch ma
Seite aufrufe</w>
al em</w>
schrei ben</w>
c tion
Zei chen</w>
L og
A mer
geb rau
ov er</w>
wür den</w>
gemein sam</w>
tr ot
be s</w>
W ien</w>
te sten</w>
All er
ung sin
Ex per
beeinflu ssen</w>
G EN
mu ß</w>
erneu t</w>
Verw altungs
T al
lo ss
Gla s
V ie
ig h
vi tro</w>
sch mer
Jahr es</w>
Jo ined</w>
el -
s af
for men</w>
di ch</w>
wichtig sten</w>
el e</w>
C E</w>
Le t</w>
gegen sei
sp ort
Uni ted</w>
e st
Z e
gew is
drü ck
F alt
ungs -</w>
orm on
EP AR</w>
ssy ste
eigen e</w>
In -
G M
Pu bli
ver seh
at o
sich tig</w>
F en
K G</w>
Kreatinin- Clearance</w>
M änn
Redu ktion</w>
1 10</w>
S S</w>
brau chen</w>
M ulti
lang sam
aller dings</w>
K rei
do se</w>
z n</w>
verhin dern</w>
lich t</w>
r ati
sti e
din g</w>
selten e</w>
an ten</w>
wissen schaftlichen</w>
ter stat
la n</w>
str en
c us</w>
be ur
schri ft</w>
G ri
Unterschie d</w>
Par is</w>
Gä ste</w>
hin zu
P rin
gs am</w>
defin iert</w>
L is
ati enten</w>
si on
An erkennung</w>
4 9
P fer
g l</w>
coxi b</w>
geb ro
fe sti
stell ten</w>
k ali
ar en</w>
199 6</w>
stei gen</w>
A A
g al
Au ßen
pp en</w>
1 1-
therapeu tischen</w>
.0 9.
ceu tic
zun ächst</w>
tr ei
akti v</w>
sch ung</w>
Au ge</w>
R einig
Le vo
Dan n</w>
rech te</w>
b enen</w>
c al</w>
lin g</w>
B L
Um setzung</w>
kur z</w>
ausgesch lossen</w>
n s</w>
Adre sse</w>
ta ge</w>
Ob wohl</w>
Got tes</w>
Verlänger ung</w>
ass ung</w>
htt ps</w>
Oper ation</w>
wirksam en</w>
fahr ens</w>
ver bin
E bene</w>
Refer enz
so mit</w>
er ien</w>
Techn ologie</w>
M ei
6 .</w>
M on</w>
Amp ul
e d
Wel chen</w>
F eu
et ten</w>
gef ähr
C ol
intravenö s</w>
gefü ll
Tier e</w>
N A
Hep ati
ph ot
Prot ein
ren avir</w>
o k</w>
m einer</w>
kl ein
vie ws</w>
entwick lung</w>
lich erweise</w>
en det</w>
ver an
sti ll
subkut an
an lage</w>
Part ner</w>
Rau m</w>
Ch olester
id -
inte gr
in c
gele gten</w>
N icht
Zus ätz
j un
Ver antwor
a mp
p lötz
t nisse</w>
ne si
isch em</w>
P hanta
er a</w>
gew ünsch
fü r
Schlaf zimmer</w>
um mi
gew or
CYP3A 4</w>
AN WEND
C H</w>
ak zep
di ent</w>
pro p
geb il
tig te</w>
ständi g</w>
Sch il
ange passt</w>
rech t
gre l</w>
For mu
be zeichnung</w>
be glei
Syste ms</w>
Re sorption</w>
relevan ten</w>
17 1</w>
Spra che</w>
An sp
er teilte</w>
F entan
de cken</w>
Her zen</w>
Auf li
sitz t</w>
La kt
geb en
20 .</w>
p lus</w>
He mmung</w>
ten den</w>
st rie
Ta croli
off en
Spe zi
Ver tei
k um</w>
Deut sch</w>
ati sch</w>
sei ts</w>
Möglich keiten</w>
poli tischen</w>
sch ema</w>
0 30</w>
Situ ation</w>
Dan k</w>
a .</w>
Unbe denk
wer de</w>
oh n</w>
Aufli stung</w>
wei ßen</w>
Neben wirkung</w>
ur g
D r
Notwendi gkeit</w>
0, 6</w>
Inform ation</w>
T y
akti ve</w>
Stand ar
Di ar
empfeh len</w>
ogra ph
ak uten</w>
C ap
st es</w>
be zieh
O S</w>
ul e</w>
ra ten</w>
entz ündung</w>
neu er</w>
Falt schach
hoh er</w>
Mitglie der</w>
si erte</w>
fa s
stär k
mi scht</w>
auf geführt</w>
T é
p art
Ra tes</w>
k ü
G rie
Bio verfügbarkeit</w>
ex per
Zu bereitung</w>
Gesund heit</w>
gesch ichte</w>
Unbedenk lichkeit</w>
Dep ression</w>
B ot
xi mab</w>
aktiv iert</w>
verfüg baren</w>
Wel che</w>
Den n</w>
M -
S au
ange mess
War n
s ho
FORMATI ON</w>
ter t</w>
Wel ches</w>
Typ -
Gebrau ch
op hil
P ass
Gemein schaft</w>
5 .</w>
H än
Eis en</w>
Berei chen</w>
wirt schaft</w>
di abe
Lil ly</w>
ÿÿ ÿÿ
CH E</w>
sich ts</w>
Di agno
g igkeit</w>
L AN</w>
F ac
pra kti
d eln</w>
0 5
Sch o
Qual itäts
H it
Sch ä
ein führung</w>
at -
Kan ü
S ieh
lan gsam</w>
ti li
is tischen</w>
44- 20</w>
ti erte</w>
Aut om
Jugend liche</w>
edi a</w>
Y or
Insu man</w>
Dy s
met ho
tra gs
tä gliche</w>
Inje ktor</w>
R el
. V.</w>
ANWEND UNG</w>
Er weiter
J a
Ger ä
mi en</w>
si n</w>
num ber</w>
ch mal</w>
gre ssi
B as
St ellen</w>
Betr ieb
ohy drat</w>
frei e</w>
Risiko -
Part ner
Metho trex
äl ter</w>
S ig
ur g</w>
Yo u</w>
füh len</w>
näch ste</w>
kardi ovaskul
p otenzi
kontrolli ert</w>
o t</w>
ge messen</w>
0, 0</w>
Antwor t</w>
schwerwie gende</w>
sp ort</w>
D er
Versch lech
b le</w>
gesa gt</w>
fan g</w>
entschei den</w>
u ier
sor gt</w>
M ab
ger ne</w>
an o</w>
N ord
per fe
z in</w>
Vereinig tes</w>
zun eh
masch ine</w>
Th y
am eri
Effe kte</w>
Kun st</w>
vi tro
trans der
tik um</w>
fri gkeit</w>
ar ten</w>
sp eich
am m</w>
Mi o.</w>
Kombination stherapie</w>
Poli tik</w>
V is
W ahl</w>
ti va</w>
p ort
Nutz ung</w>
wäh lt</w>
sta at
wei ß
er reich
An trag
g lob
geh ende</w>
Po st</w>
Alkoh ol
st lichen</w>
Packungs grö
ck s</w>
m and</w>
F ri
4 6
19 .</w>
scha ffen</w>
kre bs</w>
mehr eren</w>
f r</w>
HI V</w>
chron ischer</w>
Men schen
di tion</w>
son -
Bei trag</w>
Hepati tis-
va sti
15 .</w>
Alumini um
Pun kte</w>
is tische</w>
Berat ung</w>
schü tzen</w>
Wirt schaft</w>
P au
C ef
ber icht</w>
k el</w>
Té l</w>
Terra sse</w>
Ar ten</w>
K O
Ver dün
el s
M ich
Nier en</w>
Sieh e</w>
Glu co
ver lässi
Retard tabletten</w>
B ron
Ver brau
Chin a</w>
Hu sten</w>
drei mal</w>
wer ten</w>
Man n</w>
Verschlech terung</w>
ti erten</w>
f ran
we en</w>
Markt einführung</w>
Hämoglo bin
0, 4</w>
to x
Säu g
K oh
Nahr ung</w>
am uskul
Str and</w>
Schlä frigkeit</w>
Symptom en</w>
re g
PV DC</w>
Tex t</w>
vor liegen</w>
Um ständen</w>
Chr ist
ter v
E W
Te am</w>
ein gestellt</w>
besteh enden</w>
U p
Bauch schmerzen</w>
V a
Eis en
M yc
günsti ge</w>
Mon ohydrat</w>
ander es</w>
Gesund heits
H D
E S
eng masch
H imm
ar tige</w>
pä diatr
drü cken</w>
Ber ich
Man agement</w>
In strum
gra d</w>
phy si
et zen</w>
z ah
P ir
unterschie dlichen</w>
Su che</w>
F läche</w>
P ure
Com b</w>
da cht</w>
M und</w>
mp f</w>
uplo ads</w>
5 5
Ver gleich
Indu strie</w>
har n
Flüssig keits
Leberfunktions störung</w>
g .com</w>
Pro zent</w>
bil den</w>
H ir
ur sprün
den afil</w>
europ a.
C er
Empfeh lungen</w>
tor ic
k on</w>
mm s</w>
Kre u
D IE</w>
Regi str
rich tigen</w>
Zun ahme</w>
subkut an</w>
Da mit</w>
ü hr
c om
sel e
v il
Hin weis</w>
C han
f and</w>
ww w</w>
tr ig
inter nationale</w>
ne ur
feh l
neh men
Downlo ad</w>
hör en</w>
glei che</w>
Energ ie</w>
Unter kunft</w>
u g
dosi s
i mmun
b -
ic on
z ir
un e</w>
l d</w>
kul tur
d. h.</w>
P fi
v in
S and
Forsch ung</w>
Her aus
Ver öffentlich
- An
mar kt</w>
Phanta sie
Inform ations
Ma ss
c am</w>
.0 8.
In te
Be zeichnungen</w>
sp richt</w>
p an
Indi kation</w>
E th
m ung</w>
So zial
Anzei ge</w>
Entz ün
M A
fa ssen</w>
le cht</w>
Ori gin
Entwick lungs
maxi mal</w>
P E</w>
Be obach
c ol
oxi zität</w>
Datei en</w>
te st</w>
ange geben</w>
rich tig</w>
B ahn
4 7
ch ro
europa. eu</w>
w and</w>
Verfü g
UNG S
Par ameter</w>
Ko ordin
In din
si d
off izi
lit us</w>
EN D</w>
stimm t</w>
W ein
G lau
unter nehmen</w>
Ins el</w>
Bei m</w>
al s
au th
gan genen</w>
In fluenz
dür f
Gel enk
g ol
lar it
.... ..</w>
Verfall datum</w>
mi th
klin ischer</w>
Z ido
Tages dosis</w>
ausgestat tet</w>
ne ss
A min
be we
mensch lichen</w>
ver pflich
l eben
A l</w>
Phantasie bezeichnung</w>
Dokum ent
Intere sse</w>
O cto
s ü
In nov
syste mische</w>
nah e</w>
Anweis ung</w>
sicher zustellen</w>
e a</w>
Plazeb o</w>
f ot
Mie t
B ri
12 ,
da ted</w>
f et
Mahl zeiten</w>
voll en</w>
Tit an
si tz</w>
vor gefüll
vor gesehen</w>
om y
er sch
.0 5.
wäh l
T at
o s
l l</w>
Früh stück</w>
Konzentr at</w>
Inje ktionen</w>
Do ch</w>
st alt
kl are</w>
K er
9 9
geeig nete</w>
vi d</w>
Dien stag</w>
ophar m</w>
a mid</w>
wei b
pa ssen</w>
0, 0
sso ur
ä us
n t
ster s</w>
sich erh
mi p
phy la
völ k
St äd
Fre und</w>
bet ween</w>
verringer n</w>
is o
v o</w>
C lop
lo spor
at z
ol er
I so
b and
A spe
pla n</w>
C is
tig ten</w>
3 3
Be glei
hydroxi d</w>
ier e</w>
ver mie
P C</w>
Lie be</w>
Mut ter</w>
L or
Su n</w>
R A</w>
mel litus</w>
B ER
verk ehr</w>
Frank f
An frage</w>
D ol
schä tz
ur ie</w>
en ter
trä gt</w>
f lä
fort gesetzt</w>
I st</w>
Kon zep
Angebo t</w>
op hili
M L</w>
n den</w>
Republi k</w>
S un
Posi tion</w>
M angel</w>
re ag
kontr olle</w>
w p-
Vor schlag</w>
Kun den
K e
O T
star ke</w>
di ert</w>
u en</w>
Männ ern</w>
Clop ido
gebro chen</w>
Schw ierigkeiten</w>
Lt d.</w>
se ar
Thrombozy topenie</w>
e ffizi
Z ur
tr ic
om et
Pfi zer</w>
intravenö sen</w>
la st</w>
Mon tag</w>
d ge
re s
Nutzen -
Werk zeu
Se p</w>
Kor tiko
Vertr eter</w>
Gel b
Sul fon
metaboli siert</w>
lei chte</w>
Be dien
at or</w>
T ar
Qu elle</w>
8 .</w>
wen ige</w>
All erg
Feh ler</w>
tra gung</w>
no mmen</w>
schrei b
so fern</w>
Geh ir
er kan
Ausgangs wert</w>
7 .</w>
besonder en</w>
s eines</w>
pro vi
P ER
dar unter</w>
be zeichnet</w>
oly se</w>
L etz
wi der
isi ert</w>
wp- content</w>
ier ungs
Angi oten
Ins gesamt</w>
- 10</w>
sp h
verantwor tlich</w>
M IT</w>
poli tik</w>
Be stimm
k len</w>
rit erien</w>
Bun des
ru hi
an hand</w>
rin g</w>
Blut ungs
bil d</w>
Fil grastim</w>
lauf en</w>
er weiter
geb oren</w>
n op
Kan in
gen ehmi
for um</w>
Erfol g</w>
yl -
ma ß</w>
Gar ten</w>
lusi ve</w>
a tes</w>
Yor k</w>
fe ssion
ta x
europä ische</w>
ver zö
mi kro
p fen</w>
p ul
hr e
bekan nten</w>
al gie</w>
A li
ine ss</w>
intr amuskul
en digung</w>
wöch entlich</w>
Be darf</w>
etz ung</w>
er ungen</w>
zusätz lichen</w>
vi elleicht</w>
op fen</w>
Ver lauf</w>
R hin
8 0
Er de</w>
F isch
er fahren</w>
Prü fung</w>
ein mali
An mel
Män ner</w>
h eu
W er</w>
Ein stellung</w>
s day</w>
hydro gen
si eren</w>
wer t
da l</w>
0, 00
Far be</w>
us st
auf tritt</w>
ac e</w>
Substan z</w>
c .</w>
ver suchen</w>
gri ffen</w>
Ti tel</w>
Kul tur</w>
E HM
ri ch</w>
aktu ellen</w>
t au
pa ar</w>
ö sen</w>
r y</w>
ol e</w>
Ber g
kli cken</w>
Indin avir</w>
k -
lik ationen</w>
f -
Re ser
letz t</w>
ter min
E- mail</w>
stati stisch</w>
forder t</w>
tag onisten</w>
G ummi
a ktionen</w>
ver dün
Je der</w>
E v
Pharma ceutic
sozi alen</w>
Be endigung</w>
S E
völk erung</w>
M ar</w>
ein ger
aus schließlich</w>
S har
ali en
Ris per
Aufent halt</w>
Fol gende</w>
be droh
M B</w>
li kation</w>
le x</w>
ten de</w>
A C</w>
st ein</w>
stra h
Mer ck</w>
ma ßen</w>
Pro f
begrenz t</w>
wass er
Anweis ungen</w>
r ö
j o
Proje kte</w>
16 .</w>
Z i
w -
Per son
gewöhn lich</w>
Ent schei
medizin ische</w>
d drü
hal tigen</w>
stru ktur
Pra xis</w>
Ber u
ep tic
au t
üb liche</w>
au m</w>
o id
hal tungs
lang fris
fe ktionen</w>
überwach en</w>
The men</w>
ler nen</w>
gesch ütz
di agno
ihr es</w>
W al
H äl
Bar cel
en falls</w>
wir r
schrei ten</w>
Aut o
chron ischen</w>
vir us</w>
Kap sel</w>
tra dition
36 8</w>
Lansop razol</w>
u mp
t ats
gebor enen</w>
Natrium chlorid</w>
5. 3</w>
Mag nesi
ac tu
is men</w>
zeh n</w>
4 50</w>
ter s
met asta
T an
vor sichtig</w>
verbess ern</w>
ver mehr
7 0
O DER</w>
yp a
Rezep t
S ir
kon ta
ber t</w>
mittl eren</w>
bet t</w>
Restauran ts</w>
Kop ien</w>
Mit te</w>
än g
EN T
Vide o</w>
drit ten</w>
Inhibit oren</w>
Poly et
i .
niedri gen</w>
P sor
agem ent
ge plan
Sa mm
Ge schä
ger ungen</w>
mu si
K LE
Lo cation</w>
vol u
her aus
cyc lop
v an</w>
Ste ad
si li
Ern ähr
Ab ac
0, 8</w>
h ep
sex u
Nierenfunktions störung</w>
land s</w>
tra gs</w>
rich tige</w>
Isra el</w>
Sü d
W E
throm bo
p ur
Archi te
Kanin chen</w>
sk á</w>
be trifft</w>
N -
C T
behand el
ver schw
10 9</w>
re konstitu
el and</w>
r y
Levo dopa</w>
P neum
P ak
2 2.</w>
Mo du
Alkoh ol</w>
re publi
zei tig</w>
Lit er
Hypoglyk ämie</w>
ster oi
z ol
S D</w>
F O
enz o
Am lo
00 9</w>
Lin ie</w>
lin ks</w>
untersu chungen</w>
Titan dioxid</w>
prü fung</w>
t ü
0, 2</w>
On line-
be sitzt</w>
Grie chen
lei m
ST E
L eute</w>
o te</w>
An passung</w>
han e</w>
6 5
Gel d</w>
up dated</w>
Durch führung</w>
II I-
m ell
BR AU
Clopido grel</w>
Sa qu
la t</w>
Materi al</w>
cyclop edia</w>
o di
Empf ind
n es</w>
möglich keiten</w>
Mach ine</w>
Fot os</w>
17 .</w>
Co .</w>
Ro ad</w>
ö dem</w>
Ziel e</w>
s ar
f rüh
bestä tigt</w>
ander s</w>
g rü
7 5
a se-
Thrombozy ten
Aut o</w>
Psor ia
berei t
Behandlungs dauer</w>
hei ßt</w>
Län ge</w>
ma ps</w>
ausge prä
................ ................
Fort schrit
samm lung</w>
IN G
la gern</w>
N eben</w>
Er d
en cyclopedia</w>
ha se</w>
pro je
Urlau b</w>
Berei che</w>
H om
Lin ks</w>
gesch w
per sonal</w>
Ele ktr
Sk i
ch ir
stoff en</w>
rech ts</w>
K ab
sk a</w>
Prote as
de me</w>
rän kt</w>
Fil m</w>
hä tte</w>
V ene</w>
zu ge
zo gene</w>
oxi b</w>
en dar</w>
B ar</w>
B MS</w>
L ä
C Y
24 .</w>
ha ve</w>
Niederlan de</w>
Leber erkrankung</w>
zu gehöri
p ol
ig i
gei mpf
kor re
deut schen</w>
Ge fä
Ur tik
wä gung</w>
unerwünsch te</w>
Mitglie d</w>
W ol
öff nen</w>
st at</w>
Wa y
B ut
si sche</w>
Er klär
neu es</w>
er b
Blut ung</w>
ab en
actu ally</w>
rich tet</w>
norm alen</w>
begrenz te</w>
sti sche</w>
woh l
karzin om</w>
Inte gr
it us</w>
un zur
spezi ell</w>
GE BRAU
Su i
W un
kontin uier
erg än
berücksich tigt</w>
begin nt</w>
Fu ß
bre l</w>
gu ten</w>
p o</w>
Schwer e</w>
Geb ie
in fizierten</w>
elektr on
Urtik aria</w>
St and</w>
t at</w>
be halten</w>
Sp ei
Engli sh</w>
beeinträch tigt</w>
ti es</w>
is ationen</w>
V ar
Muse um</w>
St ei
En brel</w>
for dern</w>
Ac trap
W ell
spezif ische</w>
D el
IN EN</w>
Ge fü
gar anti
mit glie
wass er</w>
rä ume</w>
eh e
Placeb o-
An i
s eu
sor gung</w>
emea. europa.eu</w>
Zido vudin</w>
A v
Krank heits
verschie den
25 .</w>
t .</w>
her aus</w>
Indu strie
Re v
beg rü
Be schäf
J an</w>
kar die</w>
sp art
wirksam er</w>
Ber ichte</w>
Be ein
Verk ehr</w>
De x
vor gelegt</w>
ein er
kan ischen</w>
Bür ger</w>
re versi
schränk ung</w>
Arbei ten</w>
Tei le</w>
A b</w>
Joh an
di g</w>
ander em</w>
Ver ordnung</w>
reich ungs
F arb
Stra ße</w>
steh enden</w>
Par kin
Her z</w>
s at</w>
FL AS
0 10</w>
an halten
Ab bildung</w>
TI K
g ation</w>
Hal bwertszeit</w>
Lu ft</w>
randomi sierten</w>
T ach
an te</w>
zäh len</w>
Kommi ss
Disk us
bau en</w>
de uten</w>
kar te</w>
he mmt</w>
alisi erten</w>
ob wohl</w>
gerin ge</w>
sp ru
em in
B l
ma r</w>
ei m</w>
H or
c e-
AS S
18 .</w>
gi g</w>
s .</w>
cal endar</w>
Antrag steller</w>
DE S</w>
Gebäu de</w>
ra dio
Kat alog</w>
P y
ro ten</w>
brin gt</w>
sp a
schw ier
erhöh ter</w>
z lich</w>
ce .com</w>
kti v</w>
Berich terstat
Kali um
P lus</w>
D V
c en
Rück en
qu alität</w>
b rü
bar er</w>
vitro -
St ati
ck -
be dienen</w>
men te</w>
B ab
Ap r</w>
Leu ko
Ra di
enk or
Faltschach tel</w>
an gen
k rei
Sub stra
Pun kt</w>
regi on
ä ure</w>
depre ssi
w e</w>
gel ass
N ich
E G</w>
h or
in tensi
c le
Le sen</w>
3 4
a .com</w>
C op
Gebrauch sin
kauf t</w>
lospor in</w>
i f</w>
pa ssi
ge folgt</w>
Lin k</w>
kün fte</w>
lo sen</w>
Ein führung</w>
Octo ber</w>
F ru
Rezep tor
m l-
wle d</w>
Way back</w>
Je sus</w>
cra wled</w>
Met er</w>
äm lich</w>
Aus schlag</w>
Antibio tika</w>
KLE INEN</w>
ein deu
genie ßen</w>
An träge</w>
s .com</w>
index .php</w>
Besuch er</w>
S A</w>
Mein ung</w>
gi gen</w>
am e</w>
gemeinsam e</w>
it al</w>
N at
S ho
Re chte</w>
ar in</w>
För derung</w>
A r</w>
b lu
b lau
Mi x</w>
pre ss
Glu ko
üh m
qui val
Gefü hl</w>
Calci um
CYP2 C
rea ktion</w>
spezif ischen</w>
ar teri
Verfüg barkeit</w>
dom in
su che</w>
gewährlei sten</w>
y a</w>
nei lich</w>
stat tung</w>
L D
Fla schen</w>
aufbewahr en</w>
si sten
F ab
Z ahn
aus gesetzt</w>
DL L</w>
Schwer e
stalt ungen</w>
S ohn</w>
B ack
m o</w>
Te st
k no
gegen wär
A F
le gt</w>
am o
entfer nen</w>
Sch lü
in a
u ti
ver stän
Patient eng
le gung</w>
C lu
syste mischen</w>
n ämlich</w>
glich er</w>
D emo
S elten</w>
Kategor ie</w>
in stal
Di ure
Kra ft</w>
Methotrex at</w>
mäß iger</w>
einzi gar
Ti me</w>
Leberfunktions störungen</w>
Ver stop
Häl fte</w>
Auf gaben</w>
War enkor
spiel e</w>
Mün chen</w>
ot oxizität</w>
AL T
Ge setz
el li
g astrointestin
spiegel s</w>
m einen</w>
W ort</w>
verfü gen</w>
on om
e se</w>
Öff ent
verein bar
gro ßer</w>
Griechen land</w>
Frankf urt</w>
Bu ch
Auf gabe</w>
gel ten</w>
M IR
tro cken
Gef ahr</w>
alt h</w>
C D</w>
Bade zimmer</w>
P sych
is e</w>
in -</w>
Ko sten
Lux us</w>
ba d</w>
ge stal
ge mischt</w>
Pharmakovigil anz
redu zieren</w>
W ander
N ot
mi scher</w>
t nis
g sp
Norm al
ti l</w>
Rap id</w>
so bald</w>
Zus atz
Verk auf</w>
norm ale</w>
th em</w>
g on</w>
Hu mi
A ir
ver ordnet</w>
E ff
entz ün
Bu chung</w>
An aly
A tri
kurz em</w>
Warenkor b</w>
L en
d un
rati opharm</w>
a ger</w>
Na sen
gesch ä
ent halten
N el
Plasma konzentration</w>
Ru ss
a gen</w>
Nahrungs mitteln</w>
v ac
In stall
V E
gen ü
Steu er
Virafer on
2 1.</w>
S af
verab reichen</w>
A I
R ati
Stär ke</w>
es p</w>
Ab schluss</w>
Kra mpf
Per sonal</w>
Kul tur
G lob
da m</w>
j ungen</w>
e an</w>
alisi erte</w>
hau t</w>
Hartkap sel</w>
An ge
erh af
schö nen</w>
er möglichen</w>
Jahrhunder t</w>
Ne sp
30 -
Me er
vermie den</w>
be hör
e qu
AR T
Ver lust</w>
w .</w>
ger ä
co mm
R eb
Prot ein</w>
Gebrauchsin formation</w>
D ro
di erung</w>
Haus halts
d ge</w>
C e
olog isch</w>
Mehr fach
Re ssour
oli tik</w>
hin ter</w>
an schließend</w>
hydro chlorid</w>
Ver wenden</w>
Überempfindlichkeits reaktionen</w>
Q U
Kontra zep
2 4-
phyla xe</w>
lok alen</w>
hän gt</w>
all en
Vil la</w>
hal tige</w>
t le</w>
Leit linien</w>
Pro p
Wi der
Ket o
Sek unden</w>
betr achtet</w>
rech ter
o gen</w>
inter e
S oli
Wich tige</w>
Po st
Schil ddrü
Ter min
tex t</w>
an aly
an genommen</w>
ie ben</w>
redu ktion</w>
Tier arzneimittel
AT E</w>
Fun ktionen</w>
Barcel ona</w>
stra ße</w>
Ge sichts
Comp uter</w>
gesch a
ästhe sie</w>
Ein mal
al te</w>
auf weisen</w>
D rei
14 .</w>
Pf le
ren nen</w>
Gut achten</w>
b ul
Famili en
m ul
wa y</w>
i er</w>
aktiv ität</w>
auf tret
b l
sk eptic
Stad t
Ery thr
pun kte</w>
gerin ger</w>
ü hren</w>
c s</w>
Um welt</w>
Tran splan
4 4
de ckt</w>
BEHÄLTN ISS
S at</w>
N R
a tri
star ken</w>
sep ar
Wir d</w>
z es</w>
allgem einen</w>
drü ckt</w>
c et
prob leme</w>
trans fer
Te chnik</w>
Jahr es
nation aler</w>
Rei se
pädiatr ischen</w>
zu gän
über prüfen</w>
Fir ma</w>
h ie</w>
sear ch</w>
b akteri
M ig
I V</w>
zentr um</w>
techn ischen</w>
Ver träglichkeit</w>
Komment are</w>
mal ig
A T</w>
zu ständigen</w>
er ie</w>
it zen</w>
n i</w>
Risiko s</w>
Spiel er</w>
Sa ved</w>
ogen ität</w>
Metho de</w>
vor hand
Bet ei
blo ck
inter ess
Ver halten</w>
krank heit</w>
er ster</w>
Leber -</w>
arz neilich</w>
R ate</w>
la ss</w>
ev entu
f tung</w>
cien ce.com</w>
Organ isation</w>
medizin ischen</w>
ex a</w>
Ausschu sses</w>
zei chen</w>
C ic
spezi ellen</w>
x 1</w>
gin a</w>
d om</w>
se e</w>
Vi a</w>
Da zu</w>
größ ten</w>
ts or
Sp ort
Proje kt
st aus
erzi elt</w>
wirt schaftlichen</w>
Ver b
Din ge</w>
Peg Intr
P RE
Amlo dipin</w>
kti eren</w>
AR ZN
Te sts</w>
GEBRAU CH
skeptic als
Tä tig
F ut
skepticals cience.com</w>
x a</w>
poli tische</w>
a k</w>
Ma xi
fü gen</w>
sch chen</w>
le i</w>
W et
Vol k</w>
Schwell ungen</w>
Th u</w>
rh eu
.0 7.
wich tigen</w>
mi erung</w>
W LAN</w>
einzi ge</w>
ge geben
ima ges</w>
geliefer t</w>
außer halb</w>
risi ko</w>
man chmal</w>
c an
so ur
ber ühm
0, 00</w>
isch en
zu verlässi
ra di
op or
Tacroli mus</w>
M isch
Stra tegie</w>
T rin
de mo
rheu mato
Produ kten</w>
ier ungen</w>
m i</w>
l yc
Fun ktions
i um</w>
akter ien</w>
h on
gen der</w>
Ver wirr
Bus iness</w>
om s</w>
g lu
Al tern
pro gra
an aphyla
M .</w>
Ver min
Syste m
M at
en dem</w>
at adin</w>
Kön ig</w>
fass t</w>
Ferienwoh nung</w>
B rei
tä glichen</w>
wä ss
tra l</w>
Abac avir</w>
Lei stungs
H ier
Tra in
PD F</w>
P ens</w>
hä mat
mi er
on en
Aller dings</w>
Krank heiten</w>
ra sch</w>
C E
Vereinig ten</w>
T hi
He mmern</w>
lebens bedroh
gemeinsam en</w>
N ic
Leber en
t uren</w>
Säug lin
p ap
durch zuführen</w>
B lä
A ID
geru fen</w>
phosp hat</w>
R -
Ver hand
ge halten</w>
nah me
B ran
L op
Verstop fung</w>
verhin dert</w>
Dru ck</w>
Ben ommen
K r
Zusätz lich</w>
größ te</w>
v al</w>
mitt ei
mi et
HAN G</w>
Tru dex
Stand ard</w>
Ly ophili
f eu
stru ktur</w>
fu sion</w>
ver hü
maxi malen</w>
er inn
Nieren -</w>
gefü gt</w>
il -
Ab hän
Bewe gung</w>
st ein
Europ ean</w>
ARZN EI
an wen
Plasma spiegel</w>
gel n</w>
fa ktoren</w>
hervor rufen</w>
ass e</w>
be an
Ka ffe
Priv at
f lich
Tä tigkeit</w>
geänder t</w>
geb unden</w>
ar a</w>
H P
glau ben</w>
Virafer on</w>
ver s
Anwen dungen</w>
CYP3A 4-
Benommen heit</w>
ex k
Angi o
fo vir</w>
beobach ten</w>
veröffentlich t</w>
erfolg reich</w>
us w.</w>
fähi gen</w>
Wirk sam
be treff
LE T
Schü ttel
Saqu inavir</w>
in folge</w>
6 9
oll en</w>
BEHÄLTNISS EN</w>
sich erung</w>
A X</w>
hin weise</w>
Ein richtungen</w>
V ater</w>
führ er</w>
Über ein
wie s</w>
An gele
Blut gefä
weiter er</w>
et c.</w>
bli o
sorb iert</w>
Aus scheidung</w>
Raum temperatur</w>
mei st</w>
Ham burg</w>
berei tet</w>
M äus
N E
J a</w>
Hand hab
ac t</w>
x in</w>
intraven öser</w>
C I
B is</w>
gerin gen</w>
Sit zungen</w>
k i</w>
R ä
Ge sicht</w>
R IS
J ap
Ober fläche</w>
- -</w>
fran zö
Bal kon</w>
k und
i x</w>
D ra
Atem wege</w>
AN HANG</w>
Injektionsna deln</w>
Geträn ken</w>
Himm el</w>
it s</w>
anti vir
sch ech
Allgem eine</w>
V e
te c</w>
kla sse</w>
benö tigt</w>
Krampf an
i sten</w>
vor her</w>
hol en</w>
jähr igen</w>
Lei den</w>
verbess ert</w>
plä tze</w>
199 5</w>
mo di
ve au</w>
ri t</w>
Em tric
ze ss</w>
DN A</w>
transplan tation</w>
lin k</w>
Hau tre
ci a</w>
niedri g</w>
In ve
Bew usst
me t</w>
Pla tt
Metaboli smus</w>
In spe
De c
Fol gen</w>
Ver bin
Aus maß</w>
z ent
Hal ten</w>
Me chan
Etik ett</w>
üb ri
kosten los</w>
Ver gan
ges ell
I g
h ungen</w>
do kum
be ste</w>
Sch ri
fü llen</w>
p .
lei stung</w>
ge wesen</w>
ier ter</w>
unser es</w>
Benutz er</w>
Ar an
un a</w>
di ge</w>
Klin ische</w>
zu gelass
zu frie
ation sp
betr offenen</w>
geb nisse</w>
Ne urop
ver sion</w>
gewor den</w>
E ssen</w>
Rö tung</w>
f ie
B AS
lei chten</w>
1 1,
E ss
um en
C ir
in nov
am et
Slo ven
In ner
Kre bs</w>
Du sche</w>
hrom ycin</w>
8 8
kri stall
P ac
28 .</w>
m einem</w>
Fr i</w>
- A
Gesch lech
B M
op en
stri bu
ar k</w>
prei s</w>
Verantwor tung</w>
Hau se</w>
ö t
nop f</w>
beteili gt</w>
gen au
Bel ast
B is
Ab en
Magnesi um
Bu ch</w>
id on</w>
Kar ve
Er haltungs
sch em</w>
Vit amin</w>
sorb at</w>
k ämie</w>
m y</w>
Ne w
kr et
erklär t</w>
eh er</w>
Al t
letz te</w>
tei en</w>
F lä
oxi cam</w>
R N
.0 1.
Luxem burg</w>
Su pp
K am
B I
To des
zu letzt</w>
kra ft</w>
trot z</w>
Ac et
be schäf
13 2</w>
spra chen</w>
th o
zahl reiche</w>
verminder te</w>
in je
ver trau
be gan
Sch u
rei b
wi d
ver stehen</w>
CH EN</w>
ent schie
Schla gan
Jul y</w>
Gei st</w>
erg ab</w>
sph äre</w>
A fri
Inter v
Stat us</w>
Betr ieb</w>
. g
her unter
Mark eti
D EN</w>
Feh l
St ück</w>
b eln</w>
C hi
b ot
Verw altung</w>
W äh
st ets</w>
n d</w>
supp ressi
ic al</w>
S mith
Poly sorbat</w>
kam en</w>
il er</w>
aufge führten</w>
Ó Ç
pf lanz
1 30</w>
Be völkerung</w>
gegensei tigen</w>
wel cher</w>
ken nen</w>
T hal
Be u
0 7
sin -
Ú É</w>
e ten</w>
Handhab ung</w>
haf te</w>
ein iger</w>
Al l</w>
l n</w>
Ab stand</w>
ver n
na me</w>
G en</w>
Çá ÓÇ
ein nahmen</w>
al tern
Çá Â
S PR
Europ as</w>
ÇáÓÇ ÚÉ</w>
ÇáÂ ä</w>
in en
im ent
li schen</w>
Vergan genheit</w>
fla sche</w>
ge kommen</w>
Pharmaceutic als</w>
T aus
man agement</w>
fre qu
Ep iso
Humi ra</w>
Su per
si tzen</w>
li tis</w>
P eg</w>
Nesp o</w>
wer tung</w>
ben utzen</w>
ab brechen</w>
. amarilla
Parla ments</w>
har mon
t licher</w>
B akterien</w>
un bedingt</w>
r is</w>
D AL</w>
off ene</w>
V o
vor schriften</w>
Vor beu
ku la
Produ ktions
29 .</w>
avir -
ober fläche</w>
Kal e
il en</w>
c y</w>
Wirk ungs
ima ges
US -
.0 6.
in hal
Aus stellung</w>
Packungsgrö ßen</w>
olo gien</w>
trä gen</w>
Te mperatur</w>
medi kam
g sten</w>
Mor bus</w>
f än
K line</w>
Ver fahrens</w>
Sch ön
.0 2.
bedin gte</w>
Mäus en</w>
Febru ary</w>
Son der
in formation</w>
an y</w>
ar chi
201 7</w>
spezi elle</w>
trop fen</w>
Pf lan
Mil ch</w>
mäß ige</w>
T O
ARZNEI MIT
ter in</w>
He alth</w>
wiederhol ter</w>
GM T</w>
di glich</w>
um ent</w>
W C</w>
Natrium chlor
Z it
SIN FORMATION</w>
0 6
rei se</w>
GEBRAUCH SINFORMATION</w>
i mpf
is on</w>
bele gt</w>
schön e</w>
lich keiten</w>
Vor bereitung</w>
über prüft</w>
Woh nungen</w>
Sp eich
Imp lan
Vor sitz
ein hei
Tat sache</w>
doppel blin
ho tel</w>
Al b
stop fen</w>
Entfer nung</w>
p ort</w>
00 00</w>
sti mu
in sulin</w>
sätz e</w>
Blutgerin n
N ie
S T</w>
s z
Regi onen</w>
A Z</w>
auf traten</w>
Har mon
vor genommen</w>
Natrium hydroxid</w>
di sche</w>
Fe sti
chir urg
lo ss</w>
Betei li
Fa ktoren</w>
de ta
ar tic
fäl lt</w>
i ka</w>
haf t</w>
ge te
gin ter
We d</w>
S C
zy ten
Kli cken</w>
gen heiten</w>
form ationen</w>
H ände</w>
si eben</w>
dosi s-
Je doch</w>
ol a
be darf</w>
h eb
gre ssion</w>
g la
Ma ße</w>
ger ing</w>
p .</w>
Be such</w>
entr e</w>
Jun e</w>
st ö
behand eln</w>
hoh em</w>
Myc op
ginter feron</w>
b rech
Unter nehmen
h a</w>
Geschw indigkeit</w>
sch wäche</w>
h ot
TI V
Emtric itabin</w>
ak u
C ity</w>
entwick elten</w>
Blutzucker spiegel</w>
re s</w>
K rä
H eute</w>
ab gebrochen</w>
pl atin</w>
0 2
zz gl</w>
War far
Go og
ven tion
Bo x</w>
ständi ge</w>
äu ßer
schn eller</w>
R osi
i -
Wachstum s
au ff
st y
li erte</w>
ta in
Appeti t
3 70</w>
el on</w>
is ti
fl äch
Men gen</w>
F S
le -
zuneh m
allgem eine</w>
Be dürf
Z YP
Viel e</w>
un t</w>
atin g</w>
ypa ges
Smith Kline</w>
tä ten</w>
C .</w>
Ärz te</w>
materi al</w>
Myo kar
an geboten</w>
Lacto se</w>
produ cts</w>
Novo Mix</w>
plä tt
Bestimm ungen</w>
zi g</w>
Haf en</w>
Vor icon
IST A</w>
ogra f
Grün den</w>
flü ssi
0 11</w>
ven ue</w>
ver mu
Vir en</w>
Pe ginterferon</w>
ec t</w>
For um</w>
schnit t</w>
men ge</w>
Fertig pen</w>
um arat</w>
über zeu
on ly</w>
frü her</w>
fil e</w>
xi zität</w>
og li
3 D
techn ische</w>
nah e
lu ss
V ier
Amin o
ic a</w>
Sta ats
Auf merk
Ang st</w>
H ör
Ju n</w>
En tsor
a den</w>
fär bung</w>
de f
Inter nationale</w>
Sch wäche</w>
y n</w>
H oh
AL T</w>
zun ahme</w>
top ic</w>
er mittelt</w>
Ab end</w>
Vorbeu gung</w>
No v</w>
Z ieh
ons äure</w>
Fon da
umfass t</w>
of ovir
Ten ofovir
We st
schw anger
3 1
k ö
geh enden</w>
dor f</w>
za ar</w>
u n</w>
Erweiter ung</w>
m s
30 .</w>
15 ,
So mmer</w>
Entfer nen</w>
ch ter
Ir eland</w>
b ür
hau t
gen ug</w>
produ ziert</w>
yl harn
Bezieh ungen</w>
er stellt</w>
T rit
Ju l</w>
am ne
T ablet
u de</w>
Pharma zeu
Ä l
Intr on
entschei den
par in
verpflich tet</w>
s ur
er ei</w>
P otenzi
p H-
Val sartan</w>
zugehöri ge</w>
k tro
Arbeit sp
Forsch ungs
stei gt</w>
f ir
Metho den</w>
hil ft</w>
Da durch</w>
Miet wagen</w>
at h</w>
T ie
Fonda parin
be endet</w>
J er
ge öffnet</w>
mpf e</w>
Sulfon ylharn
ver lei
völ lig</w>
zurück zuführen</w>
Kanü le</w>
Stör ung</w>
v ar
fin anzi
P L
in gen</w>
1, 2</w>
d eine</w>
Immun system</w>
1 40</w>
Ser ver</w>
Janu ary</w>
37 1</w>
h eben</w>
Be schwer
a gen
zäh lt</w>
mon at
Rosi gli
n de</w>
sp ielt</w>
S eine</w>
antiretrovir alen</w>
mö gen</w>
v es</w>
Mar ch</w>
größ er</w>
Blut plätt
do c
um gehend</w>
M ir
0 12</w>
nu mmer</w>
Fre m
7 7
CH F</w>
prob lemen</w>
kle osi
T rau
den -
sy s</w>
Engli sch</w>
Gemein de</w>
Pre sse
positi ven</w>
Na se</w>
ag lip
Sit aglip
Co mm
K au
al an
gi tis</w>
Mix 25</w>
2 10</w>
p otenti
t ie</w>
Lyophili sat</w>
S ehen</w>
Sach ver
Ne ws</w>
D än
u .
D O
sp r
b ahn
---------------- ----------------
bein hal
A pro
ein her
Sp ritzen</w>
II -
Ö deme</w>
Nation al
Nutzen- Risiko-
zu dem</w>
i den</w>
Ar m</w>
i denti
g ter</w>
lin e
fig ur
13 .
sicherh eit</w>
K riterien</w>
ly mp
Hol z
di kat
ver la
ni k</w>
Institu t</w>
pp e</w>
be treffen</w>
S ur
0, 7</w>
tä ts
ben utzt</w>
He mm
Lei stung</w>
abgesch lossen</w>
b rit
l eh
dosi er
Schmelz tabletten</w>
opro t
entsp rechen</w>
Schwe den</w>
Progra mme</w>
f ru
K I</w>
sel bst
b ru
d licher</w>
Se e</w>
M om
te chnik</w>
Aran esp</w>
k einer</w>
PACK UNGEN</w>
ges ellschaft</w>
histor ischen</w>
G astrointestin
an sprechen</w>
WEND EN</w>
leb t</w>
Pro phylaxe</w>
Warfar in</w>
e st</w>
ul l</w>
ge kenn
i k</w>
sich eren</w>
un kt</w>
g lyk
a st</w>
Prä gung</w>
lok ale</w>
Wo chen
wil l
Prüf ungen</w>
Trudex a</w>
Ma cro
be enden</w>
de sig
m ie</w>
P H
Tür k
durch führen</w>
rie benen</w>
pit ant</w>
republi ka</w>
Krei s
er enden</w>
M AR
unzur eich
unter schei
Gew ebe</w>
Kale tra</w>
männ lichen</w>
gebie te</w>
Leber insuffizienz</w>
hre f</w>
ba siert</w>
Novo Let</w>
üb licherweise</w>
mäß igen</w>
an nt</w>
Behandlungs beginn</w>
Wa sch
f alt</w>
bew u
Zwe i</w>
mor e</w>
geschütz t</w>
veränder ungen</w>
k es</w>
Fra ktion</w>
Mix 50</w>
p y
7 50
Ereig nis</w>
verringer te</w>
11. 2016</w>
0 3
L Y
0 9
möglich st</w>
le diglich</w>
Mod ell</w>
Ch il
olog ischer</w>
Myokar din
Tu e</w>
M au
g ü
H 2
r us
AM M
ä quival
nö tig</w>
komp li
Nad el
ction ary</w>
Sicherheit spro
. ch</w>
d d
Co zaar</w>
er niedri
E t
teil weise</w>
wer fen</w>
Be stimmung</w>
Viraferon Peg</w>
Apro vel</w>
Vol umen</w>
Russ land</w>
k eln</w>
RIS PER
Pi ogli
T l
13 ,
Serum -
bie ter</w>
m ep
pro gramm</w>
AC E-
pro fession
läu ft</w>
beeinträch tigen</w>
8 9
Beein träch
rau t</w>
at ment</w>
Inhibit or</w>
m ens</w>
Proze ss</w>
ha st</w>
HB V-
t um
gegeben enfalls</w>
dien st</w>
par k</w>
E D
AN ZU
ür en</w>
Neu e</w>
Amp renavir</w>
Ma ß
Impfstoff en</w>
Dec ember</w>
ANZU WENDEN</w>
l ä</w>
ma ß
Sch nit
bel ie
grö ße</w>
Kin g
Z al
aufge treten</w>
Se t</w>
Le v
Ma dri
Cic losporin</w>
la sta</w>
Wen den</w>
Fer tili
w ün
diagno sti
-F i</w>
h -
fer tigt</w>
größ eren</w>
For men</w>
positi v</w>
ot yp
mip ex
d s
8 5
Vor auss
therapeu tische</w>
schul e</w>
Prä sid
na l</w>
aufbewahr t</w>
arz t</w>
rü cken</w>
f lexi
eh em
bil dungen</w>
li mm
H öch
Häu fig
w al
G A</w>
Al ters
pharma k
rech ten</w>
Vol ks
Vor schriften</w>
a g</w>
h äm
Lacto se-
Ver teilung</w>
w eb
ons ul
Modu l</w>
Tl f</w>
Beu tel</w>
hydro xy
Über prüfung</w>
för dern</w>
Z ah
23 .</w>
ier tes</w>
.0 4.
onom y</w>
Son ne</w>
Kolle gen</w>
Tei len</w>
Mini ster
hy drat</w>
Gla xo
gebil det</w>
an gen</w>
ie -
be zogen</w>
Über tragung</w>
Re sistenz</w>
RISPER DAL</w>
PegIntr on</w>
Syste me</w>
ati ver</w>
c er
to chro
wo durch</w>
ul in
S N
mp e</w>
Po sa
si sch</w>
ri l</w>
ti fi
produ kte</w>
am es</w>
Pla n</w>
di ctionary</w>
wech sel</w>
Asth ma</w>
Pra mipex
kre tion</w>
W ür
Beh äl
Fentan yl</w>
zei tige</w>
schla gen</w>
Hot el
Voricon azol</w>
exper iment
Konta kt
IN E</w>
ser n</w>
L icht
d eli
HIV- Infektion</w>
il l
sta at</w>
In f
Han del</w>
Nu n</w>
ch tung</w>
Ri fa
Lan des</w>
fu hr</w>
d bar</w>
Nex t</w>
S ant
all eine</w>
hu man</w>
Zimm er
ul d</w>
geb är
Schlu ss
ein fach
AL -
E toric
le gte</w>
ein s</w>
för mi
Par tikel</w>
se kund
Sitaglip tin</w>
M acht</w>
Rei se</w>
wer ke</w>
Ber ücksich
sol ange</w>
inji zieren</w>
Ir land</w>
Fre e
d on
autom atisch</w>
kan n
Inter ess
kün st
Vertei lungs
η λ</w>
Entzün dungen</w>
tax onomy</w>
Diagno se</w>
Empfind lichkeit</w>
bei tragen</w>
persön lichen</w>
Rifa mp
Str ahl
be schä
ur itus</w>
Piogli tazon</w>
f ur
V el
ste arat</w>
Men sch</w>
fizier ung</w>
azi dose</w>
Wohn zimmer</w>
Aus bildung</w>
stand s
untersu chen</w>
er in</w>
vorgesch la
ck s
ob ac
an i</w>
Far ben</w>
20 -
se -</w>
k rie
J etzt</w>
end gül
flä chen</w>
y to
un wahrscheinlich</w>
gesch rieben</w>
Neurop athie</w>
Pol en</w>
f umarat</w>
F A
Re bet
er fahr
Ep ilep
g yp
ron at</w>
zy klus</w>
Glaxo SmithKline</w>
psych o
Nich trau
Goog le</w>
4 20</w>
ger ät</w>
C enter</w>
Kre bs
En ter
D au
e ur
Gewichts zunahme</w>
1, 3</w>
P ort
f at</w>
individu ellen</w>
dig it
the se</w>
sp ro</w>
est i</w>
.0 3.
krä f
ge prüft</w>
be suchen</w>
T on
Pha se-
sch ir
er wäh
Madri d</w>
al in</w>
perip here</w>
S ä
Z ü
Tenofovir dis
Häm odi
Anti -
Bro w
bili tät</w>
Sil denafil</w>
gro ß</w>
Vermin derung</w>
fre uen</w>
li spro</w>
vel op
S atur
C L
3 2
App lik
S Y
re m</w>
f ei
Lat vi
BAS AL</w>
ex p
Erythr opo
ge stei
W ur
Alkohol tu
201 2-
b ahn</w>
Fe b</w>
0 13</w>
s äm
Schw itzen</w>
i on
gerin g
D ate</w>
mi sch</w>
an n</w>
ol s</w>
ak ute</w>
ko ag
S ili
Pro to
Her stell
Lei ter</w>
O hr
Konfer enz</w>
stan z</w>
Cy tochro
subkut ane</w>
F ett
Auff assung</w>
Tenofovirdis opro
K ep
Stoff wechsel
Elimin ations
intere ssi
Schrit te</w>
i tel</w>
regelmäß ige</w>
is ed</w>
Ver trau
Pan kre
le z</w>
b ungen</w>
Spra ch
I B
Um fang</w>
ab sich
k ations
ge g
Wor ld</w>
fin an
bro chen</w>
individu ell</w>
Lactose- Monohydrat</w>
7 00</w>
v askul
po ol</w>
stär ker</w>
EIN Z
F lor
Nach dem</w>
hervor ra
ER E</w>
1 12</w>
It alia</w>
hab t</w>
Kommuni kation</w>
opti mi
Prä vention</w>
er scheint</w>
SCH ACH
ähn lichen</w>
An gina</w>
Spe zial
aff ung</w>
C yc
DE L
Kompon enten</w>
I P
Pri or
Te mp
terv all</w>
T ren
ff er</w>
fest stellen</w>
IST ER
Schilddrü sen
dar um</w>
Blut zellen</w>
Ressour cen</w>
ic i
tr in
Oste opor
reag ieren</w>
Z eiten</w>
ungs störungen</w>
Ther a</w>
K eine</w>
ch o
genan nte</w>
Rifamp icin</w>
Pr uritus</w>
ut t
dau erhaf
olo gi
ver teilt</w>
kämpf ung</w>
Hautre aktionen</w>
un di
On line</w>
M T
Ver trag</w>
um fan
ICH T</w>
Um stellung</w>
bil d
un verändert</w>
üb lichen</w>
W erten</w>
Ein richtung</w>
it alien
war ten</w>
sp it
li gen
Fot o</w>
Toxi z
unterschie dliche</w>
TIK ET
wi mm
op ath
DN A-
Veran staltungen</w>
Komp likationen</w>
en or
St ä
B akteri
abhängi ge</w>
Or d
BL ISTER
00 -
ia tr
ger ech
0, 25</w>
lei ten</w>
Dän em
Wei ch
qu al
In fra
Öff nen</w>
war um</w>
Sch at
EHM EN</w>
hoch wer
Intron A</w>
stribu tion</w>
a 5
26 .</w>
Berücksich tigung</w>
gete stet</w>
B ul
NA HM
Un gar
zell ul
Schla fl
Materi alien</w>
G P
mar kt
co c
ch ter</w>
King dom</w>
Immobili en
wach st
B ol
ro s</w>
Kra ft
Elimin ation</w>
se t</w>
no e</w>
Mab Thera</w>
Cis platin</w>
Etoric oxib</w>
te s
n al
Wirksam keits
F le
regi str
ip ran
gen utzt</w>
u ch</w>
schä digung</w>
ch olester
wen igen</w>
al o
Sch war
schwerwie genden</w>
krank ungen</w>
le g
den s</w>
zeich nen</w>
lie gende</w>
W är
0 14</w>
Aufmerk samkeit</w>
m är
de st
Blo ck
bo urg</w>
Car ba
erhäl t</w>
in formi
Nieren erkrankung</w>
schü tz
N r.
Sit zung</w>
ver gangenen</w>
alisi eren</w>
rel ativ</w>
am a</w>
Thal ido
wöch igen</w>
Ta dal
Ger ät</w>
gen -
Te mper
i der</w>
ge ord
R ob
Blutzuck er</w>
i ce</w>
versch rieben</w>
G an
3 ,5</w>
Ban k</w>
zu stand</w>
Z en
tats ächlich</w>
N ar
ar tem
gew ebe</w>
5 9
Blut hoch
ni a</w>
Ergeb nissen</w>
Stead y-
Alkoholtu pfer</w>
ge grün
spro gramm</w>
gekenn zeichnet</w>
Deta ils</w>
spra che</w>
besch rei
ab a
auth or
wi pe</w>
H2 O</w>
t ablet
staus ch</w>
die jenigen</w>
ST EL
201 1-
lie b</w>
ex is
Ra dio
Sin ne</w>
mor gens</w>
Haup tin
s la
am s</w>
ut h</w>
cin al</w>
geno mmen
t ter</w>
Nu mmer</w>
sen si
mi ssi
mechan ismus</w>
engmasch ig</w>
d t</w>
u .</w>
Zw ischen
Lauf e</w>
Stra ßen
. 00</w>
K lei
Me dien</w>
O n</w>
Rhin itis</w>
Nach weis</w>
vi sion</w>
In- vitro-
Zentr al
Ra si
AM UN
on g</w>
Lei stungen</w>
farb lose</w>
it u
pul mon
dr eh
Rosigli tazon</w>
Kap itel</w>
aktu elle</w>
moder nen</w>
ver tragen</w>
fa ktor</w>
- c
V öl
Mor gen</w>
a e</w>
H g</w>
SCHACH TEL</w>
un be
fest gelegt</w>
gr enze</w>
Ver dau
14 ,
ab out</w>
hi st
Klima anlage</w>
rh ö</w>
niedri ge</w>
Gesch lecht</w>
zy to
Pac li
L ar
Can di
pp e
Cre me</w>
Schlafl osigkeit</w>
Dosis reduktion</w>
re ss
cap on</w>
Geb urt</w>
dar gestellt</w>
Sch au
H igh
k ter</w>
Rasi lez</w>
Ver pflich
pla ceb
Kop f</w>
Flu or
per son
n ä
ein gerichtet</w>
S kel
il e
f s</w>
ck er
Sim vastatin</w>
Hydrochlorothiazi de</w>
ub icin</w>
Verein bar
en ce</w>
Erhaltungs dosis</w>
B ur
olog y</w>
sub je
rän kte</w>
6 6
Schmer z
val u
phot os</w>
g .
ul ose</w>
durchschnit tliche</w>
ein i
di a</w>
Kortiko steroi
kal ische</w>
Über lebens
wer tes</w>
Kon z
stär ke</w>
bet a</w>
Aus druck</w>
or a</w>
el em
ange wand
Dänem ark</w>
An schluss</w>
hal te</w>
p al
s ab
hi elt</w>
zahl reichen</w>
Angioten sin-
dies el
Mich a
haf ten</w>
ei m
Typ- 2-
Vers and</w>
om eter</w>
län dern</w>
funktion iert</w>
6. 6</w>
Künst ler</w>
Hall o</w>
h as</w>
wan n</w>
u ter
or ien
Viel zahl</w>
Bo den</w>
gela den</w>
4. 6</w>
1 A
Park platz</w>
L e</w>
We ge</w>
Ka mpf</w>
Origin al
e ssen</w>
K ro
ange sprochen</w>
Wahr schein
27 .</w>
Zieh en</w>
f c
H EX
i k
ges und
sti k</w>
St abilität</w>
regelmäß igen</w>
Erklär ung</w>
18 5</w>
Kre b
Johan nis
Kal zi
Satur day</w>
ent stehen</w>
M otor
Lop inavir</w>
we sen
ü r</w>
t ab
C EL
mell ose</w>
äng nis
kra tie</w>
d ne
öffent liche</w>
Ab ständen</w>
aus o</w>
x ie</w>
Teil nehmer</w>
h l
grei fen</w>
fi den
Sta mm
AN D
Ba si
nie der
kon vention
D un
D UR
Initi ative</w>
Rebet ol</w>
sti ge</w>
ro te</w>
Pharmakovigil anz</w>
Ver halten
eng lyc
Ein leitung</w>
wor d
IT -
Mis s
dap ter</w>
bil det</w>
t oler
Gele genheit</w>
E F
wei te</w>
. info</w>
Mitglied s
Kno chen</w>
K wik
Ver hü
In seln</w>
A tor
art ment</w>
eindeu tig</w>
Hy pro
bu ch</w>
fizier en</w>
ar m</w>
2 40</w>
E TIKET
priv aten</w>
Pe ga
wei ten</w>
g ol</w>
voll er</w>
fer tigen</w>
ber eiten</w>
kon stru
häu fige</w>
bewahr en</w>
T schech
St amm</w>
beobach teten</w>
f ts
r or
Ta gs</w>
be stand</w>
Ad mini
prä par
ig ung</w>
War en</w>
Me sse</w>
IC H</w>
fi kation</w>
3 F
hen ol
demo kr
berücksich tigen</w>
akti ver</w>
ur a</w>
erfü llt</w>
che mische</w>
G au
Un wohl
durch ge
G allen
Hypro mellose</w>
ini ti
it ness
ster oid
mess er</w>
e k</w>
Phot o
Pre mi
brei te</w>
Er wägung</w>
Ereig nissen</w>
A mb
gu i
hil fe</w>
37 2</w>
Gew in
Hand els
Initi al
Mycop henol
op la
Nach richten</w>
c b</w>
VIR AMUN
Hauptin dikat
ausreich ende</w>
ver tret
w ander
Be denken</w>
Pro fil</w>
ber kul
lit är
Soll ten</w>
E ben
ear s</w>
her er</w>
Ver letz
nt .html</w>
mu t</w>
A ss
Dy na
kl er
AP TIV
kristall ine</w>
began n</w>
R ad
ma p</w>
ce ss</w>
Pure gon</w>
Ba sierend</w>
ließ en</w>
gleichzei tigen</w>
th er</w>
bestimm ter</w>
ex tr
bin det</w>
om er
ktor s</w>
ge -
Fin n
An leitung</w>
ot on
ti ca
fro st</w>
Kreu z
Acet yl
p la</w>
wirt schaftliche</w>
Schlagan fall</w>
s r
gel i
positi ve</w>
n on</w>
li eben</w>
Schwanger en</w>
Pop ulation</w>
E esti</w>
haup t</w>
S cien
priv ate</w>
di eren</w>
coc cus</w>
Stell ung
provi ded</w>
qu ali
Tran spar
An ne
S EN
ma x
st ation</w>
nach folgenden</w>
erforder t</w>
Enzy m</w>
Wäh len</w>
M obil
c li
klär t</w>
ot yp</w>
Ge d
kl einer</w>
or e
Rezept oren</w>
län der</w>
Alumini um-
ein ander
k raut</w>
Sp ort</w>
Wechsel wirkung</w>
Plasma prot
en -</w>
fass ungen</w>
A gener
berech net</w>
ei l</w>
Ar tik
Unter nehmer</w>
wich tiger</w>
an ischen</w>
Atri pla</w>
Magnesium stearat</w>
zeu g
verstär kt</w>
er geben</w>
Re c
Dokum ente</w>
bess ere</w>
Salz säure</w>
h ell
Gener al
rech ts
te mp
o ur</w>
ju g
sta te</w>
f ab
am in-
human en</w>
erh ielt</w>
Pega sys</w>
d nis</w>
kl ar
B ft</w>
Verdün nung</w>
End punkt</w>
Leben s</w>
Cli ck</w>
einzel ne</w>
DE M</w>
gi ge</w>
Myokardin farkt</w>
Bin de
и я</w>
Schmelz tablette</w>
zu erst</w>
L amo
D oh
erg aben</w>
vor liegenden</w>
Unwohl sein</w>
be zo
a do
J ung
Schüttel frost</w>
Knochen mark
C ER
Z EI
Star t</w>
F ein
at a</w>
Mi cro
vor behandelten</w>
V om</w>
Versch luss
Integr ation</w>
Install ation</w>
sa ge</w>
ol l</w>
eb o
sam e</w>
erheb lich</w>
M in</w>
tran spar
tion al</w>
ge stellten</w>
be häl
Bet afer
Ang st
Kon fiden
er leich
sol cher</w>
ex ter
Immobili enan
10 1</w>
Be ss
vasti n</w>
prim äre</w>
P ip
nahe zu</w>
Tadal afil</w>
Soll te</w>
Belgi que</w>
at mo
ali sten</w>
Ser ie</w>
t um</w>
eventu ell</w>
deli very</w>
we s
ep ilep
sa mp
verstär ken</w>
- Gruppe</w>
oth er</w>
Ampul le</w>
Lamo trig
Qu i
m angel</w>
tä tig</w>
tz eit</w>
H A
vorüber gehend</w>
Hinter grund</w>
ss p
el y
war d</w>
A vastin</w>
v .</w>
ge tragen</w>
Sto ck
angen eh
k üh
Ansp ruch</w>
M A</w>
Gefä ß
U -
PACK UNG</w>
rü ck
B and</w>
i mg</w>
F et
Leu kämie</w>
Ko oper
Joh n
son st</w>
Schwere grad</w>
f oli
hei t
frü heren</w>
Dox az
ungs ver
Öffent lichkeit</w>
W ind
in g-
z -
Gro up</w>
va si
bedin gten</w>
St ar</w>
O ct</w>
sch wä
K ern
am en</w>
Abhän gigkeit</w>
minde st</w>
Beeinträch tigung</w>
Mar ia</w>
Medikam ente</w>
St ate</w>
in vesti
a c</w>
anaphyla kti
erfü llen</w>
gelan gen</w>
Er satz
G o</w>
ta xel</w>
isi er
ent lang</w>
La st</w>
Er kenn
k aum</w>
images .php</w>
pro fi
An trag</w>
b ü
Gr enz
Behand lungen</w>
zu mindest</w>
Je des</w>
x il
besteh ende</w>
verab schie
syste me</w>
woll te</w>
t or</w>
9 00</w>
L O
weib lichen</w>
den noch</w>
- C
En g
Agener ase</w>
S ob
5 8
FLAS CHE</w>
I X
CH N
At mo
nehm ens</w>
durchschnit tlich</w>
3 1.</w>
Macro gol</w>
ber n</w>
fe ktion</w>
sach en</w>
be stimmen</w>
weis ung</w>
Taus ende</w>
Sach e</w>
Ex tre
mp en</w>
nach weis
Ge or
b d</w>
12 7</w>
3 60</w>
Tu berkul
Türk ei</w>
M ort
2, 0</w>
Qu ad
In nen</w>
1, 4</w>
1, 1</w>
le un
Zu dem</w>
Mo der
P S
bet ten</w>
I ra
D e</w>
verbun dene</w>
Ne o
Flu tica
ma chte</w>
AT C-
Gel en
Tach y
0, 001</w>
Ser um</w>
kon kre
wo gen</w>
Einzel dosen</w>
0 15</w>
hol ung</w>
y ears</w>
Ra mi
20 ,
ver schreib
gesch ätz
S emin
eu r</w>
Mon d
eng li
A taz
Ataz an
Inter a
7 50</w>
ver l
individu elle</w>
D ul
wur f</w>
schließ t</w>
Wer k</w>
H T
ov e</w>
I ma
Epilep sie</w>
miet ung</w>
z o</w>
blio the
Dar m
ep ti
ink lusive</w>
gesch lossen</w>
Ber lin
NAHM E</w>
Impfstoff s</w>
ver wand
Fin land</w>
vermin dert</w>
er wor
Muskel schmerzen</w>
sk rip
schmer z
R om</w>
lie ß</w>
APTIV US</w>
m äch
Τ ηλ</w>
Ver schie
10 2</w>
K rise</w>
W ie
zu g
Vor schläge</w>
gän ge</w>
sich ere</w>
dr ehen</w>
sozi ale</w>
zugän glich</w>
sti ch
kontrolli eren</w>
op s</w>
jähr lich</w>
rho e</w>
abhängi gen</w>
Fahrzeu g</w>
Blutplätt chen</w>
Be stä
A ffen</w>
präsen tiert</w>
tor is</w>
Bahn hof</w>
ind el
folgen d</w>
Ö dem</w>
geschw indigkeit</w>
Ch ole
fähi g</w>
al koh
Par oxetin</w>
Schluss fol
Fondaparin ux</w>
t ard</w>
Wun sch</w>
D ele
A pre
en ti
b lieb</w>
Berei t
sh ire</w>
S O
B at
Ru e</w>
Anti koag
emb oli
T rä
5 6
gen auso</w>
om ie</w>
je mand</w>
ge wählt</w>
sch we
Geb ur
Zun ge</w>
Spit ze</w>
lat t</w>
te ch
Ko ch
H üh
S icht</w>
Ein k
ger äu
um in
schö n</w>
verabreich ten</w>
te u
Versch luss</w>
natür lichen</w>
Ga do
wesent lich</w>
Institu tionen</w>
B .V.</w>
trocken heit</w>
Famili en</w>
sp ritzen</w>
ne -
komp lex
35 8</w>
AM E</w>
ung in</w>
Kommiss ar</w>
kan ische</w>
z al
Kol ben</w>
Di ät</w>
To ur</w>
M eine</w>
Antikörper n</w>
Nieren versagen</w>
to s</w>
zentr alen</w>
lie fern</w>
verbun denen</w>
per for
12 8</w>
ati k</w>
Mehr heit</w>
getr offen</w>
ktion sto
Investi tionen</w>
informi ert</w>
M B
Lös ungs
Verteilungs volumen</w>
eti schen</w>
geeig neten</w>
Dor f</w>
ban ner
ann ien</w>
unter brochen</w>
AD E</w>
wie gend</w>
plan en</w>
Apart ments</w>
o kontrollierten</w>
Indu stri
mm a
si a</w>
Cep t</w>
Johannis kraut</w>
gem el
moder ne</w>
P C
my elo
i di
Actrap hane</w>
fa mili
Osteopor ose</w>
r en</w>
DUR CH
we bes</w>
zi di
ATC- Code</w>
d opp
Rei sen</w>
18 4</w>
n ol
zentr ale</w>
deta il
Jap an</w>
Arbeits gruppen</w>
k eit
form u
Einzel dosis-
st ran
t ele
Ungar n</w>
Soft war
sch enk
par ti
isch -
Tum oren</w>
Sch ein
La ssen</w>
Ein schränkung</w>
4 3
kauf s
erkan nt</w>
zi p</w>
vor ange
For mat</w>
az ität</w>
Brü ssel</w>
Sch ie
mit ten</w>
hä user</w>
c am
a5 a
E HR
Konfiden zin
Pacli taxel</w>
eb t</w>
to ur
Er st
Fre ude</w>
kali ämie</w>
ver ändern</w>
Dig ox
hyper tensi
S I
bekan nte</w>
der -
verla g.com</w>
J e</w>
gewöhn liche</w>
alt a</w>
Mix tard</w>
st eigen
geimpf t</w>
Man ager</w>
App likation</w>
l .</w>
Vergleich s
g ut
.g it
ak uter</w>
Ter fen
kann st</w>
sti schen</w>
bu t</w>
Vor geschichte</w>
Brei te</w>
T im
Spra chen</w>
erzi elen</w>
Her cep
open x</w>
Änder ungsan
N O
t i</w>
Nel fin
Krampfan fälle</w>
banner .git
banner.git verlag.com</w>
a5a 750
a5a750 bd</w>
R al
Dan ach</w>
ver sorgung</w>
Sy mb
res ulti
L ine</w>
UN EHMEN</w>
Hit ze
Höch st
mi ssion</w>
la -
De c</w>
spiegel n</w>
allerg ischen</w>
Dr eh
Cell ulose</w>
ier tem</w>
ge tan</w>
Shar p</w>
Stre et</w>
Phosp hat
Vor teil</w>
S om
R elevan
angemess ene</w>
Poly prop
subkutan er</w>
grei che</w>
ga in</w>
verb rau
Ger ichts
as on</w>
0 16</w>
gra f</w>
dis ku
.c om
frequ enz</w>
Cell Cept</w>
brit annien</w>
zei tigen</w>
k ologie</w>
Wis sen</w>
da gli
hin reich
k ern</w>
ap en
La ger
D re
Zur ück</w>
R A
dagli p
Vil daglip
Ne oc
re sist
norm aler</w>
aben ds</w>
10 4</w>
EINZ UNEHMEN</w>
F lei
Arz nei
amne se</w>
LI CH</w>
Fol li
Da vid</w>
1 11</w>
Ab kommen</w>
pop ulation</w>
C u
AM P
Tro pfen</w>
ge ber</w>
Phen yto
sä ur
Z ahlen</w>
Lo -Fi</w>
vorgefüll ten</w>
Imm ung
komplet t</w>
Pil zin
K öl
zy t
te sts</w>
I denti
vor wiegend</w>
VIRAMUN E</w>
brau cht</w>
I LI
Warn hinweise</w>
Camp ing
ren ale</w>
Ho use</w>
Hercep tin</w>
We gen</w>
Diure tika</w>
c on</w>
al u</w>
Risi kom
kommen den</w>
g abe
ru p
Aus nahme</w>
schn ell
Luxem bourg</w>
pharmakokineti sche</w>
genau e</w>
- oxid</w>
al tra
gewährlei stet</w>
un ge
e te</w>
ei l
sp er
Nicht -
Hauptindikat or</w>
in vasi
1 15</w>
verschieden er</w>
t aus
Sch n
über tragen</w>
stitu tion
Sob ald</w>
Dan mark</w>
w u
tri kul
St opfen</w>
p ec
über haupt</w>
N ep
besteh end</w>
Risper idon</w>
assozi iert</w>
entr um</w>
P otenti
wissen schaftliche</w>
sch lossen</w>
Micha el</w>
kosten lose</w>
Min er
Nichtrau cher
t ot
ver sucht</w>
Schul e</w>
hydrogen phosphat</w>
H .</w>
PR O</w>
6 7
Studi o</w>
eti sche</w>
En zyme</w>
prim ären</w>
App artem
spar en</w>
Inhal te</w>
gen des</w>
W ein</w>
Str om
STE CH
El i</w>
fil es</w>
M obili
Ver tret
m t</w>
je derzeit</w>
Atmo sphäre</w>
en a</w>
DURCH STECH
ex e</w>
b a</w>
Kon zer
M äd
Li p
Bin nen
gere cht</w>
Di alog</w>
s l
E mail</w>
Be weg
D om
gebor ene</w>
Keto conazol</w>
H und</w>
fu l</w>
fl u</w>
Ma gen</w>
be d</w>
Atazan avir</w>
а р
Su izi
C min</w>
ff et</w>
S AV
Episo den</w>
T opo
en .htm</w>
trin ken</w>
z ie
sal ic
ktiv ität</w>
Proteas ehe
wiederhol t</w>
ängnis verhü
ch ine
ar tigen</w>
Nad eln</w>
p rin
R oh
ör tlichen</w>
C S
sen ken</w>
Hal b
C el
ss lich</w>
Wachstum sh
W e</w>
10 5</w>
wel chen</w>
ra h
er gibt</w>
Gem c
dyna mische</w>
stra teg
sch lü
Diar rhö</w>
We ch
ρ ο
ges eh
F ALT
Aspe kte</w>
Kwik Pen</w>
EM END</w>
D I
re serv
behand elte</w>
Gemein schafts
schein ungen</w>
spra ch
fe ss
yc er
An bieter</w>
getr en
A er
Äl tere</w>
absol ute</w>
AN Z
tel ligen
Redu zierung</w>
sisten te</w>
Ho ff
er er</w>
ein fache</w>
Su ch
Sui te</w>
HER R</w>
Ator vastatin</w>
woh ner</w>
in fiziert</w>
Impfstoff es</w>
ophil ie</w>
Potenzi al</w>
hr e</w>
Phen yl
gebär fähigen</w>
Bluthoch druck</w>
Hyper glyk
bekann ter</w>
Relevan z</w>
ein richtungen</w>
P A</w>
ome tr
Tran skrip
word press
Gehir n</w>
Latvi ja</w>
Seh störungen</w>
L ich
2. 5</w>
hä tten</w>
g ungs
Lebens mittel
M G</w>
f el</w>
wei t
drü se</w>
steh ende</w>
Wahrschein lichkeit</w>
ko mmuni
C entre</w>
16 ,
FALT SCHACHTEL</w>
Mi car
Dox or
eigen tlich</w>
er ei
G ab
ger te</w>
Far ma
ko se</w>
gebrau chs
X A</w>
ru he</w>
or ig
sch au
Gr enzen</w>
Metaboli sierung</w>
Sp on
den den</w>
AN CE</w>
V an
O li
er seits</w>
beinhal tet</w>
gan gs
metasta sier
gem ü
Be stellung</w>
Werk e</w>
T op
al th
Reser vier
Reinig ung
lei sten</w>
rie f</w>
Re chn
sar da
multi p
der s</w>
ba sierend</w>
0 22</w>
immobil sarda
sch -
lit ten</w>
Richt linien</w>
infe ktion</w>
P rit
Ver such
EIN NAHME</w>
medi a</w>
dar stellen</w>
Techn ologien</w>
Kontrazep tiva</w>
G ON
kombin iert</w>
ati nib</w>
natür liche</w>
bu chen</w>
Fortschrit te</w>
Tachy kardie</w>
Per io
Diskus sion</w>
vor gelegten</w>
d b
3 50</w>
doppelblin den</w>
ch ern</w>
me ti
din -
ci um
Stru ktur</w>
opti male</w>
unter en</w>
et an
Inner halb</w>
Früh stück
Apre pitant</w>
verstän dlich</w>
eri us</w>
ZEI CHN
le men
co -
Servi ces</w>
vis u
bewer tet</w>
Sy mp
sam en</w>
Regel n</w>
ver s</w>
f le
der selben</w>
ver lassen</w>
höch ste</w>
Lun ge</w>
Ge danken</w>
Antikoag ul
Nov ar
vi don</w>
t eln</w>
Wettbewer bs
rheumato ider</w>
Asth enie</w>
fil l</w>
T emo
R e</w>
au se</w>
gew oh
8 7
Hän den</w>
Ele ktro
R ach
ep age</w>
Sta at
S L
Aus wirkung</w>
A -</w>
ug h</w>
Kenn tnis</w>
An nahme</w>
mm Hg</w>
ungsp flich
bar gain</w>
C as
höch sten</w>
li ste</w>
ern st
Fu ß</w>
obac ter</w>
P eter</w>
Clu b</w>
gin gen</w>
schrit t
lei stungs
Z o
Be vor</w>
R MP</w>
forder ung</w>
Tel mi
Herz rhyth
Her p
Mil ch
gen er</w>
b enzo
se d</w>
n etz
Inter fer
Doh me</w>
AB LET
beur teilt</w>
Tenofovirdisopro xil
ehem ali
p i
Fen ster</w>
Anne x</w>
Körper oberfläche</w>
an k
ar den</w>
An lage</w>
ange wen
Finn land</w>
Blutdruck s</w>
Ge l</w>
Gastrointestin altra
y la
em br
ne ss</w>
Ben e
Fach personal</w>
Wir bel
Ein heit</w>
Ba u</w>
De ck
M ot
W inter
verwen deten</w>
en kt</w>
Gerä te</w>
bi gen</w>
ange sehen</w>
fizier te</w>
sp rü
Sti mme</w>
Novar tis</w>
Verkehr s
Wettbewer b</w>
k nopf</w>
ele gan
Aus gabe</w>
Sti l</w>
Human insulin</w>
genü gend</w>
ver treten</w>
R und
A erius</w>
isi eren</w>
Remi ssion</w>
Heraus forderungen</w>
in den</w>
Gr undi
glau be</w>
P E
N ICHT</w>
Stru kturen</w>
schn elle</w>
Sicherheitspro fil</w>
www. emea.europa.eu</w>
verb rei
tr ö
rig ht</w>
kti ver</w>
Sch ei
Parkin son-
mitt ler
Ti er</w>
Organ isationen</w>
A mi
Schwanger schafts
Au str
Auf bewahr
Hydro x
V isi
Daten bank</w>
D ü
Fern seh
Lä sionen</w>
sp olitik</w>
der te</w>
A .
zu künf
zep in</w>
grund le
Z a
relevan te</w>
verlänger t</w>
ier enden</w>
medi ane</w>
ph an</w>
Tätig keiten</w>
ñ a</w>
all e
Ur sache</w>
indu strie</w>
Ide e</w>
larit yn</w>
ogra mm</w>
Al so</w>
4 21</w>
Flä schchen</w>
Aus führ
Typ-2- Diabetes</w>
Schmer z</w>
Um gang</w>
38 6</w>
m l
erg ri
lä tze</w>
Extre mi
gew innen</w>
Hepatitis- B-
Flutica son
lu x
F lex
gele gen</w>
An lagen</w>
vor liegt</w>
K ART
A sso
mi gkeit</w>
ungsp hase</w>
er wogen</w>
ur i
ens wür
B ä
man gel
it t</w>
Etik et
So ma
subkutan en</w>
TI G
Di ffer
entschie den</w>
Beschwer de
M alta</w>
wor t</w>
fil m</w>
verseh entlich</w>
Ep i
a y</w>
Beh in
at te</w>
Antwor ten</w>
Krie g</w>
Woh l
brei ten</w>
Str af
er stellen</w>
e mp
Vide o
4 ,5</w>
GON AL-
le t</w>
l ern</w>
über zogene</w>
Behand elten</w>
j ene</w>
λ λ
Brust krebs</w>
Vide os</w>
be poetin</w>
T ho
pec toris</w>
In gel
D rücken</w>
C T</w>
ve c</w>
lauf enden</w>
35 1</w>
RE Y
antwor t</w>
sich ten</w>
Teil nahme</w>
vorüber gehende</w>
brech ung</w>
R oll
author ised</w>
z ol</w>
Prei s
ir en</w>
Vildaglip tin</w>
be ziehen</w>
wähl ten</w>
l ene</w>
d ein</w>
Sp rechen</w>
ar o
Pro stat
ti no
F ER
Bin dung</w>
Ge sprä
da n</w>
V EL
redu zierte</w>
45 0-
tz -
set z</w>
eli min
O X
ve x</w>
ON ST
10 6</w>
Immobilienan zeigen</w>
t tern</w>
Tablet ten
randomi siert</w>
A mar
t l</w>
Ger inn
r isch
sä ure
viel fäl
Lamotrig in</w>
ca de</w>
Tau b
Konfer enz
n ien</w>
elo da</w>
Dar bepoetin</w>
No te</w>
pro gressi
P seu
18 ,
T etan
Kar ten</w>
Ca ely
do wnlo
Progra mms</w>
C la
port al</w>
do s</w>
he mmen
Auf lösung</w>
c et</w>
Risiko faktoren</w>
Tu es
13 1</w>
Verhand lungen</w>
Auf bau</w>
l le</w>
er ing</w>
al tet</w>
Transpar enz</w>
Land wirtschaft</w>
er wiesen</w>
an lagen</w>
wie sen
K M
th s</w>
begrenz ten</w>
Hil fs
Grün de</w>
Er re
Tues day</w>
krank ung</w>
rei sen</w>
erkl ären</w>
au to
j a
We b</w>
neu tr
h ül
2, 4</w>
fer tig</w>
Reprodu ktionsto
Netz werk</w>
3, 0</w>
Ge setz</w>
P T
jähr ige</w>
Rück gang</w>
ol ol</w>
mittel schwerer</w>
Te chni
Cor por
Körper s</w>
Angebo te</w>
IN T
tran spor
12 9</w>
verseh ent
zol am</w>
k i
e g
benzo at</w>
S ver
Apart ment</w>
hin ter
U hr
ver tr
Tran sport</w>
Lakt at
Br ust</w>
Aktu alisierung</w>
Kon fli
Bei träge</w>
Wahr heit</w>
ox y
kon v
fe til</w>
Zwe ck</w>
Zu be
X eloda</w>
Empfeh lung</w>
I .</w>
bewu sst</w>
A F</w>
ung ssyste
Z eu
Re st</w>
v s.</w>
omy r</w>
Deut schen</w>
teil s</w>
velop ment</w>
dru ckt</w>
Jahrhunder ts</w>
gew onnen</w>
di tionen</w>
Unternehmen s
il le</w>
sta aten</w>
T un
wesent lichen</w>
stech nik</w>
V F
All es</w>
u. a.</w>
sa h</w>
ma te</w>
ma g</w>
zer stör
. -
wle dge
Az omyr</w>
Mini ster</w>
L ap
E mb
ast a</w>
m atitis</w>
a i</w>
Sau er
stie gen</w>
gel b</w>
Ne der
Allerg ie</w>
sin n
aus drück
jun ge</w>
Lo sartan</w>
Geschma ck</w>
Insul in-
Formu lierung</w>
vi de
at uren</w>
mon ati
Pen fill</w>
e o
hän gen</w>
berich te</w>
so weit</w>
Bet ten</w>
verl oren</w>
Pro vin
ter ie</w>
niedri gere</w>
b lä
Fertili tät</w>
We st</w>
nor mal</w>
4 00
neu e
verb lei
mi ss
dire kte</w>
Sver ige</w>
Lymp ho
medi kation</w>
li ke</w>
T N
führ enden</w>
st reifen</w>
Unter nehmens</w>
w hi
gegrün det</w>
Sti ck
Entschei dungen</w>
Berei chs</w>
6 -0
bel ieb
Reinigung stu
bis her
bu min</w>
ange messen</w>
end lich</w>
gs weise</w>
Ni fe
C at
10 8</w>
E UR
ep sie</w>
wor k</w>
Ex ta
t gen
Neoc larityn</w>
deut sche</w>
V AX
Betafer on</w>
S P</w>
Mycophenol atmo
en do
su spen
Reprodu ction</w>
ack no
Sit z
Doxaz osin</w>
Zy klus</w>
zier ter</w>
l lung</w>
zu setzen</w>
g ie
Phenyto in</w>
M O
Su cro
REY AT
eng th</w>
P rie
In fli
Frie den</w>
Koh len
il l</w>
Trans fer</w>
Sch affung</w>
BLISTER PACKUNGEN</w>
k ir
o tin
mit einander</w>
aktu alisiert</w>
U kra
J J
Op tion</w>
erforder lichen</w>
Veran staltung</w>
subje ct</w>
Po ol</w>
10 3</w>
Hom epage</w>
te can</w>
Sor bit
Gran ulo
h om
Carba ma
ackno wledge
Kla ssi
PRE Z
Bestä tigung</w>
Auff risch
Sch leim
bo x
Aus stattung</w>
lei ter</w>
B Y
Sun day</w>
konta ktieren</w>
Ma x</w>
unter ziehen</w>
d ler</w>
Be kämpfung</w>
gescha ffen</w>
Mycophenolatmo fetil</w>
H eli
3F taxonomy</w>
b ran
N ationen</w>
stra di
G F
ob je
5 -0
orig in
Kons er
12. 11.2016</w>
veränder ter</w>
Wil l
CER A</w>
Mäd chen</w>
CO M
allgem ein</w>
G on
ti c</w>
Nat ür
ass t</w>
ST O
I sol
Kom fort</w>
Fri day</w>
frei es</w>
1. 8.
Gegen satz</w>
P A
kür zlich</w>
ür e</w>
MIR CERA</w>
Konzep t</w>
dan ce</w>
Nierenfunktions störungen</w>
Tenofovirdisoproxil fumarat</w>
Th ur
A ra
KART ON</w>
Grundi mmun
0 20</w>
sp p.</w>
Fahr ra
jahr e</w>
kur ze</w>
Man nit
Frei heit</w>
g ab
medi cinal</w>
m ol</w>
Re sul
St ation</w>
Wirkstoff en</w>
trop hie</w>
St art
Pol ska</w>
Kri b
REYAT AZ</w>
masch inen</w>
so dass</w>
Cal c
Ab bruch</w>
Genehmi gungen</w>
betr ieb
yl säure</w>
fi bro
Indi kationen</w>
H ormon</w>
I ON
k lei
Kar zin
az in</w>
Groß britannien</w>
an zeigen</w>
Al ph
ss en
vi vo</w>
rü stung</w>
Deut sche</w>
Dep ressi
tr ü
Stu hl</w>
ste st</w>
be wegen</w>
Mus keln</w>
9 7
ent steht</w>
Psoria sis</w>
u gen</w>
lin ical</w>
tr em
Win ter</w>
heu tigen</w>
Telmi sartan</w>
spru chs
E 172</w>
Rap am
ph ase</w>
gew and
beru ht</w>
E k
hin weisen</w>
Poli tik
O ut
Ober schenk
Ges ell
N ein</w>
Fel d
re sorbiert</w>
eig net</w>
äu fer</w>
ST RE
H on
Nov o</w>
2 80</w>
volu tion</w>
BEHÄLTN IS</w>
äußer st</w>
si tes</w>
Ni veau</w>
Misch ung</w>
ö l</w>
Ch lor
garanti ert</w>
Ani mal</w>
as ep
Ad v
pf ung</w>
De fin
Ein griff</w>
ig h</w>
ac ep
ar e
V ig
0 18</w>
X X
El tern</w>
Skel ett
S ün
Christ us</w>
den ke</w>
Den noch</w>
Dokument ation</w>
Mitgliedsta at</w>
ZYP RE
ZYPRE XA</w>
ver kaufen</w>
lo s
n utz
öff el</w>
beu tel</w>
P O
13 5</w>
gering fü
Nelfin avir</w>
DE N
Konfidenzin tervall</w>
sch le
Gi pf
G rü
Prof .</w>
gew ich
sto ß
Sucro se</w>
ri d</w>
Tran sport
9 5
m ulation</w>
angewand t</w>
wün schen</w>
ster ile</w>
d ll</w>
Herzin farkt</w>
eter in
doc ument</w>
H ex
Kunst stoff
te c
co mmer
p at
il o
Ampul len</w>
part ner</w>
Off en
ann es</w>
3 95</w>
Me xi
Hämodi alyse</w>
überwie gend</w>
Pramipex ol</w>
Dar un
tr ation</w>
gew in
Lie tu
C ele
D eh
Auf rechter
Li zen
steh ung</w>
op aus
Schnit t
po sts</w>
op le</w>
Chole sta
arbei tete</w>
m äh
ste l</w>
setz te</w>
Nach richt</w>
f lei
tig ungs
a ma
K auf
Vertr ieb
kontrolli erte</w>
W o</w>
Jo ur
AS T</w>
hö r</w>
e s-
KO GEN
KOGEN ATE</w>
Belgi ë</w>
gri ff
Sch ließ
an gebracht</w>
Demo kratie</w>
berei che</w>
unter halb</w>
lin ken</w>
Blu ter
Un ver
A gr
weg sin
kon fer
a de
Ele mente</w>
ide al</w>
Verwirr theit</w>
ge gangen</w>
F lexi
LE X</w>
- Therapie</w>
st el
EN T</w>
M ein</w>
HIV- 1-
8 4
er leben</w>
Ta ges</w>
pass ungen</w>
K B</w>
Auf sicht</w>
Pu g
kin e
ati scher</w>
Injektionss p
I band
at oren</w>
ß te</w>
ein geführt</w>
unterschie dlich</w>
auf weist</w>
un bekannt</w>
sal z
Z US
Pfle ge
Ab stimmung</w>
Pneum onie</w>
or s</w>
Ru he</w>
N ah
kämpf en</w>
Rezep tion</w>
Neutrop hil
3, 3</w>
or te</w>
Gr enze</w>
mensch liche</w>
Land schaft</w>
ch em</w>
M em
Betr eu
vor aus
PREZ ISTA</w>
ent sorgen</w>
ü ch
er fordern</w>
ein heit</w>
Sp rit
. 10.
komp ati
e gel
S E</w>
dan k</w>
da se</w>
an en</w>
HEX AL</w>
E spa
einmali gen</w>
Kin zal
8 000</w>
w ak
L AN
dien ste</w>
Ver dacht</w>
en nen</w>
Pun kten</w>
krä fte</w>
Beteili gung</w>
c lo
P ä
Rel igi
O st
tz entrum</w>
Ä gyp
Ta s
Ery thro
C A
h ormon
va x</w>
Bür ger
Angele genheiten</w>
Verbrau cher</w>
Behand l
notwendi gen</w>
vi si
Reinigungstu pfer</w>
früh en</w>
app li
K äl
di ffer
O sten</w>
än den</w>
Up date</w>
B ili
Mannit ol</w>
En ta
ten -
Städ te</w>
ta -
da gegen</w>
vor geseh
di s</w>
Neur o
in nen
i den
I L</w>
ü bt</w>
m lich</w>
versch luss</w>
ch tet</w>
Thur sday</w>
um gestellt</w>
schwanger en</w>
Dien ste</w>
An amnese</w>
ver z
Dysp noe</w>
- Syndrom</w>
plötz lich</w>
Wor te</w>
St ein
ograph ie</w>
blut ung</w>
AMM EN
dar stellt</w>
ver standen</w>
besch riebenen</w>
DV D</w>
P el
ä mien</w>
zi r</w>
Ze val
35 7</w>
Transkrip ta
Sti mm
R N</w>
Bei de</w>
r unde</w>
g uter</w>
Pir oxicam</w>
Cholester in</w>
19 ,
erh ol
Be mü
an nen</w>
Kranken haus</w>
ung ss
Bili ru
a y
Liefer ung</w>
Ten o
Hei zung</w>
produ ktion</w>
Rücken schmerzen</w>
Bron chi
Dem enz</w>
mm 3</w>
ff in
char akter
. 11.
ver größ
typ e</w>
kur zen</w>
Scho ck</w>
B ün
Acetyl salic
b ist</w>
einzi gen</w>
Ab satz</w>
so li
dne sday</w>
Vis u
d 3
0 17</w>
S per
at migkeit</w>
Tel zir</w>
N o</w>
Empf ängnisverhü
Betrieb s
Neder land</w>
t us
kar ten</w>
fol ie</w>
Qu in
Letz te</w>
Mut ationen</w>
gastrointestin ale</w>
Iband r
We dnesday</w>
ergri ffen</w>
sty le</w>
ba ch</w>
VAX PRO</w>
Nerven systems</w>
um än
Kre dit
5 4
gefü llt</w>
Zit tern</w>
Ex elon</w>
Wissen schaft</w>
Carbama zepin</w>
- Dosis</w>
dau ert</w>
kardiovaskul ären</w>
for d</w>
Anti depressi
www. skepticalscience.com</w>
i an</w>
Stellung nahme</w>
x an</w>
O s</w>
Mund trockenheit</w>
wech seln</w>
Berichterstat ter</w>
Über setz
Impf stoffe</w>
den de</w>
Standar ds</w>
Auf druck</w>
tri ax
EME A-
Ba y
Cef triax
ro l</w>
ungsan leitung</w>
inter national</w>
W und
et ab
ac .
u zin
Plasma -
k ung</w>
Mar tin</w>
Herz schlag</w>
bo o
Ge währ
g ste</w>
Stei gerung</w>
Aus gang</w>
Ar t.</w>
n ier
ge st
Geschlech ts
GONAL- f</w>
Aufrechter haltung</w>
Pra kti
n ütz
aus führ
Musi k
gesch o
Allgem ein</w>
fan den</w>
ve t</w>
EP Ü</w>
man chen</w>
Dar reichungs
Pro met
c enter</w>
A th
sp as
C larit
gesetz ten</w>
ak ter</w>
Kurz atmigkeit</w>
Caely x</w>
di stribution</w>
Re ver
Immun antwort</w>
Krib beln</w>
kra ft
zeu g</w>
I C</w>
Gemc itabin</w>
Nach bar
alog a</w>
kehr t</w>
Ein haltung</w>
men opaus
ver sus</w>
BY ET
Schlü ssel
b or
acknowledge d</w>
Fol ge
Bess erung</w>
sicht bar</w>
lei der</w>
prä klinischen</w>
ARZNEIMIT TEL
ausreich enden</w>
verdün nt</w>
bet on
Seh enswür
versch lech
An aphyla
For m
w all
ter ato
pra che</w>
r -
ach e</w>
IF EN</w>
Tuberkul ose</w>
é s</w>
schrit ten</w>
Fre unde</w>
ter -
Marketi ng</w>
ger aten</w>
m .</w>
G lie
ss -
we st
ge webes</w>
senk ung</w>
17 ,
nie mals</w>
H alt
Auf trag</w>
Ver packung</w>
ver letz
einer lei</w>
eigen es</w>
Ä N
ab fall</w>
Mort alität</w>
Mon day</w>
sr c</w>
Mi o</w>
n ing</w>
senk ende</w>
erinn ern</w>
prä gt</w>
g as
neg ativen</w>
be sitzen</w>
Sir oli
vie w
ge ss
si s-
lös ungen</w>
An dre
Ibandr onsäure</w>
stri a</w>
m or</w>
loss enen</w>
ie be</w>
Gew alt</w>
unter zogen</w>
Neu geborenen</w>
Mi da
hin gewiesen</w>
be absich
Rech t
Polyet hyl
Bewe gungen</w>
at tra
AU C
Sar din
ro om</w>
Hyperglyk ämie</w>
Sta tes</w>
STRE IFEN</w>
Sch rei
o fi
be tragen</w>
Glob al</w>
Ab geord
zi de</w>
Infe ktions
Über sicht</w>
el in</w>
dig keiten</w>
erlau ben</w>
Therap ien</w>
s ein
Tour ismus</w>
ve -
Person al
W y
sto ßen</w>
0 1
wach sen</w>
mi eren</w>
Win d</w>
0 1.0
ent decken</w>
Syn dro
o -</w>
lin ge</w>
i ja</w>
genehmi gt</w>
Harmon isierung</w>
Acetylsalic ylsäure</w>
c ul
Haupt studien</w>
z eln</w>
vorzu gsweise</w>
Virus last</w>
äl tere</w>
Eliminations hal
Grundimmun isierung</w>
S ac
Frühstück s
ange sichts</w>
Au di
rin ger</w>
Lietu va</w>
Ver zö
J P
Amar illa
RN A</w>
W h
F an
Z ahl
Re mer
ausge zeich
Rah men
beg rün
Enta capon</w>
ung s</w>
d rän
C A</w>
berich ten</w>
Ab fall</w>
blut druck
auf geli
Situ ationen</w>
mitt lung</w>
r i</w>
schä den</w>
Ex tra
Sch rau
li erten</w>
siden tin</w>
transfer ase</w>
Patienteng ruppe</w>
HER RN</w>
ge t
in o</w>
bi t</w>
D enk
Met hyl
s har
st ün
sor t</w>
Ingel heim</w>
Tierarzneimittel n</w>
Ab gabe</w>
A lex
E ier
199 4</w>
Ide en</w>
St or
6 4
pur po
Tra dition</w>
Zulass ungs
FO LI
S eb
Er gän
stech n
g y
Hir n
ti tle</w>
D op
O b</w>
Medi a</w>
ge kauft</w>
Mehr zahl</w>
Digox in</w>
kti n
Polyet hy
A dapter</w>
kop enie</w>
SEN TR
Anwen der</w>
Dysp epsie</w>
Teno fovir</w>
Reservier ungen</w>
Gelenk schmerzen</w>
sam ina
X ola
Hall uzin
CEL SENTR
er gebnisse</w>
ent nommen</w>
vasti g
Gummi stopfen</w>
Ri vastig
FOLI EN
A venue</w>
Str ei
k einerlei</w>
P ali
S etzen</w>
verwen dete</w>
schaft licher</w>
Säuglin gen</w>
Reproduktionsto xizität</w>
de c
ver mittel
län e</w>
ASS UNG</w>
Pla sti
kur r
ein tritt</w>
ameri kanischen</w>
Hei ligen</w>
E K
ersch einen</w>
Schw indel
rit zt</w>
Lin ux</w>
Kil ometer</w>
Joh n</w>
groß es</w>
Br and
F ro
zei ge</w>
St abili
Gener ation</w>
Klein kin
al itäten</w>
Initial dosis</w>
ver ord
beglei tet</w>
Mit teilung</w>
TR IT
en erg
Hau trö
mini ster
wachst um</w>
mo du
SCH AF
c are</w>
ven trikul
ä n</w>
z ies</w>
brei tung</w>
ta gs</w>
My algie</w>
Veröffentlich ung</w>
Bezieh ung</w>
pr a</w>
symptom atische</w>
W P</w>
zah lung</w>
p hi
ÿÿÿÿ ÿÿÿÿ
Immun systems</w>
2, 6</w>
4 27</w>
Nier e</w>
sk i</w>
Ph one</w>
an gebo
Min ute</w>
flu ss
but ton</w>
Schw eine</w>
R ie
V ent
Milli arden</w>
Universi ty</w>
Intere ssen</w>
A tt
Per form
ac il</w>
sist enz
häu fi
ZUS AMMEN
Ernähr ung</w>
folgen der</w>
ρο ς</w>
Sta at</w>
Nation al</w>
St al
IV A</w>
sch nei
p d
Fun ktion
V oli
AL TA</w>
ar ds</w>
Novo Rapid</w>
teil nehmen</w>
Nic otin
p or</w>
am -
1 -</w>
Liter atur</w>
ger s</w>
be vorzu
Fac to</w>
rip t</w>
Influenz a</w>
Menschen rechte</w>
Mida zolam</w>
Re Facto</w>
metho de</w>
AR T</w>
y e
Tra cle
mod ellen</w>
Sü da
d nis
B and
fer ner</w>
O m
schn ellen</w>
beschä digt</w>
2 25</w>
M ER
E con
Vers and
Dien st</w>
vorhand enen</w>
14 6</w>
stell ungs
sicher stellen</w>
Ma in</w>
mus e
om ar
Er stellung</w>
er setzt</w>
zu folge</w>
sp ann
ogra stim</w>
zieh t</w>
wirk ungs
Bu da
g .</w>
commer cial</w>
wöch ent
H b
na s
G L
201 4-
k einem</w>
λλ ά
12 3</w>
1, 6</w>
P ent
Ar ip
c at
Dokum ent</w>
kon omi
Par teien</w>
s ung</w>
fi zi
geplan t</w>
Arip ip
Fel d</w>
FOLIEN STREIFEN</w>
U rin
aus fall</w>
über all</w>
per io
ot s</w>
Fo samp
Espa ña</w>
gem ent</w>
mm i</w>
E X</w>
V III</w>
zeu gen</w>
I tra
T OR
nach zu
S ein</w>
At men</w>
Prop yl
kl on
erreich ten</w>
Li po
ge halt</w>
F assung</w>
in yl</w>
A spart
ung stherapie</w>
ru e</w>
emea. eu
fon ds</w>
5 N
2 18</w>
gesch ehen</w>
pp en
CELSENTR I</w>
fan gen</w>
bit ten</w>
Con tr
Mitt eln</w>
F lo
t ent
so for
isi erten</w>
g an</w>
ύ π
man u
wechsel t</w>
ex ie</w>
R hab
in k</w>
ENT RE
6 8
T at</w>
Vi mp
steh end</w>
An or
so ft
ativ es</w>
ko m</w>
p oly
unzureich end</w>
Pre vi
M P-
schmer z</w>
ange wiesen</w>
Komp et
günsti g</w>
Exta via</w>
sch er
ati en</w>
Soma tropin</w>
a ge
Xola ir</w>
aly sep
zu lass
Bau ern
tret ens</w>
schri ft
enz ahl</w>
En ga
neg ative</w>
Sch wä
Innov ation</w>
Bi bliothe
ag ie</w>
9 -0
frei setzung</w>
Dex amet
P ur
O vari
Häufig keiten</w>
Ukra ine</w>
br auch</w>
G AN
Archite ktur</w>
Aus wertung</w>
stand s</w>
behör den</w>
Ab b</w>
Ali sk
Mar i
cholester in
v it
Kur s</w>
Typ en</w>
Kompon ente</w>
ro t</w>
Ro che</w>
Pan or
wor fen</w>
Labor ator
Unter brechung</w>
nol enz</w>
Som nolenz</w>
o w
komp en
17 5</w>
Sant a</w>
Hei l
1, 8</w>
tag on
id ämie</w>
Ausschu ß</w>
ben utz
So mmer
L au
Substra t</w>
Schw einen</w>
stab il</w>
mini ster</w>
5 7
b all</w>
and a</w>
Ne vir
rich t
mus ste</w>
besch ränkt</w>
5 3
En er
E 171</w>
erfol gte</w>
1 4.
Überein stimmung</w>
zah lt</w>
Inve st
verschreib ungspflich
und -
e .com</w>
di ger</w>
Frem d
mi de</w>
Steu ern</w>
entwick elte</w>
ab setzen</w>
Natriumchlor id
sch o
transder male</w>
über nehmen</w>
p harmako
Pro fess
Erhöh ungen</w>
Ver trags
I c
zon t</w>
ster ben</w>
15 -
ieh lt</w>
b y
Bo eh
pri mä
sich ert</w>
Plan ung</w>
ent herapie</w>
eb ro
Masch ine</w>
Sch ne
S zen
Mom ent</w>
sch uss</w>
ABLET TEN</w>
ursprün glich</w>
er ende</w>
Konzentr ations
bar es</w>
л г
ti ven</w>
Ver n
Rei z
Geb är
Brow ser</w>
o. o.</w>
Immobilien portal</w>
staat lichen</w>
h nach
di gungen</w>
Re sistenz
hy si
Pro ben
be t</w>
L et
en tion</w>
purpo ses</w>
be ten</w>
Prob lemen</w>
sich ern</w>
B us</w>
3 -0
Str ep
BYET TA</w>
sch lie
ur l</w>
Defin i
Spa ß</w>
12 6</w>
c c
häufig ste</w>
Vimp at</w>
Nutz er</w>
v on
199 2</w>
K R
лг ар
W H
Unter künfte</w>
Diabe tik
Angio ödem</w>
schlu ss
14 2</w>
Überempfindlichkeits reaktion</w>
V -</w>
Indu ktion</w>
I P</w>
Promet ax</w>
E l</w>
лгар ия</w>
EX U
span nung</w>
Sehenswür digkeiten</w>
dom y
b len</w>
Neu pro</w>
ci li
top ic
Z ia
CYP2 D
relevan t</w>
Li ppen</w>
chirurg ischen</w>
Spit zen
betr offen</w>
D R
Bewer tungen</w>
dau ern</w>
S m
c ome</w>
sp ü
Ster ne</w>
lo ses</w>
zi l</w>
be auf
zeich nis</w>
ste sts</w>
St un
Re gu
Atem not</w>
m obil
ktr um</w>
L ength</w>
weiter es</w>
Itra conazol</w>
Medi zin
Über setzung</w>
E B
Ein druck</w>
2, 3</w>
P ast
Б ъ
um fas
T ipran
Schlaf störungen</w>
so ft</w>
gr unde</w>
Bet a-
Verbin dungen</w>
Бъ лгария</w>
Kep pra</w>
tra in
betr eu
Rechts vorschriften</w>
Rapam une</w>
Anmel dung</w>
Aus land</w>
schwerwie gend</w>
te .htm</w>
an geb
Verwaltungs rat</w>
Si la
Ge genan
AG E</w>
sch wach
Stad tzentrum</w>
0, 000</w>
Ein geben</w>
for schung</w>
c la
Cef ur
t al</w>
Cele coxib</w>
Ph .E
R h
Potenti al</w>
Aut or</w>
t .
Arbeit sprogramm</w>
en g</w>
br is</w>
stär ken</w>
Tracle er</w>
us ti
drin gend</w>
zugelass enen</w>
Wer t
Zimm ern</w>
S ex
wei ßer</w>
Infli ximab</w>
10 7</w>
V A</w>
bean tra
Immun isierung</w>
25 ,
o ur
L ö
Kontra st
m ein
Par tei</w>
Anor exie</w>
om i</w>
der ungen</w>
S ing
For ts
Darun avir</w>
block iert</w>
H 5N
Ferienwoh nungen</w>
g h
ch -
ven tis</w>
perip heren</w>
profi tieren</w>
E .</w>
e ure</w>
bestä tigen</w>
Z omet
Ti ck
ä qu
20 1</w>
gesp eich
In tensi
tion s</w>
A qu
pack t</w>
c .
strah lung</w>
bau t</w>
Buda pe
techn ologie</w>
empf iehlt</w>
0 19</w>
Admini stra
Studien beginn</w>
Köl n</w>
F rü
vorher ige</w>
Inform ation
neu trop
n äh
Nor wegen</w>
Blu tes</w>
umfass ende</w>
liefer t</w>
länger e</w>
Reb if</w>
ZUSAMMEN F
Rhab domy
G 3</w>
g -</w>
Multi p
N ei
sp o
erzeu gen</w>
I mi
In c</w>
Entwick l
un der</w>
O pfer</w>
Alisk iren</w>
dar aus</w>
Wech sel</w>
Kon gre
8 50</w>
f Ã</w>
Tro cken
ung ssystem</w>
ab wei
A van
Nor ge</w>
Fir men
si tu
Zusammen fassungen</w>
er achtet</w>
eb r
ü hr</w>
v ar</w>
D AS</w>
2012- 0
Fer ner</w>
Men sch
offizi ellen</w>
Sit z</w>
zu grunde</w>
Kap pe</w>
trop e</w>
schw ach</w>
Fosamp renavir</w>
Auf tretens</w>
14 4</w>
Y t
LD L-
Bereit stellung</w>
in gs</w>
35 9</w>
Lin derung</w>
Samm lung</w>
sch auen</w>
samm eln</w>
2 30</w>
indu stri
heb ung</w>
betr ei
L .</w>
H IN
entsp ra
kol l</w>
O J</w>
Heli x
osi tät</w>
besteh ender</w>
Prä sent
Mar ke</w>
Depressi onen</w>
ev o</w>
t y
ko k
Par ästhesie</w>
Co sta</w>
on in</w>
sei en</w>
erwar teten</w>
dokum en
speich el
itä t
An tagonisten</w>
a zy
Kap sel
Appetit losigkeit</w>
C af
mep ir
Wet ter</w>
Gli mepir
g in</w>
- 15</w>
Nu kleosi
Durch messer</w>
bu ffet</w>
Ceftriax on</w>
Me dien
Ar i
mus kula
Helix ate</w>
ph in</w>
kler ose</w>
Al p
be wirkt</w>
A ktion
G rupp
z ie</w>
k y
Vereinbar ung</w>
Dire kt
www. ypages
schaf tlich</w>
besonder er</w>
k rise</w>
Verwen dbar</w>
Flu oxetin</w>
ulo us
mus störungen</w>
le m
g no
Rami pril</w>
sen de</w>
bi g</w>
Hydro xy
Zal asta</w>
v ada</w>
trit ts
G ü
auf recht</w>
zu bereitung</w>
Sa una</w>
äh igkeiten</w>
Ab fall
2 60</w>
t at
Bene F
über schreiten</w>
b ron
antivir alen</w>
Bra dy
über geht</w>
Q T-
Hol z</w>
o us
Gesam t</w>
Inter nationalen</w>
on n
Chil d-
ar i</w>
Er halt
vir ase</w>
hydroxy benzoat</w>
and au
Des lor
allerg ischer</w>
He alth
Kor re
flü ge</w>
stru ktion</w>
In no
In dien</w>
mi ert</w>
metho den</w>
i or</w>
Wor k
ur .</w>
k ale</w>
speich ern</w>
Op i
Dul oxetin</w>
wirk te</w>
all mäh
Präpar at</w>
Pankre atitis</w>
ttel n</w>
er e
Ul zer
da ten
Prei sen</w>
be fin
201 0
gerä te</w>
H Be
Fran zö
ol in
la ter
zufrie den</w>
Pa ge</w>
Beschäf tigung</w>
ho ffe</w>
fest zustellen</w>
TE IL
krä mpfe</w>
Ε λλά
ly n</w>
ir o</w>
Liter atur
b at</w>
O ran
konvention ellen</w>
Ur spr
G as
fun de</w>
Gli vec</w>
Flex Pen</w>
g as</w>
e .
Reinig ung</w>
reversi bel</w>
Remer on</w>
Bedürf nisse</w>
lin id</w>
Finan zierung</w>
201 5-
Über leben</w>
T AX
Doppel zimmer</w>
ύπ ρος</w>
L ig
da mals</w>
w äl
Zia gen</w>
An gel
Bauch speichel
schritt weise</w>
sier ter</w>
r z</w>
eingesch lossen</w>
W ahl
f es</w>
on ar
Inhal ation</w>
Ober fläch
E fe
Ret ac
l ehr
Bedien ungsanleitung</w>
trock ene</w>
ct or</w>
Pop ul
Ph.E ur.</w>
kin der
d or</w>
Viel falt</w>
Mechan ismus</w>
K A</w>
T H
s om
Brust schmerzen</w>
trem ulous
ssi ons
e ská</w>
den za</w>
be st
aufzu bewahren</w>
Iso en
gewöhn lichen</w>
Nex Gen</w>
lok al</w>
gesp ritzt</w>
In virase</w>
Aripip razol</w>
Erhöh te</w>
O h
F ron
ce va</w>
Nor den</w>
Ö stro
Er reichen</w>
o w</w>
be mü
ol a</w>
Terfen adin</w>
zen tral</w>
S D
Boeh ringer</w>
tremulous .net</w>
am ed</w>
mi k</w>
Magen -
Ar g
Fl us
ent ora</w>
Eff entora</w>
idi opath
Kap ital
pe ople</w>
drit te</w>
0, 75</w>
O der</w>
dire kten</w>
Co un
ro ad</w>
H EI
Clarit hromycin</w>
mm a</w>
ent an</w>
Aussch ü
Natür lich</w>
Stu d
S A
Entsor gung</w>
1, 7</w>
t al
pre ss</w>
New s
ot oc
F ur
ar ch
Tre ffen</w>
F ei
mel den</w>
Leberen zy
Kon tin
gewünsch t</w>
Sc ore</w>
7 8
untersu chung</w>
H ung
F ä
w ären</w>
Zulass ungsan
günsti gen</w>
Voli bris</w>
AL L
zy klen</w>
st ring</w>
PACK UNGS
Transplan tation</w>
Sho p</w>
An satz</w>
col i</w>
Regi on
ME T</w>
f ron
Vertrau en</w>
nehmer n</w>
un des</w>
throm ycin</w>
behand lungs
Qu ote</w>
Child- Pug
stra sse</w>
li fer
kombin ierten</w>
dat a</w>
f 76
Eben so</w>
y ar
schwer em</w>
Mess ung</w>
Dol lar</w>
verw altung</w>
ta bel</w>
b al
placeb okontrollierten</w>
klin gen</w>
wieder um</w>
so l</w>
kommen s</w>
alkoh ol</w>
Rap inyl</w>
ETIKET T</w>
Sp ir
c is
stat us</w>
ges unde</w>
dis per
Thy ro
Au stria</w>
komplet te</w>
g iger</w>
ent en
Mittel me
Trin k
Zü rich</w>
Stand ort</w>
Pro gression</w>
Bon denza</w>
op r
Gra fi
5 0-
mat a</w>
be qu
15 1</w>
niedri geren</w>
la fa
C M
phosp hat
grö ßer
u si
Rech nung</w>
Herr en</w>
ich tet</w>
behandel nden</w>
16 1</w>
sti p
3 75</w>
einger eicht</w>
TAX OT
mut lich</w>
Se ele</w>
erst mals</w>
t yp</w>
at hi
W ä
we gs</w>
ION SY
Rivastig min</w>
Bo den
ER UNG</w>
Bet t</w>
fre m
um fassen</w>
Hep arin</w>
Zeval in</w>
W it
Ge mü
Fer ta
er wies</w>
C RE
45 76</w>
ilo sop
Ein gang</w>
A kti
h n</w>
Rechn ungs
B ren
kö mm
wichtig ste</w>
la gen
Tas mar</w>
Lei tung</w>
Da ss</w>
gef asst</w>
Kin des</w>
sig Free
Ver sicher
C in
Tar ceva</w>
sigFree I
besch leun
pla y
S. p.
Schä den</w>
lauf ende</w>
Re f</w>
erforder liche</w>
chron ische</w>
ome tri
Kü ste</w>
s i</w>
Ber ech
Bemü hungen</w>
Om ni
HAN DEL
Arzneimittel -
A 1
de ze</w>
umfan g
d3 fc
Tho mas</w>
Op tionen</w>
ic cal
ac. hr</w>
GE R</w>
stu di
tz- otoc
tz-otoc ac.hr</w>
sigFreeI d3fc
sigFreeId3fc f76
sigFreeId3fcf76 4576</w>
iccal date</w>
D ort</w>
B ir
Aus gaben</w>
35 3</w>
verursach te</w>
höch st
betreff enden</w>
un gen
IT Z
Sardin ien</w>
na men</w>
Gel d
Be zeichnung</w>
Lo u
Toxiz itäts
Frei wil
he dr
y len</w>
HP V-
min uten</w>
Sila po</w>
ä sti
Zw ischen</w>
ber aten</w>
ö konomi
stä d
In fan
Herzrhyth musstörungen</w>
In tra
Geschma cks
AT A</w>
P ro</w>
star ker</w>
Patien tin</w>
sch leim
O l
13 4</w>
eingesch ränkt</w>
I mati
altern ative</w>
sc ar
An stren
Ge fahren</w>
ma ch
Ne ssel
H ormon
Ferta vid</w>
Der matitis</w>
Laktat azidose</w>
E del
Du b
9 8
kut ane</w>
eli x</w>
va c</w>
gr ie
Gewichts verlust</w>
St utt
D as
schwier ig</w>
Kan ada</w>
ste ten</w>
Natri u
Budape st</w>
Exper ten</w>
δ α</w>
symptom atischen</w>
Wei hnach
Temo dal</w>
Se g
Initi ativen</w>
F as
Am ster
passi ert</w>
Pro zent
HC T</w>
sau ber
li ger</w>
Anti diabe
gen saf
nis ch</w>
sp üren</w>
ma ten</w>
Sat elli
S C</w>
0,00 01</w>
op ril</w>
ul sion</w>
Karve zide</w>
Qu e
Novo Se
- Studie</w>
G anz
tie fe</w>
sta g
bu lin</w>
VF END</w>
Dosierungs empfeh
Ge mä
Festi val</w>
cin es</w>
o z</w>
elimin iert</w>
k ran
Ver stärk
R us
Co Aprovel</w>
Au stausch</w>
Eur o
Su omi</w>
d ele
berei tungen</w>
pla tz
EXU BER
Geh eim
acep t</w>
Ren a
verstär kte</w>
ci o</w>
rekonstitu ierte</w>
ur s</w>
Zy klen</w>
T isch</w>
F E</w>
m eines</w>
mi sch
bele gen</w>
D U
mal es</w>
T win
I l
Bei spiele</w>
auftret ende</w>
Ver suchen</w>
Pla yer</w>
herunter laden</w>
Re flu
Bas al</w>
bil der</w>
K i
wo che</w>
untersu chten</w>
schätz ung</w>
Ery them</w>
Blut untersuchungen</w>
j ust</w>
Thi azi
Entwick lungen</w>
ó n</w>
su chte</w>
Mab Camp
Is land</w>
En do
hal ts</w>
erklär te</w>
hand eln</w>
produ zieren</w>
Be arbeitung</w>
Afri ka</w>
ich tung</w>
Patienteng ruppen</w>
olo gen</w>
mer -
ieh t</w>
etz ungen</w>
beru f
4 -</w>
z op
R umän
s k</w>
al a</w>
Halluzin ationen</w>
DURCHSTECH FLASCHE</w>
ov a</w>
post menopaus
Z äh
Sti llen</w>
et wa
bra chte</w>
Blutgefä ße</w>
T onnen</w>
Indu ct
mittel schweren</w>
E qu
lü ck</w>
Beweg ungs
199 3</w>
P le
gesch ieht</w>
gela gert</w>
ac o
Vor der
Saf e</w>
dem ie</w>
T ol
ra y</w>
Ver stän
20 3</w>
2 20</w>
na p
Reg ierungen</w>
SCH R
ati s</w>
Hämoglo bin</w>
ver lieren</w>
ac et
S a</w>
Inspe ktionen</w>
Met ac
A ch
BeneF IX</w>
a -</w>
perfe kt</w>
vi va</w>
ve sc
G S
tnis ses</w>
mp ag
Her e</w>
b lan
Sch wimm
Pu er
Kontroll gruppe</w>
Über nach
Verschluss kappe</w>
H ab
Glimepir id</w>
Per s</w>
zeu ge</w>
exk l</w>
Ge pä
Se kret
sta mmen</w>
Tre atment</w>
Aus sicht</w>
Hau sti
ier ende</w>
Wirt schaft
J .</w>
ran g</w>
körper liche</w>
Auss ehen</w>
vereinbar t</w>
An fälle</w>
To p</w>
ausdrück lich</w>
kon zep
Wer tes</w>
vorgeschla genen</w>
Ma kro
Retac rit</w>
SP C</w>
Halt barkeit</w>
ma chten</w>
glob alen</w>
Topo tecan</w>
Er holung</w>
Kan n</w>
h o</w>
Sorbit ol</w>
Remi cade</w>
sol u
HANDEL SN
kun fts
Aufbewahr ung</w>
Nor m</w>
Rom â
Chan ce</w>
mpf ind
Ansp rü
ge teilt</w>
s. r.
komp on
ic o</w>
15 7</w>
zo g</w>
Pau l</w>
Doppel bett</w>
So wohl</w>
Kro atien</w>
em ie</w>
ho ff
r ein</w>
cur oni
F OL
Sel ten
mon ths</w>
ah nen</w>
re gu
Pure vax</w>
H aben</w>
Ge gend</w>
erst klassi
wä ch
Pro ph
be c
sorgfäl tige</w>
freund lich</w>
comp uter</w>
berei chs</w>
f ein
För der
oprot ein</w>
f an</w>
Ur sachen</w>
Româ nia</w>
ter ra
sch au</w>
and ra</w>
15 2</w>
Sta dium</w>
Über blick</w>
stin g</w>
be st</w>
HANDELSN AME</w>
bli eben</w>
t on
or ie</w>
Proze ss
ver sehen</w>
stra tegie</w>
kri min
gan gs</w>
2 1.0
Sp ar
D A</w>
HD PE</w>
organ isiert</w>
System organ
In dex</w>
ti ere</w>
dosier tem</w>
R I</w>
lo ser</w>
durchge führten</w>
Di hydrat</w>
r ier
sul fat</w>
Arthr algie</w>
unterschei den</w>
fortgeschritten em</w>
co s</w>
Z O
Medikam ent</w>
Wissen schaft
fan ta
Er war
Ad va
pla y</w>
Vie ws</w>
ck te</w>
ator ische</w>
Rhabdomy olyse</w>
H R</w>
O X</w>
es .
eben e</w>
Sin n</w>
franzö sischen</w>
1 14</w>
Ab wei
ob la
G eben</w>
O xy
en dung</w>
X T</w>
P l
über schritten</w>
beschäf tigt</w>
du ktion</w>
b te</w>
Konser vier
2010 -0
Metfor min
Gesch ir
wesen heit</w>
Mark ierung</w>
Zube hör</w>
Leberen zyme</w>
tä glicher</w>
Thrombozyten zahl</w>
Cep lene</w>
u lat</w>
o se-
weiß es</w>
steu er</w>
Schri ft
c om</w>
D em</w>
Fra kturen</w>
einger ei
BE R</w>
199 0</w>
sch einen</w>
Altern ative</w>
37 7</w>
3 00
ur lau
Sta vudin</w>
Ent schließ
hr itis</w>
be hin
b liche</w>
auf merk
et h</w>
län ge</w>
sal z</w>
St r</w>
Platt form</w>
zi ele</w>
Häu fige</w>
B ele
FS H</w>
Deh y
kre atin
So ur
Infra struktur</w>
Sü den</w>
Präsid enten</w>
1 16</w>
aller y</w>
et -
stimu lier
Ven lafa
an alyse</w>
o se
Antidepressi va</w>
M SD</w>
um gesetzt</w>
A x
tic s</w>
Re search</w>
Er leb
Be sitz
bei der</w>
1 200</w>
ungs verfahren</w>
Schwer punkt</w>
Lit hi
versch lossen</w>
stan des</w>
Ben utzen</w>
z hei
Aut or
E la
tradition ellen</w>
Haar ausfall</w>
Ange sichts</w>
m otor
17 0</w>
auf einander</w>
Er teilung</w>
Eink lang</w>
verschreibungspflich tige</w>
Z ir
Haupt stadt</w>
Fort schreiten</w>
Bon viva</w>
neu n</w>
bisher igen</w>
G ehen</w>
hin g</w>
ati ne</w>
whi ch</w>
ach tung</w>
besch lossen</w>
Ka is
Hand el
olog isches</w>
9 6
Verab reichungs
Fut ter</w>
Ovari al
s how</w>
Or phan</w>
al ph
in es</w>
Enga gement</w>
sätz lich</w>
gelan gt</w>
fu sions
Metaboli t</w>
Gebie ten</w>
Hb A1
Bo ard</w>
Stutt gar
S ele
malig nen</w>
Oper ationen</w>
Hü ft
f ett
d c
BE ZEICHN
Ga st</w>
her es</w>
enthalten en</w>
Progra mm
25 25
se a</w>
tu t</w>
kon ver
reich er</w>
zop hr
tic a</w>
supp ression</w>
am ine</w>
Man agement
En th
3 000</w>
lö st</w>
4 2
be zahlen</w>
Auss prache</w>
2011- 0
to -
Ver häl
5, 0</w>
Sep sis</w>
bis lang</w>
grei f
F ähigkeiten</w>
E missi
ben ach
te ste</w>
sp la
U R</w>
ver packung</w>
kor rig
Formu lar</w>
B enz
St au
neg ativ</w>
kehr en</w>
Produ ktes</w>
La ger</w>
Kategor ien</w>
inner e</w>
P S</w>
Pilzin fektionen</w>
str ation</w>
pla tte</w>
Antibio tikum</w>
p ic
G O
Prot eine</w>
aus lösen</w>
sen kt</w>
Nevir apin</w>
ag a
I M</w>
Hel ic
ursprün glichen</w>
bwer tzeit</w>
Ein stich
Ger man</w>
bo x</w>
Ged äch
18 3</w>
tra vel</w>
P .
Gol d</w>
ly ko
Cytochro m</w>
gu tes</w>
2 31</w>
der zeitigen</w>
view topic
ver sicherung</w>
li mmern</w>
persön liche</w>
te k</w>
Sulfonylharn stoff</w>
Mod elle</w>
ges enkt</w>
ta te</w>
l s
Dub lin</w>
st ol
qual it
am ini
farb los</w>
Leu kopenie</w>
l o</w>
kom fort
ber s</w>
Sac char
Diar rhoe</w>
Zomet a</w>
b ack
Dar m-
R ab
An bruch</w>
zuverlässi ge</w>
Induct Os</w>
Gar da
. int</w>
Durch schnitt</w>
viewtopic .php</w>
. at</w>
d ronat</w>
a gr
er ör
0 21</w>
zu trifft</w>
Phenyl alan
cep t</w>
Inno Let</w>
CO X-
Schwindel gefühl</w>
Kaffe e</w>
Κ ύπρος</w>
ad äqu
zurück zu
me -
erken n
x en</w>
ge sti
fü llung</w>
A g-
dyna mischen</w>
par enter
g ht</w>
den .</w>
hinzu gefügt</w>
tr an</w>
ZUSAMMENF ASSUNG</w>
ER T</w>
Schlussfol gerungen</w>
B rin
Schwei zer</w>
E re
veränder te</w>
Verhalten s
übri gen</w>
rech tlichen</w>
12 2</w>
1 18</w>
kon stan
spit ze</w>
l öffel</w>
Führ ung</w>
Blutgerinn sel</w>
stip ation</w>
Gä ste
Kar di
Dys funktion</w>
ab lo
Re st
Tour is
Prä sidentin</w>
fe ste</w>
tin a</w>
SPR ITZ
anwen dung</w>
näh er</w>
2, 7</w>
Künst ler
or tho
Ta mi
infe ktionen</w>
gewünsch te</w>
Schutz kappe</w>
still enden</w>
ent standen</w>
Infan rix</w>
zw öl
ide ale</w>
ob ut
schlu cken</w>
ste x
mikro bi
eini gt</w>
1A 2</w>
2 C
Gemä ß</w>
Retard tablette</w>
AC E
ar ti
Kon figur
Ar men</w>
ox eti
be tt
ne l</w>
hi p</w>
le y</w>
s m
Miner al
en es</w>
Tre mor</w>
han del</w>
Wei ß
Hautrö tung</w>
ga zin
g st</w>
trop in
Qu art
tre tino
bil dungs
Bau m
for me</w>
2, 8</w>
Behäl tnis</w>
Ab teilung</w>
Ä hn
hal b
Koordin ierung</w>
Immun suppressi
tar get</w>
Ελλά δα</w>
Pharmazeu tischer</w>
Deb atte</w>
Ac lasta</w>
tox ische</w>
be für
stradi ol</w>
Tele fon
Gen otyp</w>
b an</w>
En gin
3 31</w>
Pu h</w>
. 12.
a ir
gemel det</w>
M I</w>
fortgeschritten en</w>
f ische</w>
e mi
D es</w>
her vor</w>
Di dan
he um
ver mutlich</w>
id in</w>
W -
AC E</w>
20 6</w>
Wil d
Nutzen-Risiko- Verhältnis</w>
star ten</w>
Tro p
hil fen</w>
fun ktionen</w>
TI N</w>
tt o</w>
mittei len</w>
Ber g</w>
li mi
blut ungen</w>
Medi an</w>
Sch ach
th em
Pro per
B le
Anwendungs gebiete</w>
Fach information</w>
bu ch
onsul tan
Tipran avir</w>
af en</w>
Comp uter
monat lich</w>
Q T
1 14
Bl umen
l ab
or rh
To ol</w>
nen nen</w>
Bü cher</w>
Aut ob
or ange</w>
blo g</w>
Injektions zubereitung</w>
G N
bo t</w>
Polyprop ylen</w>
K n
Gä sten</w>
zu gleich</w>
k ette</w>
Ins besondere</w>
Glau ben</w>
osi s</w>
komp et
EW G</w>
Lor atadin</w>
ct al</w>
Se e
ständi gkeit</w>
führ ende</w>
NR TI
toler anz</w>
Br un
bezieh t</w>
F itness
te gien</w>
Mikro w
3 20</w>
K ris
16 8</w>
a den
K arton</w>
Spiel en</w>
ver mietung</w>
x i</w>
schü tteln</w>
mon o
Plasti k
24 ,
M ischen</w>
zyt otox
kultur ellen</w>
akzep tiert</w>
instal liert</w>
öh ne</w>
on ia
s land</w>
ma top
sch wei
Z one
Ner v
Deslor atadin</w>
Stoff e</w>
erzeu gt</w>
Di men
Man u
n eter</w>
c el</w>
inc lu
blu ten</w>
Ab lauf</w>
em ent</w>
in i</w>
ST ER
persön lich</w>
Karve a</w>
Gewähr leistung</w>
tö dlich</w>
1. jpg</w>
stat tet</w>
ak ul
rel igi
jün geren</w>
al b
potenzi elle</w>
gegenwär tig</w>
gewand elt</w>
t amin
antwor ten</w>
Sal be</w>
Kon jun
Sili cium
sä ule</w>
er öffnet</w>
Mikro kristalline</w>
h ason</w>
funktion ieren</w>
2, 1</w>
Unter zuck
berühm ten</w>
A den
medikam ent</w>
be stellen</w>
Jahr zeh
Dexamet hason</w>
Kombin ationen</w>
mel dung</w>
Immun ogenität</w>
rie bene</w>
eti de</w>
Gar ten
H en
Be griff</w>
ge gebenen</w>
Psoria sis-
Ser etide</w>
00 1-
Pflan zen</w>
Einzel heiten</w>
Spe zies</w>
Harn wegsin
Hal s
m ün
Ser oton
K ä
j ap
L os</w>
Pro top
Lis sab
SU ST
sh ops</w>
o genen</w>
i. v.</w>
g on
Dy ne
en .</w>
instal lieren</w>
Empfängnisverhü tung</w>
Un ruhe</w>
w at
far be</w>
kal z
Son stige</w>
Proze sse</w>
12 1</w>
äl e</w>
Refer at</w>
produ ct</w>
Masch inen
Sa ison</w>
po in
g ran
á g</w>
thrombo emboli
Verschie dene</w>
il and</w>
absol ut</w>
wid met</w>
v ing</w>
schön sten</w>
Tran samina
ta gen</w>
k örper</w>
desig n</w>
Obje kt</w>
s wert</w>
omi d</w>
an a.
E ffizienz</w>
Bild schir
www. immobilsarda
www.immobilsarda .com</w>
or -
F ö
201 3-0
er setzen</w>
ar ischen</w>
y le
C ONST
Blutgerin nungs
Magen- Darm-
aufge teilt</w>
Schi ff
o .com</w>
An schließend</w>
schi cken</w>
Bla sen
k ä
inn eren</w>
TOR IS
Zus ti
b all
Ul tra
K le
De fer
ak ar
Auf lösen</w>
b ende</w>
Rati o</w>
Gegen stand</w>
Wirkstoff s</w>
w s-
säm tliche</w>
de h
Mor e</w>
nach ge
dur as
Ein en</w>
E di
Ad ali
Fir men</w>
erhöh ung</w>
1 19</w>
Kanü len</w>
gl ück
Werkzeu ge</w>
Ge we
EN SCHAF
CH AMP
anti -
Bot schaft</w>
si mpf
ger -
Gebär mut
Wirkstoff freisetzung</w>
2 2.
Nach beobach
gerin geren</w>
Placebo- Gruppe</w>
ko ordin
K ein</w>
Dar stellung</w>
Ori en
I L-
Sin d</w>
Per spe
Gal erie</w>
Log is
Net z</w>
auf nehmen</w>
ab len</w>
Tro tz</w>
Lami ctal</w>
s lo
Häm ophilie</w>
Se ktor</w>
S Q
Ar e</w>
Etiket tierung</w>
Zu griff</w>
T P</w>
Defini tion</w>
Herp es</w>
Bon dronat</w>
oi de</w>
or sz
K art
Jer us
Muskel schwäche</w>
- Behandlung</w>
Lo g</w>
G ute</w>
Frühstücks buffet</w>
EP T</w>
nie mand</w>
ap par
europä ischer</w>
scha ff
sto ster
un er
Pers ön
Sol ar
hot els</w>
Mitarbei tern</w>
fu g
ö st
Cir c
schä tzen</w>
K lo
an passen</w>
O hn
zentr alisierten</w>
.08. 2015</w>
ver lan
25 -
Z U</w>
depre ssion</w>
Bra sili
irgend welche</w>
ge zi
Verbess erungen</w>
D ri
ze sse</w>
hier zu</w>
Instrum ente</w>
h är
Ord nung</w>
Me d
NovoSe ven</w>
Partner schaft</w>
ungs -
her stellung</w>
eingesch ränkte</w>
erwäh nt</w>
Ö l</w>
w. php</w>
post nat
T rei
Ag onisten</w>
Tami flu</w>
K m</w>
ter ien</w>
W ISS
zei traum</w>
her ausge
st rau
Co ok
Zu cker</w>
Werkzeu g</w>
ti ef
Sti mulation</w>
Alters gruppe</w>
Regel ung</w>
Haus halt</w>
4, 8</w>
identi fiziert</w>
Co mmun
künst ler
for nien</w>
2, 2</w>
b at
T LI
Calci um</w>
for ts
Schie ds
Risikom an
teil ungen</w>
fün f
U C
.com .
tr at
vermu ten</w>
ö ster
Herz erkrankungen</w>
farb ene</w>
Unter nehmer
10 H</w>
üch tern
Ju den</w>
D amen</w>
englyc ol</w>
Tex as</w>
Di alyse</w>
Sand oz</w>
pla tten</w>
kalz ämie</w>
Pak et</w>
Sloven ija</w>
ra ts
do -
Heraus forderung</w>
Cholester in
beg ei
g ig
b enden</w>
Amster dam</w>
Ger icht</w>
er es</w>
schri f
W ün
Vi ani</w>
Tri zi
8 6
Puer to</w>
Ob stipation</w>
K en
ö k
is oli
Präpar ate</w>
Omni trope</w>
H oll
über ra
fu er</w>
Investi tions
c y
X P</w>
ch ri
extr em</w>
Herz frequenz</w>
aufge fordert</w>
Radi o</w>
K unde</w>
Flei sch</w>
Be funde</w>
bein halten</w>
Twin rix</w>
Com p</w>
A D</w>
j or</w>
Injektions -</w>
aufgeli stet</w>
abzu setzen</w>
Oh ne</w>
t nissen</w>
spar t</w>
bezo genen</w>
Polyethy len</w>
zyto se</w>
Ar rhyth
verbess erte</w>
trau ms</w>
Provin z</w>
Ent stehung</w>
d ut
V III-
it hromycin</w>
er ter</w>
ar s</w>
Forts etzung</w>
st abili
F ür
Benutz er
ri mi
na mens</w>
W and
AID S</w>
Schwanger schaft
hibit oren</w>
a er
Efe x
zu lässi
region alen</w>
V ec
Gleich zeitig</w>
histor ische</w>
H als</w>
so genannten</w>
ruhi gen</w>
orsz ág</w>
an bieten</w>
2 4.
log is
O H
gri ppe
ARZNEIMITTEL S</w>
ü ben</w>
an fän
er läu
Nor vir</w>
Hor n
per si
Sch ätz
B ett
ma in</w>
Zah lungs
Ausgan gsp
Adva graf</w>
met er</w>
deck ung</w>
Eng land</w>
Tex te</w>
c ell
go od</w>
Wieder hol
präsen tieren</w>
mmer zi
ba sieren</w>
K iv
Infu sion
ver teilung</w>
schw ell
ein fachen</w>
M Y
P hili
mi ra
feh lt</w>
B enzo
ber ühr
N üchtern
TAXOT ERE</w>
war t</w>
betr achten</w>
be haup
9 4
ent gegen
experiment elle</w>
Nahrungs aufnahme</w>
her zustellen</w>
Natriumchlorid lösung</w>
Not fall
of i</w>
Emb ry
z one</w>
dap tive</w>
s u</w>
emea.eu .int</w>
Cap ec
teu er</w>
ein setzen</w>
Appeti t</w>
diesel be</w>
dan ke</w>
Sc an</w>
An thr
Al li
Städ ten</w>
Proje kten</w>
erweiter t</w>
Lit er</w>
A ku
tr on</w>
he mmen</w>
genommen en</w>
ch ens</w>
SUST IVA</w>
syste mati
Stuttgar t</w>
ver langsam
Helic obacter</w>
tt herapie</w>
Slo wen
Protop y</w>
radio aktiv</w>
kro se</w>
ünsti ge</w>
ts .de</w>
star tet</w>
Verstän dnis</w>
S ab
beur teilen</w>
ne ws</w>
Vorauss etzungen</w>
Didan osin</w>
tra ges</w>
CONST A</w>
re zep
o us</w>
Maxi mal
auszu füllen</w>
F al
ssi g</w>
che mischen</w>
n .
unter gang</w>
N V</w>
ima ge</w>
In n
Imp ress
14 -
i ges</w>
Dosisan passungen</w>
ver schreiben</w>
on y
Einstich stelle</w>
.c z</w>
überzeu gt</w>
ag li
Besonder s</w>
TE R</w>
ver halten</w>
Zusti mmung</w>
er toric
200 9-0
is on
Benutz ung</w>
pd f</w>
zu zu
an steigen</w>
T em
volu tion
Durch schnit
geh ei
gew eb
War te
Var denafil</w>
20 5</w>
k ehr</w>
trot z
ungspro zess</w>
Trizi vir</w>
Har d
2- mal</w>
Profess or</w>
star t</w>
Joh annes</w>
impf ung</w>
Infu sionen</w>
ärz tliche</w>
gra n</w>
Pap ier</w>
t end</w>
San ofi</w>
konfer enz</w>
Ge staltung</w>
1, 9</w>
Ro y
M r
anzi en</w>
Ma ß</w>
Bür o</w>
o ste
begrü ßt</w>
Standar d-
Din atri
ov ari
Inf os</w>
Lansop raz
Gem fibro
Fü ßen</w>
Kom a</w>
v o-
gerin gere</w>
Radio aktivität</w>
CHAMP IX</w>
ov ale</w>
ar ische</w>
Al an
H orm
ka mmer</w>
C ML</w>
wel chem</w>
isch ä
ge sprochen</w>
Ver arbeitung</w>
O L</w>
Micro soft</w>
Analy sen</w>
2 70</w>
o sa
us tin</w>
neue sten</w>
We sent
Efex or</w>
Gol f</w>
rho se</w>
Sprit zen
Kontroll en</w>
Belast ung</w>
d ichte</w>
Mag yar
p atienten</w>
A ro
statt finden</w>
elektron ische</w>
Tal kum</w>
Soli ris</w>
tr y</w>
p ot
chine sischen</w>
Registr ierung</w>
Ab se
R and
7 4
35 4</w>
Chr isti
Ver größ
ehr t</w>
be en</w>
Verab schie
Ber ge</w>
Bin oc
Vereinig te</w>
Stal evo</w>
op en-
Sp uren</w>
Rap tiva</w>
Pel zont</w>
Po vidon</w>
ub a</w>
Koch salz
T W
py lor
ak e</w>
wähl te</w>
auf rechter
ab ra
zen s</w>
la tor
Ein stellungen</w>
woh nen</w>
n utzt</w>
gül tig</w>
Er forder
Sp iegel
ho li
Alb um</w>
interessi ert</w>
17 4</w>
JP G</w>
ven öse</w>
oli tis</w>
termin ale</w>
aphy lo
Stick stoff
AB ILI
sin g</w>
id o</w>
ster -
Em tri
St ück
Par ken</w>
Plasmaprot eine</w>
Aben dessen</w>
ic an</w>
STO CR
prakti sch</w>
co de</w>
So uth</w>
ch mals</w>
6. 1</w>
italien ischen</w>
C hrom
än ger</w>
IN TEL
B ahn</w>
ABILI F
tem ra</w>
erg reifen</w>
Ac temra</w>
or alem</w>
Obje kte</w>
Bün del
ver bringen</w>
Phase- III-
M D
Siroli mus</w>
ein -
O ra
ob ar
EN CE</w>
Kali um</w>
C arb
auf gelöst</w>
um welt
her um</w>
aus län
TORIS EL</w>
R itu
nach haltige</w>
bla sen</w>
Gesamt über
v ali
An kunft</w>
tr in</w>
grie ch
37 3</w>
st altungs
multi zentr
för dert</w>
gin nen</w>
Well ness
No ch</w>
EI B</w>
produ kt</w>
men gen</w>
Versuch s
Camping platz</w>
F ig
Nerv osität</w>
por tional</w>
ob e</w>
be herr
zu gang</w>
Re siden
A K
gele genen</w>
FER TIG
F ün
Sto ck</w>
Mon it
schlu ß</w>
R am
St aphylo
S R
S ICH
Schrit ten</w>
stop er
an om
t ure</w>
F r</w>
schrei bt</w>
Haus es</w>
Li ve</w>
G lyk
Antidiabe tika</w>
Kombin ations
La gerung</w>
Venlafa xin</w>
Kortikosteroi den</w>
Verpflich tungen</w>
v ierten</w>
Ter ror
Die sen</w>
ä use</w>
c ali
rie si
Sp ä
Re gen
zie mlich</w>
frei em</w>
Zy lin
Aus führung</w>
ant ie</w>
Fü hren</w>
Ban ken</w>
Archi v</w>
trotz dem</w>
Abse amed</w>
-c onsultan
in dex</w>
olog ie
Pfer de</w>
18 -
ästi nen
Alt stadt</w>
kum ulation</w>
kor tiko
verminder ter</w>
w ahl
mi schung</w>
Ro Actemra</w>
H D</w>
www. rau
mus sten</w>
6 3
Ägyp ten</w>
u a</w>
Or te</w>
verbin den</w>
langfris tige</w>
A ma
sei d</w>
sch lecht</w>
m om
Strep to
L ü
Bü ro
4 64</w>
ph ie</w>
tropin A
Nu tropinA
Wei ße</w>
199 1</w>
Silicium dioxid</w>
Produ ktin
schlä gen</w>
NS AR</w>
ver folgen</w>
um geben</w>
u d</w>
Be feh
kl eines</w>
ST R
hi elten</w>
Tre daptive</w>
Ent sprech
Char akter</w>
ma ssi
S kal
Opti Set</w>
S.p. A.</w>
Gesamt -
U ser</w>
ren ov
Erythropo etin</w>
Schä digung</w>
ist an</w>
be sprechen</w>
Eigen tü
c op
Sch ö
Natrium di
en em</w>
Dü ssel
Binoc rit</w>
will kommen</w>
OL ANZ
OLANZ AP
ähr t</w>
wes halb</w>
Anti hist
kl ein</w>
man i
ver trä
C am
Über prüfen</w>
an tik
www.rau -consultan
www.rau-consultan ts.de</w>
d einen</w>
ster ne</w>
Phot os</w>
ie ßen</w>
C IA</w>
rei s</w>
G B</w>
si l</w>
Ein kaufs
Beru fs
o gene</w>
Ärz ten</w>
wir st</w>
konv exe</w>
Nicotin säure</w>
geräu mi
ell en
Stru ktur
Sp a</w>
or ts</w>
x y-
f ter</w>
an er</w>
Dre i</w>
At mung</w>
Ver hin
Slo wak
Sch loss</w>
Patienten jahre</w>
co un
Drit t
ir u
An tr
j et
Li ber
zu ständig</w>
um gewandelt</w>
E tra
C l
vermin dern</w>
gan gene</w>
blan k</w>
syn th
ABILIF Y</w>
reserv ieren</w>
wahr en</w>
WISS ENSCHAF
dr en</w>
Sim ul
Pre sse</w>
gr enzen</w>
T ür</w>
T Y
st o</w>
produ kten</w>
woh nung</w>
rän ken</w>
erh oben</w>
fri ka</w>
et hn
Ca sin
li ebe</w>
kno wn</w>
Tri gl
S klerose</w>
Gemfibro zil</w>
Pro topic</w>
Gran ulat</w>
www. bi
blau e</w>
V as
Blo g</w>
b us
WISSENSCHAF TLI
Verletz ung</w>
Ab bau</w>
ro man
ausge wählt</w>
Min dest
H alle</w>
ind ire
Atem beschwerden</w>
I E
CI AL
Ab at
o x</w>
Sel b
lo ve</w>
Str om</w>
Emtri va</w>
inter nationaler</w>
Ab ra
z erk
14 3</w>
wel l</w>
B ör
Par t</w>
dien stlei
be cken</w>
IN FORMATION</w>
Arzneimittel wirkungen</w>
ti sches</w>
mei dung</w>
lin gen</w>
fe sten</w>
Health care</w>
fie d</w>
dür fte</w>
Magyar ország</w>
Zone gran</w>
Tre vac
ru f</w>
Sel bst</w>
5 000</w>
pharma zeu
def au
fer n
Verstärk ung</w>
gespeich ert</w>
N E</w>
sp rin
organ isation</w>
c lu
Hoff nung</w>
ver kauft</w>
The ater</w>
getren nt</w>
la s
i o</w>
gestal ten</w>
fi el
TE XT</w>
Be grün
o u</w>
mus -
Stun den-
al ge
Hin sicht</w>
Kochsalz lösung</w>
t ut
IN CRE
möglich er</w>
har d</w>
So zi
hrom bo
ju van
L da</w>
in aktiviert</w>
Gran d</w>
bequ em</w>
bru ch
STOCR IN</w>
Ent wurf</w>
AA AA
gew al
7 -0
it a</w>
p l</w>
iden tisch</w>
D K-
kur s</w>
der artige</w>
D eri
Verhü tungs
4- hydroxybenzoat</w>
sch lech
sch il
be ta-
2 -</w>
def ovir
Kiv exa</w>
A defovir
qu ellen</w>
pun kten</w>
Sei ten
2 1.
Kap azität</w>
J ur
Fle cken</w>
m em
t t</w>
2 16</w>
gei sti
Rec ormon</w>
Neo Recormon</w>
Mess löffel</w>
EV RA</w>
D af
zep hal
Pa x
einig tes</w>
T S
II .</w>
aufmerk sam</w>
2 1
a h</w>
elektron ischen</w>
geb äu
Ver such</w>
Stra ßen</w>
bo den</w>
2 x</w>
Blister streifen</w>
n y</w>
Syn kop
erinn ert</w>
Sp ri
C D-
li ter</w>
I b
Belgi um</w>
Augen innen
dopp elt</w>
öff nung</w>
fl un
sicher gestellt</w>
Posa conazol</w>
A d-
War e</w>
Re volution</w>
wiederhol en</w>
tretino in</w>
Phot o</w>
van ce</w>
kardiovaskul äre</w>
it h
Rumän ien</w>
Hei lung</w>
fer tige</w>
Bron cho
AC EPT</w>
lymp h
sk op
astro ph
VIR ACEPT</w>
Per tus
rekombinan tes</w>
Grün dung</w>
Janu via</w>
H Er
13 3</w>
zy topenie</w>
Tru vada</w>
Re serv
B rennen</w>
Z ar
E M</w>
We sten</w>
yc lin</w>
Bet ablo
ri k</w>
assozi ierte</w>
S we
Impress um</w>
Bul gar
th ere</w>
bur ger</w>
E st
DN S</w>
ro ter</w>
op e
V eterin
Sti ftung</w>
Gelb sucht</w>
F ett</w>
ver se</w>
sei tigung</w>
g ä
be h
u st
Met h
Hausti ere</w>
iton in</w>
krank heiten</w>
In ser
angemess enen</w>
Man n
Langzeit behandlung</w>
Finan zier
s me
R as
Ein satz
Ban k
Impf ungen</w>
fab u
F AB
tig ungen</w>
Serum kreatin
19 0</w>
vaskul äre</w>
ti de</w>
po wer
i ckt</w>
Tierarzneimittel s</w>
Feh ler
re stauran
betr ugen</w>
Reiz barkeit</w>
R F
Nife dipin</w>
Geträn ke</w>
CYP2C 9</w>
ograf ie</w>
jen er</w>
doppel te</w>
0 24</w>
K ür
verminder ten</w>
Z -
Studi um</w>
oti d</w>
AP EX
bot t</w>
N on-
Kranken haus
A mm
2 29</w>
ausgeprä gt</w>
Al bumin</w>
Beobach tung</w>
lo bulin</w>
Val en
Schlu cken</w>
Fahr t</w>
p ak
Jerus alem</w>
Auf zug</w>
a o
TE C</w>
Stär ken</w>
ko mmerzi
Medikam enten</w>
auf en</w>
Ev ents</w>
R ig
vil le</w>
g at
bess eren</w>
A s
no chmals</w>
Vier tel</w>
Ab bott</w>
st om
ssy n
Fre e</w>
syn drom</w>
masch inen
Y C
Stä mme</w>
hy l-
2 19</w>
st rit
sch ar
lig ht</w>
eingerei chten</w>
Doxor ubicin</w>
Throm b
1 13</w>
th y
eri a</w>
Instrum ent</w>
EXUBER A</w>
Ab w
en ge</w>
Schat z</w>
Knochen mark</w>
Den ken</w>
gesell schaften</w>
H ün
an g
CD ATA</w>
20 8</w>
ord nungs
Aut os</w>
Gegenan zeigen</w>
Fu ze
Cop y
Schi zophr
B auch</w>
OR EN
3, 4</w>
wer e</w>
kontin enz</w>
ho c-
Hi stor
hin weg</w>
ge kehrt</w>
FERTIG SPRITZ
CIAL IS</w>
hervor gerufen</w>
ver is</w>
Trevac lyn</w>
Re spon
Spa zier
mi litär
erfahr enen</w>
S OM
c ch
Mar avir
Di ov
lä sslich</w>
Unver träglichkeit</w>
Drit tel</w>
un sten</w>
sei tigen</w>
st rei
sin n</w>
pf le
Elektr oly
C eri
ZU R</w>
Süd ti
V ic
MabCamp ath</w>
z em</w>
p ens</w>
H z</w>
lin gs
gl .</w>
oper ativen</w>
Schlu ck
schla f
Schön heit</w>
Em ulsion</w>
vi x</w>
wer det</w>
ber at
Influenz a-
l te</w>
korre kt</w>
Fre und
schi enen</w>
Gel atine</w>
Cefur oxi
p le
Kreis lauf
.. ...</w>
wi der</w>
Anti epilep
ti gem</w>
o ut
vi li
gescho ss</w>
0 46</w>
Dau er
wer tet</w>
ar ab
Ö l
Stre cke</w>
verzö gert</w>
lich sten</w>
einge stu
schwar z</w>
an ische</w>
N Y
ep i
Fre unden</w>
la dung</w>
an schließ
Frie den
grün dlich</w>
G ames</w>
me o</w>
R ein
En vi
gra mm
Fuze on</w>
Will kommen</w>
Cholesta gel</w>
Actrap id</w>
her kömm
m ole
OP A</w>
ra tes</w>
o c</w>
au ber
Sich t
e -</w>
T ABLETTEN</w>
Ri fabu
mittel gra
7 9
äl t</w>
www.amarilla s
Fil ter</w>
Eliminationshal bwertszeit</w>
D ach
4, 6</w>
Mitglie dern</w>
Insu lat
gi a</w>
Past eur</w>
But yl
po stoper
et a</w>
ähn liches</w>
p neum
krei s
einig ung</w>
Insulat ard</w>
Gut ach
Bauchspeichel drüse</w>
C P</w>
versi egel
senk enden</w>
Proto koll</w>
ri ge</w>
hoh es</w>
al li
en .
Verhin derung</w>
Augen li
en i
Mo xi
a sen</w>
Re par
Lebens mittel</w>
bla u</w>
aufrechter halten</w>
a ges</w>
Th em
rie b</w>
amin o
H O
De velopment</w>
Bil dern</w>
g ot
Blutdruck abfall</w>
un gewöhnliche</w>
randomi sierte</w>
B einen</w>
Ste ven
Ser o
Dosierungs schema</w>
b un
anzu passen</w>
4, 0</w>
ul en</w>
Strahl entherapie</w>
R ü
oxi fen</w>
3, 6</w>
e y</w>
S UT
sp ruch</w>
um t</w>
gu e</w>
T I</w>
Te stoster
Comp any</w>
ht ml</w>
Sloven ská</w>
ti v</w>
sp ritze</w>
über schrei
förmi ge</w>
4 000</w>
ss er</w>
Bu sil
bewer tung</w>
einfach er</w>
Di ph
ap hane</w>
13 7</w>
Lansopraz ol-
ter us</w>
mor gen</w>
gef ör
Benzo dia
ari um</w>
angewen deten</w>
S how</w>
Prot aphane</w>
M I
gesa mm
Vorsitz ender</w>
zufrie den
b and</w>
aus gew
sta dium</w>
ra t
c ed</w>
b latt</w>
Unter teil</w>
HBe Ag-
tie f</w>
Kin er
En zephal
Sch alt
D o</w>
schw ellen</w>
a kt</w>
wä sche</w>
let ter</w>
Nach t
ver folgt</w>
Kons equ
az erb
Todes fälle</w>
ge stellte</w>
W ann</w>
Met all
Vi elleicht</w>
nach folgend</w>
Part nern</w>
Capec itabin</w>
Mod ell
n ör
3 D</w>
persi sti
schrif tlich</w>
Applik ations
é e</w>
Indi vidu
Kooper ation</w>
Ä R
min im
gesch la
geh oben</w>
G lück</w>
op ha
eti sch</w>
Unter lagen</w>
vesc a</w>
is -
Za vesca</w>
19 6</w>
empf angen</w>
schla g
erleich tern</w>
Zy to
v us</w>
d lichem</w>
al ter
ein sch
stab iler</w>
alisier ungen</w>
zi mmer
aus gelöst</w>
Gener al</w>
akar zin
Deri v
all i</w>
re zidi
p on
ehemali gen</w>
ungspro gramm</w>
Hydro chlorid</w>
mod ell</w>
einzigar tige</w>
Amarilla s
ss pe
ol ie</w>
dreh t</w>
NutropinA q</w>
Lis in
ji zieren</w>
B y
be achtet</w>
F R
Zu g</w>
T rän
Leber erkrankungen</w>
Envi age</w>
moder n
Laborator ies</w>
C et
p ng</w>
emb ran
el a</w>
Ex azerb
umfass enden</w>
Immun ität</w>
B üh
V E</w>
Folli tropin</w>
Di aco
zü ge</w>
gew ichts</w>
K auf</w>
Gipf el</w>
Bab y</w>
pen sion</w>
Farma c
si mp
Mon ats</w>
J usti
ster ilen</w>
di mpf
VER K
Off ice</w>
Flü cht
zuneh men
31 st</w>
betr äch
brü che</w>
ba sis</w>
Ein griffen</w>
ret ention</w>
Beglei t
hy dr
h ts</w>
Kli ma</w>
Feu er</w>
Erhalt ungstherapie</w>
kon zip
Verzö gerung</w>
b .
u da
Proteas ein
ACE- Hemmer</w>
embr y
B -</w>
og ruppe</w>
kin -
P P
schnit ten</w>
d einer</w>
G ünstige</w>
ti l
te ur</w>
i ten</w>
v is</w>
bel ast
Schließ lich</w>
g or
innov ative</w>
ge stütz
End ometri
af ri
My el
Blutgerin nung</w>
1 x
veran stal
u k</w>
Z yp
Wet ter
TE SAV
TESAV EL</w>
th ema</w>
er y
stab ile</w>
198 9</w>
Sir up</w>
Nach hal
yn gitis</w>
in aktiv
Train ing</w>
Lympho zyten</w>
Bade wan
Tel ithromycin</w>
Flexi bilität</w>
g ast
log 10</w>
A re
m enten</w>
Dokum enten</w>
Neu lasta</w>
Ver sagen</w>
er re
Dep o
gegenwär tigen</w>
Dyne po</w>
on es</w>
bi a</w>
pop ul
Slowen ien</w>
rekombinan ter</w>
männ liche</w>
Mo sk
te pla
Diov an</w>
MIR APEX
Wor ten</w>
A sp
0 49</w>
An gehöri
Amer ika</w>
Wär me
ort un
lau b
de ter</w>
aus schu
Ver färbung</w>
Anstren gungen</w>
regi on</w>
k ation
W an
O x
Fru cht
Wer bung</w>
me d</w>
T räume</w>
T al</w>
mei ster</w>
An stie
wer ken</w>
per n</w>
pp s</w>
durchschnit tlichen</w>
Sekret ari
Proper ties</w>
Oberschenk el</w>
Har n</w>
vi vo-
kons ulti
Ma tri
20 2</w>
M g</w>
te mpfind
fen ster</w>
bin den</w>
F luss</w>
Du o
metastasier tem</w>
materi alien</w>
schlä gt</w>
my ko
lu ckt</w>
Lac osa
uti ne
um s
Nieren problemen</w>
ei d</w>
INTEL ENCE</w>
g ard</w>
beobach tete</w>
Ausgangsp unkt</w>
to xi
antiretrovir ale</w>
T M
ssy mptom
o sin
mit geliefer
di on</w>
gewis se</w>
Agr ar
garanti eren</w>
länger en</w>
UL N</w>
P 450-
ter min</w>
klassi schen</w>
S t</w>
O P</w>
Ta sig
MIRAPEX IN</w>
Clo far
Stud enten</w>
Aktiv ierung</w>
u mab</w>
geb ene</w>
lich t
zi gen</w>
ta ten</w>
cu ba
Progra m
Fil me</w>
B isch
Auf sichts
ro r</w>
wä gen</w>
pharmak ologischen</w>
UM KARTON</w>
Techn ische</w>
te ure</w>
OP T
bakteri elle</w>
Steu erung</w>
Wy eth</w>
st i</w>
W ör
Fol genden</w>
C O</w>
en heit</w>
säur e-
Vorauss etzung</w>
20 7</w>
It al
in form
Kil ogramm</w>
Organ e</w>
Men in
ge trock
abhän gigkeit</w>
st rä
fre e</w>
Gl ustin</w>
IONSY S</w>
Geh minuten</w>
G it
r ent</w>
k lassen</w>
d rau
ab gegeben</w>
Intera ktions
FAB LY
du strie</w>
Ver meidung</w>
hämat ologischen</w>
Schizophr enie</w>
ser krankungen</w>
erken nt</w>
To il
Previ ous
IS EN
Windo ws-
postmenopaus alen</w>
geb un
physi kalische</w>
IN VE
mark ierten</w>
in zwischen</w>
gerin ger
Etra virin</w>
Er zeug
ma ss
be währ
Geschä fte</w>
Depo Cy
S olo
15 00</w>
In jizieren</w>
Plazeb o-
Cep hal
ein schränkung</w>
Spri meo</w>
Pä diatr
osi tion</w>
in fluenz
Medi zin</w>
zwöl f</w>
Phosphat ase</w>
vorgeseh enen</w>
ali do
ab gew
Austr alien</w>
Hypoglyk ämien</w>
ap artment</w>
AI M</w>
Previous 1</w>
0 27</w>
Z iv
Len alido
V IS
Be seitigung</w>
nü chter
je gliche</w>
19 5</w>
Rev li
s w
Revli mid</w>
Autom obil
an spruchs
Stär kung</w>
wik i</w>
nach hal
Z A
Anti psycho
bi ologischen</w>
be wirken</w>
vi tis</w>
sch är
hin zu</w>
beauf tra
Perio de</w>
Er fin
Dr ehen</w>
ent sorgt</w>
spä teren</w>
IN O
gre at</w>
Hä ma
n ischen</w>
Verbrau cher
Val tropin</w>
weit gehend</w>
us ste</w>
um ent
Behandlungs gruppen</w>
frü h</w>
Wieder aufnahme</w>
O g</w>
Aus flüge</w>
mal iger</w>
fähi ge</w>
SOM AV
Photo Bar
ommen es</w>
15 5</w>
wesent liche</w>
Verabreichungs ort</w>
A ir</w>
E dition</w>
gel tenden</w>
eu ch
the or
Unterzuck erung</w>
Min der
IN GER</w>
Düssel dorf</w>
0 31</w>
Eth in
ähn licher</w>
20 20</w>
bi ge</w>
arbei ter</w>
Hypo kaliämie</w>
te chni
Ro ck</w>
Kam era</w>
E ch
Dire ktor</w>
12 4</w>
Bru ch
H ö
Sc re
te e</w>
prä sent
Ü N
TR ISEN
Qui xi
g ton</w>
Tra ck</w>
Syndro ms</w>
E bi
Komment ar</w>
tö tet</w>
gro und</w>
Ha em
s.r. o.</w>
stei gern</w>
che ster</w>
AL E</w>
Rück kehr</w>
Fahr en</w>
c ity</w>
be folgen</w>
Prin zip</w>
AL T-
201 5-0
M ur
. 48</w>
verringer ten</w>
M ol
sp ei
fi kationen</w>
archi te
Viel en</w>
Schü ler</w>
STER N</w>
5 00
t ür
ar g
M E</w>
Lebens qualität</w>
sche mata</w>
Gelen ke</w>
nach lässi
Web sites</w>
Ph ilosop
IS O</w>
obar bit
IC L
Eth an
ck ern</w>
O y</w>
Ex an
M aus</w>
pla s
0 25</w>
rech nen</w>
Kiner et</w>
verk ür
Schi ff</w>
Presse mittei
Möglich erweise</w>
Ar ab
Calc itonin</w>
ti co
di erten</w>
- System</w>
Ri pra
Gluco se-
Gerinn ungs
Asso ci
v as
us ern</w>
sch ein</w>
erst mali
Versand kosten</w>
Sub kutane</w>
Al ope
schränk ungen</w>
re den</w>
allmäh lich</w>
Fertig pens</w>
st ür
SUT ENT</w>
Behandlungs zyklus</w>
Ver schreibung</w>
throm bin
l on</w>
D al
St d.</w>
Lu cen
WIR K
Or li
S us
24- Stunden-
2 5.
ol ab
auf wiesen</w>
Natriumchlor id-
serv iert</w>
an ce-
teil ten</w>
2 12</w>
urop a</w>
Blutdruck senkung</w>
ti bi
den jenigen</w>
A ssi
Stra sse</w>
3 1.
al ismus</w>
Po in
ausge zeichnet</w>
Val do
L er
indu ziert</w>
po ol
a ssi
Haupt studie</w>
konzentr ieren</w>
gen tliche</w>
Rever se-
g g
frei heit</w>
Geschä ft</w>
M c
man ax</w>
Thy manax</w>
Ro bert</w>
P in
N on
17 .
om ed</w>
Ansprech rate</w>
steu er
finanzi ellen</w>
c tor
ungs weise</w>
Sour ce</w>
La ser
stati sche</w>
kontinuier lich</w>
Valdo xan</w>
Symb ol</w>
Phen obarbit
u li
ti nib</w>
Ripra zo</w>
Par a
zi o</w>
u l</w>
tox ischen</w>
Soli dar
perfe kte</w>
ul le</w>
Kau tabletten</w>
äquival ent</w>
ID E</w>
AR ICL
wa ys</w>
end ly</w>
Diaco mit</w>
Tr äch
Po ker</w>
P hän
Brady kardie</w>
Asth ma
G astro
Quixi dar</w>
st liche</w>
an statt</w>
Fä zes</w>
Busil vex</w>
Vig aba
Ka mmer</w>
iru din</w>
heits gefühl</w>
Fac ebo
28 ,
äuß ere</w>
k .com</w>
aus wählen</w>
Transkripta se-
Sch aden</w>
F ass
27 9</w>
Antihist amini
Di a
Brasili en</w>
oxi d
erheb liche</w>
ab nahme</w>
HEI M</w>
Institu te</w>
ung .htm</w>
Kal ender</w>
E fi
gar ten</w>
da -
Inhal ations
Ener gien</w>
P 450</w>
Op io
St om
Or t
Erkenn tnisse</w>
bereit gestellt</w>
Vor hand
Blutungs risiko</w>
zi d</w>
b ir
zu fügen</w>
ste ckt</w>
U N</w>
Trit ace</w>
AL L</w>
mitglie d
n om
We sen</w>
C en
hier für</w>
Tim olol</w>
X ig
Prie ster</w>
Internet -
sy l
flu g</w>
Tran spor
R .</w>
vor bei</w>
ta mi
lob ul
stru kturen</w>
Her zens</w>
Block ade</w>
o kul
H ein
at t</w>
0 23</w>
korre kte</w>
Thalido mide</w>
Risper dal</w>
E-Ma il-
ho p</w>
alisier ter</w>
Gol f
ck .php</w>
G ER
Re de</w>
um et</w>
gewünsch ten</w>
s .htm</w>
der jenigen</w>
M and
Hitze wall
Ger ech
m .
E van
sicher lich</w>
G lo
hy dra
comm od
Supp ort</w>
oi den</w>
ge arbeitet</w>
Zimm er-
P .</w>
Franzö sisch</w>
Mass en
er eig
hil f
fla schen</w>
Tra gen</w>
Ein igung</w>
abe l</w>
C AN
v ul
Ery thromycin</w>
verbin det</w>
Progra mmen</w>
trei ben</w>
ent schaft</w>
Blä hungen</w>
25 8</w>
1 1.0
eingestu ft</w>
B V</w>
w ettbewer
be festi
Hyper cholesterin
Í sland</w>
Pap ier
E tage</w>
4 15</w>
Krie gs
forts etzen</w>
Bio äquival
Par all
Geschä ft
Ebi xa</w>
M ap
verabschie det</w>
gesetz te</w>
ARICL AIM</w>
ver mögen</w>
onia e</w>
cre as</w>
To chter</w>
L ern
zwei f
Granulo zyten</w>
kombin ierte</w>
F all
te tes</w>
vor legen</w>
behör de</w>
Schlü ssel</w>
arbei tungs
er geb
bel a
Mel dungen</w>
er stre
Tasig na</w>
Stati stik</w>
Rot a
X y
yo ut
ri da</w>
nüchter nen</w>
Meer es
Am bi
Muskel krämpfe</w>
Efi ent</w>
exter nen</w>
Konta kte</w>
Pfer den</w>
Herz -</w>
behäl ter</w>
M aus
Fahrzeu ge</w>
D ün
x ane</w>
tr e</w>
je glicher</w>
W ald</w>
meti a</w>
Fest legung</w>
E ra
n ar
Vel metia</w>
Mar ken</w>
w hat</w>
Gl ycer
zeu gung</w>
in formationen</w>
auf gang</w>
Dox yc
Wei l</w>
Temper atur
Ic andra</w>
D UL
inje ktion</w>
la h</w>
Wer be
zer ebro
hinreich enden</w>
for mat</w>
Par e
wei le</w>
Pha sen</w>
Marketi n
sich tigen</w>
Edel st
ING EL
str ö
HIV- infizierten</w>
e wi
ab teilung</w>
Min de
gesch woll
Re alität</w>
Phenobarbit al</w>
A ktion</w>
bewe gt</w>
u ß
Stom atitis</w>
lei tungen</w>
I v
i da</w>
Adefovir dip
sp lan</w>
zu bereitet</w>
DepoCy te</w>
K ie
Al zhei
zusammen gefasst</w>
eri t</w>
Gegen wart</w>
Kommi ssions
Ex posi
r heum
INCRE LEX</w>
Lin ien</w>
re al
gener ell</w>
Rep ag
Lei der</w>
or ten</w>
Garda sil</w>
schleim haut</w>
Alope zie</w>
T isch
tz ahl</w>
organ e</w>
M all
Lenalido mid</w>
Fü ße</w>
isi erte</w>
geschä ft</w>
Völ ker</w>
Skelett muskula
Gepä ck
therap ie
stab ilen</w>
Serum spiegel</w>
Benzodia zep
ro st</w>
Blut spiegel</w>
offen sichtlich</w>
da chte</w>
P ic
J ac
Ak kumulation</w>
neutr alisier
ca ted</w>
Daf iro</w>
ko s</w>
S EL
en sein</w>
re c
am er</w>
Jan umet</w>
J al
AS S</w>
hier bei</w>
eh n</w>
Aktu elle</w>
geh ender</w>
ein stellung</w>
lä ßt</w>
0, 05</w>
Bulgar ien</w>
ver packt</w>
analy siert</w>
Ultra sch
M M</w>
HB V</w>
Ziv il
Fe L
s he
Ver fahr
I U</w>
ein gerich
k ein
Mar ken
Gen otoxizität</w>
E xi
Quart al</w>
Ven edi
ab domin
unerwünsch ter</w>
ste te</w>
spezif isch</w>
ei en</w>
Re form</w>
ma gensaf
gestei gert</w>
Z ul
Sat z</w>
tre sistente</w>
Rota Te
Stell ung</w>
EHR INGER</w>
BO EHRINGER</w>
integr iert</w>
Vec tibi
OX ET
OXET INE</w>
Mu mp
eng ag
Temper aturen</w>
INVE GA</w>
DUL OXETINE</w>
kal ischen</w>
HC V-
Um satz</w>
Packungsgrö ße</w>
Mittel punkt</w>
Sch reib
Maravir oc</w>
unterschei det</w>
saf t</w>
Ad- hoc-
omar ist</w>
Z omarist</w>
Kan di
CY P</w>
Appartem ent</w>
be sucht</w>
g a-
Ver sionen</w>
Ent nahme</w>
R enn
EX J
f ut
Gerichts hof</w>
tr onen
Thalido mid</w>
fr ier
Parkinson- Krankheit</w>
Gal vus</w>
Deb ian</w>
sie d
Pla tz
vu din-
g rupp
Kali fornien</w>
ko mm
e x</w>
Stand punkt</w>
li eb
A K</w>
C ri
vi g
frei wil
Lucen tis</w>
gef ra
er teilt</w>
Hypercholesterin ämie</w>
in stitution
fahr er</w>
gesp ielt</w>
y a
St ahl
Pre dnis
L E</w>
urlau b</w>
schütz t</w>
Se vo
AG ON</w>
A ST
Anaphyla xie</w>
L ant
Fut ter
b on
Gab apen
P I
bewer ten</w>
Va so
ung -
m um</w>
Darreichungs form</w>
gele sen</w>
Let har
Z erit</w>
Eu creas</w>
8 -0
Le flun
Ver breitung</w>
Mu ster</w>
In fo</w>
An schwellen</w>
vo tes</w>
trans l
Ansprech partner</w>
psych iatr
on ien</w>
Mal ig
E valu
gesch luckt</w>
nachge wiesen
Schul en</w>
Pra vastatin</w>
P a</w>
Com bi
vorgesch lagen</w>
ver mittelt</w>
geh ol
gebie ten</w>
Inve ga</w>
Versuchs modellen</w>
hö herer</w>
- a
transpar ent</w>
resist ent</w>
fel d
nat ur
0, 01</w>
sin kt</w>
nu kleosi
ho use</w>
S öhne</w>
Nach frage</w>
dauerhaf t</w>
rech tliche</w>
Gebie te</w>
3, 2</w>
Veran staltungs
Extremi täten</w>
tats äch
einge halten</w>
Mü tter</w>
IN J
Ac tiv
3 -</w>
um b
Syste men</w>
2. 0</w>
a ter
Nerven system</w>
.09. 2015</w>
G E</w>
mp en
berei chen</w>
le vel</w>
A chten</w>
ze i</w>
MA O-
selbst verständlich</w>
setz ten</w>
V R</w>
4. 1</w>
ra d</w>
geschätz t</w>
ab nor
för der
aus ea</w>
Ri mon
ka tegor
erfol greiche</w>
auf zunehmen</w>
Abat acept</w>
Val pro
Tier studien</w>
P ie
INGEL HEIM</w>
CD 4-
tepla se</w>
ab ant</w>
Mär kte</w>
Pen sion</w>
ber gen</w>
OREN CIA</w>
zir ku
zentr en</w>
Sex u
op en</w>
l i</w>
Web -
Ran exa</w>
Pla y
Myo cet</w>
Leben dimpf
Downlo ads</w>
ly zer
Reg ierungs
Ak ne</w>
ni er</w>
G y
AC T
eo min</w>
bi konvexe</w>
X eomin</w>
Hal tung</w>
B rau
ak te</w>
L ach
Gl ück
CT FE</w>
con az
Sch nei
z ar
unterschie dlicher</w>
Rezept or</w>
Angioten sin</w>
en zi
0 39</w>
pers on</w>
digit alen</w>
Haem ophil
sol ches</w>
fre ut</w>
P hysi
t ter
beu gen</w>
Pra da
18 8</w>
höh e</w>
Beh älter</w>
Vit amin-
Haus halt
pr enor
ös opha
Enth ält</w>
fel der</w>
Min im
Er wer
mitt ag</w>
Rück stands
pla sie</w>
nier en
S AB
WE IS
Frei setzung</w>
p har
hämat ologische</w>
amp i
Qu ali
zu berei
au ßen</w>
th ing</w>
A -0
öster reich
sti l
Zu cker
Z in
0 4-
n eben
Propyl englycol</w>
2 21</w>
T in
Augen tropfen</w>
28 5</w>
her z
iton e
Risikoman agement
sel ber</w>
Lösungs mittel
13 6</w>
Mot or</w>
Fahrra d
körper lichen</w>
inter nen</w>
Vectibi x</w>
reich es</w>
eti ng</w>
Cop alia</w>
Lethar gie</w>
Kreatin in</w>
rezidi vier
benö tigten</w>
Flu conazol</w>
durch aus</w>
ein stellen</w>
phosphat -
vir tu
ver häl
anaphylakti sche</w>
hin ein</w>
gew ichts
Pra g</w>
Pseu do
träch tigen</w>
Mel oxicam</w>
Fla schen
Bibliothe k</w>
Op en</w>
O V
N ä
Gastrointestinaltra kts</w>
Berlin er</w>
ru ft</w>
potenzi ell</w>
deut sch</w>
Tran sa
So mit</w>
sicht bare</w>
intramuskul är</w>
Le ve
sel ect</w>
s burg</w>
betr ieb</w>
ad y</w>
f ließ
ab -
fet ale</w>
el y</w>
nis ses</w>
an gi
16 .
ir l
av w.php</w>
www. g
op h
dru cken</w>
at um</w>
RE ICH
fal sch</w>
f iel</w>
Thrombozy ten</w>
P lu
Ch ir
über nommen</w>
verursach ten</w>
si de</w>
s v
fortgeschritten er</w>
Angele genheit</w>
vor bereitet</w>
unterstütz ende</w>
entschei det</w>
Eff ici
A sien</w>
i Phone</w>
Ro ute</w>
ver tei
effizi ent</w>
Ver zeichnis</w>
Her bst</w>
wo chen</w>
Sonnen licht</w>
Ö S
th ei
Immung lobulin</w>
Ab wägung</w>
n end</w>
ne urop
PhotoBar r</w>
Ver schw
Taub heitsgefühl</w>
Li fe</w>
l ück
Kommuni kations
2 34</w>
aus gerichtet</w>
sta un
st r</w>
rau ms</w>
Leve mir</w>
Fol gendes</w>
ruhi g</w>
än der</w>
dis Plus</w>
aktiv itäten</w>
Micar disPlus</w>
oxi l</w>
Binde geweb
Am t</w>
gen ö
Dyna stat</w>
ser vi
primä r</w>
beton t</w>
Mi mp
Hä user</w>
1- 2</w>
trü be</w>
a. org</w>
demokr atischen</w>
Ma ser
po st</w>
De sin
prop ion
Luft blasen</w>
10 x1</w>
Ib af
EHM IG
ste cken</w>
re spon
Cel gene</w>
mu mab</w>
M ole
Au ges</w>
Ren nen</w>
EW P</w>
Adali mumab</w>
a ffen</w>
Ele ment</w>
at z</w>
AR A</w>
tie fen</w>
Vor haben</w>
Ter min</w>
Leit linie</w>
zunehm end</w>
wa schen</w>
Kortikosteroi de</w>
EXJ ADE</w>
Car bi
veröffentlich ten</w>
k et
e p</w>
Wirk mechanismus</w>
Softwar e-
r iere</w>
in er</w>
U B
Pre ot
O sel
CYP2D 6</w>
Ansprü che</w>
C R</w>
Begrün dung</w>
Aus rüstung</w>
in gs
her ab
anti en</w>
3, 1</w>
Verein ten</w>
Niederlan den</w>
te ter</w>
ber -
a tem
st rich
stück e</w>
F ok
Basi s
sto lischen</w>
Osel tami
www. regi
27 6</w>
201 6-0
stau sch
s ation</w>
ho ur
Lang zei
or th
auf gebaut</w>
Qu ad</w>
Ma mm
AI R</w>
0 29</w>
p ft</w>
kl opfen</w>
indu zierte</w>
Gerech tigkeit</w>
Par ti
oni k</w>
Copy right</w>
abzu brechen</w>
zon eid</w>
wachsen den</w>
ergän zt</w>
sexu ellen</w>
olab .info</w>
Fin ger</w>
wis h</w>
li x</w>
Prada xa</w>
Hyp op
da b
Bo dy</w>
fra kt
fac e</w>
multi forme</w>
Zei tungen</w>
Bran che</w>
D i</w>
Adefovirdip iv
di er
c er</w>
Imp rida</w>
p hr
Kalzi um
GEN EHMIG
OR T
ho ffen</w>
and o</w>
scha fft</w>
mip lo
ST AV
Ro miplo
Schrei ben</w>
Kons ul
disper ses</w>
Weiter en</w>
syste mischer</w>
op ä
lin -
geplan ten</w>
Wei ter</w>
Freiwil ligen</w>
ell -
tre atment</w>
Et wa</w>
Con ver
ar -
Tu be</w>
RO L</w>
00 0
o p</w>
Deta il</w>
ärz tlicher</w>
läu fe</w>
ad ren
Interv all</w>
ver sammlung</w>
www.regi olab.info</w>
Le vi
Be st</w>
bur g
an erkannt</w>
At lan
stei gerung</w>
ju ck
Zwe cke</w>
Tel bi
Te ams</w>
S IF
ir es</w>
erwar tete</w>
Miss bildungen</w>
vertrau t</w>
immun suppressi
Ver lag</w>
separ ate</w>
Z oll
human es</w>
O G
Effici b</w>
steu erung</w>
N yc
separ aten</w>
Dar m</w>
wer den.</w>
tr en
ne w
Therapie beginn</w>
G am
wen ig
cli ck</w>
Combi vir</w>
14 5</w>
x o</w>
we stlichen</w>
hin gegen</w>
ati o</w>
Cook ies</w>
eu er</w>
35 6</w>
Dele g
BE IL
it y
Redu kt
Orli stat</w>
woll ten</w>
bewer tungen</w>
an gele
Lant us</w>
Kl ar
welt weiten</w>
sch icht</w>
erfolg reichen</w>
zy l
osi tis</w>
li on</w>
kultur elle</w>
Das atinib</w>
Ery thema</w>
t liches</w>
ar eg</w>
signifikan ter</w>
opti mal</w>
Ethin yle
2, 9</w>
Ax ura</w>
über ein
be wirkte</w>
überwie gt</w>
fest gelegten</w>
Fet us</w>
in fo
con tr
artic les</w>
Xig ris</w>
Wieder auf
feh len</w>
0 28</w>
hon duras
ge klärt</w>
der male</w>
Fentan yl-
gel s</w>
e k
Berech nung</w>
Nahr ungsmittel</w>
II I
lo w</w>
ZO STAV
Ab sicht</w>
se ch
so genannte</w>
kin ase</w>
Re pla
ber au
ni ce</w>
Badewan ne</w>
SS E
Ein tritt</w>
re spe
j enen</w>
v .
bi ologische</w>
2 1-
et y</w>
www.amarilla sau
or Plus</w>
is h</w>
Welt krie
schul en</w>
16 2</w>
k ungen</w>
effe ktive</w>
Prit orPlus</w>
Por to</w>
sti n</w>
c es
blau en</w>
d einem</w>
Ka mpag
ig ht</w>
c ie
li gkeit</w>
ma sse</w>
SOMAV ERT</w>
B eine</w>
Auf trag
lin gu
Nep hr
An ta
Vorhand ensein</w>
o de</w>
i z
Publi kum</w>
aus geführt</w>
Mon d</w>
freund liche</w>
Kon to</w>
co g</w>
uni on</w>
m ot
Imati nib</w>
Enzy ms</w>
Auf trags
Rin der</w>
Z I
Kam er
4 60</w>
Ma il</w>
Lisin opril</w>
omer ul
Fr ist</w>
k as</w>
in ess
fl ur
Fi bro
Pre gab
3, 9</w>
Ceri vastatin</w>
Be kan
flä schchen</w>
Mimp ara</w>
L es</w>
K ne
c era</w>
tr u
Di p
fal sche</w>
be zogene</w>
sta mmt</w>
flüssi gkeit</w>
Lu mira
N obili
syste men</w>
kl aren</w>
Sil gard</w>
jähr lichen</w>
Tätig keits
Aus ge
ver nachlässi
f ährt</w>
Er schein
prä z
Süda frika</w>
us e
ot -
h C
NRTI s</w>
ner s</w>
Prozent satz</w>
ARZNEIMIT TEL</w>
Wirk lichkeit</w>
Qu ellen</w>
Gebur ts
Träch tigkeit</w>
Sm art
O .</w>
wit ter</w>
in telligen
at ori
ti d</w>
kur zer</w>
Ethan ol</w>
or es</w>
Zwei fel</w>
Phosp ho
sta ge</w>
en co
par all
Bu prenor
j k</w>
hour ly</w>
re spir
ha gen</w>
gestal tet</w>
Nessel sucht</w>
Pflan zen
Priv ate</w>
H az
li tt
Kul turen</w>
Gesch en
be geg
kli mati
ah y
zerk aut</w>
ver -
R ön
P eme
ban ken</w>
schla fen</w>
Mo un
3 21</w>
re sse</w>
hol m</w>
gleich mäßig</w>
ins ul
kap seln</w>
Spe ktrum</w>
Sch on</w>
Ba sili
erhöh tem</w>
Se gel
kre u
ge fallen</w>
Unternehmer s</w>
Pro ben</w>
PACKUNGS BEIL
ger ten</w>
far ben</w>
CR IX
CRIX IV
SIF ROL</w>
N ausea</w>
G ir
D .</w>
region ale</w>
kontinuier liche</w>
bre akfast</w>
Ge werk
Er ste</w>
erreich bar</w>
ent deckt</w>
intramuskul äre</w>
Sach en</w>
In genie
G ad
te gra
de ma
beta- 1
Auffrisch impfung</w>
FA I</w>
A ktionen</w>
prei se</w>
G na
H of</w>
c as
Nobili s</w>
Nach kommen</w>
B rie
mer n</w>
la gerung</w>
Vent av
G ö
phosp hon
ob s</w>
ce ss
Che ck-
Steu er</w>
nas .net</w>
W ü
Ger ichte</w>
º C</w>
D ori
ati nas.net</w>
Arbeit nehmer</w>
wär ts</w>
einmali ge</w>
ver werfen</w>
sti tut
entsp annen</w>
wordpress .org</w>
C ar</w>
trä ger</w>
tra te</w>
zy kli
e chte</w>
an sprech
Selten e</w>
kali um
in t-
M üh
Haupt metaboli
D res
Antikoagul anzien</w>
sub stanz</w>
Ber n
f ul
Ge frier
Qu er
par k
FOR T</w>
16 00</w>
über nimmt</w>
ol f</w>
ange s</w>
hunder t</w>
hin aus
Venedi g</w>
It ali
sspe zi
bür ger
ol d</w>
l oh
bakteri ellen</w>
Indu ktoren</w>
c ir
igh ts</w>
hau tz
V ire
R unde</w>
Peme trex
na tri
Adefovirdipiv oxil</w>
lip idämie</w>
RotaTe q</w>
Lei p
Sti mmen</w>
13 -
den t</w>
ein heiten</w>
Vor her
Immunsuppressi va</w>
or ca</w>
grund sätzlich</w>
ar tik
Iso tretinoin</w>
CRIXIV AN</w>
li st</w>
je mals</w>
foli o</w>
Leflun omid</w>
0 26</w>
arb on
Referenz arzneimittel</w>
vorgeschla gene</w>
p us</w>
aus wirken</w>
Su box
Dinatri um
Be droh
mess ungen</w>
frü he
ex tra
TRISEN OX</w>
Nex av
sorp tions
kurz fris
J AN
Inf us
Iv abra
einer seits</w>
Arbeitsp lätze</w>
u ver
g keiten</w>
arzneimittel n</w>
P fa
hei ßen</w>
GENEHMIG UNG</w>
9 ,5</w>
O G</w>
Bronchi tis</w>
geb au
spas mus</w>
bo ten</w>
asep tischen</w>
x x
In ov
29 9</w>
ta gs
regelmäß iger</w>
tr ue</w>
typ ischen</w>
P on
Fla ch
P P</w>
u ch
st eine</w>
benö tigte</w>
w on
Daten schutz
opp ortun
da t</w>
Feu chtigkeit</w>
k alen</w>
stoß ung</w>
ol en</w>
e valu
ungspro gra
sto li
Zusätz liche</w>
Wettbewerbs fähigkeit</w>
TEIL UNG</w>
re volution
kran i
gel t</w>
fär bungen</w>
ak ten</w>
Gewe be
Clo mi
ic s</w>
Posi tionen</w>
Administra dor</w>
kons er
Inser ido</w>
Bo sent
Ar mut</w>
ger ü
Visi on</w>
IN FAI</w>
Be festi
amar il
D ir
un möglich</w>
Säuglin ge</w>
j ü
Ver sorgung</w>
Über le
zu gs
exk lusi
Tier experimentelle</w>
Disk us</w>
n ische</w>
M o</w>
Rifabu tin</w>
200 7-0
oll er</w>
n un
R ele
Leber versagen</w>
disku tiert</w>
News letter</w>
symptom e</w>
Erre ger</w>
über ein</w>
14 7</w>
ol i</w>
Park plätze</w>
Strahl en
b ä
Fisch erei
el la
P ort</w>
Par areg</w>
E hr
Clofar abin</w>
s ome</w>
Flus h</w>
om ycin</w>
berich tete</w>
Bü ros</w>
organ isationen</w>
Vor sitz</w>
h i</w>
Erwar tungen</w>
tr ach
Zy pern</w>
Injektionssp ritze</w>
Pro Quad</w>
08 9</w>
f i</w>
Pharmazeu tischen</w>
H UM
S AR
au ti
th i
ssyste me</w>
nehm ung</w>
Fon ds</w>
15 .
Er inn
Corpor ation</w>
o fen</w>
iti din</w>
ver suche</w>
ken nt</w>
HER A</w>
D ING
1 17</w>
W as
I O
unter brechen</w>
net z</w>
finanzi elle</w>
blo gsp
tagon ist</w>
lei t
k oll
bezieh ung</w>
sch rau
Auf nahmen</w>
Betreu ung</w>
de st</w>
Men ü</w>
Sch e
Engin e
voll kommen</w>
ne d</w>
stag land
Zeit schrift</w>
Mus kel</w>
Sol che</w>
Pro stagland
ING EN</w>
Bil dungs
Wasser lassen</w>
Er lo
Geschir r
Ver lu
AN Z</w>
A ffin
indu zierten</w>
c il
Bol us
erneu er
Steven s-
Mi litär
Klei dung</w>
öh nen</w>
Han no
vi tr
un kte</w>
interess ante</w>
di c</w>
ction s</w>
Un known</w>
C ido
Ar me
potenti elle</w>
Höchst dosis</w>
ren alen</w>
Verdau ungsstörungen</w>
Dun kel
Nasen bluten</w>
Ben zyl
mei stens</w>
fi x
en ger</w>
bei behalten</w>
Ital y</w>
n iere</w>
eti l</w>
be griffen</w>
b o</w>
Um feld</w>
Stevens- John
f in</w>
er ischen</w>
be ut
C ons
Nichtraucher zimmer</w>
Gal ac
fot o
Solo Star</w>
Auf tropfen</w>
PS UR
Stu fe</w>
Lumira coxib</w>
Abgeord neten</w>
man che</w>
ov al</w>
Proteasein hibitoren</w>
Ka bel</w>
At tra
vor gestellt</w>
tig keiten</w>
ge dacht</w>
Boo te</w>
rekombinan ten</w>
4, 4</w>
soft ware</w>
hautz ell
Cefuroxi max
de fe
bewe gung</w>
Bluter gü
unter liegen</w>
ali zumab</w>
27 ,
blogsp ot
r ation</w>
id s</w>
-An tagonisten</w>
yp en</w>
medizin isches</w>
gastrointestin alen</w>
Aspe kt</w>
c af
Trans fer
druck s</w>
prei s
be kommt</w>
Sch ema</w>
organ ismen</w>
sti ti
NS A
F S</w>
schu he</w>
min ü
Komp lex
For t</w>
or der</w>
Rot ari
HIV- 1</w>
tei lungs
diagnosti ziert</w>
a te
sexu elle</w>
muse um</w>
G lut
emb olie</w>
Z icon
All gemein
que .com</w>
Si te</w>
B ic
ze d</w>
geför dert</w>
VERK EHR
Ke tek</w>
Neu pop
RO V
Ansprech raten</w>
potenzi ellen</w>
BR INGEN</w>
5 2
transder males</w>
bei zu
Econ or</w>
Abra xane</w>
Vire ad</w>
Kon kurr
Behör de</w>
xy- Polyethyl
su r</w>
Romiplo stim</w>
Referenz mitglied
B A
fiel d</w>
r t
Tetan us</w>
ä her
genö ssi
Carbi dopa</w>
vor nehmen</w>
gi ftung</w>
enthalten e</w>
In n</w>
ver tik
Vi sta</w>
Rimon abant</w>
19 .
Schwä che
mehr erer</w>
go og
Be am
S AM
C ur
Blutgerinn seln</w>
Scien ce</w>
Kon ditionen</w>
ER S</w>
08 8</w>
schätz bar</w>
Rena gel</w>
G ent
trock ner</w>
ausge wählten</w>
Kaffe e
Gen ießen</w>
An dro
Allerg ische</w>
re fer
ne tes</w>
hy p
et h
ab kommen</w>
Char gen
um fang</w>
ko stet</w>
re sul
an stieg</w>
L ov
va il
ri en</w>
Vari abilität</w>
sin g
vor zunehmen</w>
tele fon
am ol</w>
B ie
gr au
Mir taz
I k
Behandlungs zyklen</w>
m au
Tex t
oper ation</w>
glob ale</w>
0 1-
Sig n
co unt</w>
kon jug
Gemein schaften</w>
x ter</w>
tig ter</w>
Körper temperatur</w>
OPT IS
Ha are</w>
Gabapen tin</w>
tradition elle</w>
O ne</w>
In telligen
B all
schö pfung</w>
he ber
g uss</w>
fil m
spezi alitäten</w>
Meth ad
Cet u
je ktion</w>
Con tain
Fir st-
F ast
Ansprech ens</w>
gra de</w>
anti hypertensi
tür k
reich s</w>
Ta ke
SS EN
Infusions beutel</w>
war tet</w>
Subox one</w>
Re d</w>
B lau
är ten</w>
D 3</w>
gele gene</w>
Repag linid</w>
stre bt</w>
H igh</w>
Be zir
sam t</w>
sp atienten</w>
der ation</w>
and -
B B
mil ch
Unter hautzell
v ist</w>
Fre qu
Bren n
jün gsten</w>
Fol ie</w>
BE DING
Biliru bin</w>
Aus bau</w>
4 0-
ni veau</w>
konta kt</w>
B urg</w>
sten ose</w>
Staphylo coccus</w>
änder t</w>
al is</w>
I f</w>
zi elen</w>
ma ke</w>
on ale</w>
eng ruppen</w>
erniedri gt</w>
ungs bedingungen</w>
h len</w>
a is</w>
So fern</w>
stärk ere</w>
versch limm
gazin e</w>
D ör
Char akter
lei stungen</w>
3, 8</w>
Wesent lichen</w>
Tie f
zi ge</w>
Fla sh</w>
Berei ts</w>
r t</w>
le .com</w>
ide mi
zerstör t</w>
Pre ven
sch rieb</w>
o .de</w>
n ull</w>
soll st</w>
o ff</w>
langfris tigen</w>
magensaf tresistente</w>
P E-
G ut</w>
is k</w>
Dori ba
w ahr</w>
Te ktur
Jal ra</w>
d -</w>
PACKUNGSBEIL AGE</w>
6 000</w>
08 6</w>
ten sion</w>
autom ati
akzep tieren</w>
Son ata</w>
Hin der
viel es</w>
Epi vir</w>
n .</w>
ell o</w>
st or</w>
na h</w>
aktu ell</w>
stro m</w>
propion at</w>
hand elte</w>
weib liche</w>
mg- Dosis</w>
Ca sp
O d
Ba xter</w>
w ald</w>
er mitteln</w>
h le</w>
ex position</w>
empfind lichkeit</w>
Mar ina</w>
Ein er</w>
geimpf ten</w>
g ö
Ver z
IN VERKEHR
D ER
e chten</w>
Vergröß erung</w>
Un erwünsch
zeich neten</w>
ver steht</w>
pro fen</w>
minister ium</w>
Le vel</w>
An merk
ta in</w>
TY SAB
vermehr tes</w>
Ther e</w>
Sa ven
29 -
nap p</w>
urop ä
ic um</w>
Bis phosphon
an sprachen</w>
Vertr ieb</w>
Su chen</w>
Er bit
Be weis</w>
mär kte</w>
wöch iger</w>
klein ere</w>
Prior itäten</w>
Aktu alisierungen</w>
Währ ungs
Religi on</w>
Frei en</w>
Dar um</w>
2 3.
stand ards</w>
i te</w>
Brust kor
Bru der</w>
deut sch
jahr en</w>
Reprodu ktions
grippe ähnliche</w>
Intera ktion</w>
Farmac ê
Blumen strau
re suspen
Sch lei
E po
wie gende</w>
er richtet</w>
Per i
Kor onar
6 0-
ge widmet</w>
Anti ph
16 6</w>
is tisch</w>
geru f
Ver fasst</w>
DL L-
Ap p</w>
3, 7</w>
vorgefüll te</w>
16 5</w>
0 2-
se x</w>
Lissab on</w>
verlan gt</w>
ver fol
Tektur na</w>
Proje kts</w>
Dys kine
oni a</w>
Neupop eg</w>
Mit ot
Hämoglobin wert</w>
v ierte</w>
diesel ben</w>
b ös
Imp lemen
Drit te</w>
Er füllung</w>
Präsent ation</w>
in fusions
gef äl
and t</w>
vorüber gehenden</w>
gener ation</w>
L ag
tech nisch</w>
rel ative</w>
hei ligen</w>
h ome</w>
Hitzewall ungen</w>
FOR STE
gesch ickt</w>
flu g
Se dierung</w>
Mo se</w>
M i</w>
Gra pe
Ben ach
mo st</w>
gerech net</w>
be stand
Mig rän
Fahr er</w>
J J</w>
Di aly
fur o
Vor liegen</w>
4, 2</w>
198 8</w>
zer ti
rus sischen</w>
hydroxi d-
STEL L
S wit
et z</w>
G öt
B A</w>
Ventav is</w>
Th elin</w>
kum ul
Ver fass
Haemophil us</w>
An hän
18 .
wissen schaften</w>
Gegen stände</w>
A spir
se ktor</w>
Work shops</w>
0 66</w>
gi o</w>
Sor ge</w>
Aluminium- Blisterpackungen</w>
transplan t
ili ar
U A
Muse en</w>
konsulti eren</w>
chn ungen</w>
Log o</w>
sch alten</w>
kti ert</w>
anhalten den</w>
Frie d
Fehl ens</w>
D AR
t oren</w>
ro li
Trink wasser</w>
Chr i
mü s
It alien
vorzu legen</w>
e ci
Sol u
Grape fru
3 19</w>
pla ce</w>
em s</w>
Al dur
monati gen</w>
effe ktiv</w>
N .V.</w>
Doxyc yclin</w>
5, 6</w>
för derung</w>
ON E</w>
Lehr er</w>
wunder schönen</w>
sin ken</w>
m utz
Zell zahl</w>
Yt tri
Stimm ungs
u x-
su chten</w>
PA H</w>
G as</w>
D T
Buch st
9 9,
Ko mmun
Antiepilep tika</w>
Span isch</w>
B P
ent or</w>
Zylin der
Ethinyle stradiol</w>
rekombinan te</w>
Spon tan
ent hrombo
ar me</w>
de s-
Schi ffe</w>
Ja ko
Bo s
Be ach</w>
Opti mierung</w>
zirku lier
ha d</w>
einzigar tigen</w>
u -
For derungen</w>
Dosierungsempfeh lungen</w>
Anwendungs gebiet</w>
a venue</w>
Serum konzentrationen</w>
8 2
sch re
kl eben</w>
staat liche</w>
tec avir</w>
notwendi ge</w>
ZOSTAV AX</w>
V ö
Nyc omed</w>
En tecavir</w>
genehmi gten</w>
HM G-
Ac tos</w>
-a ventis</w>
ste chen</w>
on ische</w>
einzu leiten</w>
Gesell schaften</w>
Sch af
R I
Proteasehe mmern</w>
Mil ano</w>
K ö
INVERKEHR BRINGEN</w>
terra sse</w>
Uni vers
Tour isten</w>
CYP 1A2</w>
Luft feu
Lap atinib</w>
In toleranz</w>
üb lich</w>
Pla vix</w>
Pat ent
k u</w>
Ad d</w>
regel n</w>
diabe tischen</w>
bahn hof</w>
Par tik
Bewusst sein</w>
verstär kten</w>
pr et
k olle
Rei ch
Diabe tes
A P</w>
Sch le
kul tur</w>
H at</w>
ä res</w>
Verpflich tung</w>
2. jpg</w>
zulass ungs
Hyper kaliämie</w>
s c</w>
j ana</w>
Isra els</w>
Christ i</w>
pers onen</w>
hochwer tige</w>
gro sse</w>
Geschäfts führer</w>
schnei den</w>
L ett
hosp hat
end ronat</w>
Hanno ver</w>
Ein schränkungen</w>
we chs
befür wor
Produ kts</w>
Ein wohner</w>
ye ar</w>
stä tten</w>
ad di
E ast</w>
ber g
ventrikul äre</w>
st ert</w>
k y</w>
Si k
Riton avir-
Micar dis</w>
k n
Y on
Kat ze</w>
st all</w>
Schwäche gefühl</w>
FABLY N</w>
au x</w>
- 5</w>
So db
tä gigen</w>
betr acht</w>
betr ieben</w>
Isoen zyme</w>
änder ungen</w>
mel dungen</w>
fa x</w>
aus genommen</w>
5, 4</w>
ß ten</w>
we b</w>
anhalten de</w>
Mitglieds staat</w>
Ausschü sse</w>
er maßen</w>
Ster ne-
RN A-
Stra tegien</w>
Pip etten</w>
O SSE
G ru
F ine</w>
ver stop
BEDING UNGEN</w>
un r
st enz</w>
mag ne
fach er</w>
ser krankung</w>
ri pro
Sti ch
Mitt l
My opathie</w>
sk al
cre me
Rei ch</w>
zu legen</w>
HMG- Co
Be x
ck ung</w>
Po st-
Fa x
nah m
Wä sche
Ma c</w>
beteili gten</w>
Rotari x</w>
ROV ANCE</w>
An betracht</w>
AD ROVANCE</w>
S wis
E benen</w>
Arbeitsp la
m aler</w>
kontr oll
a ys</w>
vor kommen</w>
to p</w>
Konservier ungsmittel</w>
a in</w>
tifi k
arbei ts
d ent
Sachver ständigen</w>
N y
Kir chen</w>
Schau spiel
Gluko kortiko
grü nen</w>
er fasst</w>
verlänger te</w>
he mmer</w>
ci trat</w>
Perform ance</w>
ma tern
einher gehen</w>
Regel ungen</w>
Pro fession
Facebo ok</w>
198 7</w>
fäl lig</w>
frei er</w>
C .
se kretion</w>
Mensch heit</w>
ck ten</w>
Tan dema
Tandema ct</w>
Rot avir
Insul ins</w>
Antiph logis
mell ose-
be hältnis</w>
ar ray</w>
Sicherheit sp
sti scher</w>
otox ische</w>
hül le</w>
Tier arzt</w>
aufge tret
entsprech ender</w>
Pharmakokineti sche</w>
tin -
Bru x
Be achten</w>
2 13</w>
eti ra
dire kter</w>
Amer ican</w>
6 50</w>
Psoriasis- Arthritis</w>
äuß eren</w>
zug unsten</w>
vergleich bare</w>
etira cet
Lev etiracet
Doriba x</w>
V in
Rück seite</w>
ühr en
ärz tlichen</w>
ge pool
experiment ellen</w>
Sodb rennen</w>
Inov elon</w>
din nen</w>
b leme</w>
U E</w>
Erklär ungen</w>
Pregab alin</w>
I sc
Her kunft</w>
Dysp h
nä her
bu il
Jahr e
Industri al</w>
Ver lauf
pro ben</w>
fol li
OSSE OR</w>
In-vitro- Studien</w>
Fernseh er</w>
Er satz</w>
kan zer
d ä
2 11</w>
Betr ei
human it
ge übt</w>
fu sionen</w>
ofi -aventis</w>
p hal
elem ente</w>
Ral tegra
HB VAXPRO</w>
ab gebaut</w>
Entzün dungs
Comp et
W and</w>
in spir
z te</w>
kon figur
ar men</w>
Infus at</w>
viel er</w>
auftret enden</w>
2 14</w>
Anta zi
Flug haf
sel ösung</w>
ab schätzbar</w>
Wal d
völ ker
sour ce
W ahlen</w>
geb lieben</w>
bi pol
O lymp
IG F-
steu ern</w>
w ünsch
Gemein samen</w>
n ungsmittel</w>
mi d
k unden</w>
Stead y</w>
3 40</w>
berich terstat
R ico</w>
bie gen</w>
ku litis</w>
h Pa</w>
Kü chen
Wil len</w>
vin yl
Ira n</w>
sen -
Wieder herstellung</w>
Literatur ang</w>
Hinter grund
Gele gentliche</w>
Bosent an</w>
mellose- Natrium</w>
ko mme</w>
J ün
1. 0</w>
eu chtung</w>
b ten</w>
Servi ce
Antipsycho tika</w>
Brü cke</w>
www. q
ter er</w>
re frakt
lan ger</w>
Netz werk
C ubicin</w>
bew äl
Maß nahme</w>
Lithi um</w>
ungssyste ms</w>
Visu dy
Tro ck
Auto vermietung</w>
Zer ene</w>
Hautaus schläge</w>
Lacosa mid</w>
vor richtung</w>
Sa int</w>
Ohn macht</w>
TR AC
Rau chen</w>
Leber problemen</w>
Gri ppe
met hyl
Ka mpf
Co ur
gro ssen</w>
geänder ten</w>
Man i
Re y
Leber funktion
3 2-
St ein</w>
Gutach tens</w>
schä digen</w>
Z one</w>
Komp ro
5 ,5</w>
an erkan
mi cro
U LT
Roy al</w>
ern den</w>
ch il
Weiter hin</w>
SC AN</w>
te d
kom b</w>
X iliar
SE O</w>
Protein urie</w>
Ivabra din</w>
NR TI</w>
auff äl
ACE- Hemmern</w>
w ho</w>
ER EN</w>
2- 3</w>
T ir
Schw ank
Kinzal komb</w>
offizi elle</w>
ma hl
mon o</w>
bo ot</w>
Mis sion</w>
berech tigt</w>
gi ti
Re vision</w>
An wesenheit</w>
A ka
hinzu fügen</w>
ent gegen</w>
Ber gen</w>
k riterien</w>
Isc over</w>
sozi al
me sse</w>
empf än
F or</w>
Prit or</w>
v ent
Spei sen</w>
Pfle ge</w>
L as</w>
EU- Mitgliedstaaten</w>
organ isieren</w>
Take da</w>
Affin ität</w>
Ab sorption</w>
wik ip
kompen sierter</w>
at hy
I X-
Er neu
detail lierte</w>
F oli
schwar zen</w>
W T
Ritu ximab</w>
oc ca
Christi an</w>
qu er
d ung
ä rem</w>
il y
gefra gt</w>
et hi
do l</w>
BE UR
zo mi
Geb ühren</w>
H A</w>
Ferien häuser</w>
H eb
bedin gter</w>
L IT
An fragen</w>
Vor stellung</w>
Ent spannung</w>
spezi alisiert</w>
3 A</w>
Wirk dauer</w>
Weiter entwicklung</w>
PRO COM
U G
Bor te
g astro
ex tre
Kranken schwe
Borte zomi
37 ,5</w>
o sa</w>
voraus sichtlich</w>
U AB</w>
blutdruck senkende</w>
Amb ir
infe kti
en tes</w>
auf trat</w>
Bar s</w>
stitu tion</w>
e gal</w>
D einen</w>
tra f</w>
fas zin
P lä
K lassen</w>
Preven ar</w>
Casin o</w>
Beobach tungs
tro tide</w>
D ichte</w>
fort geführt</w>
Ko mm
s omen</w>
Er halt</w>
A chtung</w>
opti malen</w>
Komp lex</w>
4 05</w>
Pan re
Diabetik ern</w>
man agement
konkre te</w>
be dürf
Tschech ische</w>
Materi al
L ob
Hoh e</w>
Benzyl alkohol</w>
abgesch wä
Vor lage</w>
mitgeliefer ten</w>
Slowak ei</w>
C ast
A dri
re sistenz</w>
blogspot .com</w>
Gewichts abnahme</w>
100 00</w>
P T</w>
the y</w>
R ating</w>
Cefuroximax etil</w>
Wochen ende</w>
Region al
Angiotensin- II-
kosten losen</w>
an o
B rief</w>
5 50</w>
SQ L</w>
sei tens</w>
limm erung</w>
Musi c</w>
fort schrei
un abhängige</w>
aktiv ieren</w>
Entsor gen</w>
it -
ann äher
Rück en</w>
Gr unde</w>
z el</w>
Ta gung</w>
TR AV
Is la
Grupp en
ko se
T rü
ly que.com</w>
a di
m mi
Platt en
J or
sä uren</w>
Rä ume</w>
Dokument en
6 4-
Ein nahmen</w>
Buprenor phin</w>
9 2
beein druck
Geb oren</w>
ze sses</w>
pro portional</w>
an gs
Ferien haus</w>
Ce dex</w>
0, 03</w>
Lymph om</w>
mitglie d</w>
Substra te</w>
Schw ein
K uba</w>
K AP
Arbei ter
n -</w>
gewis sen</w>
an sicht</w>
F ul
lass ung</w>
Tr end</w>
con da
200 8-0
schlu g</w>
rekonstitu ierten</w>
Mechan ismen</w>
Hex al</w>
dosis abhängig</w>
Casp of
pu ertoric
assozi ierten</w>
BE ST</w>
Cytochro m-
A s</w>
15 3</w>
vari x</w>
Sa int-
Cer varix</w>
zunehm ende</w>
w olle</w>
fen ax</w>
My fenax</w>
o king</w>
konzip iert</w>
hör t</w>
geringfü gig</w>
ge stör
Pseudo ep
A f
solu tion</w>
qu anti
at ten
Erlo tinib</w>
si one</w>
il es</w>
bo ard</w>
6, 7</w>
unter künfte</w>
oly tische</w>
gebäu de</w>
at ad
do t</w>
Hün dinnen</w>
empfind liche</w>
Dan ke</w>
.... ...</w>
person en
I bu
Boo t</w>
Ber ühr
29 4</w>
zeich nete</w>
Deta il
Rön tgen
Xiliar x</w>
Er haltung</w>
OLANZAP IN</w>
sig n
Schnitt stelle</w>
R and</w>
N L</w>
IL AG</w>
Kurz zeit
Ku van</w>
über legen</w>
c linical</w>
sicht baren</w>
eigen er</w>
eh e</w>
Verwirr ung</w>
Lie blin
TYSAB RI</w>
S AN
OR ACE
E stro
amp ulle</w>
ob i
k us</w>
Nord isk</w>
HC V</w>
feh ler</w>
Eu ch</w>
14 1</w>
niedri gem</w>
Hal bwertzeit</w>
Ev ent</w>
Chr .</w>
zellul ären</w>
Bo ul
kti vitis</w>
ge drückt</w>
5, 00</w>
GN U</w>
Brux elles</w>
nachweis bar</w>
SIN G
wordpress .com</w>
JJ JJ</w>
Gebur t
Brü der</w>
0, 15</w>
Zah lung</w>
gerin nen</w>
qu es</w>
puertoric o.
Bas el</w>
bri dge</w>
Zahn flei
N ort
Haf tung</w>
Besch luss</w>
verschw inden</w>
versch oben</w>
G ang</w>
dun kel
z entu
gen es</w>
l ten</w>
viel mehr</w>
Z wan
son- Syndrom</w>
iv o</w>
q m</w>
Veröffentlich t</w>
SP I
Kon jug
In d
er wer
ell e
Ver fassung</w>
Aku te</w>
ka st</w>
Gesamt dosis</w>
Gar antie</w>
Placeb ogruppe</w>
ar tiger</w>
verschw ommenes</w>
GAN FORT</w>
h orm
fahr ten</w>
ZYP AD
Ber ichten</w>
R S
vor behalten</w>
mono klon
g am
Sauer stoff
Lit auen</w>
mer ika</w>
J az
or n</w>
Star lix</w>
Pax ene</w>
t .de</w>
kräf tig</w>
ein zeln</w>
Mü ttern</w>
Ambir ix</w>
AR MA</w>
08 5</w>
J ack
HA BER</w>
c in</w>
L ju
Kleinkin dern</w>
tu bul
Kolle ginnen</w>
Ce trotide</w>
Bedien ung</w>
3 30</w>
cam tin</w>
kok ken
i um
Reverse- Transkriptase-
ten der</w>
ap ro
Te va
Panre tin</w>
Metho xy-Polyethyl
Vir us-
Tra v</w>
pp er</w>
bo xy
gu age</w>
SU R</w>
We g
t ul
il fe</w>
YC EL</w>
SPR YCEL</w>
Proteasehe mmer</w>
3 01</w>
Chr isten</w>
Bab y
Atem depression</w>
vorhand ene</w>
pe gy
kt omie</w>
be deuten</w>
Spon dy
P EN</w>
Migrän e</w>
www. vi
nicht steroid
mitglie der</w>
Vari ante</w>
Sy na
Selb stin
Eigen tum</w>
Be suchen</w>
An reise</w>
li ter
gew ach
ent stand</w>
Ti pps</w>
Gol d
20 .
16 7</w>
ar ea</w>
w in</w>
Versch limmerung</w>
k an</w>
su spension</w>
c ine</w>
Bro t</w>
kön nt</w>
V AX</w>
T ari
Erbit ux</w>
zip lin
g nü
Doppel blin
zu treff
E mp
CY MB
zi ger</w>
progressi ons
erst es</w>
In hab
Kon text</w>
Stock holm</w>
Skal a</w>
up s</w>
Tie fe</w>
Arbei ter</w>
v iert</w>
on as</w>
Ar gen
zip ien</w>
fa ßt</w>
Hoch schule</w>
Aus stellungen</w>
il leg
C K
wor ld</w>
Schwer wiegende</w>
08 -
gui dance</w>
Gu mmi</w>
Vor geh
Trei ber</w>
Pur pur
P DE
Exan them</w>
Cro scar
w here</w>
G .</w>
En gel</w>
zuck er
e tik
unter liegt</w>
Mon tel
reag iert</w>
enco unter</w>
be kämpfen</w>
Thyro gen</w>
SING UL
EP A</w>
un ge</w>
- TV</w>
NSA ID</w>
Gu i
vor stellen</w>
thei r</w>
ktor -
e e</w>
Glie d
1. 200</w>
ö s</w>
äl en</w>
ad o</w>
SINGUL AIR</w>
Gebärmut ter
redu zierten</w>
Sik los</w>
Cetu ximab</w>
spe ci
CY ST
ac al
Prior ität</w>
Maximal dosis</w>
Fluor our
15 0
Zu ge</w>
John son</w>
rheum ati
umfas ste</w>
j ur
intramuskul ären</w>
i i</w>
ander erseits</w>
am bul
Luftfeu chtigkeit</w>
Fran cis
Fortschrit t</w>
o ch
fu vir
Schwimm bad</w>
En fuvir
kor e
Comm ents</w>
s ap
folgen des</w>
PRO TEL
Ergän zung</w>
erreich te</w>
englyc ol-
d ein
zw anzi
www.q lyque.com</w>
stu fe</w>
ar di
R ent
Duo Trav</w>
4 12</w>
c i</w>
ber ge</w>
Organ en</w>
englycol- Epoetin</w>
aus scheidung</w>
angebo t</w>
Kon tamin
26 ,
ZA AR</w>
Ma sse</w>
-------------------------------- --------------------------------
pylor i</w>
hal be</w>
ens weise</w>
c ations</w>
Immung lobul
E T</w>
Pädiatr ische</w>
us -</w>
gemein schaft</w>
F R</w>
X ER
Rich ter</w>
te stelle</w>
Dem on
Binnen markt</w>
kardi ale</w>
e ase</w>
Cas a</w>
aufbewahr ung</w>
an ia</w>
Or ale</w>
vor läu
CYMB ALTA</w>
Andre as</w>
Ant oni
Ele c
ssymptom e</w>
h or</w>
I sch
Sor g
z on</w>
ent le
An fän
fir st</w>
Verfall s
Krä mpfe</w>
S W
Präpar aten</w>
Glas fläschchen</w>
Zulass ungsin
Sen si
stat ten</w>
de fizi
b b
W äl
S hi
ser a</w>
wäch st</w>
C ADE</w>
la- hab
Eier stö
Seb ivo</w>
Re formen</w>
PROCOM VAX</w>
Gew inn
verb rauch</w>
Hyper icum</w>
Comp u
dyna mik</w>
Keto azidose</w>
Hä mat
Diskus sionen</w>
B ein
Über gang</w>
P ier
O si
Her t
perfor atum</w>
her zlich</w>
Pip ette</w>
Su ga
o ten</w>
ge achtet</w>
Solidar ität</w>
Gla xo</w>
one ur
in fun
Ju li
25 5</w>
gewähr t</w>
Typ s</w>
N ür
Sicherheitsp harma
Fab ra
ff ix</w>
bili ru
Wol f
P CTFE</w>
M un
Fi brin
k napp</w>
Er arbeitung</w>
Che mi
ag gressi
Säug ling</w>
Rei hen
AL IM
36 9</w>
s un
Pul vers</w>
Flüssigkeits an
1 19
vide o</w>
dar a</w>
Selbstin jektion</w>
Mall orca</w>
Suga mma
Hy camtin</w>
35 ,
1, 25</w>
st opp
PROTEL OS</w>
Eu dra
tot al</w>
er satz
ba sierte</w>
Neuro Blo
Sauer stoff</w>
san ofi-aventis</w>
cet at</w>
VEL CADE</w>
Unterhautzell gewebes</w>
Re tin
Raltegra vir</w>
ausgestat tete</w>
Dosis bereich</w>
te x</w>
otyp en</w>
R ing</w>
ORACE A</w>
Inter view</w>
F IN
höch stens</w>
Montel u
be standen</w>
MR T</w>
L ÖS
langsam e</w>
T on</w>
sä tzen</w>
antivir ale</w>
X ar
Fel der</w>
Tro tz
Konsequ enzen</w>
F lie
ver wirk
rei he</w>
Kr ka</w>
Ausführ liche</w>
x tra</w>
st unden</w>
rä der</w>
be ck</w>
2 45</w>
ag gre
Gri pp
p ath
ba sed</w>
Wa ffen</w>
Nadel schutz
ach t
Amer ica</w>
Bündel packung</w>
star b</w>
nach haltigen</w>
m ov
fin d</w>
Diph ther
Vor jahr</w>
E ro
Erinn erung</w>
Dimen sion</w>
wan del</w>
stre et</w>
spart ner</w>
is la
Strepto coccus</w>
lei det</w>
der e</w>
Sich er
er langen</w>
Synkop e</w>
K y
6, 0</w>
Lymph systems</w>
Kommiss arin</w>
stitution stherapie</w>
ge wer
auf suchen</w>
atin -
Tit er</w>
Sulfon ami
Krä fte</w>
ex zell
ac in</w>
Na gla
exp on
IN V
pro te
na i
zi mmern</w>
be heben</w>
Ma ster</w>
del kappe</w>
ch ten
angeneh m</w>
Lehr e</w>
Führ ungs
u tes</w>
Men stru
0 32</w>
gr atis</w>
Repla gal</w>
Pal pit
Ein trag</w>
ver bindung</w>
tau chen</w>
sta b</w>
st ie</w>
Ap id
steu ert</w>
ff en
Bo sch</w>
änder ung</w>
k us
Levetiracet am</w>
Leberenzy m
Ari xtra</w>
Ausgangs werte</w>
or ange
st ation
Z ut
XER IST
Insulin a
BM D</w>
erweiter n</w>
d .com</w>
Yon del
l .
ern annt</w>
do- de-
c ile</w>
Se kretion</w>
syn these</w>
stechn ologie</w>
prim ärer</w>
kein es
an nehmen</w>
y e</w>
PSUR s</w>
offizi ell</w>
Telbi vudin</w>
se mpf
Entsprech end</w>
vitr elle</w>
verlei h</w>
taus end</w>
Wachstumsh ormon</w>
P CI</w>
Produ cts</w>
downlo ad</w>
Sicherheits daten</w>
bri tischen</w>
Origin al</w>
5- F
Herz erkrankung</w>
g ame</w>
Met ern</w>
HI V-</w>
antwor tet</w>
Pre ss</w>
Chan cen</w>
tt en
mechan ismen</w>
lebensbedroh lichen</w>
gl omerul
entscheiden d</w>
Zun ächst</w>
Pro gno
Ge sichts</w>
lä dt</w>
Bewusst sein
oc ar
Vie t
Änderungsan träge</w>
ver lie
l auch</w>
aufge tragen</w>
Imp ul
16 3</w>
. gui
erleich tert</w>
M H
z onen</w>
Zu verlässi
Wün sche</w>
Organ is
w ände</w>
Medi cines</w>
Schla g
betreff end</w>
Rom a</w>
Fi x
ru h
b ren
Str and
ameri kanische</w>
Zusa mmen</w>
IC A</w>
k lu
jün ger</w>
P eter
pf ei
lier ungen</w>
Schein medikament</w>
Leuko Scan</w>
in fusion</w>
1 x1</w>
pra min</w>
fra kturen</w>
engmasch ige</w>
Tach o
Unerwünsch te</w>
L UM
gewis sern</w>
Pfla sters</w>
grü ne</w>
conda do-de-
7 0-
entspra ch</w>
wo uld</w>
on or
norm ales</w>
erheb lichen</w>
Wasch maschine</w>
Vi zep
fest legen</w>
Leber schädigung</w>
Gen au
Dig ital
rä umen</w>
la ger</w>
Ty g
re ser
Temp el</w>
Calci um-
Ara va</w>
An fällen</w>
er leb
Yondel is</w>
XERIST AR</w>
Veröffentlich ungen</w>
Ro om</w>
o sen</w>
v um</w>
abgew ogen</w>
Südti rol</w>
Oli ven
begrü ßen</w>
schwar zer</w>
k ab
Methoxy-Polyethyl englycol-Epoetin</w>
24-Stunden- Rezeption</w>
klär ung</w>
komplet ten</w>
endgül tige</w>
F li
ne y</w>
Mon tage</w>
Häufig keits
Galac to
Fen dri
Preot act</w>
Grund lagen</w>
abge stimmt</w>
R .
Ek zem</w>
oc y
Ro tig
8, 8</w>
be ha
or ing</w>
ger ei
gel in
dosi erungen</w>
S na
Harnwegsin fektionen</w>
zusätz licher</w>
ge prägt</w>
lu de</w>
28 -
v i</w>
geb e</w>
er le
An gabe</w>
R ing
Nieren transplantation</w>
Le gen</w>
schwar ze</w>
QU AD
L IN
ogen itäts
a vail
Purpur a</w>
M ül
sch loss</w>
occa sione</w>
f ung
Th a
forder te</w>
Th en</w>
spezif ischer</w>
schla gt</w>
jähr iger</w>
zugelass ene</w>
Kon struktion</w>
29 ,
Gro ße</w>
4, 1</w>
w hen</w>
qu elle</w>
Ze ffix</w>
SPI EL</w>
o tin</w>
zentr ums</w>
sh -
ar tig</w>
WE STERN</w>
Kinzal mono</w>
5 -</w>
w ant</w>
e ffizienz</w>
Re sort</w>
Poli zei</w>
GF R</w>
gesetz lichen</w>
endgül tig</w>
b aus</w>
Schri ft</w>
B rise</w>
9 3
Xy rem</w>
Pemetrex ed</w>
é r
wirt schafts
po t</w>
Tab ellen</w>
Simul ect</w>
zyten zahl</w>
z za</w>
Tra ze
Neben wirk
C ru
ma in
er bra
INO max</w>
Bus iness
p ut</w>
Je su</w>
Ira k</w>
GS K</w>
Cin acal
zu stände</w>
oi mmun
brin gung</w>
Sicherheitspharma kologie</w>
Lett land</w>
Dan iel</w>
Bar ac
Wachstumsh ormon
Labor werte</w>
Imi qui
Fabra zyme</w>
1. 5</w>
War en
Tyg acil</w>
künf tig</w>
Krankenschwe ster</w>
www. blo
X L</w>
Besitz er</w>
Änderungsan trag</w>
MP 3</w>
is ra
ily sin</w>
Han s</w>
Gefäß erkrankungen</w>
kap sel
Rap ilysin</w>
Er st</w>
Bu cht</w>
ro utine
17 7</w>
ap o
Di hydro
O vitrelle</w>
Geschma ck
Fil ter
ab gel
Mamm akarzin
Kno w-
Kap it
B v
Asp erg
5, 7</w>
CO 2-
schär fe</w>
be zug</w>
hervorra gende</w>
he f
I K
E mo
Komp ati
Mess ungen</w>
26 .
Ber ichts</w>
ap ax</w>
Scho ol</w>
Man che</w>
tr oni
be denken</w>
Ur teil</w>
ungsp olitik</w>
Orien tierung</w>
Hier zu</w>
sp ump
Bio technologie</w>
te stens</w>
fil s</w>
17 -
Valen cia</w>
m ord
er lebt</w>
Wi ener</w>
Se cur
17 6</w>
teri tis</w>
ic il
be such</w>
Zen apax</w>
Gesetz e</w>
gebrau cht</w>
con si
bei ge
Sp rech
vorher igen</w>
t hal
Natrium oxy
Croscar mellose-Natrium</w>
wirk endes</w>
tö dlichem</w>
scha den</w>
ks hop</w>
ver hältnis</w>
einzu setzen</w>
bür o</w>
s eb
Web seiten</w>
Pat ent</w>
19 45</w>
sch üre</w>
ver langen</w>
pla zeb
Um stände</w>
ZYPAD HERA</w>
Pa tri
Caspof ungin</w>
To cili
Sch icht</w>
Behandlungs schema</w>
stu fen</w>
registr iert</w>
interess ant</w>
br eit</w>
I P-
ad -
ett a</w>
Myo zyme</w>
fil es.
U M</w>
Ma y
D s</w>
fre ue</w>
den heit</w>
P L</w>
Differ enz</w>
satz es</w>
ab bruch</w>
VIS TI
Stickstoff mon
Barac lude</w>
fu hren</w>
a spe
End punkte</w>
Da mpf
14 9</w>
schrift liche</w>
ts y
198 6</w>
st Ã</w>
neutrop hil
Techni ken</w>
NeuroBlo c</w>
Imiqui mo
C oll
TN F-
Ba se</w>
beschleun ig
Back ofen</w>
hi b
enz -
W art
15 6</w>
Sie d
è re</w>
P epti
Immobili en</w>
fel ine</w>
Lan des
b b</w>
D F</w>
Be züglich</w>
stand ard</w>
span ischen</w>
kosten loses</w>
Wissenschaft ler</w>
Schwei ß
An alog
ep p
er ge</w>
Er öffnung</w>
Cor tico
pH- Einstellung</w>
gal u
akzep tabel</w>
Verletz ungen</w>
Poly e
spro gra
f ischen</w>
t om</w>
s ah
et c</w>
Einzel fälle</w>
Bür gern</w>
ge ometr
außer gewöhnlichen</w>
Vorsitz enden</w>
Pr ol
sex y</w>
exis tiert</w>
entzün dungs
Or galu
C olle
Bauern hof</w>
m g-</w>
inter ne</w>
T S</w>
S il</w>
grün den</w>
langfris tig</w>
hinreich end</w>
Milli liter</w>
Interv alls</w>
Dres den</w>
De si
Artik el
si ve</w>
ir ge</w>
ad or</w>
Der zeit</w>
Al endronat</w>
betr offene</w>
18 2</w>
ori zon
Mobili tät</w>
ub ic
St üh
Mei ster</w>
Konjun ktivitis</w>
Antibio tik
f .</w>
berech nen</w>
13 8</w>
lich ung</w>
Ge bet</w>
Entschließ ung</w>
u ss
Ö sop
ο υ</w>
äuß ern</w>
oh len</w>
og a
gesund heit</w>
dro gen
Pla za</w>
schwerwie gender</w>
Ge füh
Form el</w>
Arme e</w>
do ster
30 th</w>
unter wegs</w>
pro mp
prakti sche</w>
HIN WEIS
Col or
s heit</w>
bi d
um ar
An lass</w>
h am</w>
at he
groß em</w>
Speich er
Scien ces</w>
G anz</w>
.05. 2016</w>
Tocili zumab</w>
TR UM
STEL ARA</w>
Büh ne</w>
Metac am</w>
pla te</w>
eti k</w>
ern de</w>
beru hen</w>
Prä klinische</w>
met h
län dlichen</w>
an i
Weich kapseln</w>
ner v
it ori
Posa conaz
Apid ra</w>
u el</w>
fehl ende</w>
Moxi floxacin</w>
ALIM TA</w>
gs k.com</w>
ein -</w>
Str on
G LI
AID s</w>
AD V
AM AR
zw in
passi eren</w>
abhän giger</w>
tur es</w>
si te-
To ols</w>
Straßen verkehr</w>
NS AIDs</w>
Kri tik</w>
Kreis lauf</w>
ur m</w>
ac t
Sugamma dex</w>
Sen sor
An griff</w>
hi bi
IN HABER</w>
sa cch
Gesprä ch</w>
UC B</w>
v -
sei tig</w>
ge stattet</w>
Pu mpe</w>
Gleich zeitige</w>
lau tet</w>
Tacho Sil</w>
Sie g</w>
P hi
for d
Ver pack
T or</w>
Implemen tierung</w>
16 -
wirk enden</w>
Abwei chungen</w>
D F
un ken</w>
klei dung</w>
Hä mato
an ne</w>
Kat astroph
zellul äre</w>
M ah
0 33</w>
Bi ograstim</w>
A temp
sacch ari
s em
atur es</w>
Lju bl
Jo se
Alzhei mer-
be f
D S
r n</w>
Ly on</w>
Ma jor</w>
Quad rat
O F
Identi tät</w>
Be f
Be at
in kl
wiederhol ten</w>
mark iertem</w>
konzentr iert</w>
Go tt
cyc lin</w>
Win kel</w>
Kl eine</w>
Be ut
Be sitz</w>
AB E</w>
gra ft</w>
6, 2</w>
Zu gehöri
C ID
Ambi ente</w>
ge gefühl</w>
Sp ann
ad mini
er gen</w>
................................ ................................
top en
Jo sep
Bei tritts
therapeu tischer</w>
r u</w>
geb ühr</w>
Tum or</w>
- und</w>
- 0,
ssyn drom</w>
ger ter</w>
Leip zig</w>
Internet zugang</w>
hin deuten</w>
komp lex</w>
as -
setz ungen</w>
klein eren</w>
fi gen</w>
a e
Termin e</w>
.amarilla s
sour ce</w>
vier tel</w>
Premi ere</w>
Gerä ten</w>
rah men</w>
Trän en
hau se</w>
E G-
BEUR TEILUNG</w>
7, 2</w>
Li ven
tier theit</w>
hC G</w>
Kur ve</w>
Fahrzeu gs</w>
sinn voll</w>
in fizierte</w>
de cke</w>
Verdün nungsmittel</w>
ein bezogen</w>
OPTIS ON</w>
X S</w>
Besch ränk
198 5</w>
woh n
au stausch</w>
Spondy litis</w>
su per
Traze c</w>
one x</w>
Schleim häu
Pre ss
Magen schmerzen</w>
sl atinas.net</w>
annäher nd</w>
Mei ster
IS ENTRE
ISENTRE SS</w>
Grapefru it
nütz lich</w>
St ahl</w>
So cial</w>
Injektions stellen</w>
Be geg
20 9</w>
stär kt</w>
h m</w>
B lan
in- Dosis</w>
v ierung</w>
Zusammen setzung</w>
Or ten</w>
ell em</w>
da hin</w>
stol z</w>
c tive</w>
Teva grastim</w>
sa ison
gel er
ent halt</w>
der er</w>
Glu bra
-C ILAG</w>
un zugänglich</w>
ge sucht</w>
de t
wie gen</w>
sau ber</w>
h igh</w>
Angiotensin-II- Rezeptor
pen il
itori x</w>
Men itorix</w>
dy stro
Mosk au</w>
Menschen rechts
12 th</w>
Moder n
verlei hen</w>
KO MP
penil ef
Amb ris
Z ink
k tem</w>
Nie dri
Hüh nern</w>
ov ol
Mexi ko</w>
Ima ge</w>
Ibu profen</w>
AG B</w>
le mati
han -
E d
yn ä
antwor tete</w>
l us
disku tieren</w>
digit ale</w>
Sp r
en ic
Nor men</w>
Lich tempfind
kompati bel</w>
Um wand
B lei
1 15
ver lauf</w>
profession ellen</w>
Bi ologi
pun kt
itness .com</w>
Bei hilfen</w>
an teil</w>
Gemein den</w>
tgen stein
is sen</w>
QUAD RA
2 33</w>
bra n</w>
Pra su
Mr d.</w>
Zu stände</w>
V inc
sofor tige</w>
ig a
Dur st</w>
P SUR</w>
Glyk oprotein</w>
Co ck
dau erte</w>
Techn ology</w>
öh nung</w>
QUADRA MET</w>
En gegefühl</w>
zen de</w>
16 9</w>
ac tion</w>
fr ieren</w>
Fro m</w>
se g
penilef itness.com</w>
source .org</w>
ler s</w>
Rin dern</w>
pneum oniae</w>
lebensbedroh liche</w>
Impf dosis</w>
Einmal gabe</w>
sp ür
FeL V</w>
INV ANZ</w>
gelö scht</w>
Zulassungsan trags</w>
V ul
e ck
aufge klärt</w>
Tages ordnung</w>
Gra n</w>
CID AS</w>
CAN CIDAS</w>
om a</w>
her auszu
en gen</w>
Enfuvir tid</w>
En br
spiegel t</w>
o V
li ve</w>
ander n</w>
T ot
KM U</w>
H E
4 69</w>
qu ote</w>
G I
4 5-
kret är</w>
v als</w>
ssi c</w>
re xie</w>
Ker ami
Befeh l</w>
wei chen</w>
r é
Komp let
hydroxid- oxid</w>
Be merk
kap ital
Rati ograstim</w>
l ehen</w>
besonder es</w>
Herz krankheit</w>
Av onex</w>
JAN SSEN
schla gs</w>
om -
ei b
Di alog
B ag
sk y</w>
Tri g
Pass wort</w>
Hy dr
Antihistamini ka</w>
wich tiges</w>
Po wer
B TE</w>
deut liche</w>
Ler nen</w>
P C-
gi lin</w>
Antazi da</w>
4 31</w>
wit tgenstein
per form
gerech t
ge stimmt</w>
frühe stens</w>
Über nahme</w>
fall s
Zeu g
TRIT ACE</w>
kontinuier lichen</w>
www. c
p ati
Bei tritt</w>
ra ts</w>
Ter at
P lo
Equ ili
wittgenstein source.org</w>
ur in
far ben
ari o</w>
su izi
n an
han g
lu ft
Ver trags</w>
m -</w>
vereinbar ten</w>
T anz
P lätze</w>
F ähr
inkl .</w>
vac i
kur se</w>
kl einzel
el to</w>
qualit ativ</w>
par ks</w>
a zyme</w>
Neu es</w>
Aldur azyme</w>
7 3
grü n</w>
fe ed</w>
Harn stoff</w>
2 15</w>
Nagla zyme</w>
Hier bei</w>
Ge geben
Er leich
op -
Cro hn</w>
er litten</w>
Intra venöse</w>
prob lem
T V
Regi me</w>
E scher
Ü b
g ir
KR KA</w>
mm on
i kan
Insul inen</w>
Flüssigkeits retention</w>
AT EN</w>
z iel</w>
re us</w>
ht hal
ar tikel</w>
Leistungs fähigkeit</w>
bo ok</w>
bo dy</w>
Mittel wert</w>
Ab fahrt</w>
L A</w>
Indi g
p fe</w>
kön ne</w>
ein her</w>
Activ elle</w>
Gegen teil</w>
Fot ogra
BEZEICHN UNGEN</w>
ge habt</w>
aus gelegt</w>
Nexav ar</w>
Di ck
dra tation</w>
bli cken</w>
der iv
Son oV
IT E</w>
An wesen</w>
Enter pr
off ener</w>
Xar elto</w>
Ljubl jana</w>
Ho d
Escher ich
wu chs</w>
ί α</w>
irgend einem</w>
Be vaci
öff nete</w>
ol on</w>
l u</w>
P läne</w>
AV ON
sy mb
hervor geruf
JANSSEN -CILAG</w>
Harn wege</w>
Appetit verlust</w>
AR -
vi gen</w>
Proph eten</w>
Hän dler</w>
ver wei
lin ks
Din gen</w>
pH- Wert</w>
Reserv ierung</w>
Grapefruit saft</w>
0 3-
ver stoff
0 55</w>
zeit genössi
ober halb</w>
Ein reichung</w>
Gna de</w>
C N
2 27</w>
maß geb
kan al
exis tieren</w>
di gte</w>
I .
CO X
an stelle</w>
Nieren probleme</w>
4 10</w>
ver such</w>
H under
lä sionen</w>
glau bt</w>
dest o</w>
sele ktiven</w>
Kompro mi
An trägen</w>
isra el
Mikro organismen</w>
Erfahr ungs
C ra
Blo ck</w>
mark iert</w>
Hei mat</w>
Erfol gs
ver läuft</w>
stra at</w>
her ap
en ia</w>
Semin ar</w>
Prä sen
Führ er</w>
schlü sse</w>
Ac tive</w>
zi el
Rat te</w>
ery the
Zy r
3A 4</w>
über greif
ein maliger</w>
Dele gation</w>
AV AND
un kompli
olog ischem</w>
bla se</w>
Ti ge
Pass ag
GE M
Trin ken</w>
To x
Glycer ol</w>
li fe</w>
autom atischen</w>
ungspro fil</w>
Aspart am</w>
stä tte</w>
hei lung</w>
c og
W eine</w>
0, 18</w>
erfol g</w>
t af
Sevo flur
Opti sulin</w>
Novo Fine</w>
Lakt ation</w>
A tom
ford shire</w>
Y ENTRE
Übernach tung</w>
son sten</w>
Konz ert</w>
Arznei spezialitäten</w>
ver y
ex pri
Arrhyth mien</w>
Teil chen</w>
Metformin hydrochlorid</w>
ord ent
Indig ocar
deut lichen</w>
c als</w>
anaphyla kto
Zugehöri gkeit</w>
samm lungen</w>
Vigaba trin</w>
Rück sprache</w>
medizin ischer</w>
in mitten</w>
ein bindung</w>
seh e</w>
Dien st
sprä par
schwan kungen</w>
Labor ato
Glied maßen</w>
über tritt</w>
ver mitteln</w>
T ER
Osi graft</w>
da teien</w>
K lass
Augeninnen druck</w>
Kü sten
Git ar
AZ IDE</w>
Verfalls datum</w>
Mini bar</w>
gerä ten</w>
Unter kun
Prof ender</w>
j o</w>
fin de</w>
Fo sc
Auf preis</w>
An schrift</w>
si scher</w>
s äu
le s
Sp rüh
E a
ausge gangen</w>
T hr
S qu
O pp
g ner</w>
Myel om</w>
M- M-
Autob ahn</w>
s al</w>
Lungen entzündung</w>
sisten zen</w>
Be trag</w>
w l</w>
stal t</w>
integr ierten</w>
g han
druck s
auss ehen</w>
stre cke</w>
spü len</w>
Da T
Bis her</w>
unter st
DaT SCAN</w>
C hal
al e
ack en</w>
ge fordert</w>
Proben eci
Vertrieb s
Spezi alisten</w>
Gen zyme</w>
organ is
stell vertret
erw är
Vizep rä
Cyc lop
der ten</w>
Blutgefä ßen</w>
Avan da
ti ment</w>
Ein griffe</w>
at ta
Tum ore</w>
Placebo- kontrollierten</w>
vir on
sto ß</w>
auf gaben</w>
a sti
Z elle</w>
US B</w>
Neu geborene</w>
ter krankungen</w>
Nachhal tigkeit</w>
Bildschir m</w>
schwell ung</w>
ations -
K lu
Amp ho
blä schen</w>
Anti myko
beschrei bung</w>
90 Y</w>
r er</w>
N L-
S oh
Pe tr
vorzu beugen</w>
T reib
Ampho ter
zu ständige</w>
dr onsäure</w>
Mon ats
Autom ati
vermittel ten</w>
bedeut end
Gedäch tnis
CYP2C 19</w>
wer ks</w>
aus schuss</w>
YENTRE VE</w>
Warte zeit</w>
gelei stet</w>
Injektions knopf</w>
man n
r d</w>
mil lion</w>
Wer den</w>
ot enen</w>
af ter</w>
un veränder
er zählt</w>
Salz burg</w>
Kon ver
Fluorour acil</w>
Cido fovir</w>
Bun de
Unter drück
Net her
w ol
hemmen de</w>
H L</w>
Fok us</w>
ur gie</w>
T ö
Glas flasche</w>
wirt schaft
Selbst mord
effizi ente</w>
Tele kommuni
Escherich ia</w>
recht zeitig</w>
Bla ck</w>
b ens</w>
jahr es</w>
for ge</w>
Pri vigen</w>
Francis co</w>
ins a</w>
ein geladen</w>
Ra sa
Li qu
Ge wäss
in for
auf hin</w>
ao ke</w>
Lie ge
Equili s</w>
zulässi g</w>
verabreich tem</w>
Isol ate</w>
transplan tierten</w>
T rie
gewor fen</w>
ein gehen</w>
Erd geschoss</w>
Sp .</w>
R VAXPRO</w>
Kunst stoff</w>
Kan zer
B lü
Kunden service</w>
ck .com</w>
zu fuhr</w>
vir ale</w>
le ms</w>
ge beten</w>
Pressemittei lung</w>
pass ende</w>
gesch wür
w an</w>
u be
belast ung</w>
Mi dd
Compet act</w>
Appartem ents</w>
th in</w>
g aben
di -
Montelu kast</w>
b ahnen</w>
den kt</w>
Ma cu
depressi ven</w>
Kar ls
Te tra
Be enden</w>
stran d</w>
am t</w>
Philosop hie</w>
Ma is
on atri
ger einigt</w>
eib .org</w>
Aut oimmun
e .V.</w>
bestimm ungen</w>
Aben teuer</w>
ver worfen</w>
chan ge</w>
P D</w>
N plate</w>
Wa y</w>
Intr insa</w>
C V</w>
Seh schärfe</w>
Schlu ssel
f ens</w>
eti n
Zei tung</w>
al an</w>
Asso zi
umfan greiche</w>
C C</w>
har t</w>
Ik terus</w>
ober e</w>
gesamm elt</w>
be arbeitet</w>
strä ger</w>
hosp ha
E vol
stre ben</w>
stati c.
Plan eten</w>
rekombinan tem</w>
Mehr wert
Ho w</w>
Cyclop hospha
Atemp ro
Kop ie</w>
op ipran
Ma ster
Lar opipran
Grö ßen</w>
sch rank
Lab or</w>
Bot ulin
human em</w>
V TE</w>
Geh alt</w>
Dinatrium hydrogenphosphat</w>
Ven enthrombo
Dat a</w>
mu ster</w>
g lo
Referenzmitglied staat</w>
spar ameter</w>
Inhal ts
Gra des</w>
Finan zen</w>
Doxor ubic
un abhängigen</w>
e tr
Nr. 8
ium chlorid</w>
Ju gend</w>
ken nung</w>
Gluco se</w>
investi gation</w>
Str ände</w>
Emissi onen</w>
pharmak ologische</w>
SonoV ue</w>
Biliru bin
Py rexie</w>
Kar aoke</w>
erkenn bar</w>
An zeigen</w>
n der</w>
B N
il u
gebrauchs fertigen</w>
Nür n
Er t
Enzephal opathie</w>
Bre ak
SAR L</w>
mittler weile</w>
Jahres bericht</w>
Faltschach teln</w>
us ed</w>
kons equ
ins ulin
ere kti
alysep flich
Gra mm</w>
Ein flu
An tigen</w>
Geschäfts bedingungen</w>
Boo k</w>
19 -
Öff nungs
Pap st</w>
ma -
0, 088</w>
ver kün
inji zier
Le g
Aus stellungs
0 36</w>
cali for
k now</w>
influenz ae</w>
[...]
