#version: 0.2
t h
i n
t i
a n
r e
th e</w>
e n
e r
o n
o n</w>
e d</w>
a r
o f</w>
i n</w>
i t
r o
o r
an d</w>
s t
a t
e r</w>
in g</w>
o u
a l
o r</w>
a ti
t o</w>
e s</w>
a c
i s</w>
i c
a l</w>
e c
a s
o m
i l
t s</w>
e l
i s
e s
o l
u s
a t</w>
a s</w>
e n</w>
a n</w>
u r
o s
T h
d i
it h</w>
b l
w ith</w>
ati on</w>
s i
f or</w>
en t</w>
c on
ti on</w>
p ro
v e</w>
t a
u l
a d
r i
e m
p l
l y</w>
u n
a m
n o
e v
Th e</w>
c om
a g
c h
b e</w>
e t
a p
w h
l o
u c
2 0
en ts</w>
i d
i m
ar e</w>
e x
re s
c e</w>
on s</w>
s h
a y</w>
e d
t r
c l
i g
f f
i r
o u</w>
o p
h a
th at</w>
no t</w>
o c
at ed</w>
s u
ou r</w>
b e
er e</w>
p ati
f or
in e</w>
o t
0 0</w>
at e</w>
y ou</w>
p er
n e
m ent</w>
q u
a b
i t</w>
l d</w>
v i
l i
it y</w>
u m
m g</w>
t er
b y</w>
a r</w>
os e</w>
s e
t ed</w>
v er
bl e</w>
ou ld</w>
d uc
c o
th er</w>
re d</w>
l e
pati ents</w>
e p
t re
i c</w>
w as</w>
ro m</w>
m e
i st
o w
p h
f rom</w>
o o
er s</w>
ha ve</w>
re n
u d
p or
20 1
as e</w>
on e</w>
u t
w e
th e
a f
in g
ou n
. .
ur e</w>
us e</w>
ec tion</w>
d is
t er</w>
ig h
p e
y our</w>
sh ould</w>
es s</w>
m a
r a
p ar
o d
p re
ti ons</w>
p a
al l</w>
e l</w>
th is</w>
m in
e t</w>
k e</w>
o g
an t</w>
s y
en d
c re
ag e</w>
i a</w>
e ar
t e
com m
20 0
h as</w>
i v
il l</w>
a v
e ff
ou t</w>
h t
1 0</w>
ic h</w>
an ce</w>
s e</w>
u m</w>
d e
u s</w>
an y</w>
I n
re c
con t
en t
d ose</w>
al ly</w>
ti m
s p
ti c
o v
w ill</w>
s er
in f
b er</w>
d er</w>
ar y</w>
l e</w>
ou r
ic al</w>
I n</w>
c an</w>
a ble</w>
o ther</w>
w or
be en</w>
a y
s o</w>
ti ve</w>
ati ons</w>
at ment</w>
d e</w>
wh ich</w>
m ay</w>
pro duc
for m
t h</w>
p os
w w
si on</w>
h y
0 .
h e
m l</w>
or e</w>
m on
oo d</w>
us ed</w>
lo w
k ing</w>
a il
ed ic
st r
b u
p res
an g
tre atment</w>
eff ec
an d
el y</w>
ou s</w>
i on</w>
k s</w>
ac c
s ol
e st
i d</w>
ta bl
c i
E U</w>
w ere</w>
u p</w>
id e</w>
u g
ta in
on al</w>
in d
it s</w>
i r</w>
m edic
ht t
el l
s t</w>
su b
c a
en ce</w>
e ts</w>
u ro
it e</w>
f e
in j
2 0</w>
5 0</w>
o b
htt p</w>
min ist
u e</w>
d ay</w>
as t</w>
ic e</w>
g n
C om
u tion</w>
t or</w>
0 0
o w</w>
f il
es s
i f
i f</w>
an c
ti v
us t</w>
i th
al l
o x
al so</w>
as s
r is
th er
m ore</w>
as ed</w>
g r
es t</w>
u di
ad minist
i ti
c ar
in cre
ev el
1 9
f ol
t ri
a st
es e</w>
h i
s ul
1 2</w>
ti c</w>
c h</w>
al s</w>
p ri
re qu
cl ud
I f</w>
a d</w>
se e</w>
m ar
W h
in ter
en c
ser v
t w
p o
af ter</w>
pro v
d oc
th an</w>
ac h</w>
igh t</w>
for e</w>
ar m
el l</w>
I t</w>
an s
3 0</w>
Th is</w>
con tain
en ti
res p
ay s</w>
u p
4 .
om e</w>
u re
t ing</w>
in es</w>
st udi
E uro
re l
st e
wh o</w>
th ro
S t
ur ing</w>
1 .
pl e</w>
g l
w ith
w e</w>
ec t</w>
in al</w>
A n
f ac
ar d</w>
i al</w>
A l
i es</w>
re g
en tr
in clud
g ro
tabl ets</w>
n o</w>
uc h</w>
inj ection</w>
tim e</w>
pl ac
am e</w>
per i
e b
bl ood</w>
or d
y s
g e</w>
1 5</w>
ac h
1 1</w>
t o
ac k</w>
an ti
d s</w>
a u
Com m
ther ap
p r
f ir
il d
sp ec
t ly</w>
U n
f l
end ed</w>
we e
g en
C h
or y</w>
cl in
on ly</w>
i l</w>
2 5</w>
em ber</w>
em ent</w>
d er
t en
fol low
a z
wh en</w>
p e</w>
the ir</w>
m e</w>
d ec
i z
os t</w>
1 0
s ec
com p
2 .
effec ts</w>
s k
il l
doc tor</w>
1 6</w>
re comm
at es</w>
c ur
a m</w>
P ro
1 00</w>
e g
a in
d os
d r
sol ution</w>
ow n</w>
ear s</w>
re e</w>
ev er
bu t</w>
ww w
s ti
studi es</w>
in ation</w>
si de</w>
I N
d ro
b et
i p
u st
v is
con c
or s</w>
- -
b re
d uring</w>
1 8</w>
A R
m il
form ation</w>
re por
y ears</w>
th ese</w>
tr ans
co m</w>
r ation</w>
f i
ta ke</w>
e red</w>
ab out</w>
vi r</w>
m an
l ed</w>
www .
oun d</w>
ul ar</w>
e -
d es
' s</w>
e f
ver y</w>
ol og
1 4</w>
therap y</w>
lo w</w>
d o
o f
k no
.. ..
1 7</w>
ne w</w>
in to</w>
ev er</w>
b i
clin ical</w>
. com</w>
er g
e ase</w>
u al</w>
on g
at ing</w>
Euro pe
o di
ec ted</w>
re duc
f in
arm ac
il ity</w>
l a
is t</w>
Europe an</w>
s ection</w>
g iv
p er</w>
the y</w>
at a</w>
ha d</w>
su p
201 6</w>
e ar</w>
c ol
at er</w>
oc i
a re
o l</w>
om s</w>
M E
s uch</w>
s el
re ac
resp on
d evel
o ff
recomm ended</w>
at ely</w>
rec e
f un
b r
fir st</w>
ad e</w>
di ff
b ec
av ail
p en
g h
com b
ing s</w>
m ust</w>
v er</w>
mar k
si gn
th ere</w>
C on
ar t
c ap
ac t</w>
on g</w>
cont in
1 3</w>
g u
er m
follow ing</w>
in formation</w>
st ud
m p
2 4</w>
is ed</w>
re n</w>
ure s</w>
ris k</w>
2 1</w>
contain s</w>
et y</w>
ati onal</w>
T I
0 00</w>
ren t</w>
or m
tw o</w>
per s
con si
as es</w>
.. .</w>
ec h
administ ration</w>
t u
s ur
d ata</w>
ap pro
c oun
lo c
p ol
5 .
res ul
giv en</w>
ch ang
we en</w>
h e</w>
N e
si ble</w>
p u
is h
o m</w>
Y ou</w>
a k
our s</w>
x im
n ess</w>
me di
ste m</w>
0 7</w>
r it
ati ve</w>
P h
0 1</w>
v ir
b ot
ic i
t y
b od
m ost</w>
d ays</w>
bet ween</w>
c ri
ar i
o d</w>
be fore</w>
ov er</w>
1 9</w>
F or</w>
w ay</w>
com pl
th or
um ber</w>
produc ts</w>
ic ation</w>
s ite</w>
a vir</w>
2 2</w>
4 0</w>
stud y</w>
Wh at</w>
por t</w>
por t
l ess</w>
it ed</w>
ro l
an s</w>
f ul
avail able</w>
ne ed
en d</w>
enc y</w>
c or
incre ased</w>
devel op
d o</w>
u r</w>
tre ated</w>
h um
f er
o ver
il e</w>
a bl
s ure</w>
wor k</w>
kno w
e qu
pro c
in v
p ot
ail y</w>
bod y</w>
includ ing</w>
vi e
o st
s ch
0 6</w>
ap pl
M ar
m od
k en</w>
us ion</w>
v al
pa in</w>
ec ts</w>
u l</w>
d aily</w>
et ing</w>
g re
st ar
A r
R e
ac k
produc t</w>
ar d
sy stem</w>
T E
i ve</w>
y l
ac tive</w>
r u
d ep
ild ren</w>
r ing
s ome</w>
k g</w>
ou s
0 2</w>
o ple</w>
ass oci
0 8</w>
dis ease</w>
n ing</w>
t ur
ph armac
li ke</w>
v en
em s</w>
2 8</w>
ti es</w>
b el
administ ered</w>
h is</w>
ut e</w>
ex peri
rece iv
is ation</w>
s ev
comm on</w>
str uc
m at
A C
medic ines</w>
A N
m ents</w>
W e</w>
1 8
w ell</w>
v acc
thro ug
3 .
b o
6 0</w>
the m</w>
th s</w>
s af
E n
igh ts</w>
P ar
gen er
ta king</w>
b it
2 3</w>
T el</w>
pe ople</w>
A d
g et</w>
wee ks</w>
is h</w>
as s</w>
im m
repor ted</w>
is sion</w>
k in
ig h</w>
or al</w>
sul in</w>
pl as
iti es</w>
19 9
mp t
h igh
P re
m a</w>
conc entr
tic s</w>
b en
ti s</w>
reac tions</w>
or der</w>
e a</w>
h ours</w>
tim es</w>
p ow
. ht
vi al</w>
ul ation</w>
sy ring
ol e</w>
a in</w>
t y</w>
if ic
f r
ch ildren</w>
on -
c al
al ity</w>
b ol
ma in
0 4</w>
diff e
0 3</w>
fun c
ver se</w>
m o
t e</w>
st s</w>
st ance</w>
n ational</w>
gh t</w>
us ing</w>
O N</w>
tiv ity</w>
0 5</w>
M P</w>
associ ated</w>
ec tions</w>
e re
n umber</w>
l evel
1 7
gr am
G erm
D i
ob serv
e y</w>
ta ken</w>
with out</w>
with in</w>
s w
er y</w>
level s</w>
t ure</w>
h ear
in te
d el
l in
l ine</w>
n orm
sk in</w>
Th ere</w>
un der</w>
A c
sy mpt
a ff
e y
ab ility</w>
par tic
ech n
R E
em ia</w>
in hi
medic inal</w>
contin u
sev ere</w>
a use</w>
o p</w>
prov id
in t</w>
pa red</w>
op er
l ong
h el
au thor
ren al</w>
w ould</w>
f a
pre gn
c er
comb ination</w>
en si
ind ic
in t
n ec
ot el</w>
F r
incre ase</w>
ic ro
ti onal</w>
e ach</w>
an ts</w>
me ta
mon ths</w>
he pati
v id
dos es</w>
E ME
ta in</w>
ol d</w>
201 5</w>
6 .
s in
co ated</w>
2 7</w>
h al
wh ere</w>
ti n</w>
y ear</w>
l ar
ic es</w>
i um</w>
hy dro
ex p
el s</w>
th ose</w>
n ights</w>
l im
observ ed</w>
m b
ed ing</w>
un d</w>
O R
2 6</w>
ow ever</w>
E x
is e</w>
h igh</w>
con di
know n</w>
t le</w>
l y
ne ed</w>
m us
or g
pati ent</w>
c ell
tabl et</w>
me as
cl e</w>
1 3
- 0
d em
ac y</w>
O n
l and</w>
oc c
plac eb
hum an</w>
sympt oms</w>
b as
ou g
s a
I S
N ov
D o</w>
effec t</w>
ac e</w>
m -
f ound</w>
j o
v ing</w>
th ing</w>
saf ety</w>
in iti
f ul</w>
in sulin</w>
In ter
l ev
oug h</w>
s ing
0 9</w>
no w</w>
EME A</w>
im pa
in ess</w>
f ur
wh at</w>
e ther</w>
pre -
1 5
er v
ex t</w>
i red</w>
1 4
ad di
ag es</w>
, 000</w>
li f
gro up</w>
-- --
w ater</w>
c ul
m y</w>
throug h</w>
inf usion</w>
h ow</w>
b ed</w>
ord ers</w>
v e
g o
l u
sign ific
dec re
I U</w>
l am
s ame</w>
di rec
syring e</w>
is m</w>
o -
ig n
p i
8 0</w>
i ed</w>
com pared</w>
li ver</w>
tr av
s it
m- coated</w>
N o</w>
b ro
m ade</w>
r ap
A u
ty pe</w>
t en</w>
ot al</w>
m icro
3 1</w>
A L
m any</w>
bot h</w>
on ce</w>
2 9</w>
sec on
enti al</w>
op h
Comm ission</w>
s m
medic ine</w>
odi um</w>
pro t
plac e</w>
pu bl
pro bl
f o
an n
v es</w>
v ent</w>
ne t</w>
im port
en g
ro om</w>
ma ke</w>
p s</w>
th en</w>
si d
r ang
H e
pos sible</w>
m ul
il y</w>
ac t
A s</w>
w s</w>
for m</w>
hy per
contain ing</w>
func tion</w>
t al
vie w</w>
j ects</w>
con tr
P l
be ing</w>
re ad
are a</w>
fil led</w>
l es</w>
si ve</w>
T H
ent ly</w>
ren ce</w>
se t</w>
and s</w>
C H
ad verse</w>
ever y</w>
e u
plas ma</w>
e p</w>
7 .
he al
c y
t em
P E
P M</w>
h ere</w>
ben ef
om en</w>
ish ed</w>
hear t</w>
ch ar
lo o
I I</w>
do es</w>
ad j
M e
bec ause</w>
1 6
U S
t echn
b er
th ree</w>
ati c</w>
O r
s us
cap sul
.ht m</w>
olog y</w>
ic ity</w>
de red</w>
op en
4 5</w>
o s</w>
ad ul
le ase</w>
i ous</w>
un e</w>
P ati
ro s
di st
j ect</w>
c an
d ing</w>
in c
ain st</w>
ad v
mon it
experi ence</w>
un der
pos i
id ence</w>
et er
T O</w>
an e
T A
ex c
p ec
at ure</w>
.... ....
ag ainst</w>
en s
ac tion</w>
ti l</w>
ex am
meta bol
ou t
ti on
b ased</w>
dis orders</w>
en z
lif e</w>
placeb o</w>
8 .
ys is</w>
wee k</w>
pl y</w>
anc es</w>
at s</w>
we ight</w>
m m
sing le</w>
1 2
4 9</w>
the re
E N
S u
st and
H ow</w>
s om
inhi bit
O N
in s</w>
v ari
tic al</w>
s or
a x
ex pos
at h</w>
le ast</w>
T r
l l</w>
ev en</w>
ha em
re s</w>
ac ter
l or
ic acy</w>
ou se</w>
par t</w>
norm al</w>
anc y</w>
develop ment</w>
ro l</w>
com e</w>
l os
v ol
ap pe
B e
b ack</w>
Pati ents</w>
200 8</w>
u t</w>
c our
d ue</w>
th y</w>
w ays</w>
i e
cont rol
di vid
c ould</w>
le t</w>
o ve</w>
consi dered</w>
3 3</w>
i x
ic k</w>
r h
ent al</w>
9 0</w>
ir ment</w>
st er
U R
m y
ren tly</w>
f ree</w>
h ist
al e</w>
pro te
compl et
mod er
inf ection</w>
i ons</w>
3 5</w>
U L
os is</w>
ta ble</w>
m et
ev ents</w>
er al</w>
impa irment</w>
A P
20 0</w>
fil m-coated</w>
b ur
all erg
nec ess
ri ght</w>
import ant</w>
P ost
am p
su ff
res s</w>
a x</w>
7 5</w>
A f
at ur
me th
e m</w>
201 0</w>
ag ement</w>
7 0</w>
3 2</w>
sy st
at ory</w>
ca use</w>
d ri
k ed</w>
e .</w>
4 8</w>
d ed</w>
r ate</w>
200 9</w>
k m</w>
diffe rent</w>
ist er</w>
an al
c ase</w>
chang e</w>
kin e
Germ any</w>
pro f
xim ately</w>
im medi
r e</w>
un g
t ro
ut es</w>
ar ds</w>
r on
9 .
re st
vi a</w>
rel ated</w>
con sti
lev el</w>
pl o
l it
C Y
- 2
An d</w>
t ox
in k</w>
pre- filled</w>
sh ow
M ay</w>
ti s
per form
L E
E ach</w>
or t</w>
lo b
sh own</w>
oun t</w>
s at</w>
ma in</w>
5 6</w>
A G
T re
w omen</w>
n er</w>
Th ese</w>
o kine
4 -
er ing</w>
f ri
H owever</w>
bel ow</w>
ri c</w>
200 7</w>
respon se</w>
in ary</w>
pres sure</w>
Euro pe</w>
ic ally</w>
as h</w>
j ust</w>
Af ter</w>
f requ
an t
pow der</w>
eff icacy</w>
resul ts</w>
ig n</w>
ec on
un til</w>
c entr
mark eting</w>
1 -
n a
c all
ep t
R O
. .</w>
r y</w>
necess ary</w>
appro ximately</w>
receiv ing</w>
t on</w>
n am
A T
po st
a emia</w>
f ail
spec ial</w>
t otal</w>
it ing</w>
Wh en</w>
requ est
p ur
cur rently</w>
ou th</w>
l ight</w>
ir e</w>
H um
tri als</w>
sin ce</w>
oc cur
en ted</w>
h ol
ar ly</w>
n on-
te e</w>
pro g
p age</w>
ous ly</w>
c ases</w>
e as
ti g
A p
cl ear
c are</w>
ac id</w>
s ed</w>
H I
as si
at or</w>
acc ord
D e
d ra
T o</w>
vacc ine</w>
ac ti
o t</w>
o id</w>
O c
d ate</w>
or t
wor ld</w>
V I
en e</w>
spec if
i k
p m</w>
par t
wh ile</w>
sm all</w>
need le</w>
201 1</w>
A R</w>
al u
su g
e i
200 6</w>
m ach
read y</w>
s odium</w>
u ally</w>
p op
fac e</w>
en s</w>
4 4</w>
p tion</w>
anc er</w>
a b</w>
provid ed</w>
ow n
f ood</w>
an im
wh ite</w>
4. 4</w>
A b
2 5
ful l</w>
ful ly</w>
P r
fl u
cell s</w>
hepati c</w>
fac t
ic h
er c
fur ther</w>
E R
f am
3 5
i p</w>
ic ul
d om
adj ust
R es
v ed</w>
l ast</w>
m s</w>
d en</w>
an tly</w>
z e</w>
L i
M on
qu e</w>
probl ems</w>
ar m</w>
pot ential</w>
pharmac okine
oo k</w>
il d</w>
ic ations</w>
there fore</w>
re m
ep t</w>
T a
org an
di d</w>
m an</w>
3 4</w>
3 9</w>
allerg ic</w>
sup port</w>
ri bu
fil e</w>
O R</w>
l ong</w>
le g
peri od</w>
s ci
cont rol</w>
p ack</w>
A U
mul ti
201 3</w>
pen sion</w>
produc tion</w>
gram s</w>
tr a
Y our</w>
c es</w>
201 4</w>
rang e</w>
i m</w>
c r
201 2</w>
i b</w>
control led</w>
Post ed</w>
p at
3 6</w>
in divid
sub stance</w>
A m
receiv ed</w>
A L</w>
ac tivity</w>
Al l</w>
M an
tiv ely</w>
condi tions</w>
9 5</w>
P AC
p en</w>
h er</w>
concentr ations</w>
em ic</w>
b ility</w>
a ir
immedi ately</w>
ch lor
Q u
si mil
J o
th ough</w>
it al</w>
high er</w>
un g</w>
re di
cl os
reduc ed</w>
g o</w>
se en</w>
CY P
olog ical</w>
a g</w>
C oun
studi ed</w>
oo l</w>
y l</w>
9 8</w>
o red</w>
cont act</w>
g ood</w>
ab ove</w>
IN G</w>
S e
expos ure</w>
capsul es</w>
S h
H y
A T</w>
ma j
M ember</w>
in a</w>
pers ensi
T R
inf ections</w>
ell ing</w>
. de</w>
est abl
TH E</w>
s al
occ ur</w>
S ch
c lo
g .</w>
k es</w>
sy n
el ec
qu ality</w>
a k</w>
in d</w>
y ing</w>
trav en
ing redi
St ates</w>
t op
c ut
4 3</w>
i an</w>
em ents</w>
tw ice</w>
5 00</w>
fin d</w>
P V
em a</w>
appro pri
on avir</w>
s es</w>
en ing</w>
gro w
0. 5</w>
M a
c at
conc er
signific ant</w>
car di
4 1</w>
bl e
ev alu
A t</w>
tr y</w>
l ab
ati n</w>
G en
ic k
3 00</w>
ag n
sel f</w>
h r</w>
simil ar</w>
ust ri
in ed</w>
li on</w>
U T
r o</w>
li st
I M
call ed</w>
4 2</w>
os ph
W or
A M</w>
b us
resul t</w>
ro oms</w>
proc ed
m in</w>
ati on
benef it</w>
s uc
comp any</w>
S w
M A
ad s</w>
low er</w>
at t
al low
t og
s c
indic ated</w>
se qu
s pe
po int</w>
it ch
ra di
y -
ent ation</w>
iti s</w>
re co
res t</w>
f t</w>
5 -
B o
A ug
H otel</w>
st ate</w>
i ver
S y
ter m</w>
Un ion</w>
ac hi
r a</w>
it tee</w>
i e</w>
c ular</w>
c ancer</w>
sub jects</w>
L e
resp ec
ack age</w>
art an</w>
PAC K
sup pl
k id
fail ure</w>
v it
on d
a ut
ag re
2. 5</w>
sus pension</w>
s of
com it
ä r
c ell</w>
u b
4 6</w>
B el
serv ice</w>
requ ired</w>
9 9</w>
min utes</w>
a ir</w>
m is
m uch</w>
Pro duc
at in
includ e</w>
an ci
im pl
tri es</w>
D ec
effec tive</w>
A S
fi ed</w>
tre at</w>
un ity</w>
in traven
r are</w>
h otel</w>
is ion</w>
mat er
pregn ant</w>
3 7
pregn ancy</w>
d own</w>
f ast</w>
an other</w>
su e</w>
reduc tion</w>
rit onavir</w>
to o</w>
m em
ei ther</w>
a w
inv ol
el ine</w>
sh ip</w>
adul ts</w>
co -
ma xim
j p
s o
st ances</w>
u es</w>
B er
n ame</w>
PACK AG
m ary</w>
TI C
ingredi ents</w>
200 5</w>
pl ay
micro grams</w>
f -
hel p</w>
iz ed</w>
continu ed</w>
econ om
hi m</w>
to ber</w>
ur ation</w>
ra m</w>
d ou
e di
ne y</w>
gl y
ser ious</w>
ci l</w>
P ol
bl ister</w>
es c
cour se</w>
h ard</w>
sti ll</w>
som e
4 00</w>
an e</w>
C O
mark et</w>
ta il
k e
1 50</w>
secon d</w>
s l
ag ed</w>
Aug ust</w>
p ing</w>
Fr ance</w>
ph p</w>
2 -
I tal
specif ic</w>
can not</w>
ane ous</w>
UR L</w>
b est</w>
an k</w>
H e</w>
J an
tog ether</w>
I S</w>
o therapy</w>
suff ici
ust om
pri l</w>
prov ed</w>
D is
s ever
Th ere
me an</w>
20 00</w>
M är
N or
experi enc
R o
m it
A D
coun tries</w>
inf lam
3 7</w>
J ul
m al
Mär z</w>
star t</w>
S ept
ul arly</w>
up s</w>
9 7</w>
appropri ate</w>
al ready</w>
Sept ember</w>
ra z
chang es</w>
un d
3 8</w>
p ed</w>
ass ess
W e
8 4</w>
author isation</w>
chlor ide</w>
ic a</w>
exp ected</w>
re si
ar t</w>
hy persensi
sol vent</w>
jp g</w>
on str
ar ound</w>
ic s</w>
request ed</w>
o id
3 6
de f
. php</w>
ri b
n ed</w>
4 7</w>
G mb
UT C</w>
Coun cil</w>
s on</w>
Nov ember</w>
i ally</w>
af let</w>
ever y
ch em
lar ge</w>
sh all</w>
qu es
clear ance</w>
og en
pri or</w>
o g</w>
ear ch</w>
z z
be g
CH MP</w>
serv ices</w>
Th ey</w>
Comm ittee</w>
p an
n al</w>
ch o
sa id</w>
b ers</w>
re consti
vi ties</w>
ble eding</w>
dem onstr
Un ited</w>
O n</w>
P AR
gl uc
re lease</w>
dep end
d am
in duc
B ut</w>
ribu tion</w>
H O
ma x</w>
pres cri
5 5</w>
Gmb H</w>
h ouse</w>
There fore</w>
bec ome</w>
e th
or ing</w>
On e</w>
si m
fer on</w>
pres ent</w>
inhibit ors</w>
st op
man agement</w>
es si
moder ate</w>
H ol
a c</w>
serv er</w>
los s</w>
cl ear</w>
in ts</w>
ot e</w>
G r
addi tion</w>
fe rence</w>
l ing</w>
st at
m ed
3 -
vir on
n ext</w>
W ith</w>
contin ue</w>
I m
ph ys
v al</w>
E U
off ers</w>
exam ple</w>
gre at</w>
i b
ron ic</w>
---- ----
el d</w>
loc al</w>
m en
3 0
s ing</w>
2 8
prov ide</w>
pre vi
5 2</w>
kno w</w>
id e
ad d
ur y</w>
B E
maxim um</w>
R ep
R eg
pu t</w>
ar ti
w ant</w>
cl es</w>
t ar
Oc tober</w>
I C
dos age</w>
S .</w>
cur rent</w>
a -
A g
tox icity</w>
st ra
Mar k
bi o
O ther</w>
a th
ser um</w>
og s</w>
c op
enz y
2 6
suc c
he ad
C l
e a
ter s</w>
200 4</w>
inter national</w>
mil lion</w>
i re
pol y
A M
2 7
ne w
C o
proc ess</w>
oc y
sit u
com par
b il
c ity</w>
includ ed</w>
Jan u
w ar
A pril</w>
u bl
diff icul
t ell</w>
st op</w>
E l
Pre sid
posi tion</w>
reac tion</w>
9 6</w>
res sion</w>
pr in
I D
ast -
wh ether</w>
c ustom
P er
Germ an</w>
or ig
con comit
g en</w>
1 ,
ph ot
addi tional</w>
u tions</w>
acti vities</w>
wor king</w>
en ess</w>
ul e</w>
U se</w>
ac tions</w>
Tre atment</w>
u g</w>
intraven ous</w>
f our</w>
of f</w>
sign s</w>
hist ory</w>
pro pos
ati s
ma il</w>
d et
t est</w>
h ap
fe eding</w>
M r</w>
lo ad</w>
imm un
F il
c ir
el ing</w>
ca re
g ive</w>
ud ine</w>
des ign
J une</w>
e x</w>
bl oc
B i
pl ease</w>
respec tively</w>
en ter</w>
sh e</w>
m m</w>
lo g
ec tive</w>
accord ing</w>
m ation</w>
hepati tis</w>
200 1</w>
ten sion</w>
lim ited</w>
pro gram
es pec
th i
oper ation</w>
pol ic
Ph armac
5 4</w>
inf lu
y s</w>
HI V</w>
C ar
a ve</w>
ad ing</w>
AR S</w>
pro per
c us
tain ed</w>
5 1</w>
hy dr
publ ic</w>
me ans</w>
espec ially</w>
gl ass</w>
y p
6 5</w>
AP PE
az ole</w>
individ ual</w>
PAR TIC
grow th</w>
l ist</w>
f er</w>
Ne w</w>
us es</w>
erg y</w>
um in
om iting</w>
I D</w>
li p
I T
Bel g
decre ased</w>
ch ec
od ay</w>
I L
o ro
an ted</w>
PARTIC UL
ver sion</w>
partic ular</w>
PARTICUL ARS</w>
d ev
ast ro
ph osph
e .
al one</w>
appl ication</w>
ag ain</w>
G re
ac ks</w>
G ro
b ut
S ol
APPE AR</w>
in st
te st
oc ial</w>
us ea</w>
G od</w>
sur g
anti -
gro ups</w>
e k</w>
AU C</w>
op en</w>
V er
al ways</w>
ex ist
in -
t el
Jul y</w>
E P
dra w
c ar</w>
comp an
Mar ch</w>
200 2</w>
b ar
an z
fe w</w>
Con t
m 2</w>
no v
pl at
b oo
mon th</w>
b one</w>
reduc e</w>
en sure</w>
sh ow</w>
ir d</w>
or g</w>
b ed
si ons</w>
ach e</w>
PV C</w>
cl e
an ta
M edic
comm od
at ric</w>
.. ..</w>
ot els</w>
um e</w>
µ g</w>
enti f
col l
de fin
as h
vis ion</w>
O ur</w>
a way</w>
rh o
tur n</w>
rel ev
AN D</w>
over n
pres ented</w>
ut ro
dro me</w>
bu ild
acc ess</w>
d ge</w>
li k
cer tain</w>
ty p
equ ip
we b
repor t</w>
I s
re as
off er</w>
establ ished</w>
concentr ation</w>
N A</w>
gre ater</w>
bus iness</w>
O F</w>
et es</w>
a ur
1 1.
A s
V ery</w>
W in
con f
ug h
r ash</w>
F OR</w>
s -
00 1</w>
am ar
en viron
prote in</w>
re t
pop ulation</w>
vir us</w>
ad equ
dr ug</w>
ey e</w>
h and
U N
b es
1 0.
l act
r ing</w>
5 8</w>
d ogs</w>
maj or</w>
decre ase</w>
i x</w>
M us
ak fast</w>
loc ated</w>
inc idence</w>
F in
plo y
p ul
rece ive</w>
ad ol
sub cut
5 0
ag ents</w>
ven tion</w>
ca used</w>
gu id
ol er
B ar
y el
pro long
C P
pers on</w>
ex per
ob il
gener al</w>
lar g
5 9</w>
wor ks</w>
' t</w>
sever al</w>
m es</w>
u str
ab sor
U S</w>
S T
kid ney</w>
Comm on</w>
dis cus
dos ing</w>
c m</w>
P ri
v omiting</w>
ap art
ch ild</w>
cont ent</w>
1 2.
des cri
th ers</w>
a vi
R ap
g es</w>
S A
b a
r ati
rho ea</w>
t um
5 7</w>
ta x
achi ev
meas ures</w>
o re
mus cle</w>
ex pl
ch es</w>
med ical</w>
star ting</w>
G u
F eb
wor k
est er
h or
gh ts</w>
are as</w>
vi als</w>
w al
n er
bas eline</w>
Inter national</w>
Au g</w>
g es
f lo
tem per
W H
5 3</w>
am es</w>
d uration</w>
m en</w>
do m</w>
am ount</w>
re d
Di rec
inte st
adol esc
ab etes</w>
hy p
s ity</w>
Janu ary</w>
in struc
A v
b al
........ ........
con n
m ight</w>
t al</w>
p ic
in ce</w>
di e</w>
im prov
p it
mil d</w>
ev ent</w>
t ution</w>
om a</w>
s le
ed ema</w>
pl ay</w>
E X
Au thor
us ually</w>
na usea</w>
Re ply</w>
h ar
P lease</w>
pol i
M in
u k
b or
bur g</w>
g e
h er
at eg
3 8
bre ast-
tiv eness</w>
it es</w>
pro m
n s</w>
on es</w>
al f
li am
complet e</w>
EU R</w>
n a</w>
car tri
f re
stand ard</w>
re al</w>
re main
m ov
7 4</w>
A .</w>
di a</w>
vir al</w>
F rom</w>
inter feron</w>
cor rec
inj ections</w>
co h
sub stances</w>
ex cre
s et
ox ide</w>
Presid ent</w>
y oun
U TE
Feb ru
Or al</w>
lik ely</w>
as cular</w>
or d</w>
reg im
con duc
le ft</w>
pri v
E L
b odi
i tion</w>
a .
heal thy</w>
p ass
ang u
0. 0
coun try</w>
partic ularly</w>
I T</w>
10 00</w>
experienc ed</w>
be l</w>
frequ ency</w>
n et
g er
wh ole</w>
dri ve</w>
ut ure</w>
ac in</w>
i que</w>
h our</w>
anc ed</w>
ac ute</w>
ar rhoea</w>
s oci
in avir</w>
D I
Ta ke</w>
com for
Dec ember</w>
or ies</w>
ach ed</w>
c in
C ol
eu tic</w>
ul es</w>
V ir
tur al</w>
pos si
B r
an k
ad vis
est s</w>
thro mb
F ri
n atur
perform ed</w>
di abetes</w>
R ec
l ed
bet ter</w>
arm a</w>
hydro x
n e</w>
syn drome</w>
su es</w>
anal ysis</w>
Mark eting</w>
S P
syst ems</w>
go ing</w>
r ats</w>
k ey</w>
tr ain
t ow
pharmacokine tics</w>
F ax</w>
h owever</w>
ac tiv
3 A
as k</w>
ay er</w>
el ev
200 3</w>
val ue</w>
monit ored</w>
F OR
adolesc ents</w>
monit oring</w>
es tig
fi eld</w>
es day</w>
ar ch
op a
PACKAG ING</w>
E ff
N umber</w>
2 50</w>
n it
ap ine</w>
t -
ne x</w>
cont ents</w>
bas is</w>
Hum an</w>
L u
Nov o
aff ect</w>
.ht ml</w>
ab ine</w>
mach ines</w>
bodi es</w>
S er
vie ws</w>
- term</w>
us ual</w>
con sul
alf a</w>
t or
str ic
s en
En gl
inflam mation</w>
der ly</w>
ca ution</w>
throug h
em ploy
or ity</w>
ch ronic</w>
el im
S pec
P e
l at
m ix
n um
en ergy</w>
bot tle</w>
sup por
pl es</w>
fe eling</w>
u n</w>
de tail
ur ine</w>
S ta
ten tion</w>
4 6
V i
pro ject</w>
h and</w>
s ocial</w>
requ ire
Febru ary</w>
tri al</w>
man u
pri mary</w>
anim als</w>
ar s</w>
An nex</w>
anci al</w>
O p
proced ure</w>
prof essi
adjust ment</w>
ear ly</w>
f uture</w>
amar ill
Ar ti
heal th</w>
m id
ex t
thi az
th em
AT E</w>
through out</w>
im p
di zz
ra v
signific antly</w>
up d
HO W</w>
l in</w>
M y
ch ol
ro w</w>
ti ce</w>
og rap
m or
pow er</w>
vol ume</w>
re pres
demonstr ated</w>
m ental</w>
cl ose</w>
D es
t ures</w>
6 00</w>
contr ac
V al
ol s</w>
ci um</w>
P RO
con v
intest inal</w>
o edema</w>
ph ase</w>
m outh</w>
pre vent</w>
our ce</w>
temper ature</w>
l ac
ed uc
st ant</w>
iv al
b acter
ti l
end ing</w>
relev ant</w>
eter inary</w>
vari ous</w>
T y
3A 4</w>
w ide</w>
ti f
si ze</w>
prot ection</w>
al low</w>
x acin</w>
sti tu
therap eutic</w>
N o
ap proved</w>
hal f</w>
F ol
le ad</w>
know led
doc um
thro p</w>
C max</w>
abl y</w>
dist ribution</w>
ow s</w>
se par
comp on
econom ic</w>
Win throp</w>
ast atin</w>
ten sive</w>
atin ine</w>
effec tiveness</w>
av ir
to p</w>
4. 2</w>
edi atric</w>
al ised</w>
4. 5</w>
techn ology</w>
ing dom</w>
tr ac
car ri
sw elling</w>
f ever</w>
up on</w>
ros s</w>
ev idence</w>
I N</w>
d eter
coh ol</w>
d ys
b it</w>
R em
c am
A n</w>
pre par
st er</w>
min im
t oday</w>
6 -
F re
develop ed</w>
tw are</w>
al ysis</w>
m ph
adul t</w>
pe ti
us h
devel op</w>
I II</w>
er y
I r
ÿ ÿ
g ets</w>
al though</w>
bre ast</w>
vacc ination</w>
WH AT</w>
te sts</w>
ocy t
ca p</w>
mil k</w>
in suffici
bi tion</w>
d il
si a</w>
gro und</w>
p ackage</w>
iz e</w>
c el
liam ent</w>
ic ial</w>
In f
ustr y</w>
al u</w>
reg ard
am ong</w>
u ment</w>
of ten</w>
re li
am in
per f
on t</w>
2 9
as ing</w>
ag ing</w>
centr e</w>
su m
polic y</w>
CP MP</w>
id es</w>
comm un
need s</w>
po ints</w>
0 -
r ac
as ti
st ren
F e
lo ro
d ic
T A</w>
. net</w>
cre atinine</w>
d ar
par ti
concomit ant</w>
Se e</w>
st ag</w>
posi tive</w>
ist s</w>
des ign</w>
L oc
fam ily</w>
E C
1 ,000</w>
char acter
le aflet</w>
clin ically</w>
di arrhoea</w>
ind ing</w>
dr y</w>
dis order</w>
af t</w>
ha ving</w>
inv estig
ri x</w>
tr an
pres s</w>
long er</w>
E R</w>
ca emia</w>
4. 8</w>
Gen eral</w>
ra in</w>
ch loro
th es
syst emic</w>
th ink</w>
Am er
w el
w at
ta m
co ver</w>
ten ance</w>
mit ted</w>
r ates</w>
sub ject</w>
sur face</w>
C a
ne utro
stren g
s ay</w>
cl ass</w>
struc tion</w>
ph en
ur ity</w>
surg ery</w>
fac tor</w>
il ities</w>
B re
Th at</w>
impl em
ne uro
proc ess
in ated</w>
v ely</w>
coun t</w>
m odi
Jo h
un c
al cohol</w>
repor ts</w>
is tics</w>
pharmacokine tic</w>
Un common</w>
vit ro</w>
umin ium</w>
is ing</w>
partic ip
L t
re pe
condi tion</w>
1 20</w>
D uring</w>
lit tle</w>
so on</w>
og lob
nam es</w>
Par liament</w>
bes artan</w>
th ird</w>
loo k</w>
post -
produc ed</w>
reco gn
g el
follow ed</w>
ici ency</w>
show ed</w>
re ly</w>
hydr ate</w>
g astro
E -
r and
l angu
d own
et al</w>
ech an
adv ice</w>
op in
i o</w>
t ac
iz ation</w>
th re
in ning</w>
u red</w>
thiaz ide</w>
mo ve</w>
i ble</w>
S ince</w>
Com p
incre ases</w>
en ter
v on</w>
lab or
breast- feeding</w>
2 4
star ted</w>
um ab</w>
ad op
O P
TI ON</w>
need ed</w>
g ame</w>
M S</w>
Gro up</w>
g et
ri g
8 9</w>
g overn
an ks</w>
S ec
end s</w>
UTE R</w>
inte gr
sec tions</w>
appl ications</w>
enc es</w>
O UTER</w>
sh ip
l ack</w>
199 8</w>
su mm
sh ort</w>
B y</w>
K ingdom</w>
S un
com es</w>
L a
en jo
CYP 3A4</w>
R en
tis sue</w>
y st
Ital y</w>
consi der
w rit
ac commod
occur red</w>
De ut
ir atory</w>
natur al</w>
build ing</w>
con fir
val ues</w>
A N</w>
ma kes</w>
equ ival
ev a</w>
N E
yl ene</w>
dizz iness</w>
cl us
ati ves</w>
ri tis</w>
h ome</w>
1. 5</w>
C entr
a im
per c
ch e
ag o</w>
am ine</w>
6 4</w>
C V
an y
l a</w>
st re
low ing</w>
r .</w>
a h
gu ide</w>
previ ous</w>
E r
St ate</w>
require ments</w>
ograp h
comb in
clud ed</w>
im us</w>
tr on
ep tion</w>
8 5</w>
8 -
am et
C I
Lt d</w>
ren ces</w>
over all</w>
S k
7 2</w>
ter n
C I</w>
ru b
res earch</w>
del i
fac t</w>
t ors</w>
B L
op e</w>
fol d</w>
rand om
y ro
S p
Engl ish</w>
ou ght</w>
inhibit or</w>
in e
achiev ed</w>
r s</w>
gluc ose</w>
om atic</w>
ad ded</w>
F l
multi ple</w>
p al
exist ing</w>
st om
tre m
subcut aneous</w>
rem ov
l ad
Author isation</w>
ex ac
youn g</w>
on line</w>
dom inal</w>
ind ustry</w>
vis it</w>
ep h
i er</w>
fin ancial</w>
W i
ab normal</w>
web site</w>
de ath</w>
rol imus</w>
au ti
acc ount</w>
7 6</w>
tu ally</w>
ris e</w>
T w
it able</w>
lo xacin</w>
w ard</w>
oph il
initi al</w>
t a</w>
ar th
compan ies</w>
C al
cor respon
on ed</w>
cal cium</w>
7 -
T V</w>
ver age</w>
4. 3</w>
. org</w>
ex erc
H a
e tin</w>
sug ar</w>
oc k</w>
probl em</w>
bo ard</w>
c in</w>
O ff
lo g</w>
avir in</w>
P en</w>
f ü
g ed</w>
af il</w>
s cre
entif ic</w>
Ph arma</w>
head ache</w>
Ber lin</w>
E S
Un iver
ot ox
as is</w>
al og</w>
m it</w>
car b
f oc
00 2</w>
al fa
consi st
res ol
tic ally</w>
priv ate</w>
en sion</w>
mar k</w>
syring es</w>
yel low</w>
l ation</w>
A ustri
resi stance</w>
ly mph
la bel</w>
sug g
P RE
ri ghts</w>
In d
ec ting</w>
direc tly</w>
op port
pro p
om et
L im
anti bodies</w>
l ands</w>
fe el</w>
adequ ate</w>
5. 2</w>
C an
T able</w>
n ight</w>
i al
S o</w>
f ar</w>
ut er</w>
perform ance</w>
M ix
ri t</w>
form in</w>
g lob
ig il
l er</w>
trans pl
main tenance</w>
Su b
H ome</w>
chloro thiazide</w>
o k
continu ation</w>
6 1</w>
tiv es</w>
ex hi
Inter net</w>
di p
at ures</w>
st ay</w>
er -
T ur
Man agement</w>
S erv
secon ds</w>
D ep
ox ib</w>
e uro
design ed</w>
si x</w>
com peti
T e
ne ar</w>
d ers</w>
typ es</w>
li ve</w>
hal f-
el derly</w>
fo re
od s</w>
la x
f em
pr ice</w>
su per
evalu ated</w>
bre a
th ings</w>
I R
le ar
bo x</w>
8 6</w>
D NA</w>
rest aur
- 1</w>
di g
he ad</w>
C or
av oid</w>
8 8</w>
reg ular</w>
v ill
reg ion</w>
F ur
imm une</w>
alfa -2
int ro
R om
hypersensi tive</w>
S atur
at al</w>
list ed</w>
T im
program me</w>
F or
t own</w>
m ission</w>
st ain
us er</w>
re x
pl us</w>
m al</w>
plat el
S ome</w>
m oun
bl y</w>
dr ug
B as
A G</w>
deter min
ari an</w>
inf ected</w>
la w</w>
10 ,000</w>
intro duc
5. 1</w>
R ev
fil es</w>
mater ial</w>
Be fore</w>
gr ad
g on
igil ance</w>
l ic
anim al</w>
j a</w>
de b
enz a</w>
sit es</w>
se a</w>
poli tical</w>
is ch
ur ch</w>
suppl ied</w>
fi ve</w>
direc t</w>
me eting</w>
ar ia</w>
hum ans</w>
ro ad</w>
auti ful</w>
er a</w>
8 00</w>
Produc ts</w>
c it
E v
3 9
C y
reg ul
Ch ar
on azole</w>
Ag ency</w>
ec h</w>
m echan
pl an
por ts</w>
d a</w>
pharmac ist</w>
tu ted</w>
p ap
7 3</w>
r ace</w>
chem otherapy</w>
ti co
enzy me</w>
ind ows</w>
o vir</w>
met formin</w>
TE R
id enti
assess ment</w>
conduc ted</w>
author ised</w>
ke ep</w>
inst all
requ est</w>
p sy
1 1
chec k</w>
dis continued</w>
d one</w>
capsul e</w>
6 6</w>
deli very</w>
st and</w>
og ue</w>
us ers</w>
re fer
ind ication</w>
form s</w>
He al
es tim
avail ability</w>
am ide</w>
U K</w>
inter action</w>
chang ed</w>
s .</w>
Fri day</w>
s tim
sel ves</w>
I X</w>
an a</w>
mon o
loc ation</w>
asti m</w>
Satur day</w>
care fully</w>
B O
re ach</w>
di agn
B ec
iv udine</w>
n ers</w>
with draw
ang i
car d</w>
r up
E m
is sues</w>
b its</w>
our ces</w>
anz apine</w>
E T
ati c
pro file</w>
phys ici
P al
T abl
S pain</w>
t ook</w>
agre ed</w>
c ent
hypersensi tivity</w>
hyper tension</w>
op tim
R us
imm obil
re -
dou ble</w>
s mo
ec e</w>
f av
ur b
ug h</w>
provid es</w>
defin ed</w>
we ak
ill s</w>
M al
ob j
2 ,
long -term</w>
o thers</w>
up per</w>
pres sion</w>
6 7</w>
- up</w>
t oler
og ly
ad ine</w>
tre at
P ackage</w>
ox et
eng th</w>
sof tware</w>
M IN
ist ers</w>
an aemia</w>
tra di
stand ing</w>
y n
cir c
b our
ma king</w>
lo t</w>
ar di
loo ks</w>
str ateg
as p
ov igilance</w>
on ia</w>
u x</w>
dis per
C T</w>
Ap pl
00 3</w>
t ext</w>
p ack
H B
at ors</w>
st or
Wh y</w>
open ia</w>
stom ach</w>
id s</w>
pro jects</w>
a ther</w>
tr act</w>
vid e
train ing</w>
ic in</w>
it self</w>
an o</w>
al -
l d
s em
ot h</w>
v eterinary</w>
er t</w>
be autiful</w>
m ed</w>
Produc t</w>
sh op
l and
reconsti tuted</w>
su s</w>
ab dominal</w>
C AR
res erv
m ut
loo king</w>
invol ved</w>
y et</w>
centr al</w>
oid s</w>
re f
ed -
alfa-2 b</w>
h os
P ort
il i
In sulin</w>
upd ated</w>
ic an</w>
reconsti tution</w>
co sts</w>
recomm end
H ere</w>
mon ary</w>
cartri dge</w>
re ad</w>
col our
00 4</w>
D ate</w>
Ch ris
metabol ism</w>
un less</w>
orm one</w>
4 0
inf o</w>
7. 5</w>
al uminium</w>
inv est
M ore</w>
pro ve</w>
L et</w>
Bo ard</w>
y le</w>
ter ms</w>
H el
gener ally</w>
S al
ag es
z er
sp ace</w>
T u
re ally</w>
n i
s il
st ro
as th
dam age</w>
bre akfast</w>
fü r</w>
prin ci
situ ation</w>
w i
benef its</w>
S lo
succ ess
bor n</w>
9 -
a verage</w>
dec ision</w>
re sid
en h
Arti cle</w>
8 3</w>
mat ter</w>
apart ment</w>
ubl ic</w>
S um
resp iratory</w>
ques tions</w>
dis pos
tr a</w>
absor ption</w>
tar get</w>
7 1</w>
Medic inal</w>
H er
af f</w>
sol utions</w>
manu fact
co de</w>
ti de</w>
v astatin</w>
con tain</w>
wh ose</w>
li ving</w>
l ater</w>
e z
St udi
ver s</w>
excre ted</w>
M AR
ur s
Ac c
pa ediatric</w>
gener ated</w>
re tro
E D</w>
h ormone</w>
ar an
ish ing</w>
instruc tions</w>
i onal</w>
er ci
dep ression</w>
sci entific</w>
over dose</w>
pa th
E S</w>
n ature</w>
ec t
D -
Spec ial</w>
equival ent</w>
ar ing</w>
e ve</w>
comb ined</w>
ar c
h old</w>
D L
sur vi
9 1</w>
b ir
ey es</w>
am p</w>
st aff</w>
ap s</w>
mem bers</w>
l es
ox y
i als</w>
Wor ld</w>
car ton</w>
M o
un its</w>
m ent
des ir
sch ed
oxet ine</w>
par ts</w>
t old</w>
M od
E C</w>
v a</w>
opin ion</w>
6 2</w>
L A
Fol lowing</w>
it us</w>
orig inal</w>
b ri
pa rent</w>
d y
al ong</w>
amarill as
199 7</w>
b ack
g er</w>
Th en</w>
regim en</w>
an g</w>
il t</w>
add ress</w>
inte rest
MA H</w>
6 8</w>
sti t
C lin
struc ture</w>
te red</w>
prog ram</w>
C ap
w ish</w>
ro le</w>
af er
8 2</w>
a u</w>
assi um</w>
Tr ans
ad a</w>
sub sequ
carri ed</w>
sec urity</w>
w id
f ast
6 9</w>
un it</w>
S I
Vir afer
ren z</w>
medi a</w>
ph eral</w>
red ness</w>
th us</w>
d on</w>
allow ed</w>
su itable</w>
b ud
ris ks</w>
p -
U hr</w>
P D
eas y</w>
cre ate</w>
m ag
w a
descri bed</w>
re fri
cardi ac</w>
p in</w>
ob tained</w>
Th urs
pat ch</w>
p acks</w>
aff ected</w>
-------- --------
sp o
regard ing</w>
K ar
F ac
refri ger
t ation</w>
CV MP</w>
M ed
v ered</w>
main ly</w>
st ri
is sue</w>
1 00
le ading</w>
itch ing</w>
S am
L in
H otels</w>
trans port</w>
repres ent
techn ical</w>
int ended</w>
Thurs day</w>
k et
ud e</w>
it ation</w>
A ir
r an
k er</w>
complet ely</w>
ac tually</w>
8 1</w>
L ab
p ast</w>
ir y</w>
hist or
Lim ited</w>
dr ink</w>
hy pot
V A
Ph one</w>
con ver
s ens
produc e</w>
T er
but ton</w>
h om
n ia</w>
a es
B ayer</w>
contr a
diffe rence</w>
p ose</w>
8 7</w>
7 7</w>
n g</w>
P eg
t ou
i .</w>
re ached</w>
ro und</w>
O L
a h</w>
hel d</w>
gr anted</w>
need les</w>
f inal</w>
s ensi
il via</w>
d re
moder n</w>
respon sible</w>
J e
P R
c ep
al most</w>
id ay</w>
P i
mus ic</w>
n or
ap h
proced ures</w>
requ ire</w>
wor d</w>
phosph ate</w>
w ise</w>
some thing</w>
ell a</w>
ang e</w>
resp ect</w>
T el
M R
N ame</w>
appl ic
resi stant</w>
S outh</w>
lin k</w>
S te
custom ers</w>
leg al</w>
acc ep
end er</w>
tran si
environ ment</w>
vie w
prescri bed</w>
T ri
B us
D ay</w>
S tr
et c</w>
comm it
ach es</w>
lo ve</w>
author ities</w>
wee k
ex a</w>
e ases</w>
c ame</w>
al ities</w>
Bec ause</w>
ep s</w>
ques tion</w>
dis continuation</w>
lad ys
P a
ar r
ladys ilvia</w>
uc le
str ong</w>
improv ement</w>
disper sible</w>
f oun
pres ence</w>
6 3</w>
oglob in</w>
pa ren
a be
arth ritis</w>
ne l</w>
e .com</w>
sec tor</w>
s am
half- life</w>
d at
F ir
2 3
o to</w>
chol ester
r un
F er
drug s</w>
ad ap
4 5
s we
professi onal</w>
Lu x
en ough</w>
S on
w ell
E L</w>
desir able</w>
a .com</w>
prolong ed</w>
i on
if ied</w>
equip ment</w>
wh y</w>
gu aran
ati tis</w>
plac ed</w>
ne g
Ç á
IN G
d es</w>
U M</w>
S im
st ated</w>
agre ement</w>
Univer sity</w>
C E</w>
Austri a</w>
R el
pen ia</w>
beg inning</w>
al g
prof loxacin</w>
gu ests</w>
i or</w>
st e</w>
Ad minist
includ es</w>
tow ards</w>
fact ors</w>
coun ts</w>
ne um
n ever</w>
exc e
high ly</w>
ME DI
em ea
al tern
rub ber</w>
li qu
- F
ugh t</w>
st age</w>
18 0</w>
fil m</w>
P art
pers onal</w>
s un
initi ated</w>
ich t</w>
ard en</w>
o pro
re l</w>
c ros
for get</w>
pr ac
b ar</w>
l et
m ess
ar ter
val id</w>
su stain
on a</w>
CYP 2
activ ated</w>
plas tic</w>
meas ured</w>
k ey
in stitu
im ages</w>
com ing</w>
re turn</w>
no tice</w>
ir on</w>
is tic</w>
fr ont</w>
Deut sch
al b
jo int</w>
bel ie
st able</w>
B en
7 8</w>
pro por
al k
inj ected</w>
C .</w>
vol un
iv er</w>
Li ke</w>
fol low</w>
rib avirin</w>
p ool</w>
stor age</w>
si on
char ge</w>
spe ed</w>
in nov
tr ade</w>
kin d</w>
k ers</w>
pers ons</w>
b inding</w>
Comm unity</w>
l ines</w>
doc ument</w>
L a</w>
elim ination</w>
re combin
sof t</w>
b ook</w>
me al</w>
9 3</w>
cat eg
adv anced</w>
meas ure</w>
L at
fac ilities</w>
am in</w>
d en
est ate</w>
Port ug
recombin ant</w>
W indows</w>
Y O
e e</w>
7 9</w>
pot assium</w>
e u</w>
ti t
l ess
co ag
em p
C i
e f</w>
US E</w>
depend ent</w>
B u
. jpg</w>
P os
mix ed</w>
trans fer</w>
L ond
sub mitted</w>
mor ning</w>
con j
Hum alog</w>
stat us</w>
fun g
om y
E 17
raz ole</w>
of ovir</w>
dis eases</w>
ar in</w>
incre asing</w>
US A</w>
T S</w>
S an</w>
dev ice</w>
difficul ty</w>
MEDI ATE</w>
m ember</w>
correc t</w>
sh ap
develop ing</w>
enti re</w>
pul monary</w>
R are</w>
ane ously</w>
enzy mes</w>
bl isters</w>
comm erci
dip ine</w>
sul ph
o bl
h ic
h ands</w>
at tention</w>
e um</w>
ro w
A part
pl an</w>
10 -
el ines</w>
net work</w>
er n</w>
meth od</w>
evalu ation</w>
pr ices</w>
langu age</w>
ag ent</w>
enjo y</w>
4 50</w>
exac tly</w>
Lond on</w>
maj ority</w>
us h</w>
clos ely</w>
s y</w>
respon si
ol der</w>
M P
pr acti
ren tal</w>
s ex
ver sus</w>
Le aflet</w>
ind ep
AL L</w>
ch all
con sequ
ur inary</w>
ros is</w>
in ing</w>
reg ist
m ob
Is ra
indep end
9 0
cri p
bec om
w in
T echn
h otels</w>
oc r
ba thro
S tre
y our
ag g
inte rest</w>
im age</w>
c enter</w>
oo ds</w>
i res</w>
show s</w>
S af
le -
al ogue</w>
ter min
I V</w>
vis its</w>
hyp ogly
acc id
M ic
placeb o-
medi an</w>
o h
Sun day</w>
cl ick</w>
im prove</w>
impa ired</w>
ac ross</w>
u plo
Ne ther
adv anta
re fl
ti z
accord ance</w>
es sion</w>
allow s</w>
aut om
form ed</w>
am s</w>
f at</w>
S E
separ ate</w>
N ot</w>
ta kes</w>
rel and</w>
TI V
adop ted</w>
par amet
par ties</w>
in tr
ogen ic</w>
dou bl
9 2</w>
cre ated</w>
rati o</w>
appl y</w>
k a</w>
r al</w>
y me</w>
cl ar
g ue</w>
ac ting</w>
appe ar</w>
O l
vacc ines</w>
car cin
con struction</w>
mon otherapy</w>
st yle</w>
ac qu
U p
C D
mater ials</w>
t our
assess ed</w>
in ten
previ ously</w>
b at
st atis
it ary</w>
ph y
L O
ci es</w>
high -
S odium</w>
on d</w>
te am</w>
I reland</w>
publ ished</w>
der iv
A F
fe ed</w>
az one</w>
advis ed</w>
be ach</w>
comm only</w>
ma p</w>
frequ ently</w>
ul t</w>
peri pheral</w>
ren ch</w>
B ri
oc k
er ous</w>
request s</w>
Nether lands</w>
S m
pa y
random ised</w>
ous ness</w>
complet ed</w>
or rh
ind ustri
co operation</w>
W ed
lo p
lam ivudine</w>
S U
wor ds</w>
cl im
spec ies</w>
D U
correspon ding</w>
reas on</w>
har mon
Pro f
s ou
resul ting</w>
b rain</w>
4 4-
co- administered</w>
H ouse</w>
PACKAG E</w>
emea .</w>
oo d
ste ad
occur s</w>
id one</w>
t es</w>
G e
St ud
g ain</w>
concentr ate</w>
insuffici ency</w>
re ference</w>
ur al</w>
ha vi
m ot
Belg ium</w>
hypot ension</w>
ta ge</w>
tico ster
si st
s is</w>
A TION</w>
1. 0</w>
m i
appl ied</w>
V is
ac ity</w>
accommod ation</w>
Ir besartan</w>
comp et
6 0
f ind
ac et
R is
mark ed</w>
Lux em
M ad
Fil m-coated</w>
Tim e</w>
s qu
id ed</w>
ar ch</w>
a im</w>
inter val</w>
ov ascular</w>
D an
si g
Clin ical</w>
ind ex
anti bio
t oc
pro log</w>
flo or</w>
Li prolog</w>
gastro intestinal</w>
dep res
neg ative</w>
ing ly</w>
adjust ed</w>
phys ical</w>
saf e</w>
c ed</w>
0. 9</w>
comp uter</w>
indic ate</w>
D own
me et</w>
tion ing</w>
bl ack</w>
IM MEDIATE</w>
pre ca
compon ents</w>
su n</w>
neutro penia</w>
spec ial
C ON
H am
haem oglobin</w>
is od
l igh
A fr
b ab
is ol
cent ury</w>
si z
p ig
Pre gn
fe atures</w>
g ames</w>
8 0
sur ro
ch e</w>
p um
v as
ir rit
C R
a e</w>
P ow
pre c
1 25</w>
indic ations</w>
S il
bi g</w>
A S</w>
MIN IM
C ity</w>
pre vention</w>
ac ts</w>
n ation
e. g.</w>
ste p</w>
rec ent</w>
MINIM UM</w>
belie ve</w>
In formation</w>
prot ect</w>
D on
my cin</w>
1 st</w>
w er</w>
air s</w>
wh om</w>
Su n</w>
physici an</w>
1 60</w>
knowled ge</w>
c ou
D oc
sup ply</w>
in de
op a</w>
K e
inter actions</w>
F ree</w>
T ON</w>
on set</w>
v o
til ity</w>
T otal</w>
p o</w>
Al ways</w>
ra w
r ich</w>
ser ies</w>
l ung</w>
proper ties</w>
enti ally</w>
C our
ar ri
refriger ator</w>
ent ing</w>
commerci al</w>
D C</w>
custom er</w>
all s</w>
in o</w>
inj ect</w>
B l
om y</w>
ag en</w>
an ing</w>
ec es</w>
stim ul
ab sol
fi x
Ch ildren</w>
haem at
mal ign
re al
N O
ap hy
V ol
P E</w>
rap id</w>
s ent</w>
be havi
thes ia</w>
un known</w>
m ac
in hal
ef ul</w>
repe ated</w>
i -
se iz
Or g
om ide</w>
hy th
B lo
influ ence</w>
ag lip
00 5</w>
aglip tin</w>
ri f
end ar</w>
V AT</w>
occ as
I P
mono hydrate</w>
1 3.
s .htm</w>
mach ine</w>
identi fied</w>
s er</w>
L ev
n erv
s cal
K E</w>
abe tic</w>
lact ose</w>
Tu esday</w>
D os
F rench</w>
ag r
ati gue</w>
diffe rences</w>
glob al</w>
opa thy</w>
o il</w>
rap id
qu ick
ess ential</w>
4 9
B .</w>
j ud
trans fer
govern ment</w>
survi val</w>
T eva</w>
pe g
rec ently</w>
am e
ch ro
00 8</w>
sh ort
Pregn ancy</w>
oper ating</w>
Mon day</w>
or ic
00 7</w>
practi ce</w>
imp act</w>
pen s</w>
c all</w>
ha b
ve hic
m ale</w>
A B
se as
tain s</w>
pl e
implem entation</w>
ch est</w>
L ord</w>
S ci
YO U</w>
Wed n
clear ly</w>
bu ilt</w>
e tax
bro w
th ous
detail s</w>
Par k</w>
f en
a red</w>
et ings</w>
em erg
s .
st ore</w>
av oid
B ased</w>
oc ardi
rel ation
anti retro
id al</w>
k -
anta gon
Al though</w>
prepar ation</w>
brea thing</w>
tum our</w>
V en
ven ted</w>
liqu id</w>
ep isod
ef avi
tur ned</w>
0 9.
weak ness</w>
test ing</w>
Wedn esday</w>
m el
wal k</w>
O ver
every body</w>
O S
out side</w>
exp iry</w>
etax el</w>
ed er
s atis
Z e
them selves</w>
j ection</w>
ul c
ol ence</w>
Re ad</w>
re ve
propos ed</w>
ur o</w>
recomm end</w>
labor atory</w>
ul ts</w>
comfor t</w>
A A
volun te
cor ticoster
difficul t</w>
se arch</w>
N ow</w>
hydro chlorothiazide</w>
f ication</w>
SP C</w>
z e
I mm
p neum
HI V
al ed</w>
cy cle</w>
S av
ber g</w>
reg ard</w>
0 ,
re view</w>
C at
Pr ice</w>
equip ped</w>
Joh n</w>
ci pi
mon ey</w>
d u
re new
In tr
on e
tr ue</w>
ex cell
fem ale</w>
re move</w>
par king</w>
lim it</w>
M y</w>
N ational</w>
por ary</w>
ans op
- C
Ad v
is ions</w>
Heal th</w>
o ste
do or</w>
e in
mm ol</w>
re ver
ul ations</w>
ca uses</w>
le uk
every thing</w>
platel et</w>
determin ed</w>
stop per</w>
44- 20</w>
re main</w>
r ab
possi bility</w>
j u
n ur
subsequ ent</w>
w ar</w>
D evel
n d</w>
CAR TON</w>
hydro chloride</w>
w ind
it en</w>
your self</w>
h ep
ep ing</w>
bl ind</w>
d ges</w>
or i
it er
sl igh
le y</w>
it ors</w>
efavi renz</w>
w r
tion ary</w>
A V
FOR E</w>
o z
0 1.
US ED</w>
en cies</w>
ve in</w>
docum ents</w>
J es
ery thro
e es</w>
BE FORE</w>
ev ening</w>
ed s</w>
0 8.
B al
mod els</w>
ren avir</w>
ra rely</w>
0. 3</w>
rec ep
s ource</w>
dra w</w>
A t
ex trem
R eb
Portug al</w>
B on
Cl ick</w>
rec ord
ER A</w>
S M
w er
r ules</w>
clos ed</w>
sec re
leg is
ir a</w>
some times</w>
gr an
withdraw al</w>
test ed</w>
An im
On ce</w>
in king</w>
et h</w>
p ris
metabol ite</w>
w ik
dom in
O f</w>
M erc
j us
Bre akfast</w>
k itch
V ie
nam ic</w>
I s</w>
contra indicated</w>
ri d</w>
stit ute</w>
ast e</w>
VI R
w ent</w>
- 20</w>
flu id</w>
d ary</w>
achi eve</w>
perf ect</w>
K al
c ris
m agn
An ti
E N</w>
recommend ations</w>
ro ute</w>
f atal</w>
or ts</w>
di abetic</w>
an ia</w>
pro b
c o</w>
ra ther</w>
m om
ST OR
sligh tly</w>
ent an
u tive</w>
dist urb
un ique</w>
ch ed</w>
min ute</w>
Hy dro
- 1
cholester ol</w>
Ad di
di oxide</w>
dec ided</w>
le ad
z u</w>
br ing</w>
ong s</w>
ru n</w>
th yro
vide o</w>
w om
P ic
Devel op
organ is
bal ance</w>
paramet ers</w>
preca utions</w>
conn ection</w>
invol ving</w>
de g
mar ily</w>
alg ia</w>
en afil</w>
y er</w>
g a
fri end
ta x</w>
en -
ach ing</w>
y cl
re le
cor por
st ored</w>
phot os</w>
B list
tal k</w>
Rep ublic</w>
00 6</w>
p on
il ep
d le</w>
en ia</w>
st ation</w>
Di e</w>
ext ent</w>
ing -
TA KE</w>
ex ter
ab norm
be ta
thro m
Saf ety</w>
cap acity</w>
pri marily</w>
for ce</w>
Al l
y r
Ty pe</w>
mat ory</w>
f ig
On ly</w>
dil u
Sw ed
D ose</w>
sel ect</w>
b ound</w>
199 9</w>
T ell</w>
arm s</w>
E s
g ol
we b</w>
di d
0. 1</w>
pers on
ben z
V .</w>
Par is</w>
con sum
L ast</w>
m enti
n ucle
pos t</w>
cl usion</w>
detail ed</w>
7 6
org an</w>
d l</w>
cardi ovascular</w>
remain s</w>
consi der</w>
cl i
R A</w>
v ac
oun ts</w>
199 6</w>
Loc ation</w>
e k
12 -
my el
D ue</w>
Sw it
inf ants</w>
ti te</w>
il e
haem orrh
Al so</w>
we igh
mod el</w>
ac ter</w>
g i
9 4</w>
ste ad</w>
main tained</w>
ci tiz
H is</w>
is on</w>
c raw
prote ins</w>
R et
quick ly</w>
Stud y</w>
Ren al</w>
lu x
W ith
um ents</w>
po in
if e</w>
Ch ina</w>
os up
1 2.5</w>
h ous
Ph ot
g ram</w>
ch ild
Ne o
5. 3</w>
il ly</w>
off ice</w>
ay ing</w>
s ick</w>
Ad verse</w>
r he
s end</w>
amp ou
guid elines</w>
d u</w>
is sion
bed s</w>
Blist er</w>
volunte ers</w>
antiretro viral</w>
M it
b ase</w>
compl ex</w>
eas ily</w>
xim ab</w>
M L</w>
ush ing</w>
lac tic</w>
to -
um -
Direc tive</w>
recep tor</w>
iz er</w>
psy ch
Pharmac eu
P age</w>
week ly</w>
er ro
er ia</w>
he av
c u
comfor table</w>
rapid ly</w>
L I
g as</w>
i en</w>
gr astim</w>
M ost</w>
doubl e-
res ources</w>
E con
appro ach</w>
x i
S a
Isra el</w>
Ta king</w>
euro pa
metabol ites</w>
g em
amp renavir</w>
ep ilep
Jo ined</w>
A B</w>
bour g</w>
p ation</w>
an -
2 2
N SA
contrac ep
pos es</w>
bre l</w>
P ost</w>
for ward</w>
P f
eth ylene</w>
vis ual</w>
En brel</w>
t in
plac es</w>
pre pared</w>
sel f-
ure r</w>
inter nal</w>
in side</w>
propos al</w>
suffici ent</w>
w ards</w>
st atic</w>
P o
N on-
de -
Slo ven
ain ed</w>
colour less</w>
v ic
initi ation</w>
et er</w>
pre ci
top ic</w>
pres s
ster ile</w>
STOR E</w>
y e</w>
dys function</w>
sp on
proper ty</w>
monit or</w>
ung er</w>
h ot</w>
ag er</w>
cul tural</w>
Swit zer
confir med</w>
un common</w>
S S</w>
spec ific
a il</w>
s en</w>
19 .
sp ir
open ing</w>
b ing</w>
it abine</w>
op o
f all</w>
st eps</w>
as se</w>
f ill</w>
immobil i</w>
sp ac
plac ement</w>
sh are</w>
qu al
concer ning</w>
ati vely</w>
Switzer land</w>
cr yst
A l</w>
as one</w>
dec ide</w>
inter net</w>
in str
succ ess</w>
ell ed</w>
AL T</w>
em br
i qu
y n</w>
a id</w>
Hol der</w>
a di
pres sed</w>
clus ive</w>
P C</w>
p ass</w>
ag e
f atigue</w>
E V
S Y
der mal</w>
hypogly caemia</w>
appe ars</w>
excell ent</w>
sh op</w>
S ur
qu ite</w>
co vered</w>
D ata</w>
open ed</w>
me etings</w>
car ry</w>
ess es</w>
Ne ws</w>
C ro
tem p
D r.</w>
ta il</w>
M et
ha ir</w>
PE R
M ach
sch ool</w>
th care</w>
resul ted</w>
bathro om</w>
lat est</w>
ph an</w>
or ation</w>
Jes us</w>
remov ed</w>
d i</w>
vill age</w>
prog ress</w>
d ox
menti oned</w>
ure a</w>
in ner</w>
M at
hol iday</w>
v ot
w ind</w>
hydrox y
restaur ant</w>
am us
inflam matory</w>
P u
l s</w>
con sci
apart ments</w>
f low</w>
pur ch
LE T</w>
Char acter
w all</w>
cal endar</w>
estim ated</w>
bre ath</w>
c ats</w>
uplo ads</w>
c os
gr ade</w>
ul l</w>
par ty</w>
K in
t un
anti body</w>
au th
diagn os
az ep
cal cul
l ength</w>
b us</w>
ogen icity</w>
sle ep</w>
ar ies</w>
Th e
min d</w>
Pl an</w>
c ost</w>
Fin land</w>
m aps</w>
cul ture</w>
sim ple</w>
ON S</w>
cl assi
val u
high est</w>
S ection</w>
fri end</w>
Centr e</w>
D el
cho ice</w>
al t</w>
s av
se e
metabol ised</w>
n or</w>
He pati
Sum mary</w>
0 5.
G M
I C</w>
F A
................ ................
success ful</w>
sim ply</w>
ot rex
od y
an aphy
Air port</w>
Lab or
ag s</w>
for um</w>
M on</w>
cop ies</w>
Fr ank
ur ia</w>
In su
trav el</w>
a udi
part ners</w>
un desirable</w>
altern ative</w>
D ri
o con
hy po
PRO DU
g ing</w>
re stric
wor ld
ed- release</w>
M il
stop ped</w>
d or
sugg est</w>
tr ic
ind s</w>
e tic</w>
A -
Insu man</w>
gly cer
ame work</w>
on ate</w>
D u
ast a</w>
Y or
cap ital</w>
pic ture</w>
i .
responsi bility</w>
bud get</w>
ti tr
cont rib
cho ose</w>
h ard
it ems</w>
appe tite</w>
im proved</w>
3 ,
s ale</w>
ide al</w>
D ar
vari ety</w>
cle an</w>
d as</w>
thre at
con cluded</w>
ro c
o .
summ er</w>
opport unity</w>
S t</w>
por te
T it
S up
sus p
c y</w>
pap er</w>
gly co
0. 00
4 8
pharmac ovigilance</w>
T E</w>
ri st
c as
ocardi al</w>
C L
aes thesia</w>
C o</w>
ar g
e h
me t</w>
S D</w>
inhi bition</w>
di ure
streng th</w>
di et</w>
on in</w>
T ra
b ate</w>
ec k</w>
F -
to m</w>
cl aim
Sam stag</w>
induc ed</w>
bl ue</w>
hyper tensive</w>
no ted</w>
ici ent</w>
5 5
e ti
In vented</w>
B a
Tw o</w>
U r
EP AR</w>
P an
C D</w>
soci ety</w>
produc tive</w>
T é
In cre
htt ps</w>
al ia</w>
is s</w>
g arden</w>
xi ety</w>
A z
environ mental</w>
otox ic</w>
1 6.
po etin</w>
individ u
es tiv
treat ments</w>
ensi ve</w>
sh e
prote ase</w>
prog ression</w>
li fe
In v
E- mail</w>
4 7
S -
w p-
ocyt openia</w>
mov ement</w>
cl ass
S ev
stand ards</w>
in ations</w>
la un
g le</w>
V ill
C T
down load</w>
otrex ate</w>
fam ous</w>
s pre
compon ent</w>
es sive</w>
S he</w>
W eb
S TR
C o-
m er</w>
relation ship</w>
bas ic</w>
concomit antly</w>
Comm ission
h ope</w>
bio availability</w>
ner stag</w>
au f</w>
arch it
reas ons</w>
exc ept</w>
w are</w>
1 10</w>
def iciency</w>
ten ofovir</w>
writ ten</w>
follow s</w>
id ov
Wor king</w>
concer ned</w>
C re
set ting</w>
I V
pe dia</w>
d ine</w>
oo m</w>
go t</w>
transpl ant</w>
c a</w>
Amer ica</w>
wp- content</w>
C amp
D ist
G l
influ enza</w>
an avir</w>
elec tron
m ell
pe ak</w>
20 .
independ ent</w>
s ound</w>
c ere
associ ation</w>
oun ds</w>
v o</w>
cris is</w>
meth ods</w>
S ep</w>
m er
in k
foc us</w>
sk i</w>
contain er</w>
gre en</w>
b s</w>
N ext</w>
Don nerstag</w>
tion ally</w>
M ab
Medic ines</w>
pur poses</w>
ac id
well -
bec ame</w>
br on
ca st
ch ing</w>
s on
pl eas
l is
pre v
L illy</w>
bacter ial</w>
bre ak
throm bo
prog res
plan ning</w>
reduc ing</w>
cep ti
P or
cipi ents</w>
iz umab</w>
commun ication</w>
ÿÿ ÿÿ
Sy stem</w>
friend ly</w>
play ed</w>
Fir st</w>
s low
giv es</w>
17 .
compar able</w>
bro ught</w>
aff ects</w>
T em
ill ness</w>
18 .
p ital</w>
fore ign</w>
an ium</w>
Character istics</w>
dat ab
M ain</w>
en abl
in ate</w>
Yor k</w>
Off ice</w>
qu i
pos ed</w>
Ol anzapine</w>
su d
bot t
0 30</w>
0 3.
M ul
en ed</w>
ad d</w>
DL L</w>
si an</w>
p y</w>
ex change</w>
bet a</w>
ol l
sal es</w>
L D
T O
c rit
J ap
Té l</w>
ü n
el f</w>
idov udine</w>
tradi tional</w>
to ols</w>
di alysis</w>
seiz ures</w>
tac rolimus</w>
institu tions</w>
parti cles</w>
process es</w>
C -
situ ated</w>
consist ent</w>
g s</w>
educ ation</w>
Com b</w>
Anim al</w>
w on
p ages</w>
circ um
col our</w>
pan cre
es ium</w>
el etal</w>
pa thy</w>
exter nal</w>
meth otrexate</w>
PV DC</w>
Un it</w>
ther n</w>
ta g</w>
follow -up</w>
par k</w>
asth ma</w>
wom an</w>
LE AF
HB V</w>
deg ree</w>
z i
ta ste</w>
equ al</w>
ent ary</w>
cartri dges</w>
P ure
il s</w>
ac knowled
l ast
off icial</w>
depend ing</w>
D en
W ater</w>
is es</w>
D E</w>
B ud
reg ularly</w>
d -
sh or
minim um</w>
import ance</w>
St .</w>
op i
rel ation</w>
sel ected</w>
S i
et te</w>
Th ro
hydrox ide</w>
Amer ican</w>
ww w</w>
Me di
Deutsch land</w>
3 3
a king</w>
f el
expos ed</w>
wh e
Part y</w>
sched ule</w>
Hy per
avoid ed</w>
ti tle</w>
ik a</w>
L am
erm ine</w>
qu ar
com pati
al isation</w>
n on</w>
atic ally</w>
ant ation</w>
Luxem bourg</w>
cri ption</w>
loc k</w>
transi ent</w>
th al
A er
kitch en</w>
index .php</w>
ic on
p ay</w>
Bus iness</w>
pl unger</w>
Pri v
employ ment</w>
log ical</w>
sc ore</w>
sub st
ri l</w>
ro se</w>
h o
sex ual</w>
norm ally</w>
ne ys</w>
st ar</w>
an tic
LEAF LET</w>
ay ed</w>
od opa</w>
m ine</w>
set t
Studi es</w>
B ed</w>
R est
excre tion</w>
dep art
- 10</w>
4. 6</w>
qu anti
no te</w>
in form</w>
fl ex
Ha em
ra ised</w>
j our
v in
vit amin</w>
hand ling</w>
g ent
f ru
0. 6</w>
fr act
strateg y</w>
n ice</w>
n on
w ine</w>
sub str
Vi en
C V</w>
be aring</w>
H ar
sus cepti
ic o</w>
surro un
ul in</w>
Develop ment</w>
Chris ti
p ite</w>
giv ing</w>
s ays</w>
part ner</w>
ad es</w>
7 0
dis sol
el ess</w>
Fr i</w>
es -
europa .</w>
Down load</w>
Commission er</w>
mar row</w>
th ought</w>
placebo- controlled</w>
no w
secon dary</w>
rhe um
AC E</w>
Gre ece</w>
elev ated</w>
id og
Ca ution</w>
P L
or a</w>
concer ns</w>
prot ective</w>
Cont act</w>
open -
inf arc
citiz ens</w>
Ro ad</w>
el ds</w>
ent -
Pf izer</w>
Wh ile</w>
enti onal</w>
main tain</w>
C ir
F i</w>
Apart ment</w>
sor i
Administ ration</w>
co ord
h on
ch en</w>
0. 4</w>
p .
M ar</w>
S an
at r
V AN
induc tion</w>
um s</w>
smo king</w>
ther more</w>
S ie</w>
exper im
ro ph
G al
acc um
ast er</w>
bol ism</w>
se l</w>
.... ..</w>
rel ative</w>
ex tension</w>
0 7.
al in</w>
rel ax
Serv ice</w>
Res earch</w>
tic aria</w>
per sist
fur t</w>
su ic
exper ts</w>
idog rel</w>
S O
th ly</w>
mark ets</w>
absor bed</w>
o x</w>
We ek</w>
O b
N T</w>
ug e</w>
it or</w>
fam il
H ung
as ked</w>
ro pin</w>
ri de</w>
M er
at temp
sp i
pre h
k y</w>
medic ation</w>
my ocardial</w>
lev odopa</w>
C ur
di es
att ack</w>
t el</w>
f f</w>
st ates</w>
k il
V E
S TE
at or
ep tic
S A</w>
Rus sia</w>
allow ing</w>
id omide</w>
ou ter</w>
di c</w>
occur ring</w>
oph arm</w>
W ed</w>
Q U
get ting</w>
ut h</w>
lux ury</w>
g oods</w>
0 6.
tic als</w>
oro dispersible</w>
un to</w>
I F
9 9
M ag
in ser
G er
am b
ch os
sel ection</w>
ther wise</w>
Afr ica</w>
opport un
Mach ine</w>
ith ro
Tabl et</w>
be y
1 5.
be h
d y</w>
om ic</w>
fung al</w>
S pi
D V
Fre it
D r
Blo od</w>
v ess
r is</w>
an n</w>
ar in
o ols</w>
trans dermal</w>
m ort
Ke ep</w>
intr amus
hel ps</w>
ship s</w>
possi bly</w>
ex cluded</w>
scal e</w>
on to</w>
ly ing</w>
lax is</w>
fl at</w>
4 ,
f u
form er</w>
Freit ag</w>
P ress</w>
comm unity</w>
pur pose</w>
su mp
reg ional</w>
- 2</w>
cy to
P en
E I
t ex
frequ ent</w>
thro at</w>
statis tically</w>
key s</w>
L OR
Ital ian</w>
n ings</w>
ch urch</w>
pe ace</w>
S of
lo dipine</w>
pre fer
aw are</w>
t on
ol ic</w>
W ar
vess els</w>
le ave</w>
dem ocr
NSA ID
ithro mycin</w>
OR IS
t end
J an</w>
az ine</w>
G o</w>
S ing
G ames</w>
Sy n
ill ed</w>
G R
continu ous</w>
cardi a</w>
IT S</w>
z idovudine</w>
exerc ise</w>
v als</w>
gen e</w>
show er</w>
no thing</w>
Ind ustri
n el
Ph ase</w>
E ast</w>
de st
infarc tion</w>
pr ur
B R
h re
det ermine</w>
competi tion</w>
iv es</w>
int oler
ac avir</w>
n ar
adequ ately</w>
mechan ism</w>
ex tra</w>
enc y
under stand</w>
interest ed</w>
ad ver
Bar cel
ti fied</w>
Merc k</w>
7 5
li c</w>
if t</w>
un iver
N ote</w>
il it
V ide
M ac
qu inavir</w>
www. amarillas
erg ic</w>
u ble</w>
M em
siz es</w>
pl ant</w>
tre ating</w>
ne ws</w>
S pan
Th us</w>
ep o
00 9</w>
pr int</w>
is land</w>
episod es</w>
de al</w>
at tr
ex ten
s ch</w>
f it
econom y</w>
w ood</w>
play ing</w>
anci es</w>
CYP2 C
immedi ate</w>
ir ing</w>
he ight</w>
W il
de ep</w>
work ers</w>
pres sive</w>
i us</w>
double- blind</w>
ur on
et ary</w>
dy sp
st -
bott les</w>
all ery</w>
g ra
cl ou
Im port
C z
m .</w>
Op ti
scre en</w>
A ME
invest ment</w>
man n</w>
el ements</w>
et ra</w>
An y</w>
elec tr
fr amework</w>
li ves</w>
G lax
perc ent</w>
appe ar
bey ond</w>
0 2.
di stance</w>
ph one</w>
c is
poly ethylene</w>
absol ute</w>
atin ib</w>
0 4.
at e
air port</w>
sever ity</w>
cont ext</w>
subst anti
Pro c
C as
ou red</w>
c ore</w>
eph one</w>
- -</w>
insuffici ent</w>
chem ical</w>
e in</w>
conj unc
c ough</w>
otox icity</w>
olog ies</w>
ha z
exhi bition</w>
com a</w>
anc ing</w>
ab s</w>
l ate</w>
36 8</w>
w aste</w>
bl og
threat ening</w>
Pl us</w>
He ad</w>
y pe</w>
oper ate</w>
consti pation</w>
f res
angi ot
B ot
h ost
obl ig
bir th</w>
op tion</w>
po or</w>
bl es</w>
ac compan
u v
pr o</w>
str ong
B MS</w>
om as</w>
ency clo
industri al</w>
tiv ir
M icro
col d</w>
est ro
in sul
subcut aneously</w>
professi on
moun tain</w>
Ver sion</w>
provid ing</w>
S ource</w>
go ti
arti cle</w>
ex tensive</w>
ul ose</w>
func tions</w>
pl atin</w>
mess age</w>
eng ine
guid ance</w>
hos pital</w>
dem and</w>
10 9</w>
2. 0</w>
et ed</w>
ur g
ter race</w>
N a
crit eria</w>
under going</w>
pic tures</w>
ne goti
num bers</w>
haemorrh age</w>
an es
Rap id</w>
S EN
Frank furt</w>
0. 2</w>
abnorm alities</w>
vis itors</w>
do g</w>
v ar
d edic
id ity</w>
at adine</w>
wel come</w>
in stead</w>
sti tution</w>
Th u</w>
L E</w>
n y</w>
sen se</w>
se ts</w>
Cour t</w>
a i</w>
encyclo pedia</w>
shop s</w>
consi sts</w>
Pe g</w>
sympt omatic</w>
entan yl</w>
d on
Man u
id ea</w>
Ch urch</w>
Fur thermore</w>
m u
he at</w>
les ions</w>
pot entially</w>
Comp any</w>
por in</w>
UN ITS</w>
Nor th</w>
, 00</w>
ol ate</w>
ve x</w>
Import ant</w>
Barcel ona</w>
he im</w>
U sing</w>
mom ent</w>
recogn ition</w>
x il</w>
m uc
histor ical</w>
inc l</w>
respon d</w>
Ac commod
kid neys</w>
se ek</w>
s low</w>
k ept</w>
p y
im self</w>
Sk in</w>
chall eng
g ast
corticoster oids</w>
id entif
wh ere
immun osup
ag ue</w>
bel i
n olence</w>
discus sion</w>
ab s
SM ALL</w>
Serv ices</w>
in s
k al
TI ONS</w>
ul ate</w>
St ore</w>
H D
M en
out come</w>
od e</w>
Swed en</w>
in e-
IN E</w>
at oid</w>
pop ular</w>
6 5
oc h</w>
an xiety</w>
L iv
prob ably</w>
m ix</w>
ü r
P -
ur ticaria</w>
g al
Wh ite</w>
W ay
Fur ther</w>
v ascular</w>
conv entional</w>
t our</w>
nec k</w>
com preh
beh ind</w>
st ability</w>
S end</w>
NSAID s</w>
legis lation</w>
ir besartan</w>
as ks</w>
cut aneous</w>
Bo x</w>
Intr on</w>
ic am</w>
stro ke</w>
Gen er
C E
oo t</w>
Rep ort</w>
con ference</w>
W est</w>
extrem ely</w>
rever sible</w>
pum p</w>
s s</w>
rel ap
us al</w>
m ol
imm ing</w>
S TA
b and</w>
Z Y
B -
l ag
il st</w>
I I
i k</w>
ri es</w>
f le
T -
tum ours</w>
th ema</w>
M os
M ix</w>
care ful</w>
ic ate</w>
H igh</w>
cryst all
Ar t</w>
g ir
wind ow</w>
vi vo</w>
go es</w>
ch ea
1. 2</w>
ist ry</w>
W el
pow er
N R
Ac tr
S T</w>
M IR
lear n</w>
PD F</w>
character istics</w>
exerc ised</w>
un likely</w>
assi stance</w>
l o</w>
N es
advanta ge</w>
exc essive</w>
bu ff
nur se</w>
ic ated</w>
ven ue</w>
bel ongs</w>
ic y
al es</w>
dro p</w>
Min ister</w>
resol ution</w>
am end
inter vals</w>
Reg ulation</w>
mo tion</w>
CO M
en larg
ges tion</w>
divid ed</w>
contr ast</w>
porte ur</w>
k er
n as
mach in
Virafer on</w>
meas ure
VI II</w>
HIV -1</w>
p as
0 10</w>
or ally</w>
tox ic</w>
per man
consider ation</w>
investig ated</w>
Oc t</w>
find ings</w>
Acc ord
AM E</w>
do ing</w>
Hum ira</w>
ish ment</w>
p ip
coll ection</w>
sm all
larg est</w>
Mus eum</w>
sulph on
radi o
suppor ted</w>
becom es</w>
Pic ture</w>
hor mon
V el
m other</w>
appear ance</w>
ain t</w>
chea p</w>
ha ir
Vien na</w>
ol anzapine</w>
datab ase</w>
J un</w>
ar ate</w>
Ne w
un a</w>
cer tain
co- administration</w>
sump tion</w>
L -
M un
g ave</w>
hydro us</w>
fix ed</w>
odi alysis</w>
. g
M id
Ch eck</w>
deb ate</w>
am i
6. 6</w>
ed eral</w>
decre ases</w>
p ac
per s</w>
ch am
prin ted</w>
M A</w>
Rem ove</w>
BL IS
s ac
fri ends</w>
craw led</w>
mort ality</w>
fe et</w>
Virafer on
ab acavir</w>
tabl et
m ig
St ar
lin ks</w>
sur ance</w>
con ven
tou ch</w>
stud ents</w>
en a</w>
Way back</w>
d .</w>
seas on</w>
super vision</w>
h am
4 4
termin al</w>
A ut
cre ation</w>
Re production</w>
Me ta
integr ated</w>
grow ing</w>
exce ed</w>
sci enc
Viraferon Peg</w>
b all</w>
bacter ia</w>
rec ept
estiv al</w>
vis ible</w>
pat ches</w>
entr y</w>
p sori
dri ving</w>
D em
cap e</w>
del iv
clim ate</w>
R NA</w>
Kal etra</w>
met res</w>
I G
fi bro
min or</w>
low ering</w>
om m
em ail</w>
Peg Intron</w>
inter rup
requ ires</w>
individu als</w>
i j
per idone</w>
reco very</w>
S at</w>
m ys
c ut</w>
es .
ch an
199 5</w>
Ris k</w>
am ounts</w>
circum stances</w>
fi br
contrac eption</w>
sh are
op tions</w>
process ing</w>
ing er</w>
fo etal</w>
add res
J ul</w>
embr y
stric t</w>
guaran tee</w>
acid osis</w>
bil ities</w>
p ra
ec ti
T ue</w>
8 8
propor tion</w>
dep os
m ice</w>
d el</w>
As soci
1. 3</w>
A tri
P ack</w>
proc e
T oday</w>
ot ec
ody namic</w>
Ar ch
prop ylene</w>
rel ating</w>
We b</w>
el le</w>
deliv ered</w>
ht ml</w>
co ff
polic ies</w>
201 7</w>
Sec tor</w>
st ear
rel ig
sev en</w>
i ther</w>
Ham burg</w>
ad em
ig e</w>
tu b
direc tion</w>
ann ual</w>
M I</w>
ann oun
s tic
pig s</w>
n icht</w>
specif ied</w>
er ve</w>
A Z
bab y</w>
s at
Ap r</w>
am lodipine</w>
fi elds</w>
R oom</w>
Centr al</w>
bu ild</w>
C enter</w>
irrit ation</w>
ain s</w>
tr aff
s pl
ou l
thous ands</w>
Cz ech</w>
prot ected</w>
LA BE
refer ral</w>
e at</w>
cre am</w>
abs ence</w>
play er</w>
obj ective</w>
p in
os in</w>
A C</w>
t ool</w>
deriv ed</w>
coag ul
f um
B ank</w>
ex cipients</w>
epo etin</w>
ub icin</w>
Par t</w>
antibio tics</w>
B oth</w>
dig ital</w>
an tivir
eff icient</w>
C ell
g am
V ia</w>
acc ur
reg ions</w>
S om
sol id
Span ish</w>
slow ly</w>
S us
up date</w>
rati opharm</w>
m ir
oric onazole</w>
re fer</w>
on omy</w>
ear th</w>
cour ses</w>
employ ees</w>
asp ects</w>
ens in</w>
gener ation</w>
tem porary</w>
administ r
y a</w>
sa w</w>
sk eptic
pot ent</w>
wor ked</w>
un ds</w>
R os
M any</w>
h imself</w>
fer tility</w>
Sy st
an i</w>
mem br
ut ri
T as
O S</w>
2 1.
aw a
pres erv
nation ally</w>
P H
Ne up
ribu ted</w>
fa ir</w>
an hydrous</w>
az ol
rheum atoid</w>
et z
ann ed</w>
et u
anal ys
G A</w>
off ered</w>
cel eb
F lu
inter pre
as tic</w>
enc our
dos e-
R ING
1 1-
r ad
compet ent</w>
car t</w>
ansop razole</w>
at m
G i
poin ted</w>
LOR D</w>
dilu ted</w>
L is
remain ing</w>
stre et</w>
form ulation</w>
initi s</w>
Ch in
af ter
w it
Par kin
ser ve</w>
f ight</w>
I ts</w>
og r
num erous</w>
re a</w>
d al
s artan</w>
Nes po</w>
v s.</w>
ne u
re placement</w>
sk a</w>
Sav ed</w>
o therwise</w>
on e-
S el
Con comit
ges tive</w>
f ish</w>
ot ype</w>
o ing</w>
sign ed</w>
appro x</w>
ci profloxacin</w>
re sts</w>
3 2
C op
bre ak</w>
o .</w>
P res
c en
B ook</w>
cont ribution</w>
c anc
th ir
loo ked</w>
www .</w>
Pow der</w>
M -
6 9
ul ed</w>
C H</w>
yp ages
Concomit ant</w>
l -
dro ps</w>
Ev en</w>
w anted</w>
Sw iss</w>
rab bits</w>
pit ant</w>
an ine</w>
0. 8</w>
i di
ong ue</w>
S .
scienc e.com</w>
life -
In stitute</w>
Fe b</w>
F S
1 4.
lit er
nerv ous</w>
skeptic al
toler ated</w>
skeptical science.com</w>
specific ally</w>
discus s</w>
machin ery</w>
ex ec
restaur ants</w>
compar ison</w>
th anks</w>
cy t
prescri ption</w>
O per
h ood</w>
post- marketing</w>
V ER
ol ab
tu red</w>
z a
Appl ication</w>
reduc es</w>
Chris t</w>
orig in</w>
prur itus</w>
agr icul
inde x</w>
2 5.
un i
O G
PRODU CT</w>
conc ept</w>
pi ece</w>
install ation</w>
ograph y</w>
U l
ed om</w>
elim inated</w>
eff iciency</w>
mob ile</w>
d a
suff ering</w>
pay ment</w>
sh o
en se</w>
m ass</w>
I -
th -
n ic
k o
electron ic</w>
Rest aur
GM T</w>
ild enafil</w>
D AL</w>
doc etaxel</w>
Comm un
int ment</w>
H ep
tric itabine</w>
stra ight</w>
ri a</w>
im ages
Me th
Ci profloxacin</w>
C ar</w>
jo b</w>
fa ther</w>
E g
Hy persensi
ar rang
in o
el on</w>
E di
trans l
E17 2</w>
ec ture</w>
p H</w>
F i
thromb ocytopenia</w>
t ase</w>
cy cl
rem ember</w>
ast ern</w>
c ot
a p</w>
in sp
sal t</w>
Pol and</w>
con nec
ic ular</w>
ell s</w>
M B</w>
in ic</w>
cell ulose</w>
on y</w>
S oci
intramus cular</w>
Org an
ish es</w>
eff orts</w>
R IS
EX P</w>
som nolence</w>
A ff
ox if
contain ed</w>
Hypersensi tivity</w>
consul t
On line</w>
b ul
crystall ine</w>
gre at
- like</w>
l ost</w>
ch ance</w>
- P
t ons</w>
p es</w>
od y</w>
S et</w>
2 8.
dedic ated</w>
br u
k i
per for
comp ris
qu in
program mes</w>
form at</w>
av es</w>
introduc ed</w>
h es
depend s</w>
e- mail</w>
d ation</w>
dev ices</w>
lit azone</w>
un changed</w>
K r
wi pe</w>
No v</w>
De tail
se p
pl ants</w>
t et
ys or
po sts</w>
ship ping</w>
f arin</w>
s co
intraven ously</w>
Ab out</w>
respec tive</w>
Pharmaceu ticals</w>
lo ad
recept ors</w>
LE D</w>
es ia</w>
te es</w>
se ems</w>
atm osph
er b
li es</w>
end point</w>
behavi our</w>
ond ap
compl ications</w>
ondap arin
si ght</w>
won der
gr aph
thyro id</w>
mon thly</w>
2 4-
squ are</w>
est ed</w>
pre dic
ondaparin ux</w>
3. 5</w>
f our
7 7
it em</w>
interest ing</w>
sensi tivity</w>
antivir al</w>
pa id</w>
princi ple</w>
n ose</w>
fl u</w>
sig n</w>
Gr ade</w>
Pharmac ovigilance</w>
met ers</w>
ill ing</w>
E F
stra in</w>
modi fied</w>
AN NE
ti p</w>
3 4
0 4
p are</w>
pat ter
tam ine</w>
ag ree</w>
s ening</w>
ti redness</w>
d ang
re publ
a us
ysor bate</w>
inf ra
E uro</w>
Br us
ab r
B ack</w>
arr hyth
s z
Tr ud
cer tif
de m</w>
Son n
N i
l um
B ed
G oo
j a
ex tr
car ds</w>
O J</w>
Be ta
vi ol
v es
2 2.
rec ur
0 11</w>
Direc tor</w>
Accord ing</w>
ra u
De c</w>
sec ure</w>
ar ity</w>
ov arian</w>
sk y</w>
spe ak</w>
Th er
fum arate</w>
stead y</w>
reg ulation</w>
con y</w>
8 9
S C</w>
hap py</w>
em ph
U B
ir ub
pharmac eu
T ro
if ication</w>
T our
in take</w>
lact ation</w>
accep table</w>
rele ased</w>
ed ly</w>
sa quinavir</w>
H P
an rix</w>
se iten</w>
any thing</w>
dis play</w>
ar bit
Ar e</w>
Sm ith
ec tives</w>
persist ent</w>
del ay</w>
us eful</w>
acknowled ged</w>
I A</w>
ing en</w>
ocyt es</w>
wh ilst</w>
R as
beg an</w>
ANNE X</w>
ag on
langu ages</w>
pre domin
suff er</w>
s .com</w>
L o
opro xil</w>
dis oproxil</w>
si mul
sa ve</w>
g ar
Den mark</w>
r ine</w>
shap ed</w>
b ig
f as
An n
meta static</w>
no ea</w>
J os
ung en</w>
W P</w>
gen ital</w>
' re</w>
Ó Ç
Ph il
sp r
Eff icacy</w>
sensi tive</w>
coff ee</w>
proper ly</w>
es is</w>
t i</w>
enti s</w>
Ú É</w>
am ended</w>
win ter</w>
Labor at
Çá ÓÇ
prolong ed-release</w>
mem ory</w>
y ed</w>
Çá Â
ÇáÓÇ ÚÉ</w>
ÇáÂ ä</w>
f os
be at</w>
sw imming</w>
L uc
sing le-
lor atadine</w>
d am</w>
meas uring</w>
ap parent</w>
e ight</w>
ob s</w>
w arm</w>
off ering</w>
Parkin son</w>
ar p</w>
dispos al</w>
conn ected</w>
d ur
N -
tri p</w>
Sev ere</w>
s ports</w>
di es</w>
innov ative</w>
Hydro chlorothiazide</w>
m ar</w>
ti le</w>
con sumption</w>
s n
Chin ese</w>
beli ev
g el</w>
man ner</w>
sel ective</w>
fir e</w>
t z
hous es</w>
c ic
prepar ations</w>
B et
S econ
diagn osis</w>
beg in</w>
K line</w>
In tron
Wh ere</w>
h und
Trud exa</w>
le ts</w>
s al</w>
D y
d ens
T al
fe ature</w>
IS TA</w>
prov el</w>
Intron A</w>
neuro pathy</w>
St and
M B
za ar</w>
contr act</w>
in surance</w>
gl it
ex pen
G astro
t aneous</w>
cros s-
er ies</w>
tu be</w>
ast s</w>
H ist
anes p</w>
Ar anesp</w>
ste el</w>
e ine</w>
inhi bit</w>
emp ty</w>
haem odialysis</w>
fl ic
t ory</w>
13 2</w>
tain ing</w>
h arm
He ad
summ ary</w>
respon ses</w>
ery thema</w>
ass em
compreh ensive</w>
ment -
transpl antation</w>
stear ate</w>
hi p</w>
ec tor</w>
disturb ances</w>
land s
shop ping</w>
depres s
wor sening</w>
Manu fact
e pl
chro me</w>
ab il
trans mission</w>
sol id</w>
E17 1</w>
L y
ra ine</w>
fo et
W omen</w>
u c</w>
ap ter</w>
fl ushing</w>
00 00</w>
sens ation</w>
represent ative</w>
ly ophil
vehic le</w>
fun dam
ob tain</w>
Ap pro
rec ord</w>
re turned</w>
ampou le</w>
r d</w>
1. 1</w>
m ing</w>
R ed</w>
ans wer</w>
gu est</w>
att ached</w>
3 70</w>
1 30</w>
J ust</w>
B ro
Qu ality</w>
dic tionary</w>
b an
modi f
bi ological</w>
au l</w>
ch er</w>
ter at
T RE
syst em
tri glycer
B ul
il le</w>
mell itus</w>
---------------- ----------------
ne igh
consci ousness</w>
G es
low -
P 450</w>
spre ad</w>
f al
ul a</w>
0 5
e ze</w>
mus cles</w>
in tra
col or</w>
nit ro
7 50
tis sues</w>
C art
vi l</w>
anal y
Smith Kline</w>
erro r</w>
det ected</w>
E D
we ather</w>
Novo Mix</w>
psy cho
f un</w>
der m
2 3.
world wide</w>
Lat vi
act ual</w>
acet ate</w>
v oriconazole</w>
t ongue</w>
' ll</w>
0 12</w>
R ob
f entanyl</w>
bil irub
regul atory</w>
occur rence</w>
N ex
som nia</w>
conf usion</w>
dro w
C N
m ouse</w>
transfer ase</w>
C le
W al
S earch</w>
sy m
republ ika</w>
ci ties</w>
t ot
sw abs</w>
bil lion</w>
g ment</w>
le ads</w>
G lob
conv ul
ä n
F am
ap re
wor d
cri min
coag ulation</w>
en ge</w>
uc k</w>
dis comfort</w>
ö r
ha m</w>
sustain able</w>
d n
id ine</w>
AS T</w>
wal king</w>
jo y</w>
en n
M w
st ed</w>
conf idence</w>
adjust ments</w>
metabol ic</w>
b order</w>
apre pitant</w>
am a</w>
a ke</w>
e rec
ip ex
pre sid
fr ac
am ipex
amipex ole</w>
ro d</w>
at ten
tr ack</w>
2 7.
Sol ution</w>
2 6.
mut ual</w>
f ine</w>
ox id
et e</w>
every one</w>
induc e</w>
hre f</w>
mid dle</w>
heal thcare</w>
pack aging</w>
on ic</w>
1 -0
entr icular</w>
w est</w>
pa in
D r</w>
p ath</w>
refer red</w>
experienc es</w>
concer n</w>
tabl es</w>
adj ust</w>
R ot
prac tic
Des cription</w>
categ ories</w>
Pro gram
G ol
tri c</w>
8 5
peg interferon</w>
ang ina</w>
sp ring</w>
igh t
1 A
Addi tional</w>
Pe ople</w>
re vol
conf ig
dis h
or i</w>
w on</w>
ol ysis</w>
n al
I g
c k
37 1</w>
h r
f arm
inte rests</w>
serv ed</w>
atmosph ere</w>
re productive</w>
an o
o es
Bas al</w>
platel ets</w>
ca using</w>
st one</w>
in spec
thromb in</w>
propos als</w>
tw o-
arti cles</w>
ind inavir</w>
Con ference</w>
int ell
en tage</w>
G overn
de fa
Ther ap
AT C</w>
u ated</w>
con struc
od a</w>
S ant
mys elf</w>
discus sed</w>
a qu
ong oing</w>
D as</w>
sle ep
allerg y</w>
parti al</w>
cre di
qui et</w>
fre edom</w>
T or
ulc ers</w>
av ing</w>
s aying</w>
C er
sim pl
Tre at
Co zaar</w>
4 20</w>
rol led</w>
ell ite</w>
Goo gle</w>
ca emic</w>
L act
V eterinary</w>
wat ch</w>
t asks</w>
ox in</w>
reli able</w>
b ag</w>
erythro po
b ow
phen yl
Rus sian</w>
b ank</w>
n utri
li er</w>
categ ory</w>
amp icin</w>
th ank</w>
c amp
integr ation</w>
re tention</w>
f low
pl ate</w>
angiot ensin</w>
fe rences</w>
m ost
c ent</w>
Sonn tag</w>
pres entation</w>
exam ination</w>
in di
larg er</w>
bu b
i br
del ayed</w>
RIS PER
ap er</w>
2 10</w>
trans f
diure tics</w>
N et
Mad rid</w>
pa ir</w>
Res pon
requ iring</w>
us ions</w>
ed ge</w>
opo rosis</w>
am ed</w>
profession als</w>
build ings</w>
hear t
conven i
bo at</w>
Pa ediatric</w>
1 40</w>
inst all</w>
v ote</w>
sulphon yl
Glax o
azol am</w>
P ot
di ver
h a</w>
stat ement</w>
appe ared</w>
war farin</w>
gast ric</w>
C am
exc ess</w>
accompan ied</w>
RISPER DAL</w>
it al
i er
Mul ti
og litazone</w>
fil grastim</w>
is ations</w>
olog ic</w>
Novo Let</w>
ass ay</w>
Com b
30 -
contrib ute</w>
0. 7</w>
accum ulation</w>
Ch rist
b ad</w>
st ell
lo s</w>
me als</w>
al ine</w>
typ ical</w>
E qu
pre pare</w>
ß e</w>
T l
op ath
k inds</w>
tr ain</w>
7 00</w>
malign ant</w>
l ansoprazole</w>
est i</w>
E s</w>
m ic
hos pit
A provel</w>
or ange</w>
consequ ences</w>
consul tation</w>
K ep
spec tive</w>
0. 25</w>
lit ax
el se</w>
dar k</w>
H or
col labor
AD R
al ing</w>
de stro
Mix 25</w>
accep ted</w>
T o
micro gram</w>
ro si
a uch</w>
bu y</w>
anti coagul
Eff ects</w>
b on
al idomide</w>
re views</w>
AP TIV
ag el</w>
fa eces</w>
Cap sul
radi ation</w>
tic k
UN E</w>
manu fac
sud den</w>
A ir</w>
t om
fail ed</w>
consul t</w>
A rea</w>
glit azone</w>
al anine</w>
G ard
traff ic</w>
inj ury</w>
magn esium</w>
ide as</w>
se x</w>
P O
bloc king</w>
ad al
val sartan</w>
C ul
oc ular</w>
g on</w>
E .</w>
back ground</w>
rel ations</w>
I B
ar ily</w>
implem ented</w>
C min</w>
go al</w>
y m
occ us</w>
Beta feron</w>
Stre et</w>
C S
E A</w>
e ast</w>
re ich</w>
H om
pl anned</w>
Mix 50</w>
I P</w>
Hung ary</w>
avi d</w>
si rolimus</w>
al y
cy cles</w>
Tl f</w>
1. 4</w>
organ iz
av a</w>
lis pro</w>
thes is</w>
R ome</w>
opportun ities</w>
the tic</w>
grad ually</w>
us i
run ning</w>
techn ologies</w>
og en</w>
et ol</w>
reserv ation</w>
Reb etol</w>
vacc inated</w>
ro g
tic asone</w>
man if
wor t</w>
lin ked</w>
at -
swe ating</w>
obj ectives</w>
B os
I sl
lop inavir</w>
C ast
peri ods</w>
ep id
M e</w>
fur n
C hi
b ann
intoler ance</w>
Glaxo SmithKline</w>
wor se</w>
bloc k</w>
on ing</w>
s ildenafil</w>
pro per</w>
chos en</w>
br al</w>
En ter
in yl</w>
instruc ted</w>
N D</w>
AM UNE</w>
ext ended</w>
los porin</w>
c e
ph oto</w>
Car di
ocon azole</w>
S ocial</w>
Mit tw
multi -
in formed</w>
no .
l as
u ter
is ine</w>
dec isions</w>
Mittw och</w>
hap pen
condi tioning</w>
des pite</w>
s a</w>
ol -
tre s</w>
acc ess
Ital ia</w>
F ederal</w>
Dos age</w>
G o
11. 2016</w>
ad en
s ession</w>
fac es</w>
B M
m ill
calcul ated</w>
3 D
Res ults</w>
fract ures</w>
H g</w>
En g
man aged</w>
P eter</w>
writ ing</w>
ot rig
S ign
al p
S it
under lying</w>
some one</w>
b al</w>
sul f
enc ed</w>
expl ained</w>
em tricitabine</w>
on ary</w>
O pen</w>
mil itary</w>
Gre at</w>
tis h</w>
r at</w>
P sy
id o</w>
ME D
rosi glitazone</w>
vo ice</w>
n t
litax el</w>
i atric</w>
H igh
docum entation</w>
B ur
br and</w>
os ide</w>
Brus sel
pneum onia</w>
R MP</w>
p il
Tur key</w>
orig in
difficul ties</w>
otrig ine</w>
AD E</w>
dou b
V ic
l ayer</w>
S and
D avid</w>
ur a</w>
ra f</w>
APTIV US</w>
view ed</w>
η λ</w>
d ut
2 40</w>
Associ ation</w>
cyto chrome</w>
Hepati c</w>
d um
con flic
oper ations</w>
o .com</w>
el y
prac tical</w>
G li
pi eces</w>
v eg
h l
at tri
ing u
st ory</w>
if y</w>
T rav
ang le</w>
appl ies</w>
amin o
en su
TE D</w>
Th era</w>
ter rit
T T
initi ative</w>
L eg
E EC</w>
O ut
ile z</w>
2 4.
ent an</w>
in ity</w>
gener ase</w>
UL N</w>
A generase</w>
S ea</w>
Co- administration</w>
Ras ilez</w>
repor ting</w>
fol lic
M el
A no
cl er
i. e.</w>
w ash
AL -
chang ing</w>
plas ia</w>
Com pl
descri ption</w>
autom atically</w>
um in</w>
ro ut
sit agliptin</w>
B ft</w>
play ers</w>
bed rooms</w>
regim ens</w>
situ ations</w>
leuk aemia</w>
Fl ex
ï ve</w>
reve aled</w>
medi ated</w>
i for
6 7
life- threatening</w>
car s</w>
0 13</w>
meth yl
hep at
p rise</w>
tig ht
Deut sch</w>
AU TH
susp ected</w>
cis platin</w>
st u
al tered</w>
g in</w>
techn ique</w>
produc ing</w>
U N</w>
J er
sh ock</w>
Peg as
fo il</w>
a er
g ender</w>
lo ading</w>
struc tures</w>
sc ope</w>
prom ote</w>
oste oporosis</w>
0. 001</w>
pass ed</w>
out put</w>
se ud
ot ing</w>
z en</w>
fres h</w>
3. 0</w>
In jection</w>
sim vastatin</w>
W he
C el
most ly</w>
do es
VIR AMUNE</w>
f oot</w>
manufact urer</w>
s outh</w>
fin avir</w>
relev ance</w>
becom ing</w>
re verse</w>
oph en
H EX
exc ep
f all
os k
ec table</w>
under standing</w>
ur red</w>
sin d</w>
isol ated</w>
dil ution</w>
C EL
inhi bits</w>
Christi an</w>
ti al</w>
2 -0
Econ omic</w>
ass ess</w>
pl ays</w>
in i</w>
bod y
az osin</w>
posi tions</w>
Rev ie
R ib
bloc kers</w>
fin ally</w>
RE N
Ph oto</w>
optim al</w>
Vide o</w>
pro grams</w>
read ing</w>
con sec
ber cul
install ed</w>
re place</w>
P ubl
epilep sy</w>
im ag
- on</w>
ol y
se al</w>
bot tom</w>
LABE L</w>
we ak</w>
Jap an</w>
el -
Cont ent</w>
neutro ph
Mab Thera</w>
famil ies</w>
pl a</w>
7 50</w>
manufact uring</w>
St ation</w>
1 12</w>
bed room</w>
hap s</w>
sp ot
y- state</w>
glyco l</w>
acc oun
pos ite</w>
m on</w>
Imm un
a 5
to in</w>
medi um</w>
cit abine</w>
w ave</w>
D S</w>
e c</w>
lo ads</w>
tax onomy</w>
small er</w>
m ass
ap prov
c ophen
Sta r</w>
A us
g ently</w>
a us</w>
0 14</w>
la ke</w>
inv as
ell ose</w>
A ID
acc ept</w>
un able</w>
per form</w>
Treat y</w>
ent ally</w>
introduc tion</w>
b ath</w>
star ts</w>
fe e</w>
S C
particip ants</w>
aut y</w>
El derly</w>
u b</w>
F orm
neu tr
i bility</w>
enc oun
Joh n
CO X
does n</w>
jo ints</w>
La ke</w>
represent atives</w>
perc entage</w>
n om
i tive</w>
Cir c
C r
Aff airs</w>
ter y</w>
M ore
ed ed</w>
K om
a emic</w>
i ans</w>
d ates</w>
can di
mot or</w>
func tioning</w>
i ance</w>
men u</w>
cle ans
mat ure</w>
v en</w>
f ondaparinux</w>
prom ellose</w>
Eg yp
18 4</w>
continu ing</w>
ep hal
Pegas ys</w>
En viron
and ed</w>
h ou
sam ples</w>
2 9.
F requ
hum an
Dri ving</w>
r ule</w>
ex pressed</w>
establ ish</w>
Appl ic
id ent</w>
U k
Th anks</w>
dens ity</w>
12 th</w>
Brussel s</w>
wonder ful</w>
s ed
th inking</w>
reduc tions</w>
est er</w>
M .</w>
m ia</w>
remain ed</w>
Atri pla</w>
A D</w>
og ues</w>
L e</w>
azep ine</w>
e tion</w>
K G</w>
h em
wa it</w>
omy r</w>
fac ilit
ard ed</w>
et r
ar yn
upd ates</w>
J un
3 1.
t ing
st ock</w>
contracep tive</w>
O k
aff ecting</w>
az a</w>
l em
asth enia</w>
B es
alb umin</w>
18 5</w>
t ol
comp ens
ograph ic</w>
co ver
ed ings</w>
th ou</w>
challeng es</w>
ta min
off -
W ester
Az omyr</w>
R econ
cle aning</w>
cir cul
F u
rang ing</w>
om er
na ïve</w>
boo king</w>
draw n</w>
li ber
as tin</w>
al i
Cl ass</w>
th eless</w>
col oured</w>
b os
B oo
9 00</w>
co o
en able</w>
pri ority</w>
h ire</w>
Vill a</w>
lam otrigine</w>
ever theless</w>
in activated</w>
Au str
tel ephone</w>
6 6
R u
pl ans</w>
G ON
iqu es</w>
str ing</w>
leg s</w>
bro ad
b ra
Fre e
c ub
me an
ez ing</w>
ve ill
ir o</w>
Me dia</w>
ov en</w>
continu es</w>
M ari
IN TE
ulc er</w>
ph a</w>
re p
8 7
hear d</w>
sid es</w>
r ane
cic losporin</w>
c ross</w>
ne ither</w>
ap p
m os
X X
Pl ace</w>
p ush</w>
e ous</w>
beta -
Gu id
regist ered</w>
veill ance</w>
flu oro
O s</w>
gel be</w>
ent y</w>
sc en
b ox
clos ure</w>
chall enge</w>
Tr ac
t aneously</w>
p ep
ow er</w>
st ood</w>
Pure gon</w>
dissol ved</w>
enlarg ement</w>
Belg ique</w>
hor ses</w>
For um</w>
advis e</w>
S o
mov ements</w>
ell ular</w>
O X
0. 0</w>
p iv
comm ents</w>
Over all</w>
D eb
Pharmac okine
fin ished</w>
Pre vi
5 ,
less ness</w>
mm 3</w>
adv ance</w>
for tun
I M</w>
sh ire</w>
com ed</w>
antagon ists</w>
D E
0. 00</w>
ard ing</w>
el eg
purch ase</w>
D at
gro unds</w>
sat ellite</w>
therap ies</w>
T ar
bol ic</w>
We ight</w>
chlor ic</w>
an es</w>
mol ec
l ung
iz z
prot oc
rel atively</w>
stop ping</w>
arti sts</w>
in ks</w>
sch em
des ired</w>
acet yl
AU C
che w
T i
Ad d</w>
hol der</w>
vehic les</w>
ophil ia</w>
compl icated</w>
Pol y
ju ice</w>
rh initis</w>
cophen olate</w>
pro of</w>
fl av
S qu
Mun ich</w>
R i
gen ic</w>
tu bercul
organ isation</w>
Glob al</w>
tri g
C lu
h ost</w>
otec an</w>
p el
applic ant</w>
be half</w>
haemat ological</w>
y toin</w>
ast e
ad ding</w>
or phan</w>
ra il
P at
Fr anc
ou ra
pharmaceu tical</w>
antibio tic</w>
ri al</w>
auth or</w>
ne ph
F lo
R educ
T rit
5 9
adap ter</w>
w as
More over</w>
I X
sle eping</w>
Sof tware</w>
regul ations</w>
Hol y</w>
th oro
bri dge</w>
и я</w>
K wik
ul cer
37 2</w>
commit ment</w>
V F
st abil
h arm</w>
form al</w>
in somnia</w>
D 6</w>
te ach
instr uments</w>
vi ro
lim its</w>
Accommod ations</w>
3 60</w>
S uch</w>
c able</w>
ro t
x ia</w>
derm atitis</w>
c and
Cro ati
rec ip
t ask</w>
clus ions</w>
Ch am
resol ved</w>
tur ns</w>
- resistant</w>
d op
foun ded</w>
crip t</w>
cli ents</w>
nas al</w>
wr ite</w>
nt .html</w>
cop y</w>
tox ic
ro x
D er</w>
trans parent</w>
Av astin</w>
fun ds</w>
N AME</w>
hydr ation</w>
d ated</w>
certain ly</w>
E st
Gastro intestinal</w>
control s</w>
GON AL-
ild agliptin</w>
F ab
C ode</w>
iter rane
anti depress
ou ghts</w>
is s
boo ks</w>
Fin ally</w>
perman ent</w>
phy laxis</w>
Vie w</w>
D oh
thromb osis</w>
m as
r ic
and -
images .php</w>
of -
GONAL- f</w>
r hyth
ar a</w>
Ne uro
E esti</w>
P S
B lack</w>
With in</w>
L U
treat ment-
elev ations</w>
ear lier</w>
D om
cl aim</w>
h uge</w>
pat ent</w>
co vers</w>
B or
Incre ased</w>
fundam ental</w>
pi oglitazone</w>
is su
chan nel</w>
pop ulations</w>
al le
c b</w>
Mic ha
conj ug
c f
Web site</w>
S ha
DV D</w>
at e-
fr i</w>
C ept</w>
osk eletal</w>
it a</w>
ar abine</w>
clo t
Ac tive</w>
char acter</w>
ut ing</w>
is ms</w>
Reg ist
mis sed</w>
hy cardia</w>
6 ,
AUTH ORIS
cleans ing</w>
VA X</w>
sulphonyl urea</w>
HD PE</w>
part ner
hydro gen</w>
bron ch
emerg ency</w>
M or
secre tion</w>
particip ation</w>
El ec
psori asis</w>
E very</w>
W at
antic ip
rap porteur</w>
ud in</w>
angi oedema</w>
ri ver</w>
administ ering</w>
suppor tive</w>
ac onazole</w>
ar k</w>
n en</w>
v el
s r
st ands</w>
e g</w>
ul oxetine</w>
tiv a</w>
met al</w>
In duc
piv otal</w>
k i</w>
P A</w>
ne ur
oes oph
it ch</w>
anti hypertensive</w>
D on</w>
mod e</w>
f ro
be poetin</w>
ap pointed</w>
tit anium</w>
0 15</w>
war nings</w>
he ar</w>
demonstr ate</w>
b d</w>
1 27</w>
hyper gly
ic y</w>
s ich</w>
V acc
b a</w>
P S</w>
valu ation</w>
Comm ents</w>
cor onary</w>
provid er</w>
al lo
T ags</w>
I d
surg ical</w>
last ing</w>
applic able</w>
princi ples</w>
si vely</w>
gr aft</w>
al ized</w>
u ti
f an</w>
the -
com prom
Q T</w>
ic als</w>
ex ist</w>
war ning</w>
Cell Cept</w>
word press
In dia</w>
i ers</w>
S pr
tif y</w>
cul oskeletal</w>
bro ken</w>
In struc
A I
un usual</w>
hol ders</w>
ob ject</w>
vis ed</w>
opa usal</w>
paren cy</w>
iterrane an</w>
elec tric</w>
6 -0
ir s</w>
acqu ired</w>
X T</w>
contracep tives</w>
ket oconazole</w>
see ing</w>
Mal ta</w>
5 8
C R</w>
P rit
j e
H erc
Ad ults</w>
th oughts</w>
ha bit
predomin antly</w>
Belg ien</w>
Studi o</w>
im g</w>
dist ributed</w>
F oun
for ces</w>
lab our</w>
di alogue</w>
compati ble</w>
arter y</w>
cat tle</w>
ter ro
En ergy</w>
yl ated</w>
Ma ke</w>
techn iques</w>
t ard</w>
A TA
00 -
func tional</w>
2. 4</w>
c ef
bilirub in</w>
suppor ts</w>
nit ure</w>
3. 3</w>
John son</w>
B ack
Priv ate</w>
F R</w>
ü s
br ary</w>
con stant</w>
g ri
4 3
ail s</w>
spi rit</w>
PR O</w>
amet er</w>
re ality</w>
Can ada</w>
tur ning</w>
clot ting</w>
nucle oside</w>
20 -
AUTHORIS ATION</w>
Kwik Pen</w>
record ed</w>
kal aemia</w>
author ity</w>
cre ating</w>
an th
sustain ed</w>
aph ane</w>
f ot
F ood</w>
Actr aphane</w>
bus in
body weight</w>
dis continue</w>
w in</w>
dor f</w>
respon ded</w>
it yn</w>
P aul</w>
youn ger</w>
M agn
weigh ing</w>
X el
M ay
C ateg
an us</w>
Ex ec
ess or</w>
vir uses</w>
harm ful</w>
dis ci
Sh arp</w>
bl og</w>
ver lag
o tide</w>
Psy ch
surroun ding</w>
hap pen</w>
mus eum</w>
bar gain</w>
M E</w>
liter ature</w>
infra structure</w>
Man ager</w>
trans lation</w>
IS EN
frac ture</w>
est ations</w>
ti ll</w>
D ox
men opausal</w>
H o
um n</w>
antagon ist</w>
H ear
di m
pac litaxel</w>
haz ard</w>
oura ble</w>
loc ations</w>
Τ ηλ</w>
or th
le b
Me an</w>
m L</w>
Cont in
S E</w>
erythropo ie
shap e</w>
TA B
ugh ly</w>
bann er
exac erb
IS T</w>
Z i
del iver</w>
FS H</w>
ov idone</w>
S ever
P ublic</w>
tro ugh</w>
ep sia</w>
del eg
plat form</w>
R adi
short ness</w>
Mem bers</w>
a5 a
EME ND</w>
un ch</w>
j obs</w>
fru it</w>
Pro long
RE LE
wor th</w>
histor ic</w>
prov ision</w>
Wester n</w>
reli ef</w>
l en
innov ation</w>
l ap
fav our</w>
fact ory</w>
ch ain</w>
Mix tard</w>
Med iterranean</w>
id a</w>
corpor ate</w>
verlag .com</w>
dam aged</w>
Xel oda</w>
f inding</w>
appe al</w>
de tail</w>
consec utive</w>
ap est</w>
exam ined</w>
ber t</w>
.g it
l ay
claim s</w>
th um
open x</w>
we ar</w>
progres sive</w>
clo p
cur ren
banner .git
banner.git verlag.com</w>
a5a 750
a5a750 bd</w>
E d
f if
rif ampicin</w>
nel finavir</w>
cop e</w>
ac oxib</w>
R ati
Dan mark</w>
gluc uron
Ca ely
di ed</w>
ö n
A cl
l u</w>
del iver
0 16</w>
ep age</w>
call s</w>
lear ning</w>
MED IC
an ese</w>
Y ear</w>
D or
au f
moun tains</w>
repres ents</w>
mon keys</w>
Pl ac
L o-
top ical</w>
tubercul osis</w>
col i</w>
ure rs</w>
Latvi ja</w>
G ood</w>
establ ishment</w>
D ig
clo ts</w>
ne ar
C an</w>
o es</w>
s ard
practic es</w>
nor th</w>
ap art</w>
power ful</w>
sin ess</w>
is ate</w>
w ur
ti se</w>
prolong ation</w>
investig ation</w>
St al
Lo- Fi</w>
D e</w>
o ate</w>
con clusion</w>
wid th</w>
RE Y
rav a</w>
occ up
enabl es</w>
4. 1</w>
un used</w>
n av
v s</w>
3 50</w>
El i</w>
S ou
fen adine</w>
R ef
experim ental</w>
Rib avirin</w>
Des ign</w>
t es
K on
L ife</w>
b on</w>
g allery</w>
ep tin</w>
NO T</w>
credi t</w>
u z
immun oglob
7 9
t g
Ö ster
em o
remov al</w>
Herc eptin</w>
Bi o
Pro t
or ubicin</w>
c ab
D iv
Wor k</w>
ris peridone</w>
att acks</w>
Su ite</w>
R ue</w>
sur veillance</w>
R h
iz ing</w>
org ans</w>
clar ityn</w>
Neo clarityn</w>
substr ate</w>
A mon
T ex
effec tively</w>
inf ul</w>
cont em
v an</w>
direc tive</w>
t s
medic ations</w>
prov isions</w>
P T
s ources</w>
aut omatic</w>
-F i</w>
а р
g est
es .htm</w>
HP V</w>
lymph oma</w>
Per i
bur ning</w>
L og
ren ia</w>
accid ental</w>
v ary</w>
Nor way</w>
p and
ell er</w>
L ist</w>
invas ive</w>
m as</w>
Mod ule</w>
Micha el</w>
h id
TER S</w>
C ost
heal ing</w>
S R
mis artan</w>
Mw St</w>
tor ic
administ er</w>
H .</w>
depart ment</w>
al ization</w>
ma ster</w>
su peri
dis pen
0 22</w>
re production</w>
2 nd</w>
expos ures</w>
at az
he ating</w>
h n</w>
at ropin</w>
in trac
anaphy lactic</w>
s q
um ps</w>
tour ist</w>
bl urred</w>
ta via</w>
G ad
exper t</w>
arti st</w>
C A</w>
m and
anti- inflammatory</w>
mis sing</w>
D ou
EP C</w>
d ining</w>
clop idogrel</w>
g old</w>
negoti ations</w>
let ter</w>
M ex
cour t</w>
Pro te
b es</w>
ne arly</w>
stead y-state</w>
tis ing</w>
reg ards</w>
ataz anavir</w>
ad in</w>
Caely x</w>
x a</w>
Rem ic
Nov ar
ic -
th r
col le
Instruc tions</w>
M O
quar ter</w>
l af
5 -0
reco vered</w>
dis cover</w>
eff ort</w>
accommod ations</w>
hap pens</w>
5 6
prin ting</w>
ser i
ep i
Ex tavia</w>
P ur
te c</w>
titr ation</w>
diagnos ed</w>
E p
E ar
Ch em
sec tors</w>
anci ent</w>
Wi -Fi</w>
fig ure</w>
dec or
dr inking</w>
gluc os
Doc etaxel</w>
pro mp
P A
el er
y right</w>
ñ a</w>
Restaur ant</w>
N eder
In iti
ac ids</w>
bal cony</w>
Pen fill</w>
Tabl ets</w>
. info</w>
recommend ation</w>
fa ith</w>
repe at</w>
immobil sard
h all
fir m
m ol</w>
direc ted</w>
elec oxib</w>
Novar tis</w>
6. 1</w>
eng ine</w>
Ex peri
ab d
fil ter</w>
be auty</w>
3 F
J ud
brow ser</w>
Th ree</w>
l ich</w>
own ers</w>
ent ations</w>
improv ing</w>
Meta bolism</w>
engine ering</w>
ensi ons</w>
C ef
suc rose</w>
s light</w>
s port</w>
ser ot
fo rec
am une</w>
F E</w>
st en
sam ple</w>
mo vi
carcin oma</w>
arri val</w>
agre ements</w>
10 4</w>
1 28</w>
isch e</w>
mat ters</w>
g one</w>
BLIS TERS</w>
Me hr</w>
Aer ius</w>
bloc ks</w>
ot ed</w>
ad y
E duc
ot es</w>
show ing</w>
bl ad
im er</w>
suppor ting</w>
prescri be</w>
V EL
for ced</w>
4 21</w>
measure ment</w>
Sy mpt
mo fe
mofe til</w>
adj uv
Doh me</w>
ph ine</w>
amino transferase</w>
anti gen</w>
1 11</w>
suic idal</w>
qual ified</w>
ator vastatin</w>
F ind</w>
Applic ant</w>
s ons</w>
C P</w>
B ody</w>
z one</w>
bub bles</w>
M ir
oc rit</w>
W ar</w>
L eu
ob acter</w>
c ast</w>
Techn ology</w>
erm in</w>
P el
opin ions</w>
man ual</w>
muc os
prefer ably</w>
TE R</w>
R e</w>
li ps</w>
in ia</w>
b ought</w>
pleas ant</w>
Bri tish</w>
Se ite</w>
W ol
y al</w>
Exec utive</w>
tre es</w>
Ma i</w>
H and
buff et</w>
con tamin
Y es</w>
stra ins</w>
In de
mm Hg</w>
in stance</w>
res ort</w>
poly propylene</w>
inhal ed</w>
v ildagliptin</w>
long -
fe dipine</w>
IL LED</w>
35 8</w>
F armac
on i
but yl</w>
st ages</w>
38 6</w>
re in
D ef
l ights</w>
ob vi
et ro
' m</w>
sign al</w>
Belg i
gu i
X A</w>
M AN
CH F</w>
R it
T I</w>
A sia</w>
ra w</w>
REY ATA
REYATA Z</w>
- treated</w>
ig ible</w>
compl iance</w>
Öster reich</w>
hear ing</w>
dies es</w>
c al</w>
tre me</w>
Wi en</w>
M G</w>
ly mp
I O
id ays</w>
suppl em
ic ip
advanta ges</w>
Phot os</w>
off ici
gr at
ig en</w>
conjunc tion</w>
U .
lin ed</w>
os ing</w>
fur niture</w>
d ap
child bearing</w>
abd omen</w>
VI AL</w>
S ver
sk ills</w>
gr ap
ent ure</w>
di strict</w>
l on</w>
L ength</w>
ush ed</w>
S pe
EN D</w>
Sub cutaneous</w>
10 2</w>
ev o</w>
es k
at ine</w>
Hol iday</w>
re present</w>
m ist
li x</w>
ur ic</w>
Fil grastim</w>
b ited</w>
it er</w>
boo ster</w>
M rs</w>
2. 1</w>
d ll</w>
TE XT</w>
suscepti ble</w>
C ath
spe aking</w>
mis s</w>
sci ence</w>
r ich
hol ding</w>
Pl ay
eas ier</w>
to s</w>
ingredi ent</w>
r al
me aning</w>
Sing le</w>
am m
Al ex
depos it</w>
ch ills</w>
impl ement</w>
pro ph
Un its</w>
end a</w>
li z
radi ol</w>
archit ecture</w>
Remic ade</w>
heav y</w>
Al uminium</w>
dest ination</w>
con clusions</w>
re placed</w>
Slo v
O ver</w>
gen s</w>
sub mit</w>
b ness</w>
compar ator</w>
character ised</w>
erythropoie tin</w>
d ol
E poetin</w>
commit ted</w>
class es</w>
bre ast
5 4
T N
bar ri
2. 2</w>
dis k</w>
we g</w>
B Y
physici ans</w>
Sver ige</w>
O ri
sched uled</w>
S even</w>
tre n
v ig
20 1</w>
amend ments</w>
breast- feed</w>
c ro
f ishing</w>
inde ed</w>
g lo
er to</w>
T est</w>
re form</w>
approv al</w>
an i
dig oxin</w>
organis ations</w>
IT H</w>
w alls</w>
blad der</w>
fun ding</w>
compl etion</w>
em et
am ic</w>
star ch</w>
lung s</w>
E valuation</w>
c ust
Mus ic</w>
kil omet
ol ol</w>
S ard
consum er</w>
rex ia</w>
and ronic</w>
fr ag
ap preci
S P</w>
activ ation</w>
5 7
perform ing</w>
or ities</w>
z ir</w>
roph y</w>
at ard</w>
am azepine</w>
t ells</w>
Dep art
A mar
sub si
bru ising</w>
analys es</w>
form ations</w>
I L</w>
stre am</w>
5 3
ach et</w>
Tel zir</w>
Clu b</w>
opro st</w>
VAN CE</w>
Belgi ë</w>
hormon al</w>
consequ ence</w>
M ain
m l
A F</w>
z al
Cor por
8 4
ari x</w>
I .</w>
direc tor</w>
ash es</w>
ang el
des k</w>
Pol icy</w>
ci vil</w>
Govern ment</w>
v ul
tain ment</w>
phen ytoin</w>
con version</w>
PRE Z
F ore
there by</w>
Lin ux</w>
MEDIC IN
vi d</w>
tig mine</w>
success fully</w>
rig ht
Pre par
et oric
la w
l p</w>
ap one</w>
VA X
Bul g
mo thers</w>
H al
withdraw n</w>
t us
N erv
bit ol</w>
sch aft</w>
Capsul e</w>
10 1</w>
2. 6</w>
spir it
Un der</w>
cri tical</w>
organis ms</w>
oper ative</w>
Amon g</w>
o estro
13 1</w>
NR TI
10 6</w>
ion ally</w>
9 -0
Or phan</w>
8 ,
ot ten</w>
arter ial</w>
ab ilities</w>
C are</w>
PRE -F
PRE-F ILLED</w>
os ine</w>
B ar</w>
Pl as
etoric oxib</w>
clou dy</w>
In gel
ot inic</w>
az yme</w>
Ano ther</w>
1. 8.
O m
E mail</w>
sk á</w>
dox orubicin</w>
ρ ο
5. 0</w>
ic ill
en tered</w>
develop ments</w>
l an
entr ance</w>
cam pa
wr ong</w>
sw itch
I b
og ram</w>
No .</w>
where as</w>
tr uth</w>
L ar
as su
G ar
H T
opath ic</w>
attemp t</w>
Sec urity</w>
un avir</w>
tradi tion</w>
prev enting</w>
D ays</w>
C ustom
identif y</w>
foet us</w>
Trac le
1 16</w>
educ ational</w>
3 95</w>
sum mar
s o-
re r</w>
Spi rit</w>
PREZ ISTA</w>
modi fication</w>
ut ely</w>
s par
SY RING
fortun ately</w>
0 7
random ized</w>
ar dis
v is</w>
competi tive</w>
e en</w>
tri ax
evalu ate</w>
co ast</w>
n ine</w>
f arm</w>
radi olab
W C</w>
inter face</w>
Ch ild
exper tise</w>
fir m</w>
dri ver</w>
Revie w</w>
M ün
Sim il
HEX AL</w>
ob jects</w>
Sec ret
tac hycardia</w>
U C
P .</w>
und ice</w>
regist ration</w>
L ong
to il
al pha</w>
anti psycho
M T
n t</w>
is sions</w>
fe wer</w>
w ants</w>
ogr astim</w>
D R
our c
reve al</w>
Li etu
terat ogenic</w>
for d</w>
Bed room</w>
open- label</w>
λ λ
pass eng
ev ir
Stand ard</w>
am az
bro ad</w>
U p</w>
spac ious</w>
pr a</w>
201 2-0
near by</w>
Ev ents</w>
gl and</w>
mut ations</w>
IP S</w>
circ ulation</w>
V A</w>
H CV</w>
sp ine</w>
9. 5</w>
hund red</w>
VAX PRO</w>
CD 4</w>
ond ur
L ou
patter n</w>
ting ling</w>
h op
Ex elon</w>
d ay
Sci ence</w>
ver te
ici ans</w>
Apart ments</w>
w arm
initi atives</w>
suscepti bility</w>
an z</w>
G em
ch ann
Neder land</w>
sp end</w>
L L
rog ol</w>
mot or
l ose</w>
il is</w>
hou se
12 ,
B C</w>
z a</w>
flex ible</w>
an ore
Ro oms</w>
N ic
Reb if</w>
c lock</w>
st ress</w>
is o
B e</w>
fem ales</w>
C ong
sh ared</w>
ex pression</w>
j e</w>
- related</w>
stimul ating</w>
M IU</w>
strong ly</w>
st ad
mix ture</w>
A gr
em ed</w>
Program me</w>
prov en</w>
a ise</w>
uc k
gro w</w>
trans parency</w>
s .de</w>
rox icam</w>
m un
CYP2C 9</w>
ex plo
cre te</w>
v entricular</w>
se aled</w>
al is
fo ot
Con vention</w>
Pol ska</w>
OG EN
M ut
h all</w>
L .</w>
conver ted</w>
In ser
Con di
s per
drow siness</w>
c on</w>
anal ogues</w>
ick ness</w>
li fer
a rest</w>
G ame</w>
rel ax</w>
cast le</w>
EN TI
elec tro
anore xia</w>
- off</w>
we red</w>
trem or</w>
dr aft</w>
Tracle er</w>
Es pa
0 20</w>
protoc ol</w>
g est</w>
g ab
E UR
low est</w>
evir apine</w>
Ch ang
pris es</w>
h u
cli ent</w>
v ag
comm ittee</w>
B est</w>
OGEN ATE</w>
K OGENATE</w>
om b
renew al</w>
paren ts</w>
ar i</w>
star s</w>
tim ate</w>
6 4
3 -0
er on</w>
u k</w>
es tic</w>
8 000</w>
sp are</w>
l l
dis played</w>
0 18</w>
BY ET
P aste
pol ysorbate</w>
substanti al</w>
comm and</w>
expl an
vot es</w>
Rap amune</w>
Av ail
v ax</w>
re as</w>
f it</w>
D ut
jo ined</w>
oll en</w>
b anks</w>
ap o</w>
pa inful</w>
diffe ren
35 1</w>
dom y
E ver
W est
W ITH</w>
r ue</w>
top ics</w>
H ell
ot echn
am -
produc es</w>
it or
disturb ance</w>
R ol
sw allowing</w>
ash ion</w>
num bness</w>
dem ands</w>
ac il</w>
ag itation</w>
4. 0</w>
sit ting</w>
man age</w>
3 f
- to-
trans amin
u tionary</w>
fig ures</w>
experienc ing</w>
In di
J us
ampou les</w>
Di ff
A g</w>
en rolled</w>
Techn ical</w>
ZY PRE
B AS
Ch ol
cler osis</w>
ul ated</w>
ol ar</w>
if ic</w>
fast er</w>
clud e</w>
as .
hab domy
z ol
H u
streng th
acc eler
St at
los artan</w>
ol ed</w>
form ing</w>
ibr is</w>
laf ax
reg ister</w>
pro phylaxis</w>
ycl ine</w>
etz t</w>
tic ular</w>
Vol ibris</w>
An gi
strateg ic</w>
ud ra
ple ased</w>
D ol
C EL</w>
thrombo em
g li
ZYPRE XA</w>
A ri
my algia</w>
H b
ansop raz
ami pril</w>
exist ence</w>
ren ess</w>
tr ying</w>
habdomy olysis</w>
tic a</w>
s and
. p
centr alised</w>
al an</w>
oxy gen</w>
el ement</w>
al ism</w>
triax one</w>
signific ance</w>
fr ame</w>
ist a</w>
Dec ision</w>
AL TA</w>
comp ound</w>
S ize</w>
VF END</w>
ph il
announ ced</w>
V imp
Ch o
off ices</w>
F R
enti a</w>
M oun
ail ing</w>
C ERA</w>
an der</w>
ren e</w>
in adequate</w>
spe ech</w>
Vimp at</w>
sw itch</w>
B ab
mid azolam</w>
H Be
out door</w>
initi ating</w>
hep arin</w>
as ep
consum ers</w>
Ok tober</w>
Res p
exc l</w>
MIR CERA</w>
S en
accid entally</w>
democr acy</w>
suppl ements</w>
flu oxetine</w>
K a
Experi ence</w>
on ates</w>
omy cin</w>
in come</w>
tel misartan</w>
o intment</w>
wa iting</w>
R an
id en
00 0
12. 11.2016</w>
1A 2</w>
S aint</w>
bol us</w>
g eb
O x
se em</w>
er ship</w>
b is</w>
lafax ine</w>
it rac
cam era</w>
mal es</w>
E M
Lietu va</w>
lead er</w>
ch t</w>
h ot
Qu es
CYP2 D6</w>
S ide</w>
r ating</w>
eth asone</w>
bur n</w>
v oc
tem por
di ameter</w>
classi c</w>
ste in</w>
ow ner</w>
Or der</w>
e uro</w>
Medi an</w>
k el</w>
Nov o</w>
ner ve</w>
lands cape</w>
13 5</w>
agricul tural</w>
ad ef
pharmac ological</w>
ord inary</w>
dep end</w>
AID S</w>
prescri bing</w>
mechan isms</w>
2 80</w>
enh anced</w>
def ects</w>
fl ight</w>
0 17</w>
Kep pra</w>
defa ult</w>
C M
thous and</w>
Gr and</w>
A venue</w>
ur s</w>
al ter</w>
K et
icon vex</w>
dum my</w>
benz oate</w>
Z en
St art</w>
Dist ribution</w>
L and
exp ect</w>
BYET TA</w>
Sant a</w>
P op
el e</w>
F O
T am
fo rest</w>
g -
so- called</w>
1 c</w>
ov al</w>
roc k</w>
Pl at
od al</w>
ex clusive</w>
particip ate</w>
inten sity</w>
Hepati tis</w>
R am
D O
substr ates</w>
TR I</w>
Z ev
ha us
nam ed</w>
malign ancies</w>
possi bilities</w>
pass ing</w>
b iconvex</w>
ro b
our selves</w>
Wh o</w>
mu ta
Proc ed
compar ing</w>
ac .
10 5</w>
am ps</w>
tit ude</w>
pre- existing</w>
ev ol
LE TS</w>
Mar tin</w>
wur de</w>
0 2
bir ds</w>
dispos ed</w>
MAR K
Head ache</w>
A k
bi ke</w>
diagnos tic</w>
ve c</w>
wat er
P hy
fast ing</w>
n is</w>
fil m
ul y</w>
thrombo tic</w>
spec ially</w>
re pair</w>
per haps</w>
itrac onazole</w>
N atur
K B</w>
NRTI s</w>
3 D</w>
ex act</w>
preci pit
S or
A gre
CEL SEN
MEDICIN AL</w>
Ch apter</w>
ing ing</w>
ib andronic</w>
special ist</w>
F o
s ell</w>
gl u
G -
C ri
ak er</w>
tif ication</w>
2. 3</w>
con solid
4 -0
res c
hypergly caemia</w>
ov a</w>
Amar ill
dis car
Th ank</w>
radi o</w>
m ood</w>
Ab ra
cover ing</w>
organ ization</w>
ill ustr
d al</w>
CELSEN TRI</w>
gem citabine</w>
3 rd</w>
sp p</w>
STR IPS</w>
mar ks</w>
cham ber</w>
B raz
S hi
Respon se</w>
Croati a</w>
S eb
Me eting</w>
s achet</w>
mov ing</w>
administr ative</w>
Neup ro</w>
0 8
As s
A x
odi c</w>
neph ro
ad hes
stic k</w>
pharmac ology</w>
F estival</w>
0 1
Addi tionally</w>
the e</w>
35 7</w>
ta gs</w>
C lop
Vie ws</w>
lab elling</w>
Rap inyl</w>
re jection</w>
9 7
inter medi
. ch</w>
La w</w>
ir is</w>
di hydrate</w>
cyt otoxic</w>
b and
manufact urers</w>
b id</w>
off- white</w>
deter i
t rol
individ ually</w>
S how</w>
relig ious</w>
fav ourable</w>
Sch ool</w>
L ansopraz
sp as
proce edings</w>
am ing</w>
end it
X ol
co ok
Lin ks</w>
Fac to</w>
develop s</w>
ard enafil</w>
id ation</w>
tion ed</w>
Re Facto</w>
b our</w>
I ON
sr c</w>
ici ous</w>
ocy te</w>
Mark et</w>
Zev alin</w>
Categ ory</w>
ey el
sor ption</w>
sal icy
tri me
u d</w>
fe ar</w>
d f</w>
Gli vec</w>
4 27</w>
Clop idogrel</w>
conduc t</w>
est ing</w>
i pr
tre e</w>
Rom ania</w>
Austr alia</w>
y ou
sol uble</w>
no on</w>
pres sing</w>
In j
ki ren</w>
Fin ancial</w>
EX UB
1. 6</w>
w ro
f ant
199 4</w>
ost er
doc tors</w>
Isl ands</w>
pr anavir</w>
ter al</w>
ir regular</w>
. c
there after</w>
Prof .</w>
H A
Med ical</w>
democr atic</w>
Ch ange</w>
W y
r as
B ol
opa que</w>
ow ing</w>
reas on
10 8</w>
AC T
ja undice</w>
BO X</w>
lin ear</w>
ar tis
15 -
bl ing</w>
did n</w>
y ar
st yl
oid al</w>
Tem odal</w>
Mid dle</w>
Con sul
en gl
Xol air</w>
In te
chew able</w>
i ary</w>
indic ating</w>
dysp epsia</w>
C A
Ingel heim</w>
T op</w>
www. ypages
1 15</w>
expl ain</w>
n -
B ID</w>
flu ticasone</w>
cl ub</w>
any one</w>
omet a</w>
p ink</w>
a ks</w>
erm al</w>
improv ements</w>
chec ked</w>
jour ney</w>
Ro che</w>
Z ometa</w>
Espa ña</w>
tiv ation</w>
inf li
anal ges
sp ent</w>
Uk raine</w>
An dre
attri bu
g otten</w>
al ty</w>
Min istry</w>
D uration</w>
b ones</w>
ac u
Heal thcare</w>
14 6</w>
rol l</w>
ol d
over view</w>
inf er
sw allowed</w>
be i</w>
Sever al</w>
In c</w>
ox one</w>
membr ane</w>
S ar
triglycer ides</w>
F IX</w>
exist s</w>
meta x</w>
Sard inia</w>
renew ed</w>
attr active</w>
exam ples</w>
av en
op ril</w>
ho c</w>
pancre as</w>
S L
p. m.</w>
lo ts</w>
Pro metax</w>
jo in</w>
z in
coord ination</w>
four th</w>
out standing</w>
ST O
refl ect</w>
princi p
fir st-
p seud
tablet ten</w>
ir udin</w>
des ire</w>
P ain</w>
MA O
pe ac
ver sions</w>
discar ded</w>
fre ez
pres ents</w>
S US
Manufact urer</w>
in corpor
Z er
10 3</w>
F ather</w>
ed er</w>
minim al</w>
clus iv
2 30</w>
pe di
ne gl
prof it</w>
re pl
i as</w>
consider ing</w>
al ter
wor ding</w>
c elecoxib</w>
om i</w>
Nerv ous</w>
op s</w>
epilep tic</w>
ÿÿÿÿ ÿÿÿÿ
salicy lic</w>
0 9
C li
3 1st</w>
SU M
p ping</w>
ur l</w>
hall uc
v et</w>
TAB LETS</w>
M ann
o tic</w>
Ser ious</w>
sur v
Syst ems</w>
fe es</w>
re presented</w>
mater nal</w>
D a
syn thesis</w>
f at
F ig
territ ory</w>
ke eping</w>
instr ument</w>
coun ter
G en</w>
sequ ently</w>
ρο ς</w>
ent a</w>
P ra
ur ies</w>
b is
eleg ant</w>
le uc
encoun ter</w>
collabor ation</w>
organ ic</w>
inter vention</w>
go als</w>
5 N
Egyp t</w>
i ja</w>
ch ick
Wel come</w>
c el</w>
and ing</w>
L iver</w>
ne tic</w>
chann els</w>
C hair
od er</w>
anticip ated</w>
Al u</w>
s la
cr uc
www. skepticalscience.com</w>
Hear t</w>
partner ship</w>
Syn drome</w>
6. 5</w>
L EN
B rit
par oxetine</w>
cor ner</w>
an osine</w>
we igh</w>
ti me
and a</w>
ev ent
3F taxonomy</w>
Ty rol</w>
sulph ate</w>
no tic
h at</w>
clar ithromycin</w>
elev ation</w>
w ing</w>
mov ed</w>
il ing</w>
qu ick</w>
Tit anium</w>
www. g
201 1-0
sw ab</w>
exam ethasone</w>
issu ed</w>
Presid ency</w>
w ife</w>
P as
re nov
ver s
immun isation</w>
ent ora</w>
Pre is</w>
dysp noea</w>
her bal</w>
L angu
st o
kin ase</w>
emph as
or -
Deb ian</w>
incre as
x -
ret ino
b erg
la ws</w>
mag azine</w>
X O
li e</w>
men ing
do ors</w>
ар ия</w>
pharmac odynamic</w>
6. 2</w>
in ib</w>
ET ING</w>
con crete</w>
coll ected</w>
I ON</w>
ati on-
Fil m</w>
b right</w>
ung s
ug g
Z al
K -
Mo on</w>
e -</w>
Eff entora</w>
O pen
B in
Col l
л г
cl .</w>
AT A</w>
cit rate</w>
Pr in
erro rs</w>
Pal est
at ase</w>
The ir</w>
Pati ent</w>
Б ъ
un k</w>
Ben e
correc tly</w>
exp ect
лг ария</w>
ύ π
m erc
In stitu
2 18</w>
det ection</w>
K ing</w>
mess ages</w>
ink l</w>
con genital</w>
SUM MAR
R ights</w>
in- use</w>
boo k
lyophil isate</w>
log ic</w>
asp ir
An t
aim ed</w>
top otecan</w>
Plas ma</w>
ar ip
v ital</w>
exp endit
ul ence</w>
po int
n ess
bl ood
Tr ade</w>
Per son</w>
neutroph il</w>
consti t
subsequ ently</w>
Бъ лгария</w>
is m
olog ically</w>
7 ,
arip ip
regard less</w>
cu isine</w>
B ond
F os
sol d</w>
ent ac
Austri an</w>
harmon isation</w>
ach t</w>
B ir
20 5</w>
1. 7</w>
fin ancing</w>
aim s</w>
4 00
m s
Me as
cap able</w>
ring er</w>
O ld</w>
E X</w>
it age</w>
N y
' ve</w>
res erve</w>
al ist</w>
Bud apest</w>
Fam ily</w>
T ru
λλ ά
pe l</w>
sup pression</w>
ogen ous</w>
esk á</w>
acc es
M as
dem entia</w>
cy clo
0.00 01</w>
om it</w>
fal se</w>
dis charge</w>
Cat alogue</w>
c t</w>
dang erous</w>
con st
MARK ETING</w>
Cal cium</w>
Wi Fi</w>
enti t
sp inal</w>
Cost a</w>
h ives</w>
fl at
fr on
stat ements</w>
firm ly</w>
r habdomyolysis</w>
Prolong ed</w>
Rem eron</w>
discus sions</w>
alp ha
lead ers</w>
V -
be aches</w>
assem bly</w>
E astern</w>
val ley</w>
8 50</w>
epi ride</w>
enc ephal
Ever y
placebo- treated</w>
dist rib
ca th
H D</w>
In no
tre nd</w>
Nor ge</w>
V EN
17 5</w>
rhyth m</w>
N A
Depart ment</w>
lact ating</w>
ing ual</w>
gent lem
O r</w>
0 19</w>
le th
great est</w>
Fer ta
Ferta vid</w>
tal king</w>
Mex ico</w>
combin ations</w>
H 5N
dec is
Zi agen</w>
urb an</w>
Bo eh
ic ht
Ab sorption</w>
micro crystalline</w>
ex press</w>
G arden</w>
antidepress ants</w>
for c
immunosup pressive</w>
correc ted</w>
Hist ory</w>
8 6
Me er</w>
E f
fel t</w>
Op in
A 1c</w>
ex treme</w>
bel ong</w>
H an
rout ine</w>
os oph
di v
gu ard</w>
g y
5. 5</w>
2 25</w>
ut yl</w>
37 7</w>
ens uring</w>
employ ed</w>
fe ren
agon ist</w>
new ly</w>
ed a</w>
et ter</w>
199 2</w>
with draw</w>
R ash</w>
ad y</w>
Gre ek</w>
hi er</w>
rail way</w>
D A</w>
Amarill as
d uk
EXUB ERA</w>
str asse</w>
under taken</w>
ac rit</w>
Ret acrit</w>
orm on</w>
struc tural</w>
ec k
observ ation</w>
Pharmacokine tic</w>
J our
U R</w>
sw allow</w>
in ian</w>
spon taneous</w>
ev il</w>
en th
a head</w>
ul atory</w>
0 49</w>
Su per
know s</w>
ti m</w>
T arc
rec eption</w>
sett ings</w>
br ady
adef ovir</w>
wh at
P ack
d uloxetine</w>
Sus pension</w>
K R
require ment</w>
f ish
A th
tet anus</w>
la id</w>
str ug
ari at</w>
ess entially</w>
ec tly</w>
Ad ult</w>
1. 8</w>
em ir</w>
publ ication</w>
P G</w>
a ren
199 3</w>
E l</w>
nucle ar</w>
increas ingly</w>
17 2</w>
w oo
pack ages</w>
l ay</w>
Liv ing</w>
B ra
ter fenadine</w>
res us
y t
sem in
TI N</w>
L ith
U ser</w>
vir ase</w>
C epl
hol idays</w>
Cepl ene</w>
mus cular</w>
eg a</w>
organ ised</w>
Ma il</w>
Ge org
gu t</w>
Novo Rapid</w>
no ver</w>
partic ulate</w>
ic king</w>
thoro ughly</w>
ro utes</w>
st en</w>
it -
en erg
Child -P
de ad</w>
co ating</w>
radio activity</w>
alb um</w>
vari able</w>
absol utely</w>
201 0
us ia</w>
ly n</w>
Cont rol</w>
o ts</w>
SY S</w>
Nex Gen</w>
sub -
Industri al</w>
par a
a ud
tz -
Ac ti
ADR s</w>
o z</w>
Hb A1c</w>
Flex Pen</w>
vas cul
c row
- 15</w>
S uc
thre e-
TER E</w>
3 75</w>
oper ational</w>
n one</w>
G 3</w>
stim ulation</w>
Hel ix
En joy</w>
TA XO
R a
Sil apo</w>
oun ge</w>
Y Y
TAXO TERE</w>
ö l
electr icity</w>
alle l</w>
L ive</w>
gre y</w>
tig o</w>
o v</w>
Induc t
Helix ate</w>
net works</w>
PAC K</w>
v ar</w>
cle an
tri ed</w>
ubl in</w>
aripip razole</w>
for gotten</w>
v ement</w>
trans crip
pol ice</w>
ER S</w>
199 0</w>
f alls</w>
C la
H old</w>
08. 2015</w>
tre mul
st ing</w>
acces sible</w>
Jus tice</w>
Bene FIX</w>
ag raf</w>
trans formation</w>
n u
nic otinic</w>
n atal</w>
busin esses</w>
Up date</w>
R .</w>
in clusive</w>
et ra
dec line</w>
hol ds</w>
ve z
In virase</w>
35 9</w>
hand le</w>
form ulations</w>
di vision</w>
dep th</w>
ocyt osis</w>
consider able</w>
ύπ ρος</w>
st av
n esses</w>
carb on</w>
pro j
g a</w>
entac apone</w>
tro ph
Adv agraf</w>
c up</w>
CI A</w>
tow ard</w>
R ental</w>
Comb ination</w>
li th
E ye</w>
carb amazepine</w>
as -
t ours</w>
1 200</w>
2 60</w>
equival ence</w>
14 4</w>
le g</w>
tremul ous
contem porary</w>
w ed</w>
AA AA
V E</w>
p ale</w>
tus sis</w>
mun icip
excep tional</w>
14 2</w>
tremulous .net</w>
ob ile</w>
natur ally</w>
Induct Os</w>
ugh ter</w>
ot oc
C ases</w>
ath yro
w indows</w>
fos amprenavir</w>
Tarc eva</w>
vac ation</w>
r ated</w>
aut o
Tas mar</w>
indic ates</w>
F ile</w>
p a</w>
are s</w>
Child-P ugh</w>
x x
carcin ogenic</w>
0 6
eng ra
sleep iness</w>
fr action</w>
Resp iratory</w>
tr ust</w>
2. 7</w>
n at
s in</w>
pur su
li ons</w>
Pro ject</w>
te en</w>
Dut ch</w>
rang ed</w>
ION SYS</w>
S ON</w>
isol ates</w>
cont acts</w>
Comp et
t ent</w>
Foun dation</w>
Novo Seven</w>
T c</w>
B A
Th ose</w>
sk eletal</w>
perf ectly</w>
Avail able</w>
ag ency</w>
2. 8</w>
Tw in
restric ted</w>
load ed</w>
y i
schem e</w>
ti a</w>
lim b</w>
it ter</w>
Al tern
s ph
Su omi</w>
ta r</w>
abl es</w>
D im
amin o</w>
g ate</w>
conflic t</w>
som atropin</w>
sch ools</w>
an a.
Tur k
h un
tax es</w>
3 000</w>
ta dal
rap h</w>
b ile</w>
Ma p</w>
w ound</w>
ster oidal</w>
ic tion</w>
2 20</w>
Ac ute</w>
bar s</w>
O ro
Boeh ringer</w>
r DNA</w>
Pos sible</w>
e on</w>
cr aft</w>
ax is</w>
addres sed</w>
T our</w>
Pre vention</w>
essi ons</w>
corticoster oid</w>
circul ating</w>
big gest</w>
anticoagul ants</w>
O X</w>
opi oid</w>
m ium</w>
ex clusiv
bloc k
wro te</w>
stop s</w>
p ut
L or
e iv
Th omas</w>
as y
sugg ested</w>
L ight</w>
C ere
tadal afil</w>
Ma j
p ure</w>
ra ise</w>
Wh ich</w>
M ess
d ly</w>
Jo int</w>
gentlem en</w>
K un
3 00
oxif ene</w>
infli ximab</w>
com .
L atin</w>
w ird</w>
St ut
45 76</w>
ag encies</w>
dish es</w>
inhal ation</w>
sig Free
am bi
W ell</w>
7 8
16 1</w>
fac tion</w>
compris ing</w>
sigFree Id
pro x
dr yer</w>
shor tly</w>
Am ster
dist inc
In sul
ac ept</w>
B ad</w>
E lev
carcin ogenicity</w>
sol ar</w>
it ely</w>
sun light</w>
idi opathic</w>
Pri or</w>
r ying</w>
P la
35 3</w>
Ε λλά
ven lafaxine</w>
tour ism</w>
lif t</w>
at eral</w>
Lam ic
3f cf
cal date</w>
ac. hr</w>
tz- otoc
tz-otoc ac.hr</w>
sigFreeId 3fcf
sigFreeId3fcf 76
sigFreeId3fcf76 4576</w>
ic caldate</w>
b ial</w>
par a</w>
co w</w>
accord ingly</w>
Bond enza</w>
nar row</w>
Chair man</w>
Mab Camp
MabCamp ath</w>
vi olence</w>
E T</w>
EI B</w>
siz ed</w>
peri od
bl i
T en
ME NT</w>
15 1</w>
sou l</w>
ab road</w>
quin ol
Rom an</w>
H U
vide os</w>
bo ats</w>
str a</w>
as .net</w>
cou ple</w>
Th yro
v ardenafil</w>
Lamic tal</w>
vez ide</w>
pancre atitis</w>
Kar vezide</w>
Pr ague</w>
hel p
Un desirable</w>
b ach</w>
laun ch</w>
de ze</w>
ID E</w>
all -
Rit onavir</w>
recip i
p up
f its</w>
e an</w>
M r.</w>
Stal evo</w>
r i</w>
par aesthesia</w>
fibro sis</w>
end omet
In traven
AME T</w>
enh ance</w>
C ML</w>
Pure vax</w>
surroun ded</w>
streng then</w>
bl ank</w>
E lim
F el
1 26</w>
re viewed</w>
os ensi
Rom â
arr ay</w>
Plac eb
terro ris
P ap
ag on</w>
A PE
op ic</w>
flo xacin</w>
confir m</w>
sp ot</w>
oc et</w>
k it</w>
p un
D ublin</w>
happen ed</w>
é s</w>
person nel</w>
Acl asta</w>
furn ished</w>
L iter
S ere
is -
Rap tiva</w>
mix ing</w>
expendit ure</w>
d examethasone</w>
My ocet</w>
0. 75</w>
re aching</w>
defin ition</w>
an ol</w>
inter ior</w>
prof en</w>
J .</w>
em issions</w>
Româ nia</w>
up take</w>
initi ally</w>
R equ
st ones</w>
ma y
uro xim
saf ely</w>
inter f
pul l</w>
imm unity</w>
M i
suic ide</w>
iz oph
9 ,
eu .</w>
confir mation</w>
3. 1</w>
Hel ic
Di arrhoea</w>
B each</w>
col ours</w>
li ved</w>
end or
Inf ections</w>
ere ly</w>
ulcer ation</w>
Christ mas</w>
to id</w>
presid ent</w>
res ear
erm an</w>
bat ch</w>
Back ground</w>
se gment</w>
pre dn
c ess
intell ig
H A</w>
me at</w>
od ef
sco res</w>
D .</w>
nutri tion</w>
spac es</w>
interf ere</w>
Ac tiv
C s</w>
SUMMAR Y</w>
ensu res</w>
C l</w>
2010 -0
prote in
Na usea</w>
CN S</w>
AM P
un stable</w>
Amster dam</w>
m obil
ab u
ure ly</w>
top ic
2 1
d inner</w>
toler ance</w>
N evertheless</w>
hydroxy benzoate</w>
201 5-
ic on</w>
coo king</w>
L Y
Jap anese</w>
i en
guaran te
psych iatric</w>
el in</w>
M ot
3. 2</w>
Inf anrix</w>
Detail s</w>
D izz
vari ation</w>
simul taneously</w>
4. 7</w>
at re</w>
C it
os sed</w>
exp an
Phy s
d ress</w>
const antly</w>
stav udine</w>
mechan ical</w>
I ra
Qu ote</w>
M SD</w>
δ α</w>
i P
Ear th</w>
st ations</w>
min eral</w>
an tim
Pre -
L Y</w>
An gel
is er</w>
spl it</w>
cat alogue</w>
erm s</w>
un ion</w>
ta z
gal act
con serv
box es</w>
inter act</w>
R iver</w>
K o
Dizz iness</w>
vari ability</w>
pum ps</w>
x ib</w>
od en
s ent
Post -
con d
im umab</w>
Intraven ous</w>
ru g</w>
pan or
ha us</w>
Mar ia</w>
H CT</w>
0 21</w>
m i</w>
invol vement</w>
dec la
Luxem burg</w>
lin ing</w>
ung in</w>
ster n</w>
br ings</w>
W I
ati de</w>
transcrip tase</w>
af ungin</w>
em ul
L os
inf ant</w>
OP A</w>
6. 3</w>
2 31</w>
zi vir</w>
s s
in tensive</w>
Tri zivir</w>
R T</w>
spec i
mul tic
li brary</w>
Nor vir</w>
Gre en</w>
conn ections</w>
X -
de gre
lic ens
brow n</w>
Inno Let</w>
t .
la -
esc a</w>
el a</w>
neuro logical</w>
ta m</w>
episod e</w>
S tra
por ted</w>
superi or</w>
mis es</w>
M ON
k illed</w>
por tion</w>
quanti ty</w>
S em
Pro top
P F
vi va</w>
v enti
dy namic</w>
for th</w>
recogn ised</w>
r y
conv inc
G lu
f y</w>
C he
dop amine</w>
no tes</w>
pr amipexole</w>
46 4</w>
port fol
sk illed</w>
et tes</w>
24- hour</w>
retino in</w>
mar t</w>
gener alised</w>
Loc al</w>
Chol est
govern ments</w>
f estival</w>
3. 6</w>
sw ollen</w>
Protop y</w>
vas tigmine</w>
ri vastigmine</w>
est radiol</w>
Soci ety</w>
H ex
K ore
single- dose</w>
3 31</w>
H R</w>
fi -
log 10</w>
ain ting</w>
forec ast</w>
Par king</w>
paren teral</w>
conn ect</w>
A .
im possible</w>
s clerosis</w>
compar ative</w>
tro pin</w>
Ab se
convul sions</w>
V it
17 1</w>
St ev
L ink</w>
Agre ement</w>
den ly</w>
I ch</w>
G E</w>
Edi tion</w>
fam ili
AB IL
L V</w>
dispos able</w>
war r
inv ited</w>
diure tic</w>
Neo Rec
origin ally</w>
ly -
Sal z
S F</w>
Jul i</w>
Sere tide</w>
t ual</w>
comm its</w>
Abse amed</w>
IS T
R ou
Pharmaceu tical</w>
tel ev
ul in
dre ams</w>
disci pl
um es</w>
Re ference</w>
eb ook</w>
G N
B row
sep sis</w>
dar unavir</w>
char ged</w>
C ub
ch air
Ger man
par athyro
doub t</w>
res sive</w>
20 3</w>
man ager</w>
ent h</w>
smo oth</w>
ell es</w>
verte bral</w>
glyco protein</w>
ass ist</w>
resid ence</w>
sh ell</w>
y es</w>
Stut tg
IN C
la dies</w>
ist an</w>
Secon d</w>
oo k
ex tra
IC H</w>
9 5
sub s
st a</w>
ch ron
dr on
NeoRec ormon</w>
18 -
ar gu
ti red</w>
ol a</w>
yn ast
achiev ing</w>
Elim ination</w>
eg gs</w>
Sm all</w>
gir l</w>
Afr ican</w>
w ild
Z ur
Detail ed</w>
15 7</w>
fac ing</w>
flu -like</w>
mp tom</w>
Therap y</w>
G et</w>
tu b</w>
if lu</w>
asep tic</w>
Bon viva</w>
deb ossed</w>
sz á
P y
MA TION</w>
Educ ation</w>
er n
vi tis</w>
er ness</w>
cam p</w>
Bulg aria</w>
fe br
ad ren
DL -
inter fer
febr ile</w>
claim ed</w>
artis tic</w>
Condi tions</w>
su ite</w>
n ations</w>
w ishes</w>
streng ths</w>
pack ed</w>
ari um</w>
Deutsch e</w>
b ia</w>
Re f</w>
N on
L og</w>
IN FOR
4. 9</w>
ox y</w>
Fore ign</w>
minim ise</w>
haem ophilia</w>
ec itabine</w>
contamin ation</w>
arth r
run s</w>
M aster</w>
per tussis</w>
immunoglob ulin</w>
f lower</w>
N orm
v ea</w>
reserv ed</w>
X IN</w>
p or</w>
degre es</w>
t ue</w>
ad o</w>
po ver
lith ium</w>
abu tin</w>
Rel ease</w>
adop tion</w>
ro r</w>
id ism</w>
F IC</w>
he imer</w>
sti ff
ord ination</w>
s land</w>
Con cer
rh osis</w>
gly col
g ard
Fil m
antic ancer</w>
and em
Dis orders</w>
b ags</w>
guaran tees</w>
pleas ure</w>
Is land</w>
TA N</w>
Laborat ories</w>
consist ing</w>
Ab bot
200 9-0
la h</w>
Sup port</w>
arthr algia</w>
Twin rix</w>
c k</w>
hydro chloric</w>
f ashion</w>
L ow</w>
bre ath
lo idal</w>
ru it</w>
dilu ent</w>
z il</w>
1 14
CY P</w>
Kar vea</w>
en em
us al
s ore</w>
in put</w>
ecti ous</w>
b inds</w>
comp ounds</w>
work shop</w>
rel ess</w>
pres entations</w>
ven ous</w>
C C
in habit
p yl
og n
ó n</w>
fu el</w>
h en</w>
WH O</w>
Mut ual</w>
AN S
Gu ests</w>
1. 25</w>
laun ched</w>
INFOR MATION</w>
audi o</w>
th igh</w>
Pro v
K A</w>
16 8</w>
Pro per
Abbot t</w>
Ind inavir</w>
Trav el</w>
SYRING E</w>
relap se</w>
ak es</w>
ri sts</w>
relax ing</w>
colour ation</w>
Helic obacter</w>
Acc ess</w>
ex port</w>
Micro soft</w>
enti rely</w>
anc h</w>
bow el</w>
St atis
Sloven ija</w>
sor bitol</w>
7 4
ain ts</w>
hom es</w>
H -
Ann ual</w>
imm er</w>
enter prises</w>
E B
cir rhosis</w>
separ ately</w>
d ance</w>
Thro ugh</w>
Sloven ia</w>
o ti
or szá
e ties</w>
B av
ti pranavir</w>
ri d
oly tic</w>
6 8
organ ized</w>
IF Y</w>
pain ting</w>
topic .php</w>
op position</w>
wat ers</w>
i i</w>
at o</w>
ip olar</w>
A ge</w>
G S
19 th</w>
par allel</w>
10 7</w>
subsi di
flow ers</w>
fac ility</w>
ABIL IFY</w>
es h</w>
Κ ύπρος</w>
S ite</w>
exclusiv ely</w>
is ely</w>
arm ing</w>
view topic.php</w>
s ary</w>
care er</w>
5 00
bat tery</w>
B ru
fe ed
TIV A</w>
Tam iflu</w>
acetyl salicylic</w>
y ear
ang er</w>
EP T</w>
und ings</w>
ag ia</w>
b y
W ell
inf usions</w>
wer den</w>
pr us</w>
post menopausal</w>
otechn ology</w>
3 20</w>
sev erely</w>
gl im
1 23</w>
N utro
mag netic</w>
fit ted</w>
Opti Set</w>
0. 5
r up</w>
f lip
facilit ate</w>
po oled</w>
or ial</w>
rav astatin</w>
T ORIS
consti tu
P ac
train ed</w>
spirit ual</w>
ron ate</w>
o or</w>
Inv est
sp a</w>
tar gets</w>
phen om
mean ing
Rep res
C ard</w>
ol ing</w>
coll ect</w>
get ary</w>
Lis bon</w>
usal em</w>
de fer
tabl y</w>
lat ter</w>
inser t</w>
consult ant
vis ited</w>
prev ents</w>
foun dation</w>
Pu erto</w>
i a
ed .</w>
P ul
Pu h</w>
flex ibility</w>
a pl
s ought</w>
Appro ximately</w>
orszá g</w>
tox in</w>
ost atic</w>
z um</w>
p ine</w>
glim epiride</w>
scre w</w>
Ex per
sol e</w>
alk aline</w>
nitro pe</w>
Om nitrope</w>
gr an</w>
c iv
f igh
exc eption</w>
Cardi ac</w>
Sol iris</w>
sq m</w>
of i</w>
con currently</w>
typ ically</w>
stra ße</w>
cre ative</w>
AR D</w>
enc ia</w>
15 2</w>
ent e</w>
ent ec
exten sively</w>
beg ins</w>
ben ign</w>
nec rosis</w>
fibro zil</w>
prec ise</w>
18 3</w>
V o
F RO
Mün chen</w>
ex or</w>
co- infected</w>
Jer usalem</w>
Com p</w>
Dis ease</w>
multi pl
loc ally</w>
Con sequently</w>
Zal asta</w>
Magn esium</w>
Sh ould</w>
Bot tle</w>
sor t</w>
az e</w>
abl ed</w>
gol f</w>
2 19</w>
al ising</w>
guid ed</w>
S ust
Jun i</w>
un controlled</w>
G allery</w>
edi tion</w>
c at</w>
G a
recur rent</w>
is ot
A udi
TORIS EL</w>
Trans fer</w>
te aching</w>
provid ers</w>
S et
eph ed
mod ule</w>
Lat via</w>
op posite</w>
fun d</w>
A q</w>
legis l
f uro
al izumab</w>
c ulation</w>
H all</w>
str on
clos er</w>
tri va</w>
Em triva</w>
radiolab elled</w>
izoph renia</w>
chick ens</w>
ch -
B le
m ic</w>
fall ing</w>
ati v
N .</w>
stre ets</w>
th in</w>
gl au
awa reness</w>
Stre p
mal aise</w>
pin Aq</w>
ST A</w>
Nutro pinAq</w>
0, 0</w>
S Q
. eu</w>
occas ion</w>
ear n</w>
Sci ences</w>
8. 5</w>
pre -</w>
pos s
St r</w>
Cy prus</w>
loc k
SUS TIVA</w>
ag ues</w>
satis faction</w>
electr ical</w>
B I
fa vi
6 3
sa una</w>
dron at</w>
favi renz</w>
chec k-
E favirenz</w>
them e</w>
J ah
de ad
Stuttg art</w>
occas ionally</w>
suffici ently</w>
anal ogue</w>
harmon ised</w>
oblig ations</w>
k l
hi bition</w>
Som e
LEN CE</w>
ld n</w>
S CI
trime ster</w>
17 0</w>
entit led</w>
Z one
ill a</w>
A VA
fa x</w>
id ated</w>
INTE LENCE</w>
p et
www. immobilsard
www.immobilsard a.com</w>
O rig
X P</w>
20 6</w>
adver tising</w>
Cul ture</w>
hor iz
t .de</w>
es .com</w>
ap p</w>
pro state</w>
gran ules</w>
Pos ology</w>
Dec re
com position</w>
surro undings</w>
at ch</w>
Th y
conveni ent</w>
Bon dronat</w>
t .</w>
Pel z
tr uly</w>
f ing
ol i
is ch</w>
mo ist
V on</w>
mar ri
T Y
pand emic</w>
cruc ial</w>
4 th</w>
s i</w>
P T</w>
Can ary</w>
tr ation</w>
35 4</w>
engl ish</w>
pu er
ot yp
engra ved</w>
dizz y</w>
im aging</w>
conc ep
switch ed</w>
fri dge</w>
Thro mb
ab or
Ef exor</w>
cit onin</w>
Bl ue</w>
Ελλά δα</w>
co ol</w>
T erms</w>
n ation</w>
y ers</w>
main taining</w>
ic it</w>
ta vis</w>
ak ia</w>
N ag
odef iciency</w>
aw arded</w>
dri p</w>
dr inks</w>
ad ot
Sim ul
Janu via</w>
le p
Pelz ont</w>
BL E</w>
phil osoph
im port</w>
fi x</w>
25 -
e ating</w>
compati bility</w>
anti hist
s can</w>
w ed
sk i
oster one</w>
Pro topic</w>
K i
5 000</w>
a e
Sol vent</w>
Co Aprovel</w>
inj ecting</w>
Zone gran</w>
im pression</w>
cl ub
E H
depres sive</w>
tex ts</w>
S AR
ment are</w>
ne arest</w>
T ak
lo d
alis kiren</w>
13 4</w>
201 3-0
ec al</w>
D ogs</w>
spo ts</w>
gen otoxicity</w>
u ted</w>
li ance</w>
expl ore</w>
pr on
he red
D ry</w>
men tion</w>
flo ors</w>
meas les</w>
mb ol</w>
bel ong
contain ers</w>
de hydration</w>
U. S.</w>
- M
mil es</w>
Tex as</w>
T un
P I</w>
insp ection</w>
ing .com</w>
eter in
fin ance</w>
20 th</w>
par ag
üs sel
30 th</w>
Kom mentare</w>
P a</w>
ves sel</w>
univer sity</w>
help ful</w>
di pl
Ir on</w>
suppl ies</w>
in ating</w>
Mag yar
STO CR
STOCR IN</w>
respon ding</w>
induc ers</w>
st on</w>
HIV -
Phot o
config uration</w>
om b</w>
U F
trans port
spec tr
jus tice</w>
Mon it
pl ates</w>
N et</w>
c ine</w>
an aesthesia</w>
fil ms</w>
acc ounts</w>
telev ision</w>
asp ect</w>
Mad am</w>
er ce</w>
portfol io</w>
des loratadine</w>
Ste p</w>
re min
Prof essi
su m</w>
ribu tions</w>
hered itary</w>
K iv
woo den</w>
vari ations</w>
phenyl alanine</w>
no ch</w>
d ex
A ra
au st
Je wish</w>
me a</w>
stiff ness</w>
Je ws</w>
W er
Engl and</w>
cut ting</w>
S UL
veg e
f inger</w>
PH AR
P ax
K ur
he ads</w>
sy mptom</w>
r ay</w>
pal pit
0. 05</w>
Off icial</w>
b ev
T own</w>
Sympt oms</w>
ost er</w>
ligh ting</w>
transfer red</w>
In flu
pri orities</w>
C O</w>
con gestive</w>
Y el
she et</w>
reason able</w>
ov an</w>
li m</w>
docum ented</w>
3. 4</w>
accur ate</w>
C L</w>
we ap
R he
tr as
contin ence</w>
un s</w>
amend ment</w>
Monit oring</w>
Str ateg
Des pite</w>
dis colouration</w>
on ium</w>
draw ing</w>
od ine</w>
hi king</w>
D ynast
SCI ENTI
w ash</w>
lar ation</w>
SCIENTI FIC</w>
CYP 1A2</w>
ig r
oc or
spr ay</w>
V il
S D
P ed
con current</w>
p ed
F ine</w>
ph ane</w>
v an
L s</w>
Dou ble</w>
Hom epage</w>
her pes</w>
oc al
2 16</w>
new sp
indi gestion</w>
dom ain</w>
Cholest agel</w>
st ools</w>
ex trac
li sts</w>
qu et</w>
1 18</w>
h our
sub j
Braz il</w>
Bin ocrit</w>
pan el</w>
os a</w>
it arian</w>
foc used</w>
Loc ated</w>
ig en
Con si
2 .</w>
. at</w>
vill a</w>
Sand oz</w>
as il</w>
cy clos
ä t</w>
ket o
Rec omm
G ra
h ur
be ar</w>
im g
Th alidomide</w>
O REN
gran ul
tam ide</w>
id ing</w>
ec tin</w>
Qu int
h of</w>
pot enti
Res erv
yl -
st ret
p ick</w>
dis crimin
stimul ate</w>
vis ually</w>
ch air</w>
et a</w>
age al</w>
H ost
we stern</w>
sud denly</w>
lip id
w ild</w>
O t
sy rup</w>
enti n</w>
In ject</w>
Tal k</w>
OREN CIA</w>
did anosine</w>
amaz ing</w>
de ep
C olog
reg ation</w>
hous ing</w>
centr ally</w>
el ected</w>
V EL</w>
ad ed</w>
membr anes</w>
T P</w>
op hy
d res
M ary</w>
10 H</w>
ro c</w>
Dy ne
dom estic</w>
09. 2015</w>
um a</w>
st ers</w>
Lact ose</w>
BM D</w>
sett l
pro motion</w>
R ip
per mitted</w>
om ar
under stood</w>
n evirapine</w>
ea red</w>
sw itching</w>
aff inity</w>
s ation</w>
ephed rine</w>
p im
connec tive</w>
hyper troph
Magyar ország</w>
ac tic</w>
Non- smoking</w>
37 3</w>
Kiv exa</w>
D rug</w>
ag ram</w>
G D
CH AMP
hor se</w>
s or</w>
inhabit ants</w>
bit ors</w>
S ING
1 19</w>
exten d</w>
N ature</w>
tic ul
om in</w>
short -term</w>
nav ig
ing ton</w>
ed y</w>
Dep o
R U
G B</w>
com ment</w>
S OL
B ou
um p</w>
s ar
elec trol
M ax</w>
Cur rent</w>
cul p
C erv
tr ading</w>
is ure</w>
ff s</w>
In nov
sou thern</w>
pro lifer
hel ping</w>
BAS AL</w>
Sloven ská</w>
vi x</w>
v ada</w>
avi roc</w>
LA IM</w>
pas m</w>
L ip
rau -
or phine</w>
San ofi</w>
cre d
V IS
Bes ides</w>
ici an</w>
aryn g
flat ulence</w>
phosph atase</w>
AR IC
9 8
regim e</w>
cub a.
in stitution</w>
own s</w>
Com t
AN O
SP R
Reg ion</w>
H im</w>
25 25
n ach</w>
K itch
50 -
c af
ARIC LAIM</w>
after noon</w>
d ental</w>
differen ti
13 3</w>
eb en</w>
decre asing</w>
cap ecitabine</w>
phy si
lymph ocytes</w>
attr actions</w>
tub ular</w>
quar ters</w>
dos ed</w>
X e
St ock
euro s</w>
com posed</w>
Dyne po</w>
ov ere
ch a
Tru vada</w>
M art
p ren
o tive</w>
mi as</w>
lo go</w>
Fol low</w>
re fract
r ural</w>
iz es</w>
f ed</w>
fac ial</w>
acc ession</w>
F OL
MIR APE
MIRAPE XIN</w>
consi ders</w>
cere bro
RELE X</w>
f r</w>
adal imumab</w>
ophil us</w>
deteri oration</w>
F und</w>
1 14</w>
Per son
as y</w>
con gestion</w>
HO LD
www. m
ass es</w>
aw ard</w>
IS O</w>
li p</w>
ak en</w>
kin esia</w>
viro logical</w>
14 -
de struction</w>
dap tive</w>
Tre daptive</w>
du oden
on c
Al b
toler ability</w>
per spective</w>
af en
INC RELEX</w>
H z</w>
Environ ment</w>
defin itely</w>
Cy te</w>
6. 0</w>
fav or
se at</w>
hard ware</w>
Depo Cyte</w>
Ac tem
le aves</w>
cor ne
ex it</w>
Actem ra</w>
puer toric
dre am</w>
Chang es</w>
pro st
k o</w>
we i
measure ments</w>
bal anced</w>
ori entation</w>
Pol ish</w>
rau- consultant
Ar ts</w>
LD L</w>
1. 9</w>
rau-consultant s.de</w>
add -on</w>
prepar ing</w>
www. rau-consultants.de</w>
serv es</w>
s ounds</w>
pyl ori</w>
pro files</w>
2 C
we al
te a</w>
CHAMP IX</w>
invest ments</w>
expen sive</w>
cap ital
R ich
arg y</w>
vis iting</w>
pol l
mus ical</w>
f ell</w>
17 4</w>
reserv ations</w>
c .</w>
Pow er</w>
fl un
design ated</w>
organiz ations</w>
e astern</w>
Eng ine
US B</w>
Placeb o</w>
6. 4</w>
ugg age</w>
micro wave</w>
gen etic</w>
phot osensi
end -
V or
air -
sh ut
ther mal</w>
Opin ion</w>
sol ve</w>
influ enced</w>
Ran exa</w>
at os
L os</w>
pre t
ber ship</w>
correspon ds</w>
r ations</w>
gro up
s anc
hy promellose</w>
expan sion</w>
erythro mycin</w>
D 3</w>
BO TT
Bu ild
fin ish</w>
am en
anz a</w>
Insul atard</w>
Fl ash</w>
tro uble</w>
sub mission</w>
dist ingu
adem y</w>
o therapeutic</w>
campa ign</w>
Up per</w>
Agr icul
Tr ack</w>
Im age</w>
un treated</w>
Ro yal</w>
Ro Actemra</w>
s ong</w>
man ax</w>
irrit ability</w>
Thy manax</w>
las er</w>
Pr ad
spo on</w>
im pressive</w>
tion ality</w>
H en
od il
manufac tured</w>
pri etary</w>
Gr an
ir us</w>
N ations</w>
7 -0
Rec ogn
Cart on</w>
S UTE
s burg</w>
entr e</w>
p ending</w>
k new</w>
D af
eder ation</w>
C ros
be t</w>
toil et</w>
1 .</w>
manufac ture</w>
Te am</w>
V omiting</w>
S PE
pl os
interrup ted</w>
c id
Pro gram</w>
Di ac
sav ing</w>
e able</w>
D ic
Ac tion</w>
P ass
Labor atory</w>
sch izophrenia</w>
barri er</w>
MA N</w>
AN Z
mod ules</w>
succ e
Hy p
us tin</w>
c um
it ude</w>
P P</w>
pati ent-
iden tical</w>
c ash</w>
m ur
di asis</w>
Dep ending</w>
En vi
poin ting</w>
B P</w>
pow ers</w>
lim id</w>
Rev limid</w>
electrol y
Gu est</w>
C G</w>
Mus culoskeletal</w>
0 24</w>
tot ally</w>
refract ory</w>
grad u
adj unc
di al</w>
concer t</w>
0. 01</w>
2 70</w>
ref ers</w>
ac char
determin ation</w>
as signed</w>
ere t</w>
1- 2</w>
f ab
Z av
col itis</w>
CI AL
13 ,
0 46</w>
Anti -
si t</w>
anaphy laxis</w>
prec isely</w>
hel ped</w>
peac eful</w>
1 13</w>
B il
sy mbol</w>
lit ropin</w>
li tis</w>
influ enz
Diac omit</w>
vac lyn</w>
pregn ancies</w>
Tre vaclyn</w>
Di ovan</w>
wid ely</w>
val pro
char ges</w>
3 A</w>
tr an</w>
ev ident</w>
mus e
exc iting</w>
tempor arily</w>
W a
rec tal</w>
flu x</w>
ri p
pass es</w>
Xe omin</w>
L en
pu ts</w>
h ill</w>
Y N</w>
L od
2 29</w>
Th elin</w>
dis covered</w>
ie f</w>
ign a</w>
deriv atives</w>
v .</w>
O .</w>
l ec
15 0
dec om
con azole</w>
a ths</w>
Pax ene</w>
Net work</w>
rem ote</w>
sci enti
Proced ure</w>
perfor ated</w>
aryng itis</w>
Vi ani</w>
FA BL
resid ue</w>
Ma xim
my cophenolate</w>
nam ely</w>
l s
comp act</w>
clo thing</w>
bil iary</w>
Dynast at</w>
pl ug
l P</w>
in clusion</w>
V ial</w>
valu able</w>
frequ encies</w>
iti dine</w>
TR I
mark eted</w>
classi fied</w>
C are
Bar r</w>
Ass ess
18 th</w>
rest lessness</w>
mob ility</w>
EI M</w>
pur ified</w>
pay ments</w>
199 1</w>
re j
Un known</w>
k un
ab ant</w>
pos iti
AL U
path way</w>
continu ously</w>
call ing</w>
14 3</w>
y outh</w>
le aving</w>
o -</w>
i one</w>
vari ed</w>
19 89</w>
publ ications</w>
os amide</w>
Whe ther</w>
SUTE NT</w>
k le
g all
ag e-
s an
E is
Cop alia</w>
interpre tation</w>
Lith u
ze on</w>
spectr um</w>
thromboem bolic</w>
Fu zeon</w>
ad or</w>
in opril</w>
immun ogenicity</w>
under go</w>
n g
emet rex
Pro ta
Pr amipexole</w>
ET INE</w>
emetrex ed</w>
remov ing</w>
pi on
ans w
or ge</w>
studi o</w>
Sk i</w>
Sci entific</w>
acqu is
Tur n</w>
cholester ol
glau coma</w>
H i</w>
ag ers</w>
Sp a</w>
Re pl
EP O</w>
Bus il
Busil vex</w>
Slov akia</w>
Regist ration</w>
CON STA</w>
dis odium</w>
Cart ons</w>
colle agues</w>
ag lin
Meth od</w>
let ters</w>
Pl ay</w>
b in</w>
reg i
E uc
temper atures</w>
w is
ot ine</w>
mis sions</w>
pres enting</w>
HBe Ag</w>
G ab
R ating</w>
I cel
mell ose</w>
car rying</w>
car mellose</w>
re k
Mon t
Envi age</w>
Cl ose</w>
sc ene</w>
aglin ide</w>
IN VE
15 00</w>
ei b
bre ad</w>
CIAL IS</w>
off ic
encour age</w>
Coun try</w>
inspec tions</w>
id er</w>
form ats</w>
OX ETINE</w>
B A</w>
gen e
bre eze</w>
Op tim
im atinib</w>
z er</w>
b orders</w>
Sel ect</w>
1 x
ir acoxib</w>
en tre
n ight
gol f-
R F
hab en</w>
direc tory</w>
pover ty</w>
serot onin</w>
Ne ul
r ings</w>
accid ent</w>
S ep
Re al</w>
tim s</w>
Sta phy
Imm une</w>
f icial</w>
Prota phane</w>
rele ases</w>
r ase</w>
yl an</w>
CD ATA</w>
R I
col ors</w>
Val tropin</w>
hum idity</w>
Staphy loc
19 6</w>
ris ing</w>
propor tional</w>
Kin eret</w>
un ter</w>
sil ver</w>
ad one</w>
J a
ü ber</w>
VER T</w>
e .htm</w>
refl ected</w>
pl ase</w>
ch ers</w>
R ent</w>
a uc
Swed ish</w>
form e</w>
M im
om al</w>
cal citonin</w>
M AC
n i</w>
toxic ities</w>
re m</w>
in si
me o</w>
phot ograph
Ven ice</w>
cen tres</w>
Y t
E bi
C TS</w>
put ting</w>
o o</w>
Trit ace</w>
P D</w>
tri ple</w>
iv astatin</w>
my opathy</w>
H all
act ors</w>
pre mature</w>
H os
au er</w>
M c
d ass</w>
w ir</w>
M es
A lo
ag u
benef icial</w>
SO MA
reduc tase</w>
il ed</w>
ich er
Des ign
ev al</w>
sten osis</w>
5. 6</w>
o- de-
enth usi
Turk ish</w>
pos aconazole</w>
appl ying</w>
- based</w>
g rav
decla red</w>
v or
ta b</w>
ren t
Sal es</w>
SOMA VERT</w>
zin c</w>
me hr</w>
fer ry</w>
Ebi xa</w>
suppl ier</w>
famili ar</w>
a rel
as atinib</w>
def ine</w>
o b</w>
advis able</w>
ti vitis</w>
Neul asta</w>
r amipril</w>
Ba thro
p .</w>
Tas igna</w>
r ul
isch aemic</w>
cur ve</w>
radi otherapy</w>
E pi
brady cardia</w>
Ser um</w>
or Plus</w>
ti um</w>
Prit orPlus</w>
relax ation</w>
L da</w>
resol ve</w>
Mon th</w>
vot ed</w>
Cat al
inv en
ar -
T ac
st atic
at um</w>
l ich
al ys
stud ent</w>
IN O
19 0</w>
ou d</w>
Rob ert</w>
V ari
cess ation</w>
g ift</w>
en .htm</w>
author isations</w>
Í sland</w>
as sum
BE R</w>
iv ox
dip ivox
4 000</w>
te plase</w>
c yl
ab at
G iv
f ainting</w>
D UL
AC EPT</w>
Ro ta
p ravastatin</w>
H EIM</w>
audi ence</w>
Zav esca</w>
Lev emir</w>
Prot ection</w>
0 27</w>
transi tion</w>
f arabine</w>
2. 9</w>
interrup tion</w>
el ections</w>
Zer it</w>
oper ators</w>
Ter race</w>
im it
g t</w>
arrhyth mias</w>
web sites</w>
e ing</w>
bi tions</w>
EV RA</w>
AN C</w>
ag enda</w>
rup tion</w>
every day</w>
agricul ture</w>
5. 4</w>
Ar z
Pi roxicam</w>
share s</w>
r .
end ronate</w>
ed ral</w>
Ne u
us age</w>
anth rac
gir ls</w>
it ting</w>
w ines</w>
strateg ies</w>
T og
Av oid</w>
halluc inations</w>
sav ed</w>
ul ative</w>
er o</w>
pl enty</w>
oun d
tick et</w>
S ud
Prof essor</w>
Photo Barr</w>
ING EL
hyper plasia</w>
atr in</w>
tel ithromycin</w>
tick ets</w>
myel oma</w>
MR Ls</w>
4 2
Gal v
p unc
en ever</w>
suppl iers</w>
r on</w>
H ave</w>
Actr ap
19 5</w>
VIR ACEPT</w>
addi tive</w>
li ability</w>
tro p
equ ally</w>
si e</w>
larg ely</w>
s and</w>
el ed</w>
coun tr
Diff e
CO 2</w>
or row</w>
co -</w>
b ad
M an</w>
ac i
P ages</w>
co .
G FR</w>
restric tions</w>
occas ions</w>
ob arbit
introduc e</w>
V R</w>
Po ints</w>
20 20</w>
TE SA
D aily</w>
RING ER</w>
test osterone</w>
clud ing</w>
tim olol</w>
substanti ally</w>
br inging</w>
im printed</w>
hy pers
g le
M UL
af t
TESA VEL</w>
st res
ans wered</w>
Am bi
am ines</w>
rang es</w>
lab elled</w>
am er</w>
urg ent</w>
Y et</w>
Mos cow</w>
Inter action</w>
l av
b an</w>
In st
transamin ases</w>
seiz ure</w>
he ts</w>
N Y
fil ed</w>
Paste ur</w>
EH RINGER</w>
BO EHRINGER</w>
surv ey</w>
s ers</w>
INGEL HEIM</w>
DUL OXETINE</w>
poli tics</w>
AL S</w>
dipivox il</w>
Ber lin
man nit
h Pa</w>
S pri
COX -2</w>
heav en</w>
guarante ed</w>
TIV E</w>
Actrap id</w>
mannit ol</w>
C AN
Ris per
gran ting</w>
Val ley</w>
was her</w>
sch e</w>
C C</w>
depres sed</w>
TR ISEN
TRISEN OX</w>
Gard asil</w>
2 14</w>
pro pi
obvi ous</w>
f eline</w>
emul sion</w>
in er</w>
PS UR
Ab dominal</w>
Colog ne</w>
ifor ni
f are</w>
V ista</w>
pro tamine</w>
benz odi
T M
S on</w>
Tel ephone</w>
o fl
l ounge</w>
Cho ose</w>
g ard</w>
3. 9</w>
accoun ting</w>
An ton
Mus cle</w>
s ongs</w>
X ig
hyper cal
L oo
et ten</w>
etra vir
Jour nal</w>
renew able</w>
dec ades</w>
ran ial</w>
sh aring</w>
uni form
oesoph ag
blog spot
believ ed</w>
Euc reas</w>
z ed</w>
ro d
w ie</w>
INVE GA</w>
Sub oxone</w>
As k</w>
sh oul
AN CE</w>
s ending</w>
20 8</w>
em i
Film tabletten</w>
Spri meo</w>
maxim al</w>
5 2
ten nis</w>
n es</w>
U E</w>
vic tims</w>
a. org</w>
o k</w>
es cal
1. jpg</w>
Dar bepoetin</w>
PSUR s</w>
at en</w>
Ex press</w>
the ore
recogn ized</w>
curren cy</w>
Haem ophilus</w>
Wy eth</w>
00 1-
us a.com</w>
ri an</w>
Squ are</w>
Abra x
ens -
de aling</w>
P AD
vag inal</w>
la g</w>
al op
Dox azosin</w>
Al lah</w>
on lin
candi diasis</w>
a j
dox an</w>
inten se</w>
9 6
sugg ests</w>
Gl ustin</w>
Val doxan</w>
in continence</w>
Mat er
pal i
gl ut
St or
15 5</w>
o ch
Ax ura</w>
cri tic
W ES
A ward</w>
para hydroxybenzoate</w>
M u
muta genic</w>
15 th</w>
work shops</w>
farm ers</w>
me ant</w>
spec tac
ic ates</w>
C ard
thro w</w>
no ise</w>
MR I</w>
st ly</w>
E fi
moder n
lymph atic</w>
h ov
th o</w>
Efi ent</w>
PE N</w>
vis ory</w>
EC G</w>
Luc entis</w>
in active</w>
prefer red</w>
ori ented</w>
ta k
ac king</w>
M ax
All ergic</w>
precipit ation</w>
Fri ed
arrang ements</w>
mat ch</w>
. dll</w>
Isra el
www. bi
ap ers</w>
gl omer
breast feeding</w>
kid s</w>
ardis Plus</w>
Mic ardisPlus</w>
list at</w>
vi c</w>
He ating</w>
re t</w>
etravir ine</w>
8 -0
ph ther
Fe eling</w>
esc ent</w>
AS E</w>
z ur</w>
prom oting</w>
j etzt</w>
h o</w>
cont ributions</w>
3 9.
w all
sur pris
k ann</w>
identi ty</w>
Inv estig
Cast le</w>
ty -
e. org</w>
Xig ris</w>
fl ights</w>
raz o</w>
D A
se c</w>
par as
c ure</w>
clo t</w>
Ser ver</w>
mob utyl</w>
hour ly</w>
sur faces</w>
in her
U T</w>
di hydrogen</w>
cycl ine</w>
rel ate</w>
contrac ts</w>
ple tion</w>
bab ies</w>
pen d</w>
fant astic</w>
l unch</w>
cr amps</w>
as sets</w>
P ok
an aes
what ever</w>
s culp
az z
ar ise</w>
os in
oph thal
access ories</w>
Thyro gen</w>
B an
t ary</w>
ed ex</w>
Fe LV</w>
Leg al</w>
20 2</w>
oc ks</w>
S W
Rip razo</w>
Ma c</w>
Car b
ma z
ro ads</w>
nor thern</w>
Professi onal</w>
MIN IS
implem enting</w>
n ur</w>
Tr an
invol ves</w>
P ort</w>
G ly
ON E</w>
z ema</w>
thal idomide</w>
FOR STE
ak ers</w>
m c
ens es</w>
FORSTE O</w>
t an
in trav
ra il</w>
ox icam</w>
s pa
ea u</w>
E c
aff airs</w>
Un ter
wordpress .com</w>
re vision</w>
pip ettes</w>
h ondur
diff er</w>
meta st
wik i
. 48</w>
icill in</w>
W ind</w>
Dig ital</w>
inf ectious</w>
P AS
J ADE</w>
enter tainment</w>
commun ities</w>
are g</w>
antim icro
PRODU CTS</w>
u be</w>
res ource</w>
destro yed</w>
ag ic</w>
S hel
sl etter</w>
t n</w>
O y</w>
Abrax ane</w>
is ti
boo sted</w>
bo ards</w>
Z ar
M ylan</w>
st art
in der</w>
omet ric</w>
ap entin</w>
ar be
Oro dispersible</w>
M g</w>
EX JADE</w>
O d
regard ed</w>
galact ose</w>
beta -1
a ug
201 5-0
0 3
z om
ul tras
per it
nit ric</w>
fac ts</w>
J u
www.ypages usa.com</w>
s elling</w>
ur ches</w>
Dis k
anti d
1 21</w>
En d</w>
Daf iro</w>
Can di
en orm
pron oun
h t</w>
t ude</w>
dis abled</w>
legisl ative</w>
iver sary</w>
ad o-de-
0 31</w>
camp site</w>
ocon version</w>
the ory</w>
cre ates</w>
inser ted</w>
Pal ace</w>
propi onate</w>
Cel gene</w>
Assess ment</w>
ö ff
J EC
25 8</w>
pe t</w>
ax a</w>
cer v
ju ven
conver ting</w>
AD MINIS
S ain
J PG</w>
plos tim</w>
com pri
industri es</w>
b ipolar</w>
Previ ous
H ER
circ u
Icel and</w>
b ish
inc id
I t
ov o</w>
car d
AI R</w>
fil ling</w>
cond ado-de-
bro mobutyl</w>
ac tively</w>
Zur ich</w>
Inf us
Galv us</w>
Sol o
bud getary</w>
bathro oms</w>
strug gle</w>
dri vers</w>
auth en
mut ation</w>
ant ine</w>
ro man
oxy cycline</w>
toc occus</w>
radio active</w>
bi x</w>
whe ezing</w>
par tly</w>
ing es
K ap
2 12</w>
f en</w>
s k</w>
um et</w>
vill ages</w>
cerv ical</w>
pra yer</w>
W ash
Ac t</w>
l as</w>
direc tions</w>
ri mon
AN D
gastro -resistant</w>
Previous 1</w>
re vised</w>
V ecti
Prad axa</w>
princip al</w>
A ud
1 22</w>
ni fedipine</w>
Vecti bix</w>
impl ant</w>
Cal ifor
B eg
institu tional</w>
Recogn ition</w>
Reg ional</w>
0 23</w>
reac t</w>
te ams</w>
5. 7</w>
c ru
Eff ici
oni ae</w>
h n
as c
F our</w>
H ERA</w>
comprom ised</w>
Frequ ency</w>
cop per</w>
g p</w>
sof a</w>
Sil gard</w>
na il</w>
dro p
adap ted</w>
ulin um</w>
CT FE</w>
me tia</w>
exam ine</w>
id ase</w>
am ong
S at
t uring</w>
er lo
Vel metia</w>
i Phone</w>
Accommod ation</w>
a is</w>
plac ing</w>
RU B</w>
dox azosin</w>
agg rav
ain ing</w>
L ine</w>
si ties</w>
shor ter</w>
endomet rial</w>
Pr o</w>
D res
5 th</w>
B V</w>
h it</w>
L T
en burg</w>
as ic</w>
Com bi
ne o
hid den</w>
eg o</w>
icy cle</w>
among st</w>
de aths</w>
Mos es</w>
O pr
insul ins</w>
0 25</w>
nerv ousness</w>
i ro
ec ia</w>
is n</w>
s v
ven ues</w>
G T
Risper dal</w>
O -
ref ug
m es
Yel low</w>
9 9.
ogen esis</w>
ag al</w>
Org an</w>
Div ision</w>
ab atrin</w>
8 th</w>
len alidomide</w>
non -</w>
S cre
AC R</w>
thum b</w>
rif abutin</w>
consider ably</w>
chol est
V al</w>
AD RO
A TED</w>
2- 3</w>
so il</w>
ro of</w>
dim ensions</w>
chol in
Fac ebook</w>
ques tion
bi op
ADRO VANCE</w>
ov ine</w>
gem fibrozil</w>
deb t</w>
Tour ist</w>
L AR
atic s</w>
Jan umet</w>
B E</w>
10 ,
www. amarill
2 21</w>
great ly</w>
OS TA
sed ation</w>
gent le</w>
bro ther</w>
27 9</w>
ip s</w>
record ing</w>
Com e</w>
r il
Im pri
u ximab</w>
201 4-0
g over
................................ ................................
separ ated</w>
icon otide</w>
S S
ell o</w>
Pro g
ac compl
Repres ent
Ac ademy</w>
ind oor</w>
Wor k
py rexia</w>
z -
ov ulation</w>
flun omide</w>
Ne utro
16 00</w>
men str
sac hets</w>
VEL C
Ex am
moder ately</w>
rem ission</w>
inten d</w>
S in
Effici b</w>
Franc is
ac ht
Gol f</w>
Corpor ation</w>
guid eline</w>
lum iracoxib</w>
cl onal</w>
BOTT LE</w>
Rap porteur</w>
20 7</w>
An alysis</w>
secre t</w>
oc occ
exacerb ation</w>
is lands</w>
blogspot .com</w>
Dan i
sh ot</w>
te eth</w>
ne h
inf used</w>
cand ra</w>
I candra</w>
se arch
e ren</w>
Comp uter</w>
tw el
th u</w>
period ically</w>
modi fi
estim ate</w>
concep ts</w>
C ab
di min
ob struction</w>
leth argy</w>
class ical</w>
IV AN</w>
arri ved</w>
Combi vir</w>
stad t</w>
character s</w>
14 7</w>
y mea</w>
omm un
invol ve</w>
Opr ymea</w>
Te q</w>
Custom er</w>
ot act</w>
rec ru
CR IX
8. 8</w>
k on
multi forme</w>
Rota Teq</w>
Q Tc</w>
L es</w>
Impri da</w>
b id
13 6</w>
CRIX IVAN</w>
D ys
par ta
omar ist</w>
Z omarist</w>
Pre otact</w>
C ou
priv acy</w>
li v
Bi g</w>
VELC ADE</w>
vin yl</w>
j ust
cri me</w>
hypogly caemic</w>
ac le</w>
D üssel
Author ity</w>
zz le</w>
o .de</w>
Ven tavis</w>
flip -off</w>
Inv ega</w>
jus tified</w>
di verse</w>
Pol ysorbate</w>
Hy promellose</w>
st atin</w>
g ained</w>
immun odeficiency</w>
fil es.
i vir</w>
techn ological</w>
ester day</w>
Al z
satis fied</w>
F ER
B ay
T ox
publ ishing</w>
obarbit al</w>
ic e-
dut y</w>
Ze it</w>
F lor
alop ecia</w>
Pro bl
speci alised</w>
OP TI
oestro gen</w>
Staphyloc occus</w>
los -
gu n</w>
E th
16 2</w>
te gra
po intment</w>
swe et</w>
B ad
8 2
N V</w>
9 4
rub ella</w>
col loidal</w>
Con f
SQ L</w>
Pl ayer</w>
leuc openia</w>
G el
S ports</w>
Institu t</w>
gen u
con g
associ ations</w>
tub es</w>
after wards</w>
Son ata</w>
le ep</w>
det ect</w>
b o</w>
In t
post natal</w>
w inning</w>
fol litropin</w>
Mim para</w>
L it
er ad
w are
S can</w>
F ull</w>
own ed</w>
ond y
compl ex
r -
B un
decor ated</w>
expect ations</w>
entec avir</w>
M s</w>
I l
hol m</w>
ret inal</w>
del eted</w>
W ay</w>
z one
civ il
TE C</w>
0. 03</w>
n ative</w>
P ull</w>
reli eve</w>
b ivudine</w>
Par tic
hyper cholesterol
Cub a</w>
Ab b</w>
f ly</w>
see king</w>
exce eding</w>
da ughter</w>
L AN</w>
Califor nia</w>
sh i
sh el
Influ enza</w>
sh ake</w>
wash ing</w>
can did
ut y</w>
Cro hn</w>
hormon es</w>
w .php</w>
r in
on t
ch arming</w>
r at
Epi vir</w>
struc tive</w>
respon ders</w>
az ide</w>
In n</w>
ig ration</w>
abr adine</w>
part ment</w>
g erman</w>
In form
tend ency</w>
Main tenance</w>
Cur rently</w>
f ans</w>
depart ure</w>
u x
tight ness</w>
hydro gen
grow n</w>
contr ary</w>
lan tic</w>
ific ent</w>
er ie</w>
K ey</w>
lear ned</w>
D s</w>
Trans port</w>
Build ing</w>
n ish</w>
fe at
id e-
ck .php</w>
trav elling</w>
av w.php</w>
rol ling</w>
ent or</w>
cl eared</w>
aven ue</w>
tam ivir</w>
tren ds</w>
rac e
dos ages</w>
lo vely</w>
etr on</w>
bur den</w>
Langu age</w>
TR ATION</w>
O lymp
iv o</w>
emo tional</w>
H M
olog icals</w>
el i
k ind
compl y</w>
FA I</w>
P ay
M obile</w>
Acti vities</w>
encephal opathy</w>
pseud o
ere s</w>
Pre clinical</w>
flu conazole</w>
Con sum
FABL YN</w>
ad renal</w>
m am
consul ting</w>
par liam
ipr amine</w>
13 7</w>
well- known</w>
Lithu ania</w>
B erg
V ascular</w>
ver tigo</w>
si de-
revol ution</w>
www. b
og ens</w>
fle et</w>
Gen eva</w>
mass age</w>
e til</w>
0 29</w>
h i</w>
gluc ocor
y o</w>
r t
id opa</w>
design s</w>
Te k
stri p</w>
P L</w>
or dered</w>
appropri ately</w>
V I</w>
P O</w>
list en</w>
commun ications</w>
modif y</w>
Con ver
ic ks</w>
op ia</w>
Ath ens</w>
eiv ed</w>
13 th</w>
Inde ed</w>
Simil ar</w>
M echan
candi date</w>
il legal</w>
dis appear</w>
fro zen</w>
comprom ise</w>
tow er</w>
pass word</w>
L ant
I nov
or ca</w>
Un fortunately</w>
Pl an
Q D</w>
.... .</w>
zone id</w>
g ib
TR AC
l ers</w>
erec tile</w>
mpt omatic</w>
follic ular</w>
recur rence</w>
CYP2C 19</w>
L ove</w>
un well</w>
phther ia</w>
op ted</w>
Pri mary</w>
6. 7</w>
def ect</w>
Aut om
en ette</w>
h ex
Inov elon</w>
Alz heimer</w>
passeng ers</w>
www. regi
Ph en
ef ruit</w>
clo farabine</w>
arm y</w>
F ar
E WP</w>
meaning ful</w>
inf estations</w>
Inf usion</w>
t ung</w>
Reduc tion</w>
Pre ven
fif th</w>
Ren agel</w>
pre fer</w>
ri ding</w>
def ence</w>
che stra</w>
ap se</w>
sil ica</w>
car bo
T est
G ir
ar ising</w>
re aches</w>
brea king</w>
re now
N obil
Arti kel</w>
var ic
0 28</w>
H ab
suff ered</w>
ski ing</w>
opportun istic</w>
g ang</w>
enabl ed</w>
ac l
k om
www.regi olab
www.regiolab .info</w>
th es</w>
pa int
hol y</w>
IN FAI</w>
un expected</w>
pro hi
201 6-0
pe o
oper ator</w>
Wol f
transport ation</w>
stat ins</w>
lip id</w>
av ar</w>
Ind ustry</w>
ex cur
epid ermal</w>
Ir an</w>
oper ated</w>
T us
Fac tor</w>
tor is</w>
asy mptomatic</w>
dis card</w>
16 th</w>
con s
Neup op
C lim
1 29</w>
yl osing</w>
lac toid</w>
high- quality</w>
enter ing</w>
eti race
ph agia</w>
h CG</w>
SI FRO
solid arity</w>
Tra ining</w>
D o
g ad
recipi ents</w>
p df</w>
gr ant</w>
Secret ary</w>
K S</w>
Par areg</w>
meth yl</w>
www.amarillas aust
con vention</w>
all i</w>
hondur as.
S. A.</w>
p emetrexed</w>
Bru x
ro ot</w>
ro mi
re venue</w>
it ol</w>
Vic e-
ser vers</w>
enter itis</w>
Cle ar</w>
em bolism</w>
hypertroph y</w>
k ne
represent ing</w>
z in</w>
di r</w>
ab er</w>
a ther
h us
oz yme</w>
cul tures</w>
co at</w>
Ch ronic</w>
mac rogol</w>
Düssel dorf</w>
iti c</w>
K or
Cop yright</w>
r us
Neupop eg</w>
jour nal
Ze it
SIFRO L</w>
Met ac
etirace tam</w>
arri ve</w>
inf ect</w>
bacter ium</w>
year -
st ories</w>
intest ine</w>
fa il</w>
Ira q</w>
N AME
tin ib</w>
statis tical</w>
it ate</w>
valpro ate</w>
neigh bour
K le
rad or</w>
in ch</w>
Nex avar</w>
Ar ab
pap ers</w>
W ind
bl ist
J al
D K
B at
itch y</w>
u pri
inges tion</w>
al endronate</w>
3 0.
bu pren
ch airs</w>
27 6</w>
peg ylated</w>
pec toris</w>
L A</w>
13 -
ep ti
PRO TE
c -
lead ership</w>
a z</w>
Univer sit
les ion</w>
G RO
Co A</w>
p ill
titr ated</w>
ondy litis</w>
log istics</w>
b ou
Tog ether</w>
bl ess
Fac ilities</w>
-2 -
weal th</w>
un limited</w>
y ne</w>
record s</w>
li po
18 8</w>
x 1</w>
super vised</w>
sti tial</w>
V ire
addres ses</w>
re turns</w>
hand led</w>
por ting</w>
acquis ition</w>
en n</w>
Ket ek</w>
Bet ween</w>
wordpress .org</w>
pret ty</w>
si x
fil tration</w>
bur g
Qu ad</w>
0 26</w>
ZY PAD
ZYPAD HERA</w>
in tention</w>
c s</w>
br anch</w>
fo res
cer ivastatin</w>
trans actions</w>
ret in
Ny comed</w>
pri ze</w>
des k
My cophenolate</w>
v om</w>
tegra vir</w>
stit utes</w>
o th
car tons</w>
process ed</w>
Vire ad</w>
Con n
ful l-
Nobil is</w>
2 34</w>
duoden al</w>
Tour ism</w>
uroxim e</w>
off spring</w>
ax etil</w>
3. 7</w>
11 th</w>
le ak
f is
U D
Ur inary</w>
spl en
establ ishing</w>
D al
bupren orphine</w>
wh ol
ush es</w>
vol umes</w>
anc ement</w>
a .</w>
er g</w>
emph asis</w>
G ri
gly caemic</w>
G all
l i</w>
arch iv
ap pointment</w>
as .com</w>
3- 4</w>
n ic</w>
dar bepoetin</w>
jus tify</w>
SING UL
Lant us</w>
ide ation</w>
T op
etu ximab</w>
7. 2</w>
ti ps</w>
te zom
su bl
mal formations</w>
L and</w>
romi plostim</w>
oesoph ageal</w>
compet ence</w>
SINGUL AIR</w>
E .
less ons</w>
as part</w>
Ambi rix</w>
v ast</w>
BR I</w>
olog ie</w>
atin as.net</w>
fl am
u ters</w>
re forms</w>
moist ure</w>
Z OSTA
ZOSTA VAX</w>
P CI</w>
Ab normal</w>
peri odic</w>
inspec ted</w>
X y
fit ness</w>
cor d</w>
ac ne</w>
ar ts</w>
CH AR
po is
feed back</w>
carb idopa</w>
nur sing</w>
produc ers</w>
edi c</w>
Lar ge</w>
be ings</w>
Qu ix
Giv en</w>
R ock</w>
C EP
r ashes</w>
mem bership</w>
Ph arm
ug en</w>
am ent</w>
al c
col oration</w>
au x</w>
ap ol
Gro w
b .
oc ate</w>
Al dur
inv o
17 th</w>
pl ing</w>
canc ers</w>
Inter actions</w>
Fig ure</w>
4 15</w>
TI DE</w>
dri ven</w>
answ ers</w>
Administ rador</w>
dis count</w>
de pletion</w>
bri ef</w>
Inser ido</w>
l uc
uniform ly</w>
o a</w>
le isure</w>
Au th
C e
ul ly</w>
or listat</w>
cent uries</w>
V e
N av
di men
Vis ual</w>
L H</w>
Bos ch</w>
files. wordpress.com</w>
ot ane</w>
man aging</w>
é e</w>
atten uated</w>
un employment</w>
reco xib</w>
pa recoxib</w>
Je hov
nam ics</w>
Repl agal</w>
dos si
ann iversary</w>
th res
yl ase</w>
lis inopril</w>
C lar
I de
lo ose</w>
- 0.
4 60</w>
pos ology</w>
patter ns</w>
control ling</w>
tar get
m umps</w>
ect ual</w>
character ized</w>
break down</w>
arti ficial</w>
T S
gard ens</w>
as p</w>
Solo Star</w>
mon o</w>
gener ate</w>
Jehov ah</w>
fa ir
et -
eg u
Tabl etten</w>
out comes</w>
on itis</w>
3. 8</w>
spo ken</w>
m entation</w>
B B
nar row
SPR Y
3 21</w>
EU -
aspir in</w>
rup t</w>
cros s
figh ting</w>
col o
aw a</w>
ar ot
reli ability</w>
comb ine</w>
LO S</w>
uk ast</w>
tel ukast</w>
bre eding</w>
Aldur azyme</w>
0 39</w>
tom orrow</w>
al d</w>
G L
6 th</w>
Lat est</w>
trans mit
h ath</w>
al umin
Up on</w>
Pe ace</w>
Strep tococcus</w>
in ver
d asatinib</w>
C AP
rac es</w>
pl ain</w>
S ik
C ha
path ways</w>
Commun ication</w>
Por to</w>
preserv ative</w>
tezom ib</w>
on ym
dissol ve</w>
p am
B ax
palpit ations</w>
an ch
t ob
syn cope</w>
character istic</w>
k in</w>
accur acy</w>
Lev el</w>
HB VAXPRO</w>
B ah
z yme</w>
F ederation</w>
exce eded</w>
E udra
gen otoxic</w>
anticoagul ant</w>
CON DI
bl u
Dos es</w>
Inter feron</w>
sor bed</w>
bl owing</w>
TA R</w>
SPRY CEL</w>
N D
O M
s now</w>
decom pen
s essions</w>
e ased</w>
Dy sp
dar k
C F</w>
s atur
te m</w>
spo ke</w>
bu il
Vol ume</w>
end ogenous</w>
D IS
ec zema</w>
res is</w>
Bax ter</w>
S ter
G ON</w>
ari o</w>
B lu
ri um</w>
op ping</w>
well ness</w>
offici als</w>
arch ive</w>
A -0
1 24</w>
ure ment</w>
W ill</w>
CS F</w>
sugg esting</w>
ati o</w>
movi e</w>
eyel id</w>
bio equivalence</w>
be er</w>
Liter atur
upri ght</w>
um ed</w>
Lact ation</w>
An aly
commit tees</w>
lim iting</w>
for t</w>
micro -
lic ense</w>
z es</w>
V TE</w>
er ation</w>
Quix id
protein uria</w>
19 88</w>
enorm ous</w>
bo ot
perman ently</w>
ec ological</w>
weigh s</w>
nitro gen</w>
Sh op</w>
lar s</w>
tri ps</w>
quin idine</w>
Pos aconazole</w>
10 th</w>
ri gh
F U</w>
E vol
A qu
3 56</w>
eg al
lod ging</w>
TY SA
r als</w>
house hold</w>
attemp ts</w>
ac ted</w>
expl ains</w>
H ou
tur na</w>
preserv ed</w>
r uled</w>
inhal er</w>
chro mos
L ag
E state</w>
ab use</w>
Po int</w>
antimicro bial</w>
c .org</w>
Ig G</w>
ta g
CY MB
CYMB ALTA</w>
syn thetic</w>
sec ret
ligh t-
expen ses</w>
zi g</w>
sign als</w>
relig ion</w>
pro ud</w>
graph ics</w>
stom atitis</w>
et ta</w>
post ed</w>
Bathro om</w>
kil ogram</w>
Stock holm</w>
ê u
inf ring
sub group</w>
Seb ivo</w>
vac u
the red</w>
ev en
Xy rem</w>
ser a</w>
cot ton</w>
Ze rene</w>
patient- years</w>
condi tioned</w>
He in
3 19</w>
R if
M ol
Sta d
stain less</w>
mar ine</w>
ik i</w>
DL- C</w>
e o</w>
de al
INO max</w>
ri m</w>
With out</w>
T C</w>
F entan
Grow th</w>
sh aking</w>
o is</w>
G AN
li b
chos pasm</w>
K uv
vis itor</w>
I a</w>
ed ness</w>
M in</w>
M BER</w>
re flux</w>
Pro Quad</w>
P R</w>
Kore a</w>
I ris
Bi ograstim</w>
ein em</w>
aff ord
S ME
ak e
aqu eous</w>
is tic
TYSA BRI</w>
Z A
J ac
Er bit
E sch
wik i</w>
ten d</w>
So vi
D re
il er</w>
Erbit ux</w>
ad -
D F</w>
flav our</w>
Spec ific</w>
modifi ed-release</w>
ch in
es .net</w>
IN R</w>
fas cin
there of</w>
ard is</w>
prop yl</w>
z io</w>
dimen sion</w>
pul se</w>
T adal
negl igible</w>
juven ile</w>
ein en</w>
path ic</w>
eth anol</w>
Eff ect</w>
el ial</w>
Tadal afil</w>
hypo kalaemia</w>
brea ks</w>
bat tle</w>
R ico</w>
F ort</w>
A post
t owns</w>
her itage</w>
th ickness</w>
crimin al</w>
b ath
In stead</w>
Tek turna</w>
is ers</w>
Vi et
TI D</w>
AS A</w>
p es
lo t
Quixid ar</w>
Pro toc
renow ned</w>
Sign s</w>
Rou te</w>
E E
cere mon
pers ist</w>
intrac ranial</w>
co ast
Hep B</w>
re ds</w>
instruc tion</w>
as al</w>
K os
ad ex</w>
attribu ted</w>
l ysis</w>
in ability</w>
rimon abant</w>
erec tion</w>
g sk
ol o</w>
Kuv an</w>
pur a</w>
panor amic</w>
F G</w>
Cong ress</w>
Kin z
200 7-0
adjuv ant</w>
TR IT
Direc t</w>
chem istry</w>
Shi pping</w>
P H</w>
countr y
Con tains</w>
5 mg</w>
CONDI TIONS</w>
8. 0</w>
competi tiveness</w>
pro -
cop yright</w>
H Y
Consi der
our al</w>
cell ular</w>
su it</w>
al a</w>
lo v
C edex</w>
Brit ain</w>
keto acidosis</w>
oxif loxacin</w>
pronoun ced</w>
Mic ardis</w>
Brux elles</w>
week end</w>
Sain t-
ser oconversion</w>
ili ar
Mod el</w>
Long -term</w>
K now
IN TER
Dor ib
0 66</w>
tou rists</w>
M U</w>
fu vir
fe el
c ys
Ges ch
one al</w>
vin ey
sym bol
responsi bilities</w>
G MP</w>
c ept</w>
G rap
gl ands</w>
tog en
re tin</w>
neutr alising</w>
muc ous</w>
hear ts</w>
prov ince</w>
Ber n
1 17</w>
usi on-
d ings</w>
Ci prox
Ar gent
Ac tos</w>
i ation</w>
Rot arix</w>
K ir
renov ated</w>
Pan retin</w>
s lop
av entis</w>
Pri me</w>
Infus at</w>
furo ate</w>
dis plays</w>
alk omb</w>
Kinz alkomb</w>
J ans
co al</w>
l ang</w>
Y on
Invest ment</w>
un ter
open s</w>
ic um</w>
Col le
o on</w>
st ore
il ine</w>
heart burn</w>
Salz burg</w>
14 5</w>
d oxycycline</w>
bl ack
Al f
po t</w>
min i</w>
erg o
elev ator</w>
7 th</w>
sac rif
mil lions</w>
b ild
ut ation</w>
phen obarbital</w>
i g</w>
gon adot
in qu
ag land
S cal
n au
in direct</w>
C ubicin</w>
1 20
antipsycho tic</w>
Portug u
Farmac êu
destro y</w>
S he
qu ot
PRO COM
up wards</w>
an ian</w>
PROCOM VAX</w>
NAME S</w>
Blo c</w>
6 000</w>
fl uc
D ev
thyro idism</w>
o en
diver sity</w>
Star lix</w>
Phil ip
Disk us</w>
in y</w>
19 2</w>
fuvir tide</w>
po fung
pofung in</w>
Preven ar</w>
C etro
glucos e-
Vis it</w>
Fab raz
2 45</w>
ock et</w>
psori atic</w>
amm adex</w>
5. 8</w>
cat alog</w>
iliar x</w>
X iliarx</w>
freez er</w>
al ert</w>
modif ications</w>
ig a</w>
mig ration</w>
Prepar ation</w>
º C</w>
cook ies</w>
quanti ties</w>
satis factory</w>
pot ency</w>
classi fication</w>
tig otine</w>
on o</w>
L ess</w>
bu profen</w>
weap ons</w>
tend erness</w>
R ule</w>
regist ry</w>
el ection</w>
In hal
G am
res or
b oun
sto res</w>
pi ano</w>
op tional</w>
Peri pheral</w>
t ack
com pos
dri ed</w>
2 13</w>
whe el</w>
constit ute</w>
Loo king</w>
stimul ates</w>
sh ore</w>
sh ar
i on-
P erc
w illing</w>
col umn</w>
in cl.</w>
l er
exhi bitions</w>
ec ycline</w>
mi ere</w>
al it
GN U</w>
mono clonal</w>
bronch itis</w>
Jal ra</w>
ADMINIS TRATION</w>
transf usion</w>
US D</w>
Iris h</w>
amarillas l
meth oxy</w>
glycol -
SE O</w>
G O
Fabraz yme</w>
pri est</w>
pneum oniae</w>
ma -
ept ance</w>
dish washer</w>
no tified</w>
yl ate</w>
mid -
Is lam
D am
Cef triaxone</w>
As sem
4 12</w>
fre eze</w>
sol di
Pla vix</w>
La un
0 89</w>
compens ation</w>
d ust</w>
ris entan</w>
Le ip
B Y</w>
V iv
Sign ific
Dos ing</w>
a. m.</w>
F ast
C ount</w>
AR T</w>
Ara b</w>
st ep
belong ing</w>
particip ated</w>
gen otype</w>
Sav ene</w>
Sp .</w>
P ets</w>
ill ation</w>
s car
Haem at
15 3</w>
X ER
Pop ulation</w>
T raz
S CH
art en</w>
pre clinical</w>
MP 3</w>
de w</w>
twel ve</w>
prost agland
k ingdom</w>
fac ed</w>
TRE SS</w>
ur ane</w>
pen et
an te</w>
ac alc
zer o</w>
seas onal</w>
Dorib ax</w>
vas odil
dis coloration</w>
carri er</w>
My ozyme</w>
IC A</w>
meth adone</w>
Pol i
tu be
oxid ase</w>
ak ed</w>
Maj or</w>
es ul
A mb
Dri ve</w>
16 6</w>
s cript</w>
arrang ed</w>
L j
multi dose</w>
bio equivalent</w>
k n
OR AL</w>
Inte gr
BE ST</w>
stu ff</w>
program ming</w>
necess arily</w>
fat ty</w>
break through</w>
M oro
new born</w>
tu res
fi- aventis</w>
conver t</w>
op tic</w>
ISEN TRESS</w>
F oc
as ug
gly cos
cum ulative</w>
boo ked</w>
al ive</w>
adop t</w>
Is cover</w>
ti les</w>
f ast-
Prit or</w>
Literatur ang</w>
slop es</w>
ast ers</w>
appro xim
an ag
Tak eda</w>
K ey
j unc
de grad
ar one</w>
Z y
some what</w>
seri ously</w>
ploy ment</w>
de emed</w>
Leu ko
ne imit
for ge</w>
cerebro vascular</w>
a f</w>
D O</w>
Tit le</w>
photosensi tivity</w>
ev ed</w>
deliver s</w>
mod est</w>
revol utionary</w>
ox amine</w>
con grat
al co
Ret ur
90 Y</w>
le ather</w>
inter ven
v ille</w>
Y oun
pr ant</w>
opi prant</w>
Vis ud
repe at
J ANS
0. 15</w>
7 3
con clude</w>
IS TAR</w>
ur acil</w>
un ning</w>
magn ificent</w>
j ana</w>
R A
met ro
ir t
certif icate</w>
Bas el</w>
b ind</w>
LI TA
cont ributed</w>
U AB</w>
Star ting</w>
H5N 1</w>
at trac
gu it
edi t</w>
dis ability</w>
conjunc tivitis</w>
Neuro Bloc</w>
univer sal</w>
jud gment</w>
ad er</w>
B N</w>
ri pro
mar aviroc</w>
le flunomide</w>
ar rest</w>
XER ISTAR</w>
Radi o</w>
r .com</w>
s cr
relation ships</w>
F ever</w>
2 15</w>
ul t
medi um-
Restaur ants</w>
K m</w>
tour nam
yst rophy</w>
se g
inter im</w>
3 40</w>
consci ous</w>
R oma</w>
P s</w>
O V
ma kers</w>
cipi ent</w>
leg i
ation en</w>
Previ ous</w>
g ill
alu tran</w>
Org alutran</w>
Mil ano</w>
arot ene</w>
G .</w>
R S
4 0-
f es
LAR A</w>
old est</w>
ex arotene</w>
molec ular</w>
high light</w>
col on
event ually</w>
Euro pa</w>
200 8-0
tr adem
ep h</w>
e tics</w>
O si
parathyro id</w>
H er</w>
For m</w>
scienti sts</w>
O ber
smo ke</w>
HT ML</w>
sp ondylitis</w>
dis cre
cul arly</w>
14 th</w>
z iconotide</w>
s now
ein er</w>
dis h</w>
ass ays</w>
ec tors</w>
Sik los</w>
feel ings</w>
en .
STE LARA</w>
3 7.5</w>
tr ace</w>
Visud yne</w>
identif ication</w>
del icious</w>
w rap
olog ous</w>
D id</w>
paint ings</w>
investig ate</w>
ic ans</w>
control ler</w>
inv ite</w>
consist ency</w>
cam tin</w>
W IN
Compl ete</w>
vig abatrin</w>
L as</w>
IL AG</w>
the atre</w>
He ight</w>
comp are</w>
uc t
parag raph</w>
cal culation</w>
9 2
p ins</w>
Vacc ine</w>
K ab
5 50</w>
N ord
olog ist</w>
co gn
Stre ng
FOR T</w>
di um</w>
bis phosph
N ight</w>
F end
Ex cep
mus culoskeletal</w>
d .
ster oids</w>
TE S</w>
Her t
res ol</w>
Sust ain
Est onia</w>
particip ating</w>
ol ive</w>
purch ased</w>
f ood
Ad opted</w>
ra id</w>
f in</w>
appro aches</w>
is a</w>
Mil an</w>
Direc tor
del is</w>
ac ic</w>
RE D</w>
28 5</w>
M ur
E in
over dosage</w>
o S
par ad
B one</w>
ultras ound</w>
lac osamide</w>
teach ers</w>
ro ws</w>
ge usia</w>
on tal</w>
B ay</w>
p ace</w>
k ill</w>
h ole</w>
Ques tions</w>
intra -
RE G
M ild</w>
Chem ical</w>
3 01</w>
19 87</w>
M M</w>
K u
ic ed</w>
head aches</w>
bor tezomib</w>
Metac am</w>
L eb
B .
h ence</w>
W rit
Ind on
8. 3</w>
ent ries</w>
Bi ble</w>
se hr</w>
roman tic</w>
ann e</w>
TER N</w>
M D
b .</w>
Pro duk
www. k
uter ine</w>
cust oms</w>
Res idence</w>
Activ elle</w>
per gill
Yon delis</w>
uc as
H il
correc tion</w>
glucuron idation</w>
at rophy</w>
VI CH</w>
m atic</w>
on ex</w>
-2 8
enjo yed</w>
bl ed</w>
al le</w>
6 50</w>
neigh b
tre as
spectac ular</w>
port al</w>
-------------------------------- --------------------------------
pro xim
16 -
T andem
P aper</w>
A sian</w>
bec k</w>
N L</w>
lab els</w>
bloc ked</w>
S cot
e osin
al do
K at
extra ordinary</w>
ann es</w>
Du o
B enz
refl ects</w>
assess ments</w>
me rely</w>
att ended</w>
archit ec
reco ver</w>
non- steroidal</w>
id ra</w>
Tandem act</w>
T ev
qu e.com</w>
glo ves</w>
toler ate</w>
LO W
end points</w>
sug gestive</w>
she ep</w>
H aving</w>
dis p
comb ines</w>
HOLD ER</w>
part ate</w>
abat acept</w>
C K</w>
ver b</w>
An aemia</w>
wi reless</w>
rec t
N ice</w>
x tra</w>
bon us</w>
zal mono</w>
Kin zalmono</w>
Jos eph</w>
OR AC
oblig ation</w>
cid ofovir</w>
Cerv arix</w>
sustain ability</w>
sulf ate</w>
pl em
cons ist</w>
acl ude</w>
F un
Bar aclude</w>
100 ,000</w>
pil ot</w>
im print</w>
P CTFE</w>
J ames</w>
OS SE
Ari xtra</w>
z umab</w>
em plo
tr ab
in n</w>
dis pose</w>
TIC S</w>
In divid
rece ip
Hy camtin</w>
assu me</w>
2. jpg</w>
SI BLE</w>
OSSE OR</w>
Kr ka</w>
D et
jud g
iqu im
applic ants</w>
Nor disk</w>
Av onex</w>
16 7</w>
ococc al</w>
Pok er</w>
strength ening</w>
tim ately</w>
P ut</w>
B y
form ula</w>
design ation</w>
Sur face</w>
8 00
heart beat</w>
thre at</w>
lands cap
ativ ity</w>
Pharmac otherapeutic</w>
Contin ue</w>
thre ats</w>
insp ired</w>
for t
TR U
F as
C ancer</w>
F I</w>
antid ote</w>
Nag l
Inde x</w>
od ystrophy</w>
bloc ker</w>
G au
W ir</w>
investig ations</w>
arrhyth mia</w>
antipsycho tics</w>
m eter
mening itis</w>
intermedi ate</w>
Z eff
C ru
parti ally</w>
human itarian</w>
func tionality</w>
O uter</w>
Hex al</w>
16 5</w>
ta bility</w>
per mission</w>
terroris m</w>
Glax o</w>
st r</w>
rit uximab</w>
eg g</w>
Re fl
dang er</w>
acalc et</w>
E vent</w>
sal ine</w>
for get
ur ance</w>
pur pura</w>
meth od
Pro j
M is
Ap ple</w>
rep aglinide</w>
Maxim um</w>
ol ution</w>
2 11</w>
t one</w>
phosph amide</w>
N az
ocal caemia</w>
adjuv anted</w>
Zeff ix</w>
Simul ect</w>
G ul
Fer n
p- value</w>
Palest inian</w>
myel osup
ab and
Sun set</w>
Cetro tide</w>
Ap idra</w>
ta pen
ic ken</w>
co- operation</w>
s ano
er ich
ke eps</w>
grad ual</w>
Sum mer</w>
read ily</w>
she ets</w>
op ol
hard ly</w>
Bav aria</w>
Appro pri
pseudo ephedrine</w>
e j
Natur al</w>
CYP 3A</w>
3 10</w>
1, 200</w>
vot ing</w>
p ng</w>
in form
h at
chair man</w>
Tra v</w>
agr astim</w>
Tev agrastim</w>
Men itor
thir st</w>
Duo Trav</w>
rel le</w>
EV ALU
summ it</w>
resid ential</w>
tur nover</w>
tapen em</w>
gener ic</w>
concentr ated</w>
Im medi
oc ellular</w>
ist er
Flo rence</w>
D od
ch urches</w>
b ic
Dic ural</w>
impl antation</w>
w -
it y-
S N
en sin
target ed</w>
oh n
air y</w>
tr ay</w>
Moro c
ris es</w>
Dist ance</w>
sh ift</w>
ell ers</w>
3 1
str act</w>
settl ement</w>
cer tified</w>
at titude</w>
C lo
metast ases</w>
il izumab</w>
h its</w>
assum ed</w>
Ty g
fing ers</w>
anti fungal</w>
N ik
Bl ack
view ing</w>
ar row</w>
Mar ina</w>
recogn ise</w>
pl en
eff ici
Nagl azyme</w>
Fend rix</w>
Chi ef</w>
4 05</w>
j k</w>
TH O
5- FU</w>
leak age</w>
invest ors</w>
OPTI SON</w>
tr acks</w>
e i</w>
Novo Fine</w>
Con tra
14 1</w>
descri be</w>
anti diabetic</w>
mor ph
fen ax</w>
anaphy lactoid</w>
My fenax</w>
sin us</w>
ill er</w>
any where</w>
aldo ster
Agricul ture</w>
mc g</w>
tur ition</w>
ed ronic</w>
v eterin
Environ mental</w>
Y ah
consist ently</w>
U su
A rava</w>
PROTE LOS</w>
B uc
it o</w>
acu ity</w>
prop ose</w>
fin ed</w>
construc ted</w>
pa irs</w>
ord s</w>
vir tual</w>
iquim od</w>
clud es</w>
Reserv ation</w>
Mod ern</w>
Lansopraz ol-
se y</w>
sano fi-aventis</w>
od arone</w>
fav our
depend ence</w>
anz e
Menitor ix</w>
Rati ograstim</w>
l enses</w>
Y EN
di etary</w>
17 6</w>
coun ter</w>
acc eptance</w>
L ist
Cas a</w>
poli tic
har bour</w>
gro und
perit oneal</w>
ergo tamine</w>
ec tion
Er y
EVALU ATION</w>
we ights</w>
to oth</w>
plan et</w>
Inf o</w>
Candi da</w>
P om
L ong</w>
us s</w>
IS A</w>
r ank</w>
me ets</w>
foc al</w>
ch ief</w>
Ca ucas
è re</w>
intoler ant</w>
Author isations</w>
Arch it
ligh t
H B</w>
inf il
C ell</w>
Arz neimit
philosoph y</w>
ast er
ure -
oxy bate</w>
air craft</w>
pl ane</w>
graph ic</w>
e str
New sp
convinc ed</w>
T yp
TM Z</w>
mil e</w>
adv enture</w>
min er
F IN
lymp h</w>
ack ed</w>
lay ers</w>
Consum er</w>
myel oid</w>
struc turing</w>
pre filled</w>
Z yr
YEN TRE
YENTRE VE</w>
B ut
pa st
Sovi et</w>
emerg ing</w>
work load</w>
an l
offici ally</w>
Tyg acil</w>
Sp ace</w>
val idated</w>
Ph ar
Incre ase</w>
produc tivity</w>
isot retinoin</w>
R H</w>
CY STA
prec ision</w>
inhibit ing</w>
3 30</w>
it ness
Cath olic</w>
may be</w>
in spir
ORAC EA</w>
29 4</w>
gib t</w>
cl icking</w>
F a
malign ancy</w>
om al
ic ing</w>
coll ective</w>
LE S</w>
Bas eline</w>
2 99</w>
tel bivudine</w>
- 5</w>
y r</w>
dr am
mac rol
G O</w>
0 85</w>
v ation</w>
la- hab
sh ad
os el
G ender</w>
explan ation</w>
strong er</w>
agon ists</w>
ch apter</w>
O TH
p ou
T ach
Di es
la ur
exp anded</w>
zol amide</w>
1 1,
GAN FORT</w>
sen sus</w>
mill ilit
happen ing</w>
benzodi azep
Portugu ese</w>
K en
ud ine-
asug rel</w>
RE S
di ast
cap s</w>
Be h
Li ber
Econ or</w>
be red</w>
VIS TIDE</w>
Min isters</w>
V id
0 32</w>
u til
s port
titr e</w>
iv abradine</w>
ell ation</w>
br an
Traz ec</w>
é r
t gen
special ists</w>
cyclo phosphamide</w>
fluc tu
stric tly</w>
Manufact uring</w>
pre gab
over come</w>
ir t</w>
hypercal caemia</w>
di r
country side</w>
H i
univer sities</w>
shoul der</w>
parta me</w>
ival irudin</w>
An y
C ID
su rely</w>
mar gin</w>
1.8. 2.</w>
sco red</w>
m ir</w>
-C ILAG</w>
rec ycl
pa rently</w>
erich ia</w>
compris es</w>
Ex cipients</w>
B v
accompan ying</w>
Esch erichia</w>
si on-
o V
H ot</w>
HM G-
Bal cony</w>
se -
phenom en
ophy l
il li
M- M-
M all
find s</w>
ar f</w>
A part</w>
tem ple</w>
Dani el</w>
glomer ular</w>
Val encia</w>
L ang
intell ectual</w>
fl ash
CO M</w>
Un der
Compet act</w>
ch er
vol tage</w>
ch i
L V
vi er</w>
develop mental</w>
tiv ated</w>
resid ues</w>
PD E
N plate</w>
are ly</w>
Zen ap
C in
ycl ines</w>
navig ation</w>
WES TERN</w>
H ans</w>
Ant wort</w>
clo thes</w>
Char les</w>
m ask</w>
N um
G ast
wh enever</w>
h ills</w>
dose- dependent</w>
b rava</w>
pre lim
ab an</w>
O VER
wel comed</w>
0 86</w>
Colle ge</w>
öff ent
az z</w>
Audi o</w>
oste o
los- angel
de als</w>
K öl
af ts</w>
M aps</w>
Gener ally</w>
46 9</w>
quinol ones</w>
it inib</w>
dose- related</w>
minim isation</w>
gener ator</w>
O H
Am end
world -
occas ione</w>
lipid aemia</w>
Pul monary</w>
LITA K</w>
15 6</w>
per mit</w>
Gu ide</w>
us itis</w>
ro ta
14 9</w>
inter view</w>
ic line</w>
dist ress</w>
all y-
Osi graft</w>
Organ isation</w>
C ross</w>
it ra</w>
aren icline</w>
long- acting</w>
am mon
pres ses</w>
independ ence</w>
arbit ration</w>
HMG- CoA</w>
auto immune</w>
as king</w>
ur is
analys ed</w>
G U
ov irus</w>
gl ory</w>
enter prise</w>
govern ance</w>
ch ap
K l
. ypages
influenz ae</w>
www.amarillas est
bil ateral</w>
b ird</w>
al ists</w>
AL IM
k ön
G AME</w>
person ally</w>
inten si
isch er</w>
ei m</w>
dol lars</w>
D T
par alysis</w>
n y
Bal tic</w>
Reg arding</w>
PA H</w>
Lj ubl
ug s</w>
tum my</w>
re ply</w>
Dep uty</w>
as ser
Fin ance</w>
Bri st
menstr ual</w>
Gr am-
Con centr
Al liance</w>
- 4
num er
de ut
Hydro chloric</w>
d ual</w>
Col or
mar g
fis cal</w>
QU ADR
pr ay</w>
Opti sulin</w>
equ ality</w>
Ni fedipine</w>
6. 8</w>
ofl urane</w>
m ou
fluoro uracil</w>
rol ysis</w>
ALIM TA</w>
8. 2</w>
Ge orge</w>
sub stitu
su ited</w>
bron chospasm</w>
st ayed</w>
newsp aper</w>
ur ination</w>
peti tion</w>
h -
O MP
four -
emerg ence</w>
ys in</w>
erlo tinib</w>
end e</w>
w ip
manif estations</w>
Non- clinical</w>
Laborat o
19 85</w>
0. 87</w>
taz apine</w>
2 1st</w>
path ogens</w>
enlarg ed</w>
Cal endar</w>
cen ters</w>
arg uments</w>
JANS SEN
Glu brava</w>
E mp
M ü
JANSSEN -CILAG</w>
sex y</w>
CE O</w>
pe ts</w>
cam ine</w>
Therap eutic</w>
P neum
In hi
36 9</w>
ins a</w>
ad m
Prof ender</w>
gre en
My camine</w>
www. blog
for d
isch en</w>
R VAXPRO</w>
M-M- RVAXPRO</w>
i buprofen</w>
anti gens</w>
Guid elines</w>
m erg
puertoric o.
sti pation</w>
phosph or
con ferences</w>
yl ation</w>
t ings</w>
mas sive</w>
alco hol
mom ents</w>
venti lation</w>
har v
antihist amines</w>
Dis card</w>
b ab</w>
ap ride</w>
F r</w>
os .
diast olic</w>
chec k
cef triaxone</w>
ig er</w>
erad ication</w>
demonstr ation</w>
2 ,000</w>
certif icates</w>
Z u
Ad dress</w>
adap t</w>
ad sorbed</w>
hypercholesterol aemia</w>
Leuko Scan</w>
K id
QUADR AMET</w>
D ur
re mark
is one</w>
ep razole</w>
Rev atio</w>
compl em
paramet er</w>
Intr insa</w>
Appropri ate</w>
comb at</w>
En erg
AD EN
un explained</w>
pre val
concer ts</w>
col or
Dres den</w>
predic ted</w>
lev etiracetam</w>
P ope</w>
s mart</w>
ral tegravir</w>
M ich
19. 00</w>
prelim inary</w>
cre atine</w>
L umin
IN JEC
pa ins</w>
ob st
h agen</w>
plat z</w>
H ib</w>
kilomet res</w>
angiot ensin
SME s</w>
19 86</w>
ery them
teach er</w>
ta ught</w>
EV ISTA</w>
li pos
glycol- epoetin</w>
P K</w>
CE T</w>
2 33</w>
oS il</w>
Rep orts</w>
on as</w>
es cape</w>
ht m</w>
Tach oSil</w>
dam ages</w>
int act</w>
Initi al</w>
om egal
al ap
B log</w>
dep ot</w>
UC B</w>
notic ed</w>
Indi an</w>
rest ore</w>
glycer ol</w>
F inal</w>
0. 6
- 3
eng ines</w>
Francis co</w>
var ying</w>
Cour se</w>
B -0
glucocor tico
ec id</w>
saf egu
otyp ic</w>
Bud d
sper m</w>
sen al</w>
fir ms</w>
di gestive</w>
ben ecid</w>
ov ist</w>
L D</w>
. amarill
no -
estim ates</w>
IM UL
Nor thern</w>
LU M
Bre ast-
16 3</w>
respon sive</w>
ed in</w>
movi es</w>
mon telukast</w>
ec tively</w>
Leip zig</w>
Engine ering</w>
lin en</w>
b exarotene</w>
Sta ff</w>
GD P</w>
at ous</w>
W is
Part ner</w>
resear chers</w>
mar t
commit ments</w>
ob serve</w>
SU R</w>
inhibit ory</w>
S port</w>
vig oro
tim ing</w>
over weight</w>
it um
Vir us</w>
pl atin
man ic</w>
mac ro
indic ators</w>
exhi bits</w>
genu ine</w>
Christi ans</w>
Breast- feeding</w>
phot er
hund reds</w>
ef t</w>
4 31</w>
peo ples</w>
co. uk</w>
photer icin</w>
lim bs</w>
il ef
electroly te</w>
PE T</w>
ph ones</w>
Andre as</w>
Pro p
25 5</w>
exp and</w>
ank ylosing</w>
rest ored</w>
is se</w>
di hydro
X arel
IN N</w>
multic entre</w>
il ysin</w>
Mann itol</w>
time -
Stev ens-
SC AN</w>
Ly on</w>
Dem ocr
CYSTA GON</w>
tar abine</w>
induc er</w>
X L</w>
7. 0</w>
18 2</w>
pregab alin</w>
cep hal
P acks</w>
thor acic</w>
ste am</w>
ens a</w>
Pl aza</w>
pen ilef
0 33</w>
lap atinib</w>
O vit
STA MAR
STAMAR IL</w>
Xarel to</w>
Ovit relle</w>
.... ...</w>
circu it</w>
ed ges</w>
Hep at
19 45</w>
i h
fl ash</w>
trig g
righ te
improv es</w>
immunosup press
lock wise</w>
T ick
yr am
Produc tion</w>
ot er
t ender</w>
real ized</w>
ong side</w>
che ese</w>
Laun dry</w>
I F</w>
9 3
17 7</w>
fibr illation</w>
ed e</w>
dis co
e ks</w>
b idity</w>
com partment</w>
n ull</w>
f usion</w>
ourc e.org</w>
opo ie
W ür
s crip
ib an</w>
carri es</w>
itness .com</w>
inter nationally</w>
fore sts</w>
ac les</w>
tim ulation</w>
ell ac</w>
dys kinesia</w>
Fos can</w>
Tel ef
H AR
mit otane</w>
vascul itis</w>
tig ecycline</w>
penilef itness.com</w>
amarillasl atinas.net</w>
ov ol
out weighs</w>
so ap</w>
L uggage</w>
ph ases</w>
D il
orth ostatic</w>
Di agram</w>
it y
contr a-
Ch ild</w>
s p</w>
n os
ist axis</w>
Lansopraz ol</w>
Down loads</w>
ox aban</w>
om yel
key word</w>
ga uge</w>
am et</w>
if ts</w>
Flu ticasone</w>
An dro
fel low</w>
Zyr tec</w>
Di rek
gr ace</w>
de x</w>
Res ort</w>
mal absorption</w>
haem olytic</w>
dec laration</w>
os si
nec rolysis</w>
all ing</w>
A Z</w>
im eti
exec ution</w>
ef s</w>
Stevens- Johnson</w>
Son oV
auth ors</w>
de alt</w>
B us</w>
ste ins
spe akers</w>
Some times</w>
B TE</w>
Sim ply</w>
Bu ch
19 4</w>
n evertheless</w>
Arti cles</w>
us -
B rem
it ations</w>
con dem
Per s
trans mitted</w>
rest ed</w>
CEP RO
X S</w>
you tube
osel tamivir</w>
eff usion</w>
15 8</w>
enabl ing</w>
Arzneimit tel</w>
wit tgen
card board</w>
Str asse</w>
TRIT ACE</w>
ä ch
ast ery</w>
a ure
Dol om
at t</w>
wittgen steins
wittgensteins ource.org</w>
TA IN
Dep ression</w>
suppl ement</w>
Youn g</w>
C AN</w>
As th
experim ents</w>
oper ates</w>
cor tis
an ter
alter ations</w>
i os
ati s</w>
Inter nal</w>
C all</w>
l up
al tar</w>
win ner</w>
Tr y</w>
ud an</w>
ti tres</w>
muse ums</w>
down load
d in
pro spec
PH P</w>
roc k
ep ith
ab sc
Per form
OP IN
MP A</w>
st y</w>
br ands</w>
resc ue</w>
mar king</w>
inter stitial</w>
FO SA
we t</w>
pa ths</w>
Protoc ol</w>
appreci ate</w>
ul l
en fuvirtide</w>
t t
perfor atum</w>
com posite</w>
MUL TI
sh eim</w>
Rap ilysin</w>
1.8. 1.</w>
for -
Co operation</w>
TN F</w>
u ous</w>
ish er</w>
toc og</w>
install ations</w>
ac izumab</w>
cat ering</w>
Cham ber</w>
ro ots</w>
n am</w>
fol der</w>
fa ith
Hung arian</w>
sem i-
discrimin ation</w>
dis sem
to ol
e w
8. 1</w>
sav ings</w>
every where</w>
autom otive</w>
Ljubl jana</w>
o ke</w>
I LE
D RA</w>
Altern atively</w>
st ays</w>
predn isone</w>
ili ation</w>
ga p</w>
Tran si
M ass
Ex forge</w>
tradi tions</w>
repres entation</w>
H on
CEPRO TIN</w>
le x</w>
Psych iatric</w>
0. 8
gl ad</w>
P OR
sch en</w>
Gr an</w>
Mac rogol</w>
sequ ence</w>
h ang
e. net</w>
deriv ative</w>
L ook</w>
ost at</w>
Adv ocate</w>
am i</w>
GRO UN
wed ding</w>
pow ered</w>
imeti dine</w>
ol f</w>
dem anding</w>
K er
oxy gen
Bas ic</w>
ma x
Hyper tension</w>
reserv es</w>
gastro -
for um
emi ological</w>
K .</w>
15 9</w>
phot oc
optim ized</w>
Excep tional</w>
Br and
toc ilizumab</w>
s lo
consequ ently</w>
conjug ated</w>
s ely</w>
neuro pathic</w>
con sent</w>
IS TICS</w>
Al le</w>
Lod ging</w>
str ange</w>
Dim ensions</w>
el igible</w>
receiv es</w>
om er</w>
Guid ance</w>
13 9</w>
consider ations</w>
ophyl line</w>
in th</w>
cour ts</w>
Micro crystalline</w>
and in</w>
Lev vi
sug ammadex</w>
lit res</w>
impa ir</w>
W as</w>
TR AVA
v ac</w>
Strateg y</w>
Di ese</w>
TRAVA TAN</w>
CID AS</w>
CAN CIDAS</w>
ast inal</w>
S a</w>
erc ept</w>
am ins</w>
F unc
promp tly</w>
ca ke</w>
appropri ation</w>
ü h
P rec
pro thrombin</w>
overn ight</w>
b ivalirudin</w>
it ory</w>
SonoV ue</w>
L ys
G on
Pri ze</w>
Equ ilis</w>
mark ers</w>
7. 9</w>
t elec
big ger</w>
S ab
explan ations</w>
est one</w>
er tapenem</w>
block ade</w>
Pack aging</w>
Moun tain</w>
E- Mail</w>
16 9</w>
f an
br in
H ot
corne al</w>
coh es
H ence</w>
Gau cher</w>
if ying</w>
er as</w>
sup posed</w>
Be it
statis tics</w>
proce ed</w>
ell schaft</w>
L AN
under ground</w>
optim um</w>
G enzyme</w>
R -
Ser ies</w>
trac he
ag iline</w>
CO MP</w>
C .
sens or</w>
c oc
ad emic</w>
Vide os</w>
13 8</w>
se ats</w>
porte urs</w>
B ron
3- fold</w>
youtube .com</w>
ob ese</w>
assess ing</w>
scre ening</w>
gh ing</w>
bos entan</w>
pre vented</w>
entr alised</w>
Sol utions</w>
0 36</w>
induc es</w>
al leg
L ic
u ph
bir th
16 4</w>
tra il</w>
immun o
OVER ALL</w>
behavi oural</w>
mor bidity</w>
gen icity</w>
transl ated</w>
NSA ID</w>
proced ural</w>
Proper ties</w>
orth opa
eib .org</w>
col on</w>
VAN Z</w>
IN VANZ</w>
de e
assi onate</w>
Zar zio</w>
KR KA</w>
Br un
4 10</w>
resid ual</w>
rec i
jud ge</w>
foot ball</w>
Fr an
real ize</w>
Levvi ax</w>
Hyper icum</w>
Cy an
serv ing</w>
AD V
transf usions</w>
fle a</w>
f oods</w>
PF S</w>
GS K</w>
Febru ar</w>
en er</w>
B au
shut tle</w>
Re y
rob ust</w>
Ib af
Ex hibition</w>
consul ted</w>
receip t</w>
thres hold</w>
S c
flu ids</w>
entre pre
S l
Priv igen</w>
L ower</w>
tal ks</w>
mar i
R at
Janu ar</w>
run ny</w>
forc ement</w>
al and</w>
omyel itis</w>
favor ite</w>
ec a</w>
T SCAN</w>
ro bo
og el
Da TSCAN</w>
fre ely</w>
L ift</w>
J av
7. 4</w>
candid ates</w>
www. q
ford shire</w>
S í
N ob
rej ected</w>
break fast
passeng er</w>
Pr ac
E EA</w>
er ge</w>
I tem</w>
Con stipation</w>
lum bar</w>
O B
G n
sp ending</w>
Ber k
An dal
specific ations</w>
Wash ington</w>
re venues</w>
V ac
5. 9</w>
sit e-
W ash</w>
Av and
an dia</w>
Dan ish</w>
Avand amet</w>
clos ing</w>
deleg ation</w>
mid ine</w>
Wh arf</w>
s ung</w>
LI A</w>
Appl ications</w>
ne onates</w>
hepat ocellular</w>
cust om</w>
tis m</w>
is ia</w>
J i
ust ed</w>
dic t
dossi er</w>
19 73</w>
Af gh
05. 2016</w>
w n</w>
out weigh</w>
er ly</w>
Min im
m oxifloxacin</w>
certain ty</w>
viro logic</w>
rota virus</w>
vis ions</w>
e udra
lyophil ised</w>
Every thing</w>
est a</w>
d b
Mer is</w>
am photericin</w>
M en</w>
subs cri
Ne ed</w>
NR TI</w>
5- fluorouracil</w>
certif ication</w>
In flam
Ble eding</w>
ver is</w>
Mac ugen</w>
et ting</w>
Simil arly</w>
S ul
s ailing</w>
ne -
Wor ks</w>
anti bacterial</w>
le f
in aze</w>
Aer inaze</w>
adhes ive</w>
tran qu
amb risentan</w>
struc tur
lo ved</w>
serv ants</w>
ph alan</w>
iv ance</w>
pre mises</w>
flu o
al ise</w>
6 00
se emed</w>
inter -
NE VAN
N r.</w>
Georg ia</w>
3 38</w>
SAR L</w>
ard -
Th i
NEVAN AC</w>
ha be</w>
Up dated</w>
ga thered</w>
man agers</w>
flow s</w>
8. 6</w>
w ounds</w>
dis c</w>
R AL</w>
W o
he re
azep am</w>
V II</w>
bas al</w>
Sy ria</w>
indic ator</w>
as m</w>
train s</w>
it ment</w>
gener ations</w>
bu x
sug ars</w>
sol ely</w>
alpha -
F ire
trans action</w>
he ated</w>
N O</w>
0. 18</w>
IT Y</w>
R iv
Decre ased</w>
pre ad</w>
FOSA VANCE</w>
theore tical</w>
phenomen on</w>
et an
ci o</w>
Liv ensa</w>
Kep ivance</w>
Circ adin</w>
pic tures
carb onate</w>
nerv es</w>
moun ted</w>
c etuximab</w>
Ori on</w>
IG AN</w>
se es</w>
Z IMUL
Bot ulinum</w>
1 17
interfer ons</w>
Syst emic</w>
Pro Meris</w>
At t
encour aged</w>
.ht ml
alk onium</w>
L earn</w>
IT T</w>
sent ence</w>
angiotensin -
V ar
LUM IGAN</w>
5 ,000</w>
Investig ations</w>
o be
in appropriate</w>
ã o</w>
them es</w>
tam ol</w>
ov al-
ge al</w>
bux ostat</w>
atten d</w>
Z ü
op pon
met er</w>
id ul
Lu veris</w>
exten sions</w>
Y Y</w>
INTE GR
r u</w>
AV ON
tr ast
st al
og am
so res</w>
sel ex</w>
eng er</w>
St art
Em selex</w>
or ie</w>
N ever</w>
host s</w>
cu ts</w>
1, 500</w>
ann er</w>
15 ,
spas ms</w>
aure us</w>
H od
tight ly</w>
ami odarone</w>
stabil ised</w>
mig raine</w>
Alex ander</w>
mov es</w>
Pr ices</w>
J ord
o ir</w>
De z
5 26</w>
up set</w>
ograph ical</w>
subl ingual</w>
side- effects</w>
PHAR MAC
po ols</w>
cat ch</w>
E 110</w>
9 th</w>
por ine</w>
l ens</w>
ab ol
Gre en
Clim ate</w>
R ad
H T</w>
iz ole</w>
f- life</w>
rel ide</w>
O ut</w>
dest inations</w>
del ays</w>
Gad ovist</w>
Col or</w>
municip ality</w>
as c</w>
7. 8</w>
agg ressive</w>
in ide</w>
bit ches</w>
ly que.com</w>
merc k
7. 1</w>
ro s</w>
Be ing</w>
wor thy</w>
V as
SPE CI
AN T</w>
i w
arm ed</w>
oc rats</w>
ZIMUL TI</w>
Lumin ity</w>
um b
po ker</w>
opoie tic</w>
Sí mi</w>
pr asugrel</w>
jp g
iv udine-
gl ul
Sch ering</w>
Im prov
E 132</w>
2 39
exhi bited</w>
TA B</w>
Cere zyme</w>
val ve</w>
ex e</w>
K ft</w>
b ever
ges ch
club s</w>
ch el
uni form</w>
un born</w>
post p
in et
pl a
im esul
pen ic</w>
Pre mium</w>
N ox
des c
ail and</w>
ac tu
14 ,
k r
at er
Dis cover</w>
19 9</w>
id en</w>
af raid</w>
Doc ument</w>
v or</w>
Proj ek
Hel sin
0.0 88</w>
ex trav
ZA AR</w>
T .</w>
Ex cell
6 0-
ca m</w>
tro ubl
bi otechnology</w>
An dr
8. 7</w>
refug ees</w>
m nt</w>
AC TER
lux ur
g out</w>
cy an
ir on
bi om
ve ins</w>
Lev itra</w>
Over dose</w>
6 4-
ul fan</w>
se ed</w>
prot ecting</w>
. amarillas
relap sed</w>
i est</w>
cos me
Res ist
ac e
G y
vari ant</w>
on ec
t ank</w>
hydr ated</w>
c ement</w>
assi sted</w>
Th ir
ro p
pois oning</w>
compens ated</w>
26 -
ar isation</w>
Signific ant</w>
ü ck</w>
medium- sized</w>
l t</w>
F air</w>
AR TIC
Zenap ax</w>
beta- blockers</w>
anti- HIV</w>
P SUR</w>
Ar t.</w>
iti ous</w>
re tail</w>
exacerb ations</w>
di on</w>
comp ul
t max</w>
hyper kalaemia</w>
19 84</w>
est yle</w>
IL -2</w>
Circ us</w>
recogn ize</w>
pri ests</w>
Enter prise</w>
An xiety</w>
d all
as ide</w>
q a</w>
forget table</w>
P- gp</w>
trig ger</w>
le k
last s</w>
rac ing</w>
enh ancement</w>
US ER</w>
0. 35</w>
0 35</w>
perform ances</w>
incre ments</w>
anti thrombin</w>
orthopa edic</w>
Wil zin</w>
Ty verb</w>
25 th</w>
first- line</w>
P in
L ind
OPIN ION</w>
Innov ation</w>
vic tory</w>
igh ty</w>
Cas ino</w>
less er</w>
bl o
stra at</w>
St eph
ut or</w>
c ock
v end
S ant</w>
L op
Arch ive</w>
m ad
iso enzymes</w>
S cript</w>
INTEGR IL
Nor m</w>
toric oxib</w>
glul isine</w>
EF F
E toricoxib</w>
ta p</w>
ob structive</w>
Circ um
w ich</w>
Cl assi
v aries</w>
onc e-
ban king</w>
Equ ip
AVON EX</w>
gest ation</w>
IG F
as er</w>
Tw itter</w>
syst olic</w>
na ire</w>
ast ing</w>
Str uc
Cor l
oz ide</w>
P Is</w>
Cap ital</w>
L ud
ARTIC LE</w>
OP TRU
Corl entor</w>
om im
Mar k</w>
CHAR ACTER
Anton io</w>
ex er
in .com</w>
b r</w>
z ine</w>
last ed</w>
c lockwise</w>
SA P</w>
CHARACTER ISTICS</w>
w ood
con sensus</w>
evol ution</w>
0 54</w>
treatment- related</w>
qu es</w>
photograph s</w>
k ir
are n</w>
T ren
At lantic</w>
AZ AR
trast uz
s c</w>
comp uters</w>
Oper ations</w>
5 35</w>
un ded</w>
le u
Lou is</w>
refer rals</w>
weak ened</w>
pre- treatment</w>
An aphy
ab und
www.q lyque.com</w>
he it</w>
agg regation</w>
Kitch en</w>
en ters</w>
Pi er
Frequ encies</w>
A U</w>
Nox afil</w>
isch aemia</w>
co oling</w>
att ach</w>
Prepar ing</w>
st ery</w>
pass age</w>
F atigue</w>
z oster</w>
mon etary</w>
bro thers</w>
Ox y
hypers timulation</w>
th ick</w>
ca uti
medi astinal</w>
jud ged</w>
it s
duc tion</w>
bli otec
Dez ember</w>
W id
N L-
cos y</w>
COX IA</w>
AR COXIA</w>
P ak
201 1-
.c z</w>
Tar get</w>
Quint anrix</w>
Inhi bitors</w>
AZAR GA</w>
et ate</w>
V eg
Partic ip
u el</w>
pip ette</w>
di hydrochloride</w>
cal m</w>
behavi or</w>
INTEGRIL IN</w>
F IR
Comp are</w>
Assem bly</w>
veterin arian</w>
ul ins</w>
B alk
p ush
cr ushed</w>
usion- related</w>
le m</w>
Sw elling</w>
ect edin</w>
RELE ASE</w>
n ails</w>
fru its</w>
Corpor ate</w>
del ete</w>
bro ch
EC ALTA</w>
ter ing</w>
st o</w>
Mod er
ch oc
aut umn</w>
19 80</w>
H az
tal c</w>
lo ans</w>
A P</w>
tet rac
a ine</w>
YY YY</w>
3 16</w>
static .
hy gi
decis ive</w>
UF ACT
MAN UFACT
2- 4</w>
OPTRU MA</w>
v il
N S
4 65</w>
loc ks</w>
bo y</w>
0 1-
sp ect</w>
H E
Elec tron
Comp on
open hagen</w>
avi an</w>
Z est
Pe ak</w>
ca us
Dod ge</w>
An g
h as
Zy pre
T ext</w>
P U
Zypre xa</w>
Evol tra</w>
VI AG
w ax</w>
cis apride</w>
am pl
20 mg</w>
se in</w>
produc er</w>
or rhoea</w>
36 6</w>
fi b
Hy pot
BLIS TER</w>
obvi ously</w>
i tions</w>
acknowled g
28 th</w>
he rent</w>
at opic</w>
S eas
ter nal</w>
30 -2
wit ness</w>
termin ation</w>
ha ven</w>
fall en</w>
a an</w>
Sh are</w>
a ver
tw enty</w>
medi eval</w>
2 27</w>
dec oxib</w>
high lights</w>
ges tions</w>
Zest ril</w>
simul taneous</w>
A Tr
cy tarabine</w>
ripro x</w>
op posed</w>
Fer riprox</w>
Dat ab
tre x
trans formed</w>
ful filled</w>
eng aged</w>
ant i</w>
ATr yn</w>
wor st</w>
P eter
uti liz
sp an</w>
no. 8
all ed</w>
L ady</w>
wor ry</w>
Dar k</w>
enc ing</w>
dys phagia</w>
Un til</w>
3 0.0
j ack
Viet nam</w>
S ave</w>
E arly</w>
ac ious</w>
Sh opping</w>
P ush</w>
t ness</w>
demonstr ates</w>
Sup er</w>
Direk t
Y outh</w>
C ot
ven ess</w>
In tro
styl ish</w>
and o</w>
Wor d</w>
20 9</w>
mat rix</w>
hom epage</w>
be gun</w>
P B
AC T</w>
35 2</w>
z en
prom ise</w>
b y-
amb itious</w>
18 4
s h</w>
g at
e age</w>
thum b
pos ing</w>
- free</w>
C anc
un forgettable</w>
p r</w>
H ard</w>
nov el</w>
del et
carb amide</w>
arter ies</w>
Secret ariat</w>
su ites</w>
Jud ah</w>
incre di
C AL
ish -
g l</w>
Novo Norm</w>
35 5</w>
x i</w>
H RT</w>
www. youtube.com</w>
pit u
ra ys</w>
p tions</w>
oph istic
inc en
g ef
cohes ion</w>
K re
sub stitution</w>
contra indication</w>
Hel p</w>
em izole</w>
as partate</w>
On -
Dis pose</w>
0 44</w>
semin ar</w>
end oth
G I</w>
0 70</w>
Pac ific</w>
Ad ri
str y</w>
mel an
hair dryer</w>
al li
vege tables</w>
min ent</w>
bed time</w>
S ER
Mo z
Al ps</w>
µ M</w>
C Z
y cin</w>
www.blog ig
f ing</w>
Hep sera</w>
wid er</w>
system atic</w>
Y ou
Al dar
s ickness</w>
U .</w>
min al</w>
i ert</w>
bl ind
N el
H ill</w>
ol azine</w>
Israel i</w>
2015- 12-
acceler ated</w>
T W
14 00</w>
og raf</w>
n M</w>
convul s
hus band</w>
cas pofungin</w>
E 9
remain der</w>
in aemia</w>
Ur l</w>
7. 7</w>
50 ,000</w>
perf icial</w>
ma k
Ad just
11 -0
oti tis</w>
ey ad
Vid aza</w>
MT X</w>
special ized</w>
ol ig
ox ane</w>
ni k</w>
Sun rise</w>
G 1</w>
vul ner
ro tigotine</w>
mel phalan</w>
19 1</w>
bliotec apl
bliotecapl eyad
3 x
bliotecapleyad es.net</w>
as leep</w>
G T</w>
e z</w>
H ong</w>
re ar</w>
www. eib.org</w>
ou ldn</w>
k illing</w>
4 11</w>
www.bi bliotecapleyades.net</w>
lay out</w>
c ss</w>
2 35</w>
escal ation</w>
Th ailand</w>
immunosup pression</w>
craw l</w>
architec tural</w>
7 0-
2 28</w>
du ties</w>
P seud
28 8</w>
í a</w>
ple en</w>
kilomet ers</w>
don ors</w>
d yst
ur able</w>
G old</w>
commun icate</w>
coll apse</w>
te -
Oper a</w>
drow sy</w>
accur ately</w>
G eb
or m</w>
ha i</w>
fact or
ac itidine</w>
MAO I</w>
os pel</w>
S SR
Ar be
w aves</w>
B rati
0. 9
institu ted</w>
en ox
G B
Sen ior</w>
F uture</w>
d L</w>
EU TIC
if en
delet ed
T max</w>
Har mon
re turning</w>
gr and
R ules</w>
Ch est</w>
dist ur
di phtheria</w>
Pr andin</w>
9. 4</w>
ver tical</w>
susp ended</w>
K ong</w>
ADV ATE</w>
ys acchar
Char ter</w>
TO VI
R E</w>
M BL
Cul tural</w>
- 30</w>
p ovidone</w>
fol inate</w>
f estiv
at rial</w>
TOVI AZ</w>
Adv anced</w>
Brati sl
tri um</w>
gonadot roph
argu ment</w>
TA L</w>
IV EMEND</w>
w ill
TE VA</w>
D OS
re ferences</w>
no tably</w>
coun ted</w>
R ight</w>
Circum stances</w>
24 th</w>
tri b
inter n
Je an-
ur ge</w>
ul ty</w>
pop ul
consolid ation</w>
5. 00</w>
st ake
extrem ities</w>
36 3</w>
I h
in stances</w>
tre co
contr ad
un wanted</w>
treco gin</w>
18 9</w>
anti epileptic</w>
Boo k
separ ation</w>
for w
bev acizumab</w>
U m
S ti
Pat ent</w>
on i</w>
ant a</w>
Pro vid
n em
All erg
partic ul
Prote in</w>
8. 4</w>
3 ,000</w>
su its</w>
mus icians</w>
ch il
Av andia</w>
incorpor ated</w>
fascin ating</w>
Reg ulatory</w>
compl ication</w>
M other</w>
F .</w>
HIV- infected</w>
entr um</w>
child -
Publ ished</w>
wel comes</w>
pas sion</w>
meth op
th ouse</w>
sh aken</w>
re feren
coord inated</w>
we h</w>
T ax
wid es
find en</w>
om eprazole</w>
imm er
ge ometric</w>
l ys
Suc rose</w>
f et
R ICA</w>
h eter
en alap
cholin ergic</w>
Argent ina</w>
drop ped</w>
ma ker</w>
vi br
clou d</w>
MBL ength</w>
Islam ic</w>
fast- acting</w>
LL ING</w>
Mechan ism</w>
AC OMP
un fortunately</w>
spon taneously</w>
idul afungin</w>
LE X</w>
licens ed</w>
initi ate</w>
G PS</w>
Angi ox</w>
2 1-
char ter</w>
TT P</w>
C OR
iv al</w>
a ult</w>
S le
PD T</w>
tum bl
effici ently</w>
dis position</w>
dee ply</w>
f ederal</w>
CON TAIN
trac king</w>
as partame</w>
z ones</w>
pen is</w>
obl ong</w>
fl esh</w>
V AS
3 27</w>
trac es</w>
sh alt</w>
onec rosis</w>
Neutro penia</w>
H Cl</w>
is ite</w>
conflic ts</w>
17 3</w>
soci eties</w>
Ul tr
P ir
0. jpg</w>
W all</w>
sin usitis</w>
man ia</w>
conv ey
contin ent</w>
T om
Bratisl ava</w>
12, 5</w>
pris on
cycl ing</w>
201 0-
.p l</w>
los ses</w>
K ra
Angel es</w>
fibr in
Ten ofovir</w>
Perform ance</w>
Nor dic</w>
y early</w>
mucos al</w>
Pa ul
Ly mph
L ac
CYP 450</w>
m us</w>
co verage</w>
5 27</w>
2 32</w>
autom ation</w>
-- -</w>
onym ous</w>
eh n</w>
b ands</w>
Pers onal</w>
Lit tle</w>
2 24</w>
glu tam
Represent ative</w>
B ath</w>
uc e</w>
connec ting</w>
ceremon y</w>
k t</w>
spon s
lev ard</w>
ra d</w>
ate c</w>
200 7-
sur prise</w>
inv al
Ch ic
adren aline</w>
- D
y east</w>
Usu ally</w>
ti ght</w>
sho es</w>
lab or</w>
fa thers</w>
s ophistic
Bor n</w>
trastuz umab</w>
Hol ders</w>
remark able</w>
vari ables</w>
alk al
a jo
LABE LLING</w>
Hypot ension</w>
H P</w>
ten s</w>
sp ite</w>
qu ery</w>
phot ography</w>
neutr al</w>
nal trex
glucuron ide</w>
exhi bit</w>
Gen otype</w>
An na</w>
K y
relap ses</w>
f ar
at tained</w>
men op
impl ications</w>
ACOMP LIA</w>
tow els</w>
grap efruit</w>
gab apentin</w>
cogn itive</w>
Pro prietary</w>
IN T
Aldar a</w>
az yr</w>
ass urance</w>
Zü rich</w>
RE FER
lib ido</w>
jo ining</w>
child hood</w>
calcul ate</w>
P ag
May be</w>
I sol
Z IDE</w>
P I
Dist ric
oph osph
ar range</w>
Fir azyr</w>
preci ous</w>
perc eption</w>
we aring</w>
rad ical</w>
fun ded</w>
Rot ter
-C SF</w>
tif ies</w>
0 34</w>
oo gle
UR IC</w>
REFER RAL</w>
H it
Ciprox in</w>
ur tec</w>
Yah weh</w>
Win ter</w>
Fast urtec</w>
t oral</w>
spar ing</w>
al ign
A E</w>
ti que</w>
Indon esia</w>
H ow
ADEN URIC</w>
combin ing</w>
l ut
dimin ished</w>
N ot
pri de</w>
evalu ating</w>
ab ig
G ö
lif ts</w>
fr anc
sch on</w>
8. 9</w>
cir cle</w>
arti cle
sand y</w>
F ix
equ ine</w>
M odi
M I
H ard
varic ella</w>
tr ad
pres sions</w>
l .
Bre ast</w>
4 57</w>
up side</w>
si ghts</w>
inter s</w>
chem icals</w>
arrang ement</w>
a. com.
F res
A sh
par ks</w>
b b
W TO</w>
Statis tic</w>
4 80</w>
0 200</w>
neutroph ils</w>
in ates</w>
imag ine</w>
Pr int</w>
pim ozide</w>
mand ate</w>
4 70</w>
power .de</w>
conveni ence</w>
anti -</w>
F are
y le
pictures que</w>
pa d</w>
comp uter
at osis</w>
vir tually</w>
ill nesses</w>
bisphosph onates</w>
ca ught</w>
and ro
gel atin</w>
soldi ers</w>
bour ge
VIAG RA</w>
op ton</w>
e ate</w>
Tac rolimus</w>
di l</w>
veg et
r an</w>
agg ression</w>
Direkt link</w>
Ag opton</w>
intrac ellular</w>
cys tic</w>
TI ON
perf usion</w>
um entation</w>
descri bes</w>
at us</w>
ok it</w>
T ab</w>
ili ximab</w>
ul ating</w>
govern mental</w>
ot ard</w>
Rich ard</w>
My ers</w>
Cyan okit</w>
l icht</w>
integr ate</w>
dead line</w>
b ay</w>
Reg ister</w>
Fentan yl-
El ap
C B
zol edronic</w>
S we
Pro cor
vacu um</w>
no d
Rel eased</w>
Procor alan</w>
On senal</w>
7. 6</w>
im iquimod</w>
Pharmac odynamic</w>
P ovidone</w>
lo an</w>
cap one</w>
di ving</w>
vi val</w>
fast ed</w>
decis ion-
believ es</w>
Ex change</w>
econom ies</w>
W .</w>
P atr
Gad ograf</w>
M IC</w>
12 50</w>
transf ers</w>
ar y
Cath edral</w>
Edi f
gar age</w>
R D</w>
Ne ed
rab bit</w>
r ar</w>
ogel power.de</w>
gre w</w>
U V</w>
9. 3</w>
www.m ogelpower.de</w>
ent y-
cor ruption</w>
Elap rase</w>
Auth or</w>
activ ate</w>
et ry</w>
Wolf gang</w>
G ot
phot ograp
warr anted</w>
Recon c
sm an</w>
pa ste</w>
ag a</w>
Multi ple</w>
Vit amin</w>
T rain</w>
pro benecid</w>
poll ution</w>
E in</w>
vit amins</w>
Sw allow</w>
t od
Over view</w>
y esterday</w>
ic idal</w>
hap p
serv ant</w>
magn itude</w>
R io</w>
res umed</w>
re structuring</w>
no re
ir reversible</w>
ick le</w>
ca usal</w>
summar ised</w>
air way</w>
pion ship</w>
jo in
sug gestions</w>
epl on</w>
check- in</w>
blood -
Rep e
Moun tains</w>
Hell o</w>
R ed
it i</w>
am ylase</w>
W A
K la
observ ations</w>
nel arabine</w>
Stor age</w>
F ort
2- fold</w>
dri ves</w>
4 07</w>
cap ac
ten ed</w>
pro long</w>
breakfast s</w>
W all
Fr amework</w>
lar opiprant</w>
author ized</w>
Rotter dam</w>
naltrex one</w>
erg on
diver g
Open ing</w>
ile ad</w>
adolesc ent</w>
ate gl
w ick
stat e-
pitu itary</w>
horiz ontal</w>
FOL LOW
val decoxib</w>
ta ges</w>
sev oflurane</w>
pri me</w>
Sing ap
G ently</w>
st aying</w>
hyp ocalcaemia</w>
cef uroxime</w>
T e</w>
uron tin</w>
los ing</w>
excur sions</w>
15 4</w>
ss d</w>
promp t</w>
tico s</w>
Med DRA</w>
v arenicline</w>
po s</w>
mag ic</w>
Sa quinavir</w>
iP od</w>
f t
bo ost</w>
al er
Refl udan</w>
vis u
fo am</w>
em bed
p ko
det ectable</w>
pres se</w>
etan ercept</w>
environ ment
MR L</w>
AP S</w>
sun ny</w>
site- crawl</w>
pko ehn</w>
2 22</w>
supplem entary</w>
k en
on- site</w>
D ear</w>
un acceptable</w>
C ent
repl ication</w>
Bon n</w>
38 3</w>
ob ic</w>
ast ex
anc a</w>
M é
Leu k
Ap ply</w>
tox oid</w>
cere bral</w>
atr an</w>
rol ler</w>
F em
Ber n</w>
tin y</w>
P OS
H amp
www. vid
u ste
sal iv
c any</w>
He av
er up
ak in
Streng th</w>
ras agiline</w>
e .de</w>
yi eld</w>
un clear</w>
ib b</w>
3 45</w>
F IL
ti an</w>
Imm obil
intellig ent</w>
p ushing</w>
j ug
P il
at i</w>
O P</w>
EN T</w>
ic al
ac es</w>
Mall orca</w>
M S
Hol ding</w>
3 2-
ri var
ref res
pris on</w>
ast emizole</w>
assi um-
anag relide</w>
opi oids</w>
be re
ON G
human ity</w>
benzodiazep ines</w>
ant acids</w>
4 06</w>
sun set</w>
m p</w>
know -
inter ference</w>
bi an</w>
a str
Mon otard</w>
18 6</w>
oz y
D oes</w>
sleep y</w>
stric tion</w>
ren z
od es</w>
T ol
R ound</w>
Dis continuation</w>
rivar oxaban</w>
es ome</w>
ategl inide</w>
Cl om
www.vid c.org</w>
ed itor</w>
0 69</w>
ul timately</w>
foun d
W ort</w>
Th ird</w>
Sub jects</w>
weigh ed</w>
N u
F arm</w>
mand atory</w>
ect omy</w>
abig atran</w>
biop sy</w>
Hell as</w>
mir ror</w>
cit ric</w>
Viv anza</w>
PAS I</w>
F ive</w>
electro cardi
b icycle</w>
P enta</w>
4 40</w>
or ic</w>
Ne urontin</w>
Di ego</w>
www.blogig o.de</w>
pas sive</w>
enem ies</w>
My co
C openhagen</w>
ex cluding</w>
17 9</w>
marri ed</w>
P un
2 -</w>
fen ac</w>
ev i
Inser t</w>
Thromb ocytopenia</w>
37 6</w>
20 4</w>
off set</w>
head quarters</w>
Re actions</w>
3 37</w>
ir ts</w>
ing .
g rid</w>
Ap pe
26 4</w>
tr ails</w>
menop ause</w>
k ost
Sha ke</w>
Di agn
over looking</w>
la an</w>
In spec
attri b
Vill age</w>
aut on
Di abetes</w>
kne e</w>
subsidi ary</w>
sol v
independ ently</w>
hospit ality</w>
bran ches</w>
Coll ection</w>
5 80</w>
ob al
wides pread</w>
t us</w>
prostagland in</w>
hyp om
ham ster</w>
We ek
PE G</w>
A m</w>
P N
cal ves</w>
0 90</w>
Squ ibb</w>
Ar ri
dev oted</w>
psych ological</w>
alfa-2 a</w>
elim inate</w>
St op</w>
S mo
in er
28 7</w>
wi eder</w>
sym path
ific ations</w>
Helsin ki</w>
B ang
z ar</w>
pan els</w>
isol one</w>
ad ays</w>
V ani
Dom in
y .htm</w>
min ing</w>
pro gen
Li brary</w>
methop rim</w>
Datab ase</w>
en ical</w>
b au
19 83</w>
dre w</w>
O K</w>
F entanyl</w>
2 97</w>
cab in</w>
19 -
l eng
inter active</w>
alumin um</w>
Qu ick
G ilead</w>
19 81</w>
fib atide</w>
conjug ate</w>
R ail
EC U</w>
29 3</w>
os -
Kid ney</w>
Fam il
y- to-
new sletter</w>
contra indications</w>
Pharmacokine tics</w>
4 5-
inter mit
ev id
enter a</w>
beg in
B AT
sho ts</w>
en em</w>
Distric t</w>
u ality</w>
restric tion</w>
ne on
el et</w>
Mo on
Hyp ogly
spon ge</w>
e al</w>
bu re
K ol
ce iling</w>
prolifer ation</w>
epid emiological</w>
Vani qa</w>
E M</w>
OTH ER</w>
neutro penic</w>
compl ement</w>
wat er-
person ality</w>
intellig ence</w>
az em</w>
2 90</w>
Pri alt</w>
2 75</w>
no c
cyto k
bus y</w>
San o
Qu e
be hold</w>
ard ous</w>
STR IC
E 14</w>
Res id
R ace</w>
201 3-
fl ushes</w>
e ive</w>
VEL O
ic ardi
Administ r
0 100</w>
25 1</w>
design er</w>
rep utation</w>
bar bec
PT H</w>
I mp
rem em
ro ugh</w>
Euro s</w>
f il</w>
eng age</w>
sin s</w>
benz yl</w>
0 96</w>
ja w</w>
Tus cany</w>
Spi el
C os
19 79</w>
throm bol
cast ing</w>
F it
fl ush</w>
canc ellation</w>
am ides</w>
3 98</w>
foc uses</w>
be an</w>
200 9-
f on
26 7</w>
elec tive</w>
Met ro</w>
Mes se</w>
Moroc co</w>
19 8</w>
compet e</w>
ajo .com</w>
10. 00</w>
sph eres</w>
her self</w>
е л</w>
R G
O M</w>
kön nen</w>
el s
wis dom</w>
molec ules</w>
Cli k</w>
GROUN DS</w>
spe aker</w>
nit us</w>
PHARMAC EUTIC
RE L
ze it</w>
Ze aland</w>
ide ally</w>
e igh
cin acalcet</w>
c ann
Opti Clik</w>
Mater ial</w>
F oto</w>
predn isolone</w>
sep tic</w>
s overe
investig ator</w>
ad min</w>
re mind</w>
foc using</w>
min ib
enem y</w>
Los artan</w>
BL UE</w>
el se
VELO TAB</w>
intra ocular</w>
ar ks</w>
2 37</w>
t omycin</w>
9. 6</w>
blist ering</w>
ank en
S pl
N one</w>
par turition</w>
ot or</w>
of oxifene</w>
gl arg
V an</w>
ligh ted</w>
colo rectal</w>
amen ities</w>
pneum onitis</w>
or fin</w>
ad rib
Newsp apers</w>
sub stitute</w>
adrib ine</w>
ral oxifene</w>
min ority</w>
West ferry</w>
T V
Inf ection</w>
occup ied</w>
Man aging</w>
2 49</w>
read s</w>
low- dose</w>
DI N</w>
ter ies</w>
ud es</w>
uct ose</w>
co ws</w>
3 41</w>
LY RICA</w>
Bel ow</w>
14 8</w>
19 82</w>
fi re
2 23</w>
y og
eas e-
bu g</w>
17 -
af ting</w>
201 2-
contrib uting</w>
don ation</w>
SO CI
FOLLOW ING</w>
3 4-
of- the-
Scal e</w>
gl ac
EL ISA</w>
0 50</w>
ind ers</w>
ac ademic</w>
Com pared</w>
yel lowing</w>
py ri
belie f</w>
ach er</w>
acc o</w>
Hy po
ty ard</w>
as e-
Ch ec
gu ia</w>
enh ancer</w>
y ours</w>
datab ases</w>
ro unded</w>
rec tion</w>
publ ic
F ot
- and-
lo vers</w>
mat uration</w>
imm igration</w>
fish eries</w>
Re in
necess ity</w>
ac ea</w>
4 25</w>
repeat edly</w>
fab ric</w>
satis fy</w>
inc es</w>
ren a</w>
ma ster
in ely</w>
lup us</w>
L yr
sh arp</w>
pain ted</w>
ill ary</w>
fol i
ri ed</w>
hydroxy carbamide</w>
Sp ect</w>
Neo Spect</w>
Fo rest</w>
HB s</w>
2 F
l aying</w>
D un
v ap
oesophag itis</w>
Inst all
A maz
wei z</w>
mem antine</w>
atur ia</w>
aden opathy</w>
VIR B
Dem ocrats</w>
igh ted</w>
struc tured</w>
pancre atic</w>
hol es</w>
W S</w>
R ab
26 1</w>
lat eral</w>
innov ations</w>
adjunc tive</w>
b ank
pa int</w>
aldoster one</w>
f arms</w>
ensu red</w>
abnorm ality</w>
TRI TA
COM M
B ell
p g
f abr
TRITA ZIDE</w>
A vi
short -
intramus cularly</w>
id el
eti ri
analges ic</w>
VI G</w>
t ep
hor n</w>
U s</w>
Tal c</w>
Ibaf lin</w>
De ath</w>
ti e</w>
consist ed</w>
an de
Cl ass
no des</w>
mac ular</w>
AP INE</w>
inv est</w>
F A</w>
5 90
5 40</w>
ycl ic</w>
m ere</w>
beta-1 a</w>
ure l
od ren</w>
fe as
b or</w>
index .html
CL C</w>
16 ,
cha ired</w>
T s
T ou
Gli ol
gra f</w>
a em
Ultr atard</w>
A b</w>
Ch ile</w>
ann a</w>
B ER
yl actic</w>
tem sirolimus</w>
resid ents</w>
mil ky</w>
g ood
b acking</w>
Fin nish</w>
know- how</w>
exec utive</w>
eb ook
dic tion</w>
Jac ob</w>
t z</w>
UT E</w>
G IST</w>
Eis ai</w>
Comt an</w>
year- old</w>
vi zumab</w>
tumbl r.com</w>
togen etic</w>
V inc
Pra ha</w>
E W</w>
Clin ically</w>
fi able</w>
eth nic</w>
Ver lag</w>
Hert fordshire</w>
in ev
af act</w>
Non afact</w>
s ail
ar us</w>
D erm
leg ally</w>
pro mis
or ted</w>
N I
9. 0</w>
per -
he rence</w>
coun ting</w>
cap abilities</w>
c imetidine</w>
Fr ank</w>
leb itis</w>
Rati o</w>
Inflam mation</w>
celeb rated</w>
Por c
un complicated</w>
M UN</w>
om es</w>
ma ize</w>
U sers</w>
P h</w>
ex cl.</w>
stri ps</w>
micro biological</w>
N ur
CL US
ph asic</w>
Tu be</w>
tail ored</w>
pi roxicam</w>
os por
it z</w>
afen ib</w>
exce eds</w>
sophistic ated</w>
s ne
ag rid</w>
ag ran
act one</w>
Singap ore</w>
dys geusia</w>
pro duk
am n
OP T</w>
strength ened</w>
ris k-
M ig
pali peridone</w>
lip odystrophy</w>
ifen acin</w>
Recomm end
F C</w>
struc k</w>
T radi
3 17</w>
öffent licht</w>
poly ester</w>
ir respective</w>
Sum mit</w>
Im plem
em e</w>
St om
Sou thern</w>
Gol den</w>
AV AND
AVAND AMET</w>
ver sity</w>
entrepre neur
d f
b ow</w>
ov aries</w>
er k
bel t</w>
anl ass</w>
X agrid</w>
Sympt omatic</w>
ti azem</w>
mo on</w>
j uris
in et</w>
imesul ide</w>
glarg ine</w>
j av
7. 3</w>
wiki pedi
medic ated</w>
deleg ates</w>
bus ulfan</w>
OL ANZ
OLANZ APINE</w>
is si
4 55</w>
inf requ
bri ef
th ecal</w>
rh ino
L S</w>
p it</w>
Bot ox</w>
evalu ations</w>
organ ize</w>
al ongside</w>
T ok
E specially</w>
3 23</w>
su per</w>
mil eage</w>
Lys odren</w>
dut os</w>
ati le</w>
T ax</w>
na ive</w>
guit ar</w>
Universit ät</w>
L es
Incre ases</w>
j an</w>
Mus ik</w>
gol den</w>
O TE</w>
Inter vet</w>
wel coming</w>
resp ected</w>
reserv oir</w>
pro found</w>
car mine</w>
ap ple</w>
fin ishing</w>
al arm</w>
T rib
C yst
sig ht
Y S</w>
Cle an</w>
writ er</w>
m ount</w>
boo t</w>
29 2</w>
Di en
rau d</w>
O h</w>
haz ardous</w>
P on
Re productive</w>
under goes</w>
pre mix</w>
or ly</w>
head ing</w>
anc e-
Pro dutos</w>
et c.</w>
oph armac
az acitidine</w>
proc urement</w>
M ov
H L</w>
D MAR
g r</w>
2015-12- 05</w>
was n</w>
de hydrogen
preca utionary</w>
pla que</w>
li ste
enc e-
mid os</w>
Europe ans</w>
RE STRIC
BE G</w>
3 80</w>
minist er</w>
Transi ent</w>
28 -
2 17</w>
pro mises</w>
gluc agon</w>
ax yn</w>
won der</w>
st unning</w>
immobilsard a.com.
immobilsarda.com. 2015-12-05</w>
dr ag
M ass</w>
guid es</w>
B acter
trav el
acknowledg ed.</w>
pep tide</w>
il ag</w>
Ja hr</w>
mon uments</w>
cyclos porin</w>
at rab
Han nover</w>
d ella</w>
ad el
up grade</w>
mono amine</w>
m ich</w>
With draw</w>
prin ter</w>
in anze
if f</w>
4 18</w>
bas iliximab</w>
PL US</w>
D ER</w>
photoc op
gui atrab
guiatrab ajo.com</w>
gast ritis</w>
favour ite</w>
Pot assium</w>
CAP SUL
r am
oter odine</w>
the ophylline</w>
it ated</w>
grad es</w>
challeng ing</w>
brin zolamide</w>
prot on</w>
multi pack</w>
D i</w>
100 00</w>
wikipedi a.org</w>
Porc ilis</w>
Par ties</w>
Gn RH</w>
attribu table</w>
2 56</w>
E d</w>
viney ards</w>
meter ol</w>
or ith
ach ment</w>
Atri ance</w>
ear ic</w>
as yl
inven tion</w>
aly se</w>
a o</w>
ing .htm</w>
2 x
ra p</w>
ur ities</w>
celeb rate</w>
tr e</w>
im per
Her z
A stell
w age</w>
am oun
25 7</w>
R elev
laun dry</w>
ful fil</w>
ful fil
c z</w>
Coun ty</w>
at ax
over se
drug -
tur b
prot ects</w>
Au f
inj ectable</w>
el en</w>
VE BEG</w>
luxur ious</w>
R od
re conc
h ast</w>
Ac tually</w>
rod ents</w>
ex clusion</w>
el t</w>
ig ning</w>
pres su
m ap
cyclos porine</w>
P le
w ire</w>
cross- border</w>
Ex ternal</w>
Astell as</w>
yel low
t estim
sp ovidone</w>
Fare ston</w>
ble ed</w>
Sustain able</w>
ä l
3 25</w>
simpl ex</w>
sel ecting</w>
oblig ed</w>
cri mes</w>
ci ud
bre eds</w>
13. 11.2016</w>
s pleen</w>
employ ee</w>
are r</w>
AZ OPT</w>
cros carmellose</w>
bes ides</w>
Sch weiz</w>
PHARMACEUTIC AL</w>
C up</w>
ut ors</w>
triglycer id
thre ad</w>
oogle .com</w>
20 ,000</w>
resor ption</w>
I B</w>
e ur
de fe
cath eter</w>
Reconc ile</w>
transamin ase</w>
on wards</w>
ent ol</w>
al ent</w>
Pro graf</w>
P ML</w>
E asy</w>
R P</w>
bro m
Trit anrix</w>
Mal ay
MB q</w>
transl ation
fin amide</w>
etiri zine</w>
ON LY</w>
Fentanyl- ratiopharm</w>
3. jpg</w>
diffe rently</w>
co st-
c ade</w>
Un d</w>
M L
tr ine</w>
swe ats</w>
ro und
real istic</w>
Belg ian</w>
rip entol</w>
ou ts</w>
induc ing</w>
assi stant</w>
Sol ar</w>
si bility</w>
Sh ower</w>
I ONS</w>
CYP2C 8</w>
3 1-
y ard</w>
ed ited</w>
agran ul
p i</w>
Per haps</w>
sid ase</w>
wor sen</w>
az za</w>
G -CSF</w>
Spr ing</w>
warm th</w>
b uc
HO ME</w>
F ast</w>
trab ectedin</w>
head ed</w>
ü r</w>
specif y</w>
d an
Writ ten</w>
cou ghing</w>
Mid d
pal ace</w>
perfor ation</w>
ear ning</w>
stake holders</w>
ost asis</w>
enjo y
coll ections</w>
adver tis
im posed</w>
res cent</w>
im entary</w>
F ill</w>
C lear
4 8-
12 h</w>
pro sper
ob ia</w>
li a</w>
ba thing</w>
SI A</w>
' d</w>
parliam entary</w>
judg ement</w>
ch icken</w>
b w</w>
ag glut
Resist ance</w>
I m</w>
B V
metabol ized</w>
QU OTE</w>
-0 2-
pursu ant</w>
post al</w>
g ov
Retur n</w>
om ics</w>
er ings</w>
ec rolimus</w>
D ES
Brist ol-
con qu
Andro id</w>
4 9-
bor ne</w>
PDE 5</w>
compl aints</w>
ble eds</w>
ur ic
sens ory</w>
prog est
correspon d</w>
sed ative</w>
met ro</w>
ex pressing</w>
ad ds</w>
O L</w>
secre ted</w>
j o</w>
develop ers</w>
Sem in
Bristol- Myers</w>
Av entis</w>
3 15</w>
t ech</w>
coun t
O ste
GR AN
hal er</w>
Dis order</w>
pro spective</w>
e il</w>
chec ks</w>
R ate</w>
It ems</w>
v ec
politic ians</w>
em bos
W AR
Sit uated</w>
si ster</w>
ol i</w>
in ant</w>
enjo ying</w>
t te</w>
il oprost</w>
Op ta
E ar</w>
ke it</w>
isti dine</w>
em bar
Opta flu</w>
- type</w>
harmon y</w>
conserv ation</w>
Syn ag
In str
O edema</w>
í n</w>
Be wer
B ord
ran ty</w>
ol actone</w>
aryn geal</w>
Rel ations</w>
bl ast</w>
STE MI</w>
Part ner
ta pe</w>
im at
i ah</w>
Tri atec</w>
Kar ls
preval ence</w>
ma il
f i</w>
adap tation</w>
e av
contrib utes</w>
n b
mel oxicam</w>
. it</w>
mis sible</w>
pl ed</w>
but y
akin ra</w>
O PE
man ip
lo wered</w>
are lix</w>
RESTRIC TIONS</w>
Pier re</w>
Camp ing</w>
8. 00</w>
cros sing</w>
com .</w>
pa ying</w>
u ation</w>
su it
E ur
T ower</w>
Secon dary</w>
hot el
ch en
ac on
S ü
Pow er
Du o</w>
fluctu ations</w>
fl at-
A mp
id ol</w>
atos iban</w>
Afgh an
18 1</w>
infil tr
-0 1-
iz a</w>
26 th</w>
ophthal m
clean ed</w>
O g</w>
m o</w>
loc ked</w>
Pro ph
li d</w>
0. 45</w>
Secon dly</w>
push -
choc olate</w>
shi eld</w>
autom ated</w>
ar b
18 00</w>
th ick
por ter</w>
fr uctose</w>
trans ported</w>
reg en
Thro m
R C</w>
Ob j
prop ag
intermit tent</w>
foun der</w>
Ser ono</w>
4 08</w>
icht e</w>
M and
ph thal
gastro enteritis</w>
Ex c
In -
grad uated</w>
ME MBER</w>
B ish
k et</w>
Ha us</w>
Flo or</w>
26 9</w>
gl asses</w>
Del i
ul timate</w>
ros ine</w>
Contra indications</w>
ti ble</w>
co administered</w>
cam eras</w>
Ac tivity</w>
ic it
con fron
c c
lin er</w>
ign s</w>
else where</w>
access ed</w>
R IL
12. 2015</w>
z ia</w>
te ach</w>
j un
div ine</w>
amin ergic</w>
PACK S</w>
opharmac eu
haemat opoietic</w>
el d
accommod ate</w>
H 2</w>
G IV
ph arm</w>
merck .</w>
fi replace</w>
epti fibatide</w>
be st
C ari
ser ia</w>
H s</w>
Con struction</w>
the ast</w>
o kinase</w>
draw ings</w>
au t</w>
any more</w>
wel fare</w>
Commun ities</w>
ran olazine</w>
inher ited</w>
dehydrogen ase</w>
festiv als</w>
authen tic</w>
estro gen</w>
IST OR</w>
z y</w>
u a</w>
treatment- naïve</w>
sl o</w>
m ighty</w>
afford able</w>
Lor at
tun nel</w>
ati tude</w>
Ta g</w>
K entera</w>
2 96</w>
iv et</w>
if ene</w>
di am
4 HB</w>
V ision</w>
Ser bia</w>
D ub
ox icillin</w>
omy opathy</w>
immun ological</w>
ab sent</w>
Medi um</w>
Elev ated</w>
4 19</w>
27 th</w>
sched ules</w>
c r</w>
F on
2 43</w>
agranul ocytosis</w>
C ut
6- month</w>
v i</w>
symbol s</w>
larg e-
B AC
9. 7</w>
o e</w>
install ing</w>
t v</w>
in ol</w>
dro trecogin</w>
200 8-
od ys
join tly</w>
E mb
Brem en</w>
4 32</w>
28 3</w>
over -
li able</w>
distur bed</w>
AG E</w>
G P
sal mon</w>
lic he</w>
immunoglob ulins</w>
mag az
l id
aw ards</w>
D N
del ighted</w>
Cy cl
AM MON
f eld</w>
en stein</w>
L ov
3 32</w>
st an
Dr ugs</w>
pi pe</w>
Afghan istan</w>
zz i</w>
ut z
recru itment</w>
antidepress ant</w>
stron tium</w>
mark et
in en</w>
enti ty</w>
em esis</w>
A de
prec eding</w>
di ve</w>
wash ed</w>
coast al</w>
clim bing</w>
at ories</w>
st on
s can
o h</w>
m sec</w>
ag al
II b</w>
F F</w>
Ab sol
00 AM</w>
IN STR
IC AL</w>
f aint</w>
deli ber
o res</w>
o ever</w>
n l</w>
uni verse</w>
squ e
ch at</w>
Publ ications</w>
Ne is
in tran
am ous</w>
famil y-
W W
3 18</w>
mon d</w>
host el</w>
bes ide</w>
t ungen</w>
sal ts</w>
motor way</w>
I ron
sou th-
haemorrh agic</w>
y .
volun tary</w>
un ited</w>
tes ticular</w>
Trans lation</w>
Ho ch
engine ers</w>
go s</w>
adren ergic</w>
Alex and
trache itis</w>
am ber</w>
u tility</w>
mark edly</w>
at ra
19 70</w>
tra uma</w>
ap arin</w>
sen ior</w>
i ority</w>
cas ino</w>
bit ing</w>
Fr on
syn dro
Boo ks</w>
feat uring</w>
enh ancing</w>
cou ldn</w>
38 5</w>
smo kers</w>
mucos itis</w>
6. 9</w>
oc obal
determin ing</w>
Ru a</w>
E P</w>
yt openia</w>
trig a</w>
la kes</w>
discus sing</w>
cr ying</w>
Farmac eu
s word</w>
encour aging</w>
del ta</w>
anc ytopenia</w>
UTE K</w>
Off ic
physi ological</w>
ex in</w>
bi kes</w>
Seb asti
RIL UTEK</w>
OV IST</w>
REL ISTOR</w>
Ques tion</w>
P erg
19 7</w>
te ar</w>
Pre miere</w>
sens ations</w>
Ce renia</w>
ret ard</w>
exp anding</w>
Yt triga</w>
or ph
optim ised</w>
non- infer
ip enem</w>
cin ema</w>
tic k</w>
AMMON APS</w>
200 0-
metabol isers</w>
discipl inary</w>
Pur ified</w>
D V</w>
ex ha
d ness</w>
Moon rise</w>
ID flu</w>
ind r
Ste fan</w>
Priv acy</w>
Kos ovo</w>
yl on</w>
ha bil
Lyr ica</w>
TH RO
N at
Kab i</w>
fluo resc
def end</w>
con su
19 78</w>
fix ing</w>
europa .eu</w>
el and</w>
W ord
gro ss</w>
lact ate</w>
wat ching</w>
seri ousness</w>
modif ying</w>
g ear</w>
x n
stri ke</w>
spas m</w>
seg ments</w>
201 4-
ig ence</w>
top -
prom ised</w>
administr ations</w>
Mo onset</w>
electron ics</w>
es z
bus es</w>
10 mg</w>
al i</w>
l un
ann ually</w>
mig r
jus tifies</w>
0. 7
presid ency</w>
g as
R S</w>
O slo</w>
ah l</w>
Econ omy</w>
1 15
trop ical</w>
sion- free</w>
min i-
audi t</w>
atax ia</w>
oph ane</w>
, 5</w>
ti k</w>
schem es</w>
re construction</w>
exam inations</w>
ay a</w>
Qu een</w>
J ack
oval- shaped</w>
osteo arthritis</w>
ch ose</w>
PO W
v .
sens ors</w>
child- bearing</w>
agn es
abnorm ally</w>
t edly</w>
rest oration</w>
kitch enette</w>
Go th
ri k</w>
list ening</w>
cre w</w>
SP ON
consolid ated</w>
thoro ugh</w>
molec ule</w>
L CD</w>
omegal y</w>
H av
wh it
prohi bited</w>
ox azole</w>
mark er</w>
lo vastatin</w>
ac r
E E</w>
b ool</w>
un se
in correct</w>
asyl um</w>
air- conditioned</w>
XX X</w>
vic inity</w>
terat ogenicity</w>
ter ri
am il</w>
N G
Can adi
. Ε
pre mium</w>
Bi ologicals</w>
z u
STA TES</w>
INSTR UC
enalap ril</w>
DK -2
urel la</w>
postp oned</w>
19 3</w>
qui ries</w>
domin ant</w>
4 mg</w>
incid ences</w>
def icient</w>
CONTAIN ING</w>
wor n</w>
point es</w>
on is
ocobal amin</w>
inval id</w>
camp ing</w>
D uloxetine</w>
thromb ocy
oo th
S ex
Pharm am
wor m</w>
uste kin
fl ying</w>
K ul
survi ved</w>
por tra
pa ired</w>
Ped ea</w>
19 44</w>
tran sp
er os
Bri dion</w>
ra g</w>
co st
b unk</w>
a enia</w>
spe aks</w>
id osis</w>
ipr one</w>
chloro butyl</w>
Wh it
M AL
ref used</w>
pres erve</w>
is ophane</w>
in sight</w>
fr ames</w>
ty rosine</w>
liste .de</w>
er i</w>
War sz
we it
D raw</w>
it ant</w>
cour age</w>
congrat ulate</w>
27 1</w>
R amipril</w>
ha ble</w>
d ening</w>
Comt ess</w>
CON CLUS
reconsti t
om od
Rhe um
oc ean</w>
t ech
rot ated</w>
E VI
Gem zar</w>
DR A
um p
ism o</w>
Vol k
w enn</w>
u tion
ell i</w>
as a</w>
A round</w>
infring ement</w>
19 75</w>
semin ars</w>
Ty pe
Al cohol</w>
inqu iry</w>
c up
band liste.de</w>
regul ated</w>
pal ms</w>
m oral</w>
for ums</w>
compri m
Co ins</w>
poly mer
op t</w>
di alog</w>
Peri odic</w>
B ox
c i</w>
buty rate</w>
Sh ang
Care ful</w>
3 2.
Em ployment</w>
BM W</w>
wor ms</w>
sel ector</w>
no t
mucos a</w>
l ou
Sch ul
La bel</w>
He ads</w>
Ha ar
4 01</w>
b ap
Rec omb
IT P</w>
36 4</w>
allerg ies</w>
Sub ject</w>
OP AT
Phys icians</w>
Al bert</w>
vacc inations</w>
pen sions</w>
su perficial</w>
st ine</w>
O therwise</w>
Jord an</w>
IM G</w>
25 2</w>
end- stage</w>
bo ys</w>
TE RED</w>
Kar l</w>
K IO
Capsul es</w>
C ore</w>
sch ol
neon atal</w>
Vic tor
ov ary</w>
ic ked</w>
at onin</w>
alb umin
Warsz awa</w>
Stra ße</w>
en. wikipedia.org</w>
ber ry</w>
aggrav ated</w>
M AG
Lin z</w>
mid st</w>
i v</w>
boot e-
anaes thetic</w>
26 5</w>
sh ed</w>
eth yl
eter nal</w>
BAT CH</w>
tax i</w>
est ation</w>
eli hood</w>
dis appeared</w>
Dis cus
disco very</w>
Lam ivudine</w>
AS SOCI
ma di
R al
INSTRUC TIONS</w>
3 13</w>
0 41</w>
2 48</w>
sign ature</w>
ist ing</w>
fac ebook
P CR</w>
ANO L</w>
mam mal
iro x</w>
c z
Rep eat</w>
C af
im bur
faith ful</w>
ev es</w>
S K
Pharmam atch</w>
N am
XX L</w>
N PH</w>
Bun des
itum umab</w>
exerc ises</w>
KIO VIG</w>
II Ia</w>
v enture</w>
OPAT ANOL</w>
o que</w>
o is
Wil son</w>
Immedi ately</w>
know ing</w>
www. penilefitness.com</w>
PR CA</w>
Gliol an</w>
uz ole</w>
pap er
euro tic</w>
Asth enia</w>
interpre ted</w>
aut ologous</w>
G F</w>
Form at</w>
F leb
utro pin</w>
s odi
pur sue</w>
il ot
VEN T</w>
Fleb ogam
neuro muscular</w>
lim itations</w>
k auf
[...]
