#version: 0.2
i n
t i
t h
r e
a n
e n
e d</w>
e r
o n
o n</w>
th e</w>
o f</w>
i n</w>
a r
i t
a t
a ti
r o
o r</w>
s t
o r
a c
d i
an d</w>
in g</w>
a l</w>
a l
e r</w>
e c
o u
s e</w>
t s</w>
e s</w>
t o</w>
s i
o m
l e
s u
i s</w>
l o
i c
w it
t a
wit h</w>
i l
ti on</w>
e l
a s
o l
d o
c on
ati on</w>
e n</w>
en t</w>
a s</w>
r i
en ts</w>
f or</w>
p ro
a n</w>
d u
a t</w>
T h
v e</w>
v i
p ati
m e
b e</w>
a d
n o
s e
a p
l y</w>
a b
c om
m g</w>
l i
s h
l e</w>
s p
at ed</w>
m a
e m
pati ents</w>
c e</w>
in e</w>
b e
u s
Th e</w>
f f
on s</w>
p re
h a
i m
t re
p o
w h
0 0</w>
c h
t r
m ent</w>
no t</w>
a m
u n
u l
a g
i s
ar e</w>
i d
n e
u r
e x
ou l
v er
at e</w>
oul d</w>
p er
e t
y o
c l
di c
t ed</w>
re d</w>
ec tion</w>
sh ould</w>
du c
d e
in f
p h
yo u</w>
do se</w>
c o
ta b
u m
i r
w e
in i
ou r</w>
a f
p l
p a
u se</w>
th er</w>
a se</w>
e s
u d
e ff
er e</w>
t er
at ment</w>
t o
s y
d a
th at</w>
i c</w>
si on</w>
q u
it y</w>
f or
h y
ac ti
tre atment</w>
b y</w>
0 0
i v
c re
ma y</w>
i g
w as</w>
b o
me dic
m l</w>
on e</w>
o d</w>
h e
ha ve</w>
tab le
eff ec
in g
y our</w>
st r
u m</w>
t er</w>
a r</w>
0 .
i a</w>
su l
us ed</w>
c e
an t</w>
com m
ta k
. .
in j
c i
re n
E U</w>
be en</w>
en d
u tion</w>
m ini
th e
m on
t e
e d
an ce</w>
s ol
ad mini
i t</w>
ic al</w>
u t
con t
s s</w>
o ther</w>
ta in
c a
p or
1 0</w>
I n
t or</w>
g n
st e
e v
I n</w>
s o
h as</w>
s t</w>
lo w
a v
m o
d er
b lo
w ere</w>
su r
su b
p ar
u di
th er
el y</w>
pro duc
d e</w>
in cre
al ly</w>
pre s
ar y</w>
con tain
5 0</w>
st udi
di s
d er</w>
ti c
table ts</w>
ro m</w>
l u
r a
as ed</w>
ati ons</w>
s er
ti ons</w>
inj ection</w>
f rom</w>
t en
do c
i d</w>
e l</w>
medic in
ou s</w>
v er</w>
blo od</w>
se e</w>
ag e</w>
ar m
ab le</w>
i f</w>
af ter</w>
u s</w>
id e</w>
si s</w>
du r
an ti
ther ap
4 .
c ar
or m
p e
I f</w>
cl in
an y</w>
ac c
f ol
an c
a vi
ou t</w>
le v
g en
f il
t ri
doc tor</w>
m e</w>
ti ve</w>
k s</w>
effec ts</w>
en ce</w>
i th
th an</w>
ti c</w>
ig h
t h</w>
ou r
o p
studi es</w>
a st
end ed</w>
sp ec
cl ud
h i
o c
sol ution</w>
do s
y e
l ed</w>
al s</w>
ou n
for e</w>
ti s</w>
we e
an g
u p</w>
re comm
y s</w>
therap y</w>
v e
clin ical</w>
ri s
W h
d ro
in ation</w>
2 0</w>
lo w</w>
en t
al l</w>
f e
- -
c h</w>
o b
arm ac
ic h</w>
or e</w>
I N
0 00</w>
g r
v ed</w>
th is</w>
sur e</w>
A R
w n</w>
1 00</w>
in clud
1 .
p ri
s ection</w>
e p
per i
el l
h o
str ation</w>
w ith
a il
wh ich</w>
i f
c an</w>
recomm ended</w>
en tr
fol low
d r
.. ..
3 0</w>
th ro
re ce
ac h</w>
dur ing</w>
a u
a z
in ter
M E
si de</w>
C om
wh o</w>
o x
t w
n o</w>
m us
re por
re qu
admini stration</w>
contain s</w>
it e</w>
g l
ris k</w>
il l</w>
il y</w>
el l</w>
b er</w>
m ar
ud y</w>
avi r</w>
re sp
s o</w>
acti ons</w>
s k
ti v
p t
u ro
di se
w ill</w>
i o
as t</w>
T I
con c
si gn
pl ac
com b
2 00
R e
in u
ap pro
2 .
s ti
tre ated</w>
g iv
ul ar</w>
b re
at ely</w>
hy per
da y</w>
wh en</w>
k e</w>
tak e</w>
ur e</w>
st udy</w>
ar s</w>
incre ased</w>
m ore</w>
u b
se ver
ste red</w>
g e
for m
g ro
en c
t ing</w>
re l
ph armac
admini stered</w>
giv en</w>
it s</w>
m il
2 5</w>
ch il
lo g
d ec
is ed</w>
r ing
s en
medicin es</w>
on al</w>
y p
dise ase</w>
u g
p ac
el s</w>
da ily</w>
v acc
d y</w>
k g</w>
re duc
u sion</w>
sul in</w>
resp on
s ed</w>
al so</w>
ec tions</w>
tr an
as es</w>
1 2</w>
follow ing</w>
d at
in al</w>
f er
an d
com p
m pt
th or
so ci
f o
i al</w>
repor ted</w>
re actions</w>
hi b
ye ars</w>
pa in</w>
sy ring
or y</w>
b le
vi al</w>
mpt om
da ys</w>
on g
ar d</w>
ec ted</w>
in dic
as soci
oc c
the se</w>
A C
st er
wee ks</w>
cont inu
ic e</w>
bo dy</w>
vi r
si b
re g
f i
our s</w>
conc entr
s om
or al</w>
acti ve</w>
igh t</w>
t ly</w>
c le
M P</w>
Wh at</w>
x im
u p
es s</w>
rece iv
p er</w>
P ro
in e
T E
H o
ver y</w>
con si
ri b
g e</w>
dat a</w>
comm on</w>
m a</w>
d re
k et
et y</w>
medicin al</w>
in hib
dis or
f ac
tak ing</w>
sy mptom
ar t</w>
sh o
ne ed
associ ated</w>
ren al</w>
5 .
y l
ob ser
un c
sever e</w>
le ss</w>
em ia</w>
ne ss</w>
al l
ver se</w>
re c
o v
is ation</w>
T el</w>
includ ing</w>
f ir
pre gn
1 5</w>
Com m
he pati
dos es</w>
A N
er g
E ME
um an</w>
sk in</w>
i l</w>
U n
pl as
lev els</w>
co ated</w>
av ail
be fore</w>
A l
produc t</w>
t yp
mus t</w>
O N</w>
su ch</w>
c ap
on ly</w>
c al
1 9
obser ved</w>
c y
hy dro
r it
table t</w>
me di
comb ination</w>
plac e
h ours</w>
d ing</w>
v en
ac h
g re
n orm
I t</w>
in sulin</w>
at er</w>
m in
A n
i r</w>
produc ts</w>
dre n</w>
e f
ti al</w>
pati ent</w>
or s</w>
symptom s</w>
lo p
to x
cont ro
EME A</w>
pharmac o
der s</w>
du l
Th is</w>
m -
re s</w>
sub st
im pa
s af
b r
inf usion</w>
pa red</w>
il ity</w>
ti n</w>
st er</w>
ed ing</w>
ec t</w>
b u
re sul
m ic
em o
be t
k no
I U</w>
su p
syring e</w>
b en
th o
a d</w>
di um</w>
w or
er s</w>
m- coated</w>
ac tion</w>
mon th
Th e
1 0
ket ing</w>
6 0</w>
ff ic
1 8</w>
inf orm
vi d
s c
tic s</w>
po ten
li m
if ic
li ver</w>
pre -
ha d</w>
4 0</w>
tak en</w>
ti me</w>
incre ase</w>
ex peri
dec re
al u
N e
sib le</w>
at ing</w>
ol e</w>
2 4</w>
R E
g h
ti es</w>
-- --
te st
tab ol
avail able</w>
in to</w>
c or
ul ation</w>
in tr
inform ation</w>
S t
com pared</w>
medic ine</w>
tw o</w>
ti m
au thor
mic ro
effec t</w>
f unc
b o</w>
ad verse</w>
plas ma</w>
em ent</w>
E uro
1 4</w>
o s
in es</w>
p en
le t</w>
t al</w>
ec ts</w>
D o</w>
k ing</w>
month s</w>
contain ing</w>
a in
l ac
chil dren</w>
saf ety</w>
pl ic
de ve
l am
ac t</w>
ch ang
al f
R I
M e
l ong
fir st</w>
P ati
p r
us ing</w>
es t</w>
place bo</w>
c ol
inhib it
fil led</w>
me tabol
ati ve</w>
ste m</w>
disor ders</w>
acti v
8 0</w>
w a
t t
v ol
at es</w>
P h
ac y</w>
it ed</w>
typ e</w>
sen si
S T
me a
F O
d y
F or</w>
sign ific
t u
enc y</w>
.... ....
v ent</w>
ut e</w>
po s
h uman</w>
e qu
Pati ents</w>
w der</w>
a dul
a x
A L
ir ment</w>
s or
fil m-coated</w>
ic ity</w>
c lo
re e</w>
impa irment</w>
le ase</w>
T O</w>
func tion</w>
kno wn</w>
f lu
we en</w>
j u
f ul
inf ection</w>
ex po
P E
all erg
t ro
i z
T H
k ine
en z
at ory</w>
e u
b li
, 000</w>
gl y
bet ween</w>
on -
ig h</w>
on ce</w>
l or
il e</w>
1 1</w>
anc y</w>
eff ic
ma in
ab out</w>
im m
p i
e st
a ff
m an
sy stem</w>
3 .
re fore</w>
pre- filled</w>
U L
pro te
si ve</w>
o l</w>
C Y
with in</w>
n um
mon it
u r</w>
t e</w>
norm al</w>
gr am
es s
car di
ar i
so dium</w>
u c
C H
we ight</w>
9 8</w>
with out</w>
am e</w>
s ec
m ul
ab ility</w>
effic acy</w>
s ing
A P
C h
n ec
ri c</w>
as s</w>
gro up</w>
h igh
er y</w>
Euro pe
som e</w>
Europe an</w>
y sis</w>
m s</w>
N o</w>
g u
al th
po wder</w>
de red</w>
av en
an e
I I</w>
C on
consi dered</w>
tran s
A G
he art</w>
sp en
s w
ben ef
E N
tri als</w>
o ver</w>
2 8</w>
vacc ine</w>
s ite</w>
om en</w>
A T
oun d</w>
receiv ing</w>
6 .
xim ately</w>
et er
ca use</w>
A R</w>
ta n</w>
need le</w>
i x
deve lop
ac id</w>
un der</w>
c ell
ren t</w>
o ver
O N
hepati c</w>
7 .
1 6</w>
a emia</w>
respon se</w>
4. 4</w>
b ec
e .</w>
l led</w>
Th ere</w>
con sti
pharmaco kine
2 1</w>
bu t</w>
si st
du e</w>
V I
E ach</w>
mar keting</w>
ad ju
ar ly</w>
ex p
p ol
H I
D i
d s</w>
ff e
P re
0 6</w>
allerg ic</w>
y m
occ ur
i red</w>
g i
er al</w>
7 5</w>
appro ximately</w>
wee k</w>
le ast</w>
ad e</w>
st o
sul es</w>
b ac
we ver</w>
a do
sho wn</w>
ou s
en ti
pres sure</w>
con tr
A d
num ber</w>
concentr ations</w>
CY P
h igh</w>
sing le</w>
anc er</w>
P AC
cell s</w>
f requ
pac k</w>
ch lor
im medi
ti onal</w>
e ach</w>
ad di
cap sules</w>
Ho w</w>
c er
subst ance</w>
f ail
e t</w>
g h</w>
sub j
spen sion</w>
ev ents</w>
on avir</w>
inf ections</w>
ou gh</w>
rel ated</w>
R O
A U
O r
y l</w>
ph o
b io
it r
at o
l in
L E
th ere</w>
expo sure</w>
tim es</w>
di ffe
tox icity</w>
9 7</w>
studi ed</w>
ar ance</w>
contro lled</w>
- 2
em ic</w>
P V
on ic</w>
l es</w>
gh t</w>
con di
H e
A L</w>
1 3</w>
be low</w>
gram s</w>
mo st</w>
experi ence</w>
T re
re di
g lu
thro m
0. 5</w>
tw ice</w>
occ ur</w>
tho se</w>
w ater</w>
g s</w>
anc es</w>
s s
adju st
ati c</w>
2 00</w>
o u</w>
IN G</w>
oun t</w>
m al
du ce</w>
st ar
u su
ar r
ing redi
in ary</w>
ar tan</w>
PAC K
an s</w>
7 0</w>
the ir</w>
m ary</w>
w omen</w>
e y
am p
0 1</w>
dis continu
ti l</w>
com it
Y ou</w>
reduc ed</w>
N ov
0 7</w>
H y
intr aven
su spension</w>
8 .
9 0</w>
i es</w>
de f
c ular</w>
rit onavir</w>
thro ug
ta in</w>
TH E</w>
in ess</w>
poten tial</w>
T a
c ases</w>
pregn ant</w>
wh ite</w>
pregn ancy</w>
t ol
indic ated</w>
p tion</w>
di st
activ ity</w>
PACK AG
re spec
micro grams</w>
al ysis</w>
at s</w>
c le</w>
a re
l ab
A c
is t</w>
subj ects</w>
i ous</w>
em a</w>
is m</w>
U S
log ical</w>
bli ster</w>
ati n</w>
c ut
vi r</w>
9 5</w>
immedi ately</w>
pro ble
su g
ec h
ge t</w>
id ne
di ab
sy n
c ancer</w>
fail ure</w>
P ar
1 3
TI C
vid ed</w>
2. 5</w>
1 7
comp le
bo th</w>
th ree</w>
2 2</w>
r as
cut ane
t em
str uc
lam m
n on-
di sp
r are</w>
c are</w>
e a</w>
at e
tre at</w>
c ell</w>
tiv ity</w>
hyper sensi
chlor ide</w>
el ine</w>
an tly</w>
lo x
ren ce</w>
L i
m ents</w>
mo der
e very</w>
ati onal</w>
pa th
r ate</w>
sol vent</w>
k age</w>
as se
M ar
si a</w>
ffic i
CH MP</w>
af let</w>
f l
author isation</w>
th i
en e</w>
receiv ed</w>
ingredi ents</w>
adul ts</w>
k idne
O n
ce p
M A
ev alu
ne ed</w>
cle arance</w>
re consti
ic ally</w>
high er</w>
E x
0 2</w>
ble eding</w>
signific ant</w>
b ased</w>
v ing</w>
fer on</w>
it ing</w>
inhibit ors</w>
benef it</w>
si mil
d em
on g</w>
inf lamm
g .</w>
I M
tiv ely</w>
po st
Ho wever</w>
al o
in o
ch o
reduc tion</w>
ini ti
nec ess
se en</w>
5 6</w>
T A
to tal</w>
5 00</w>
p en</w>
ent ly</w>
ap plic
vir al</w>
in c
an im
pres c
1 9</w>
S e
simil ar</w>
mon o
moder ate</w>
ap pe
P AR
proble ms</w>
s artan</w>
appro pri
g en</w>
ser um</w>
dos age</w>
3 00</w>
d om
m in</w>
ell ing</w>
n ing</w>
do es</w>
ous ly</w>
8 4</w>
ph y
id ence</w>
9 6</w>
i do
a m</w>
i st
1 7</w>
r ang
u e</w>
pro vided</w>
li ke</w>
fo od</w>
s el
The se</w>
in t</w>
c an
s ame</w>
par tic
a use</w>
A f
un e</w>
por t
an ts</w>
ne w</w>
necess ary</w>
A r
4 5</w>
con comit
de p
ma b</w>
B o
in s</w>
ser ious</w>
c ur
un til</w>
t al
ti s
intraven ous</w>
a k
A u
---- ----
a y</w>
C o
t on</w>
sh ed</w>
hy po
cy to
i ther</w>
co -
ud ine</w>
v al</w>
ra z
in avir</w>
Af ter</w>
on d
me th
Tre atment</w>
d o</w>
ti g
w ell</w>
bre ast
B E
v al
r ac
pri or</w>
is sion</w>
un g
su ffici
A D
hepati tis</w>
it te
ain st</w>
I S</w>
il l
ar m</w>
az ole</w>
ag ainst</w>
m b
AP PE
mul ti
sy st
me an</w>
Ph armac
9 9</w>
A s</w>
ma x</w>
om iting</w>
UL AR
PAR TIC
fe eding</w>
1 50</w>
ULAR S</w>
PARTIC ULARS</w>
m at
a c</w>
a y
bo tt
B e
in ed</w>
in di
au se
gen er
HI V</w>
APPE AR</w>
per form
4 -
re action</w>
b as
1 2
AU C</w>
4 8</w>
resul ts</w>
ause a</w>
L I
si ons</w>
ut ro
pro ce
4 00</w>
P e
decre ased</w>
h al
H O
hy dr
s es</w>
ev er</w>
y me</w>
low er</w>
effec tive</w>
3 5
peri od</w>
p at
u g</w>
li k
respec tively</w>
log y</w>
i b</w>
Y our</w>
sp l
re f
µ g</w>
pen ia</w>
re sist
ma xim
vir us</w>
t ac
sp h
i ties</w>
e p</w>
c al</w>
ad v
g ast
lo b
ye ar</w>
at ric</w>
pos sible</w>
Me dic
ha em
e ither</w>
lo ss</w>
st op
PV C</w>
a x</w>
S A
appropri ate</w>
D o
ing s</w>
l ine</w>
dro me</w>
o t
se t</w>
sign s</w>
sup p
p s</w>
pro f
com par
ur ther</w>
de pres
u no
b one</w>
dem on
D I
R E</w>
ras h</w>
cutane ous</w>
he alth
mea su
exp ected</w>
spec ial</w>
hyper ten
su m
P ac
re lease</w>
im pro
be ing</w>
Wh en</w>
3 5</w>
P o
d ra
o id
at h</w>
3 3</w>
t y</w>
om e</w>
k ed</w>
inc idence</w>
0 8</w>
FO R</w>
v omiting</w>
pro t
throm bo
in duc
glu co
pro long
ag ement</w>
y el
ho ea</w>
H A
dos ing</w>
demon str
ha emo
kidne y</w>
b ro
n am
1 5
phy si
vi als</w>
prote in</w>
dep end
3 1</w>
tri d
m ent
le sc
bas eline</w>
em ber</w>
spec if
The refore</w>
v alu
9 .
ter m</w>
an e</w>
v ari
li f
o f
h ard</w>
N A</w>
decre ase</w>
lev el</w>
4 4</w>
d el
ful l</w>
itte e</w>
AN D</w>
er c
concentr ation</w>
the y</w>
port ant</w>
et es</w>
g ra
ed ema</w>
po p
dr ug</w>
d ri
s ing</w>
n ausea</w>
t ell</w>
R A
I m
ut es</w>
u re
ado lesc
breast -
a in</w>
the refore</w>
in test
requ ired</w>
or g
e di
se qu
mus cle</w>
ha se</w>
r onic</w>
experi enc
anti -
acc or
00 1</w>
inter feron</w>
at in
avi r
g lob
rib ed</w>
do gs</w>
contro l</w>
ag ents</w>
Comm on</w>
C P
2 3</w>
inj ections</w>
g o
ex cre
maxim um</w>
A b
a sis</w>
O F</w>
r ap
mil d</w>
U TE
car trid
R ap
Or al</w>
h el
U se</w>
tis su
Comm ittee</w>
O ther</w>
lif e</w>
condi tions</w>
ac in</w>
........ ........
ter n
t ur
ab o
arr hoea</w>
ad ach
B el
y c
wh e
un der
dur ation</w>
as cular</w>
ab sor
E n
E R
sur g
C O
m ou
chang es</w>
d en
u al</w>
li shed</w>
1 6
li ght</w>
w ed</w>
t ation</w>
pharmacokine tics</w>
x i
vi du
d ed</w>
ac ute</w>
abo ve</w>
s ch
hydro x
cont act</w>
fi ed</w>
ful ly</w>
ad equ
3 A
develop ment</w>
PACKAG ING</w>
1 -
fac e</w>
syn drome</w>
si um</w>
diab etes</w>
ap ine</w>
ma in</w>
z z
w ar
ox ide</w>
hi st
Nov o
in t
Pro duc
gl ass</w>
I D
wa y</w>
5 -
ph en
c ase</w>
adolesc ents</w>
ra di
3 7
alf a</w>
al one</w>
po si
el ing</w>
4 9</w>
ol der</w>
Bel gi
In tr
eu tic</w>
st ed</w>
or ing</w>
pho sph
A S
lo o
li p
ey e</w>
e tin</w>
c ould</w>
i p
at or</w>
ma j
o id</w>
1 8
throug h</w>
t um
o red</w>
2 6</w>
wh ile</w>
in k</w>
monit ored</w>
inflamm ation</w>
imm uno
ur ine</w>
m ach
re duce</w>
ca ution</w>
s m
ab ine</w>
vi sion</w>
c y</w>
arm a</w>
indi vidu
in vol
f urther</w>
E X
An ne
a th
3 2</w>
thi az
op le</w>
chang e</w>
l ar
includ e</w>
Au thor
u l</w>
D e
tain ed</w>
wor k</w>
ul arly</w>
V ery</w>
sto p</w>
rib ution</w>
gly ca
ch ronic</w>
der ly</w>
di zz
ar ac
HO W</w>
A p
est ab
W in
wh ere</w>
li ed</w>
tol er
is o
i se</w>
2 000</w>
ac ep
2 7</w>
subst ances</w>
0 5</w>
i tis</w>
adach e</w>
tab le</w>
3A 4</w>
frequ ency</w>
lox acin</w>
ca used</w>
er v
intest inal</w>
C max</w>
thro p</w>
blo c
rang e</w>
Win throp</w>
ast atin</w>
Anne x</w>
atin ine</w>
en ted</w>
AT E</w>
p le</w>
ci um</w>
r ats</w>
0 4</w>
sup por
P RO
Mar keting</w>
H um
s in
eter inary</w>
di d</w>
sw elling</w>
min utes</w>
edi atric</w>
m 2</w>
re co
bott le</w>
an u
am ine</w>
0 3</w>
HA T</w>
s al
reg im
W HAT</w>
inf lu
f ever</w>
on d</w>
l and</w>
bec ause</w>
at ure</w>
F il
C ar
therap eutic</w>
0 -
y ro
specif ic</w>
sh or
su le</w>
p e</w>
health y</w>
en ess</w>
adjust ment</w>
vacc ination</w>
6 5</w>
al u</w>
aff ect</w>
S p
CP MP</w>
F r
om a</w>
ri tis</w>
cre atinine</w>
the m</w>
pre vi
4. 2</w>
1 4
demonstr ated</w>
concomit ant</w>
1 000</w>
ch lo
re d
includ ed</w>
d ate</w>
di arrhoea</w>
up s</w>
clin ically</w>
ta m
pe ople</w>
i ve</w>
wa ys</w>
low ing</w>
chlo ro
en ing</w>
y n
le aflet</w>
pop ulation</w>
lim ited</w>
cal led</w>
ca p</w>
k e
de si
bac ter
ph il
ne utro
e vid
bre ast</w>
v es
syst emic</w>
s on</w>
s it
en d</w>
ta s
ac hi
in suffici
st ate</w>
r and
perform ed</w>
or der</w>
gre ater</w>
4. 5</w>
pharmacokine tic</w>
i x</w>
spec i
A .</w>
Un common</w>
vi a</w>
disor der</w>
be sartan</w>
v itr
tiv eness</w>
re lev
m it
el im
200 1</w>
ho l</w>
S .</w>
tri al</w>
effec tiveness</w>
4. 8</w>
t est</w>
in struc
T r
vitr o</w>
ab dom
H uman</w>
path y</w>
lik ely</w>
er y
C I
thiaz ide</w>
al co
ag ed</w>
gast ro
experienc ed</w>
V ir
hydr ate</w>
l ym
adul t</w>
ri a</w>
mon th</w>
gre s
breast- feeding</w>
S P
resul t</w>
pri mary</w>
re mo
ou t
iv al
ad y</w>
R o
UTE R</w>
O UTER</w>
star ting</w>
gro w
e -
tu ted</w>
mou th</w>
m any</w>
3 6</w>
3 4</w>
t ution</w>
arac ter
cont ents</w>
an z
CYP 3A4</w>
ec tive</w>
Ta ke</w>
monit oring</w>
medic al</w>
di es</w>
Comm ission</w>
ri x</w>
cl es</w>
c r
an i
r ati
fe eling</w>
v es</w>
ne uro
bo dies</w>
I T
signific antly</w>
cle ar</w>
o per
lo se</w>
usu ally</w>
l ong</w>
1 ,000</w>
um e</w>
m ade</w>
di p
dizz iness</w>
can not</w>
t ure</w>
2 9</w>
th en</w>
produc tion</w>
m u
e tic</w>
addi tional</w>
pol y
c oun
to se</w>
t ech
ir atory</w>
and s</w>
addi tion</w>
P l
3 6
sm all</w>
d eter
ffic ul
p ul
m or
g il
ad vi
ir e</w>
en o
b in
L e
inhibit or</w>
surg ery</w>
mil k</w>
In f
2 50</w>
st art</w>
alco hol</w>
G mb
sub cutaneous</w>
ho w</w>
estab lished</w>
Author isation</w>
st om
ro lim
rolim us</w>
chil d</w>
ini um</w>
7 4</w>
l ing</w>
gluco se</w>
yl ene</w>
l ast</w>
s sed</w>
rand om
it al</w>
i on</w>
T o</w>
ab normal</w>
usu al</w>
C V
dur e</w>
o ph
tissu e</w>
avir in</w>
st and
h um
U N
iz u
ME DI
post -
3 9</w>
em b
an ted</w>
P en</w>
l it
im portant</w>
alf a
af il</w>
A M
syring es</w>
appro ved</w>
p ub
gro ups</w>
f in
Ph arma</w>
he adache</w>
evid ence</w>
ch emo
cal cium</w>
gen cy</w>
c entr
l y
di fficul
b ut
vol ume</w>
form in</w>
al ity</w>
I II</w>
occur red</w>
i tion</w>
chloro thiazide</w>
pl ate
Gmb H</w>
yc in</w>
ir c
2 -
ox ib</w>
anti bodies</w>
um inium</w>
test s</w>
an other</w>
a k</w>
Pharmac o
f ound</w>
A v
L t
ar th
ap p
4. 3</w>
ic i
mo l</w>
w w
me t
whe ther</w>
- term</w>
ig n
fol d</w>
alfa -2
V E
4 2</w>
200 2</w>
00 2</w>
with dra
s ections</w>
i b
hypersensi tive</w>
C I</w>
grow th</w>
anim als</w>
4 6</w>
tran spl
l ic
contr acep
On e</w>
gen ic</w>
fac tor</w>
sho wed</w>
6 00</w>
fo vir</w>
M ix
equ ival
ay er</w>
1. 5</w>
eu tic
N or
mach ines</w>
m ix
S o
gu id
5. 2</w>
sec ond</w>
ves tig
F I
ma g
d es</w>
con duc
al e</w>
u tions</w>
R ec
par a
on azole</w>
incre ases</w>
rece ive</w>
Lt d</w>
d et
pharmac ist</w>
met formin</w>
ST O
Fr ance</w>
el derly</w>
diffe rent</w>
f our</w>
P RE
pre vent</w>
s le
TI ON</w>
Q u
comb in
ven tion</w>
ti co
e lev
D NA</w>
s ci
qu e</w>
evalu ated</w>
der m
cho le
at al</w>
t ent</w>
hist ory</w>
enz yme</w>
ti m</w>
g on
al th</w>
lac k</w>
chemo therapy</w>
t ar
discontinu ed</w>
are a</w>
p hase</w>
iv udine</w>
asse ss
O P
po etin</w>
p le
cap sule</w>
imm une</w>
anz apine</w>
p raz
S u
vi gil
pres ented</w>
O p
hypersensi tivity</w>
t ors</w>
le u
do p
N o
10 ,000</w>
o edema</w>
hyperten sion</w>
am ount</w>
5. 1</w>
disp er
proce dure</w>
vigil ance</w>
or r
di alysis</w>
tox ic</w>
glyca emia</w>
contr a
an aemia</w>
v ement</w>
us es</w>
f t</w>
speci ally</w>
k in
for m</w>
b le</w>
alth ough</w>
al ised</w>
T ab
it us</w>
y -
inf ected</w>
h alf
adv ice</w>
sug ar</w>
ro m
r ub
M I
su s</w>
d -
ch ing</w>
c es</w>
C E
i re
an alysis</w>
f ic
continu e</w>
vi ties</w>
enz a</w>
- life</w>
reconsti tuted</w>
ma ke</w>
di rec
alfa-2 b</w>
ad ine</w>
a si
ol d</w>
n i
achi ev
o ro
In sulin</w>
ri g
reconsti tution</w>
R A</w>
yel low</w>
nam es</w>
d ou
abdom inal</w>
T able</w>
v a</w>
author ised</w>
ag re
re pe
mon ary</w>
indic ation</w>
r ing</w>
ma il</w>
hum ans</w>
00 3</w>
lym ph
Pac kage</w>
3 -
H B
v eterinary</w>
wh o
cartrid ge</w>
M ember</w>
to o</w>
physi ci
j o
it abine</w>
do m</w>
4 1</w>
ti on
ter s</w>
C T</w>
v astatin</w>
M IN
Hy per
vi e
p it
excre ted</w>
Medic inal</w>
orm one</w>
glob in</w>
dist ribution</w>
I r
stom ach</w>
pa ediatric</w>
me m
ini tial</w>
bec ome</w>
adequ ate</w>
7. 5</w>
gu e</w>
00 4</w>
M an
par t</w>
over dose</w>
metabol ism</w>
sp or
relev ant</w>
lab el</w>
inter action</w>
multi ple</w>
maj or</w>
ic in</w>
h our</w>
si z
pro gres
c el
str a
resp iratory</w>
e specially</w>
man agement</w>
et ine</w>
ca re
sensi tivity</w>
4 7</w>
gr as
b i
d a</w>
S TE
pac kage</w>
h ormone</w>
dri ve</w>
dr ug
car ton</w>
N E
- 1</w>
to p
C AR
MA H</w>
G en
F ol
regim en</w>
me ta
individu al</w>
ang io
E P
2 8
1 ,
red ness</w>
r o</w>
follow ed</w>
sup pres
r a</w>
ti de</w>
pro vi
le ad</w>
absor ption</w>
Un ited</w>
ster s</w>
af er
4 3</w>
in vestig
Vir afer
M S</w>
bac k</w>
supp lied</w>
pre n
en sure</w>
desi r
1 20</w>
depres sion</w>
pre par
ten ance</w>
in ated</w>
continu ed</w>
tas sium</w>
accor ding</w>
S ol
K ing
resist ance</w>
acti vities</w>
wh at</w>
m is
as th
CV MP</w>
phosph ate</w>
p lease</w>
A N</w>
gras tim</w>
avi ren
aracter is
L im
in -
E l
I T</w>
repor ts</w>
enti f
cardi ac</w>
R en
ag no
e k</w>
ph eral</w>
M o
A t</w>
w al</w>
s tic
C a
ster oid
er ing</w>
col our
clud ed</w>
am ide</w>
E T
D ur
p u
li c</w>
King dom</w>
n it
lo p</w>
conduc ted</w>
aviren z</w>
i .</w>
h out</w>
h or
19 98</w>
0 8
tre x
A gency</w>
li st</w>
cor tico
re tro
pac ks</w>
need les</w>
disper sible</w>
discontinu ation</w>
l un
h ar
ge ts</w>
ge ther</w>
ev en</w>
L A
5 2</w>
half -life</w>
d ar
pro fil
le ts</w>
in ts</w>
deve lop</w>
c ount</w>
Pe g
poten sion</w>
le p
ini b</w>
form ation</w>
L -
2 7
over all</w>
condi tion</w>
B ayer</w>
n ational</w>
def ici
5 5</w>
posi tive</w>
place bo
g es</w>
c c
lo cal</w>
D is
y st
ex a</w>
S I
g ia</w>
prof loxacin</w>
Sp ec
us t</w>
t el
depend ent</w>
3 7</w>
fo et
en s</w>
arth ritis</w>
consi st
ati tis</w>
to gether</w>
m m
e mea
6 4</w>
ci es</w>
chole ster
dy s
s .</w>
id s</w>
RI S
plac e</w>
care fully</w>
c ro
fe rence</w>
T ev
-------- --------
si c
equival ent</w>
b il
an ta
In ter
CYP 2
Lim ited</w>
prolong ed</w>
al uminium</w>
G er
P a
throug hout</w>
m yo
car c
do wn</w>
ci pi
C lin
presc ribed</w>
po int</w>
Se e</w>
P ol
we ak
c our
re ly</w>
min im
enz ym
rib avirin</w>
me tho
di agno
pat ch</w>
er n
ent al</w>
W or
S U
recomm end
dip ine</w>
ac ro
cer tain</w>
partic ularly</w>
f ree</w>
aracteris tics</w>
alo g</w>
inj ected</w>
f em
re combin
J o
tr a</w>
ar ing</w>
E -
F e
recombin ant</w>
me et
assess ment</w>
t es</w>
or ic
co ag
ar ate</w>
som n
po tassium</w>
anim al</w>
ach ed</w>
lo g</w>
achiev ed</w>
Hum alog</w>
p in</w>
e le
E D</w>
tr act</w>
g es
desir able</w>
V i
ti l
tem per
sin ce</w>
p ur
er i
ap h
MEDI ATE</w>
tre at
r u
es the
B O
bli sters</w>
dr y</w>
E 17
pul monary</w>
L O
Ch il
ne um
sur face</w>
u lo
p an
Le aflet</w>
E R</w>
v it
a ir</w>
up per</w>
R are</w>
un less</w>
suppor t</w>
st atic</w>
placebo -
enzym es</w>
elim ination</w>
as al</w>
IN G
ur inary</w>
b ed</w>
U M</w>
Produc ts</w>
re fer
gly co
car b
applic ation</w>
main tenance</w>
it az
ex ac
acti c</w>
Be fore</w>
ro sis</w>
gen eral</w>
anc ed</w>
ro w</w>
stop p
re main
produc ed</w>
medi an</w>
li sted</w>
de sc
av oid</w>
re ady</w>
mono therapy</w>
mo di
d en</w>
m ight</w>
gl itaz
W e
US E</w>
1 0.
ar ter
ver sus</w>
So dium</w>
resist ant</w>
instruc tions</w>
sul ph
random ised</w>
radi o
profil e</w>
or atory</w>
lam ivudine</w>
it es</w>
8 00</w>
rig er
reg ular</w>
en ia</w>
G l
200 6</w>
vacc ines</w>
initi ated</w>
impa ired</w>
glitaz one</w>
co- administered</w>
bre ath
Fol lowing</w>
k ly</w>
emea .</w>
cor respon
Un ion</w>
ref riger
pro p
f ung
ec k</w>
PACKAG E</w>
3 8</w>
par ti
loo ks</w>
ir y</w>
stand ard</w>
hy potension</w>
du le</w>
st at
an o
insuffici ency</w>
ex ist
Ir besartan</w>
rub ber</w>
ex c
entif ic</w>
O R</w>
E ff
temper ature</w>
pro log</w>
long -term</w>
ev ent</w>
activ ated</w>
Li prolog</w>
Fil m-coated</w>
6 1</w>
presc ri
c irc
B io
ta x
b l
valu es</w>
peri pheral</w>
neutro penia</w>
IM MEDIATE</w>
CAR T
m ut
haemo globin</w>
gastro intestinal</w>
M R
t en</w>
b ra
re t
c ha
5 1</w>
reg ar
Dur ing</w>
li gh
in a</w>
drug s</w>
cor rec
Pre gn
0. 9</w>
sp on
S er
MIN IM
In j
C e
p sy
al low</w>
MINIM UM</w>
pres ent</w>
p al
ex ce
do x
no ti
con tain</w>
comp on
ac et
partic ular</w>
gener ally</w>
L u
D U
orr ha
defici ency</w>
Y O
200 7</w>
sur vi
on e
ob tained</w>
Clin ical</w>
4 4-
Ger many</w>
P u
C T
z o
ov ascular</w>
as ing</w>
AL L</w>
f ul</w>
asse ssed</w>
sub sequ
inter val</w>
gen icity</w>
fir m
lip tin</w>
inj ect</w>
coun ts</w>
ag liptin</w>
om ide</w>
mono hydrate</w>
ex ten
d ine</w>
ap hy
TI V
measu res</w>
advi sed</w>
5 4</w>
vie w</w>
ta il
diffe ren
at t
am in
t ub
s ely</w>
ne g
com plic
s in</w>
ep i
anti bio
b or
mal ign
ed -
ati on
pres ent
n g</w>
Tev a</w>
1 2.
c us
pos sib
comm only</w>
Pregn ancy</w>
G r
tr ac
lac tose</w>
is ing</w>
di l
ris ks</w>
me al</w>
ex per
typ es</w>
inter actions</w>
difficul ty</w>
ir rit
ce tax
Ap plic
ch es</w>
c ul
V A
r y</w>
physici an</w>
comple te</w>
ag ent</w>
anti retro
L ab
00 5</w>
pe g
n a
indic ations</w>
in hal
cetax el</w>
ne x
ec ting</w>
cl ass</w>
avail ability</w>
star ted</w>
r h
op ini
hel p</w>
an so
sp er
hydro chlorothiazide</w>
ca utions</w>
b lin
a qu
00 8</w>
praz ole</w>
ati gue</w>
8 6</w>
00 7</w>
tum our</w>
con j
br u
P or
5 8</w>
si x</w>
con f
D ec
7 2</w>
st ro
pri l</w>
on ate</w>
mix ed</w>
gra m</w>
SP C</w>
HI V
measu red</w>
comb ined</w>
a e</w>
m mol</w>
id al</w>
concentr ate</w>
anta gon
def ined</w>
I tal
44- 20</w>
plate let</w>
mar k</w>
a ver
CART ON</w>
stop per</w>
on ia</w>
es tim
cur rent</w>
T A</w>
6 6</w>
or ity</w>
hydro chloride</w>
ef avirenz</w>
al y
Al ways</w>
sh ing</w>
ren tly</w>
p neum
gr anted</w>
Li ke</w>
6 -
sch e
need ed</w>
US ED</w>
C E</w>
provi de</w>
pren avir</w>
pl an
o ste
iz ed</w>
FO RE</w>
ul c
cipi ents</w>
re li
p ation</w>
oc y
mil li
exp iry</w>
de ath</w>
b ur
am in</w>
agre ed</w>
Th er
FO R
BE FORE</w>
9 1</w>
4 50</w>
impro vement</w>
bin ding</w>
A B
6 7</w>
se -
s ity</w>
l a
f at</w>
dr ink</w>
dis cus
se par
metabol ite</w>
ech an
S ec
p ig
L D
2 0
ve in</w>
leu k
K E</w>
mit ted</w>
dist ur
amp le</w>
th re
occur s</w>
ir on</w>
er ci
contra indicated</w>
YO U</w>
ma ge</w>
aff ected</w>
ent an
previ ous</w>
weak ness</w>
ten tion</w>
du res</w>
cour se</w>
I C
B li
19 97</w>
ven ted</w>
diab etic</w>
desc ribed</w>
ch est</w>
ver sion</w>
con sul
breath ing</w>
1 80</w>
v as
di lu
bra in</w>
ug h</w>
survi val</w>
H a
de sign
vi su
ur al</w>
f rac
dise ases</w>
Wh y</w>
I N</w>
C i
pro por
of f</w>
j a</w>
id enti
B lo
pro per
den afil</w>
b it
th yro
sp o
TA KE</w>
ye th
sho w</w>
nex t</w>
e ver
U K</w>
J anu
Do se</w>
0. 0
repe ated</w>
di c</w>
Man agement</w>
M AR
- 1
steroid s</w>
st ated</w>
int ended</w>
d l</w>
L E</w>
0. 3</w>
e z
cholester ol</w>
al gia</w>
S um
P E</w>
I V</w>
A n</w>
qu id</w>
indic ate</w>
h er
si l
n erv
ep iso
car ri
as s
ad ing</w>
adjust ed</w>
ab norm
P ri
Al l</w>
1. 0</w>
t -
f atal</w>
ac ting</w>
Ren al</w>
Di rec
vol un
m ine</w>
ever y
Bli ster</w>
6 9</w>
le -
gre l</w>
f a
En bre
su per
com e</w>
F ax</w>
sci entific</w>
it ching</w>
h ere</w>
Ne o
Hy dro
Ad verse</w>
refriger ator</w>
on set</w>
fac tors</w>
antiretro viral</w>
H er
D os
xi mab</w>
we igh
re -
long er</w>
ain ed</w>
ag es</w>
00 6</w>
trans f
rece p
at or
V AN
Spec ial</w>
un its</w>
pre cautions</w>
inf ants</w>
hy th
f r
da mage</w>
ati stic
l actic</w>
so on</w>
e arly</w>
der iv
b asis</w>
y ing</w>
ax is</w>
am prenavir</w>
metabol ites</w>
m y
be ta
b ab
T R
Euro pe</w>
x ia</w>
recep tor</w>
ph an</w>
haem orrha
epi lep
cardi ovascular</w>
ar ia</w>
P r
Enbre l</w>
E C
benef its</w>
N SA
In tern
si ent</w>
ox y
diffe rence</w>
P lease</w>
v ely</w>
ra rely</w>
ti te</w>
m el
pre vention</w>
esthe sia</w>
di oxide</w>
C ON
ox etine</w>
f ar
1 25</w>
1 2.5</w>
0. 1</w>
flu id</w>
exist ing</w>
colour less</w>
chang ed</w>
STO RE</w>
f en
clo sely</w>
tol d</w>
th ir
go ing</w>
volun te
sti l
st able</w>
s y</w>
i k
g o</w>
T w
6 2</w>
withdra wal</w>
un known</w>
ti ally</w>
r ates</w>
hypo glycaemia</w>
O l
Jo h
consi der
F in
ster ile</w>
distur b
derm al</w>
b el
ten o
initi ation</w>
di ure
T ell</w>
ST A</w>
200 8</w>
un common</w>
proce dures</w>
aver age</w>
val id</w>
sever al</w>
H older</w>
li quid</w>
lar ge</w>
dys function</w>
blin d</w>
accor d
D C</w>
AL T</w>
9 3</w>
7 3</w>
- up</w>
re ver
prote ins</w>
frequ ently</w>
acc id
or ig
E C</w>
izu res</w>
as one</w>
applic ations</w>
u mab</w>
sti mul
rap id</w>
Pharmac eutic
s co
mu ch</w>
evalu ation</w>
5. 3</w>
st ri
previ ously</w>
org an
dy sp
T O
P I
C y
y oun
o tal</w>
lab oratory</w>
is ol
ey es</w>
A F
volunte ers</w>
st atistic
metabol ised</w>
for get</w>
correspon ding</w>
5 7</w>
i um</w>
he um
gly cer
al ready</w>
LE T</w>
Intern ational</w>
w ould</w>
ul ations</w>
every body</w>
anti body</w>
an aphy
al k
He pati
e th
pl us</w>
f atigue</w>
ed- release</w>
M on
B ased</w>
sum an</w>
s ac
o con
Ta king</w>
In suman</w>
t or
mea sure</w>
es si
v udine</w>
resul ting</w>
i m</w>
g th</w>
cep t</w>
S EN
ti tr
main ly</w>
inflamm atory</w>
develop ed</w>
V al
hydrox y
g ed</w>
al low
M ic
C .</w>
tech no
pharmaco vigilance</w>
S y
D -
B .</w>
6 8</w>
trex ate</w>
el ec
dop a</w>
cl ar
yeth ylene</w>
un desirable</w>
ho wever</w>
am us
R em
A m
pro x
pro c
hyperten sive</w>
doc um
cyto penia</w>
PRO DU
EP AR</w>
inhib ition</w>
Re g
K e
In vented</w>
prote ase</w>
imm un
L et</w>
8 3</w>
requ ire</w>
n ame</w>
identi fied</w>
cardi al</w>
av oid
An im
til ity</w>
subsequ ent</w>
noti ce</w>
he alth</w>
ar c
1 60</w>
on in</w>
m echan
ic k
St udy</w>
6 3</w>
to co
bloc k
ast a</w>
Produc t</w>
B ec
sic k</w>
n ur
concomit antly</w>
bio availability</w>
un d</w>
teno fovir</w>
me ters</w>
fic ation</w>
ch ro
9 4</w>
qu ality</w>
om et
b ate</w>
appe tite</w>
Gen eral</w>
An ti
S M
9 2</w>
5 3</w>
wor king</w>
s we
mal e</w>
e uro
d inavir</w>
an avir</w>
S ub
M y
................ ................
siz e</w>
sel f</w>
pres ence</w>
milli on</w>
e u</w>
al e
Sum mary</w>
S lo
O R
ung er</w>
el ines</w>
il ly</w>
id es</w>
euro pa
U S</w>
Op ti
0 30</w>
transpl ant</w>
su ff
rati o</w>
ell a</w>
adv anced</w>
requ ire
rel and</w>
invol ving</w>
wee kly</w>
o m</w>
neg ative</w>
Ol anzapine</w>
x emb
or m</w>
deter min
Lu xemb
L illy</w>
su s
st ren
sle ep
sh i
dou ble
a -
Medic ines</w>
E m
trans fer
progres sion</w>
induc ed</w>
dy nam
tri g
tac rolimus</w>
str ic
par t
influ enza</w>
ido vudine</w>
PV DC</w>
I reland</w>
Bec ause</w>
Ad mini
op en
sub mitted</w>
ment al</w>
kno w
al ities</w>
ac onazole</w>
M ab
Com b</w>
pr in
on es</w>
n at
mar k
lun g</w>
LE AF
A B</w>
pro v
metho trexate</w>
S Y
sk ele
se izures</w>
rap id
m ission</w>
c ats</w>
S ome</w>
HB V</w>
z er</w>
u ment</w>
ol ic</w>
lev o
T é
v ar
pi es</w>
l en
hydrox ide</w>
differen ces</w>
cep ti
bre ath</w>
Ch aracteristics</w>
A l</w>
tre m
gen o
f ast
E S</w>
j ust</w>
ar ound</w>
St ates</w>
S an
tic le</w>
ous ness</w>
v o</w>
tt p</w>
pl unger</w>
h ttp</w>
con firm
LEAF LET</w>
1 1.
xi ety</w>
ho sp
double -
ab b
pro gram
pan cre
p um
asth ma</w>
tran sient</w>
sol ved</w>
excre tion</w>
bacter ial</w>
Té l</w>
0. 6</w>
un it</w>
pen s</w>
cartrid ges</w>
b al
u cle
P fi
ww w
tr ic
opini on</w>
invol ved</w>
europa .</w>
ep t</w>
el d</w>
placebo- controlled</w>
per sist
de x</w>
at a</w>
ON S</w>
org an</w>
fe ed</w>
5 9</w>
stil l</w>
resul ted</w>
refer r
A s
t ane
lop ido
ligh tly</w>
inf arc
PE R
0 10</w>
gi ve</w>
fem ale</w>
bet a</w>
S il
Pfi zer</w>
mar row</w>
ch em
Co -
y n</w>
ne sium</w>
le d
T ri
Anim al</w>
y r
rapid ly</w>
n a</w>
tic aria</w>
si m
re xia</w>
peri o
lo dipine</w>
ca uses</w>
re plac
lopido grel</w>
levo dopa</w>
b ound</w>
al id
Ca ution</w>
sor i
reco gn
o ff
myo cardial</w>
is su
T yp
L ev
valu e</w>
skele tal</w>
recommend ations</w>
in ten
8 9</w>
v ice</w>
tt en</w>
Belgi um</w>
who se</w>
wh ole</w>
us h</w>
r heum
oro dispersible</w>
ani um</w>
alid omide</w>
S in
M erc
sus cepti
hal f</w>
8 2</w>
t ness</w>
ir a</w>
fe w</w>
v ul
spec ies</w>
ri t</w>
oph arm</w>
haem ato
ap ar
al ed</w>
techno logy</w>
ta se</w>
s lightly</w>
po i
main tained</w>
know led
jo int</w>
izu mab</w>
ith rom
intr amus
induc tion</w>
ery th
0. 4</w>
trans dermal</w>
ond ary</w>
mar ked</w>
ge st
fe el</w>
ex ample</w>
de tail
sub str
k in</w>
S ta
Chil dren</w>
th ough</w>
pro duce</w>
para meters</w>
ha ving</w>
co pies</w>
In cre
s ation</w>
prof essi
ist s</w>
ch ar
C V</w>
8 5</w>
ch eck</w>
4. 6</w>
z idovudine</w>
re ached</w>
ithrom ycin</w>
fung al</w>
NSA ID
follow -up</w>
ery thro
elev ated</w>
cardi a</w>
ye lo
infarc tion</w>
h and
cortico steroids</w>
tu res</w>
per c
bo o
at tac
S O
stopp ed</w>
statistic ally</w>
r abb
prepar ation</w>
aqu inavir</w>
accord ance</w>
Merc k</w>
AC E</w>
vit amin</w>
ul atory</w>
toler ance</w>
throm b
tar get</w>
erg ic</w>
end er</w>
at ro
ari an</w>
Sin ce</w>
G ro
CYP2 C
00 9</w>
plas tic</w>
double- blind</w>
Tab let</w>
ur itus</w>
comple ted</w>
p et
ido sis</w>
comp any</w>
B r
Ar ticle</w>
estim ated</w>
disp os
at inib</w>
S E
H el
Gl ax
7 1</w>
me ans</w>
m en
ill ness</w>
ha vi
cr yst
R C
su ic
avoid ed</w>
at adine</w>
angio ten
ang e</w>
aff ects</w>
S ection</w>
A dul
to l</w>
test ing</w>
pri mar
ci p
am ino
S m
S A</w>
sul f
som e
primar ily</w>
parti cles</w>
absor bed</w>
V .</w>
Un it</w>
M a
F er
t ting</w>
di et</w>
cutane ously</w>
consti pation</w>
br on
IT S</w>
v ascular</w>
sub cutaneously</w>
regar ding</w>
r up
en ta
occur ring</w>
medic ation</w>
id one</w>
c ough</w>
E- mail</w>
Blo od</w>
visu al</w>
g er</w>
co de</w>
al in</w>
B MS</w>
thro at</w>
lo c
l ands</w>
haemorrha ge</w>
carri ed</w>
N O
test ed</w>
oste o
m en</w>
fi ve</w>
al te
Typ e</w>
Por t
8 -
ther s</w>
lu s</w>
entan yl</w>
be g
Pe g</w>
7 6</w>
u sions</w>
incre asing</w>
en h
determin ed</w>
UN ITS</w>
M P
C l
symptom atic</w>
spor in</w>
pol yethylene</w>
in yl</w>
fac tu
compar able</w>
abnorm alities</w>
Se ver
sever ity</w>
po ints</w>
ment ation</w>
gra du
exac tly</w>
episo des</w>
com a</w>
car d</w>
Slo ven
P hase</w>
F lu
D y
z a
up on</w>
ro om</w>
psy cho
ol ence</w>
immuno suppres
be havi
ati ves</w>
O ver
K ar
H D
re tur
X e
SM ALL</w>
S te
Port ug
ve x</w>
ur ticaria</w>
ul in</w>
ri l</w>
ri f
po sed</w>
le sions</w>
ir besartan</w>
im ple
guid elines</w>
bo x</w>
z om
qu es
pa rent</w>
me t</w>
doc ument</w>
as k</w>
NSAID s</w>
Intr on</w>
F ac
0. 00
v ic
lu lose</w>
id ine</w>
ic am</w>
foet al</w>
el z
appe ar</w>
B LI
sto red</w>
sp a
re ad</w>
ato id</w>
adequ ately</w>
S af
L at
l s</w>
L U
G ast
1 00
se x
re ach</w>
maj ority</w>
ex erc
cy cle</w>
Ne ther
Ac tr
treat ments</w>
produc tive</w>
kidne ys</w>
ini c</w>
h ands</w>
g est</w>
ex am
carc ino
Rap id</w>
under going</w>
rel ap
monit or</w>
conc ern
Z Y
Pl an</w>
36 8</w>
tre ating</w>
shor t</w>
re ference</w>
prot ection</w>
pe ak</w>
n er</w>
as h</w>
Virafer on</w>
T e
Portug al</w>
L o
HIV -1</w>
vi vo</w>
stat us</w>
re as
k es</w>
i ed</w>
Wor king</w>
Hum ira</w>
- related</w>
tum ours</w>
sulph on
prot ective</w>
7 7</w>
6. 6</w>
t a</w>
require ments</w>
ol anzapine</w>
log ic</w>
co- administration</w>
3 0
0. 2</w>
thre at
prot ect</w>
hydro us</w>
fa ec
em ents</w>
ab ac
Nether lands</w>
8 1</w>
r an
com for
ch e
abac avir</w>
Virafer on
S tre
threat ening</w>
pr acti
' s</w>
tal ity</w>
or ally</w>
gr aph
d ex
d .</w>
b ility</w>
Viraferon Peg</w>
BLI STE
8 8</w>
yo phil
tiv es</w>
sche dule</w>
r e</w>
dynam ic</w>
ac knowled
Admini stration</w>
st ances</w>
rever sible</w>
b um
ale tra</w>
Peg Intron</w>
K aletra</w>
200 5</w>
n on</w>
n e</w>
lo ad</w>
it ation</w>
g el
an alo
S kin</w>
He alth</w>
v ag
er o
al tern
v o
separ ate</w>
po tent</w>
p sori
nur se</w>
no ted</w>
confirm ed</w>
ac idosis</w>
Ke ep</w>
m yelo
li fe
expo sed</w>
design ed</w>
R NA</w>
remo ve</w>
le ss
em br
bott les</w>
an cies</w>
ad ded</w>
The y</w>
L ac
spec ted</w>
sle ep</w>
insuffici ent</w>
influ ence</w>
contracep tion</w>
am lodipine</w>
St udi
supp le
re a</w>
of ten</w>
ic lo
Studi es</w>
Re production</w>
O c
- like</w>
v a
sc ore</w>
fi bro
es sive</w>
em s</w>
e poetin</w>
d ings</w>
co m</w>
clo se</w>
be aring</w>
Saf ety</w>
C al
ub icin</w>
rati opharm</w>
oric onazole</w>
ex cipients</w>
a ys</w>
T S</w>
St ate</w>
No t</w>
D ue</w>
5 0
su it
sec re
exerc ised</w>
app lied</w>
LA BE
A tri
thir d</w>
sug gest</w>
st ore</w>
re ve
frequ ent</w>
dilu ted</w>
con cluded</w>
an xiety</w>
R ev
ER A</w>
B I
Al though</w>
v als</w>
to c
ic s</w>
but yl</w>
an hydrous</w>
F -
ucle o
physi cal</w>
n el
n ed</w>
mor tality</w>
do se-
contain er</w>
col l
w s</w>
sec ondary</w>
decre ases</w>
ci profloxacin</w>
as si
anso prazole</w>
Or g
Ad di
y r</w>
sp o</w>
rece pt
por t</w>
disp o
de s
af t</w>
S T</w>
Ne spo</w>
Im m
rheum atoid</w>
or age</w>
meth od</w>
irrit ation</w>
TI ONS</w>
Con comit
prop ylene</w>
m ice</w>
ini tis</w>
har mon
ch i
ben zo
ad ap
E f
sp as
pit ant</w>
lac t
hor mon
di so
develop ing</w>
con ven
an a
VI II</w>
R ING
Concomit ant</w>
www .</w>
referr al</w>
ex tent</w>
e ve</w>
acc um
TH O
S im
Im portant</w>
y to
post- marketing</w>
cur rently</w>
Z I
Sec tor</w>
R is
Par kin
M ix</w>
I M</w>
2 ,
pr uritus</w>
poten tially</w>
pat ches</w>
es sen
un likely</w>
tric itabine</w>
tem por
pig s</w>
os in</w>
fil l</w>
e m</w>
M ag
wor sen
s low
s a</w>
num b
inter vals</w>
il is</w>
do cetaxel</w>
con sequ
T ar
Ci profloxacin</w>
C D
ti dine</w>
thrombo cytopenia</w>
stro ke</w>
on o
mor ning</w>
li tis</w>
investig ated</w>
f um
ex cluded</w>
R emo
PRODU CT</w>
E17 2</w>
200 3</w>
us al</w>
suit able</w>
r ine</w>
ou ter</w>
intramus cular</w>
en ter
D AL</w>
C oun
0 11</w>
ul es</w>
somn olence</w>
so ft</w>
fer tility</w>
consist ent</w>
M yo
EX P</w>
war ds</w>
s mo
rabb its</w>
le ft</w>
Remo ve</w>
Hyper sensitivity</w>
su d
per son</w>
antibio tics</w>
ab s
S yn
19 96</w>
ma kes</w>
g em
et u
est ro
d al</w>
Po wder</w>
far in</w>
f inal</w>
ab ly</w>
Fin land</w>
0. 8</w>
suffici ent</w>
rel ative</w>
program me</w>
norm ally</w>
meet ing</w>
intraven ously</w>
gen e</w>
cl ine</w>
bor n</w>
az ol
anti coag
C L
toler ated</w>
sor bate</w>
ond apar
ondapar inu
entr ic
bel ong
D ay</w>
se p
ph y</w>
ondaparinu x</w>
o -
m ia</w>
a way</w>
S H</w>
S D</w>
N R
M al
C or
v s.</w>
sol ute</w>
ph yl
lik a</w>
ges tive</w>
el on</w>
b ir
anti viral</w>
R s</w>
Pharmaco vigilance</w>
Lab or
Kar ve
7 8</w>
ur rent</w>
reduc ing</w>
g li
fi eld</w>
ci l</w>
cel lulose</w>
allow ed</w>
acc ount</w>
Ris k</w>
P R
. .</w>
v ess
recept ors</w>
prescri ption</w>
p ted</w>
low ering</w>
i pr
end point</w>
B ar
re si
form ulation</w>
es p</w>
an ine</w>
al bum
thyro id</w>
tam ine</w>
ro ute</w>
meet ings</w>
fum arate</w>
enc es</w>
arr hyth
Tr ud
On ce</w>
J u
y lu
ster ing</w>
s our
s aquinavir</w>
remo ved</w>
proper ties</w>
per for
lac tation</w>
ir ub
cryst all
author ities</w>
an rix</w>
We ek</w>
S S</w>
Pharmaceutic als</w>
vess els</w>
ti redness</w>
mem ber</w>
St ore</w>
P er
IN E</w>
prox il</w>
ov arian</w>
ol ysis</w>
g al
diso proxil</w>
crystall ine</w>
centr al</w>
Gr ade</w>
C ap
B on
10 9</w>
si glitazone</w>
possib ly</w>
m id
fi br
com es</w>
8 7</w>
or d
no ea</w>
lim it</w>
ffic acy</w>
I I
E fficacy</w>
Be ta
0 12</w>
um -
tox ic
t end
s ants</w>
prolong ed-release</w>
p H</w>
lor atadine</w>
is h</w>
es c
conj unc
Pac k</w>
AN NE
w ise</w>
ter m
ou le</w>
le x
fl u</w>
f re
tr a
meta static</w>
eno pa
dr onic</w>
cy clo
Ro ad</w>
Hydro chlorothiazide</w>
D u
A S</w>
st orage</w>
sac he
rec ently</w>
r is</w>
ell itus</w>
el led</w>
ay ed</w>
Sm ith
Pro top
ANNE X</w>
u tive</w>
su res</w>
in z
ges tion</w>
factu re
ec ti
are as</w>
Trud exa</w>
Sever e</w>
Intr on
D r
9 -
za ar</w>
u z
the re
shi p</w>
s wit
prov el</w>
path ic</w>
man u
compon ent</w>
O n</w>
Intron A</w>
ste arate</w>
neuro pathy</w>
haemo dialysis</w>
guid ance</w>
exce ed</w>
elim inated</w>
complic ations</w>
bacter ia</w>
an esp</w>
R et
Parkin son</w>
E r
Ar anesp</w>
it h</w>
dec ide</w>
appe ars</w>
P -
1. 2</w>
transpl an
t ec
somn ia</w>
qu in
nerv ous</w>
m enopa
gr ade</w>
di g
comp et
bre ak
bo x
N T</w>
E17 1</w>
1. 3</w>
n ucleo
l yophil
exc essive</w>
eryth ema</w>
ad s</w>
ab s</w>
M -
L Y
H P
Gast ro
who m</w>
ub le</w>
our g</w>
nec k</w>
et an
di o
de vice</w>
amp oule</w>
Smith K
E V
1 A
- treated</w>
per s
mem br
ke ep</w>
comfor t</w>
VI RA
G u
B en
1 10</w>
ter ato
sex ual</w>
m acro
inhib it</w>
gr av
P 450</w>
Novo Mix</w>
IN TE
C M
v oriconazole</w>
tri glycer
st -
re pub
m ellitus</w>
f entanyl</w>
ce ph
SmithK line</w>
P lus</w>
H ep
Coun cil</w>
v an</w>
t ely</w>
m i
gen e
flu shing</w>
direc t</w>
bil irub
ad e
A Z</w>
z i
transfer ase</w>
repub lika</w>
re st
pre fer
oper ation</w>
gen s</w>
gen ital</w>
am ip
ac e</w>
L am
J une</w>
Bo ard</w>
transplan tation</w>
transf er</w>
sw abs</w>
re pitant</w>
proc ess</w>
l um
in te
ex ole</w>
comple tely</w>
cle an
ap repitant</w>
amip exole</w>
acet ate</w>
W P</w>
tal k</w>
reg ularly</w>
pu t</w>
life -
l ast
N ex
Luxemb ourg</w>
G li
worsen ing</w>
un changed</w>
pharmac eutic
mechan ism</w>
i ver
con vul
carc in
S ep
2 5
youn g</w>
peg interferon</w>
p y
oric oxib</w>
or ation</w>
l o</w>
ha z
P os
u c</w>
super vision</w>
posi tion</w>
fo s
entric ular</w>
bet ter</w>
N on-
Ital y</w>
st af
staf f</w>
sit es</w>
pum p</w>
op tim
n on
li po
k al
disturb ances</w>
chil d
ang ina</w>
W ith</w>
M UN
M I</w>
B asal</w>
Al l
thromb in</w>
syn the
s tic</w>
plate lets</w>
persist ent</w>
in dinavir</w>
gast ric</w>
dom in
conc er
b ic
sel ective</w>
ri de</w>
oun ts</w>
meth yl
is ms</w>
hosp ital</w>
d ated</w>
am pl
M us
Co zaar</w>
propor tion</w>
pro posed</w>
correc t</w>
angioten sin</w>
Ju ly</w>
AT C</w>
spl atin</w>
re view</w>
op ha
o wn</w>
o .</w>
duc tion</w>
dis comfort</w>
deriv ed</w>
amp icin</w>
R S</w>
C -
str ain</w>
ri ght</w>
re present
is ations</w>
erythro poi
diure tics</w>
ado pted</w>
ac cep
RIS PER
Bo x</w>
vari ous</w>
ulc ers</w>
sulphon ylu
st age</w>
phen yl
min or</w>
in duce</w>
h ol
en cies</w>
de gre
bo t
Glax o
7 -
war farin</w>
pac t</w>
ong ue</w>
ol s</w>
io glitazone</w>
i br
fil grastim</w>
es opha
azol am</w>
as p
an aly
ad y-
RISPER DAL</w>
Pa ediatric</w>
Novo Let</w>
CO M
st ria</w>
p as
metabol ic</w>
glyca emic</w>
chro me</w>
c u
b a
W ater</w>
T -
---------------- ----------------
- dose</w>
ste ady</w>
micro gram</w>
l ansoprazole</w>
in take</w>
d one</w>
Mix 25</w>
A provel</w>
v ac
no se</w>
lit ax
inf orm</w>
gr an
fin dings</w>
ce re
W ith
N ame</w>
AP TIV
- 2</w>
wor ks</w>
val sartan</w>
tissu es</w>
sp ro</w>
requ est
po rosis</w>
pho to
on ed</w>
faec es</w>
ex cept</w>
at r
anticoag ul
T l
P en
K ep
C min</w>
C S
7 9</w>
w ing</w>
ur y</w>
tic al</w>
sti m
sen sation</w>
dro w
ar b
al anine</w>
ag en</w>
Mix 50</w>
D ar
Beta feron</w>
3. 5</w>
0. 7</w>
some times</w>
si rolimus</w>
ox in</w>
out come</w>
m an</w>
li spro</w>
ig n</w>
g ab
fol low</w>
facture r</w>
ag on
ST RI
I V
A V
tic asone</w>
occur rence</w>
end ing</w>
be tol</w>
ar g
allerg y</w>
a u</w>
V eterinary</w>
Tr an
Tl f</w>
Re betol</w>
B -
0 13</w>
t om
lop inavir</w>
fol lic
al ways</w>
ab solute</w>
O G
0. 25</w>
re productive</w>
malign ant</w>
iclo sporin</w>
cc us</w>
cal cul
ar t
Sep tem
Glaxo SmithKline</w>
D ata</w>
D an
C RI
ster one</w>
st e</w>
p ha
ocon azole</w>
g et
ass ay</w>
an n
acknowled ged</w>
T RE
Septem ber</w>
O J</w>
Lat vi
G A</w>
vacc inated</w>
sil denafil</w>
ol ate</w>
ke ys</w>
i sion</w>
est i</w>
app ly</w>
V ER
tech ni
swe ating</w>
str y</w>
replac ement</w>
re ne
pre v
pre domin
o trig
nit ro
em tricitabine</w>
compon ents</w>
as se</w>
al afil</w>
abs ence</w>
Me di
Applic ation</w>
sh ap
ro siglitazone</w>
ri al</w>
in ate</w>
c at
belong s</w>
R om
L iv
η λ</w>
slow ly</w>
otrig ine</w>
oc ular</w>
litax el</w>
c ulo
ag el</w>
Sol ution</w>
S pain</w>
R MP</w>
Hepati c</w>
Dos age</w>
APTIV US</w>
ro und</w>
reduc es</w>
cyto chrome</w>
but ton</w>
b lack</w>
attac k</w>
al ine</w>
V ol
D ri
um stances</w>
to p</w>
impro ved</w>
il d
g am
frac tures</w>
ate g
UL N</w>
FI L
0 14</w>
su n
sit agliptin</w>
ref ul</w>
month ly</w>
le z</w>
ir ing</w>
inter rup
il st</w>
gener ase</w>
entr e</w>
ca reful</w>
bo dy
asi lez</w>
R asilez</w>
Co- administration</w>
A generase</w>
re st</w>
pneum onia</w>
in tolerance</w>
in ning</w>
continu ous</w>
ch ol
ca si
ati vely</w>
VIRA MUN
Eff ects</w>
D E
treat ment
repor t</w>
regim ens</w>
presc rib
on ary</w>
mag nesium</w>
in ser
cur on
co ver</w>
ci splatin</w>
M anu
G F
37 1</w>
sim vastatin</w>
leuk aemia</w>
high ly</w>
det ected</w>
br al</w>
bal ance</w>
VIRAMUN E</w>
U sing</w>
B u
AS T</w>
3 70</w>
ur red</w>
p ap
ma z
is on</w>
f inavir</w>
ce t</w>
c in
am ong</w>
altern ative</w>
F or
ï ve</w>
sur ing</w>
sing le-
ob ac
n ings</w>
life- threatening</w>
li ximab</w>
ha ir</w>
er ial</w>
ag ain</w>
Ther a</w>
S we
H EX
B re
0. 001</w>
ve red</w>
sk a</w>
siz es</w>
s low</w>
op io
in tro
ex pl
ed er
dil ution</w>
d u</w>
az osin</w>
au to
al lowing</w>
T rac
I g
De ut
us ers</w>
sch land</w>
osteo porosis</w>
medi ated</w>
inhib its</w>
form s</w>
er b
depend ing</w>
block ers</w>
adjust ments</w>
Me tabol
Deut schland</w>
sper idone</w>
spec ific
so logy</w>
deter mine</w>
conven tional</w>
co phen
c itabine</w>
ady- state</w>
LABE L</w>
Inj ection</w>
G re
C ro
2. 0</w>
0 15</w>
por te
ond on</w>
m m</w>
e f</w>
conf usion</w>
N D</w>
L ondon</w>
He ad</w>
CO X
C ell
re tention</w>
pro mel
promel lose</w>
pl a</w>
pl a
li de</w>
less ness</w>
gr aft</w>
glyco l</w>
epilep sy</w>
ap parent</w>
Ther ap
Mab Thera</w>
AD E</w>
1 8.
vic es</w>
t ons</w>
instruc ted</w>
f ondaparinux</w>
cre am</w>
as ys</w>
A g
ti t
term inal</w>
respon ses</w>
ques tions</w>
le n</w>
coag ulation</w>
associ ation</w>
accum ulation</w>
S h
R i
P i
El derly</w>
Atri pla</w>
A ME
200 4</w>
sub sti
pro phyl
pri m
oc k</w>
lo l</w>
li s
hy p
ex erci
ep ine</w>
T E</w>
Peg asys</w>
Oc to
O S
Joh n</w>
Au stria</w>
9 0
zom yr</w>
prepar ations</w>
inter national</w>
f am
diagno sis</w>
del ayed</w>
ag l
Mo st</w>
Ap pro
A zomyr</w>
tane ous</w>
sit u
ro d</w>
lam otrigine</w>
hand ling</w>
en ough</w>
contracep tive</w>
Par ty</w>
Octo ber</w>
M et
In du
I X</w>
4 0
need s</w>
m ix</w>
j a
in activated</w>
ig e</w>
c it
c iclosporin</w>
bloc king</w>
am ended</w>
album in</w>
ON AL
Me th
M A</w>
H g</w>
Gro up</w>
Con t
Comm un
13 2</w>
- f</w>
ti p</w>
st at</w>
sor ption</w>
reg on</w>
mus cles</w>
le ading</w>
ain s</w>
Tw o</w>
Pu regon</w>
CE L
C irc
A pril</w>
- acting</w>
z ide</w>
t ongue</w>
sc ri
respec t</w>
ou gh
na ïve</w>
mm 3</w>
immedi ate</w>
follow s</w>
Pharmaco kine
P lac
AU THO
AM E</w>
1. 1</w>
ulc er</w>
su cc
st ained</w>
saf e</w>
nat ural</w>
n ation
im pact</w>
ent ation</w>
carcin oma</w>
arm s</w>
ar yn
antagon ists</w>
S w
C ol
1. 4</w>
us er</w>
sum mary</w>
stren gth</w>
detail ed</w>
cophen olate</w>
comm erci
chlor ic</w>
cardi o
Q U
C an
Belgi que</w>
AUTHO RI
yto in</w>
tec an</w>
rh initis</w>
respon d</w>
ne w
lu e</w>
haemato logical</w>
cle arly</w>
K w
E 4
Direc tive</w>
Dec ember</w>
D r</w>
sud den</w>
rit er
requ iring</w>
pa tho
op en</w>
ly ing</w>
l at
it ary</w>
flu oro
ell ular</w>
dro ps</w>
do g</w>
anti depres
acet yl
T RI
Kw ik
A -
th ink</w>
respon sible</w>
phil ia</w>
n ic
ev ening</w>
direc tly</w>
derm atitis</w>
beta -
tr av
mo d
ild agliptin</w>
equ al</w>
be at</w>
ad a</w>
Gastro intestinal</w>
G ONAL
3. 0</w>
y our
un di
ul cer
recogn ition</w>
pos es</w>
ol y
mach in
impro ve</w>
consi der</w>
con sci
b ub
av a</w>
an t
ag ing</w>
GONAL -f</w>
your self</w>
y lic</w>
thrombo sis</w>
ro x
possib ility</w>
p ioglitazone</w>
p es</w>
m ol
in somnia</w>
compet ent</w>
asth enia</w>
N -
E esti</w>
D 6</w>
Car di
10 -
sulphonylu rea</w>
su spected</w>
stim ulation</w>
perform ance</w>
or phan</w>
en ro
elec tro
chi atric</w>
bru ary</w>
be st</w>
bab y</w>
as tin</w>
activ ation</w>
Re ad</w>
In formation</w>
H AR
Fe bruary</w>
C ept</w>
и я</w>
w er</w>
si tis</w>
n al</w>
lox etine</w>
inj ury</w>
hy cardia</w>
angio edema</w>
am ounts</w>
VA X</w>
Janu ary</w>
AU C
ul ate</w>
ud in</w>
t ute</w>
qu anti
ou red</w>
nation ally</w>
n asal</w>
health care</w>
exerci se</w>
elev ations</w>
cl usion</w>
car ry</w>
be poetin</w>
at tention</w>
anti hypertensive</w>
ac comp
T rit
R ib
AUTHORI SA
vid one</w>
o esopha
ne ph
mat ter</w>
machin ery</w>
el y
a red</w>
HD PE</w>
C IN
us ti
s ampl
r at</w>
pur poses</w>
psori asis</w>
fo il</w>
consider ation</w>
commerci al</w>
antibio tic</w>
Cell Cept</w>
0 16</w>
tub erc
st re
si lic
secre tion</w>
main tain</w>
ket oconazole</w>
iv otal</w>
hydr ation</w>
gen tly</w>
en do
V F
P ho
N AME</w>
Dri ving</w>
An y</w>
wh ilst</w>
u si
suppres sion</w>
ra ised</w>
n er
issu es</w>
in king</w>
contracep tives</w>
conj ug
com pati
admini stering</w>
Av astin</w>
A G</w>
rel ation</w>
prin ted</w>
nucleo side</w>
ne l</w>
in ity</w>
if ene</w>
f av
exc ess</w>
er m
cor onary</w>
bilirub in</w>
alte red</w>
Q T</w>
Kwik Pen</w>
AUTHORISA TION</w>
vi ro
ulo sis</w>
tiv a</w>
ser o
pa ren
om o
ne u
mu co
min ute</w>
l in</w>
kal aemia</w>
it yn</w>
int ment</w>
id ation</w>
i fe
em pt
culo skeletal</w>
ch aracter
b at
aph ane</w>
Actr aphane</w>
th al
pre ss</w>
le g
exper im
ec e</w>
dou ble</w>
dis solved</w>
clo tting</w>
body weight</w>
V acc
T otal</w>
P rit
P art</w>
C ho
Τ ηλ</w>
v ements</w>
ta ste</w>
suff er</w>
ra m</w>
pharmaceutic al</w>
p ivotal</w>
open -
TE D</w>
TA B
T y
S har
Rec on
Mic ar
LE D</w>
E L</w>
D ox
Belgi en</w>
t ard</w>
sh ire</w>
pac litaxel</w>
menopa usal</w>
ep sia</w>
consul t</w>
con ver
ca using</w>
arter y</w>
antagon ist</w>
ac ts</w>
Xe lo
Incre ased</w>
F SH</w>
EME ND</w>
3. 3</w>
sal ic
ri tion</w>
m L</w>
h r</w>
al isation</w>
ac oxib</w>
Reg ulation</w>
Mix tard</w>
va sive</w>
therap ies</w>
st s</w>
shor tness</w>
shap ed</w>
rif ampicin</w>
rel ation
pres sion</w>
nel finavir</w>
lymph ocy
ffic ial</w>
f uro
e ar</w>
discontinu e</w>
c m</w>
bio logical</w>
behavi our</w>
bec om
al es</w>
Pro long
Mar ch</w>
Ital ia</w>
Ca ely
B er
A ven
0 22</w>
- resistant</w>
ster oid</w>
sp ho
reco very</w>
rec ent</w>
par in</w>
l ater</w>
ge al</w>
f low</w>
ez ing</w>
Xelo da</w>
Shar p</w>
C H</w>
A cl
0 2
to o
tit anium</w>
suppor tive</w>
relev ance</w>
mat erial</w>
is ate</w>
frac ture</w>
chem ical</w>
RE N
P S</w>
Me an</w>
M ay</w>
Latvi ja</w>
Dan mark</w>
ol ab
fen adine</w>
em er
e tr
clo ts</w>
S C</w>
Rib avirin</w>
Nov ember</w>
An g
sh ock</w>
riter ia</w>
ri speridone</w>
re main</w>
par tial</w>
or ubicin</w>
on t</w>
j ection</w>
contr ast</w>
clar ityn</w>
c ir
at ors</w>
Re spon
Neo clarityn</w>
M en
y lo
to m</w>
s iness</w>
prolong ation</w>
pre pared</w>
po st</w>
pe p
li ve</w>
k a</w>
jo ints</w>
immuno glob
an k
RE Y
pac k
ol -
mis artan</w>
itr ate</w>
gi tis</w>
ca emia</w>
att le</w>
R ati
L eu
E EC</w>
37 2</w>
1 84</w>
stopp ing</w>
ha m
exac erb
atro pin</w>
at az
ast e</w>
anaphy lactic</w>
ad dre
S -
P an
M il
HP V</w>
G I
Adul ts</w>
war nings</w>
un d
su cro
ste ady-state</w>
sol utions</w>
reduc tions</w>
re verse</w>
lymph oma</w>
j usti
im p
del ay</w>
cep tin</w>
c lopidogrel</w>
ataz anavir</w>
Rem ic
Her ceptin</w>
H E
F lex
F ab
D en
Caely x</w>
tro ugh</w>
titr ation</w>
ta via</w>
sur ve
sal t</w>
pro st</w>
nit ol</w>
in sul
duc t
cy cles</w>
clean sing</w>
a king</w>
Pen fill</w>
In struc
Ex tavia</w>
El i</w>
Do cetaxel</w>
C o</w>
2 10</w>
z yme</w>
to s</w>
s cre
radi ation</w>
g ain</w>
e .
ch aracteristics</w>
Ha emo
Do h
C el
ug h
t le</w>
t ing
s cal
r algia</w>
mon keys</w>
li thi
intr ac
hi p</w>
haz ard</w>
eri us</w>
am une</w>
M B
BLISTE RS</w>
AC E
A erius</w>
A C</w>
19 99</w>
v en</w>
tuberc ulosis</w>
sucro se</w>
se ek</w>
se d
re stric
or i</w>
or ange</w>
mo fe
mofe til</w>
mark et</w>
hel ps</w>
expo sures</w>
e rec
di hydro
dec id
cont rib
cl ero
ator vastatin</w>
anti- inflammatory</w>
amino transferase</w>
P ul
Nov ar
Metabol ism</w>
Joh n
Indu stri
Doh me</w>
oun ds</w>
oc rit</w>
er t</w>
cl ou
ci al</w>
acro ss</w>
Tab lets</w>
St al
Pro f
Novar tis</w>
F requ
5. 0</w>
4. 1</w>
19 .
v ildagliptin</w>
relation ship</w>
radi olab
obac ter</w>
n ar
gu es</w>
col i</w>
al ing</w>
adju v
X A</w>
P ugh</w>
FIL LED</w>
A Z
A ID
syst ems</w>
suic idal</w>
subst anti
se l</w>
ren ia</w>
remain s</w>
re fl
professi onal</w>
mm Hg</w>
is cha
inhal ed</w>
anti gen</w>
Wh ite</w>
T T
REY AT
REYAT AZ</w>
No te</w>
F armac
stra di
raz yme</w>
p in
om er
ob j
mat ern
le st
enti re</w>
enta ge</w>
ec table</w>
e. g.</w>
child bearing</w>
as sist
aff ecting</w>
VI AL</w>
VAN CE</w>
Sub cutaneous</w>
S ci
P SU
Fil grastim</w>
а р
ve t</w>
se al</w>
re as</w>
predomin antly</w>
ph ine</w>
op ening</w>
obser v
isol ated</w>
g el</w>
ep id
concern s</w>
compar ison</w>
bo ssed</w>
admini ster</w>
adap ter</w>
X T</w>
Remic ade</w>
G lu
u ria</w>
stradi ol</w>
prescri be</w>
phen ytoin</w>
in vasive</w>
il i
h arm
g a</w>
essen tial</w>
erythropoi etin</w>
e h
di az
compar ator</w>
chil ls</w>
bl urred</w>
bl ad
b if</w>
Sy mptom
Ne uro
John son</w>
E poetin</w>
Applic ant</w>
ver ige</w>
un used</w>
tion ally</w>
sy m
substr ate</w>
ri d</w>
h ap
fi x
dig oxin</w>
d ap
breast- feed</w>
b ud
at ard</w>
an dronic</w>
S verige</w>
RE LE
PR O</w>
He alth
C ef
weigh ing</w>
vir uses</w>
ver te
ure a</w>
top ical</w>
surg ical</w>
st ability</w>
s al</w>
or a</w>
mod els</w>
maz epine</w>
lo we
i pril</w>
elz ir</w>
degre e</w>
d omen</w>
consci ousness</w>
appe arance</w>
an th
accid ental</w>
VA X
TE XT</w>
T elzir</w>
Over all</w>
ti gh
t ory</w>
ph il</w>
off -
glu curon
g ol</w>
di vided</w>
cl assi
bru ising</w>
b lue</w>
ap one</w>
S ur
Par k</w>
NR TI
MEDI CIN
Belgi ë</w>
6 0
18 5</w>
st ribution</w>
pre dic
pa que</w>
p and
m enti
in sti
et oricoxib</w>
can di
ab domen</w>
T it
T er
T emo
T ac
Sy stem</w>
PRE -
PRE- FILLED</w>
On ly</w>
1. 8.
1 6.
w om
un avir</w>
tro pin</w>
st ab
spas m</w>
poly propylene</w>
pi pet
ph ane</w>
ot inic</w>
in do
dox orubicin</w>
dat es</w>
da mag
cal caemia</w>
ad y
achi eve</w>
PRE ZI
Cap sule</w>
C le
C amp
tr y</w>
pub lished</w>
phosph at
o estro
o co
medic ations</w>
inu ria</w>
he art
gradu ally</w>
cont ent</w>
ch ick
ch ed</w>
beg inning</w>
W omen</w>
VI R
Trac le
SY RING
Pol y
PREZI STA</w>
Or phan</w>
In gel
2. 4</w>
0. 0</w>
ρ ο
tri ax
sp e
reg ulatory</w>
l p</w>
docum ents</w>
bub b
ad just</w>
ad in</w>
ST A
Li etu
K inz
Instruc tions</w>
HEX AL</w>
v s</w>
terato genic</w>
tac hycardia</w>
remain ing</w>
re ich</w>
open- label</w>
menti oned</w>
l ine
individu als</w>
foet us</w>
etan us</w>
diagno sed</w>
contain ed</w>
arter ial</w>
anti psycho
VAX PRO</w>
N erv
Ex elon</w>
7 50</w>
0 20</w>
undi ce</w>
sec utive</w>
request ed</w>
random ized</w>
pop ulations</w>
par ties</w>
hormon al</w>
fac il
dro p</w>
ch e</w>
boo ster</w>
a ir
Re bif</w>
N um
Labor ator
G ar
E L
D S</w>
CD 4</w>
0 18</w>
λ λ
up dated</w>
tu be</w>
s -
rox icam</w>
re le
gl and</w>
col oured</w>
bubb les</w>
b ar
a w
T I</w>
Mo dule</w>
M IU</w>
H CV</w>
F urther</w>
CYP2C 9</w>
w able</w>
u ric</w>
ting ling</w>
os ine</w>
orig inal</w>
ob struc
n ical</w>
j unc
id e
empt y</w>
con secutive</w>
clou dy</w>
ceph alo
b ol
b al</w>
Y ET
OG EN
vir apine</w>
v entricular</w>
ul ating</w>
to po
tempor ary</w>
suscepti ble</w>
suscepti bility</w>
su sp
sensi tive</w>
oul es</w>
he im</w>
fre ez
f all</w>
et ary</w>
at ine</w>
ar li
Un its</w>
Tracle er</w>
OGEN ATE</w>
K OGENATE</w>
B YET
wor se</w>
v ax</w>
under lying</w>
trem or</w>
t ou
se ar
s qu
ri se</w>
respon ded</w>
poly sorbate</w>
pneum on
o ing</w>
mut ual</w>
is tic</w>
f ain
drow siness</w>
blad der</w>
bir th</w>
ano rexia</w>
S et</w>
Re port</w>
Rap amune</w>
Pa ste
Ne u
L anso
EN D</w>
1 1
trans amin
su stained</w>
sour ce</w>
ref er</w>
l af
decid ed</w>
analo gues</w>
amp oules</w>
al -
ac il</w>
ZY PRE
Pro te
H ol
C N
y olysis</w>
thrombo emb
specif ied</w>
ol ism</w>
numb ness</w>
mut ations</w>
lo sartan</w>
laf ax
l ysis</w>
l as
ibr is</w>
del i
am ipril</w>
abdom yolysis</w>
ZYPRE XA</w>
Vol ibris</w>
Ha em
C er
C R</w>
A ug
y cline</w>
w all</w>
ud ra
triax one</w>
tion ing</w>
subj ect</w>
star ch</w>
ph a</w>
lun gs</w>
ju ice</w>
go od</w>
ent ally</w>
den sity</w>
calcul ated</w>
att ached</w>
VF END</w>
U p
Swe den</w>
H Be
G ado
E F
Den mark</w>
w al
tel misartan</w>
t in
suff ering</w>
prefer ably</w>
pr a</w>
ou ght</w>
ord ination</w>
imp at</w>
h arm</w>
en lar
asse ss</w>
V impat</w>
RC ERA</w>
Pol ska</w>
N eder
MI RCERA</w>
35 8</w>
1A 2</w>
u ted</w>
str ong</w>
str ains</w>
si c</w>
rel ating</w>
pl an</w>
me als</w>
lafax ine</w>
l a</w>
i res</w>
he parin</w>
flu oxetine</w>
fe et</w>
exten sion</w>
c riteria</w>
ba g</w>
accep table</w>
Lietu va</w>
E valu
Com b
CYP2 D6</w>
CE L</w>
A g</w>
12 7</w>
sw allowing</w>
stra ight</w>
ri fied</w>
reg ard</w>
prophyl axis</w>
proper ly</w>
oper ate</w>
on vex</w>
ingredi ent</w>
hel d</w>
ec oxib</w>
discus s</w>
as ep
anu lo
O X
Medi an</w>
Kep pra</w>
H b
EN TI
BYET TA</w>
Ang io
Al uminium</w>
3 0-
2 40</w>
1 12</w>
0 17</w>
specific ally</w>
so l</w>
pla sia</w>
ong oing</w>
my algia</w>
includ es</w>
he ad</w>
f oc
e g
dri ving</w>
d an
bol us</w>
bic onvex</w>
benzo ate</w>
Neder land</w>
AL TA</w>
ve c</w>
tig mine</w>
ra y</w>
prescrib ing</w>
porte ur</w>
physici ans</w>
pharmaco logical</w>
on ates</w>
o intment</w>
minim um</w>
mid azolam</w>
malign ancies</w>
ill ance</w>
col our</w>
br ile</w>
ag itation</w>
X IN</w>
P O
NRTI s</w>
IT H</w>
yl ated</w>
thrombo tic</w>
th us</w>
s z
ri x
reco vered</w>
practi ce</w>
neph ro
mol ec
itr aconazole</w>
ib andronic</w>
col d</w>
bit ol</w>
al ge
S tr
S ign
Ne w</w>
MEDICIN AL</w>
LE TS</w>
Hy po
He adache</w>
G -
CEL SEN
2. 6</w>
Ö ster
up ro</w>
sk á</w>
se x</w>
pre- existing</w>
ox id
op al
loo ked</w>
lo t
hyper glycaemia</w>
h and</w>
exper ts</w>
cip ated</w>
al pha</w>
Th rom
TR I</w>
STRI PS</w>
Rap inyl</w>
Ne upro</w>
M ul
M G</w>
Hepati tis</w>
CELSEN TRI</w>
4 4
Öster reich</w>
ud e</w>
sp p</w>
proble m</w>
pro m
pi prazole</w>
oly tic</w>
n ia</w>
mm y</w>
li es</w>
ic h
gem citabine</w>
du mmy</w>
di hydrate</w>
cyto toxic</w>
circ umstances</w>
c attle</w>
Z i
Z ev
U BE
Throm bo
R it
Lanso praz
Gu id
F rom</w>
E pi
Com p
A TION</w>
4. 0</w>
1 c</w>
sache t</w>
pharmaco logy</w>
or i
off- white</w>
ke y</w>
iv es</w>
enro lled</w>
disturb ance</w>
centr alised</w>
c k
Zev alin</w>
X ol
U C
Re Fac
ReFac to</w>
Nov o</w>
Gli vec</w>
Gen er
F ir
EX UBE
Addi tional</w>
3 95</w>
u ter
sp ine</w>
p ic
mu ta
ire n</w>
initi ating</w>
X O
P T
FI X</w>
F A
E .</w>
D ate</w>
C lopidogrel</w>
9. 5</w>
ter al</w>
sol ve</w>
sampl es</w>
perc entage</w>
mea suring</w>
k á</w>
g ement</w>
flu ticasone</w>
ed s</w>
dysp epsia</w>
comp ris
clero sis</w>
che wable</w>
ap o</w>
al most</w>
advi se</w>
a ise</w>
Xol air</w>
V el
Temo dal</w>
Commun ity</w>
1 7.
vi d</w>
scri p
repor ting</w>
re solved</w>
on als</w>
omet a</w>
no v
ja undice</w>
ex t</w>
e ti
duc ed</w>
accid entally</w>
a meth
Z ometa</w>
V ia</w>
T N
Pl as
Ingel heim</w>
Evalu ation</w>
BI D</w>
1 3.
ye t</w>
trans mission</w>
throm ycin</w>
substr ates</w>
ser vices</w>
sear ch</w>
r ho
pre d
meta x</w>
im er</w>
fo re
fem ales</w>
dispos al</w>
Pro metax</w>
NO T</w>
Cl ass</w>
Aug ust</w>
AC T
3 3
0 19</w>
triglycer ides</w>
table tten</w>
sh e</w>
retur n</w>
p ass</w>
or tho
in um</w>
imple mentation</w>
haem at
f y</w>
embr yo
cel ecoxib</w>
an alge
W ITH</w>
Vi su
TAB LETS</w>
S ch
MA O
CS F</w>
B y</w>
ρο ς</w>
withdra wn</w>
wa b</w>
tran spor
salic ylic</w>
s ant</w>
r hyth
l on</w>
f ast</w>
ex hib
di ff
S even</w>
Rem er
Nerv ous</w>
8 000</w>
vid es</w>
tic ular</w>
te c</w>
stimul ating</w>
par oxetine</w>
ma r</w>
ir o</w>
g ender</w>
fil m</w>
epilep tic</w>
enti a</w>
ent ora</w>
damag ed</w>
clar ithromycin</w>
cir rho
an cial</w>
ameth asone</w>
MAR K
M e</w>
L Y</w>
Al u</w>
ар ия</w>
we ak</w>
ter ms</w>
sulph ate</w>
s wab</w>
rang ing</w>
po or</w>
pharmaco dynamic</w>
p ush</w>
org ans</w>
on ds</w>
ir is</w>
immun isation</w>
im pl
h e</w>
ex trem
dysp noea</w>
c ri
T as
S P</w>
S .
P A</w>
F E</w>
Eff entora</w>
Al so</w>
ъ л
г ария</w>
Б ъл
ύ π
wor k
professi onals</w>
pro vides</w>
pancre as</w>
on e-
lyophil isate</w>
le th
le gs</w>
kin ase</w>
ine -
in- use</w>
hal lu
e ta
dio pathic</w>
al im
ain ing</w>
P A
Num ber</w>
Liv er</w>
Ch eck</w>
BO X</w>
5 N
3 2
Бъл гария</w>
topo tecan</w>
s light</w>
progres sive</w>
pro gre
perio ds</w>
neutro phil</w>
mo thers</w>
inf ul</w>
et h</w>
dis car
c itrate</w>
b id
ac qu
IN C
D oc
3 86</w>
- off</w>
λλ ά
t us
sec onds</w>
rh abdomyolysis</w>
reve aled</w>
pro st
pi ride</w>
p ast</w>
o paque</w>
o od</w>
men ing
leu co
l u</w>
fast ing</w>
experim ental</w>
V A</w>
T al
Ser ious</w>
Remer on</w>
Pho to
2. 1</w>
19 95</w>
0.00 01</w>
vi sed</w>
um ps</w>
ta vid</w>
sw allowed</w>
stren g
pub lic</w>
po in
placebo- treated</w>
n or</w>
me piride</w>
dispo sed</w>
del iv
cro ss
Zi agen</w>
Tit anium</w>
S US
Prolong ed</w>
P ain</w>
MARK ET
MARKET ING</w>
Leu k
Fer tavid</w>
w ide</w>
ul ence</w>
tri me
synthe sis</w>
surve illance</w>
sol uble</w>
se aled</w>
re production</w>
no w</w>
mis sed</w>
micro crystalline</w>
matern al</w>
lact ating</w>
l ation</w>
immunosuppres sive</w>
es ká</w>
dra w</w>
de ep</w>
complic ated</w>
carb a
agon ist</w>
ac rit</w>
Ret acrit</w>
R ash</w>
Nor ge</w>
H 5N
Chil d-
Ben e
Ab sorption</w>
A 1c</w>
6 5
12 -
youn ger</w>
ur rently</w>
stand ing</w>
spa ñ
sh all</w>
ser ot
ro ut
pol ym
p se
lot inib</w>
k ept</w>
func tioning</w>
fail ed</w>
f le
du loxetine</w>
discar ded</w>
compar ing</w>
br ady
applic ant</w>
antidepres sants</w>
ade fovir</w>
SU M
SUM MAR
Pre par
Pharmacokine tic</w>
N ob
EXUBE RA</w>
E spañ
1. 7</w>
vir ase</w>
ther wise</w>
ter fenadine</w>
t etanus</w>
pl ene</w>
on to</w>
neu tr
k y</w>
h ives</w>
ey el
ab r
Z en
T ur
Syn drome</w>
R -
Pati ent</w>
Novo Rapid</w>
G en</w>
Ce plene</w>
Cal cium</w>
C entre</w>
6. 1</w>
2. 2</w>
0 9</w>
sug gest
ner ve</w>
k it</w>
gen etic</w>
g n</w>
ent ac
em ir</w>
eh ring
depend s</w>
dec ision</w>
XO TE
XOTE RE</w>
TA XOTERE</w>
Respon se</w>
Nex Gen</w>
Health care</w>
Hb A1c</w>
Flex Pen</w>
Bo ehring
Ad vag
AD Rs</w>
0 1
sp iratory</w>
requ est</w>
ra f</w>
orm on</w>
ix ate</w>
i ja</w>
ho t</w>
harm ful</w>
f loxacin</w>
exten sive</w>
erg o
duct O
dist rib
deli very</w>
consul tation</w>
con genital</w>
c t</w>
c ore</w>
ari piprazole</w>
Sil apo</w>
Plas ma</w>
In ductO
Hel ixate</w>
Bene FIX</w>
35 1</w>
1. 6</w>
ύπ ρος</w>
un i
stab il
si des</w>
om as</w>
o re
o logy</w>
o d
nic otinic</w>
li ps</w>
hor ses</w>
entac apone</w>
dem entia</w>
d ge</w>
clo sed</w>
carcino genicity</w>
b ase</w>
Tar ce
Su spension</w>
In virase</w>
I ON
D E</w>
Advag raf</w>
A I
9 00</w>
tus sis</w>
toco l</w>
there after</w>
ta d
supp ly</w>
sol id</w>
radio activity</w>
qu ic
ov al</w>
oper ating</w>
om it</w>
ol len</w>
n ut
li fer
ir udin</w>
ino in</w>
fos amprenavir</w>
ev e
ec ia</w>
comp ound</w>
carba mazepine</w>
ath yro
Tas mar</w>
InductO s</w>
Gre ece</w>
Españ a</w>
Di stribution</w>
B ri
4 27</w>
1 5.
0 49</w>
0 21</w>
sp ite</w>
sleep iness</w>
represent ative</w>
pro pi
p -
on ally</w>
n atal</w>
kno w</w>
is k
ir regular</w>
fix ed</w>
ev o</w>
carcino genic</w>
Su om
SY S</w>
O f</w>
Novo Seven</w>
ION SYS</w>
Child- Pugh</w>
B M
tri es</w>
ti a</w>
som atropin</w>
si vely</w>
r DNA</w>
ol ed</w>
ly n</w>
e ight</w>
dis m</w>
cortico steroid</w>
co ver
ch ec
b asi
at tem
W il
T c</w>
Re spiratory</w>
PAC K</w>
L EN
B R
Av an
war ning</w>
vir on
u res</w>
tran scrip
th s</w>
steroid al</w>
partic ulate</w>
ox ifene</w>
organ isms</w>
opio id</w>
le a
isol ates</w>
inf liximab</w>
gen ous</w>
cle an</w>
character ised</w>
aven ous</w>
anticoagul ants</w>
U r
Tarce va</w>
TI N</w>
Suom i</w>
Mul ti
Manu facturer</w>
G 3</w>
Boehring er</w>
B ond
Ε λλά
ven lafaxine</w>
tig o</w>
techni que</w>
tad alafil</w>
sw allow</w>
o thers</w>
ex tr
ent ing</w>
com ed</w>
b ile</w>
am ed</w>
acep t</w>
Z O
Y Y
W ar
S C
P ure
Mab Camp
MabCamp ath</w>
M ut
Lam ic
Bond enza</w>
Ac ute</w>
35 7</w>
1. 8</w>
var denafil</w>
supple ments</w>
st av
r .</w>
quin ol
pen em</w>
pa inful</w>
mou se</w>
mal es</w>
k en</w>
inter nal</w>
in adequate</w>
ic a</w>
i diopathic</w>
he pat
em p
ec h</w>
con sum
ati s
ani ed</w>
an tic
accomp anied</w>
a di
Un desirable</w>
Stal evo</w>
Rit onavir</w>
Pure vax</w>
Lamic tal</w>
L V
Karve zide</w>
K et
In no
Comb ination</w>
Bo th</w>
4. 7</w>
u x</w>
ta z
rec or
para esthesia</w>
pancre atitis</w>
ho c</w>
high -
f usion</w>
dex amethasone</w>
an es</w>
al an</w>
Th yro
Rap tiva</w>
R an
Plac e
Myo cet</w>
CM L</w>
Acl asta</w>
7 5
1 40</w>
1 30</w>
â nia</w>
z umab</w>
we igh</w>
v is</w>
tur n</w>
sp inal</w>
reli ef</w>
prof en</w>
pres erv
lit tle</w>
iz ation</w>
in spec
i en</w>
high est</w>
fibro sis</w>
equival ence</w>
co p
c cal</w>
bur ning</w>
am b
S ing
Rom ânia</w>
F os
Di arrhoea</w>
B in
9 9
5 5
we g</w>
ulcer ation</w>
tw o-
to id</w>
stav udine</w>
rang ed</w>
pre ci
par ts</w>
inhal ation</w>
hydroxy benzoate</w>
giv ing</w>
gal ac
concer ning</w>
c ateg
bu il
al izumab</w>
Se re
N ausea</w>
Inf ections</w>
Inf anrix</w>
6. 2</w>
4 20</w>
δ α</w>
z iness</w>
x ib</w>
tur ing</w>
ti le</w>
s on
re jection</w>
r ue</w>
pred n
mus cular</w>
mo x
metho ds</w>
meth ox
iz ziness</w>
form ulations</w>
ent -
end omet
alim umab</w>
ach ing</w>
ac i
Recon sti
I LI
D izziness</w>
zi vir</w>
vi sible</w>
ven ous</w>
ung in</w>
transcrip tase</w>
ro le</w>
pr y
pr amipexole</w>
par athyro
ne p
measu re
e ph
e me
demonstr ate</w>
co pe</w>
ben z
ati de</w>
af ungin</w>
Tri zivir</w>
R ue</w>
Nor vir</w>
M SD</w>
Intr avenous</w>
Inno Let</w>
H CT</w>
G al
De tail
C ases</w>
4. 9</w>
vas tigmine</w>
treatment -
tox in</w>
tane ously</w>
sum mar
single- dose</w>
ri vastigmine</w>
rene wal</w>
re member</w>
pro lifer
plan ning</w>
me as
m ig
log 10</w>
in ence</w>
h old</w>
fe wer</w>
exam ination</w>
ex pres
di s</w>
dat ab
coun tries</w>
al le
Protop y</w>
O m
In sul
C R
B AS
2 8.
0 1.
wor ding</w>
up take</w>
un usual</w>
se amed</w>
paren teral</w>
p are</w>
ing er</w>
glyco protein</w>
en tan</w>
e stradiol</w>
dop amine</w>
difficul ties</w>
dar unavir</w>
circ ulating</w>
casi onally</w>
al ter</w>
Wh ile</w>
Sere tide</w>
SUMMAR Y</w>
C l</w>
Adul t</w>
Ab seamed</w>
0. 75</w>
vi va</w>
un able</w>
s clerosis</w>
resi du
prev enting</w>
open ed</w>
o therwise</w>
o fficial</w>
lim b</w>
indic ating</w>
g a
fr action</w>
fl at
ec te
diagno stic</w>
de bossed</w>
convul sions</w>
clo sure</w>
bron ch
X E
R ep
PI X</w>
O ro
Neo Rec
I R
E X</w>
2 18</w>
z il</w>
y e</w>
w aste</w>
us iness</w>
u tin</w>
tt le</w>
tou ch</w>
sp read</w>
sib ility</w>
si mul
sho ws</w>
sep sis</w>
recommend ation</w>
reas ons</w>
per tussis</w>
orig in</w>
or ders</w>
optim al</w>
mo de
membr ane</w>
m y</w>
iz oph
haemo philia</w>
gener alised</w>
flu -like</w>
fi -
fe brile</w>
experienc ing</w>
eu .</w>
elec tr
ec itabine</w>
diure tic</w>
con nec
ano fi-
am s</w>
ab utin</w>
NeoRec ormon</w>
Mal ta</w>
E VI
Bon viva</w>
2. 3</w>
wor t</w>
we l</w>
to -
ti pr
port un
p ing</w>
n ature</w>
m ass</w>
m ac
l axis</w>
in rix</w>
immunoglob ulin</w>
h es</w>
gly col
exam ined</w>
dr on
dilu ent</w>
cin ations</w>
asep tic</w>
arth ralgia</w>
antic ancer</w>
Z al
Tw inrix</w>
T am
Hel ic
CY P</w>
C are</w>
AB ILI
A F</w>
vi tis</w>
vari ability</w>
sleep ing</w>
reve al</w>
re t</w>
produc ing</w>
per man
p ale</w>
lim ination</w>
i dism</w>
hydro chloric</w>
her bal</w>
f -
ex tern
e on</w>
ad ding</w>
SYRING E</w>
Karve a</w>
In dinavir</w>
Imm uno
E limination</w>
CN S</w>
2. 7</w>
1 28</w>
Κ ύπρος</w>
wom an</w>
tipr anavir</w>
sw ollen</w>
spon taneous</w>
sor bitol</w>
sec tor</w>
refer red</w>
psy chiatric</w>
ob tain</w>
n or
lo idal</w>
ket o
is on
if lu</w>
get ting</w>
discus sion</w>
cere bro
bron cho
and em
Sloven ija</w>
Helic obacter</w>
F Y</w>
E S
Cho lest
AID S</w>
ABILI FY</w>
37 7</w>
2 7.
2 5.
ß e</w>
verte bral</w>
post menopausal</w>
pol ar</w>
p yl
neuro logical</w>
m yel
fav our
evalu ate</w>
el in</w>
colour ation</w>
chro mo
b ial</w>
av astatin</w>
anti cipated</w>
acetyl salicylic</w>
TO RIS
TIV A</w>
Pro ce
Opti Set</w>
N utro
E D
D K
6 7
2 4
u v
u do
th ough
sz á
smo king</w>
s land</w>
relap se</w>
p t</w>
or szá
nitro pe</w>
mag ing</w>
m it</w>
m es</w>
lo co
i me
he aling</w>
gli mepiride</w>
fibro zil</w>
f at
erm al</w>
cirrho sis</w>
an a</w>
Zal asta</w>
Sol iris</w>
Sim il
Pu h</w>
Om nitrope</w>
M T
L y
H igh</w>
Dis orders</w>
1 11</w>
ur ther
tri va</w>
tre s</w>
too k</w>
re vie
plac ed</w>
lithi um</w>
inf usions</w>
in side</w>
ex or</w>
conf idence</w>
co- infected</w>
bot t</w>
TORIS EL</w>
S ide</w>
Re sul
Pos sible</w>
Neu po
Em triva</w>
D eve
Cardi ac</w>
Ab bott</w>
A mb
2 6.
ur g</w>
si d
radiolab elled</w>
pin A
pinA q</w>
orszá g</w>
om ar
nec rosis</w>
ne t</w>
modi fication</w>
mat ure</w>
in dependent</w>
hi sto
eph ed
el le</w>
dron at</w>
bo wel</w>
az ine</w>
W y
Tam iflu</w>
SUS TIVA</w>
R el
Nutro pinAq</w>
Laborator ies</w>
H old</w>
H ex
Ef avirenz</w>
E qu
3 60</w>
1. 25</w>
1 16</w>
th igh</w>
ste ps</w>
s atis
ru it</w>
po oled</w>
perform ing</w>
lowe st</w>
et ro
concern ed</w>
bud get</w>
al isk
acc ess</w>
Resul ts</w>
Pre vention</w>
Po sology</w>
Pharmaceutic al</w>
LEN CE</w>
INTE LENCE</w>
FI C</w>
Com p</w>
Bon dronat</w>
2. 8</w>
13 1</w>
0. 5
Ελλά δα</w>
urther more</w>
tho ro
st asis</w>
s en</w>
pers ons</w>
one gr
onegr an</w>
mal aise</w>
inter fer
inf ant</w>
immun ity</w>
he at</w>
geno toxicity</w>
fam ily</w>
elz ont</w>
elev ation</w>
e red</w>
dispos able</w>
comple x</w>
cit onin</w>
bin ds</w>
aw are</w>
asp ir
an ia</w>
Z onegran</w>
T RA
Stre p
Qu ality</w>
Protop ic</w>
Po st-
P elzont</w>
Mut ual</w>
Janu via</w>
Ef exor</w>
Ce re
CI A</w>
14 6</w>
vi si
ur a</w>
up dates</w>
ten u
red itary</w>
oxy gen</w>
lab elling</w>
l ayer</w>
ill in</w>
harmon isation</w>
gra f</w>
fac turing</w>
dep le
conjunc tion</w>
conc urrently</w>
comm its</w>
centr e</w>
b ones</w>
b er
ar o
anti hist
analy ses</w>
alisk iren</w>
Sol vent</w>
STO CRI
STOCRI N</w>
MA TION</w>
FOR MATION</w>
Di se
Dec re
Com pet
Co Aprovel</w>
Ad v
10 4</w>
tro ph
though ts</w>
pre -</w>
meas les</w>
izoph renia</w>
induc ers</w>
if ied</w>
di spen
deter i
des loratadine</w>
char ge</w>
a esthesia</w>
S CI
RE G
Mag nesium</w>
L V</w>
IN FORMATION</w>
E E
Bo ttle</w>
3 75</w>
y ar
tic ally</w>
som al</w>
se tting</w>
quic kly</w>
phenyl alanine</w>
p el
p a</w>
or phine</w>
micro bial</w>
me ter</w>
inj ecting</w>
g as</w>
dizz y</w>
detail s</w>
ben ign</w>
alk aline</w>
al mon
ad ren
R T</w>
Mag yar
IC H</w>
I L</w>
G em
CYP 1A2</w>
tr an</w>
ti fic
st ly</w>
scal e</w>
s ore</w>
repe at</w>
rec urrent</w>
r onate</w>
pal pit
of i</w>
o s</w>
minim ise</w>
lit er
if loxacin</w>
gran ules</w>
dis colouration</w>
di dan
con gestive</w>
avi ro
Ste ven
SCI ENTI
SCIENTI FIC</w>
P HAR
O VI
HIV -
H ung
De po
D io
Cholest agel</w>
Bin ocrit</w>
B ac
35 3</w>
0 7.
w ound</w>
tam ide</w>
reg i
on a</w>
n s</w>
modi fied</w>
mb ers</w>
inter f
interf ere</w>
inf est
indi gestion</w>
id ated</w>
id aemia</w>
ell as</w>
docum entation</w>
do z</w>
didan osine</w>
de hydration</w>
datab ase</w>
consist s</w>
comm un
avir ine</w>
ang le</w>
an i</w>
amin o</w>
acqu ired</w>
Th alidomide</w>
T ra
San doz</w>
REN CIA</w>
RA PE
OP A</w>
O RENCIA</w>
Luxemb urg</w>
Inj ect</w>
I L
EN O
0 24</w>
x ane</w>
un controlled</w>
suic ide</w>
sti ff
rhyth m</w>
pen ic</w>
pand emic</w>
or ies</w>
ne virapine</w>
iv exa</w>
her pes</w>
ephed rine</w>
ell s</w>
ec tin</w>
e c</w>
dri p</w>
difficul t</w>
cont inence</w>
ce -
ap en
an ol</w>
ach es</w>
Pri or</w>
P ax
Magyar ország</w>
K ivexa</w>
C ID
BM D</w>
3 31</w>
remo val</w>
reas on</w>
r up</w>
pro bab
pl ase</w>
phosphat ase</w>
p ed</w>
lo ading</w>
i ae</w>
graph ic</w>
f all
de fer
d on
correc ted</w>
circ ulation</w>
chick ens</w>
cep tional</w>
c ally</w>
aviro c</w>
ana esthesia</w>
al ter
F urthermore</w>
F AB
D a
CH AM
Br us
BAS AL</w>
4 9
2 4-
2 25</w>
10 2</w>
uv ada</w>
un stable</w>
tre t
tret inoin</w>
toler ability</w>
sun light</w>
pyl ori</w>
perc ent</w>
p ink</w>
neutr al
nep o</w>
n al
mat eri
line ar</w>
inf o</w>
gon ado
flat ulence</w>
dr inking</w>
def ects</w>
cap ecitabine</w>
c ess
c anc
ad alimumab</w>
VE L</w>
V er
Tr uvada</w>
Th y
Symptom s</w>
Sloven ská</w>
San ofi</w>
S UL
RAPE XIN</w>
O x
N y
MI RAPEXIN</w>
Lac tose</w>
LA IM</w>
L or
IC LAIM</w>
E ye</w>
Dy nepo</w>
Deve lop
CT S</w>
AR ICLAIM</w>
A T</w>
6 9
3. 1</w>
viro logical</w>
sto ols</w>
st a</w>
se s
s able</w>
pro j
phil us</w>
op portun
o sterone</w>
o den
n ight</w>
n ers</w>
mo od</w>
man ife
log ically</w>
he reditary</w>
ecti ous</w>
depres sive</w>
de -
dap tive</w>
b ri
Z er
Tre daptive</w>
RELE X</w>
INC RELEX</w>
I .</w>
Depo Cy
DepoCy te</w>
CHAM PIX</w>
Aven ue</w>
AC EP
3. 6</w>
00 1-
stiff ness</w>
sel f-
sel ected</w>
ren e</w>
pro state</w>
o il</w>
mi as</w>
materi als</w>
man ax</w>
lymphocy tes</w>
lit ro
iz e</w>
inten sity</w>
i ary</w>
hy promellose</w>
he p
extern al</w>
conc urrent</w>
Xe om
Thy manax</w>
Therap y</w>
S S
Ro Ac
Rec om
Ran exa</w>
Place bo</w>
Insul atard</w>
I B
BO TT
Ac tiv
tem ra</w>
si l</w>
rec ur
mul tic
liter ature</w>
lim id</w>
f lip
ery thromycin</w>
en ter</w>
emer gency</w>
embr y
du oden
cr amp
consequ ence</w>
compar ative</w>
c ed</w>
b id</w>
arg y</w>
VE L
V omiting</w>
S UTE
S ING
RoAc temra</w>
Rev limid</w>
P D
M AN
LD L</w>
K ine
HO LD
H A</w>
Dise ase</w>
C A</w>
A x
4 21</w>
0. 05</w>
, 5</w>
val pro
vac lyn</w>
tam ination</w>
succ ess
situ ations</w>
sh e
probab ly</w>
op ril</w>
o be
mo vements</w>
litro pin</w>
last ing</w>
irrit ability</w>
influ enz
in dex</w>
i an</w>
h older</w>
enlar gement</w>
en grav
dos ed</w>
di asis</w>
continu ation</w>
connec tive</w>
ca u
bro ken</w>
anaphy laxis</w>
acc ur
ac omit</w>
Xeom in</w>
Tre vaclyn</w>
Th elin</w>
T ech
Mus culoskeletal</w>
L AN
In flu
Dio van</w>
Di acomit</w>
Car ton</w>
10 6</w>
yn ast
ynast at</w>
v ary</w>
si ght</w>
se ven</w>
pse udo
progre ss</w>
pa enia</w>
p im
opal ia</w>
o logical</w>
my cophenolate</w>
len gth</w>
l P</w>
intr a
inter act</w>
in c</w>
esc a</w>
en viron
el lose</w>
el is</w>
e ous</w>
con azole</w>
col itis</w>
at tri
aryn gitis</w>
arm ellose</w>
ar ily</w>
W H
Vi ani</w>
Rec o
Pax ene</w>
MIN I
L s</w>
FAB LY
D ynastat</w>
Cont act</w>
C opalia</w>
2 80</w>
1. 9</w>
vari ation</w>
uz eon</w>
tub ular</w>
trex ed</w>
thromboemb olic</w>
sy rup</w>
st eno
sil vex</w>
remain ed</w>
ref rac
pro tocol</w>
pap er</w>
os amide</w>
om e
minim al</w>
me trexed</w>
k i
immuno genicity</w>
equ ip
ent a</w>
engrav ed</w>
di sodium</w>
cre as</w>
com prom
bil iary</w>
bat ch</w>
au coma</w>
ate -
as e-
al i
aff inity</w>
ad junc
V ial</w>
SUTE NT</w>
S E</w>
Pr amipexole</w>
F uzeon</w>
Ex peri
En vi
ET INE</w>
Car tons</w>
Bu silvex</w>
B as
Appro ximately</w>
Ac ti
AG ON</w>
7 00</w>
6. 3</w>
0 46</w>
yl -
ugh ly</w>
th ing</w>
ta phane</w>
t ended</w>
st atin</w>
si tion</w>
sch izophrenia</w>
pregn ancies</w>
pre pare</w>
pati ent-
lin ide</w>
l ing
it self</w>
ir acoxib</w>
im atinib</w>
episo de</w>
ent ec
e asi
d- on</w>
bur n</w>
bro mo
ag linide</w>
ag g
With in</w>
Val tropin</w>
Th at</w>
Ta sign
Pro taphane</w>
OX ETINE</w>
I L-
I -
HBe Ag</w>
Envi age</w>
CON STA</w>
CI AL
CIAL IS</w>
Bar r</w>
Ac tive</w>
35 9</w>
y ond</w>
toxic ities</w>
ri on</w>
rest lessness</w>
refrac tory</w>
re p
pos aconazole</w>
pack aging</w>
on ium</w>
nec ro
myo pathy</w>
mar ket
m ented</w>
iv astatin</w>
ic k</w>
ic als</w>
he imer</w>
favour able</w>
em ul
ed a</w>
ec tor</w>
cal citonin</w>
be yond</w>
V e
T o
Sta phy
Pr ad
Op ini
Mic ro
M L</w>
L .</w>
Kine ret</w>
F RO
E u
w ard</w>
ul asta</w>
reduc tase</w>
r amipril</w>
qu al
ix a</w>
ischa emic</w>
inform ed</w>
i qu
fl av
en ed</w>
brady cardia</w>
b ixa</w>
as atinib</w>
ad one</w>
ac ity</w>
Z e
VER T</w>
Trit ace</w>
Tasign a</w>
Sim ul
ST R
SO MA
SOMA VERT</w>
R ot
Po st
Ne ulasta</w>
Imm une</w>
E bixa</w>
2 C
2 2
17 2</w>
16 1</w>
Í sland</w>
ub lic</w>
ti vitis</w>
steno sis</w>
serot onin</w>
rout ine</w>
rec tal</w>
pr avastatin</w>
or Plus</w>
membr anes</w>
iz ure</w>
iv ox
gene sis</w>
fin d</w>
far abine</w>
exten sively</w>
expl ained</w>
er min</w>
end ronate</w>
electro ly
dip ivox
con tamination</w>
comple tion</w>
av esca</w>
attri bu
analo gue</w>
Zer it</w>
Z avesca</w>
WH O</w>
Tran s
Staphy loco
S t</w>
Prit orPlus</w>
Pi roxicam</w>
P .</w>
M er
Lev emir</w>
L uc
He art</w>
Fil m
EV RA</w>
E v
E N</w>
B le
ACEP T</w>
8 50</w>
35 4</w>
3 A</w>
us tin</w>
tenu ated</w>
tel ithromycin</w>
ste p</w>
spo on</w>
pic ture</w>
perfor ated</w>
opini ons</w>
n d</w>
myel oma</w>
mo stly</w>
me o</w>
lo s</w>
k er
graph y</w>
for me</w>
en cephalo
duc ational</w>
du led</w>
con cl
as y
arrhyth mias</w>
ag gres
Y t
VIR ACEPT</w>
TE SA
TESA VEL</w>
Pre -
Photo Barr</w>
Paste ur</w>
Par is</w>
L da</w>
ING EL
ID E</w>
H .</w>
G eno
F ER
D ays</w>
Actr ap
AN O
00 -
0 4
0 27</w>
withdra w</w>
un treated</w>
transamin ases</w>
tran spa
ti mo
timo lol</w>
tech nical</w>
se ve
sco res</w>
requ ires</w>
rel atively</w>
radio therapy</w>
pro tamine</w>
ot ine</w>
numb ers</w>
mix ture</w>
man nitol</w>
it ch
ir man</w>
hyper plasia</w>
harmon ised</w>
hallu cinations</w>
gl aucoma</w>
g in</w>
fain ting</w>
dipivox il</w>
da sil</w>
con gestion</w>
combin ations</w>
bloc k</w>
ad d-on</w>
UL OXETINE</w>
U R
T Y
T RIS
TRIS ENO
TRISENO X</w>
Su box
Ser um</w>
Ri sper
RING ER</w>
MR Ls</w>
INGEL HE
INGELHE IM</w>
IN VE
H RINGER</w>
Gar dasil</w>
GF R</w>
E HRINGER</w>
Do gs</w>
D ULOXETINE</w>
D 3</w>
COX -2</w>
BO EHRINGER</w>
Actrap id</w>
whe reas</w>
trime ster</w>
t ells</w>
pri meo</w>
pren orphine</w>
m other</w>
hosp it
h ic
gr ad
f eline</w>
dom inal</w>
cross -
compris ing</w>
co -</w>
ch an
af en
ad en
a ke</w>
X ig
T est</w>
Subox one</w>
S primeo</w>
Ro ta
Re pe
PSU Rs</w>
P F
In i
INVE GA</w>
I D</w>
Haemo philus</w>
Gl ustin</w>
Gal v
Film tabletten</w>
Eu creas</w>
Dar bepoetin</w>
Ab dominal</w>
0 5
0 31</w>
0 23</w>
w ip
ut h</w>
seve rely</w>
sche duled</w>
s l
ret ino
ran ial</w>
pu rified</w>
para hydroxybenzoate</w>
pal i
p tom</w>
ne o
mo vement</w>
me mbers</w>
le x</w>
k -
in du
h em
fi ent</w>
es tion</w>
en tis</w>
dox an</w>
cy tes</w>
cor por
candi diasis</w>
benzo diaz
b s</w>
Wy eth</w>
We ight</w>
Val doxan</w>
V enta
E fient</w>
Dr ug</w>
Dox azosin</w>
D af
Ax ura</w>
Ab ra
AN C</w>
A er
6. 5</w>
2 19</w>
v ical</w>
te red</w>
su spen
streng ths</w>
shor t
ph ther
path way</w>
muta genic</w>
li stat</w>
im printed</w>
he ad
etr avirine</w>
enc ed</w>
dis Plus</w>
dihydro gen</w>
det ectable</w>
cyto sis</w>
consequ ences</w>
cer vical</w>
b iv
assist ance</w>
anth rac
am ines</w>
al pha
al op
Xig ris</w>
St r</w>
R ip
Micar disPlus</w>
Luc entis</w>
L ong
In hib
IN O
H e</w>
Experi ence</w>
Dy sp
All ergic</w>
AN S
yl an</w>
vas o
su peri
sk ine
raz o</w>
pipet tes</w>
phil s</w>
per it
om ycin</w>
lo sti
k ill
ip losti
ing ly</w>
in continence</w>
firm ly</w>
doc tors</w>
distrib uted</w>
di al</w>
develop s</w>
cor ne
b ar</w>
author isations</w>
all en
ad eno
ab ant</w>
U l
Thyro gen</w>
STE O</w>
Rip razo</w>
M ylan</w>
M ad
L L
I S
Fe LV</w>
FOR STEO</w>
E lev
Detail ed</w>
3. 2</w>
3 ,
13 5</w>
u k
tr aining</w>
toco ccus</w>
thoro ughly</w>
th alidomide</w>
resi due</w>
observ ation</w>
intr av
h n</w>
galac tose</w>
g ard</w>
fin ancial</w>
en s
emul sion</w>
dic ation</w>
decre asing</w>
cy cline</w>
clo t</w>
chil d-
ch allen
cess ation</w>
beta -1
atr in</w>
appe ared</w>
apen tin</w>
an -
W ien</w>
Oro dispersible</w>
J ADE</w>
Inter action</w>
EX JADE</w>
C G</w>
C ADE</w>
Abra xane</w>
5 mg</w>
37 3</w>
3. 4</w>
14 2</w>
12 6</w>
visu ally</w>
tr ation</w>
sc armellose</w>
revie wed</w>
propi onate</w>
ocon version</w>
mal form
itr e</w>
iplosti m</w>
eter in
dis charge</w>
cramp s</w>
con n
bromo butyl</w>
bo ard</w>
Re ference</w>
P eri
N ational</w>
Ma ke</w>
I A</w>
Galv us</w>
E ffici
Daf iro</w>
Cel gene</w>
CT FE</w>
C AN
B ru
17 1</w>
0. 01</w>
whe ezing</w>
ti tis</w>
test osterone</w>
respon ding</w>
pneumon iae</w>
os ino
ni fe
nife dipine</w>
me tia</w>
lymph atic</w>
i maging</w>
hy si
he ight</w>
gastro -resistant</w>
fo o
flu x</w>
er -
ecti b
ectib ix</w>
discus sed</w>
de spite</w>
breast feeding</w>
becom es</w>
ax a</w>
addre ss</w>
Vel metia</w>
V ectibix</w>
Sil gard</w>
SP R
S TI
S L
Ro che</w>
Prad axa</w>
P T</w>
Mad rid</w>
M g</w>
EC G</w>
AD MINI
3. 9</w>
0 28</w>
. com</w>
ul tr
ul inum</w>
tro phy</w>
tam i
subsequ ently</w>
rif abutin</w>
re ser
r un
pen d</w>
par a</w>
ox ic
ou se</w>
nit ric</w>
len alidomide</w>
insul ins</w>
ic ono
h alo
gem fibrozil</w>
fl ur
endomet rial</w>
dr a</w>
dox azosin</w>
de pend</w>
cour ses</w>
ce f
Wor k</w>
W I
Risper dal</w>
RO VANCE</w>
P I</w>
O y</w>
Nor way</w>
Mon it
ME NT</w>
M UL
M BE
Janu met</w>
In ve
H U
D or
D ep
AD ROVANCE</w>
A TED</w>
2 31</w>
2 .</w>
15 1</w>
0 6.
z ema</w>
u ximab</w>
u se
tic a</w>
str asse</w>
sic k
sh es</w>
se izure</w>
rele ased</w>
py rexia</w>
pro per</w>
omar ist</w>
modi fi
mem ory</w>
me a</w>
maxim al</w>
lum iracoxib</w>
le g</w>
inte gr
im plan
icono tide</w>
gu ard</w>
f ro
f f</w>
essen tially</w>
di a</w>
depres sed</w>
d less</w>
contro ls</w>
cont ribution</w>
can dra</w>
c am
at um</w>
app lies</w>
ap art</w>
ag al</w>
a rel
Z omarist</w>
S uc
PRODU CTS</w>
P hysi
Ne utro
MR I</w>
M im
I candra</w>
H ERA</w>
Fe eling</w>
FO L
Effici b</w>
E con
Com bi
C L</w>
BOTT LE</w>
B E</w>
AL U
5. 5</w>
3 000</w>
16 8</w>
0 29</w>
0 25</w>
var ic
vag inal</w>
under taken</w>
ten sion</w>
sid ase</w>
se ss
sache ts</w>
pry mea</w>
pri da</w>
ot act</w>
or g</w>
nut rition</w>
multi forme</w>
market ed</w>
lox icam</w>
lim its</w>
investig ation</w>
intro duced</w>
hypo glycaemic</w>
hyper cholester
gn ition</w>
gam ma
flip -off</w>
fin ding</w>
exacerb ation</w>
enh anced</w>
deteri oration</w>
deriv atives</w>
comp ounds</w>
bi polar</w>
arb ital</w>
ap atinib</w>
addi tive</w>
X IV
XIV AN</w>
Venta vis</w>
VEL CADE</w>
V R</w>
Te q</w>
Rota Teq</w>
Qu int
Q Tc</w>
Pre otact</w>
Poly sorbate</w>
O prymea</w>
O P</w>
Inve ga</w>
Im prida</w>
Hy promellose</w>
Combi vir</w>
CRI XIVAN</w>
AC R</w>
A E
1 75</w>
ut ure</w>
t n</w>
syst em
sp are</w>
sed ation</w>
s sen
rub ella</w>
retur ned</w>
propor tional</w>
pro pos
oc casionally</w>
non -</w>
nerv ousness</w>
mix ing</w>
meth yl</w>
leuco penia</w>
leth argy</w>
l ines</w>
itr ation</w>
in aemia</w>
immuno deficiency</w>
g p</w>
g lo
fol litropin</w>
ess es</w>
entec avir</w>
cipi ent</w>
bre ak</w>
b ivudine</w>
at acept</w>
as ses</w>
ana esthe
alte gra
V E</w>
T im
Staphyloco ccus</w>
PE N</w>
P sy
Mim para</w>
ER S</w>
C ha
Addi tionally</w>
2. 9</w>
10 1</w>
1 44</w>
ur ation</w>
th o</w>
qu es</w>
post natal</w>
per form</w>
ov ulation</w>
oestro gen</w>
mis s</w>
is es</w>
inf used</w>
in active</w>
he aring</w>
cr u
con st
com prim
col loidal</w>
cl onal</w>
cap acity</w>
bac k
as po
anti do
alop ecia</w>
ad he
abr adine</w>
Org an
Mus cle</w>
Meth od</w>
M ac
I b
G lob
Epi vir</w>
6. 4</w>
2 9.
2 16</w>
10 8</w>
tami vir</w>
stic k</w>
sour ces</w>
signific ance</w>
sen s
respon ders</w>
prot ected</w>
pho spho
ob arbital</w>
multi -
log icals</w>
le b
lab elled</w>
interrup tion</w>
ido pa</w>
flu conazole</w>
fir st-
fac ial</w>
f our
ed .</w>
e til</w>
dar k</w>
concer n</w>
az ide</w>
admini str
acc oun
a ut
US A</w>
Th us</w>
Pre clinical</w>
Lab oratory</w>
L oc
K u
Influ enza</w>
In sti
FABLY N</w>
Cro hn</w>
C s</w>
15 7</w>
10 3</w>
0 8.
w indo
tak es</w>
sym ptom</w>
sum ed</w>
sub mit</w>
se as
re s
pl ate</w>
phther ia</w>
peg ylated</w>
nov elon</w>
mut ation</w>
ma m
loo king</w>
issu e</w>
inter medi
ig ure</w>
gr anulo
fl at</w>
encephalo pathy</w>
dos ages</w>
co lo
clo farabine</w>
chan nel</w>
am m
V ascular</w>
TIV E</w>
T ro
Ren agel</w>
RI L
RA TION</w>
Monit oring</w>
L um
I novelon</w>
Hung ary</w>
EN T</w>
E WP</w>
CYP2C 19</w>
8 8
ylo sing</w>
y clin
ver tigo</w>
un well</w>
to wards</w>
stat ins</w>
st ages</w>
satis fac
respec tive</w>
rac eta
pe metrexed</w>
obstruc tion</w>
mo tor</w>
me an
m uc
m ir
low -
li sin
lac toid</w>
infest ations</w>
indu stry</w>
h CG</w>
for go
follic ular</w>
f u
eti raceta
direc ted</w>
conver ted</w>
attac ks</w>
are g</w>
ad renal</w>
SI FRO
Q D</w>
Par areg</w>
P L
P D</w>
OP TI
Nex av
Neupo pe
Inf usion</w>
IN FA
INFA I</w>
Direc tor</w>
Ch em
B ud
2 9
2 0-
15 -
0. 03</w>
xim e</w>
w arr
valpro ate</w>
under go</w>
tu tions</w>
tor is</w>
tain ing</w>
swit ched</w>
situ ation</w>
s ample</w>
respon sibility</w>
re mission</w>
pum ps</w>
p ec
mptom atic</w>
macro gol</w>
li gi
hyper trophy</w>
ge sted</w>
etiraceta m</w>
epid ermal</w>
enter itis</w>
emb olism</w>
chec ked</w>
boo sted</w>
bi op
bacter ium</w>
asy mptomatic</w>
ap ter</w>
al endronate</w>
ac u
ac t
Th ree</w>
SIFRO L</w>
S yst
Reco gnition</w>
Rap porteur</w>
Org an</w>
Nexav ar</w>
Neupope g</w>
I ON</w>
Di ab
Av oid</w>
6. 0</w>
2 60</w>
18 3</w>
17 4</w>
w at
ven ile</w>
titr ated</w>
tigh tness</w>
si de-
pri etary</w>
por f
pec toris</w>
opportun istic</w>
men str
ligi ble</w>
ire ad</w>
gl omer
equip ment</w>
dy litis</w>
consider ing</w>
cer ivastatin</w>
bloc ks</w>
altegra vir</w>
allow s</w>
ZY P
ZYP AD
ZYPAD HERA</w>
V iread</w>
T el
T M
Stre et</w>
S on
R AN
Pul l</w>
Ny comed</w>
Nob ilis</w>
N .</w>
My cophenolate</w>
Met ac
L ant
Ket ek</w>
Inf us
Frequ ency</w>
Develop ment</w>
D ub
D ic
Co A</w>
B V</w>
Amb i
AI R</w>
18 -
0 26</w>
................................ ................................
z inc</w>
v .</w>
te zom
stra ße</w>
sti tial</w>
spho sph
silic a</w>
saf ely</w>
rom iplostim</w>
ro t
recur rence</w>
perio dic
op enia</w>
oesopha geal</w>
loc ally</w>
j ud
itch y</w>
ide ation</w>
i e</w>
form ed</w>
forgo tten</w>
fir m</w>
f uture</w>
etu ximab</w>
ef ruit</w>
duoden al</w>
dar bepoetin</w>
contro l
comprom ised</w>
carb idopa</w>
bu prenorphine</w>
ast -
as part</w>
applic able</w>
an o</w>
ZO STA
ZOSTA VAX</w>
Ur inary</w>
Un iver
UL AIR</w>
U F
Tab le
Sta r</w>
So lo
SING ULAIR</w>
M ON
Leuk o
Lant us</w>
H R</w>
Glob al</w>
Ambi rix</w>
AR A</w>
2 06</w>
1 200</w>
uk ast</w>
tel ukast</w>
tain s</w>
syn cope</w>
sequ ently</w>
ret inal</w>
regar dless</w>
reco xib</w>
ras hes</w>
po sology</w>
pl agal</w>
pers on
pa recoxib</w>
ot ane</w>
or listat</w>
ne ver</w>
moder ately</w>
manu facturer</w>
malform ations</w>
m umps</w>
lisin opril</w>
lip id</w>
le sion</w>
ing estion</w>
inf ectious</w>
hydro gen
g us</w>
f ar</w>
expres sed</w>
dec om
az e</w>
ar abine</w>
an y
X -
U R</w>
Son ata</w>
Solo Star</w>
SPR Y
S AR
Re plagal</w>
Pre ven
M O
M B</w>
Inter actions</w>
Con si
Can di
Al du
Ab normal</w>
2 29</w>
tezom ib</w>
sp ray</w>
sp ong
sor bed</w>
part ment</w>
p ly</w>
p ic</w>
inspec tions</w>
i bu
ha gia</w>
gener ation</w>
g sk
frequ encies</w>
esc ent</w>
er a</w>
d asatinib</w>
c on</w>
at tenuated</w>
ari x</w>
am -
Strep tococcus</w>
SPRY CEL</w>
Qu ix
O ff
O .</w>
HB VAXPRO</w>
E udra
Dos es</w>
Ch ang
BR I</w>
Aldu razyme</w>
AL S</w>
5. 6</w>
5 000</w>
4 6
08 6</w>
y re
x 1</w>
tas ks</w>
st onia</w>
skine sia</w>
ri mon
pul l</w>
prote inuria</w>
palpit ations</w>
mechan isms</w>
man ner</w>
li sh
it or
geno toxic</w>
ex tended</w>
decom pen
continu ing</w>
cal c
c um
c is
c ine</w>
bio equivalence</w>
aspir in</w>
anticoagul ant</w>
ag grav
a im
Te k
TY SA
S ON</w>
Quix id
Pos aconazole</w>
Opini on</w>
N on
MB ALTA</w>
MA N</w>
M ain
M acro
Lac tation</w>
L- C</w>
Inter feron</w>
In vestig
Dub lin</w>
Ch ronic</w>
CY MBALTA</w>
B P
1 .</w>
0 39</w>
0 2.
ê u
yre m</w>
yl ase</w>
ven til
ul a</w>
tur na</w>
transpor t</w>
tr on</w>
ter i
stom atitis</w>
stimul ate</w>
se tron</w>
quin idine</w>
produc es</w>
preserv ative</w>
pol ic
patient- years</w>
modifi ed-release</w>
mig ra
interrup ted</w>
inhal er</w>
impl ant</w>
ili ar
id en
gre y</w>
det ection</w>
d board</w>
car tons</w>
biv o</w>
bit ux</w>
a wa
Ze rene</w>
Y el
X yrem</w>
V TE</w>
Table tten</w>
TYSA BRI</w>
T ad
Se bivo</w>
Qu ad</w>
Pro Quad</w>
M ir
INO max</w>
H M
F entan
Er bitux</w>
Comp any</w>
Bru x
Bio grastim</w>
B usiness</w>
Al tern
ADMINI ST
14 3</w>
ve -
t for
t ext</w>
rimon abant</w>
r on
prev ents</w>
periodic ally</w>
p unc
om b</w>
n om
l ate</w>
k us</w>
i .
hypo kalaemia</w>
fore ign</w>
fil m
erec tile</w>
endo genous</w>
dis card</w>
becom ing</w>
advi sable</w>
ac tu
Tek turna</w>
Quixid ar</w>
N V</w>
LO S</w>
L H</w>
Ku van</w>
Jo int</w>
Ig G</w>
Hep B</w>
G E</w>
En ter
E t
Con tro
8. 8</w>
7 7
1 15</w>
0 9.
w id
vir tide</w>
uni form
ul ated</w>
ten e</w>
sub mission</w>
sub group</w>
spec tive</w>
short -term</w>
ser oconversion</w>
sen tan</w>
re tin</w>
re flux</w>
radio active</w>
prop yl</w>
out side</w>
m ber</w>
lym pho
le ads</w>
keto acidosis</w>
intro duction</w>
intrac ranial</w>
intest ine</w>
in ner</w>
ha m</w>
gro und</w>
g au
furo ate</w>
eyel id</w>
er ated</w>
dox y
desi red</w>
deple tion</w>
col oration</w>
ci do
cha mber</w>
car bo
ax ter</w>
aven tis</w>
alk omb</w>
ade x</w>
a b</w>
Tad alafil</w>
TRI T
TI D</w>
St arli
Rot arix</w>
Pan retin</w>
Micar dis</w>
Kinz alkomb</w>
J al
Infus at</w>
IN R</w>
I a</w>
F U</w>
Dor ib
Ci prox
Ce dex</w>
CON DI
B uc
B axter</w>
B C</w>
Anti -
Ac tos</w>
2 30</w>
15 2</w>
w ell
u sia</w>
typ ically</w>
tig otine</w>
techni ques</w>
ret ari
pur a</w>
psori atic</w>
poten ti
phen obarbital</w>
o se</w>
neutral ising</w>
m i</w>
lin ing</w>
iliar x</w>
h ex
guid eline</w>
gluco se-
fung in</w>
fu virtide</w>
f its</w>
electr onic</w>
ec zema</w>
deliv ered</w>
centr ally</w>
ath s</w>
aspo fungin</w>
anz a</w>
antipsycho tic</w>
anti microbial</w>
amm adex</w>
adjuv ant</w>
a thi
Z ar
X iliarx</w>
Starli x</w>
S us
R ed</w>
Preven ar</w>
PRO TE
PRO COM
PROCOM VAX</w>
O u
N AME
NAME S</w>
Farmac êu
Dis kus</w>
C ubicin</w>
C etro
B A
8. 5</w>
8 0
4 8
2 14</w>
0 66</w>
usi on-
uniform ly</w>
ul ative</w>
toler ant</w>
to ols</w>
thyro idism</w>
swit ching</w>
suffici ently</w>
struc ture</w>
ser ies</w>
ris entan</w>
reg ion</w>
pl ying</w>
one al</w>
min eral</w>
methox y</w>
indic ates</w>
heart burn</w>
glycol -
fl un
er a
ec ycline</w>
dra wn</w>
doxy cycline</w>
dis k</w>
avi x</w>
al do
agre ement</w>
agl and
ST AR</w>
S om
Pri mary</w>
Pl avix</w>
Peri pheral</w>
O b
Jal ra</w>
In spec
Fab razyme</w>
Cef triaxone</w>
CONDI TIONS</w>
ADMINIST RATION</w>
08 9</w>
z heimer</w>
v inyl</w>
thrombo cyto
str ong
reli eve</w>
pre mature</w>
po se</w>
multi dose</w>
l -
ge usia</w>
func tional</w>
flur ane</w>
fe ren
el ial</w>
ec utive</w>
co ating</w>
categ ories</w>
canc ers</w>
bio equivalent</w>
aven e</w>
anofi- aventis</w>
all i</w>
ac ne</w>
ac al
TRE SS</w>
T raz
STE L
SEN TRESS</w>
S avene</w>
Myo zyme</w>
K r
I SENTRESS</w>
F ood</w>
Dorib ax</w>
A mon
5. 4</w>
4 000</w>
2 3
1- 2</w>
08 8</w>
x o
vi gab
ve hic
ur acil</w>
transf usion</w>
tom y</w>
scre w</w>
sco ver</w>
s ar
ri pro
replac ed</w>
prost agland
pro mo
prin cip
pre clinical</w>
photo sensitivity</w>
pa edi
oxid ase</w>
op ipr
opipr ant</w>
mono clonal</w>
meth adone</w>
mar aviroc</w>
log ram</w>
le flun
leflun omide</w>
ki logram</w>
k eda</w>
ju venile</w>
inser t</w>
inf eri
hormon es</w>
geno type</w>
f er</w>
er ous</w>
dy stro
compati ble</w>
cerebro vascular</w>
bronch itis</w>
bi sphosph
aven ue</w>
ar ity</w>
aqu eous</w>
alu tran</w>
Z A
XE RI
XERI STAR</w>
Visu dy
Ta keda</w>
Re search</w>
Re duction</w>
R a
Prit or</w>
P CTFE</w>
Org alutran</w>
Neuro Blo
NeuroBlo c</w>
LI TA
K ap
J ANS
I scover</w>
AC TE
90 Y</w>
9 9.
8 5
5. 7</w>
4 5
3. 7</w>
2 6
0 5.
z ne
zne im
z iconotide</w>
visi t</w>
vigab atrin</w>
ves sel</w>
vaso dil
ur ic
ultr as
tempor arily</w>
t es
spon dylitis</w>
ri m
rene wed</w>
pho sp
pas sing</w>
parathyro id</w>
ol aemia</w>
neg ligible</w>
muc ous</w>
m ic</w>
li a
imple mented</w>
ik los</w>
gr ap
docum ented</w>
dis coloration</w>
conjunc tivitis</w>
cam tin</w>
c ularly</w>
bab ies</w>
aro tene</w>
a p</w>
a ec
Visudy ne</w>
U AB</w>
Su ch</w>
St and
Sp .</w>
STEL ARA</w>
S iklos</w>
S hel
P AS
OR AL</w>
O per
LA G</w>
H5N 1</w>
Dos ing</w>
Chang es</w>
CI LAG</w>
B LE</w>
Amon g</w>
Al zheimer</w>
1 18</w>
0. 15</w>
sug gested</w>
ste ad</w>
star ts</w>
st ases</w>
ss es</w>
shor tly</w>
restric ted</w>
ren cy</w>
recomm end</w>
present ation</w>
poten cy</w>
path ways</w>
part ners</w>
over dosage</w>
ond elis</w>
m c
lac osamide</w>
it ate</w>
in spected</w>
hap pens</w>
glucuron idation</w>
ell es</w>
e pa
dystro phy</w>
cu litis</w>
bor tezomib</w>
ann ual</w>
Y ondelis</w>
Vacc ine</w>
TR AC
S el
R u
R H</w>
OS SE
Metac am</w>
Long -term</w>
G MP</w>
G AN
Ex ecutive</w>
Dec ision</w>
DK -2
Ch apter</w>
Brux elles</w>
Bar cel
As sess
Activ elle</w>
vari x</w>
ti red</w>
tac ids</w>
sulf ate</w>
st on</w>
st ations</w>
rix tra</w>
ri er</w>
phosp ham
pac ked</w>
p us</w>
p ra
our al</w>
one x</w>
non- steroidal</w>
m ination</w>
m ide</w>
log ous</w>
leg is
l ude</w>
iqu im
io logical</w>
hep ato
e osino
dis solve</w>
di ver
dec line</w>
cur ve</w>
concl usions</w>
cido fovir</w>
chol in
ati o</w>
ass ays</w>
asp ects</w>
arac lude</w>
ar ma
andem act</w>
almon o</w>
al lo
ab atacept</w>
a meter</w>
VI CH</w>
T andemact</w>
Sing le</w>
R if
Pharmaco therapeutic</w>
OSSE OR</w>
ME T</w>
Kinz almono</w>
K A</w>
Hy camtin</w>
HOLD ER</w>
Cer varix</w>
Barcel ona</w>
B araclude</w>
Av onex</w>
Ap id
An aemia</w>
A rixtra</w>
6. 7</w>
windo w</w>
tri ple</w>
trans formation</w>
trac he
tend er
tender ness</w>
ta penem</w>
rit uximab</w>
retari at</w>
rep aglinide</w>
ras tim</w>
pur pura</w>
pseudo ephedrine</w>
prov en</w>
pro vision</w>
pos ite</w>
perio dic</w>
p- value</w>
ox amine</w>
oph thal
o Tra
oTra v</w>
man aged</w>
itte es</w>
it ors</w>
individu ally</w>
il y
end -
eff ix</w>
dop ted</w>
contrib ute</w>
consum ption</w>
blo o
ar ds</w>
antipsycho tics</w>
agl az
ag rastim</w>
adjuv anted</w>
adach es</w>
acal cet</w>
ac ids</w>
ab ig
Z effix</w>
Yel low</w>
Th en</w>
Tev agrastim</w>
TRA V
Simul ect</w>
S qu
S can</w>
OR ACE
Nor disk</w>
N aglaz
Men itor
Hex al</w>
Glax o</w>
Fac tor</w>
F ever</w>
Eff ect</w>
Du oTrav</w>
Dic ural</w>
Cetro tide</w>
CYP 3A</w>
Apid ra</w>
A dopted</w>
3 7.5</w>
.. ..</w>
º C</w>
uter ine</w>
tu rition</w>
sp ring</w>
sh ell</w>
sh aking</w>
s anofi-aventis</w>
ro d
re l</w>
por tion</w>
phospham ide</w>
perman ent</w>
ol amide</w>
oc ellular</w>
o grastim</w>
new born</w>
n y</w>
mus culoskeletal</w>
mil l
mening itis</w>
mc g</w>
lish ment</w>
lin ked</w>
le dronic</w>
iver s</w>
iquim od</w>
io dar
il izumab</w>
go es</w>
glycer ol</w>
giv es</w>
fen ax</w>
f ur
entr alised</w>
end rix</w>
end points</w>
en g
dre ams</w>
atro phy</w>
arrhyth mia</w>
anti diabetic</w>
anaphy lactoid</w>
ac ic</w>
Ty g
Sign s</w>
SI BLE</w>
Re por
Rati ograstim</w>
Physi ci
PROTE LOS</w>
OPTI SON</w>
Novo F
NovoF ine</w>
Naglaz yme</w>
My fenax</w>
Mil d</w>
Menitor ix</w>
MBE R</w>
M U</w>
Lansopraz ol-
G S
FOR T</w>
F endrix</w>
EV ALU
Ar ava</w>
A z
5- FU</w>
13 4</w>
. o.</w>
yl line</w>
well -
weigh s</w>
ti um</w>
th ought</w>
tel bivudine</w>
speci al
som es</w>
sh ake</w>
r s</w>
provi ding</w>
pre filled</w>
oxy bate</w>
os el
oco ccal</w>
myelo id</w>
ling ual</w>
iso tretinoin</w>
iodar one</w>
inf ect</w>
in ating</w>
ill ation</w>
gl ands</w>
es cal
ergo tamine</w>
cy te</w>
be d
antido te</w>
anti fungal</w>
al ong</w>
Z yr
Y EN
YEN TRE
YENTRE VE</w>
Tyg acil</w>
TM Z</w>
PA H</w>
P op
P CI</w>
Off ice</w>
ORACE A</w>
EVALU ATION</w>
Cont inu
CY ST
CH AR
C are
C P</w>
Bo dy</w>
Author isations</w>
3. 8</w>
27 9</w>
2 2.
wa it</w>
vi st</w>
vari ations</w>
ur g
super vised</w>
suggest ing</w>
su grel</w>
st ing</w>
sho wing</w>
ser a</w>
sch er
r t
pre gab
perit oneal</w>
or k</w>
off spring</w>
n ine</w>
meta stases</w>
malign ancy</w>
ival irudin</w>
iv abradine</w>
initi ally</w>
impro vements</w>
hyper calcaemia</w>
fil tration</w>
effic i
effec tively</w>
dur al</w>
cyclo phosphamide</w>
ch er</w>
bar rier</w>
agon ists</w>
VI STI
VISTI DE</w>
U N</w>
Traz ec</w>
Tal k</w>
Simil ar</w>
ST AM
S al
P DE
M- M-
LI N</w>
HM G-
H ar
H -
GAN FORT</w>
Ex cipients</w>
Econ or</w>
Compet act</w>
Ch ine
Candi da</w>
C AP
Bas eline</w>
B one</w>
B i
Ar zneim
1.8. 2.</w>
-------------------------------- --------------------------------
- CILAG</w>
- C
- 0.
yclin es</w>
u t</w>
titr e</w>
sin us</w>
si st</w>
si graft</w>
separ ately</w>
scher ich
scherich ia</w>
sal ine</w>
ro un
ren ic
renic line</w>
rel le</w>
re cipients</w>
r in
quinol ones</w>
plan ned</w>
per sist</w>
p h</w>
obj ective</w>
ne ur
mill il
medi a</w>
man ual</w>
long -acting</w>
lip idaemia</w>
lin ed</w>
li t</w>
itte l</w>
it ure</w>
influenz ae</w>
in tolerant</w>
in corpor
gran ting</w>
glomer ular</w>
f lo
end iture</w>
emp lo
easi ly</w>
dy spl
dose- related</w>
dose- dependent</w>
compati bility</w>
block er</w>
benzodiaz ep
basi c</w>
appropri ately</w>
ap r
al t</w>
Zen ap
X X</w>
TR U
SC AN</w>
Proce dure</w>
O sigraft</w>
N plate</w>
N ife
M yc
Lo w</w>
LITA K</w>
Intr in
HMG- CoA</w>
G i
Er y
E scherichia</w>
Cef uro
Ar th
3 50</w>
-2 -
w ash</w>
taz apine</w>
sac char
ro se</w>
preci pit
nur sing</w>
minim isation</w>
inu sitis</w>
inhibit ing</w>
heart beat</w>
gen ce</w>
fr ag
fluoro uracil</w>
fil ter</w>
f et
et c</w>
er lotinib</w>
e at</w>
e arli
cum ulative</w>
const ant</w>
comp ens
broncho spasm</w>
br ava</w>
bot tom</w>
bir ds</w>
al oxifene</w>
agg reg
U G
Tac ho
Sci entific</w>
SEN -CILAG</w>
S up
Rep ublic</w>
R VAXPRO</w>
QU AD
Pul monary</w>
Prof ender</w>
Ph en
P al
P age</w>
Opti sulin</w>
O VER
Non- clinical</w>
Nife dipine</w>
Myc amine</w>
M-M- RVAXPRO</w>
JANS SEN-CILAG</w>
IM TA</w>
Hydro chloric</w>
Her tfor
Gr am-
Glu brava</w>
Con sequently</w>
B P</w>
Assess ment</w>
As k</w>
AL IMTA</w>
A no
3 56</w>
08 5</w>
- -</w>
z in</w>
vi s
tum my</w>
ta me</w>
sug gestive</w>
sti pation</w>
st u
st and</w>
ss ing</w>
sp ection</w>
sin -
remo ving</w>
reli able</w>
r altegravir</w>
pro b
par alle
ne tw
mon telukast</w>
mo ist
mean ing
me tr
lev etiracetam</w>
lar ger</w>
ic ation</w>
ibu profen</w>
hypercholester olaemia</w>
he adaches</w>
glycol- epoetin</w>
gluco cortico
form al</w>
fic ations</w>
erg y</w>
eg gs</w>
ed ly</w>
di ast
diast olic</w>
conver ting</w>
cef triaxone</w>
ap ride</w>
antihist amines</w>
ag ram</w>
ad sorbed</w>
Tacho S
TachoS il</w>
Rev atio</w>
RA MET</w>
QUAD RAMET</w>
P P
Ou ter</w>
Ne ur
Mon o
Leuko Scan</w>
Labor ato
Kr ka</w>
Intrin sa</w>
IN J
H ib</w>
Ev ents</w>
EVI STA</w>
Dis card</w>
4 2
3- 4</w>
200 9</w>
2 5-
2 34</w>
19 9
0 32</w>
zi o</w>
x arotene</w>
vit relle</w>
ur ination</w>
typ ic</w>
ti li
ter icin</w>
tar abine</w>
sh ak
prolifer ative</w>
pregab alin</w>
pho tericin</w>
per idone</w>
oun ced</w>
multic entre</w>
l apatinib</w>
induc er</w>
in ally</w>
implan tation</w>
ily sin</w>
h omo
h er</w>
exce eding</w>
et er</w>
eryth em
ec id</w>
e ducational</w>
def ini
comp li
c up</w>
ben ecid</w>
be xarotene</w>
b a</w>
at ous</w>
ast- feeding</w>
arel to</w>
ank ylosing</w>
acu ity</w>
X arelto</w>
UC B</w>
Steven s-
STAM AR
STAMAR IL</w>
O vitrelle</w>
O MP
Man nitol</w>
Main tenance</w>
M id
E is
D RA</w>
CYST AGON</w>
CE PRO
Bre ast-feeding</w>
B enz
Appro pri
AD EN
7. 2</w>
27 6</w>
2 03</w>
13 3</w>
12 3</w>
10 5</w>
we b</w>
w arm</w>
v ac</w>
un explained</w>
ultras ound</w>
u ri
tig ecycline</w>
t on
suppor ted</w>
str ateg
stimul ates</w>
sm all
s ine</w>
ro ta
re us</w>
pr int</w>
pen ic
ox ab
oxab an</w>
ortho static</w>
oper ative</w>
ono V
omet ric</w>
oc ca
necro lysis</w>
mit otane</w>
mal absorption</w>
ma king</w>
it ted</w>
is one</w>
inter pre
inhibit ory</w>
il ine</w>
id a</w>
ic um</w>
haem olytic</w>
gu t</w>
gonado troph
g ic</w>
func tions</w>
fl ud
extr ap
ex trac
ex tra</w>
eth anol</w>
ecte d
dy skinesia</w>
dos si
cro ss</w>
cre atine</w>
classi fied</w>
ce l</w>
break down</w>
ari es</w>
appro val</w>
anti gens</w>
Zyr tec</w>
Therap eutic</w>
TRIT ACE</w>
Stevens- Johnson</w>
S onoV
RE D</w>
Pe ople</w>
M ore</w>
M in
M ed
Lansopraz ol</w>
LAN Z
J an
Ir on</w>
In di
IM UL
Fos can</w>
Flu ticasone</w>
F ast
Cle ar</w>
C re
2 58</w>
10 7</w>
w ant</w>
vas culitis</w>
v el
toco g</w>
ti tres</w>
ti ri
thor acic</w>
ter y</w>
perfor atum</w>
out weighs</w>
osel tamivir</w>
op tic</w>
menstr ual</w>
medi um</w>
man ic</w>
lym ph</w>
lea kage</w>
le t
l j
in ability</w>
ho od</w>
gal y</w>
for ge</w>
fibr illation</w>
en fuvirtide</w>
ell ac</w>
el i
eff usion</w>
design ated</w>
contain ers</w>
con clusion</w>
cle ared</w>
ch ance</w>
bre a
beg in</w>
auto immune</w>
appro ach</w>
a i</w>
Z y
Sign ific
Rap ilysin</w>
ON E</w>
Macro gol</w>
G au
FO SA
Ex forge</w>
CEPRO TIN</w>
C r
Arzneim ittel</w>
A VAN
4 15</w>
3 4
2 12</w>
2 05</w>
1.8. 1.</w>
1 14</w>
work load</w>
u pri
upri ght</w>
toc ilizumab</w>
suspen d</w>
sug ammadex</w>
substanti al</w>
simul taneously</w>
si gn</w>
re susp
raz ole</w>
ra emia</w>
pro thrombin</w>
predn isone</w>
practi ces</w>
pe ti
neuro pathic</w>
mo bil
me tidine</w>
le ep</w>
intr a-
inter vention</w>
inter stitial</w>
ic ial</w>
hydro gen</w>
gre en</w>
fi b
er tapenem</w>
er cept</w>
electroly te</w>
dou b
cl asses</w>
bro wn</w>
b ivalirudin</w>
b ag
b .</w>
ast inal</w>
ag iline</w>
U RI
TRAV AT
TRAVAT AN</w>
TN F</w>
TIC S</w>
SonoV ue</w>
S or
S PE
Pac ks</w>
OP IN
Micro crystalline</w>
Lev vi
K R
Hyper tension</w>
H Y
Gau cher</w>
G AN</w>
Equ ilis</w>
D ry</w>
CID AS</w>
CAN CIDAS</w>
Bo t
As th
A D</w>
4 7
3 9
3 1.
19 6</w>
13 -
0 33</w>
we b
vi gen</w>
ug en</w>
ti me
there by</w>
ter n</w>
stop s</w>
s els</w>
re sted</w>
re sources</w>
qual ified</w>
present ations</w>
pat tern</w>
om yel
o x</w>
ne ar</w>
m erc
loo k</w>
ipr amine</w>
ill s</w>
id -
gastro -
g ado
exp enditure</w>
erec tion</w>
epa m</w>
de aths</w>
conjug ated</w>
co sts</w>
ca th
c ure</w>
bo sentan</w>
bid ity</w>
az o
az a</w>
ab sc
Zar zio</w>
VAN Z</w>
V ATE</w>
Univer sity</w>
T ox
T SCAN</w>
Psy chiatric</w>
Pri vigen</w>
P neum
OVER ALL</w>
NSA ID</w>
M Y
Levvi ax</w>
LU MI
LO W
KR KA</w>
Ib af
IN VANZ</w>
Hyper icum</w>
H B</w>
G enzyme</w>
G RI
E vol
E di
Da TSCAN</w>
Ch ange</w>
Appropri ate</w>
3- fold</w>
3 20</w>
2 08</w>
0. 8
viro logic</w>
ver is</w>
transf usions</w>
tr ab
success ful</w>
st ine</w>
sign al</w>
si on-
run ny</w>
ru pt
rota virus</w>
rel ax
rac e</w>
qu ar
pres ents</w>
poin ting</w>
pl atin</w>
phosph or
phen o
ph alan</w>
patho gens</w>
par alysis</w>
orr hoea</w>
on at
omyel itis</w>
ne onates</w>
nat ur
nar ro
mox ifloxacin</w>
measure ment</w>
lyophil ised</w>
inz olamide</w>
inc id
in aze</w>
hol ding</w>
hepat ocellular</w>
grow ing</w>
gl ut
facil ities</w>
e udra
da met</w>
correspon ds</w>
contra -
con version</w>
as par
arm ine</w>
amb risentan</w>
am photericin</w>
acc el
VAN AC</w>
Tim e</w>
Ph arma
PHAR M
P O</w>
P K</w>
NR TI</w>
NE VANAC</w>
N i
Mer is</w>
Mac ugen</w>
MP A</w>
K no
K G</w>
IN N</w>
GS K</w>
Con stipation</w>
Brus sels</w>
B or
Avan damet</w>
Aer inaze</w>
Ad ju
5- fluorouracil</w>
2 70</w>
0 36</w>
xo stat</w>
to sis</w>
sub lingual</w>
su me</w>
sp ot
small er</w>
sh -
se lex</w>
sal e</w>
ri m</w>
pr on
poin ted</w>
poi etic</w>
ph one</w>
p ou
on ine</w>
nitro gen</w>
mor bidity</w>
me ter
iv ance</w>
interfer ons</w>
if ic</w>
ic -
i lo
he av
freez e</w>
f ini
ex plan
ex clud
ep ing</w>
entr y</w>
en sa</w>
develop mental</w>
d shire</w>
cover s</w>
compli ance</w>
cell ular</w>
c etuximab</w>
bu xostat</w>
bid o</w>
angioten sin-
am er</w>
alk onium</w>
ad d</w>
Z IMUL
U TIC
S í
RO UN
Pro Meris</w>
PF S</w>
Lu veris</w>
Liv ensa</w>
LUMI GAN</w>
L ar
Kep ivance</w>
I F
Gado vist</w>
G ROUN
FOSA VANCE</w>
F inal</w>
Em selex</w>
Di agram</w>
Decre ased</w>
Consi der
Circ adin</w>
Car b
Bot ulinum</w>
Ble eding</w>
AV ON
19 5</w>
1 21</w>
0. 6
val idated</w>
un ds</w>
um a</w>
tre me</w>
spor ine</w>
sco pe</w>
refl ect</w>
re place</w>
program mes</w>
pra sugrel</w>
oxy gen
ov al-
out comes</w>
om yo
ocy tes</w>
obe se</w>
merc k
m as
lis h</w>
la ur
iz ole</w>
induc es</w>
in ide</w>
im print</w>
h o</w>
f ed</w>
ec tives</w>
cul ture</w>
bag s</w>
au reus</w>
am mon
am iodarone</w>
agre lide</w>
ZIMUL TI</w>
ZA AR</w>
V en
V EN
TA IN
T P</w>
Sí mi</w>
SAR L</w>
Pro du
Prepar ation</w>
Lum inity</w>
Inf lamm
F le
E 132</w>
E 110</w>
D O
Con centr
Cere zyme</w>
CO MP</w>
C lose</w>
AR D</w>
7 0
5. 8</w>
3 8
2 1.
2 01</w>
1 19</w>
0. 088</w>
x a</w>
www .
ver b</w>
vari able</w>
u ally</w>
toler ate</w>
t max</w>
sulf an</w>
substanti ally</w>
spas ms</w>
relap sed</w>
reg ulation</w>
po vidone</w>
po t</w>
pep tide</w>
over weight</w>
oph ylline</w>
om ep
o dine</w>
ne are
neare st</w>
lum bar</w>
lis ine</w>
lim iting</w>
lim bs</w>
len tor</w>
las tic</w>
iso enzymes</w>
invol vement</w>
inf il
impa ir</w>
hyper kalaemia</w>
glu lisine</w>
exacerb ations</w>
ep ith
en doc
dispo se</w>
di ameter</w>
corne al</w>
compar t
beta- blockers</w>
bas al</w>
ati on-
as part
anti- HIV</w>
anti thrombin</w>
af ter
adi ly</w>
ad ver
acti n</w>
accord ingly</w>
a er
Zenap ax</w>
Y Y</w>
Wil zin</w>
U T</w>
Ty verb</w>
Syst emic</w>
Sch ering</w>
Pol and</w>
Par ox
PSU R</w>
P- gp</w>
Over dose</w>
OP TRU
N P
MUL TI
Lat via</w>
K ft</w>
IL- 2</w>
Haem ato
G e
Et oricoxib</w>
D A</w>
Cor lentor</w>
B Y</w>
AVON EX</w>
A sp
4 12</w>
3 19</w>
2 20</w>
2 07</w>
0. 18</w>
zo ster</w>
z en</w>
usion- related</w>
up wards</w>
treatment -related</w>
tr ast
the less</w>
th inking</w>
th ick
syst olic</w>
sy l
so res</w>
pre xa</w>
per fusion</w>
ox afil</w>
out weigh</w>
op ic</w>
o zide</w>
medi astinal</w>
legis lation</w>
itr a</w>
ischa emia</w>
hyper stimulation</w>
es o
era dication</w>
epid em
environ ment</w>
ected in</w>
earli er</w>
dist re
di hydrochloride</w>
den ing</w>
correc tly</w>
consist ing</w>
bit ches</w>
benef icial</w>
ar f</w>
ap se</w>
anti bacterial</w>
ag r
Zy prexa</w>
Wh arf</w>
V -
Th ro
RIS TICS</w>
Quint anrix</w>
Pop ulation</w>
OPTRU MA</w>
OPIN ION</w>
N oxafil</w>
N orm
Investig ations</w>
Ini tial</w>
Inhib itors</w>
Industri al</w>
IT T</w>
INTE GRI
INTEGRI LIN</w>
I GF
G ly
F atigue</w>
Evol tra</w>
EC ALTA</w>
Di spo
Can ary</w>
COX IA</w>
CHAR ACTE
CHARACTE RISTICS</w>
An aphy
AZ AR
AZAR GA</w>
AR COXIA</w>
4 V</w>
2- 3</w>
14 7</w>
1 13</w>
0 35</w>
é r
uz umab</w>
ut ing</w>
ur s</w>
un expected</w>
u sive</w>
thir st</w>
te trac
tal c</w>
strong ly</w>
st ates</w>
ripro x</w>
recor ded</w>
re plic
r yn</w>
pub lic
pron ounced</w>
pipet te</w>
ough ing</w>
obstruc tive</w>
ne s
metabol is
meaning ful</w>
li x</w>
id entif
h a</w>
glu tam
gest ation</w>
gen it
g out</w>
g ment</w>
fle a</w>
first- line</w>
exper t</w>
ex act</w>
estim ate</w>
est ril</w>
enh anc
dysp hagia</w>
dis ability</w>
di l</w>
di gestive</w>
desi gn</w>
dec oxib</w>
de grad
cy tarabine</w>
cis apride</w>
chem i
break through</w>
behavi oural</w>
ath ec
Z estril</w>
YY YY</w>
W est
VI AG
VE LO
UF ACT
Sw elling</w>
S ha
RI X</w>
R D</w>
R AL</w>
PI s</w>
MAN UFACT
Lev itra</w>
Frequ encies</w>
Fer riprox</w>
Ex ceptional</w>
E th
De pression</w>
Con tains</w>
C ell</w>
BLISTE R</w>
AT ryn</w>
6 000</w>
18 8</w>
1, 200</w>
0 3.
µ M</w>
yl ate</w>
w -
v ec
un born</w>
ul ins</w>
sug ars</w>
stabil ised</w>
side- effects</w>
sel ection</w>
se c</w>
ro tigotine</w>
ques tion
pre- treatment</w>
paedi c</w>
ortho paedic</w>
om ime
ol azine</w>
n M</w>
migra ine</w>
mel phalan</w>
m on</w>
ison ing</w>
inser ted</w>
in stead</w>
ific ation</w>
id aza</w>
he a</w>
fro zen</w>
evid ent</w>
em izole</w>
ed ed</w>
def ect</w>
de pot</w>
de leg
contra indication</w>
conduc t</w>
com peti
carb amide</w>
c aspofungin</w>
block ade</w>
aut om
attem pt</w>
ato sis</w>
at opic</w>
aspart ate</w>
alpha -
V idaza</w>
TIC LE</w>
TA B</w>
T AN
Sub j
Spec ific</w>
R am
P ra
Novo Nor
NovoNor m</w>
LI A</w>
L j
L ith
K idne
Incre ase</w>
I ts</w>
Hep sera</w>
H ouse</w>
Dispo se</w>
D D</w>
Cy ano
Cha irman</w>
C au
B ro
An xiety</w>
Al dar
AR TICLE</w>
8. 0</w>
3 21</w>
20 mg</w>
2 13</w>
0. 35</w>
tre co
treco gin</w>
thre e-
th in</w>
tas si
swit ch</w>
spl en
sign ed</w>
ris es</w>
residu es</w>
referr als</w>
rand in</w>
q a</w>
po int
ple x</w>
pit u
pep ti
p ts</w>
on o</w>
on id
on ec
om al
o titis</w>
n -
ment ary</w>
manife stations</w>
m s
ligh t-
li p</w>
in d</w>
immunosuppres sion</w>
hydr ated</w>
fol inate</w>
ffe red</w>
fall ing</w>
f ight</w>
et a</w>
en ox
em erg
di phtheria</w>
continu es</w>
ce furo
bin d</w>
back ground</w>
anti epileptic</w>
ag on</w>
aci tidine</w>
ab or
VI AZ</w>
V it
Ul tr
TO VIAZ</w>
TE VA</w>
T max</w>
Pro p
P randin</w>
P erc
N a
Medic al</w>
MT X</w>
MAO I</w>
M M</w>
L a</w>
IV EMEND</w>
I s</w>
H al
H RT</w>
H ER
Guid ance</w>
Con tra
Chine se</w>
C li
C it
C F</w>
Avan dia</w>
AD VATE</w>
ACE UTIC
4 05</w>
yn aec
web site</w>
w a</w>
vari ety</w>
vac izumab</w>
tri um</w>
ter odine</w>
tend ency</w>
t ine</w>
s er</w>
re ness</w>
onec rosis</w>
omep razole</w>
oc ate</w>
natur ally</w>
meth op
me et</w>
it ment</w>
in ations</w>
if en
ic ar
gre at
glu c
glo ves</w>
foc al</w>
fast -acting</w>
f ying</w>
f inger</w>
estab lish</w>
eno fovir</w>
en al
dul afungin</w>
drow sy</w>
dis appear</w>
differen ti
deriv ative</w>
d on</w>
d L</w>
col on</w>
co ordination</w>
cholin ergic</w>
c tu
bed time</w>
be vacizumab</w>
at ures</w>
appropri ation</w>
al ent</w>
aggreg ation</w>
ad es</w>
Wh ere</w>
Ve lo
T enofovir</w>
Suc rose</w>
RA S</w>
Neutro penia</w>
HIV- infected</w>
H igh
For t</w>
Do dge</w>
Circ umstances</w>
CYP 450</w>
B N</w>
Angio x</w>
AS E</w>
AC OMP
8 7
6. 8</w>
3 00
2 21</w>
16 2</w>
0 54</w>
varic ella</w>
ur tec</w>
tro pic</w>
superi or</w>
strateg y</w>
shor ter</w>
s inusitis</w>
s can</w>
s a
ri ption</w>
rap porteur</w>
on tium</w>
on tin</w>
on ce-
nal trex
muco sal</w>
lo sis</w>
le y</w>
ino trache
influ enced</w>
ic e-
glucuron ide</w>
gab apentin</w>
fast er</w>
experienc es</w>
endo th
e ating</w>
di etary</w>
d ental</w>
com pres
az yr</w>
at rial</w>
at eral</w>
aspar tame</w>
ac r
Z IDE</w>
V iv
URI C</w>
S i
RE FER
REFER RAL</w>
On sen
O rion</w>
Lj ub
LL ING</w>
LABE LLING</w>
L os
K S</w>
Hy potension</w>
H Cl</w>
Geno type</w>
Fir azyr</w>
Fast urtec</w>
F i
E CT</w>
Ciprox in</w>
CON TAIN
C ancer</w>
B 6</w>
Aldar a</w>
Adv ocate</w>
ADEN URIC</w>
ACOMP LIA</w>
30 9</w>
3 01</w>
zo ledronic</w>
z ech</w>
v eterin
trast uzumab</w>
ter min</w>
te le
suggest s</w>
statistic al</w>
sib an</w>
sal iv
s at
s .
ri um</w>
respon sive</w>
repe at
relap ses</w>
re solution</w>
re act</w>
quanti ty</w>
polym er</w>
pim ozide</w>
op ton</w>
ob long</w>
neutro phils</w>
min ated</w>
lit res</w>
le en</w>
justi fy</w>
iv ud
incre ments</w>
in ver
in clusion</w>
im port
im iquimod</w>
h is</w>
flav our</w>
fat ty</w>
extrem ities</w>
cor alan</w>
chang ing</w>
cha in</w>
cap one</w>
bisphosph onates</w>
attribu ted</w>
apr ase</w>
ap ril</w>
ap pointed</w>
alter ations</w>
al ert</w>
a emic</w>
VIAG RA</w>
V AS
US ER</w>
Tur n</w>
Tac rolimus</w>
SPE CI
S it
Re gi
Pro prietary</w>
Pro coralan</w>
Prepar ing</w>
Po vidone</w>
Pharmaco dynamic</w>
PE T</w>
P se
Onsen al</w>
In c</w>
Gado graf</w>
Fentan yl-
El aprase</w>
Dur ation</w>
Cyano kit</w>
Cau casi
C zech</w>
Bri st
Ag opton</w>
5 8
0 70</w>
0 44</w>
0 34</w>
.. .</w>
vo flurane</w>
ver ing</w>
val decoxib</w>
va renicline</w>
ud om
tox oid</w>
th um
table t
t yro
stre am</w>
st r</w>
se voflurane</w>
ras agiline</w>
pro benecid</w>
po isoning</w>
pl on</w>
one uro
nel arabine</w>
nar row</w>
naltrex one</w>
molec ular</w>
man ia</w>
lia ment</w>
lar opiprant</w>
k ers</w>
k er</w>
intrac ellular</w>
il a
iden tical</w>
hypo calcaemia</w>
gro unds</w>
gel atin</w>
flud an</w>
f al
etan ercept</w>
den ly</w>
complic ation</w>
clo ck
cefuro xime</w>
cardio gram</w>
bel i
ate gl
anti -</w>
am ylase</w>
am end
ale plon</w>
VA C</w>
Stre n
Stand ard</w>
STA TE
S aquinavir</w>
Re y
Re fludan</w>
RI CA</w>
Po ints</w>
Per io
Par liament</w>
O -
N L-
My co
Mon ot
Med DRA</w>
Ljub lj
L ym
I P
Hol ders</w>
Ho d
D il
D OS
Chem ical</w>
AS A</w>
8. 3</w>
7. 9</w>
2- fold</w>
2 94</w>
2 45</w>
2 33</w>
2 3.
12 9</w>
0. 4
é s</w>
wal king</w>
w as
ve ins</w>
var oxaban</w>
use ful</w>
up date</w>
ugh t</w>
transpa rency</w>
tassi um-
synthe tic</w>
sper m</w>
spe ech</w>
some one</w>
rit ten</w>
ri varoxaban</w>
parti cip
p ins</w>
opio ids</w>
ne ither</w>
micro -
mark ers</w>
indi rec
identif y</w>
grap efruit</w>
gram me</w>
go ro
f -life</w>
cy stic</w>
cul ar
clock wise</w>
atr an</w>
ategl inide</w>
ast emizole</w>
arter ies</w>
arb itration</w>
an tacids</w>
an agrelide</w>
abig atran</w>
Viv anza</w>
Thrombo cytopenia</w>
Signific ant</w>
S K
Pre s
PAS I</w>
P ush</w>
P R</w>
Neur ontin</w>
Monot ard</w>
Mil ano</w>
Manu facturing</w>
MR L</w>
M echan
E LI
Dis continuation</w>
Cl om
A st
4 69</w>
0 96</w>
z ine</w>
x -
ver theless</w>
tub es</w>
ti fib
tifib atide</w>
ta b</w>
sud denly</w>
special ist</w>
speci alised</w>
sp aring</w>
sp ace</w>
require ment</w>
re adily</w>
prostagland in</w>
proc esses</w>
pre val
pitu itary</w>
ph thal
occa sions</w>
neutro penic</w>
netw ork</w>
mode l</w>
methop rim</w>
me man
me d
ma gn
impro ving</w>
import ance</w>
ib b</w>
i el
hyp om
hal er</w>
flu ids</w>
fen ac</w>
fast ed</w>
exce eded</w>
ex trav
dossi er</w>
do l</w>
design ation</w>
degre es</w>
carb onate</w>
box es</w>
benzodiazep ines</w>
ani qa</w>
alfa-2 a</w>
ad rib
achiev ing</w>
W est</w>
W ash</w>
V aniqa</w>
Sw allow</w>
Str asse</w>
Squ ibb</w>
Pri alt</w>
Pharmacokine tics</w>
Ox y
N D
My ers</w>
Ljublj ana</w>
L ess</w>
G ently</w>
FOL LOW
F entanyl</w>
E U
D on</w>
D O</w>
Al co
Ac cor
A E</w>
15 5</w>
13 6</w>
1 24</w>
u le</w>
tre nd</w>
tico s</w>
ti az
the sia</w>
st o</w>
sco red</w>
s or</w>
ro x</w>
recogn ised</w>
re al</w>
r aloxifene</w>
porf in</w>
pneumon itis</w>
ph arm</w>
pen etr
par turition</w>
pa ins</w>
of oxifene</w>
measure ments</w>
low -dose</w>
lo st</w>
li bido</w>
jo ined</w>
isol one</w>
inte rested</w>
in spection</w>
id ity</w>
ham ster</w>
gl arg
gener ic</w>
fol i
fer ry</w>
f ing
equ ine</w>
ec tomy</w>
e ars</w>
dro p
distre ss</w>
det ect</w>
de l</w>
cyto k
cor d</w>
contra indications</w>
conjug ate</w>
coll ected</w>
cin acalcet</w>
car ds</w>
bl ast
benz yl</w>
as tic</w>
an ide</w>
al ized</w>
adrib ine</w>
addre ssed</w>
accep ted</w>
West ferry</w>
VELO TAB</w>
V il
Recom m
Re actions</w>
R h
Plac e</w>
Pl ate
PT H</w>
PHARM ACEUTIC
Opti Cli
OptiCli k</w>
O H
MI C</w>
M .</w>
Los artan</w>
LY RICA</w>
Kidne y</w>
In c
H ellas</w>
GROUN DS</w>
G n
G L
F igure</w>
Edi f
E 9
E 14</w>
Circ us</w>
Ch est</w>
C lo
AR T</w>
5 0-
4 31</w>
е л</w>
weigh ts</w>
vi zumab</w>
tigh tly</w>
teri or</w>
tem sirolimus</w>
su vastatin</w>
spo ts</w>
sp ir
so dren</w>
sic s</w>
ser i
s ought</w>
residu al</w>
re vised</w>
ra ther</w>
r ani
predn isolone</w>
predic ted</w>
part ner</w>
on as</w>
oesopha gitis</w>
nerv es</w>
mode st</w>
meman tine</w>
li pa
li g
la an</w>
intramus cularly</w>
il led</w>
id e-
ic idal</w>
hydroxy carbamide</w>
flu shes</w>
fi es</w>
estab lishment</w>
di aly
de vices</w>
de le
d or
cit ric</w>
ch os
ch el
cere bral</w>
car box
bli stering</w>
beta-1 a</w>
anc yto
aldo sterone</w>
af act</w>
adolesc ent</w>
adjunc tive</w>
adeno pathy</w>
W IN
VIR B
Ultr atard</w>
Tal c</w>
TRI TA
TRITA ZIDE</w>
T est
Sp ect</w>
S ac
Reg ar
Re le
P enta</w>
Non afact</w>
Neo Spect</w>
M ini
L ou
Ibaf lin</w>
HB s</w>
Gli ol
FOLLOW ING</w>
F are
Di ffe
Dep ending</w>
Con cer
Com tan</w>
Bre ast</w>
AP INE</w>
9. 4</w>
5. 9</w>
2 4.
12 ,5</w>
1 4-
0. 9
0 69</w>
0 4.
0 1-
z ol
yel lowing</w>
yc lic</w>
y ed</w>
we ar</w>
vi goro
vi c</w>
up set</w>
tro uble</w>
tiaz em</w>
sur roun
su lide</w>
stric tion</w>
stri p</w>
squ are</w>
sleep y</w>
re solve</w>
re no
rang es</w>
profil es</w>
polic y</w>
pi roxicam</w>
pali peridone</w>
p am
ov ine</w>
n itr
moist ure</w>
menopa use</w>
manu facturing</w>
main taining</w>
lu pus</w>
lipo dystrophy</w>
leb itis</w>
lat est</w>
ifen acin</w>
gradu al</w>
glarg ine</w>
g ed.</w>
form ing</w>
for d</w>
fe es</w>
fac t</w>
expl ain</w>
dys geusia</w>
dul es</w>
con sol
ci metidine</w>
ceph al
bu sulfan</w>
bloo d-
biop sy</w>
author ity</w>
athec al</w>
as o
analge sic</w>
ag rid</w>
afen ib</w>
adren aline</w>
X agrid</w>
Symptom atic</w>
Subj ects</w>
S erv
Rele ased</w>
RO U
Pro gramme</w>
O fficial</w>
O LANZ
OLANZ APINE</w>
N S
M UN</w>
Ly sodren</w>
Inter vet</w>
Hertfor dshire</w>
GI ST</w>
F IN
Eis ai</w>
D AME
DAME T</w>
Clin ically</w>
Ac c
AVAN DAMET</w>
AC T</w>
A th
8. 6</w>
7. 8</w>
7. 0</w>
4 65</w>
4 64</w>
4 ,
2 02</w>
0. 7
yl ation</w>
y a</w>
warr anted</w>
tr ained</w>
to x</w>
t i</w>
rec ru
re sol</w>
re aching</w>
pre mix</w>
pl atin
patho logical</w>
om ic</w>
om er</w>
multi pack</w>
mono amine</w>
meter ol</w>
medic ated</w>
mag ne
lic k</w>
li ves</w>
li shing</w>
it ated</w>
intra ocular</w>
inte rest</w>
insti tuted</w>
ila g</w>
ido s</w>
i a
hist or
hap pen</w>
gluc agon</w>
gen es</w>
exist s</w>
eso terodine</w>
escal ation</w>
enh ance</w>
e g</w>
deliv er</w>
de partment</w>
de hydrogen
cyclo sporin</w>
cau tion
ca usal</w>
c ilis</w>
c armine</w>
br inzolamide</w>
basi liximab</w>
bal amin</w>
az acitidine</w>
ax yn</w>
ate c</w>
assess ments</w>
appro xim
ak in
act one</w>
acknowled ged.</w>
abnorm ality</w>
Z A</w>
W a
Tran sient</w>
Tech nical</w>
STRI C
RE STRIC
Produ tos</w>
Por cilis</w>
O ver</w>
Mid d
LU E</w>
Inflamm ation</w>
H or
H and
Gn RH</w>
Diab etes</w>
D MAR
CAP SUL
C h</w>
B LUE</w>
Atri ance</w>
AT CH</w>
AP S</w>
5 6
36 9</w>
3 40</w>
13 7</w>
0 90</w>
- induced</w>
ö r
wal k</w>
vi ation</w>
veterin arian</w>
vacc ine
transamin ase</w>
trab ectedin</w>
tom ycin</w>
tiri zine</w>
the ophylline</w>
substi tution</w>
stre ss</w>
spo vidone</w>
sp i
reli x</w>
re sis</w>
re m
r in</w>
pol i
pen tol</w>
p r</w>
ov aries</w>
on atal</w>
o tide</w>
o le
o g</w>
mo tion</w>
mil ky</w>
mat ch</w>
mac ular</w>
li zumab</w>
investig ator</w>
inter im</w>
inj ectable</w>
in appropriate</w>
hydro ly
hor t</w>
half -
gast ritis</w>
g are
four th</w>
fin amide</w>
fic ial</w>
ec a</w>
du al</w>
diff er</w>
di ed</w>
cyclo sporine</w>
cro scarmellose</w>
compart ment</w>
colo rectal</w>
co vered</w>
cap s</w>
c ile</w>
am ides</w>
al um
agr anulo
ag ree</w>
Wor t</w>
With draw</w>
W ay</w>
Vir us</w>
V T</w>
Up per</w>
Trit anrix</w>
TE C</w>
T e</w>
Reg ulatory</w>
Recon cile</w>
RE LI
Pro graf</w>
PHARMACEUTIC AL</w>
P h</w>
OP T</w>
ON G
MB q</w>
L D</w>
I cel
G- CSF</w>
G 1</w>
Fentanyl- ratiopharm</w>
Fare ston</w>
FI R
F- 9
F re
F as
Com ple
CYP2C 8</w>
Bo tox</w>
Ast ellas</w>
As soci
AZ OPT</w>
8. 9</w>
8 9
7. 4</w>
3 -</w>
yp r
ypr us</w>
weak ened</w>
ul l</w>
ul ed</w>
uc tose</w>
toc k
thum b</w>
ta flu</w>
t an
swe ats</w>
sim plex</w>
sep tic</w>
rh inotrache
replic ation</w>
rel la</w>
re sorption</w>
pro long</w>
pro gram</w>
pro ge
ph al
pas ses</w>
pas sed</w>
pancre atic</w>
p m</w>
ol- Myers</w>
ol actone</w>
no te</w>
n igh
mit tent</w>
metabol ized</w>
me loxicam</w>
mat uration</w>
lo cal
lo ads</w>
len ses</w>
it -
is tidine</w>
ilo prost</w>
il lin
glob ulin</w>
gare lix</w>
g at
epidem iological</w>
enh ancer</w>
emer gence</w>
ec rolimus</w>
con vention</w>
con firm</w>
compens ated</w>
com posite</w>
ble eds</w>
av age</w>
ato siban</w>
ap est</w>
akin ra</w>
air way</w>
Tri atec</w>
Sloven ia</w>
Sha ke</w>
Sh ould</w>
Ser vi
Sci ences</w>
STO R</w>
STE MI</w>
Re productive</w>
RESTRIC TIONS</w>
RELE ASE</w>
Qu es
Po tassium</w>
PDE 5</w>
Op taflu</w>
O edema</w>
O S</w>
Ne w
L op
Inf ection</w>
Im medi
Icel and</w>
G ender</w>
D ING</w>
C AN</w>
Bud apest</w>
Brist ol-Myers</w>
B e</w>
An n
8. 7</w>
8. 2</w>
28 5</w>
19 2</w>
1 500</w>
1 22</w>
z ar</w>
w il
u n</w>
treatment- naïve</w>
trans mit
tr ay</w>
summar ised</w>
sp lit</w>
shak en</w>
sel ec
sed ative</w>
secre ted</w>
ran olazine</w>
r uled</w>
pro of</w>
na il</w>
n itus</w>
n au
merck .</w>
loo se</w>
lo t</w>
l ay
k i</w>
inf requ
il lus</w>
i tive</w>
haemato poietic</w>
gu ide</w>
gau ge</w>
gastro enteritis</w>
ep tifibatide</w>
enter a</w>
dro trecogin</w>
dehydrogen ase</w>
cru shed</w>
cont ext</w>
co administered</w>
cho ice</w>
but y
b w</w>
at ax
as c
aryn geal</w>
amin ergic</w>
am il</w>
al is</w>
air s</w>
agranulo cytosis</w>
Visu al</w>
Th i
Stren gth</w>
Ser ono</w>
S tock
S ter
Rati o</w>
PACK S</w>
P ML</w>
M u
Lor at
L ist</w>
K entera</w>
Insti tu
Dr ug
Contra indications</w>
Aven tis</w>
4 HB</w>
2 15</w>
100 ,000</w>
. 00</w>
- free</w>
yr ica</w>
ven ess</w>
up side</w>
trig a</w>
tific ial</w>
t ess</w>
stra at</w>
str ontium</w>
spon taneously</w>
sp leen</w>
so ap</w>
sit ting</w>
ser t</w>
rod ents</w>
request s</w>
re vision</w>
r -
propos al</w>
pro ton</w>
pro mpt
prompt ly</w>
person nel</w>
on olactone</w>
omyo pathy</w>
non- inferi
muco sitis</w>
micro biological</w>
metabolis ers</w>
m sec</w>
la un
j or</w>
ir reversible</w>
immunoglob ulins</w>
ic al
haemorrha gic</w>
gn itive</w>
ge ometric</w>
ex treme</w>
di on</w>
cal ves</w>
ca us
c oughing</w>
ble ed</w>
apar in</w>
anti convul
ancyto penia</w>
adren ergic</w>
Yt triga</w>
V ig
UTE K</w>
U su
ST AN
S ev
RIL UTEK</w>
RELI STOR</w>
Pu rified</w>
Prote in</w>
P RI
P P</w>
OVI ST</w>
Ne is
N ic
Ma jor</w>
MON APS</w>
M E</w>
L yrica</w>
L is
K ab
K I
Incre ases</w>
ID flu</w>
G el
G E
Elev ated</w>
Dis order</w>
Ce renia</w>
AM MONAPS</w>
9 N
6- month</w>
2 -</w>
16 6</w>
0 7
z er
yp s</w>
ylo bac
w ounds</w>
ventil ation</w>
under goes</w>
um umab</w>
u ste
tyro sine</w>
tes ticular</w>
terato genicity</w>
sym path
spong e</w>
sick ness</w>
se e
sacchar ide</w>
ret ard</w>
regar ds</w>
re search</w>
ra w</w>
pul se</w>
pre ce
point es</w>
perfor ation</w>
per s</w>
oval- shaped</w>
ome galy</w>
o prost</w>
o ffici
modi fications</w>
mo ve</w>
mit o
ly -
lo vastatin</w>
lithi asis</w>
lact ate</w>
l ay</w>
k shire</w>
iso phane</w>
ipr one</w>
int act</w>
induc ing</w>
in st
in ol</w>
immuno logical</w>
il ities</w>
foo t</w>
flu ctu
enal april</w>
en ergy</w>
e b
defici ent</w>
de a</w>
chloro butyl</w>
child- bearing</w>
ca st
ca m</w>
bloc ked</w>
ax etil</w>
atax ia</w>
ar sen
antidepres sant</w>
aly se</w>
alk alo
Wh ich</w>
Tar get</w>
St om
St at
STR UC
SO CI
S. A.</w>
Re sist
R amipril</w>
R G
Pe dea</w>
Pac k
Mechan ism</w>
Kab i</w>
IN STRUC
H s</w>
Gem zar</w>
EF F
Du loxetine</w>
Direc tor
D iso
Com tess</w>
CONTAIN ING</w>
C yst
C yprus</w>
C K</w>
Bri dion</w>
Bio logicals</w>
Ann ual</w>
7. 7</w>
6 40</w>
5 35</w>
4 10</w>
16 7</w>
12 h</w>
10 mg</w>
1 1-
. Ε
wor sen</w>
vir als</w>
vi sc
uz ole</w>
utro pin</w>
un w
tr um</w>
se gment</w>
rabb it</w>
polym er
orig inally</w>
oneuro tic</w>
ol ig
lep tic</w>
lam ivud
it umumab</w>
in tran
il uzole</w>
hy poten
hand led</w>
freez er</w>
flu ore
fing ers</w>
estro gen</w>
end- stage</w>
ec ho
di tis</w>
di f</w>
cre tion</w>
compres se</w>
buty rate</w>
av ing</w>
analy sed</w>
am ing</w>
ag li
ag al
ach e</w>
V ar
T C</w>
S G
Recom bin
Re lease</w>
RC A</w>
R .</w>
Pharma match</w>
PD T</w>
P U
P RCA</w>
OVI G</w>
OP AT
OPAT ANO
OPATANO L</w>
O TH
NP H</w>
Lym ph
Lam ivudine</w>
KI OVIG</w>
INSTRUC TIONS</w>
Gliol an</w>
Fle bo
El ec
E ar</w>
D T
B ATCH</w>
Asth enia</w>
8. 1</w>
5- fold</w>
5 ,
15 3</w>
12 50</w>
0. 45</w>
z aleplon</w>
wor ked</w>
weigh ed</w>
un commonly</w>
u rella</w>
th in
syn dro
sur ge
suppor ting</w>
sion- free</w>
si veness</w>
ser ia</w>
sar coma</w>
sal meterol</w>
s za
s amine</w>
pu sh-
proj ects</w>
po tassium-
pig mentation</w>
ph lebitis</w>
ov ary</w>
osteo arthritis</w>
ori penem</w>
oper ational</w>
obj ectives</w>
neuro muscular</w>
ne onatal</w>
na ive</w>
millil itre</w>
lu te
loc ation</w>
lo sin</w>
less er</w>
la ke</w>
it ude</w>
inter mittent</w>
inten sive</w>
insul in-
inf usion-related</w>
im port</w>
im ato
imato prost</w>
hospit alisation</w>
ha e
h id
gamma dif</w>
fr uctose</w>
foc us</w>
fini shed</w>
ex er
eth inyl</w>
en tial</w>
el se</w>
ecte plase</w>
dri ed</w>
d abigatran</w>
comm ittees</w>
chemi stry</w>
cau ti
cath eter</w>
car dboard</w>
c ou
auto logous</w>
ati cally</w>
at onin</w>
applic ants</w>
ap an</w>
ap amil</w>
abnorm ally</w>
VE N</w>
TE SL
TESL AS
SP Cs</w>
SO LV
S to
Recombin ant</w>
Po ten
Perio dic</w>
Paste urella</w>
P ap
Neis seria</w>
Ne ed
ME MBER</w>
IT P</w>
II Ia</w>
Hypo glycaemia</w>
H T
Gener ally</w>
Flebo gammadif</w>
Fir st</w>
F ondaparinux</w>
Diso dium</w>
D el
Con tr
CP K</w>
CAPSUL ES</w>
B -1
9. 6</w>
9. 3</w>
7. 1</w>
6 3
6 0-
17 6</w>
z eta</w>
yro l</w>
v oxamine</w>
un complicated</w>
tim ing</w>
sza wa</w>
spec trum</w>
so di
r d</w>
proj ect</w>
post -</w>
pla que</w>
organ isation</w>
ne arly</w>
mobil isation</w>
mis sing</w>
mic afungin</w>
me sto</w>
mam mal
k inu
kinu mab</w>
intr athecal</w>
initi atives</w>
indirec t</w>
incid ences</w>
ili ary</w>
ib le</w>
hypo thyroidism</w>
hypo aesthesia</w>
haemat oma</w>
ha sic</w>
fl ush</w>
fe buxostat</w>
facil itate</w>
f adin</w>
exce ption</w>
ex foli
emea .
dy stonia</w>
drug -related</w>
def in
cri sis</w>
cop per</w>
co x
chos en</w>
challen ge</w>
cal ci
c r</w>
ar rest</w>
an akinra</w>
am ne
aim ed</w>
ad ed</w>
a z</w>
ZI LE
ZILE CT</w>
We e
War szawa</w>
W E
Vacc ination</w>
Te л</w>
T i
Servi er</w>
SP ON
SOCI ATED</w>
Regar ding</w>
ROU TE</w>
RI s</w>
R heum
Pol yethylene</w>
Physici ans</w>
Or fadin</w>
O ste
N Y
Ma xim
LE X</w>
Inter net</w>
In activated</w>
Hydro x
Gi lead</w>
G iv
Fr ank
Farmacêu ticos</w>
EVI CEL</w>
Con ference</w>
AUC 0-
AS SOCIATED</w>
A ZILECT</w>
8. 4</w>
4 0-
36 6</w>
2 27</w>
100 00</w>
1 70</w>
0 45</w>
0 -</w>
xi on</w>
w th</w>
v an
typ ical</w>
tur al</w>
tri methoprim</w>
tab les</w>
t utes</w>
t onia</w>
succ ess</w>
ster ase</w>
she im</w>
seas onal</w>
s n
rig ors</w>
represent atives</w>
remain der</w>
reli ev
q .</w>
pro static</w>
prefer red</w>
post marketing</w>
pl es</w>
pi ece</w>
phospho kinase</w>
per icar
par as
os a</w>
on rix</w>
on is
onis amide</w>
n one</w>
muco sa</w>
mammal ian</w>
magne tic</w>
lox i</w>
log o</w>
leuk ocy
last s</w>
k ne
ja w</w>
in one</w>
imple ment</w>
fam il
f esoterodine</w>
ex change</w>
eter o
enox aparin</w>
dispo sition</w>
d ang
commun ication</w>
benz alkonium</w>
as leep</w>
am oxic
ag is</w>
Zen eca</w>
Yt trium</w>
VI ALS</w>
TE R</w>
TA N</w>
T yrol</w>
Syn agis</w>
Ste p</w>
Slo v
STATE S</w>
SI A</w>
REG RAN
REGRAN EX</w>
Pro gres
P CR</w>
N VR</w>
Me et
K IU</w>
Jan ssen
INTE R
IC AL</w>
ELI SA</w>
Dar onrix</w>
D RA
Care ful</w>
CL C</w>
C AL
Arth ralgia</w>
An alysis</w>
Accor ding</w>
A loxi</w>
6 ,
4- fold</w>
4 57</w>
4 00
18 2</w>
0 50</w>
- on</w>
- 1.
vehic le</w>
vacc inations</w>
transpl anted</w>
toxic ology</w>
too th</w>
tar go</w>
t ate</w>
sub groups</w>
str ant</w>
ses sion</w>
ren in</w>
re sumed</w>
re g</w>
re activation</w>
princip al</w>
preval ence</w>
poly vinyl</w>
pol yps</w>
ph aryngitis</w>
ph arma</w>
pen ed</w>
p .</w>
omo dul
o th</w>
mor phine</w>
mag glut
lo dex</w>
lic en
le- shaped</w>
ip hasic</w>
io s</w>
inten d</w>
insti tutions</w>
ino gen</w>
if y</w>
hypoten sive</w>
histor ical</w>
hist amine</w>
gro up
glucose- galactose</w>
get ary</w>
follic le</w>
f if
explan ations</w>
ex amin
ergo t</w>
dise ase-
di mini
deter mination</w>
cy ste
cu t</w>
cover ing</w>
cor tis
consul ted</w>
co ord
co gnitive</w>
cer tific
c at</w>
bu ff
bio technology</w>
b iphasic</w>
assess ing</w>
as ked</w>
ap plying</w>
anaesthe tic</w>
agli m</w>
adjunc t</w>
accoun ting</w>
accid ent</w>
VIRB AC</w>
Tar gre
Sec retariat</w>
Sec ondary</w>
SOLV ENT</w>
S cal
Ru a</w>
Rev as
R S
Pu t</w>
Pra ha</w>
Pe ak</w>
Par oxetine</w>
PI D</w>
Opti mark</w>
ON LY</w>
Met alyse</w>
LD L-C</w>
L T-
In sert</w>
IGF -1</w>
Her pes</w>
Fas lodex</w>
E p
D- 8
D V</w>
Co ated</w>
Cardi ovascular</w>
Cap sules</w>
CL US
C D</w>
B RI
Av aglim</w>
Altern atively</w>
Al targo</w>
A stra
9. 0</w>
3 27</w>
2 377</w>
2 309</w>
1 56</w>
- Pl
ο υ</w>
yel low
ye ast</w>
w ritten</w>
w ish</w>
v ital</w>
ul ates</w>
thromboemb olism</w>
thi onine</w>
th ym
t y-
su ria</w>
stric t</w>
ser vice</w>
ser v
ris k-
red dening</w>
recor d</w>
pur pose</w>
present ing</w>
porte urs</w>
oph arma</w>
onat raemia</w>
omo tor</w>
om el
omel atine</w>
oco balamin</w>
oc tocog</w>
mo sis</w>
min d</w>
me det
ma x
lo fenac</w>
li des</w>
kne e</w>
infil tr
iclo vir</w>
hyp o</w>
hydro lysis</w>
hol ders</w>
hid rosis</w>
heav y</w>
haemat ocrit</w>
h es
glyco sides</w>
ga ve</w>
g ynaec
fall s</w>
ex in</w>
et ate</w>
en ical</w>
emo tional</w>
ele ments</w>
dop aminergic</w>
dil tiazem</w>
dic lofenac</w>
del ivers</w>
d ness</w>
consist ency</w>
cal ici
breath lessness</w>
b .
ate x</w>
arter io
are ly</w>
aggres sion</w>
aggrav ated</w>
after wards</w>
Un der</w>
Targre tin</w>
TH RO
TESLAS CAN</w>
S un
S tra
S N
Rom ania</w>
Revas c</w>
Pse udom
O B
N U
N NRTIs</w>
Multi ple</w>
M r</w>
LI M</w>
I ONS</w>
HB s
Gro wth</w>
Fol low</w>
Con current</w>
Comple te</w>
CON CLUS
Ber kshire</w>
B lack</w>
B al
B -2
Av ail
Ar co
4 07</w>
36 3</w>
2 11</w>
1. 73</w>
0 91</w>
0 41</w>
ί α</w>
vi ous</w>
urg ent</w>
ulcer ative</w>
tr yp
tor s
th ings</w>
te l</w>
str ati
st ones</w>
si fication</w>
ren in-
quinol one</w>
pharmaceutic als</w>
paralle l</w>
pand rix</w>
over is</w>
out put</w>
orr ho
on y</w>
ob ut
no re
na ire</w>
micro- organisms</w>
medic ally</w>
medet om
mark edly</w>
log ist</w>
k illed</w>
justi fies</w>
it- risk</w>
ison orm</w>
investig ate</w>
hypom ag
half- lives</w>
h emo
glucocortico ids</w>
glob al</w>
g er
fos aprepitant</w>
fluore sc
en atide</w>
eff or
e -</w>
dynam ics</w>
disp lac
cyto genetic</w>
cular isation</w>
cox il</w>
cortis one</w>
consi ders</w>
cl om
cl adribine</w>
cc i</w>
bro mide</w>
benef it-risk</w>
az ard</w>
ar ticular</w>
ang i
amoxic illin</w>
alu tamide</w>
ail y</w>
a- like</w>
X enical</w>
Vit amin</w>
Up on</w>
Tro coxil</w>
Sit agliptin</w>
S ANO
RE SPON
Prop ylene</w>
Pre pandrix</w>
P erg
Oper ations</w>
OH SS</w>
N el
MR F
MRF G</w>
MI X
M at
Lab elling</w>
L isonorm</w>
Inj ections</w>
Inj ecting</w>
Im pa
Haemato logical</w>
H ist
H azard</w>
H PV
G es
G ab
F oc
Em tricitabine</w>
E vo
E T</w>
D ex
D aily</w>
Cy R</w>
Al f
Ag -
AME ND
A de
7. 6</w>
5 00
4 06</w>
3 x
3 10</w>
28 00</w>
19 4</w>
17 7</w>
1, 500</w>
1 4.
- containing</w>
- associated</w>
vis its</w>
vari ant</w>
var ying</w>
un consciousness</w>
tur ning</w>
trav el</w>
toc ida</w>
ther mia</w>
th em
tac resol</w>
syndro mes</w>
supple mentation</w>
sub -
sor afenib</w>
so f
sh el
se ts</w>
rac -
prepar ing</w>
predic tive</w>
poten ce</w>
post p
ple -dose</w>
plac enta</w>
physi ological</w>
per f
peg filgrastim</w>
p .
ono setron</w>
once- daily</w>
ob ic</w>
o genic</w>
n as
mul tocida</w>
mel an
me tacresol</w>
magn itude</w>
magglut in
ma ize</w>
li min
leuk openia</w>
l l
fe e</w>
fain t</w>
extrav as
ex ceptional</w>
di e
de garelix</w>
dap tomycin</w>
consti tu
chole stasis</w>
bron chi
ati c
at tained</w>
at ch</w>
as signed</w>
am ous</w>
al li
ag e-
accel erated</w>
Sur vi
RO MUN</w>
Perg overis</w>
P- glycoprotein</w>
P sori
P om
Ne virapine</w>
Midd le
M AL
K RAS</w>
HER 2</w>
H am
D A
Co de</w>
CONCLUS IONS</w>
C lick</w>
BE ROMUN</w>
B l
Astra Zeneca</w>
Angio ten
A tt
A li
A .
28 8</w>
19 0</w>
15 8</w>
1 -</w>
0 92</w>
0 ,
- B</w>
war ts</w>
ver apamil</w>
v inc
unw anted</w>
un clear</w>
tri hydrate</w>
tri azolam</w>
tol capone</w>
ter in</w>
stop pers</w>
spot -on</w>
sol ves</w>
sens ory</w>
sal ts</w>
rix iv
rixiv an</w>
rheum atic</w>
reser vo
re tic
re present</w>
re over</w>
por phy
por ation</w>
phil ic</w>
perman ently</w>
p up
or b
om un</w>
nigh t
nes aemia</w>
ne sses</w>
ne ezing</w>
medetom idine</w>
mar ies</w>
lymph adenopathy</w>
l utropin</w>
is ch
intermedi ate</w>
inj ector</w>
ical m</w>
he res</w>
h etero
gsk .com</w>
gene ic</w>
factu red</w>
enc our
ed ness</w>
dr aft</w>
don ors</w>
da r</w>
d- up</w>
conn ection</w>
coll agen</w>
co at</w>
cl ast
c -
asi c</w>
ani dulafungin</w>
analge sics</w>
am ber</w>
ag am
aff in</w>
accur ate</w>
a im</w>
Val sartan</w>
T SH</w>
Survi val</w>
Sum maries</w>
Sh ire</w>
Scal e</w>
S ure
Rif ampicin</w>
Reconsti tution</w>
R arely</w>
Pro phyl
PT T</w>
P ub
Middle sex</w>
M or
L ansoprazole</w>
H CV
Fin ancial</w>
F our</w>
Doc ument</w>
Clom icalm</w>
C rixivan</w>
C ough</w>
C entr
Buc ure
Ber omun</w>
Acc id
9. 7</w>
4 55</w>
3 98</w>
3 17</w>
0 6
0 40</w>
-C ilag</w>
yr am
yram idal</w>
y le
ur ity</w>
transfer ases</w>
te en</w>
t é</w>
sympath omime
surroun ding</w>
sp heres</w>
sh oul
sens ations</w>
sel ector</w>
satisfac tory</w>
rot ated</w>
ron ucle
ro utes</w>
ri bo
rhinotrache itis</w>
re bound</w>
prop yl
proce dural</w>
ple ural</w>
pim ecrolimus</w>
par ty</w>
p ass
ox one</w>
oste onecrosis</w>
norm alisation</w>
no des</w>
nitr ates</w>
myelo suppression</w>
molec ule</w>
methyl naltrexone</w>
m ask</w>
lea ve</w>
last ed</w>
lam y
lac ta
ith in</w>
investig ations</w>
inhibit ed</w>
hol m</w>
high -dose</w>
h istidine</w>
g ous</w>
er r
eosino philia</w>
embryo -
ec ithin</w>
dis se
del ta</w>
decompen sation</w>
comp an
compan ies</w>
com ing</w>
cl usive</w>
ci o</w>
cha ired</w>
ch en</w>
c ination</w>
an terior</w>
am p</w>
a PTT</w>
VAS OVIST</w>
T ele
Simil arly</w>
Rati opharm</w>
Pre ss</w>
O G</w>
Ne vertheless</w>
MA Hs</w>
Loc al</w>
Janssen -Cilag</w>
IL P</w>
I so
HEX A
HEXA VAC</w>
H amp
Giv en</w>
Gel atin</w>
GI VEN</w>
F orm</w>
F orm
Evo haler</w>
EN -
EE A</w>
Dysp noea</w>
Drug s</w>
D .</w>
Cor poration</w>
Cle arance</w>
Ce phal
CT C</w>
Bac k</w>
A b</w>
99 m
8 4
50 ,000</w>
4- 91</w>
4 25</w>
3. 75</w>
3 41</w>
3 37</w>
3 16</w>
16 3</w>
1 g</w>
Č eská</w>
z ed</w>
wa x</w>
ur inol</w>
ti se</w>
te plase</w>
sulf on
sub set</w>
su n</w>
smo oth</w>
simul taneous</w>
ru finamide</w>
ro suvastatin</w>
retino pathy</w>
re tar
re started</w>
r iluzole</w>
push- button</w>
progres sion-free</w>
post ural</w>
poly saccharide</w>
pl ast
peri dol</w>
pali vizumab</w>
over load</w>
non- clinical</w>
ne bu
n em
modi fying</w>
modi fy</w>
manu factured</w>
lop urinol</w>
limin ary</w>
lam ed</w>
kine tics</w>
instruc tion</w>
ill nesses</w>
hyper triglycer
hae magglutin
gly c
gl um
fin alised</w>
exhib its</w>
evalu ating</w>
estim ates</w>
ep ist
enter o
enlar ged</w>
embry onal</w>
em bossed</w>
drug -
dis h</w>
dimini shed</w>
dex tro
depend ence</w>
defer iprone</w>
dar ifenacin</w>
dang erous</w>
da y
comfor table</w>
ci pation</w>
ce ption</w>
cast or</w>
carb on</w>
c k</w>
azo done</w>
autom atic</w>
as per
ar yl</w>
anthrac ycline</w>
ado ption</w>
a id</w>
WIN THRO
WINTHRO P</w>
W ell
Vol ume</w>
Vi en
V II</w>
U .</w>
San té</w>
SPECI AL</w>
Repor ts</w>
Post- marketing</w>
Pack aging</w>
PO W
OTH ER</w>
O ut
NY HA</w>
K ent</w>
J e
HPV -
HO LD</w>
HBs Ag</w>
HBe Ag-
Flu shing</w>
Du o</w>
Cephal on</w>
C at
B- 10
Ab out</w>
A tor
A ge</w>
2C 9</w>
0 9
........ ....
yn in</w>
yellow ish</w>
uste kinumab</w>
ure ly</w>
und bec
undbec k</w>
um es</w>
u k</w>
trac e</w>
tra uma</w>
tiv al</w>
tin nitus</w>
thrombocyto penic</w>
the ore
t emo
sh ellac</w>
seri ousness</w>
se -</w>
scri ption</w>
sch em
ro l</w>
re teplase</w>
re presents</w>
re pa
py ri
prophyl actic</w>
pro genit
progenit or</w>
pri dil</w>
potenti ate</w>
posi tions</w>
per mitted</w>
pel vic</w>
par affin</w>
pal ms</w>
ou th</w>
omer sal</w>
om en
new ly</w>
neu ritis</w>
nat alizumab</w>
my co
mir tazapine</w>
mic ronucle
mel atonin</w>
loc k</w>
leu kin
las ofoxifene</w>
iv losin</w>
io dine</w>
in stances</w>
in i</w>
ill ary</w>
ic es</w>
famil ial</w>
faec al</w>
exper tise</w>
exhib ited</w>
eudra .</w>
et ria</w>
epist axis</w>
ed ge</w>
disper sion</w>
d oripenem</w>
cy anide</w>
cr in</w>
coun try</w>
cop y</w>
contra- indicated</w>
classi fication</w>
cl onic</w>
ce tirizine</w>
but ynin</w>
ax entan</w>
at ation</w>
asi rox</w>
andem rix</w>
analge sia</w>
ad reno
Y S</w>
With dra
Velo sulin</w>
V O
T H</w>
Stock holm</w>
Sto crin</w>
Som atropin</w>
Sm all</w>
Resist ance</w>
Repe at</w>
R iv
Pr uritus</w>
P y
P andemrix</w>
Oxy globin</w>
O Ü</w>
N MS</w>
My algia</w>
Mo reover</w>
Mal ign
MAO Is</w>
LE S</w>
L undbeck</w>
L T
I G
I B</w>
Guid elines</w>
Foc etria</w>
Con ven
Comp on
C lar
C ard</w>
Br on
Be h
B ra
B a
Ator vastatin</w>
Ap ply</w>
Am gen</w>
Acl ar</w>
8 2
8 00
4 32</w>
4 11</w>
3 30</w>
24- hour</w>
2 24</w>
14 1</w>
00 .00</w>
0. 02</w>
0 37</w>
z y
ye arly</w>
y t
ve strant</w>
ve j</w>
vari es</w>
un detectable</w>
transpa rent</w>
tr ate</w>
tal king</w>
tab ility</w>
super ficial</w>
sulf ase</w>
su nit
squ amous</w>
smo kers</w>
see ing</w>
se ems</w>
rup t</w>
reservo ir</w>
rel ate</w>
raz ox
razox ane</w>
rac- tic</w>
punc ture</w>
pub lishing</w>
perc enti
pan itumumab</w>
p pm</w>
os sification</w>
opal escent</w>
on az
om yc
no ver</w>
mo de</w>
milli grams</w>
me to
long er
lipa se</w>
laur il
it ant</w>
ine di
id inedi
hydrox ocobalamin</w>
haem olysis</w>
h exa</w>
gil losis</w>
feren ces</w>
fac es</w>
extrem ity</w>
extravas ation</w>
ex pression</w>
evalu ations</w>
eti ology</w>
erv escent</w>
er up
embry o</w>
disor i
control ling</w>
cl umps</w>
child- resistant</w>
b us</w>
attribu table</w>
assist ed</w>
asper gillosis</w>
ang u
amus cular</w>
alter ation</w>
alo gue</w>
ad ane</w>
a .</w>
X XX</w>
WI THO
WITHO UT</w>
Vi ro
TT P</w>
Sure Click</w>
Sil denafil</w>
SS RIs</w>
S anofi-
R ou
P rac-tic</w>
Organ on</w>
Intr amuscular</w>
Ig E</w>
I OP</w>
Har mon
Glu co
G R-
Elec tro
E mail</w>
E GFR</w>
Di sp
D s</w>
D raw</w>
D ig
Cyst adane</w>
Cro scarmellose</w>
Concer ned</w>
Cefuro xi
CH OP</w>
C hi
C ats</w>
C A
BLISTE RED</w>
Angioten sin</w>
Ab Z</w>
A ivlosin</w>
7 9
7 0-
5 9
16 9</w>
16 4</w>
13 9</w>
0 42</w>
0 38</w>
µ mol</w>
ylobac tell</w>
with held</w>
w rap
vol umes</w>
u litis</w>
top ic</w>
t 1</w>
sunit inib</w>
stu ff
struc tion</w>
sti ri
stiri pentol</w>
stat ement</w>
spir onolactone</w>
shoul der</w>
sensi tis
s neezing</w>
ro curon
ring ing</w>
refl ected</w>
reconsti tute</w>
prolifer ation</w>
pro spective</w>
post- operative</w>
op rine</w>
on co
om eth
o sis</w>
nal oxone</w>
meth ic
mat rix</w>
ma res</w>
lop ecia</w>
lip ids</w>
lik eli
likeli hood</w>
justi fied</w>
ir ino
initi ate</w>
ic ul
i as</w>
fet al</w>
ex ist</w>
el ux</w>
ec t
decompen s
d- type</w>
d le</w>
d ation</w>
comp assi
co hort</w>
ch y
ch omotor</w>
ch ann
chann els</w>
cauti ously</w>
bre eds</w>
b last</w>
ar tificial</w>
ap p</w>
ane se</w>
an dro
am ins</w>
allerg ies</w>
adhe sive</w>
acti on
ab err
Ter fenadine</w>
STR ONG
STRONG HOLD</w>
ST REN
STREN G
SI ON</w>
Re qu
Ra dio
Ques tions</w>
Pre- filled</w>
P ylobactell</w>
P ag
P LI
Ne opharma</w>
Ne ed</w>
Mo der
Me ta
Maxim um</w>
M emb
I b</w>
Hep at
H ard</w>
H T</w>
Guid eline</w>
G é
G I</w>
FOR M</w>
F I</w>
E4 64</w>
E ven</w>
Cy to
CM V</w>
CI LE</w>
C our
Ben elux</w>
Ath ens</w>
All erg
Ad en
Ac tivity</w>
AR Y</w>
7. 3</w>
4 70</w>
4 56</w>
4 18</w>
4 08</w>
37 6</w>
28 7</w>
2 22</w>
16 -
13 C-
1 A</w>
1 45</w>
.Ε .</w>
- B
Т ел</w>
wip e</w>
w ich</w>
w i
w ent</w>
vi rion</w>
v in
unc er
u ania</w>
tric yclic</w>
toxic ation</w>
tend on</w>
ta p</w>
stand ards</w>
sl ava</w>
scre ening</w>
s. r
s so
restric tions</w>
reg ulations</w>
re sc
re aches</w>
rati slava</w>
ran el
pro l
phosphat aemia</w>
pa in
orm s</w>
or ph
or ly</w>
oph aryngitis</w>
op itant</w>
om as
oesopha gus</w>
molec ules</w>
med info</w>
man age</w>
lympho id</w>
le ar
jud ged</w>
inf lamed</w>
ic ase</w>
i. e.</w>
he ar
h ou
h om
g one</w>
erythem ato
enhanc ement</w>
el ig
dyspl astic</w>
dist en
dispos ing</w>
di basic</w>
de generation</w>
cr ush</w>
conven i
continu ously</w>
co administration</w>
clo thing</w>
chromo some</w>
cardi omyopathy</w>
c m2</w>
c ino
bur icase</w>
buil d-up</w>
bro ught</w>
breast -</w>
bre eding</w>
beta-1 b</w>
be pridil</w>
appro x</w>
anti- epileptic</w>
al ise</w>
al de
agl u</w>
accur ately</w>
ac eta
W he
W A
TRAC TO
TRACTO CILE</w>
SYRING ES</w>
S ud
S po
Rou te</w>
Rel ative</w>
RC P</w>
Pag et</w>
PO UL
PER F</w>
P L</w>
P C</w>
NS CLC</w>
N NRTI</w>
Men C</w>
Lith uania</w>
L yophil
L e</w>
Im pro
I de
Harmon isation</w>
HCV -
HCV- RNA</w>
H ik
Gly cer
G ood</w>
Frank fur
FIN -
F em
F arma</w>
Edif í
E4 21</w>
D erm
Con vul
Compon ent</w>
Compet ent</w>
Carb aglu</w>
Car trid
C ir
C C</w>
Bio technology</w>
B ratislava</w>
B ou
Avail able</w>
Am er
Al con</w>
Admini ster</w>
Acti vities</w>
AV AG
AVAG LIM</w>
A t
A rea</w>
A lopecia</w>
A lim
6. 9</w>
5 40</w>
40 9</w>
3 116</w>
2 67</w>
100 .
1 49</w>
1 17</w>
. V.</w>
- based</w>
wil d-type</w>
wh y</w>
vi som
visom ant</w>
val ent</w>
vaccine es</w>
v axyn</w>
und red</w>
u tili
top ics</w>
ten sive</w>
ta pam
tapam ulin</w>
substi tutes</w>
sti tis</w>
spo o</w>
sp ar
so ya</w>
ser ved</w>
sec ond
seas on</w>
sal mon</w>
s v
rocuron ium</w>
rin se</w>
ran k</w>
quanti ties</w>
pol yo
pneum ococcal</w>
placebo -</w>
plac ental</w>
pig lets</w>
persist s</w>
per ative</w>
pep tic</w>
path ies</w>
onid azole</w>
one ph
ol gus</w>
obe sity</w>
nut ri
muta genicity</w>
macro lide</w>
ma -
lox ac
lowe red</w>
lop ia</w>
light- head
lac tase</w>
l d</w>
iv ac</w>
invol ve</w>
intran asal</w>
inter leukin
inf er
indic ator</w>
incorpor ation</w>
in toxication</w>
impro ves</w>
immun omodul
ic ks</w>
hy de</w>
h undred</w>
h en
go t</w>
gluco samine</w>
gener ated</w>
for ce</w>
foet uses</w>
fluctu ations</w>
flu voxamine</w>
et ting</w>
electro cardiogram</w>
ed ings</w>
e po
dig ital</w>
dec entralised</w>
consist ently</w>
conjunc tival</w>
comprim idos</w>
co ws</w>
cat aly
bu ccal</w>
bor ns</w>
belong ing</w>
avi an</w>
athi oprine</w>
anti- HBs</w>
angi oneurotic</w>
al er
adv anta
ac etic</w>
X- ray</w>
Usu ally</w>
Th ir
TN F-
T em
T AL</w>
St ar
Shel f</w>
SA S</w>
Re st
Re fer
Pseudom onas</w>
P BP
OP HAR
Nob ivac</w>
Ne t</w>
N ever</w>
Me loxicam</w>
MA D
M 18
In somnia</w>
IC 50</w>
Hik ma</w>
Edifí cio</w>
E spoo</w>
Dis infect</w>
Direc t</w>
DK -
Caucasi an</w>
Car do
Car cino
B 12</w>
Applic ations</w>
Ano rexia</w>
Am lodipine</w>
Alco hol</w>
Al ert</w>
AM L</w>
A -1
7 8
4 5-
3 32</w>
3 23</w>
2- 4</w>
2 55</w>
15 0
0. 50</w>
-- -</w>
z onisamide</w>
yl in
wom b</w>
w n
um s</w>
tur nover</w>
transfer red</w>
tor ily</w>
surge on</w>
sur able</w>
su m</w>
sero type</w>
sen se</w>
sche dules</w>
refriger ated</w>
recommend ing</w>
re x
psycho tic</w>
postp oned</w>
pe eling</w>
parathyro idism</w>
p ups</w>
oxid ative</w>
oestro gens</w>
non- small</w>
n ateglinide</w>
mit ting</w>
micronucle us</w>
me thionine</w>
local ised</w>
laun ch</w>
kno b</w>
it y-
ine -treated</w>
indi go</w>
in her
inher ited</w>
im pression</w>
im potence</w>
hallu cination</w>
g ate</w>
fr ont</w>
follic les</w>
fluoro quinolones</w>
fav our</w>
evalu able</w>
epith elial</w>
eg g</w>
effici ent</w>
ed etate</w>
dispen sed</w>
dic ated</w>
cr ying</w>
correc tion</w>
cor relation</w>
concentr ation-
con striction</w>
com position</w>
coll ect</w>
col lab
char co
cal ibr
but toc
bo termin</w>
beli ev
behavi ours</w>
b ul
az athioprine</w>
an ying</w>
all y-
alde hyde</w>
agal sidase</w>
aceta mol</w>
accomp anying</w>
abs ent</w>
ab les</w>
a res</w>
Wil son</w>
W BC</w>
VEN TED</w>
To po
T U
Sus tiva</w>
RESPON SIBLE</w>
R ob
R ig
P reg
O s
Mon th</w>
Me a
MR P</w>
M IT
Ly on</w>
Lansoprazol- ratiopharm</w>
LI ST</w>
L ight</w>
L en
IN VENTED</w>
IN F
Hex av
H i
Con sum
Cardo reg</w>
C CID
B ul
B MI</w>
Accid ental</w>
A 77
A77 17
A7717 26</w>
6 6
6 50</w>
3 45</w>
3 18</w>
28 -
20 9</w>
2 6-
2 49</w>
2 17</w>
1 400</w>
0 51</w>
0 3
- mediated</w>
z e</w>
wid ely</w>
un affected</w>
um -</w>
thiaz ol
ten ing</w>
ten ecteplase</w>
tech ne
te eth</w>
tablet ter</w>
table tt
t- to-
sw ir
success fully</w>
substi tutions</w>
su red</w>
smo ke</w>
sh ar
se vel
schem e</w>
satisfac torily</w>
requ enza</w>
represent ing</w>
quar ter</w>
psycho sis</w>
prote in-
propos als</w>
prin ci
post- dose</w>
po x</w>
pal onosetron</w>
p es
ob ia</w>
o plastic</w>
o .o.</w>
ni lotinib</w>
nephro pathy</w>
mid dle</w>
metr onidazole</w>
lauril sulfate</w>
j er
ist a</w>
infiltr ates</w>
indic ative</w>
im balance</w>
hyper uric
hyper hidrosis</w>
hyp onatraemia</w>
hou se
haemagglutin in</w>
gro w</w>
gr af
gat an</w>
g ing</w>
fol ic</w>
fibr in</w>
extrem ely</w>
exfoli ative</w>
ex enatide</w>
es z
en tered</w>
emplo yed</w>
e sis</w>
desi cc
del ays</w>
decompens ated</w>
concentr ated</w>
che w</w>
charco al</w>
caution ary</w>
carri er</w>
bro ad</w>
bilirub inaemia</w>
bat tery</w>
b usiness</w>
att ach</w>
ati b
ar thro
ar ising</w>
any thing</w>
amne sia</w>
al lopurinol</w>
a ther
VE F</w>
UR ING</w>
Shel f-life</w>
Sev o
SU B
S R
Repe ated</w>
R CP
QU IB
Pro t
PRE SEN
P requenza</w>
P G
O me
Moder ate</w>
MANUFACT URING</w>
MAL OG</w>
MAD INE</w>
Lo ss</w>
L actic</w>
L VEF</w>
Immedi ately</w>
Imm un
Hod g
Hexav ac</w>
Hamp shire</w>
HU MALOG</w>
H u
Frankfur t</w>
F ail
F 4
Ex ub
Ery th
ENTI S</w>
E4 20</w>
E MADINE</w>
E 5
E 218</w>
E 1</w>
Dar unavir</w>
Cir co
C rest
Bio gen</w>
BI O
B-1 180</w>
B ur
A le
9. 1</w>
5 50</w>
5 3
4 8-
4 01</w>
3 13</w>
2 97</w>
2 92</w>
2 35</w>
2 23</w>
2 ,000</w>
18 9</w>
17 9</w>
17 3</w>
15 9</w>
14 C-
0. 12</w>
0 55</w>
. org</w>
vit amins</w>
ul t</w>
trig ger</w>
thiazol idinedi
t s
t ary</w>
sel ves</w>
rupt ure</w>
ro l
repa ir</w>
ren ally</w>
re- evaluated</w>
re ven
ra me
r al</w>
pu shing</w>
post- authorisation</w>
po orly</w>
plas ms</w>
pl at
ph er
p ill</w>
p ancytopenia</w>
oc or
noti fied</w>
neuro toxin</w>
nau ba</w>
mar gin</w>
mam mary</w>
lipo protein</w>
integr ated</w>
inser tion</w>
ine oplastic</w>
indo pril</w>
in -</w>
il le</w>
hypomag nesaemia</w>
histo logical</w>
halo peridol</w>
haemato logic</w>
fol ate</w>
f ine</w>
erythemato sus</w>
en ever</w>
eme sis</w>
e ae</w>
disten sion</w>
disori entation</w>
desir udin</w>
deleg ates</w>
del toid</w>
degrad ation</w>
d .
consi sted</w>
compassi onate</w>
comm ittee</w>
comm enc
cha irman</w>
certific ates</w>
cap su
c o</w>
bri dge</w>
brea ks</w>
bat ches</w>
b. i.
atib ant</w>
at az</w>
aracteris tic</w>
ane ous</w>
aggres sive</w>
actu al</w>
Well come</w>
T or
Sta ff</w>
Spo t-
SU PP
STO L-
STOL- MY
STOL-MY ERS</w>
S and
S QUIB
SQUIB B</w>
Reconsti tute</w>
Re duced</w>
Pre cautions</w>
Pom pe</w>
Plate let</w>
Myco plasma</w>
MULTI PACKS</w>
Lo o
Lansoprazol- CT</w>
L 01
L -2
In hal
Ide c</w>
IN TAN
I F</w>
Haem orrha
HD L-C</w>
Gram- negative</w>
Farmac eutic
F el
E E</w>
Dr .</w>
DI S
Con sul
Con di
Cel lulose</w>
CO PD</w>
C AB
Bac ter
B V
B T
AP PLI
8 ,000</w>
7 000</w>
5 4
4 60</w>
2 D6</w>
2 93</w>
1 st</w>
0 2-
yr in
yl val
ylval osin</w>
y ness</w>
wit ching</w>
w ind</w>
v ine</w>
uter us</w>
un g</w>
ug in
u clear</w>
tur keys</w>
tr amine</w>
tis inone</w>
ti cles</w>
thre sh
them selves</w>
soci al</w>
sist ent</w>
sh are</w>
ro ben
roben acoxib</w>
resusp ending</w>
res thesia</w>
re vas
re after</w>
ranel ate</w>
r ules</w>
pre vented</w>
pre otide</w>
pre cautionary</w>
plic ations</w>
parti ally</w>
par kin
pack aged</w>
pa id</w>
ophthal mo
new borns</w>
n .</w>
multi ple-dose</w>
melan oma</w>
log ies</w>
lis er</w>
lin er</w>
le m</w>
l angu
jud gement</w>
it real</w>
ir respective</w>
io sis</w>
invol ves</w>
inver ted</w>
inten se</w>
in emia</w>
il at</w>
i le
hyper lipidaemia</w>
haemo stasis</w>
haemat uria</w>
glycol ate</w>
gest rel</w>
flu shed</w>
fl are</w>
fif th</w>
fi able</w>
f itted</w>
exhib it</w>
endoth elial</w>
em ed</w>
dist ance</w>
dil ute</w>
di vi
dec i
cyste amine</w>
cy nom
consider able</w>
competi tive</w>
clast ogenic</w>
chol ine</w>
chem ically</w>
c ylin
buil d</w>
break fast</w>
ben ser
bac king</w>
arr ang
ar row</w>
approxim ate</w>
applic ator</w>
ap s</w>
ap noea</w>
ap lastic</w>
ag omelatine</w>
ad hes
accoun ted</w>
W o</w>
UG T
TO X</w>
T ol
T ON
Sud den</w>
Spot- on</w>
S ul
Rey ataz</w>
Reconsti tuted</w>
RCP Ch</w>
R G</w>
Perc ent</w>
O ME
N L</w>
Met formin</w>
M any</w>
Laborato ires</w>
K ORAL</w>
HD L</w>
Ex cretion</w>
E 216</w>
DU KORAL</w>
D VT</w>
CO ATED</w>
Br ü
BRI STOL-MYERS</w>
BO TOX</w>
B WP</w>
Anaphy lactic</w>
5 80</w>
3- 5</w>
28 3</w>
27 1</w>
2 57</w>
2 0.
19 8</w>
19 1</w>
0 76</w>
0 63</w>
о ф
z ing</w>
yrin th</w>
was h
tub ing</w>
trav oprost</w>
tan ib</w>
susp ic
su ffered</w>
single- use</w>
sequ el
se tt
risk- benefit</w>
reven ue</w>
retar dation</w>
rel in</w>
reg ul
prom pt</w>
pro to
pl ay</w>
pl ain</w>
phenyl butyrate</w>
phen omen
ph rine</w>
parti cipation</w>
para si
par acetamol</w>
narro wing</w>
mea surable</w>
me try</w>
max etil</w>
mal e
m urine</w>
lev ard</w>
las er</w>
l itre</w>
ke eping</w>
ist ing</w>
irino tecan</w>
inter ference</w>
initi ative</w>
ing les</w>
immunosuppres sants</w>
immuno compromised</w>
if rol</w>
i e
guid ed</w>
gastro- intestinal</w>
fo aming</w>
f ü
f rame
exce eds</w>
examin ations</w>
eth ing</w>
eth in
emb olic</w>
el ium</w>
el ected</w>
el ast
ef alizumab</w>
dr yness</w>
det ella</w>
der ma</w>
cynom olgus</w>
cy c
cri tical</w>
conjug ation</w>
confirm ation</w>
com posed</w>
coll ection</w>
circ ulatory</w>
cephalo spor
ce sta</w>
bre aking</w>
ber g</w>
b.i. d.</w>
b imatoprost</w>
ap tanib</w>
anti cholinergic</w>
anthrac yclines</w>
ank les</w>
am en
alkalo ids</w>
agam ma</w>
adver sely</w>
administr ations</w>
Vir acept</w>
V oriconazole</w>
V eterin
Su stained</w>
Sac char
SI -
S ifrol</w>
S an</w>
Prote us</w>
Prof essi
PRO LO
PROLO G</w>
NE ED
Laborato ire</w>
LI PROLOG</w>
L app</w>
Indi vidu
Im plan
INJ ECT</w>
Hodg kin</w>
HU MAN</w>
Gu ill
Gram- positive</w>
Gab apentin</w>
Flu oxetine</w>
Fail ure</w>
F T</w>
Eryth ema</w>
E stonia</w>
Di agno
DOS E</w>
D ER</w>
Crest or</w>
Cr Cl</w>
Contro lled</w>
Com pared</w>
CH O</w>
C he
C AM
Bor detella</w>
Asp erg
AM POUL
36 4</w>
2C 19</w>
2 69</w>
18 6</w>
10. 96</w>
1 mg</w>
- P
zol omide</w>
w orms</w>
visc eral</w>
ve- controlled</w>
vari ed</w>
vacc inate</w>
usi onal</w>
us ly</w>
un bound</w>
ugin osa</w>
u lop
tetrac yclines</w>
tel ion</w>
ta il</w>
system ically</w>
susp ended</w>
superi ority</w>
stri dium</w>
sto perative</w>
st y
som ething</w>
si t</w>
si or</w>
sequel ae</w>
separ ated</w>
retro viral</w>
resc ue</w>
prol actin</w>
poly amide</w>
po sure</w>
pi g</w>
ph ases</w>
our ing</w>
op tion</w>
op i
ol i
ob asic</w>
o o
nem ulin</w>
nebu liser</w>
myelo dysplastic</w>
my asthenia</w>
mis sions</w>
mark er</w>
m .</w>
lymphocy te</w>
loc ated</w>
li sts</w>
j esz
jesz ky</w>
j ade</w>
is ons</w>
inf or
in sic</w>
immunosuppres sant</w>
ill om
hydrox y-
gam ma</w>
form ula</w>
ed- dose</w>
dys lipidaemia</w>
duct us</w>
dihydro ergotamine</w>
di floxacin</w>
defini tion</w>
de ad
cou mar
cor related</w>
contr actions</w>
cont acts</w>
consider ations</w>
co xib</w>
carbo platin</w>
bud getary</w>
benser azide</w>
ar lem</w>
ar a</w>
ar a-
ar -
antihist amine</w>
anti- cancer</w>
am ectin</w>
ag encies</w>
aer uginosa</w>
administr ative</w>
abor tion</w>
ab rupt</w>
Withdra wal</w>
Wee ks</w>
W AR
Tri al</w>
Tox icity</w>
TO TAL</w>
T um
T all
St .</w>
SUB STAN
S low
RIL ACT
RILACT ONE</w>
R I</w>
Per son
Pan cre
P RILACTONE</w>
P OR
P CV
On sior</w>
N ime
M s</w>
M ax
Lyophil isate</w>
L ane</w>
Je an-
Inf ants</w>
Industri e
In dex</w>
INTER MEDIATE</w>
Ha arlem</w>
H 2</w>
G a
FIR M
F A</w>
Exub era</w>
Ex jade</w>
E- 01</w>
Dysp epsia</w>
Dox agamma</w>
D 2</w>
Continu e</w>
Consum er</w>
Con f
Chil d</w>
CL cr</w>
CCID 50</w>
Beh ring</w>
Au jeszky</w>
Ac telion</w>
AC TIVE</w>
AC E-
9. 9</w>
5 ,000</w>
3 44</w>
3 07</w>
3 ,000</w>
2 51</w>
2 48</w>
16 5</w>
12- week</w>
С оф
Λ ε
zy gous</w>
z a</w>
vir us
vigoro usly</w>
u ril</w>
tri c</w>
treatment- experienced</w>
to rem
torem ifene</w>
tion .</w>
tar gets</w>
suppres sive</w>
substi tute</w>
stri ps</w>
st ay</w>
sso ver</w>
squ e
spe ak</w>
si ella</w>
s sel</w>
s ent</w>
rout in
routin ely</w>
respon der</w>
recru itment</w>
rani tidine</w>
pri ority</w>
po e
pig ment</w>
pa d</w>
optim ised</w>
omyc es</w>
om alizumab</w>
oc clusive</w>
ob iliary</w>
neuro transmit
male ate</w>
lu x</w>
leb siella</w>
lar yn
lar g
larg ely</w>
l ecithin</w>
kill ing</w>
it ems</w>
issu ed</w>
inter -
individu alised</w>
in nov
illom avir
hyper glycaemic</w>
hyper aemia</w>
hydrox y</w>
high- risk</w>
group ing</w>
gli oma</w>
g anc
fü r</w>
ful vestrant</w>
for ward</w>
film -</w>
fibr inogen</w>
f ri
expres sing</w>
exclud ing</w>
ex cipient</w>
end or
en sures</w>
emerg ent</w>
distur bed</w>
desc ription</w>
dem yel
de stro
de preotide</w>
cyc lic</w>
cy sts</w>
consequ ently</w>
co tt
clom ipramine</w>
chromo somal</w>
ch rom
ch ond
carcin omas</w>
c etro
bec ame</w>
awa ited</w>
ari se</w>
ap ath
an k</w>
an .</w>
am it
aff airs</w>
ad ol
Vir al</w>
Vil ni
V is
T- cell</w>
Som n
Slow ly</w>
Sh e</w>
Se izures</w>
Sand wich</w>
RS V</w>
Qu ick
Prof .</w>
Proce dures</w>
Person nel</w>
Par ties</w>
P ig
P aste</w>
N one</w>
N A
MA O</w>
M i
Lop inavir</w>
K lebsiella</w>
Insti tute</w>
I sol
H D</w>
Glycer ol</w>
Gener ics</w>
Gener alised</w>
G rap
G RA
Flu id</w>
Ex cipient</w>
ES RD</w>
EN- Final</w>
E state</w>
D ro
D es
Consider ation</w>
Concentr ate</w>
Cefuroxi maxetil</w>
Car dboard</w>
CS L</w>
CO R
C u
C .
Asperg illus</w>
Ab solute</w>
AMEND MENT</w>
AL A</w>
A 10
6 00
4 84</w>
4 14</w>
33 50</w>
2 nd</w>
2 64</w>
15 4</w>
13 8</w>
10. 0</w>
1. 75</w>
01- EN-Final</w>
0.5 ml</w>
0. 65</w>
- dispersible</w>
Соф ия</w>
ι κ
x es</w>
wa ve</w>
w arm
ur onium</w>
unc ture</w>
troph ic</w>
triglycer ide</w>
tol u
thromb olytic</w>
ter min
tele phone</w>
t y
sun set</w>
sulphonylu reas</w>
stand ar
son ian</w>
so ws</w>
sign als</w>
si as</w>
shi eld</w>
serot on
sampl ing</w>
s h</w>
rati os</w>
ra ise</w>
question naire</w>
pro lol</w>
pro gam
progam me</w>
pres su
pre x</w>
pre hen
pr e</w>
post s</w>
po stoperative</w>
pharmaco logically</w>
or ities</w>
o ve
multic enter</w>
mi lest
metho do
mat ters</w>
m us</w>
m or</w>
m itr
lo x</w>
licen sed</w>
l ax
l ative</w>
inj ec
in et
hyper parathyroidism</w>
house hold</w>
gsk .</w>
great ly</w>
grav is</w>
gonadotroph in</w>
g ums</w>
f ish</w>
equ ally</w>
ent y</w>
en suring</w>
en dar</w>
embryo- foetal</w>
elig ible</w>
el ective</w>
eff lux</w>
echo cardio
discus sions</w>
dis coloured</w>
diaz epam</w>
di botermin</w>
dex medetomidine</w>
desicc ant</w>
demonstr ating</w>
demon stration</w>
control l
con ference</w>
clud e</w>
cap able</w>
bur g</w>
bio transformation</w>
be ats</w>
bar rel</w>
b ling</w>
az uril</w>
av el</w>
attem pts</w>
atic s</w>
at eno
ar act</w>
anti thrombotic</w>
anti arrhyth
acti ve-controlled</w>
acc ounts</w>
absc ess</w>
Up date</w>
Tre mor</w>
Somn olence</w>
SE L
Re -
RE SI
R O</w>
Poten tial</w>
Pneum onia</w>
Pharmaco poe
Par ticular</w>
OPHAR MA</w>
OB T</w>
O T</w>
O RO
NE OPHARMA</w>
M ari
Lor atadine</w>
Latvi j
L A</w>
Implan on</w>
INTAN ZA</w>
I s
I G</w>
Haemo globin</w>
H 4</w>
Fab ry</w>
FIRM AGON</w>
Cre atinine</w>
Contro l</w>
Co administration</w>
Clo stridium</w>
Ch lamy
C Z
Ber lin</w>
B ic
B SA</w>
Att ach</w>
AG E</w>
A ff
9. 8</w>
9. 2</w>
8 ,
69 007</w>
35 5</w>
3 83</w>
3 25</w>
3 22</w>
27 7</w>
200 0-
20 ,000</w>
19 9</w>
- 10
µ l</w>
z ista</w>
yl ine</w>
y ment</w>
y co
utro l</w>
uncer tain</w>
un tary</w>
ti d</w>
thick ness</w>
term ination</w>
te ar</w>
sur faces</w>
supple mentary</w>
sulphon amides</w>
sp ac
sit axentan</w>
sick le</w>
se tamide</w>
se men</w>
s ors</w>
rim ation</w>
resusp ended</w>
restric tion</w>
rele asing</w>
re infor
ras buricase</w>
psy chomotor</w>
prop terin</w>
promo te</w>
preserv atives</w>
prece ding</w>
plac ement</w>
per -
pan leucopenia</w>
orr hea</w>
or ide</w>
oper ations</w>
off ice</w>
num er
non-inferi ority</w>
mon key</w>
micro somes</w>
mic s</w>
me l</w>
macro lides</w>
m ating</w>
lum ps</w>
let ters</w>
lab yrinth</w>
j ac
it inib</w>
invol untary</w>
in n</w>
in ks</w>
il ify</w>
if e</w>
id ase</w>
ic he
hypertriglycer idaemia</w>
gene ous</w>
g ol
g asse</w>
fung als</w>
frame work</w>
fr action
foet o
fle xi
fle as</w>
fi st
fem oral</w>
fe el
feel ings</w>
f igure</w>
extrap yramidal</w>
ex amine</w>
environ mental</w>
en cephal
electroly tes</w>
ele via</w>
ecti on-
dyspl a
dyspla sia</w>
discontinu ing</w>
dis c</w>
dip lopia</w>
di arr
dex razoxane</w>
det emir</w>
de emed</w>
cro ssover</w>
convul sion</w>
consol idation</w>
consi st</w>
cephalospor ins</w>
carri es</w>
bo vine</w>
blin ded</w>
bi g</w>
believ ed</w>
bacter aemia</w>
b yp
b utrol</w>
b right</w>
asi vet</w>
arterio sus</w>
apath y</w>
anticoag ulation</w>
an omal
allo geneic</w>
album inuria</w>
absc esses</w>
X elevia</w>
W at
Vilni us</w>
Ven ous</w>
V AP
VAP AN</w>
Trans fer</w>
T W
SUPP LY</w>
SN C</w>
SI Z
SA FE</w>
Re vision</w>
Re suspend</w>
R MS</w>
R AP
Prophyl axis</w>
Po st</w>
P ure</w>
P as
P -2
N et
N L-2
N ING</w>
ME T
MAR K</w>
M é
M asivet</w>
M T</w>
M R</w>
K m</w>
Inc idence</w>
IR U</w>
IP V</w>
G A
Ex per
Diab etic</w>
D P
D F
Con sta</w>
Commun ities</w>
CL L</w>
CEL VAPAN</w>
B et
B U</w>
Author ities</w>
Arco xia</w>
Ar row</w>
Ab ilify</w>
AN TI
A- 12
9N J</w>
5 -</w>
4 40</w>
36 7</w>
3 9-
3 36</w>
2 43</w>
15 mg</w>
0 43</w>
-2 8
yr amine</w>
y iel
y .</w>
vic ox</w>
ver setamide</w>
thrombocyto paenia</w>
thresh old</w>
ten d</w>
sul fa
sub type</w>
strati fied</w>
ste o</w>
spe aking</w>
sp ra
sodi um-
silic on</w>
sh am</w>
sero types</w>
sep tica</w>
selec tively</w>
s car
ret ina</w>
respon siveness</w>
q 12h</w>
pry cel</w>
propor tions</w>
proge sto
princip ally</w>
prin ting</w>
prescrib ers</w>
pre cur
pr one</w>
pharmaco dynamics</w>
percenti le</w>
pas sive</w>
p yo
p g</w>
op ing</w>
oneph ritis</w>
on el</w>
observ ations</w>
ob lig
non- fatal</w>
ni me
neph ritis</w>
mou th
mon obasic</w>
mb ling</w>
lep irudin</w>
l ability</w>
knowled ge</w>
it ec</w>
ist or</w>
ir su
intrav ascular</w>
ing ing</w>
hydro cortisone</w>
harmon ise</w>
haemorrha ges</w>
gradu ated</w>
gly cine</w>
fer ol</w>
fail ures</w>
ess ing</w>
erg on
embryo toxicity</w>
el ic
el ed</w>
ec al
ecal ci
ecalci ferol</w>
e- mail</w>
de struction</w>
d d
cytok ines</w>
co polymer</w>
co c
cl amide</w>
chy mosis</w>
chick en</w>
cetro relix</w>
c ar</w>
bronchi septica</w>
br and</w>
ble edings</w>
bil ities</w>
ben clamide</w>
beg an</w>
ateno lol</w>
arr é</w>
ar d
ar ch
allerg an.</w>
all -
al ization</w>
ab use</w>
Vi et
Vi als</w>
V ice-
Ur ticaria</w>
U V</w>
The reafter</w>
Tall inn</w>
TRE AT
TREAT MENT</w>
Sw ine</w>
Sur g
Slov ak
Sanofi- Aventis</w>
S prycel</w>
Ro siglitazone</w>
Quick let</w>
QU I
Pre vicox</w>
Pre pandemic</w>
PCV 2</w>
P ioglitazone</w>
P AN
N 1</w>
ME RI
M DD</w>
Li po
Ke y</w>
In duction</w>
IT Y</w>
INJ EC
Hor ses</w>
Her bal</w>
H yp
H un
H AN
Gem citabine</w>
G T</w>
For steo</w>
F EV
FEV 1</w>
E 2</w>
Di fficul
D é
Cle an</w>
CT 13</w>
CO ZAAR</w>
CI PRO
C CR
Brü ssel</w>
Brus sel</w>
An aly
Adju st
AV ENTIS</w>
AM D</w>
5 45</w>
4 mg</w>
3 rd</w>
3 1-
3 0.
2 04</w>
10. 2000</w>
1 0.5</w>
0 71</w>
0 65</w>
---------------------------------------------------------------- --------------------------------
- 8
v ity</w>
ut y</w>
ure th
trem ors</w>
trav elling</w>
tolu ene</w>
tab ly</w>
summar ies</w>
spi ke</w>
sk iren</w>
si fied</w>
sho p</w>
ses sions</w>
self- injection</w>
se mide</w>
s.r .o.</w>
s lower</w>
resp ir
reser ve</w>
recogn ise</w>
pu ri
propi on</w>
proc essing</w>
prim ed</w>
pres sing</w>
pre pitant</w>
pou ches</w>
po w
phospho die
pharmac y</w>
pack ages</w>
p yr
p up</w>
p tions</w>
ov alent</w>
organ ic</w>
ond an
ondan setron</w>
onaz on</w>
om atous</w>
ol ip
ol ation</w>
non- specific</w>
non- selective</w>
myelo suppressive</w>
mon ovalent</w>
micro spheres</w>
manife sted</w>
macro pha
lit ter</w>
lipo somal</w>
leuk o
lep sy</w>
l avage</w>
investig ating</w>
il ers</w>
il ance</w>
i ti
hyp no
hydroxy toluene</w>
her pes
hepato toxicity</w>
gest ational</w>
ganc iclovir</w>
g ative</w>
fraction ated</w>
flu tre
f ats</w>
experim ents</w>
erythro cytes</w>
ergon ovine</w>
en b
eme tic</w>
el ve</w>
eff ervescent</w>
e jection</w>
defer asirox</w>
de hydrated</w>
d yl
cross- resistance</w>
cr amp</w>
con vex</w>
comprim és</w>
che wed</w>
car r
blo od
bio chemical</w>
beta -2-
ba mazepine</w>
awa reness</w>
au gh
ast er
assi st</w>
asse mb
as y</w>
as hes</w>
an dr
amend ment</w>
alum inum</w>
ali platin</w>
a etiology</w>
Y ear</w>
War nings</w>
W AL</w>
Vig ilance</w>
U A</w>
TON IN</w>
TN F
Swe dish</w>
Stra ße</w>
Stal le</w>
Slovak ia</w>
Serv ices</w>
SUL IN</w>
Re si
Professi onal</w>
Post bus</w>
Pharmacopoe ia</w>
Oc casionally</w>
O vari
M18 4V</w>
Laborator ios</w>
LO G
LD H</w>
Institu t</w>
Hist ory</w>
Hep ato
Glu comed</w>
G onazon</w>
G AB
Fer ring</w>
F ree</w>
E4 60</w>
E s
E arly</w>
Di vision</w>
Dep uty</w>
DMAR Ds</w>
D- 65
D eter
D esc
Co- Rapporteur</w>
Cer tain</w>
Car bamazepine</w>
CM D</w>
Bul g
Bio transformation</w>
B ut
B SC</w>
Ali skiren</w>
Al low</w>
A prepitant</w>
9 5-
5- ALA</w>
4 75</w>
35 -
27 8</w>
24- week</w>
200 mg</w>
19 3</w>
19 -
18 1</w>
13C- urea</w>
1. 08</w>
0 47</w>
yle stradiol</w>
warr ant</w>
vi rosis</w>
ulop ap
ulopap ular</w>
tw are</w>
tri phosphate</w>
trac is</w>
to ward</w>
thiazolidinedi one</w>
temper atures</w>
te am</w>
t ender</w>
suspic ion</w>
sup press</w>
sub unit</w>
su c
stre p
sk ull</w>
shap e</w>
sel n</w>
se mi
se em</w>
s lowing</w>
ri tin</w>
rever sal</w>
rest less</w>
rele ases</w>
re -</w>
public ation</w>
pt yline</w>
pou ch</w>
phthal ate</w>
persist ence</w>
pain kill
pa ste</w>
pa resthesia</w>
oxy butynin</w>
ove rex
oste omyelitis</w>
on ised</w>
on ermin</w>
omas tia</w>
night mares</w>
nas opharyngitis</w>
mon ly</w>
mo dul
milest one</w>
me tal</w>
mar king</w>
lymph omas</w>
lu litis</w>
lab els</w>
intr insic</w>
in duration</w>
hyper tonia</w>
hyper thermia</w>
hand le</w>
h ence</w>
gam bling</w>
g um</w>
four -
ex agg
eng ine
en ic</w>
easi er</w>
dra in
consider ably</w>
compati bilities</w>
clo b
character ized</w>
capsu le-shaped</w>
calcul ate</w>
ca ine</w>
brea the</w>
bloc kage</w>
bil ateral</w>
beta ine</w>
at yp
ast ad</w>
ang er</w>
air ways</w>
aden omas</w>
acc es
Z idovudine</w>
Y tracis</w>
War farin</w>
Tech no
S ain
S ER
Ret ard</w>
Re view</w>
Re ver
RAN CE</w>
R adi
R R</w>
R C</w>
Py rexia</w>
Pub lic
Pre zista</w>
Pr in
Pancre atitis</w>
PHAR MA</w>
Ovari an</w>
Norm al</w>
Mo di
Mir tazapine</w>
Mir ap
Mar aviroc</w>
MERI AL</w>
M ale</w>
M DS</w>
Ini ti
IG F-
IGF- I</w>
Ho sp
Hand ling</w>
H CT
G U
G CP</w>
FI -
Ex posure</w>
Com par
Com monly</w>
Cartrid ges</w>
CO 2</w>
C B
B W</w>
Angio edema</w>
Am prenavir</w>
Am es</w>
AL Y
AC S</w>
A bac
99m Tc</w>
7 50
6 25</w>
5 01</w>
4- week</w>
4 19</w>
2 g</w>
2 62</w>
2 1-
19 7</w>
17 -
12. 0</w>
1 48</w>
0. 36</w>
-2 2</w>
z an
yp ad
ypad her
ypadher a</w>
y cl
x ious</w>
wip es</w>
wh enever</w>
w e</w>
w als</w>
vac u
un sure</w>
ulo pathy</w>
trime sters</w>
trac king</w>
tr azuril</w>
time -
thiaz ides</w>
ter rit
tel ence</w>
t uting</w>
syl ated</w>
survi ved</w>
sof tware</w>
sh ingles</w>
redi stribution</w>
reas on
re sume</w>
pub er
pro lact
pri de</w>
prehen sive</w>
predomin ant</w>
preci se</w>
penic illin</w>
penic illin
p ending</w>
ox idation</w>
os i</w>
op tions</w>
on omic</w>
obut yl</w>
o C</w>
ni er</w>
mouth piece</w>
meto prolol</w>
methox azole</w>
meta mol</w>
mening iti
mechan ical</w>
me tres</w>
lu le</w>
lox amer</w>
low ers</w>
li d</w>
lacta m</w>
kin in</w>
itr ations</w>
is a</w>
indic ators</w>
in .</w>
impl anted</w>
if ermin</w>
hum an
herpes virus</w>
glu con
gli benclamide</w>
gen -
gau ze</w>
g adol
fer ritin</w>
fe atures</w>
expo se</w>
endoc ar
effic ac
duc t</w>
drug- drug</w>
direc tions</w>
dem and</w>
d al
conduc tion</w>
con ta
compris ed</w>
compar isons</w>
coll apse</w>
cl on
chond rial</w>
chole static</w>
can is</w>
calci um-
cal endar</w>
ca ke</w>
c en
byp ass</w>
bur den</w>
bru ise</w>
br ing</w>
blast s</w>
bic alutamide</w>
be ige</w>
b ert</w>
az epam</w>
as sumed</w>
anomal ies</w>
angiotensin- aldosterone</w>
ana emic</w>
an xious</w>
an osine</w>
amino transferases</w>
amino glycosides</w>
all s</w>
a ud
Z ypadhera</w>
Ver tigo</w>
VE S</w>
Ste ady</w>
Ste ady-state</w>
S ut
S top</w>
Regi stration</w>
R ace</w>
Parox etin</w>
PR P</w>
PI Ib</w>
PE N
PBP C</w>
P er</w>
Os lo</w>
ON AL</w>
N- de
N H</w>
Myo cardial</w>
Mirap exin</w>
Me dium</w>
M yelo
M RA</w>
K o
K it</w>
Isol ated</w>
Inspec t</w>
Inj ury</w>
In telence</w>
HOLD ERS</w>
HCT Z</w>
G PIIb</w>
G F</w>
Fin ally</w>
Farmacêu tica</w>
Ex c
Eudra Vigilance</w>
EN TS</w>
EC TIVE</w>
E ducational</w>
Dy s
Dox astad</w>
Decre ase</w>
DIS PER
D K</w>
Condi tions</w>
Con cept</w>
Co ordination</w>
Carcino genicity</w>
C AE
Bulg aria</w>
BA Y
B y
B lue</w>
Ano ther</w>
Am mon
Ade qu
AUC τ</w>
A II
7 5-
4- 6</w>
35 2</w>
3 47</w>
27 2</w>
2- year</w>
2 96</w>
2 37</w>
1- 5</w>
1 ml</w>
0 53</w>
- C</w>
ye ster</w>
wat er
ver age</w>
vec uronium</w>
val ve</w>
thro w</w>
tar get
tac apone</w>
table te</w>
surve y</w>
su spec
stric tly</w>
ss en</w>
splen ic</w>
sp p.</w>
son ance</w>
sol ving</w>
shi vering</w>
sec retariat</w>
revas cularisation</w>
retro spective</w>
retic ulo
ren ch</w>
reg res
refer s</w>
rec ast</w>
re tapamulin</w>
re suspend</w>
re sonance</w>
re min
re j
prob able</w>
pres sed</w>
prefer able</w>
practi cal</w>
post- transplant</w>
porf imer</w>
poly articular</w>
ph obia</w>
per ing</w>
peg visomant</w>
pan ic</w>
organ ised</w>
ophthal mic</w>
op t</w>
ocy te</w>
oblig ations</w>
ob lastic</w>
o estradiol</w>
neutro paenia</w>
ne f
ne a</w>
na di
mo tility</w>
man n</w>
mac ulopapular</w>
lin k</w>
li e</w>
l ens</w>
kin d</w>
k y
ip uncture</w>
intrav itreal</w>
in adequately</w>
imm ature</w>
hydr ase</w>
hear tw
haz ard
hazard ous</w>
go als</w>
glyco sylated</w>
ga it</w>
fo recast</w>
extrac ellular</w>
ex pen
et ta</w>
ess or</w>
erythem atous</w>
en dos
efficac ious</w>
drop ped</w>
displac ement</w>
differenti ation</w>
demonstr ates</w>
cro spovidone</w>
comp ul
cat aract</w>
bronch ial</w>
ble ph
ble omycin</w>
beg ins</w>
atyp ical</w>
athi sia</w>
ast ro
arsen ess</w>
angiotensin- II</w>
an hydrase</w>
am ys</w>
advanta ge</w>
ab ling</w>
a ero
Y TRAC
YTRAC IS</w>
WAR NING</w>
V I</w>
Trans dermal</w>
Tr y</w>
TI C</w>
T RO
Sut ent</w>
Stom atitis</w>
Sor bitol</w>
Sacchar omyces</w>
SUBSTAN CE</w>
SI- 1000</w>
Recomm ended</w>
Re place</w>
REG ARD</w>
Psori asis</w>
P ublic</w>
P le
Ob served</w>
ORO DISPER
ORODISPER SIBLE</w>
Ni em
N TS</w>
Memb ers</w>
MP S</w>
Lab el</w>
LV -1
Ket oconazole</w>
Kap osi</w>
Industri e</w>
In -
Immuno genicity</w>
Ig A</w>
I VI
HB V-
FOR CAL
F rench</w>
F U
F RANCE</w>
Euro pharm</w>
En tacapone</w>
EFF ECTIVE</w>
EC U</w>
E mul
Diffe rence</w>
Di sper
De partment</w>
D e</w>
Cit ric</w>
Ch ills</w>
Cal c
CH F</w>
By etta</w>
Bet ween</w>
B ad</w>
Az opt</w>
Ar b
Adequ ate</w>
Abac avir</w>
AR -
A 6</w>
8- 99</w>
4 ,000</w>
3 ml</w>
3 b</w>
3 11</w>
2 66</w>
2 56</w>
2 28</w>
1A 1</w>
18 00</w>
1 7.5</w>
0. 54</w>
0 61</w>
................................ ................
------------------------------------------------------------------------------------------------ ----------------
Α θ
zer o</w>
warm th</w>
ves tite</w>
ver s</w>
ver k
ven ipuncture</w>
ve ien</w>
trans l
thrombo phlebitis</w>
thin dr
thindr one</w>
thi sterone</w>
territ ory</w>
ta mic
system atic</w>
supple ment</w>
supp lies</w>
stic ky</w>
ster il
ster i
stat ements</w>
st axis</w>
spar floxacin</w>
sk o</w>
sib u
sen sus</w>
sa propterin</w>
ri vestite</w>
retur ns</w>
rel ax</w>
regres sion</w>
re y</w>
re uptake</w>
re fill</w>
propor tion
pro xim
pro hib
prim ing</w>
post- natal</w>
polic ies</w>
peg aptanib</w>
parti cipated</w>
pap ular</w>
over doses</w>
ot s
or tic</w>
on or
on itis</w>
norm alised</w>
no c
neuro leptic</w>
nephro toxic</w>
nef azodone</w>
ne omycin</w>
nar co
n ith
me uble</w>
mar opitant</w>
longer -acting</w>
lo aded</w>
le- stimulating</w>
l atex</w>
keto profen</w>
histo logy</w>
high- fat</w>
hel ping</w>
great est</w>
gonado tropin</w>
g over
g ing
furo semide</w>
fr ame</w>
follic le-stimulating</w>
fo am</w>
fibr ates</w>
fibr ate</w>
fen se</w>
ez e</w>
exten d</w>
expen ses</w>
ex cl
ev ent
es tive</w>
elec oxib</w>
effor ts</w>
deci sions</w>
day time</w>
d w
d onate</w>
collab oration</w>
cl icks</w>
chemo therapeutic</w>
challen ges</w>
carb onic</w>
car til
be ating</w>
b all</w>
at ase</w>
ari um</w>
ap he
anticonvul sant</w>
an sw
ammon ia</w>
amend ments</w>
am ycin</w>
af o
ac ea</w>
ab alin</w>
Z o
Z DV</w>
Y MDD</w>
Vir b
U RE
Tac hycardia</w>
T T</w>
Sil ica</w>
Recomm end
Re duc
R es
Q T
Preg abalin</w>
Pap illomavir
P ur
O M</w>
Nic otinic</w>
Neupo gen</w>
N I
M ü
M CyR</w>
LV-1 004</w>
Jo se
Inspec tions</w>
In ten
Im meuble</w>
IN TR
I t
I p
Hepat obiliary</w>
He ads</w>
Grap efruit</w>
Gmb h</w>
G am
G B
Epi staxis</w>
Enter obacter</w>
Elev ations</w>
Dé fense</w>
Doc um
Difficul ty</w>
D RE
Col onel</w>
Col loidal</w>
Co- ordination</w>
Cho ose</w>
Cefuro xime</w>
CI N</w>
C elecoxib</w>
C K
Benz yl</w>
B rit
B H4</w>
Av amys</w>
Allerg an</w>
A M</w>
9 7
6 -</w>
5 81</w>
4 80</w>
4 42</w>
3 39</w>
3 33</w>
3 02</w>
2 41</w>
19 93</w>
17 8</w>
10. 6</w>
10. 1</w>
0 64</w>
- 3
ó n</w>
é e</w>
zz le</w>
yel onephritis</w>
weigh t-
wash ed</w>
vi x</w>
vehic les</w>
ve set</w>
ub rin</w>
tors ades</w>
ton ic-
tom ised</w>
tern s</w>
te -
taz anavir</w>
tar trate</w>
t-to- treat</w>
t ex
struc tures</w>
str um</w>
sto ol</w>
sto od</w>
ste aryl</w>
spo on
sibu tramine</w>
si ded</w>
seroton ergic</w>
sero protection</w>
sero logical</w>
sat ur
ru n</w>
ris ing</w>
ren ces</w>
refl ects</w>
rec t
re solves</w>
radiolab elling</w>
punc tu
public ations</w>
pro prietary</w>
pres er
pr u
polymer ase</w>
per indopril</w>
pat terns</w>
palpit ation</w>
organ ism</w>
or ic</w>
on wards</w>
ocor d</w>
o k
nor mo
no tably</w>
nime sulide</w>
nadi r</w>
n mol</w>
mit es</w>
meta -
meningiti dis</w>
m IU</w>
lu stat</w>
li d
lay ing</w>
k oral</w>
it ating</w>
iso forms</w>
intest ines</w>
insulin- dependent</w>
infrequ ently</w>
infer tility</w>
ine phrine</w>
ic i</w>
ic atibant</w>
ia al</w>
hyper bilirubinaemia</w>
hydrogen ated</w>
hep ta
h as
has n</w>
gre at</w>
gil ts</w>
ger sheim</w>
g no
f elis</w>
f an
eyel ids</w>
exclud e</w>
eth yl</w>
er ation</w>
ep s</w>
e- dried</w>
e tics</w>
e str
do se-</w>
dis rup
di vision</w>
deple ted</w>
defini tive</w>
cott on</w>
con serv
commun ity</w>
co- ordination</w>
co st</w>
co ded</w>
cere visi
ce pt
carr ying</w>
calc ulation</w>
c ent</w>
bu ta
bot ulinum</w>
bal anced</w>
arrang ements</w>
and ed</w>
amb ulatory</w>
a- treated</w>
Z ubrin</w>
Z ocord</w>
Z AL
X XIN</w>
Viro logical</w>
Ty s
TAB LET</w>
T issue</w>
Steven s</w>
Si rolimus</w>
Sh ellac</w>
Sch er
S. p.
S ug
S outh</w>
Rif abutin</w>
Rep aglinide</w>
Re action</w>
R inger</w>
Public ations</w>
Pro tocol</w>
Pr acti
Pho sph
P ali
P NH</w>
P H
P AT
Ome ga</w>
N STEMI</w>
Mono therapy</w>
M it
Li ve</w>
Latvij ā</w>
Lar ge</w>
LU DING</w>
L ang
L S</w>
Kno wn</w>
J 05
Iso tretinoin</w>
Inhal ation</w>
Impro vement</w>
High er</w>
Hel sin
Haemorrha ge</w>
H ence</w>
GB q</w>
For te</w>
Fe gersheim</w>
FORCAL TONIN</w>
F E
Em end</w>
EC 50</w>
E very</w>
E c
E M
Du koral</w>
Di phtheria</w>
Detail s</w>
DRA XXIN</w>
D oxy
D ef
COX -1</w>
COM T</w>
CAB G</w>
C U
A tazanavir</w>
A si
9 5
6- fold</w>
6 8
6 33</w>
50 mg</w>
4 62</w>
3 87</w>
2 75</w>
2 52</w>
16 28</w>
12. 3</w>
12. 2000</w>
0 77</w>
0 ,5</w>
-2 4
О О
ω σ
ή ν
z ole</w>
yco sis</w>
yc ine</w>
x bridge</w>
vas ocon
vari ables</w>
ur in</w>
under stood</w>
ul ant</w>
ul a
ter us</w>
ten ed</w>
te e</w>
tamic in</w>
tac og</w>
tablett a</w>
t ally</w>
struc tural</w>
stro min</w>
stimul ated</w>
stabil isation</w>
sol v
so reness</w>
simil arly</w>
sib ilities</w>
si ves</w>
si on
sevel amer</w>
sat uration</w>
salic yl
s -</w>
respon sibilities</w>
rel ge
relge stromin</w>
refl ecting</w>
reco ver</w>
re ading</w>
rap porteurs</w>
radio pharmaceutical</w>
quanti fication</w>
propyl cellulose</w>
progres sed</w>
precipit ation</w>
pre caution</w>
pr an
potassium- sparing</w>
pol yester</w>
platin um-
phosphodie sterase</w>
phosph ati
per flutre
part ner
ov a</w>
offici ally</w>
obj ections</w>
ob last
ob es</w>
no zzle</w>
no vo</w>
n y
matern ally</w>
lipo somes</w>
light-head edness</w>
langu ages</w>
la g</w>
kine sia</w>
ket on
it ory</w>
isch emic</w>
intr ad
interrup t</w>
interpre tation</w>
inter course</w>
in adver
in activation</w>
il s</w>
i er</w>
ho st</w>
h f</w>
glutam ate</w>
geno typic</w>
gener ative</w>
fung i</w>
fos veset</w>
form ulated</w>
ev ol
et z
epilep tics</w>
ep tacog</w>
en sured</w>
el uc
echocardio graphy</w>
ec es</w>
e asy</w>
doub led</w>
direc tion</w>
dextro se</w>
defer oxamine</w>
de bil
coun ter
colo strum</w>
coc ci
chol era</w>
cerevisi ae</w>
cer vix</w>
calici virus</w>
cal ori
c ade</w>
buta mol</w>
buff er</w>
bo a</w>
bacter icidal</w>
avoid able</w>
atr ics</w>
af loxacin</w>
ac ial</w>
ac ellular</w>
abr i</w>
ab -treated</w>
X a</w>
Wor ld</w>
Wa it</w>
Vel cade</w>
Var ic
U xbridge</w>
Tys abri</w>
T ipr
Syn cope</w>
Ser ot
SA T</w>
S almon
Ri speridone</w>
Prote q
Por cine</w>
P ic
P ens</w>
O pen</w>
Nor dic</w>
Non- Proprietary</w>
No w</w>
Nime sulide</w>
Nel finavir</w>
Multi pack</w>
MET ALY
METALY SE</w>
Lo wer</w>
Lis boa</w>
Lac osamide</w>
LOG ICAL</w>
In dic
Hyper glycaemia</w>
Hal lu
HI T</w>
HA ART</w>
Gé lule</w>
G ri
Fem ale</w>
FOL FO
FO IL</w>
F unc
F ri
F R</w>
F CF</w>
Eudra Net</w>
Disp os
Desc ription</w>
De spite</w>
Conven ia</w>
Comm ittees</w>
Ch lor
CART RI
C in
B M</w>
An t
Ac ro
9 8
6 2.5</w>
6 ,000</w>
5 49</w>
49 -</w>
4 9-
4 -</w>
30 mg</w>
2 b</w>
2 46</w>
2 44</w>
199 8-99</w>
12. 1</w>
100. 0</w>
1. 0
1, 6
1 1.5</w>
0. 70</w>
0. 125</w>
0 62</w>
0 48</w>
л а
ОО Д</w>
vasodil atation</w>
v apan</w>
ut aneous</w>
usi vely</w>
under gone</w>
un fractionated</w>
ul let</w>
transpl ants</w>
tou ching</w>
to es</w>
t .</w>
sur ance</w>
specific ity</w>
sp ol
sol e</w>
slow s</w>
sil ate</w>
shor t-
sequ ential</w>
sec tors</w>
s tis</w>
s gate</w>
reliev ing</w>
regi ons</w>
reco vering</w>
re sec
radio graphic</w>
ra dic
puri ties</w>
pur ple</w>
prox en</w>
pre liminary</w>
pre dispose</w>
poli omyelitis</w>
po x
paras ites</w>
p yelonephritis</w>
p ut
p ure</w>
ox y</w>
org ano
om ycosis</w>
olig uria</w>
oid s</w>
nor adrenaline</w>
neuro toxicity</w>
min er
me -
man ag
m er
m ec
lute in
leth al</w>
lab or
la im</w>
l ous</w>
ke ts</w>
iz on
iv al</w>
intra- abdominal</w>
insti tution</w>
inj ection-
inf ective</w>
ine urin</w>
im plications</w>
ic laim</w>
ic ations</w>
hypo phosphataemia</w>
hor izon
ho arseness</w>
hepat omegaly</w>
haemo dynamic</w>
gu ar
go al</w>
g ullet</w>
g ir
g all
form at</w>
fat alities</w>
fac ture</w>
f el
ethin ylestradiol</w>
epith elium</w>
ep to
endomet rium</w>
en acoxib</w>
diver gen
differen tial</w>
di ve</w>
demyel inating</w>
dec lined</w>
consti tute</w>
comple ment</w>
colour ing</w>
coll ate</w>
clean ing</w>
cho ose</w>
child hood</w>
ch itis</w>
categ ory</w>
cap to
c ing</w>
bu propion</w>
break points</w>
aster n</w>
ar is</w>
antiretro virals</w>
anti- rheumatic</w>
anti fungals</w>
ampl es</w>
altern ate</w>
al it
adjust ing</w>
adju ster</w>
a emo
V a
Trit azide</w>
Tipr anavir</w>
Tele phone</w>
TNF α</w>
TH S</w>
Sur rey</w>
Sec ond</w>
Rob enacoxib</w>
Rest less</w>
Ren itec</w>
Ram sgate</w>
R As</w>
Q WP</w>
Prolong ed-release</w>
Pro ble
Physici an</w>
Nor f
NU MBER</w>
N O</w>
Meet ings</w>
MANUFACT URE
M US
M S
Lorat adin</w>
LT D</w>
L es</w>
L eder
K on
J ap
Ip sen</w>
Inhib ition</w>
Im ple
Hydrox y
Hi sto
Haem at
HAR D</w>
H I</w>
FA P</w>
Emul sion</w>
Dig oxin</w>
Consul t</w>
Cel vapan</w>
C attle</w>
C anc
Ar iclaim</w>
AV AM
AVAM YS</w>
AUC 0-</w>
AR s</w>
AII RAs</w>
A X
7 83</w>
67 640</w>
5 67</w>
4 51</w>
3 94</w>
3 29</w>
25 mg</w>
2 x
2 98</w>
2 68</w>
2 65</w>
2 3-
10. 4</w>
0. 88</w>
0. 06</w>
0 74</w>
υ κ
verte porfin</w>
ve si
v omit</w>
ut ely</w>
under stand</w>
un specified</w>
un k</w>
ul ae</w>
tw ice-
theore tical</w>
tas onermin</w>
tas k</w>
sy no
swe g</w>
swe at</w>
suspec t</w>
sub types</w>
stil ity</w>
st inging</w>
st ain
ss -
spec tively</w>
sodium- free</w>
sl augh
sin uses</w>
sal butamol</w>
ru le</w>
renin- angiotensin-aldosterone</w>
relax ants</w>
relap sing</w>
r av
qu ine</w>
propor tionally</w>
pro gno
prescrib es</w>
prescri ber</w>
pre- specified</w>
pre medication</w>
post- treatment</w>
plas tin</w>
plas ma-
pl ans</w>
pheno typic</w>
ph aryngeal</w>
ph aryn
pericar dial</w>
per version</w>
pen is</w>
parkin sonian</w>
parasi tic</w>
ox aliplatin</w>
over t</w>
organ isations</w>
or -
ocy stis</w>
ni tisinone</w>
na proxen</w>
mus car
mon ometh
metr e</w>
lymphocy tic</w>
lo sed</w>
lip iz
lipiz ide</w>
le ak</w>
l ers</w>
l as</w>
ky o</w>
keton uria</w>
ker atitis</w>
ir ical</w>
ing u
infrequ ent</w>
in cl
ic an</w>
hepta hydrate</w>
hem i
head ings</w>
glum ic</w>
gene tically</w>
gamma -
g lipizide</w>
form er</w>
flo or</w>
fl ares</w>
eudra .org</w>
endor sed</w>
enc losed</w>
empt ying</w>
embryo toxic</w>
e o
dr u
do s</w>
dispen ser</w>
disease- modifying</w>
dis agreement</w>
dio sis</w>
des methyl
del iver
de al</w>
d ly</w>
d emo
cytok ine</w>
cy th
cul tures</w>
cor tical</w>
contr act</w>
consci ous</w>
com prehensive</w>
clud es</w>
clean ed</w>
cer ase</w>
cartil age</w>
calc ineurin</w>
c all</w>
broncho constriction</w>
bo w
benzodiaz epine</w>
b and
az ol</w>
at us</w>
as tigmine</w>
ap ism</w>
ant ineoplastic</w>
ann -P
ann-P ick</w>
analy tical</w>
ammon ium</w>
alco hol
aggrav ation</w>
adhes in</w>
acr ylate</w>
ac lizumab</w>
ac k</w>
a udi
T 4</w>
Ster ile</w>
St el
Spec ification</w>
So ci
Sci ence</w>
SU I</w>
SE N</w>
S.p. A.</w>
S. A.
Ro y
Riv astigmine</w>
Repor ted</w>
Re fer</w>
REG AR
R ate</w>
Qu in
Pig s</w>
Pi rox
Or acea</w>
OME P</w>
Niem ann-Pick</w>
MI X</w>
M- COATED</w>
M erial</w>
M F</w>
Lt d.</w>
Li quid</w>
Le gs</w>
LO R
L and
L 1</w>
Jap anese</w>
Indi go</w>
I -2
Ham ster</w>
H b</w>
G MT
Fer tility</w>
Fe brile</w>
FIL M-COATED</w>
F uro
F on
F lat
F ive</w>
ET OMEP</w>
Dri ve</w>
Cro spovidone</w>
Co -</w>
CT D</w>
CT CL</w>
CI 95</w>
CARTRI D
Bou levard</w>
Associ ation</w>
Arth ritis</w>
Alf a</w>
Aer obic</w>
Adv ate</w>
Ad d</w>
Acti cam</w>
AE s</w>
AD R</w>
AC K
A U</w>
9 4
5 7
5 64</w>
4 28</w>
3 82</w>
3 4-
3 34</w>
3 3-
28 9</w>
2. 25</w>
2- 8</w>
2 38</w>
2 100</w>
19 92</w>
1- 3</w>
1 3.5</w>
0. 95</w>
0. 72</w>
0. 30</w>
- biliary</w>
ήν α</w>
who oping</w>
vit an</w>
vi sta</w>
ve ol
uri es</w>
um atic</w>
ula thromycin</w>
tur nal</w>
tre ve</w>
transpor ter</w>
trac es</w>
tom eg
tomeg alo
tomegalo virus</w>
tetrac ycline</w>
temo zolomide</w>
spec tro
si onal</w>
ser s</w>
ro coxib</w>
ri d
retur ning</w>
resec table</w>
regi stration</w>
regar ded</w>
recommend s</w>
re ous</w>
re mitting</w>
rav entricular</w>
py re
pru ritis</w>
proxim al</w>
pro -
pre disposed</w>
phosphor us</w>
phil a</w>
particip ate</w>
p ane</w>
os qu
orrho eae</w>
one- half</w>
oly tics</w>
ol ing</w>
offici als</w>
o logic</w>
ny com
nutri tional</w>
non- nucleoside</w>
non- Hodgkin</w>
n am</w>
multi- centre</w>
mo ist</w>
mo i
moi ety</w>
mito chondrial</w>
me silate</w>
mag on</w>
m atics</w>
m and
long -</w>
lid ding</w>
lay ers</w>
lat ter</w>
lamivud ine-
kal emia</w>
jac ulation</w>
inj uries</w>
ine -resistant</w>
in complete</w>
id emia</w>
hypo vol
hyper activity</w>
hor se</w>
homo geneous</w>
ho stility</w>
he ads</w>
h ul
gon orrhoeae</w>
gadol inium</w>
freez e-dried</w>
flu pane</w>
fl ec
fil iaal</w>
fibr in
fa ther</w>
fa il</w>
es -
erup tion</w>
er ro
ent y-
enro l
en weg</w>
en treve</w>
en ly</w>
en ce-
ed ges</w>
ec chymosis</w>
e k
e astern</w>
drain age</w>
dr inks</w>
doub ling</w>
dom ain</w>
divergen ces</w>
dispen sing</w>
diff use</w>
diarr hea</w>
diab etics</w>
di atric</w>
depres sants</w>
depend ently</w>
dep side</w>
dele ted</w>
def ence</w>
da stine</w>
d enti
cyclo oxygen
cut -off</w>
cre ate</w>
corne a</w>
conf used</w>
combin ing</w>
ci d</w>
cha ir
carbo hydrate</w>
calori e</w>
boo k
bli stered</w>
bit an</w>
be v
b lu
b izumab</w>
b ad</w>
aver aged</w>
at ini
aspir ation</w>
arb onate</w>
arb itrations</w>
ar vitan</w>
anaesthe tics</w>
age- related</w>
af lets</w>
adeno carcinoma</w>
ac etin</w>
ab ies</w>
Y entreve</w>
Y arvitan</w>
Wh ilst</w>
Vis tide</w>
Viet nam</w>
Vien na</w>
VI R</w>
VI Ia</w>
V ari
Thyro id</w>
Thrombo embolic</w>
T ηλ</w>
T AR
Stel ara</w>
Star ting</w>
Sol na</w>
Sever al</w>
Serot onin</w>
SO LU
SK -8
SEL F</w>
S hor
S core</w>
S ab
Rec ent</w>
REGAR DING</w>
Phen ytoin</w>
P s</w>
P ot
Organ isation</w>
N asal</w>
Min im
Max -Pl
Max-Pl anc
M 1</w>
L a
L U</w>
Kap seln</w>
K ö
IN SULIN</w>
IF N</w>
H 2
Gr an
Gluco se</w>
GAB A</w>
G range</w>
G el</w>
G RE
G EN
Flex icam</w>
F lo
Exc essive</w>
EU RO
E stab
D L
D ATE</w>
Cy cle</w>
Convul sions</w>
Consider ing</w>
Con ver
Con junc
CYP2 B6</w>
C ity</w>
B ov
B ir
B 2</w>
Alim ta</w>
Ale xion</w>
AP TER</w>
AID S-
ACT H</w>
A- 10
A STA</w>
9 000</w>
7. 1998</w>
7 1
5- 10</w>
5 30</w>
5 13
3 35</w>
28 2</w>
200 -
2 91</w>
12- month</w>
1, 8
0. 67</w>
0. 20</w>
0. 04</w>
с т
ί ου</w>
Αθ ήνα</w>
ä gen</w>
z al
work shop</w>
vo ice</w>
vi de
verk us
verkus en</w>
ur ge</w>
und water</w>
un avoidable</w>
um iz
umiz one</w>
ul monary</w>
tre mbling</w>
tran sition</w>
toco pher
to dd
tic ulitis</w>
ti b
thi omersal</w>
th igh
te re
t ant</w>
suppor ts</w>
supple mental</w>
substi tuted</w>
standar dis
sper m
spe ed</w>
sensitis ation</w>
semi -
sel amectin</w>
s ound</w>
rot ate</w>
rim idine</w>
rig idity</w>
ret initis</w>
reg ivers</w>
refriger ate</w>
re start</w>
re assessed</w>
re active</w>
random isation</w>
r ation</w>
pul ling</w>
prost en
prosten ol</w>
progre ssing</w>
preser ved</w>
predic table</w>
precur sor</w>
precipit ate</w>
pre mat
pre disposing</w>
pran dial</w>
phenyl ketonuria</w>
per cutaneous</w>
paralle l-
para meter</w>
p H-
organo genesis</w>
onor gestrel</w>
od our</w>
oc k
oc clusion</w>
nore thindrone</w>
non- linear</w>
noc turnal</w>
no tic
no tes</w>
myo sitis</w>
muscar inic</w>
min o
millil it
meta- analysis</w>
me at</w>
me al
mar g
manu facture</w>
mag es</w>
macropha ges</w>
lip id-
leukocy tosis</w>
let ter</w>
leg al</w>
le f
lam inated</w>
lac rimation</w>
j e</w>
iz ing</w>
is ational</w>
io static</w>
interleukin -2</w>
interfer ing</w>
inspec t</w>
incorpor ated</w>
il lo
il li
id as</w>
i ster</w>
i p</w>
i dur
hypo x
hydrox ylation</w>
heartw orm</w>
h ome</w>
h ind</w>
granulo cyte</w>
gly collate</w>
gluco sidase</w>
gener alized</w>
gen ra</w>
gado versetamide</w>
fro sted</w>
form aldehyde</w>
fl umizone</w>
extrac ted</w>
exten sions</w>
exagg erated</w>
esopha geal</w>
endoc rine</w>
electr ical</w>
e ye
de position</w>
de generative</w>
de dicated</w>
cre ated</w>
conveni ent</w>
contrib uted</w>
comm itted</w>
com pl
ch t</w>
cel lulitis</w>
can n
calc emia</w>
cal ories</w>
breast- fed</w>
beta-2- agonist</w>
bar bit
b on
av ance</w>
aut onomic</w>
atin ised</w>
at ri
ast er</w>
aphe resis</w>
anc h</w>
ail s</w>
ad ri
ad dic
activ ely</w>
accum ulate</w>
YO UR</w>
WI K
WIK PEN</w>
W HI
W EE
V ss</w>
Tri als</w>
T etanus</w>
Surg ery</w>
Su vaxyn</w>
St art</w>
Sim vastatin</w>
Sevo F
SevoF lo</w>
STO R
SE T</w>
S.A. S.</w>
S ick
S CH
Reg ulations</w>
Quint a</w>
Q I
Practi ce</w>
Parox et
Par aesthesia</w>
Pal pit
PE G</w>
PAT CH
PATCH ES</w>
P UR
P L-
Op genra</w>
O vary</w>
O paque</w>
Mer z</w>
Me ier</w>
Mar in</w>
Malign ant</w>
MUS T</w>
MAO -
M ain</w>
Li p
Le verkusen</w>
L- histidine</w>
L T</w>
Kap l
K WIKPEN</w>
J apan</w>
J .</w>
In tro
Impa ired</w>
Hol dings</w>
HPV- 16</w>
H -1
Gl ycine</w>
Gem fibrozil</w>
Furo ate</w>
Fos avance</w>
Fir magon</w>
FIN- 02
F ern
Enter oco
E9 51</w>
E vista</w>
E 321</w>
E 12
Do c</w>
Dis cus
Col le
Ch ar
CH R</w>
CAR E</w>
C utaneous</w>
C riteria</w>
C ATION</w>
Bio Marin</w>
BO TEC</w>
B an
B TP</w>
Adjust ment</w>
Aden uric</w>
Ad vice</w>
Acro ss</w>
AT C
A gu
A I</w>
A A
9 2-
40 mg</w>
4 26</w>
32 -</w>
3- 6</w>
3 90</w>
3 43</w>
2C 8</w>
2 90</w>
2 54</w>
2 500</w>
19 94</w>
14 C</w>
11. 4</w>
11. 2001</w>
10. 7</w>
10. 3</w>
10. 2002</w>
0. 002</w>
- labelled</w>
ωσ ία</w>
υκ ωσία</w>
Λε υκωσία</w>
ú t</w>
z ym
zym es</w>
y ours</w>
y i
x ine</w>
wor l
wi shes</w>
we t</w>
vic el</w>
val nemulin</w>
um- 90</w>
ul air</w>
tw elve</w>
tryp to
tre ss</w>
trans actions</w>
tr uma</w>
tol trazuril</w>
toc ile</w>
tis m</w>
thir ds</w>
th r
tend s</w>
t witching</w>
t oma</w>
sw ings</w>
sw ine</w>
su al
ste rec
ste enweg</w>
si tive</w>
si es</w>
shel f</w>
sen tress</w>
se weg</w>
ro sac
ro p
ro c
ri stine</w>
repeat -dose</w>
rect um</w>
re presented</w>
psycho logical</w>
prof ound</w>
pri orities</w>
pol ar
penicillin s</w>
partner ship</w>
partic le</w>
par tly</w>
p ine</w>
p ads</w>
oxic om</w>
onid ase</w>
on avir
oblast oma</w>
neurotransmit ter</w>
nephro tic</w>
nephro lithiasis</w>
myelo ab
mitr al</w>
min i</w>
mig lustat</w>
mat ched</w>
m r
m atic</w>
lop atadine</w>
li ving</w>
lep tics</w>
lat ent</w>
lac k
la sia</w>
l ayed</w>
iso pren
inter fe
insuffici ently</w>
influenz a-like</w>
inf ra
incl .</w>
in o</w>
in compatibility</w>
im id
ib afloxacin</w>
hyperuric aemia</w>
hy sterec
hepato toxic</w>
he aled</w>
glob ul
gl acial</w>
gado butrol</w>
g ent</w>
frag ile</w>
form ally</w>
foo ds</w>
fol s</w>
flu vastatin</w>
fil i
fail ing</w>
fac tor
f as
f armac
etz enb
etzenb ach</w>
et te</w>
et ins</w>
er se</w>
epo prostenol</w>
enzym atic</w>
enh ances</w>
encour aged</w>
emp irical</w>
eluc idated</w>
elast omer</w>
ech st</w>
duc ation</w>
do sis</w>
do caine</w>
disse minated</w>
disp layed</w>
dis inf
dis appeared</w>
des methyl</w>
der weg</w>
dele tion</w>
defin ite</w>
defici encies</w>
dead line</w>
de oxy
dar k
da iry</w>
cy st</w>
culo -
culo- skeletal</w>
cri m
concentration- time</w>
compul sive</w>
comp are</w>
commenc ing</w>
col dness</w>
co operation</w>
capto pril</w>
calibr ated</w>
ca sual
c ups</w>
buil ding</w>
bub ble</w>
bro ilers</w>
blo ating</w>
ay ing</w>
au x</w>
att aching</w>
ation .</w>
appe al</w>
ap ple</w>
ap lasia</w>
antiarrhyth mics</w>
anti platelet</w>
ant i</w>
ane x</w>
anc o</w>
an ous</w>
am ate</w>
all er
ali pride</w>
afen one</w>
activ ate</w>
aci dic</w>
acces sion</w>
ac tran</w>
Z actran</w>
Y -
XE LO
V aso
V WP</w>
U p</w>
U MAN</w>
U B
Tur n
Tran spa
Trac tocile</w>
Thro ugh</w>
Ta b</w>
TI BOTEC</w>
T oxin</w>
T G</w>
Sta da</w>
St atistic
Sp on
Sp A</w>
Sing ulair</w>
Simul taneous</w>
Scher ing
SR L</w>
SANO FI</w>
S cre
S E-
Re present
Re placement</w>
Qu al
QT c
Q -
Prof essor</w>
Pre vious</w>
Phen yl
Ph arm
P oul
P iro</w>
P gp</w>
P OS
Op truma</w>
On going</w>
O ka</w>
O L</w>
O D</w>
N ut
Mix ing</w>
MR CC</w>
MI C
ME THO
M ig
M D
Lith ium</w>
L oxicom</w>
Ke eping</w>
Inter fer
Initi ation</w>
In form</w>
IVI g</w>
I sentress</w>
I maging</w>
Hol ding</w>
Ho echst</w>
H exa</w>
Gri fols</w>
G 2</w>
Fil m-
F AR
F 5</w>
F 2</w>
ES As</w>
EP O</w>
E vicel</w>
Di etzenbach</w>
D F</w>
Cro ss-
Com bin
Cl assi
Canc idas</w>
Can ada</w>
Bl urred</w>
Be erse</w>
BI G</w>
B- 13
B atch</w>
B ACK
Altern ative</w>
Adju v
ATC vet</w>
A do
A cid</w>
7 6
7 11</w>
63 128</w>
60 74</w>
6 10</w>
5 03</w>
44 -</w>
400 mg</w>
4 59</w>
4 44</w>
3 05</w>
3 04</w>
27 -
2 99</w>
16. 7</w>
13 20</w>
12. 4</w>
10. 8</w>
1, 9
1 T
08 9
001- 003</w>
001- 002</w>
0. 85</w>
0. 69</w>
0. 68</w>
0 58</w>
0 57</w>
0 52</w>
0 1A
. 1</w>
-Pl ough</w>
---------------------------------------------------------------------------------------------------------------- --------
- European</w>
Е ООД</w>
z apine</w>
wat ery</w>
w k</w>
vec in</w>
ve m</w>
vag ina</w>
v on</w>
uric an</w>
un it
un boosted</w>
u ality</w>
tr aline</w>
toxic ological</w>
todd lers</w>
to genic</w>
to f
thrombo plastin</w>
there of</w>
th inning</w>
target ed</w>
ta vis</w>
sympathomime tics</w>
su sc
ste el</w>
st i</w>
solv ents</w>
she ep</w>
sequ ence</w>
sen i
sec urity</w>
sal es</w>
rosac ea</w>
rit onavir
recogn ises</w>
rece ip
rec ur</w>
re susc
re sor
re medi
ran ked</w>
radio iodine</w>
pur ity</w>
provi der</w>
prop afenone</w>
progesto gen</w>
pro ved</w>
pr amine</w>
posi t</w>
pl c</w>
pit or</w>
perflutre n</w>
per me
pat ent</w>
par k</w>
out lined</w>
os mia</w>
op ac
om ab</w>
ocy ste
occ ult</w>
o w
neo plastic</w>
mo ving</w>
medic a</w>
me tric</w>
m ist
m inu
m E
log -
life -</w>
lev onorgestrel</w>
laur yl</w>
lam inate</w>
la ys</w>
j k</w>
iso enzyme</w>
is che</w>
ip e</w>
inten sified</w>
int ending</w>
instruc t</w>
ini um-
ile us</w>
ic- type</w>
hepati cally</w>
hemo dialysis</w>
h yo
h t
h ouse</w>
grad es</w>
gol aryngeal</w>
glucocortico id</w>
gli oblastoma</w>
gen tle</w>
ge red</w>
g -
fo vecin</w>
fer red</w>
fal se</w>
facture rs</w>
fac ed</w>
extr action</w>
exam ples</w>
es .</w>
erythropoi esis</w>
equ i
ent ations</w>
enhanc ing</w>
end emic</w>
en ters</w>
ec u
dig it
desir e</w>
def ective</w>
de posit</w>
cryst alli
coumar in</w>
correspon d</w>
contrib utions</w>
consum ed</w>
consul ting</w>
con sensus</w>
cirrho tic</w>
chang e
cerebro spinal</w>
caus ality</w>
casual ty</w>
care r</w>
bu tamide</w>
bic arbonate</w>
bi omar
be hind</w>
b end
assemb ly</w>
asep tically</w>
as ermin</w>
ar ial</w>
an ni
an ing</w>
am ox</w>
alle vi
aler tness</w>
acr ylic</w>
aci onal</w>
ach ment</w>
ac og</w>
aberr ations</w>
W ipe</w>
W al
W OR
Ven lafaxine</w>
Varic ella</w>
Vacc ines</w>
V ildagliptin</w>
Tr av
Ter m</w>
Ter fen
Ta p</w>
TI ONAL</w>
TE R
Sus sex</w>
Sur amox</w>
St orage</w>
Scre w</w>
Schering -Plough</w>
SIZ ES</w>
SE E</w>
SANO FI-
Rheum atoid</w>
Rever sible</w>
Refer ral</w>
Rec ep
Pic ture</w>
Pac litaxel</w>
Pa ren
PRO T
POW ER</w>
P are
P V</w>
Oste o
Opti MARK</w>
O cular</w>
O A</w>
No ti
Need le</w>
Mü n
Mon day</w>
Meet ing</w>
Mar low</w>
Mal aise</w>
MI A</w>
MANUFACTURE R</w>
M en</w>
M em
M eda</w>
M W
Li pitor</w>
Leder le</w>
L- cholesterol</w>
L ef
K -
J os
Inf ectious</w>
Indic ations</w>
Impa irment</w>
Immuno deficiency</w>
II b</w>
IF N-
I bra
I LD
I C</w>
I ARs</w>
Hu EPO</w>
HY CAM
HYCAM TIN</w>
HA Q</w>
Guill ain
Gre en
Ges .</w>
Fil m</w>
Fab lyn</w>
FOLFO X-
F ill</w>
F C</w>
En viron
E urican</w>
Dys geusia</w>
De hydration</w>
DT Pa
D EX
Concentr ations</w>
Cha us
Care fully</w>
CH APTER</w>
C urrent</w>
C ore</w>
C amb
Bu il
Bov ilis</w>
Bi polar</w>
BAY ER</w>
B ox
Ar ticles</w>
Anti body</w>
Ado lesc
Ac tavis</w>
AR I
AL AT</w>
AIDS- KS</w>
A lex
A X</w>
A SAT</w>
A ER</w>
8 80</w>
8 43</w>
8 0-
75 008</w>
7 99</w>
50 x1</w>
5 05</w>
4 35</w>
4 02</w>
3- month</w>
3 42</w>
3 38</w>
3 2.
3 12</w>
3 0.0
28- day</w>
26- week</w>
20 58</w>
2 63</w>
2 53</w>
2 36</w>
2 32</w>
2 0.0
18. 7</w>
18. 1</w>
18 7</w>
100 mg</w>
100 -
10- fold</w>
1, 7
0. 43</w>
0. 38</w>
0. 004</w>
0 -24
. d.</w>
- out</w>
- 4
Λ Λ
with dre
withdre w</w>
we aring</w>
w r
vigoro us</w>
v entric
ur gency</w>
under standing</w>
un absorbed</w>
tw isting</w>
trans mitted</w>
tra umatic</w>
tr ue</w>
tol butamide</w>
tic ks</w>
thick ening</w>
te ur</w>
sympathomime tic</w>
suspen sions</w>
sup raventricular</w>
ste atosis</w>
sp inning</w>
sn ack</w>
sex uality</w>
sco pic</w>
sc ans</w>
salicyl ates</w>
ri ptyline</w>
ret inoin</w>
reason able</w>
re tained</w>
r- HuEPO</w>
py rimidine</w>
prob ability</w>
pro spectively</w>
pro drug</w>
polyo x
platin um</w>
plasma- derived</w>
plas m</w>
pin ch</w>
pheno type</w>
pers onal</w>
pepti des</w>
painkill ers</w>
out seweg</w>
out en</w>
oun ding</w>
ot es</w>
organ isational</w>
optim ise</w>
ol ine</w>
o ily</w>
o ffic
nucleo tide</w>
notic ed</w>
nore thisterone</w>
non- comparative</w>
no relgestromin</w>
mut ated</w>
mor pho
monometh oxy</w>
mas titis</w>
m ang
lympho proliferative</w>
lymph openia</w>
lutein ising</w>
lu cerase</w>
li docaine</w>
lac king</w>
labor ator
ke eps</w>
k ap
iv ing</w>
iso zymes</w>
interfe res</w>
inter ven
inst ance</w>
in v
in ator</w>
il lu
ig lucerase</w>
identi fication</w>
ic terus</w>
i ons</w>
i on
i o</w>
i mages</w>
hypno tics</w>
hormon e-
high ligh
he par
h outseweg</w>
galac to
foc used</w>
fluoro quinolone</w>
fer tili
fer ric</w>
fe a
f ell</w>
excl usively</w>
event ually</w>
ev enly</w>
eth n
endocar ditis</w>
encephal itis</w>
en -
em pha
effici ency</w>
ec o
dul l
dri asis</w>
dist ingu
disp lays</w>
dis solution</w>
dis appears</w>
determin ing</w>
dec ides</w>
de pos
de ep
dan azol</w>
da m</w>
d ene</w>
cyth aemia</w>
cross es</w>
cre ation</w>
coun ting</w>
cor ti
co- rapporteur</w>
co- ord
chromo genic</w>
candi date</w>
canc erous</w>
ca regivers</w>
bra e</w>
ato logy</w>
ati m</w>
ath ing</w>
asc ites</w>
arrhyth mic</w>
ara- G</w>
ar ticle</w>
ar derweg</w>
any one</w>
anticonvul sants</w>
anti- hypertensive</w>
andro gen</w>
an n</w>
ak athisia</w>
ain ide</w>
ag ra</w>
ag inal</w>
adhe sion</w>
ad ry</w>
accur acy</w>
ac idity</w>
a hydrate</w>
Wa arderweg</w>
Virb agen</w>
Vi agra</w>
VE R</w>
UF H</w>
Turn houtseweg</w>
Thi az
Tel misartan</w>
TI W</w>
Sun set</w>
Stom ach</w>
Sing le-
Serv ice</w>
SANOFI- AVENTIS</w>
S le
S ix
S au
S a
S N</w>
Respon ses</w>
RE N</w>
RE CE
Qual ified</w>
QTc F</w>
Proble ms</w>
Prin ting</w>
Pneum ocystis</w>
Perc entage</w>
Par a
PA TI
P CV</w>
Op adry</w>
O sel
Norm alised</w>
No vem</w>
NEED LES</w>
Meth adone</w>
Lorat ad
Lev el</w>
L yn
L ong</w>
L ine
L apatinib</w>
J 07
Intr av
Imple mentation</w>
Ibra xion</w>
IS BN</w>
INJEC TION</w>
INC LUDING</w>
IN SU
IC S</w>
Ho che</w>
Hepato -biliary</w>
H5N 6</w>
H outen</w>
H en
H 7
H7 N1</w>
Gro ups</w>
Green ford</w>
G y</w>
G LU
En sure</w>
EE IG</w>
E S-
Disper sible</w>
Director ate</w>
Cour t</w>
Cor onary</w>
Conf idence</w>
Colle ge</w>
Co ch
Clar ithromycin</w>
Chlor ide</w>
Centr al</w>
Calc iche
CO MP
CL AR
CAR T</w>
C- 8</w>
C urrently</w>
C am
C Z</w>
Br ady
Bo o
B ay
B C
B A</w>
B .V.</w>
All é</w>
Adolesc ents</w>
Activ ated</w>
AR E</w>
AMPOUL E</w>
A ri
7- fold</w>
48- week</w>
42 61</w>
3 97</w>
3 96</w>
3 26</w>
200 1-
2- week</w>
2 59</w>
1. 13</w>
06. 2000</w>
02. 97</w>
0. 99</w>
0. 80</w>
0. 62</w>
0 67</w>
0 3A
-2 10</w>
е р
μ g</w>
α ς</w>
yl transferase</w>
yi eld</w>
weak en</w>
w- angle</w>
w .
vo virus</w>
vit reous</w>
vinc ristine</w>
uri tic</w>
uni form</w>
under went</w>
un acceptable</w>
ub ility</w>
tro ub
thyro xine</w>
thigh s</w>
thal am
t ylvalosin</w>
t onin</w>
suppres sed</w>
sub missions</w>
su ng</w>
stuff y</w>
sto ke</w>
spac er</w>
sm ell</w>
sim ple</w>
si x-
si sed</w>
shel f-life</w>
sh op
sequ ent</w>
selec tivity</w>
sel ect</w>
scar ring</w>
saliv ation</w>
saliv a</w>
sal mon
rh in
resusc itation</w>
rest s</w>
regi stry</w>
receip t</w>
re section</w>
re mia</w>
re assessment</w>
ra z</w>
r abies</w>
r .
ques tion</w>
prot ects</w>
prostagland ins</w>
premat urely</w>
pre- treated</w>
post- menopausal</w>
poli o</w>
plic ated</w>
pi lot</w>
pi eces</w>
penetr ation</w>
patho logy</w>
par atide</w>
pal ifermin</w>
ov ulatory</w>
or io
optim um</w>
opi ate</w>
non steroidal</w>
no se
need ing</w>
n avel</w>
n ails</w>
mut ant</w>
multi packs</w>
mil dly</w>
methic one</w>
mb H</w>
long -
log- rank</w>
lex y</w>
l ak
jer g</w>
iqu an
iquan tel</w>
io virus</w>
intrav as
intravas cularly</w>
inten t-to-treat</w>
ing stoke</w>
ine -like</w>
in ase</w>
impl ants</w>
im purities</w>
il ate</w>
ig ures</w>
i i</w>
hypo xia</w>
hypo thalam
hyper trophic</w>
hy gi
ha y</w>
h ous
h ab
gre e</w>
gado fosveset</w>
fol inic</w>
fluoresc ence</w>
flexi ble</w>
flec ainide</w>
f ruit</w>
exp on
exist ence</w>
ex ilate</w>
eu ph
et exilate</w>
engine ered</w>
en anti
emo depside</w>
ell er</w>
ecu lizumab</w>
dur ations</w>
diver gent</w>
dispen se</w>
differen tly</w>
develop ments</w>
deteri or
desi pramine</w>
desc ri
d ell</w>
cy stitis</w>
cre sol</w>
controll able</w>
conjug ates</w>
compet e</w>
comm itment</w>
com pact</w>
co idosis</w>
classi c</w>
cl ick</w>
ck en
cep tionally</w>
casi onal</w>
cal tonin</w>
ca vity</w>
c GMP</w>
bri d
brady kinin</w>
bor ne</w>
bo ro
blood stream</w>
bel ly</w>
barbit ur
bacter iostatic</w>
avir dine</w>
au t</w>
assist ant</w>
angio graphy</w>
an- Meier</w>
al veol
al ive</w>
ain ts</w>
aim s</w>
afen ac</w>
af lu
adv ance</w>
accum ulates</w>
a ks</w>
a an</w>
WI TH
VIRA FER
Un less</w>
Tr ading</w>
Tab les</w>
TI MI</w>
TE MO
TEMO DAL</w>
T u
T rib
T il
T 1</w>
Sub stances</w>
St art
Sick le</w>
Sever ity</w>
San kyo</w>
Sac he
STRENG THS</w>
S mar
S leep</w>
S en
S ar
S WP</w>
S AN
S AC
RE D
R oma</w>
R iver
Po sitive</w>
Pi ro
Ph VWP</w>
Per sistent</w>
Paren teral</w>
POW DER</w>
PL US</w>
PAR s</w>
Osel tamivir</w>
O t
O M
Multi dose</w>
Meth yl
Meta static</w>
Mar k
MIT TE
M el
M ay
LY CAE
LYCAE MIA</w>
LI S
Kapl an-Meier</w>
K 65
K65 R</w>
Jan ssen</w>
J a
Ir rit
Interfer ons</w>
In t
Her ts</w>
Helsin ki</w>
HBeAg- positive</w>
HBeAg- negative</w>
H aving</w>
H MG</w>
Guillain -B
GMT s</w>
G S-
G GT</w>
For caltonin</w>
FOLFOX- 4</w>
F ung
F ibr
Em adine</w>
ED SS</w>
E vent</w>
E PARs</w>
E E-
Doc tor</w>
Do se-
Dispos al</w>
Di ure
Derm atitis</w>
De gree</w>
DT P
DMAR D</w>
DI SP
DI A</w>
DE X</w>
D G</w>
D BP</w>
Conjunc tivitis</w>
Comb ined</w>
Com prim
Cho le
Caucasi ans</w>
COM MITTE
COM B</w>
CO VER
C enter</w>
C ast
Benz o
Ben ef
Bas ingstoke</w>
B ovine</w>
B b</w>
B ag
B RA
B ON
Asi an</w>
Arb itration</w>
Ag itation</w>
AC H</w>
A gr
9 7.5</w>
8- fold</w>
513 68</w>
4 83</w>
4 71</w>
4 63</w>
4 54</w>
30- 50</w>
3 TC</w>
3 24</w>
2 a</w>
12. 7</w>
12. 50</w>
11. 9</w>
11. 1</w>
10 50</w>
1. 7
1 4.5</w>
0. 61</w>
0. 13</w>
0. 00</w>
0. 003</w>
................................................................ ................
α ν
ér gatan</w>
ä r
zal citabine</w>
yst ag
ystag mus</w>
worl d
world wide</w>
vi raemia</w>
ve lop
v ni
um omab</w>
twice- daily</w>
tw ist</w>
tri um-90</w>
tri oxide</w>
ton sil
tin ational</w>
ti ters</w>
thym idine</w>
th es
te aring</w>
tam idine</w>
t ysis</w>
t one</w>
system atically</w>
sulfa methoxazole</w>
sty le</w>
stu ff</w>
streng th
ster ol</w>
stain less</w>
sperm ato
sol ubility</w>
sk ip</w>
si s-
shi ps</w>
separ ation</w>
s ée</w>
rod ent</w>
ro wing</w>
ro s</w>
ris sen</w>
ris ed</w>
respir ation</w>
repeat edly</w>
remedi es</w>
re starting</w>
rani bizumab</w>
ra p</w>
r st
r ich</w>
pur su
pu shed</w>
prob ay</w>
pro gest
princi ples</w>
predic t</w>
pre- clinical</w>
poly vin
po ol</w>
po l</w>
po intment</w>
pl ays</w>
photo phobia</w>
phosphati dyl
per mit</w>
pass age</w>
pap ers</w>
over night</w>
ori onic</w>
op tysis</w>
on ale</w>
ol l
o cam</w>
non- serious</w>
neutr al</w>
neur algia</w>
n itrate</w>
myeloab lative</w>
multi ply</w>
mor ph
mon on
mix tures</w>
minim ize</w>
millilit res</w>
meth aemo
me er</w>
mal formation</w>
m al</w>
lymph oblastic</w>
lac ks</w>
lab our</w>
know s</w>
ker ato
j erg
it ations</w>
intermedi ate
interfer on-
infest ation</w>
inet obacter</w>
in amide</w>
if est</w>
ide spread</w>
id anosine</w>
ich i</w>
i ichi</w>
hyper sexuality</w>
hous ing</w>
he ar</w>
guar an
glutam yltransferase</w>
gel atine</w>
g ained</w>
ful min
frag ments</w>
four- week</w>
foo d-
first- pass</w>
fan tr
f en</w>
exhib iting</w>
evid enced</w>
epi dural</w>
entero hepatic</w>
ent ary</w>
end s</w>
enc ap
encap sul
en velop
en pox</w>
eme togenic</w>
em ias</w>
eb jerg
e jaculation</w>
e ar
du st</w>
do wn
diver ticulitis</w>
diff ers</w>
di e</w>
des don</w>
deli rium</w>
cy toma</w>
cryst als</w>
corti sol</w>
cor relate</w>
contrib uting</w>
con dom</w>
comm ence</w>
co ol</w>
cl inic</w>
cl aimed</w>
ch aracteristic</w>
categ or
cat onin</w>
cardio toxicity</w>
car glumic</w>
calici virosis</w>
buttoc k</w>
bro ached</w>
bri ef</w>
bio logicals</w>
bi om
b ought</w>
avoid ing</w>
asp ect</w>
as sum
arsen ic</w>
aro spasm</w>
ar ini</w>
ap lexy</w>
anti diabetes</w>
anth ra
ant acid</w>
an at
ag ency</w>
ag en
adri sol</w>
ac yl</w>
a ve</w>
X X
X EN
We ak
Wat er
Vice- Chairman</w>
Vi ale</w>
V entricular</w>
V LDL</w>
U rea</w>
Tum our</w>
Trib rissen</w>
Tre ated</w>
Tre at
Topo Target</w>
Thro mb
Tab s</w>
TE UR</w>
T ub
T oxic
T MP</w>
[...]
