#version: 0.2
e n</w>
e r
c h
e i
e r</w>
u n
e n
i e</w>
s t
a n
i n
d er</w>
s ch
c h</w>
a u
e l
un d</w>
l i
ei n
t i
a l
d ie</w>
a r
g e
o n</w>
d en</w>
o r
e s</w>
o n
i n</w>
e s
t en</w>
t e</w>
un g</w>
s i
g en</w>
d a
m i
u r
b e
i s
h r
w i
2 0
r a
d e
d i
f ü
a t
r o
r i
v on</w>
e t
e h
o l
v er
z u</w>
r e
t er
m m
d er
d e</w>
n i
ch t</w>
a b
mi t</w>
t e
u s
g e</w>
is t</w>
m a
en t
fü r</w>
l a
ein e</w>
z u
el l
ei n</w>
20 1
au f</w>
s s
i l
s p
d es</w>
t t
S t
w er
i e
c k
da s</w>
li ch
V er
ei t</w>
S ie</w>
g en
r ei
e b
e m</w>
n a
a s</w>
e u
de m</w>
b er
b er</w>
a n</w>
sch en</w>
un gen</w>
n en</w>
i t
A n
a m
i m</w>
z i
I n
D ie</w>
ti on
f f
u m</w>
e m
S ch
al l
ei t
A u
t h
o p
o m
an d</w>
w w
ä n
wi r
si ch</w>
e g
li ch</w>
di es
20 0
i s</w>
ni cht</w>
un g
wer den</w>
w ei
ti on</w>
B e
s in
s t</w>
a h
a r</w>
0 0</w>
a f
r u
a t</w>
a hr
s e</w>
ch t
v i
ch en</w>
t z
P ro
l o
au s</w>
an d
h tt
s er
d en
sin d</w>
o r</w>
au s
htt p</w>
U n
f or
s s</w>
ein en</w>
o h
ge b
o t
au ch</w>
u r</w>
o m</w>
. .
al s</w>
g i
k t
sch e</w>
ein er</w>
et z
h al
st ell
st en</w>
o der</w>
l e</w>
er t</w>
E r
wir d</w>
t er</w>
M a
l ei
R e
ch e</w>
w ie</w>
e t</w>
w en
n o
st i
u m
ung s
t a
a m</w>
D i
an n</w>
ü ber</w>
ä r
E n
er i
E in
ö n
h ab
au f
o mm
da ss</w>
S p
u l
g t</w>
A r
s ie</w>
be i</w>
G e
e d</w>
r an
sch af
eh r</w>
wi r</w>
s o
h i
m en</w>
d u
l e
ch te</w>
r ü
T h
er en</w>
j e
g el
e l</w>
ein em</w>
d ur
c k</w>
l en</w>
f a
i r
g an
a l</w>
A us
er n</w>
A l
r ä
ü r
D as</w>
k t</w>
st a
h at</w>
lich en</w>
1 9
1 0</w>
k ön
es s
w .
w e
h o
w ur
ei ten</w>
hab en</w>
w as</w>
v or
ww w.
s o</w>
en t</w>
M i
a li
ss en</w>
ge s
in g</w>
na ch</w>
li e
b i
D er</w>
g er
zu r</w>
i ch</w>
h r</w>
. c
mm er</w>
f in
u t
i g
a d
i hr
th e</w>
k eit</w>
l an
st e</w>
ur op
tion en</w>
z ei
a ch
ö r
zu m</w>
kön nen</w>
201 6</w>
ar b
t ra
te t</w>
an der
dur ch</w>
w ar
n e</w>
ü n
p a
i el
l in
A b
.c om</w>
lich e</w>
t s
er ung</w>
l u
ol l
te l</w>
P o
p p
f t</w>
.. .</w>
h er
q u
Un ter
eh en</w>
s e
i schen</w>
un ser
a k
un ter
l ä
fü hr
s si
ge h
H er
r au
K on
2 0</w>
t ei
B er
1 2</w>
in g
s en</w>
n eh
b es
b is</w>
p f
V or
en d</w>
e st
n eu
c e</w>
k omm
I hr
H o
W i
h t
ti v
v or</w>
1 0
1 6</w>
n ur</w>
m ö
k ann</w>
ch ti
s a
un d
d o
p ro
er s
1 1</w>
1 7</w>
g ra
P ar
el t</w>
der n</w>
. 0
an n
t ä
u s</w>
J ahr
p o
a tion</w>
k on
f ol
f er
en den</w>
g r
eb en</w>
wur de</w>
l ung</w>
w or
ge m
g er</w>
w ar</w>
ge sch
b t</w>
d ung</w>
ä l
ü ber
N ä
e x
E urop
k en</w>
En t
b en</w>
M ar
T a
1 5</w>
d ar
de t</w>
u tz
S e
un s</w>
n et</w>
Z u
ie l</w>
. ht
m e</w>
Au f
f ahr
t o</w>
o f</w>
E s</w>
h eit</w>
schaf t</w>
K om
ma n</w>
ä hr
I n</w>
er k
p l
n e
ab er</w>
h in
f en</w>
a mm
1 2
t o
no ch</w>
m o
s ein</w>
p h
g u
F or
m ehr</w>
b a
dies e</w>
all e</w>
M it
ell e</w>
g ung</w>
al e</w>
ch ten</w>
na h
3 0</w>
in i
b ar
ge w
k te</w>
h nen</w>
s u
ch er
f i
b il
a ten</w>
e hr
en s
wi ck
s el
n ung</w>
Wi r</w>
Di es
In ter
a p
g ro
en s</w>
w el
i mmer</w>
en de</w>
k o
0 1</w>
e ch
a ss
wen n</w>
201 5</w>
1 8</w>
y st
t ung</w>
dies er</w>
ein es</w>
I ch</w>
1 4</w>
v om</w>
R eg
Pro du
G r
B a
in ter
sch ie
al en</w>
at z</w>
un ter</w>
1 9</w>
s ol
un den</w>
0 7</w>
be t
Th e</w>
Nä chte</w>
ß en</w>
etz t</w>
1 3</w>
ei te</w>
S o
ä h
b e</w>
G es
- 0
p er
e di
k l
U m
on en</w>
or t</w>
neh men</w>
f t
z en</w>
M o
b ei
Ge sch
l and</w>
ü ck
for ma
z ah
l au
i sche</w>
0 8</w>
2 1</w>
N a
u n</w>
hal ten</w>
L a
c i
wei ter
L i
g keit</w>
us s</w>
r in
O r
1 1
n is
n er
M on
s ehr</w>
us amm
r es
Ar b
o o
st eh
al l</w>
ri e
2 2</w>
m an
w oh
ar t
g lei
D at
el e
M en
n er</w>
ol o
e -
0 9</w>
Q u
0 3</w>
F ra
a b</w>
mö g
s en
F a
komm en</w>
i er
0 2</w>
5 0</w>
s ch</w>
ell en</w>
ü tz
.ht m</w>
hi er</w>
el n</w>
S i
0 4</w>
ck en</w>
ri t
Ho tel</w>
ch er</w>
vi el
B il
tä t</w>
C h
h e</w>
da ß</w>
on der
el s</w>
T o
2 3</w>
b li
o s</w>
c on
ß e</w>
na tion
k e</w>
D e
ö ff
gi bt</w>
Ü ber
o v
en en</w>
0 5</w>
W ei
M är
so wie</w>
st at
s a</w>
li ti
R i
st er</w>
2 5</w>
fin den</w>
ff en</w>
P M</w>
en n</w>
S u
ah r</w>
eg t</w>
s k
f e</w>
. de</w>
d a</w>
st än
0 6</w>
m ü
n t</w>
l er</w>
geb en</w>
sti mm
ihr e</w>
mi ssi
an t
l t</w>
P ers
mi tt
wi e
or d
in e</w>
stell t</w>
U ni
dies em</w>
z eu
B et
st al
ä u
m m</w>
In forma
or t
si on</w>
u t</w>
Ihr e</w>
sta g</w>
el l</w>
em ber</w>
Mär z</w>
I hnen</w>
201 0</w>
wi schen</w>
1 3
er te</w>
D o
un k
k m</w>
V i
R o
e p
c a
1 8
ge s</w>
i en</w>
T ei
A p
l y</w>
ti k
D a
Un d</w>
i h
stell en</w>
Europ ä
ti gen</w>
te m
de ut
L o
st er
1 4
F ü
b l
ti g</w>
I m</w>
v er</w>
b en
P rei
b ar</w>
1 6
z wischen</w>
200 9</w>
D eu
G eb
p r
ni s</w>
B o
1 5
s on
Z eit</w>
E U
t sch
ent r
f re
eit er</w>
m u
m en
es t</w>
o ff
ge f
er e</w>
K in
i ge</w>
v e</w>
ta g</w>
0 0
tion s
B u
W enn</w>
Reg i
den en</w>
R ei
st en
ver b
Po st
z e</w>
ma l</w>
eit s
s er</w>
sch er</w>
g ab
2 4</w>
K o
st ra
t s</w>
usamm en
missi on</w>
w a
d ann</w>
h and
e d
sp iel
W oh
i hr</w>
ander en</w>
bi et
dies es</w>
c o
m ar
201 1</w>
us t</w>
g ri
sp e
f ra
mi t
k un
eu te</w>
200 8</w>
do ch</w>
St ad
ar e</w>
d s</w>
no t</w>
L u
Mit g
t en
h a
t ro
s oll
s eine</w>
tiv e</w>
F re
W eb
U hr</w>
bes onder
h ö
f o
Ent wick
t h</w>
a s
Dies e</w>
H au
i mm
es en</w>
S er
m ent</w>
201 3</w>
hal b</w>
om p
r en
wur den</w>
Kom mission</w>
201 4</w>
E x
ss e</w>
mü ssen</w>
201 2</w>
G er
1 7
. .</w>
st ütz
k eiten</w>
k eine</w>
ä ch
h at
s etz
v ol
z we
stell ung</w>
schaf t
for der
2 7</w>
19 9
2 8</w>
F rei
2 6</w>
F ran
St a
steh t</w>
H ot
aus ge
w ür
b o
a g
g ie</w>
er n
h er</w>
nis se</w>
is ch</w>
wi chti
Mi t</w>
an g</w>
Post ed</w>
2 5
ul t
h ei
ein fa
ge gen</w>
zei ch
lich keit</w>
f e
t re
it ä
W ir
S a
unser e</w>
an ge
all en</w>
ei ch</w>
J ahr</w>
U R
gan g</w>
ar i
zi mmer</w>
ber eit
y o
S eite</w>
l ü
E in</w>
sch lie
B es
st ru
ei gen
C o
2 4
N ach
sch ei
ä tz
w s</w>
S on
ess en</w>
1 .
fahr en</w>
200 7</w>
b u
rü n
wei se</w>
h af
zwe i</w>
th is</w>
B ei
g s
wi l
P a
la ge</w>
be g
l än
sp re
P rä
ä f
St u
p ar
r on
z ur
U T
N e
biet et</w>
or i
neu e</w>
Mi tt
j p
l er
Be sch
k en
am en</w>
st ehen</w>
n en
Mitg lie
ru pp
z eit</w>
2 9</w>
a c
T i
m p
W e
4 0</w>
L in
t es</w>
Informa tionen</w>
e i</w>
ver schie
h äl
d u</w>
st ri
en e</w>
at ur
be sch
ti ge</w>
G em
A k
Jahr e</w>
Men schen</w>
U S
g ar
da y</w>
neh m
Ver b
G en
M u
m in
g a
St ra
c ur
or en</w>
ander e</w>
ti m
Sp iel
ü ck</w>
i gen</w>
ent s</w>
L ei
oh ne</w>
S yst
wir k
er ten</w>
UR L</w>
cht ung</w>
3 1</w>
.. ..</w>
K un
F in
da mit</w>
gr ö
b st</w>
un der
öff ent
jp g</w>
la ssen</w>
Di en
w in
Pro je
m l</w>
l etz
ph p</w>
wie der</w>
et er</w>
UT C</w>
L än
cht s
s eit</w>
200 6</w>
w o
B i
W in
ähr end</w>
d ing
g te</w>
zah l</w>
w is
m ei
A M</w>
fin det</w>
4 9</w>
Hot els</w>
e urop
N i
A d
en z
ö l
J o
ah l</w>
stän di
Jahr en</w>
Z immer</w>
Unter nehmen</w>
b y</w>
N ov
cht s</w>
mi ch</w>
J u
L ie
st and</w>
lich er</w>
Pro gra
hab e</w>
s ehen</w>
b ur
er s</w>
Z usammen
E R
E r</w>
W elt</w>
a u</w>
es s</w>
g s</w>
s einer</w>
K ar
I t</w>
neu en</w>
Fü r</w>
dur ch
Au g
T ra
f ri
la s
u p
Ein e</w>
w al
v a
R es
na ch
v ie
Aug ust</w>
rei ch</w>
r ent
2 3
ihr er</w>
an a
Se p
b el
führ t</w>
kt u
h än
m uss</w>
s or
be k
woh l</w>
ß er
J un
ü h
k s</w>
n te</w>
ent wick
M in
y p
2 .
ein s
st r
un kt</w>
S ti
li egt</w>
K at
B au
ie ten</w>
ö s
Sep tem
in s
. php</w>
W ar
w o</w>
schlie ß
M ö
son dern</w>
Septem ber</w>
po liti
fa ss
si te</w>
ter n</w>
en d
D ur
k ra
3 0
mi r</w>
W ass
z el
war en</w>
F lu
lei st
am e</w>
st ar
M e
et t
an k</w>
ma ti
w är
wir t
f rei
Deu tsch
k tion</w>
f f</w>
ali si
Ar tik
dies en</w>
unser er</w>
ei g
K a
ma cht</w>
ti eren</w>
4 5</w>
v e
ali tät</w>
F ahr
k i
t r
nah men</w>
la gen</w>
P l
Gr und
ma chen</w>
Europä ischen</w>
eb en
v oll
te ch
Nov ember</w>
a d</w>
en z</w>
ti ert</w>
Pro bl
er g
d re
on e</w>
i l</w>
k auf
c t</w>
2 6
st an
geh en</w>
st au
i t</w>
rei chen</w>
T ech
viel e</w>
f or</w>
re qu
k a
di re
il l
vi ce</w>
1 .</w>
T er
k ur
cur rent
H ei
si den
p rä
inter nation
U r
di es</w>
bes ser
kun ft</w>
k ten</w>
Stad t</w>
3 2</w>
k an
ser ver</w>
am p
fo und</w>
ver fü
i c
2 8
k ün
g lich</w>
B eri
sp ro
200 5</w>
s -
sch n
1 00</w>
ch i
wel t
.ht ml</w>
ver si
H and
2 9
hal t</w>
current ly</w>
b au
D es
z ep
Z eit
m e
C on
ges am
h eute</w>
I hr</w>
est ed</w>
pr o</w>
gu t</w>
Entwick lung</w>
fa st</w>
bereit s</w>
ge l</w>
europ ä
Si cher
G ro
li en</w>
gen den</w>
hat te</w>
. jpg</w>
sch on</w>
h t</w>
us s
sel bst</w>
J ul
en te</w>
d ru
W o
ge stellt</w>
requ ested</w>
gen de</w>
un i
3 3</w>
s atz</w>
w eit</w>
2 7
ar d</w>
g li
Ta g</w>
Her r</w>
i er</w>
y si
t u
Er geb
er sten</w>
f il
geb o
m on
all s</w>
3 5</w>
Mitglie d
pro du
k la
k om
am ar
M edi
em e</w>
P ri
j etzt</w>
sp ra
ri eb
ver wen
W a
ge gen
ihr en</w>
St and
Woh n
p m</w>
geh t</w>
p t
i m
an z
it te</w>
p er</w>
S te
ann t</w>
an u
grö ß
d es
be w
sch ri
A m
ko sten
ä m
il li
ri l</w>
ck e</w>
pl y</w>
schaf ten</w>
k a</w>
en ten</w>
Deutsch land</w>
h in</w>
ch en
z w
k er</w>
ck t</w>
it u
Prei s</w>
gen omm
L eb
kt o
ti c
K omm
Ap ril</w>
. net</w>
Europ a</w>
p s</w>
m us</w>
T ran
K li
einfa ch</w>
E ur
b rin
el i
S am
Pers onen</w>
gan z</w>
Re ply</w>
sp iel</w>
nah me</w>
Au f</w>
w ährend</w>
F il
v iel</w>
Ma y</w>
f te</w>
li cht</w>
st o
or g</w>
4 1</w>
L e
Th is</w>
l ungen</w>
L and
3 9</w>
4 3</w>
N eu
Artik el</w>
tiv en</w>
ur en</w>
Mö g
P h
al o
ent fer
in nen</w>
Al le</w>
ar y</w>
s einen</w>
200 4</w>
je doch</w>
W ie</w>
op p
om e</w>
S o</w>
ro m</w>
ih m</w>
Gem ein
An zahl</w>
z wei
3 4</w>
m b
rü h
entr um</w>
V on</w>
Fa mi
st ä
l uss</w>
Au g</w>
den n</w>
4 8</w>
W el
G ra
M at
zi eh
Uni on</w>
d ungen</w>
be stimm
Flu g
Pro z
m ä
T e
u bli
amar il
bi li
i st
O kto
ch tet</w>
i g</w>
B en
s h
E -
te d</w>
f er</w>
D on
b ieten</w>
G o
N o
R ah
E l
u ten</w>
Ver fü
de l</w>
Be i</w>
tim es</w>
ant wor
be wer
genomm en</w>
re gi
v en
n olo
sol l</w>
sta aten</w>
p ers
a st
er halten</w>
stau ran
Na ch</w>
si cht</w>
bei m</w>
Okto ber</w>
ff e</w>
H aus</w>
Ber eich</w>
l eb
di en
Tei l</w>
f u
dre i</w>
em pf
der ung</w>
E U</w>
ih n</w>
D aten</w>
war e</w>
spe zi
at ur</w>
C H
W er
mög lich</w>
p ri
Produ kte</w>
er fol
Prä siden
geh ör
EU R</w>
Ma i</w>
tra g</w>
W as</w>
ar d
z o
el d</w>
V ol
ß t</w>
J anu
gab e</w>
Ver k
- F
4 4</w>
rei ch
s eiten</w>
R u
3 6</w>
si cher
ti v</w>
et was</w>
li gen</w>
h ol
unser en</w>
Wir t
n et
unter stütz
ot o
D ar
C hr
pa ge</w>
Ar t</w>
ti schen</w>
ein ig
führ en</w>
r än
T ele
b in</w>
H a
m el
c m</w>
wor den</w>
sch la
Th em
bur g</w>
en -
o b</w>
soll te</w>
in ner
n un</w>
eit ung</w>
en k
m a</w>
at z
g o
ä hi
in s</w>
all es</w>
An wen
3 .
at ür
Par la
lich keiten</w>
r .</w>
be l</w>
h oh
t rä
Mu si
si on
te te</w>
R a
4 .
St .</w>
B eh
G rupp
st e
rit t</w>
arb ei
M et
spre ch
ein ige</w>
arb eit</w>
i hnen</w>
b ung</w>
. org</w>
eri en
F ol
glei ch
N utz
wei l</w>
schaf ts
itä t</w>
ie der
ÿ ÿ
da zu</w>
Al l
f äl
Di es</w>
tro l
ün sti
3 8</w>
- S
c e
st and
li ck</w>
t ungen</w>
lin e</w>
g ten</w>
Sch la
er sch
wil l</w>
w eiter</w>
B re
Gesch äf
w ol
c a</w>
G ar
zei gt</w>
besonder e</w>
un de</w>
ö h
h ä
F e
in k
B ar
f an
es se</w>
L eben</w>
5 0
2 .</w>
H il
St ar
Wei ter
6 0</w>
W or
4 2</w>
w n
m ehr
T ex
p la
er st
gen d</w>
K unden</w>
f ten</w>
Jun i</w>
n ten</w>
5 .
h e
F i
pl atz</w>
S ü
H in
zei gen</w>
N or
h eiten</w>
komm t</w>
i zi
2 -
äh len</w>
b lei
K ü
an zi
z us
Au ch</w>
eb ru
en ti
Or t</w>
5 5</w>
f alls</w>
w ach
tra gen</w>
P f
li n</w>
r is
tech ni
Re stauran
La ge</w>
3 7</w>
le gen</w>
Kin der</w>
A ber</w>
st u
i ma
Arb eit</w>
gem eins
lan g</w>
Her r
F ebru
m ini
al t</w>
mö chte</w>
man y</w>
wel che</w>
Sam stag</w>
arb eiten</w>
d an
Par t
Mitglied staaten</w>
1 -
be findet</w>
b je
Jul i</w>
An t
5 2</w>
entfer nt</w>
al so</w>
, 00</w>
ah n
l and
ß nahmen</w>
B eg
Al s</w>
der t</w>
L and</w>
P la
i chte</w>
ur e</w>
it z
tt er</w>
j a</w>
d t</w>
l ungs
gab en</w>
En de</w>
a ktu
tei l</w>
Don ner
ot t</w>
weiter e</w>
c t
rau m</w>
Ihr en</w>
h au
f est
yo u</w>
st är
at s
I N
z z
gan is
an stal
K ur
Hau pt
Frei tag</w>
I mm
Bes u
Sp ra
Donner stag</w>
n t
s y
fü l
L ös
sp ar
R ück
all em</w>
glei ch</w>
L A
ges etzt</w>
x i
ri cht</w>
Fran k
sch en
sch es</w>
gr und</w>
I D</w>
fi zi
O p
or e</w>
4 6</w>
So ft
führ ung</w>
ff e
ut z</w>
D u
p unkt</w>
gro ßen</w>
D is
K ö
Sp e
5 9</w>
ig er</w>
ho f</w>
ri chti
lo s</w>
9 .
tei l
B ür
da bei</w>
at ed</w>
Rah men</w>
5 4</w>
a tionen</w>
o bil
K l
l eg
g eri
häl t</w>
z eit
8 0</w>
ba u</w>
no w</w>
H ier</w>
ü l
S y
Vi de
M illi
gro ße</w>
5 1</w>
Bil d</w>
E S
B .</w>
i ert</w>
5 6</w>
h ör
Bei spiel</w>
ei ch
mitt el
g ar</w>
8 .
I s
Leb ens
ma sch
Web site</w>
d is
ein zi
wür de</w>
al er</w>
Verfü gung</w>
at er</w>
ell schaft</w>
der en</w>
Inter net</w>
vi a</w>
R au
4 -
lä che</w>
k um
V iel
dire kt</w>
m at
h en</w>
h il
Arb eits
ti sche</w>
4 7</w>
so zi
F unk
mm e</w>
w er</w>
ti gt</w>
O n
We g</w>
U m</w>
ss t</w>
n atür
h eits
w a</w>
s yst
12 .</w>
F erien
G ott</w>
rau en</w>
r e</w>
B el
b ri
i a</w>
J e
g än
Europä ische</w>
5 7</w>
er ste</w>
a -
For sch
l eben</w>
M w
Tele f
eu ch</w>
si eh
K re
h under
F arb
d ür
n äch
zu g</w>
a te</w>
a de</w>
Fra u</w>
L an
s el</w>
sa gen</w>
ding ungen</w>
EU -
D a</w>
ho w</w>
den e</w>
5 3</w>
K ir
n utz
su chen</w>
Ihr er</w>
ein ge
M us
g keiten</w>
Geschäf ts
wn lo
G ä
W erk
letz ten</w>
T el</w>
ca .</w>
wol len</w>
si cht
we gen</w>
ot os</w>
ie t</w>
f rom</w>
dar auf</w>
K ult
w eg
h el
th e
gen d
C omp
gi en</w>
et te</w>
5 8</w>
A R
b lo
la d
brin gen</w>
Dat en
H e
all er</w>
Au t
m eine</w>
soll ten</w>
verschie denen</w>
ver k
Ä n
po si
W is
m edi
p or
cht er</w>
g ünsti
Syst em</w>
d o</w>
l a</w>
U N
t te</w>
lo ssen</w>
wen di
19 8
Beri cht</w>
G u
eigen en</w>
gen er
Nä he</w>
R at</w>
US A</w>
5 -
p rü
Ent schei
sch ein
Kö ni
6 .
s eite</w>
mm en</w>
Sch i
sch rei
mb H</w>
gen en</w>
Arb eit
P ra
B al
lä u
er -
gro ß
ei chen</w>
Z iel</w>
s einem</w>
an t</w>
b st
F u
usamm en</w>
w es
cht lin
Eur o</w>
si ert</w>
wirt schaft
G mbH</w>
sch a
er mög
lich es</w>
F rüh
t ran
Präsiden t</w>
f unk
E i
Janu ar</w>
Fra ge</w>
europä ischen</w>
Dien st
ak fast</w>
11 .
3 -
zur ück
mo der
Au to
for t</w>
F ir
d lich</w>
wi th</w>
en der</w>
Er fahr
b in
.0 00</w>
H aus
Pers on</w>
M ini
k ein</w>
9 0</w>
1 ,
In st
gel be</w>
t y</w>
Ver sion</w>
200 3</w>
st or
ge t
De z
t z</w>
inner halb</w>
da für</w>
setz ung</w>
er st</w>
o l</w>
Kon ta
T u
t un</w>
Unter stütz
ess er</w>
B eit
Sch wei
F all</w>
ch ter
A m</w>
d -
ri eben</w>
Lei st
häl t
st off
g it
ti me</w>
S al
ot wendi
an k
P er
kt ur</w>
s enden</w>
al ten</w>
Uni versi
j ähr
h an
0 ,
hän gi
P al
A pp
I ta
f ähi
s ei
au to
är e</w>
schließ lich</w>
H ol
vie w</w>
d ort</w>
u er
Son n
E N
an der</w>
p e
Dur ch
In du
ne w</w>
Dez ember</w>
11 .</w>
G i
N amen</w>
Tei l
Stu di
ber eich</w>
sp ä
m s</w>
Ber lin</w>
St r
unter schie
Bu ch
da r</w>
S ol
I S
Dies es</w>
l auf
Ho ch
be steht</w>
R at
liti k</w>
mä ß
P i
b rau
et s</w>
de u
z un
Progra mm</w>
M an
b r
gel e
R ol
l ö
z ü
un ser</w>
sta dt</w>
gem ent</w>
viel en</w>
Dat ei
10 .</w>
Y o
En gli
7 .
h ar
Des ig
ri g
se i</w>
E N</w>
K ra
bli ck</w>
S ei
C a
z usammen</w>
Un ser
Ergeb nisse</w>
b al
au ßer
Verb in
Mw St.</w>
opp el
Tech nolo
ti gung</w>
ell er</w>
Be d</w>
K ri
zah l
Fra gen</w>
Mög lichkeit</w>
lä tz
bei den</w>
rie b</w>
A T
haf en</w>
Win do
D ru
t ungs
k ar
7 0</w>
Inter nation
en zen</w>
Dat ei</w>
fra ge</w>
y -
it y</w>
i sti
P ol
st ens</w>
Ben utz
S in
m us
in en</w>
Zusammen arbeit</w>
v öl
G ol
al y
et wa</w>
Ma ßnahmen</w>
amaril las
imm obil
in a</w>
o b
c al
Mo d
er war
lie gen</w>
ho ch
da von</w>
f o</w>
G eh
12 .
h aus</w>
ett bewer
ent sprech
c o</w>
m ents</w>
res se</w>
je der</w>
auf ge
sch ö
Me er</w>
stat t</w>
- -
0 00</w>
bar e</w>
d r
ein mal</w>
l via</w>
p rei
Sch ul
Wei se</w>
sch ni
d i</w>
Unterstütz ung</w>
Zu gri
sch ön
d au
a ge</w>
setz en</w>
g rei
besonder s</w>
Schla f
K an
K ap
in de
ysi lvia</w>
lad ysilvia</w>
B ro
der ungen</w>
tei le</w>
Gesch ichte</w>
3 6
A c
Regi on</w>
ent lich</w>
sch i
T ro
fü h
E R</w>
Sicher heit</w>
ins besondere</w>
o -
ä d
Ges am
bar en</w>
P at
20 0</w>
k re
erk l
w ahr
Ge gen
vi er
sp ru
Kom p
Sp iel</w>
alo g</w>
e v
Unser e</w>
3 8
k u
Ser vice</w>
f ör
Ç á
sch lä
Sonn tag</w>
ti n</w>
mm t</w>
ff izi
G el
O ber
f ang</w>
Qu alität</w>
f eh
Telef on</w>
el li
Wel t
te ten</w>
H ö
Bre akfast</w>
st ei
Sp an
b is
k ri
Wass er</w>
cht ungen</w>
tre ten</w>
D -
r a</w>
er reichen</w>
Z iel
wis sen</w>
ch es</w>
leist ungen</w>
kt or</w>
ve sti
itä ten</w>
ß en
n ungen</w>
M ana
H an
A N
S eiten</w>
j e</w>
d rü
gel egt</w>
Soft ware</w>
vi er</w>
Ein zel
Probl em</w>
Gen er
g sten</w>
Parla ment</w>
unser em</w>
Ta ge</w>
Imm o
C ar
p lan
p ubli
st re
m et
b itte</w>
m er
i eren</w>
h eb
zw .</w>
Gr ö
P re
b zw.</w>
d ungs
En erg
Jahr hunder
em s</w>
ad s</w>
K ol
I T
erkl är
To ur
ge macht</w>
d lichen</w>
erk en
ink l</w>
3 9
Ver anstal
dar f</w>
G rün
ein zel
i li
m pf
eg or
Febru ar</w>
Dies er</w>
Län dern</w>
T em
all er
l ie</w>
Ar chi
sch u
D u</w>
Ihr em</w>
En er
K am
k li
forder ungen</w>
ab hängi
olo gi
Go tt
3 7
0 .0
Grupp e</w>
mei sten</w>
ah l
An gebo
rit te</w>
so wohl</w>
Ba de
S el
is mus</w>
s c
zeich net</w>
Them a</w>
je wei
t -
tion s</w>
Ne w</w>
ff t</w>
M ehr</w>
Mat eri
k s
zi ehen</w>
Wo che</w>
Gro ß
Lu x
z .
Min uten</w>
mö chten</w>
T V</w>
N etz
wen iger</w>
y s</w>
D em
k or
i de
c es</w>
arbei tet</w>
geb ung</w>
mit tel</w>
g lau
Z entrum</w>
z er
au t</w>
us e</w>
ann ten</w>
zur ück</w>
5 7
T re
n or
K la
be sten</w>
gen ie
vol l</w>
internation alen</w>
Pl atz</w>
la tion</w>
z ö
str ie</w>
st eu
wer k</w>
r et
gen heit</w>
e ar
ver sch
s an
in n
g ern</w>
d el
B l
Or ganis
verwen det</w>
hand elt</w>
K u
r o</w>
am p</w>
B us
m erk
Do wnlo
Ges und
Ger ä
wie der
H al
rei cht</w>
N ame</w>
ges ehen</w>
d essen</w>
z usammen
er forder
g -
ra cht</w>
ch s</w>
C O
lo b
Mitt wo
z ent
H af
sol len</w>
g o</w>
A t
4 0
Kun st
b s
Hil fe</w>
For m</w>
li g</w>
te x
wär e</w>
s h</w>
k omp
ge führt</w>
ihr em</w>
o ut</w>
au ss
Mittwo ch</w>
Do kum
g rün
er lau
pers ön
an a</w>
an zu
G ei
ein ander</w>
y c
u p</w>
an z</w>
schla g</w>
for m</w>
ta l</w>
ent schei
Re chts
ent er</w>
m in</w>
e f
ri tt
gesam t</w>
h eit
wirk lich</w>
4 9
M or
gu te</w>
ss yst
zei tig</w>
D oppel
B ü
F rie
all y</w>
B lick</w>
t in
19 7
ti gkeit</w>
bes u
lan ge</w>
c ation</w>
Be wer
Flug hafen</w>
ver y</w>
Z imm
yo ur</w>
Ges ellschaft</w>
si cher</w>
p ra
d or
Ch ar
Fa x</w>
t ten</w>
M ehr
ständi g</w>
10 .
ch s
ge geben</w>
bil dung</w>
arb eiter</w>
ge wi
K or
re cht</w>
d ro
sch t</w>
Th e
t a</w>
la r</w>
al er
Be deut
J a
Dur ch</w>
s eh
u ter</w>
her e</w>
si chti
G ri
ab le</w>
Tech ni
E le
ti g
K ün
äm pf
2 ,
her r
C hin
W al
ber g</w>
oh n</w>
A G</w>
dru ck</w>
wor t</w>
g rupp
kt ur
kon nte</w>
ver besser
Par k
Herr n</w>
hal t
äh lt</w>
Lu ft
mi schen</w>
hr en</w>
200 0</w>
Unter nehm
r und</w>
j en
ni chts</w>
stell e</w>
Wass er
um fass
se con
wa gen</w>
c ra
- con
v at
Fin anz
je den</w>
ord nung</w>
kön nte</w>
p i
w ä
m ent
re gel
z. B.</w>
6 -
g n
W ettbewer
pr ess
Mitt el
s es</w>
pf lich
gegen über</w>
schn ell</w>
w ahl</w>
fol genden</w>
G eri
c u
in di
E- Ma
Prei se</w>
ti sch</w>
ei cht</w>
be finden</w>
ele kt
il t</w>
B itte</w>
fü n
Früh st
hat ten</w>
um e</w>
Milli onen</w>
ben utz
zus ätz
Energ ie
li eren</w>
gef unden</w>
Restauran t</w>
stell ungen</w>
sch luss</w>
v en</w>
S .</w>
S an</w>
L a</w>
z eh
Bedeut ung</w>
ru fe</w>
t ent</w>
I de
ah n</w>
ba ck</w>
spiel en</w>
B r
f ern</w>
Un ser</w>
um s</w>
G a
F eh
E ben
lo se</w>
4 7
on i
f läche</w>
en n
sa mm
gener ated</w>
Bil der</w>
n otwendi
Zu kunft</w>
K ran
spre chen</w>
re cht
b rei
bek annt</w>
f ung</w>
Immo bili
Woh nung</w>
wer t</w>
fre und
h ang</w>
da her</w>
öffent lichen</w>
ausge stat
P lan
kl einen</w>
St at
in fo</w>
lei ch
Ter ra
zi el
Windo ws</w>
stell er</w>
Auf ent
m ann</w>
K ör
wei sen</w>
er ungs
ur t</w>
hin aus</w>
o k
- 20</w>
N ieder
l s</w>
te m</w>
Chr ist
tei lt</w>
si ve</w>
all gem
ts eite</w>
4 8
zi ert</w>
ci en
di r</w>
m als</w>
sp richt</w>
secon ds</w>
bar keit</w>
gr und
so gar</w>
D L
an ce</w>
schri ften</w>
p en
A L
Rol le</w>
w and
St unden</w>
un kte</w>
ch e
l es</w>
alisi erung</w>
5 9
hau p
b oo
k at
sen schaft
Spiel e</w>
F rauen</w>
F ach
um en</w>
H ome</w>
for t
li en
sa gte</w>
Re cht</w>
Proje kt</w>
tei lung</w>
in gen</w>
E v
Inter net
gesch lossen</w>
ri chten</w>
b ra
wer k
Ba si
pro gra
Weiter e</w>
Ver t
w ählen</w>
St ru
5 00</w>
Ma sch
lätz e</w>
la den</w>
el s
J es
u g
ung sp
pl at
verschie dene</w>
a tive</w>
c an</w>
Kli ma
mi ss
li ge</w>
rei bung</w>
Kü che</w>
Ger many</w>
an ten</w>
z en
wichti g</w>
b re
c omm
Kir che</w>
Spe zi
K op
Is ra
Z u</w>
vi du
entwick elt</w>
g ilt</w>
gen au</w>
gr enz
her vor
ali tä
Produ k
et a
7 -
So zi
w under
in dem</w>
b esser</w>
kl eine</w>
Län der</w>
Ex p
Geb äu
Fami lie</w>
Produ kt
Star tseite</w>
verb in
kl är
ot o</w>
etz en</w>
Zugri ffe</w>
ris e</w>
gew ähr
13 .</w>
Ri chtlin
Sta aten</w>
R O
- B
w n</w>
verfü g
g ab</w>
wi eri
l at
M ün
Na tion
v ed</w>
wer de</w>
f lu
ding s</w>
m or
ri chtung</w>
Probl eme</w>
i r</w>
p re
dar über</w>
ill a</w>
S omm
F er
Di re
Pl at
N atur
kauf en</w>
no va
ben ö
W ach
S h
Jo in
In di
Ri chtung</w>
eu m</w>
d ri
O bje
et t</w>
ck er</w>
us si
zei ge</w>
k ung</w>
k ation</w>
Pro f
4 6
Ei gen
Ver wen
E P
aus zu
a se</w>
S ie
gan ze</w>
Musi k</w>
S k
w elt</w>
gehör t</w>
Er fol
S T
200 2</w>
Ur lau
Immobili en
em en</w>
ges etz
in du
li g
F est
ab ili
up lo
m ein</w>
e f</w>
so ur
auto mati
N r.</w>
3 .</w>
o ben</w>
eit s</w>
deu tet</w>
ach ten</w>
Frank reich</w>
W il
o s
stimm ung</w>
si tz
au er</w>
natür lich</w>
F l
ge t</w>
st ie
ser vice</w>
si ch
7 6
op er
Mar kt</w>
Ferien woh
an lage</w>
öff net</w>
C ol
w ass
po st
B rü
D r.</w>
Na cht</w>
ger ade</w>
z entr
Ap art
E I
blei ben</w>
E mpf
Ba d</w>
w an
t yp
inde x
glei chen</w>
a den</w>
t op
S c
eben falls</w>
und es
eh men</w>
fre i</w>
on line</w>
fin anzi
lan g
geb racht</w>
Komm ent
ber i
k ro
S ki
ti k</w>
hel fen</w>
Tran s
Sp a
ts ch</w>
ni en</w>
M al
A ktu
z war</w>
funk tion
th at</w>
Ver s
verfü gt</w>
Bet rieb
pa ss
Z i
we g</w>
ni mmt</w>
le x
Regi erung</w>
Lös ung</w>
Ein satz</w>
Z we
an i
P rü
Ö ff
Ita lien</w>
M an</w>
di tion
r i</w>
c yc
P ort
Dienst leistungen</w>
fahr t</w>
T ür
ti vi
Au s</w>
tei len</w>
B ra
or gan
m er</w>
ge eig
9 .</w>
arb eitung</w>
Kün st
L ehr
ri chtungen</w>
gan zen</w>
W ahr
nutz en</w>
Ak tiv
Anwen dung</w>
H and</w>
zeu g</w>
ar t</w>
f ig
unterstütz t</w>
on a</w>
C omm
l en
8 -
ra g</w>
um ber</w>
zo gen</w>
hö ch
Sei te
k ult
Mar kt
welt weit</w>
immobil i</w>
il s</w>
k o</w>
an gen</w>
Ver einig
edi a</w>
näch sten</w>
P r
c omp
spra ch</w>
Verbin dung</w>
5 6
Hö he</w>
auf rufe</w>
F ör
ko sten</w>
nehm er</w>
bet re
si erung</w>
a gt</w>
ein igen</w>
D or
v il
z t</w>
un ver
S -
P ap
fre u
D eb
s am
Web seite</w>
än de</w>
A A
Seite aufrufe</w>
f al
us er</w>
P D
sch ul
v o
O ff
z ung</w>
Sch u
In vesti
ne te</w>
St o
er hö
ung spro
fra gen</w>
v a</w>
ermög licht</w>
Po si
gem ä
f lü
k am</w>
p e</w>
Join ed</w>
ell eicht</w>
f l
Gr und</w>
li ert</w>
lo k
C amp
ger ä
g ungen</w>
di ch</w>
W ieder
o ft</w>
M ess
je de</w>
äch lich</w>
lä sst</w>
Produ kt</w>
M än
z er</w>
t t</w>
E L
s ätz
et z</w>
Proje kt
la ss
Mit arbeiter</w>
t lich</w>
stan den</w>
nis sen</w>
Stra te
Kar te</w>
hal tung</w>
Entschei dung</w>
Gä ste</w>
zö si
hal te</w>
sp ort
S or
Z um</w>
mi sche</w>
lä ssi
Gott es</w>
F ri
Mar k
htt ps</w>
Um gebung</w>
in ge</w>
ver t
B oo
Schwei z</w>
be deutet</w>
bal d</w>
M on</w>
Bil d
9 -
or s</w>
an ti
Fü hr
H ER
er fül
in te
g ing</w>
gen e</w>
s atz
on s</w>
In nen
d liche</w>
vie ws</w>
S itu
Kon trol
200 1</w>
U S</w>
St ell
Wirt schafts
Schlaf zimmer</w>
ab ge
P -
Ver wal
de -
m einer</w>
f ran
Kat egor
est er</w>
än dert</w>
Son nen
unterstütz en</w>
Z ah
in n</w>
C or
der zeit</w>
w l
n u
gehör en</w>
up da
j ahr</w>
Aus wahl</w>
Deu tsch</w>
Ser vi
lin e-
Ad resse</w>
M ein
for mi
je dem</w>
ein zu
politi schen</w>
bel ie
Ko sten</w>
g l
el a
it ali
d on</w>
rei che</w>
P or
Wach st
N atur</w>
b s</w>
k einen</w>
ins gesamt</w>
an s</w>
S eit</w>
olo gie</w>
L on
9 9</w>
su cht</w>
M ot
In halt</w>
B lo
än dern</w>
Zu gang</w>
An aly
we der</w>
re chte</w>
St re
hi stor
T ur
F ern
e k
ck s</w>
c el
p art
o .</w>
la s</w>
al s
ber u
li eb
te sten</w>
ÿÿ ÿÿ
ne ten</w>
l l</w>
be dingungen</w>
f s
n ern</w>
D ank</w>
Am eri
l esen</w>
Ma ch
ss el
i den
er neu
n ungs
wen ig</w>
sicht lich</w>
D enn</w>
sch ung</w>
Ma l</w>
e ten</w>
Ni cht
per fe
Zusammen hang</w>
Desig n</w>
All gem
lei cht</w>
ger ung</w>
Yo u</w>
an gebo
wirt schaft</w>
on nen</w>
k i</w>
g lichen</w>
ta ge</w>
Kon fer
P rin
i d</w>
y er</w>
on s
ge stal
Rei he</w>
A -
ger ne</w>
Kun st</w>
zah len</w>
zeu gen</w>
v el</w>
H ar
masch ine</w>
Dat um</w>
n umber</w>
f le
Ver fahren</w>
Rau m</w>
geb aut</w>
Pers on
k on</w>
f eld</w>
ma il</w>
äh n
da ten</w>
5 8
Spra che</w>
0 .
ne u</w>
b an
D eta
dar an</w>
es sion
Z ur</w>
rit ten</w>
n o</w>
th er</w>
un be
3 ,
P ubli
Li ste</w>
7 5</w>
Res er
Mi et
I I</w>
n eben</w>
Ch e
Komm uni
kla ssi
Wirt schaft</w>
st ern</w>
Konta kt</w>
f all</w>
w p
Sch utz</w>
1 .0
19 6
th er
Terra sse</w>
de te</w>
ann te</w>
Ver besser
mehr ere</w>
Ele kt
in en
Str and</w>
wür di
H inter
Universi tät</w>
fol gt</w>
fol gen</w>
f li
L auf
B undes
w oll
kom pl
sieh t</w>
w ün
völ k
Chin a</w>
Po litik</w>
weiter en</w>
ru hi
sa gt</w>
D ann</w>
Po st</w>
st et</w>
H imm
wür den</w>
si eren</w>
4 .</w>
ing s</w>
e ffizi
we en</w>
Span ien</w>
H am
uplo ads</w>
Men schen
mu ß</w>
A n</w>
ger e
hi er
Z wei
prä sen
0 -
erfol g
O R
Deu t
Kin der
be stä
ge sp
h aus
scha ffen</w>
ww w</w>
Erfahr ung</w>
lan gen</w>
Downlo ad</w>
Y or
T ri
Re ch
f est</w>
F lü
is s
f rie
19 .</w>
am eri
al es</w>
es e</w>
tr et
ges agt</w>
kün f
an te</w>
sel n</w>
W ert</w>
Unter kunft</w>
verwen den</w>
e .
W ol
zeu g
Z us
k ol
äch st</w>
auf grund</w>
Mög lichkeiten</w>
20 .</w>
Su che</w>
G leich
d y</w>
n ie</w>
F la
sti schen</w>
su ch
äh l
E ig
T ier
B an
T ä
C -
Grö ße</w>
sta at
mar kt</w>
indi vidu
oo g
cyc l
Datei en</w>
chti gkeit</w>
je des</w>
In stru
in c
t ri
trä ge</w>
fol gende</w>
er reicht</w>
l d</w>
ri ch</w>
In sel</w>
o ber
Besch reibung</w>
den ken</w>
f r</w>
te -
- 10</w>
f el
empf eh
Mi o.</w>
Au ßen
h äu
zu stellen</w>
A S
l ös
k ehr
off en
eigen e</w>
günsti ge</w>
win di
publi k</w>
St äd
h eu
ber ei
an zeigen</w>
.. ....</w>
är en</w>
ul ti
ein bar
An zeige</w>
es day</w>
spä ter</w>
ver l
c en</w>
Nutz ung</w>
l et
b ank</w>
Kun den
n ess
sch er
ber eit</w>
0 8
Geb iet</w>
Lie be</w>
bet ween</w>
Ge wi
W est
P ass
mitt eln</w>
Be zieh
ag o</w>
B ur
W ährend</w>
hal ts
S un</w>
st a</w>
Inst itu
T ab
wei ß</w>
E-Ma il</w>
Te am</w>
Eben e</w>
be ein
Be dingungen</w>
M ann</w>
man a
s etzt</w>
Produ ktion</w>
f on
Be weg
I ni
Beh and
dan ken</w>
kon trol
lei sten</w>
ti mi
Se p</w>
geri chtet</w>
Z ahl</w>
3 00</w>
Dien stag</w>
unter nehmen</w>
Ergeb nis</w>
qu e</w>
Do ch</w>
H el
Angebo t</w>
politi k</w>
m al
erlau bt</w>
organ i
-con tent</w>
sch utz
G re
Lie fer
schlä ge</w>
de cken</w>
P au
si onen</w>
Gesam t
wp -content</w>
g l</w>
a .
Fre und</w>
alisi ert</w>
El em
be steh
An fang</w>
0 9
sieh e</w>
Ge f
einzel nen</w>
c to
Gar ten</w>
Ber g
for um</w>
ss en
sp ann
s mus</w>
a ff
s ü
Ver antwor
K en
v el
res s</w>
W ein
hoh e</w>
da te</w>
K al
di tion</w>
W er</w>
4 00</w>
Ö ster
n ei
we ch
ver fahren</w>
d in
vol le</w>
Er de</w>
ausgestat tet</w>
LA N</w>
be kommen</w>
Part ner</w>
Ini ti
di schen</w>
a .com</w>
sch au
ma t</w>
V I
E is
ing -
deut lich</w>
b le</w>
fü r
fün f</w>
kult ur
D el
Au ßer
S P
de fin
B ru
sp ort</w>
in forma
zi eren</w>
sol che</w>
blei bt</w>
wei s</w>
Verwen dung</w>
stat t
An mel
dru ck
ver öffent
P an
Kon z
t ur
sp o
ma s</w>
G ast
ad a</w>
z eiten</w>
g ent
M ar</w>
D I
Forsch ung</w>
Gemein schaft</w>
a ch</w>
c ol
4 ,
mu si
zi p
10 -
D E</w>
M ei
s weise</w>
oh len</w>
ac tu
5 .</w>
Qu elle</w>
rei ben</w>
l l
Um welt
j o
S ter
g ol
des halb</w>
Restauran ts</w>
Ste u
0 6
b ro
Aufent halt</w>
schlie ßen</w>
Her zen</w>
Sp ort
s ho
Lo cation</w>
in stal
ti fizi
ück sichti
be tra
Mon tag</w>
Yor k</w>
g ei
Ber eichen</w>
Met ho
Vide o</w>
Sicher heits
Kult ur</w>
syst em</w>
cycl op
tra dition
c ro
9 5</w>
E M
on -
mi et
ter s</w>
Ver tra
bet t</w>
Verb rau
Isra el</w>
F äl
Pr ess
F eu
li ed</w>
i scher</w>
U p
Ant wort</w>
Sü d
Richtlin ie</w>
G eld</w>
upda ted</w>
vol u
ali en</w>
u te</w>
dar in</w>
15 .</w>
cyclop edia</w>
pro je
ent hält</w>
y pa
internation ale</w>
Mach ine</w>
On line-
om e
ver antwor
ler nen</w>
L etz
stra te
D V
st lichen</w>
Mi ch
ma ps</w>
Sel bst
rä ge</w>
en cyclopedia</w>
wei s
D en</w>
gesam ten</w>
an ge</w>
al -
Lös ungen</w>
mar kt
va te</w>
an ischen</w>
Archi te
Verk ehr
F el
ce .com</w>
Ener gie</w>
en dar</w>
V oll
W ander
geb iet</w>
Urlau b</w>
i c</w>
L eute</w>
Ri si
wichti ge</w>
V ie
c om
Sp ei
in -
actu ally</w>
Proz ent</w>
f -
Ta ges
ha ve</w>
deut schen</w>
F otos</w>
An frage</w>
öh n
Ü ber</w>
fi g</w>
Wa y
brau chen</w>
Situ ation</w>
H u
bei spiel
www. amarillas
Lin ks</w>
sozi alen</w>
weiter hin</w>
de mo
en g
Engli sh</w>
Mus eum</w>
Grund lage</w>
inte gri
el ten</w>
g re
per atur</w>
d y
ex t</w>
di gen</w>
lin ks</w>
.. ..
j a
pra k
oo d</w>
Ge win
Pri vat
.0 9.
F oto
c ar
Kon zep
Z ur
qu i
de ten</w>
hoh en</w>
l y
Her aus
P ak
gemeins am</w>
In te
kli cken</w>
vi elleicht</w>
rei se</w>
G M
Be zug</w>
kla r</w>
lu s</w>
Kom miss
Sch ritt</w>
wirk ungen</w>
C hi
üh l
An forderungen</w>
ell es</w>
c al</w>
ein t</w>
Aktiv itäten</w>
cal endar</w>
J an</w>
si g
enk or
Da bei</w>
sy ch
N u
sk ep
Aus sch
pa ar</w>
Bür ger</w>
verfüg bar</w>
ent halten</w>
N ur</w>
eli gi
Dem o
Sozi al
et ten</w>
zeu ge</w>
L E
Da mit</w>
Ap r</w>
s al
H y
Kat alog</w>
b a</w>
Außer dem</w>
Vor schlag</w>
k tionen</w>
Entwick lungs
it z</w>
Mit tel</w>
6 4</w>
k e
cra wl
Way back</w>
S at
Jes us</w>
w eb
zwei ten</w>
crawl ed</w>
nach hal
f rü
ü t
qu ali
Reg ier
Frank f
ov er</w>
index .php</w>
c tion
ge ssen</w>
g ungs
ter na
c tion</w>
ini en</w>
cto ber</w>
Um setzung</w>
üh m
genie ßen</w>
O N
dür fen</w>
nation alen</w>
Frühst ück</w>
k er
Re chte</w>
G lau
Lin k</w>
wis senschaft
so fort</w>
O ctober</w>
DL L</w>
stell te</w>
n a</w>
on om
de m
gen eh
Mitglie der</w>
S ohn</w>
ma x
T at
em and</w>
lu sive</w>
0 4
S en
wichti gsten</w>
H all
Internation al</w>
Besu cher</w>
Ber u
fri sti
f en
W un
War enkor
w e</w>
u ch</w>
P C</w>
Par is</w>
eben so</w>
k ing</w>
g lob
Besch äf
di t
sch le
V o
pro f
beg rü
W ahl</w>
Proje kte</w>
In stal
An der
z e
f ert</w>
di o</w>
Au gen</w>
W ort</w>
sp h
b ein
Fre u
dür f
Lux us</w>
Inter esse</w>
Stad t
5 ,
R A
Bade zimmer</w>
la g
un ten</w>
oo l</w>
auf genommen</w>
pri v
a gi
einzi gar
di enen</w>
Warenkor b</w>
Dru ck
sp rü
f r
ver ur
Buch ung</w>
Pa ti
b it
for m
2 2
b ahn</w>
in t</w>
st ren
fass t</w>
16 .</w>
Er d
an o</w>
y a</w>
schö nen</w>
Jahrhunder t</w>
o gra
j ahr
an gel
kauf t</w>
s .
R en
gan gen</w>
kt uren</w>
de ck
re chts</w>
S amm
Beit rag</w>
regi on
ti ger</w>
V or</w>
C D</w>
un abhängi
Re zep
2 2.</w>
Sch we
I mp
w eit
gemä ß</w>
6 5</w>
Gebäu de</w>
Ti me</w>
ahn hof</w>
europä ische</w>
fähi gkeit</w>
T au
t on</w>
C lu
sti v
vol len</w>
H ab
gleich zeitig</w>
Vor teile</w>
V illa</w>
gesch a
Comp uter</w>
rei b
skep tic
Fil m</w>
sa che</w>
En g
Ste uer
H ä
Be völk
Ges etz
h ot
hä tte</w>
G et
te i</w>
mat eri
es -
a pp
A ir
in st
spiel t</w>
ran k</w>
Erfol g</w>
ir gend
25 .</w>
e .com</w>
S at</w>
Kult ur
sch utz</w>
17 .</w>
Spiel er</w>
ar en</w>
Sa ved</w>
Th er
m es</w>
kon nten</w>
t ritt</w>
kl ein
ba d</w>
stoff e</w>
ss el</w>
mäß ig</w>
z on
K il
sch wer
l eitung</w>
m o</w>
stat tung</w>
gra tion</w>
0 7
Tex t</w>
m ess
it s</w>
cien ce.com</w>
ver stän
aus gew
ci al</w>
c or
O N</w>
amp f</w>
Mon at</w>
skeptic als
Komment are</w>
skepticals cience.com</w>
Me er
24 .</w>
gel ei
d ra
politi sche</w>
c .</w>
ima ges</w>
tre ffen</w>
m 2</w>
Vol k</w>
Th u</w>
sti sche</w>
R uss
W LAN</w>
g ül
B ar</w>
g sp
rie g</w>
b eit
inter ess
hin zu
Ba ck
ber ühm
am es</w>
pp e</w>
gew öhn
ver sor
mög lichkeiten</w>
k tive</w>
Kategor ie</w>
kün fte</w>
Ta gen</w>
ei l</w>
se e</w>
t ats
Re publik</w>
Wi en</w>
Sch w
i te</w>
Köni g</w>
o te</w>
I C
ber t</w>
vor zu
Sta ats
a tiven</w>
Län ge</w>
sti k</w>
s eines</w>
PD F</w>
k -
Mitg lied</w>
M eter</w>
tex t</w>
ni ed
bau en</w>
si er
ent ation</w>
l auf</w>
spra che</w>
Fin anzi
etz ung</w>
gesch i
S un
Ber at
J oh
.0 8.
gu ten</w>
spru ch</w>
B in
T est
I M
windi gkeit</w>
ver s
m einen</w>
ti en</w>
ex p
D an
F o
gen annten</w>
h y
ex k
Them en</w>
P e
V ater</w>
ü b
Qu alitä
Ver hand
f and</w>
ut es</w>
Fir ma</w>
Part ner
sp rün
Z er
B on
W et
ta x
re ch
Sch wer
au m</w>
al t
öff nen</w>
beispiel sweise</w>
aller dings</w>
for men</w>
is e</w>
Ti tel</w>
jen igen</w>
R E
ana ch</w>
Ziel e</w>
at or</w>
prei s</w>
Bal kon</w>
d ing</w>
I m
8 8
B or
da m</w>
D inge</w>
wirtschaft lichen</w>
men te</w>
6 .</w>
be tei
star k</w>
s ar
ab sol
st ein</w>
Himm el</w>
Ju gend
z in
mög lich
P en
Mün chen</w>
erforder lich</w>
kan ischen</w>
2 1.</w>
N eben</w>
V en
B lu
Kra ft</w>
Farb e</w>
Al t
lin k</w>
so mit</w>
führ er</w>
st es</w>
a .</w>
un a</w>
De c
p lätze</w>
18 .</w>
b ru
d .</w>
Rei se
Ferienwoh nung</w>
c s</w>
zeu gt</w>
Jahr es</w>
Er weiter
D en
uss es</w>
er weiter
unser es</w>
st ung</w>
For tsch
men sch
Bus in
empf ohlen</w>
brin gt</w>
be deut
pp en</w>
la ss</w>
hei ßt</w>
st ech
An ti
fol ge</w>
ar chi
S itz
O b
F ri</w>
e ffe
k op
k am
kosten los</w>
H än
A G
sp i
M il
stru ktur
gar an
Bu ch</w>
de stens</w>
Be k
J a</w>
Z ei
Ka ffe
at t</w>
gu i
erken nen</w>
spiel e</w>
da t
S E
Mi kro
k g</w>
r auch</w>
.0 5.
S ho
Du sche</w>
in ten
F en
V al
St and</w>
prü fen</w>
Ham burg</w>
7 .</w>
a v
mo d
al te</w>
Tra in
S an
verfü gen</w>
P u
al ter</w>
gem ein
empfeh len</w>
notwendi g</w>
u e</w>
N r
ypa ges
ho tel</w>
ar ds</w>
schri ft</w>
res er
A fri
at h
z a</w>
land s</w>
ander er</w>
ge m</w>
Ó Ç
Eig ent
Benutz er</w>
C an
14 .</w>
entwick eln</w>
Ú É</w>
geeig net</w>
frei en</w>
demo kra
Lon don</w>
N ord
hör en</w>
hö h
Çá ÓÇ
be zieh
Çá Â
ÇáÓÇ ÚÉ</w>
ÇáÂ ä</w>
nah m</w>
Gei st</w>
kön nten</w>
Z entr
S il
e ma
sch wieri
ges ell
verb unden</w>
m y</w>
m einem</w>
drü ck
Ver öffent
in nt</w>
n äm
un ge</w>
A ss
wi der
Verbesser ung</w>
ima ges
Jul y</w>
Au to</w>
K ab
Beg inn</w>
pa ck
Sch l
Gewi cht</w>
Öster reich</w>
näm lich</w>
erfol gt</w>
ig n
S eh
di gung</w>
6 6
Mana gement</w>
j u
Par k</w>
För derung</w>
Dis k
l eit
H ü
201 7</w>
O per
Des halb</w>
C D
ent lichen</w>
er weise</w>
W C</w>
Reg el
Febru ary</w>
3 D
n ö
stän de</w>
9 9
wo bei</w>
kt oren</w>
schön e</w>
Sch ön
Wohn ungen</w>
Inst it
Su b
I r
f rüh
T or
lo sen</w>
bli o
k ü
Indu strie</w>
r y</w>
jewei ligen</w>
Bes onder
hin ter</w>
be vor</w>
ar tic
ot en
Stra ße</w>
Basi s</w>
Mein ung</w>
zeh n</w>
sph äre</w>
Frankf urt</w>
at er
W ed</w>
Europ as</w>
Gesund heit</w>
rin gen</w>
P unkt</w>
Informa tion</w>
Um welt</w>
in o</w>
T aus
ab zu
3 5
g st</w>
der ungs
ein schließlich</w>
Feh ler</w>
Po li
St elle</w>
k eits
ssyst em</w>
Jun e</w>
Beh ör
Fran ce</w>
de d</w>
C om
elekt ron
el e</w>
richti g</w>
ein gesetzt</w>
zü glich</w>
A M
. amarillas
p ol
O st
Hau se</w>
Arb eiten</w>
Re gel</w>
7 8
er fahren</w>
d ent
gesam te</w>
H eute</w>
in formi
zz gl</w>
mi l
A spe
fran zösi
H ig
gesch rieben</w>
T E</w>
zeich nung</w>
G oog
ta in
Auf gabe</w>
se x
grupp e</w>
F läche</w>
1 50</w>
op en
er a</w>
s am</w>
Al l</w>
Technolo gie</w>
durch geführt</w>
tei en</w>
R ä
sch war
Demo kra
B -
Haf en</w>
k ür
h eben</w>
sch -
pa z
el te</w>
Ver hält
Strate gie</w>
schrei ben</w>
forder t</w>
Er klär
29 .</w>
ver stehen</w>
wel ches</w>
el -
re du
B ri
größ ten</w>
Sch ri
stell ten</w>
her aus
Progra mm
an gem
in t
J un</w>
f lä
mm ern</w>
G ele
gew esen</w>
Wo chen</w>
er heb
p ort
arb eit
ck en
neu es</w>
ständi ge</w>
A b</w>
Fami lien
si erte</w>
gan genen</w>
ken nen</w>
c .
No v</w>
S eg
aktu ellen</w>
führ te</w>
ständi gen</w>
ni e
wa y</w>
schni tt</w>
w -
199 9</w>
b ür
1 -0
nor m
Ju l</w>
ie te</w>
ti s</w>
et c.</w>
mi li
Li cht</w>
wen den</w>
Kör per</w>
em in
Posi tion</w>
M el
W ell
Pre mi
groß er</w>
x is</w>
di ent</w>
Verk auf</w>
Miet wagen</w>
S lo
L es
D r
Än derungen</w>
ti es</w>
D ah
zwei te</w>
Behand lung</w>
Funk tion</w>
e ur
d eine</w>
ck -
Mon ate</w>
ge ord
in nova
z entrum</w>
z ini
en gli
bis her</w>
geb oren</w>
erwar ten</w>
B ot
w s
Mar ch</w>
Ni cht</w>
min destens</w>
kt er</w>
Pf lan
sto ff</w>
Somm er</w>
ver hin
tech nolo
lauf en</w>
wer t
d eli
Aus stellung</w>
8 .</w>
vi ert</w>
Ser ver</w>
Ein ige</w>
ri p
a tions
gel ö
GM T</w>
Gemein de</w>
ch ar
Ne ws</w>
schu le</w>
N et
bestimm ten</w>
Janu ary</w>
28 .</w>
2 -0
ci a</w>
auf zu
t au
h .</w>
Besu ch</w>
verbesser n</w>
Erfahr ungen</w>
tran s
. ch</w>
Kl ein
Arbeit sp
spro chen</w>
un t</w>
sch ätz
mini stra
Mit te</w>
an -
Engli sch</w>
h u
gri ffen</w>
Un ter</w>
8 5</w>
ei lung</w>
entwick lung</w>
o t</w>
ge worden</w>
c e-
ander em</w>
gen s</w>
Aus wirkungen</w>
au ber
K ühl
Her z
stie g</w>
11 -
hr ef</w>
f c
ter ien</w>
ak zep
fig ur
d on
w .</w>
st ab
Organis ation</w>
er zi
11. 2016</w>
größ te</w>
ges ellschaft</w>
bew ahr
E C
Hol z
Forsch ungs
Tu e</w>
sa ge</w>
v ari
t ru
Wa sch
ho ch</w>
Ko sten
l ing</w>
ihr es</w>
besch äf
Bar cel
B em
au t
fass ung</w>
Sch lü
ers eits</w>
Aut om
ro m
ch ern</w>
er .
di git
Se e</w>
K i
ali for
ha st</w>
sch li
Russ land</w>
Z ü
la n</w>
all ein</w>
gi schen</w>
T en
ß er</w>
biet er</w>
lo ss
ction ary</w>
st aus
her unter
ermög lichen</w>
-F i</w>
gef ä
zahl reiche</w>
ti t
en er</w>
Wachst um</w>
la g</w>
M is
art en
F ähi
B la
leb t</w>
di e
g a</w>
af e</w>
Dar über</w>
Bür ger
7 7
f oto
stimm t</w>
Wi der
olo g
de st
tr eter</w>
Dec ember</w>
dor f</w>
12 -
entsprech end</w>
techni schen</w>
eri schen</w>
Parla ments</w>
nah e</w>
e a</w>
ver wal
di gt</w>
s on</w>
ff er
Lin ie</w>
M er
CH F</w>
I st</w>
Men ge</w>
w and</w>
di ctionary</w>
geh end</w>
Komp on
lö sen</w>
onom y</w>
wi mm
erwar tet</w>
na me</w>
J ap
st rie
be ste</w>
Wis sen
N ext</w>
0 3
ra t</w>
Regi onen</w>
Stand ard</w>
stru ktur</w>
A C
ul d</w>
p hi
B I
fa ssen</w>
jewei ls</w>
Ma cht</w>
Z eichen</w>
l eu
k rä
prof ession
tax onomy</w>
Sch ni
gen utz
er ungen</w>
S onder
Ex per
Bi o
Wohn zimmer</w>
da durch</w>
Vereinig ten</w>
Se k
h eri
V ari
er w
E L</w>
Ver än
Unter such
m ore</w>
8 7</w>
ver suchen</w>
Goog le</w>
bili tät</w>
g ste</w>
Gesch ä
An gaben</w>
Lan des</w>
Kin dern</w>
M om
pers on
ir e</w>
ge kommen</w>
Kontrol le</w>
rä ume</w>
30 .</w>
y le</w>
neu er</w>
off izi
P et
Produk tions
E S</w>
Kol legen</w>
l le</w>
gel n</w>
freu en</w>
Bro w
leg ung</w>
sel ben</w>
Ar ten</w>
gef ähr
Regi stri
gew is
Dah er</w>
rei s</w>
Verantwor tung</w>
v in
ber ücksichti
D ol
Bevölk erung</w>
gemeins amen</w>
einzi ge</w>
Tür k
d .
stu di
ht s</w>
8 9</w>
f ei
Techni k</w>
so li
f allen</w>
ä st
si erten</w>
7 2</w>
or ganis
m mi
S atur
Mon aten</w>
Fre e
K no
Fu ß
sp an
n äh
Informa tions
Fe b</w>
ver pflich
Jahr es
ö pf
Öff ent
a 7
g lie
D ra
e k</w>
R ot
eh e</w>
ur sprün
us w.</w>
erklär t</w>
e y</w>
Da te</w>
C ity</w>
f all
9 6
Rat es</w>
ü bri
N un</w>
M P
en det</w>
Tei le</w>
F le
Farb en</w>
Kre u
R ad
n s</w>
g nis</w>
y p</w>
Materi al</w>
Vol ks
Bet rieb</w>
ab ri
Anwen dungen</w>
For um</w>
5 -0
Wir k
Grupp en</w>
K oh
Viel e</w>
bestimm te</w>
i sten</w>
an lagen</w>
besu chen</w>
er in</w>
wer te</w>
l eh
Be dürf
c c
richti gen</w>
em ent</w>
c re
ver stär
zi g</w>
rei fen</w>
wichti gen</w>
techni k</w>
außer dem</w>
a g</w>
k tiv
nt nis</w>
On line</w>
F -
gi sche</w>
stra h
ex i
F oto</w>
t ie</w>
po ol</w>
er enden</w>
T I
z y
haf t</w>
Rei se</w>
inter es
o d
L ab
S A
Unter schie
aler ie</w>
p en</w>
Progra mme</w>
l egt</w>
E rei
z ählt</w>
Fol gende</w>
veröffent licht</w>
r ing
H öh
Hot el
sp or
g rü
u x</w>
hervor ra
Veranstal tungen</w>
erst ör
ter en</w>
se chs</w>
sch ütz
ti ges</w>
fü gen</w>
s ult
L eu
wi pe</w>
ei che</w>
de ckt</w>
bew us
St ück</w>
Ma ss
i mp
sch ir
Kap it
Bezieh ungen</w>
ge grün
Nation al
en a</w>
7 9</w>
nied ri
han den</w>
3 3
wer ke</w>
schri ft
Res sour
Da vi
be halten</w>
er inn
automati sch</w>
R om
J er
di sche</w>
Kil om
hoch wer
eh er</w>
Syst ems</w>
Klima anlage</w>
dar um</w>
Re cht
Li ter
Köni g
ho ben</w>
ti e
Funk tionen</w>
t liche</w>
moder nen</w>
E T
ph otos</w>
p at
Män ner</w>
00 00</w>
Hau p
P unkte</w>
Mod ell</w>
bei de</w>
komm uni
Son ne</w>
Ar t
wen ige</w>
persön lichen</w>
schni tt
ab out</w>
I I
ri chtet</w>
k ran
ver lässi
V -
k in
Ver trag</w>
u g</w>
Produ kten</w>
A tt
ver lei
wei st</w>
Wor ld</w>
Her steller</w>
ei li
f eu
fil e</w>
ur s
B rei
Mu tter</w>
w esen</w>
Medi en</w>
ta tion</w>
Kran k
O rig
verk ehr</w>
sch em</w>
wal t</w>
B ank</w>
hi elt</w>
App ar
de ta
a 5
am a</w>
Künst ler</w>
Hall o</w>
letz te</w>
i k</w>
tra g
itali en
Gri ech
US -
Sta at
v is
Park platz</w>
einig ung</w>
sch rank</w>
vor handen</w>
ar ten</w>
er hält
L eit
g yp
Bewer tung</w>
zent ri
ch mal</w>
be hand
J etzt</w>
Au ff
leist ungs
Satur day</w>
L I
bet rä
is on</w>
st s</w>
an y</w>
B ran
ens ch</w>
or y</w>
zei chen</w>
tt on</w>
St är
K ampf</w>
p ort</w>
her aus</w>
V is
wor d
t al
a st</w>
. 00</w>
schein t</w>
s ur
z in</w>
Zimm er
f erung</w>
ier ten</w>
7 1</w>
ul l</w>
u .
ech an
Gesund heits
bestimm t</w>
Nicht rau
Bil dung</w>
v est
p ä
gen annt</w>
Zeit punkt</w>
6 9</w>
S eine</w>
L -
li a</w>
gel a
si en</w>
h -
richti ge</w>
hei m</w>
kauf s
T ie
Kli cken</w>
a k</w>
a tion
K ern
-- --
Sch au
par k</w>
ear s</w>
ver anstal
ele v
War en</w>
M esse</w>
h as</w>
23 .</w>
199 8</w>
C li
t ot
1 20</w>
m -
ge g
f lo
entschei den
C re
fle xi
Ber eiche</w>
leist ung</w>
er stellt</w>
priv aten</w>
7 6</w>
fü gt</w>
W ür
Mo du
bil den</w>
An gele
Qualitä ts
Vers and</w>
entsprech enden</w>
ier te</w>
ak tivi
6 1</w>
In seln</w>
s r
P il
un mittel
schließ end</w>
k tieren</w>
ro s</w>
O n</w>
9 8</w>
Po liti
26 .</w>
10 0
nt .html</w>
Ent fer
ma p</w>
B is</w>
frei e</w>
c ts</w>
Orig in
erg än
Sch ü
Syst eme</w>
st eri
6 00</w>
eh t</w>
di o
Fe stiv
erfolg reich</w>
h on
Nach richten</w>
em p
kar te</w>
pri vate</w>
Ihr es</w>
In fra
T yp
Ta gs</w>
p u
Han del</w>
P S</w>
8 8</w>
C enter</w>
för dern</w>
wach sen
wirtschaft liche</w>
sch wer</w>
f alt</w>
it ness
H on
Proz ess</w>
ri fft</w>
ver lag
sor gen</w>
el eg
Er n
d est</w>
Unternehm ens
Or d
V öl
sel bst
Gele genheit</w>
amaril la
lei der</w>
k tiven</w>
H or
8 0
Kom bin
b la
völ lig</w>
wil l
O S</w>
B ft</w>
o ur</w>
gesch ütz
M ensch</w>
Pati enten</w>
f luss</w>
et ing</w>
Leist ung</w>
g ie
Stand ard
Her stellung</w>
Deta ils</w>
M .</w>
6 -0
w ander
d rei
den -
Barcel ona</w>
Sch utz
ei m
bil d</w>
gemeins ame</w>
27 .</w>
rei ber</w>
ma ßnahmen</w>
Ge stal
k ann
vi eren</w>
g um
deli very</w>
Mo bil
verschie den
ch tete</w>
en des</w>
Behör den</w>
it ze</w>
Press e
k es</w>
k oh
betei li
ü hr
Leist ungs
im g</w>
sch w
le i</w>
Ab end</w>
tats ächlich</w>
histor ischen</w>
l ern</w>
b ann
Be stimm
B at
b ü
f la
3 4
ell a</w>
c b</w>
V il
Instit ut</w>
bet rieb
z lich</w>
eh ema
S au
ri schen</w>
lo ss</w>
M y
G o</w>
su bje
images .php</w>
Z eiten</w>
ar a</w>
T sch
O ct</w>
k ap
x -
ge st
C al
g liche</w>
Al ter</w>
z ählen</w>
am s</w>
Al ler
aktu elle</w>
ä r</w>
r ela
war um</w>
di g</w>
C at
Ein führung</w>
zun ächst</w>
mo sphäre</w>
ti erte</w>
ass ung</w>
Fäl len</w>
7 8</w>
z .</w>
unk ten</w>
d d
In nen</w>
gefä hr</w>
B ab
dien st</w>
6 2</w>
Mon d
grupp en</w>
Taus ende</w>
K ro
woll te</w>
ve au</w>
In s
Sa che</w>
ing er</w>
ka tionen</w>
kon ta
b d</w>
ge plan
vor gesch
Türk ei</w>
voll ständig</w>
Gesch windigkeit</w>
ra l</w>
d ä
lie genden</w>
genutz t</w>
Fol ge</w>
C u
ver gangenen</w>
Hal b
kur z</w>
Aus druck</w>
Nichtrau cher
om ini
hä user</w>
t ar
9 0
zun ehmen</w>
Tat sache</w>
Nr .
sam keit</w>
u fen</w>
beg innt</w>
Neu e</w>
en .htm</w>
6 6</w>
samm lung</w>
M au
gel ie
8 6</w>
Z wi
Ser ie</w>
7 7</w>
ni k</w>
le -
f ischen</w>
gen heiten</w>
Än derungs
F alls</w>
Re fer
Mo der
si tz</w>
Uni ted</w>
er ster</w>
E ss
miet ung</w>
Instal lation</w>
Kon s
Teil nehmer</w>
lich ung</w>
Camp ing
y ears</w>
Ges prä
a tiv
st ück
hab t</w>
j ün
S I
ma x</w>
pa ssi
fe sti
Da zu</w>
schö n</w>
gel aden</w>
Fra ktion</w>
rei sen</w>
O pf
op timi
es .
ri sche</w>
n es</w>
zu dem</w>
max im
Kommiss ar</w>
v al
ser i
fi sche</w>
bet ten</w>
M eine</w>
Su ch
e chti
Verkehr s
Eigen schaften</w>
9 2</w>
gew ün
Wer k</w>
pro fi
R I
Dor f</w>
ter e</w>
Ge füh
regi stri
techni sche</w>
na mi
Apart ments</w>
gro ß</w>
f ir
d nis</w>
wir ken</w>
Sp ort</w>
Verfü g
get an</w>
ver gessen</w>
ann es</w>
verk ehr
c -
beg innen</w>
Aus bildung</w>
K er
En d
be stehen</w>
moder ne</w>
St abili
H ome
a mi
eh m
Mich a
Inte gration</w>
I ra
gel ten</w>
W ähr
Fami lien</w>
nach dem</w>
Sin ne</w>
pa ssen</w>
c at
9 1</w>
3 1.</w>
bar er</w>
To ur</w>
Gerä t</w>
st ein
an geb
Investi tionen</w>
Mar ia</w>
u li
verlag .com</w>
le ge</w>
l es
zi er
per atur
Vor auss
An ge
mit ten</w>
kann st</w>
o ther</w>
bann er.
a5 a7
An sicht</w>
open x</w>
benö tigen</w>
50 bd</w>
git verlag.com</w>
War um</w>
banner. gitverlag.com</w>
a5a7 50bd</w>
bet rifft</w>
i ce</w>
li eben</w>
at te</w>
Mana ger</w>
ra h
progra mm</w>
La st</w>
Mot or
Prü f
to ur
ver n
unterschie dlichen</w>
be hör
Su per
ge ber</w>
zu frie
pa g
Griech en
bu ch</w>
Beweg ung</w>
Zur ück</w>
ga in</w>
Konfer enz</w>
t ele
Ver pflich
b ut</w>
De c</w>
Mar i
Analy se</w>
4 5
ra d
V om</w>
ämpf ung</w>
mehr eren</w>
haup t</w>
zahl reichen</w>
en ze</w>
Pra xis</w>
Empf eh
Lo -Fi</w>
un gefähr</w>
umfass t</w>
Leb ens</w>
f un
Musi k
geh ö
zu gän
in e
d rin
Kin d</w>
sp a
mu lar</w>
U l
Star t</w>
r ö
Ko oper
u ter
Än derung</w>
gri ff</w>
erhält lich</w>
Sch war
gen ug</w>
ander s</w>
An bieter</w>
äu ßer
Co de</w>
war d</w>
An lage</w>
ange zeigt</w>
3 F
kur z
ologi schen</w>
Busin ess</w>
Leist ungen</w>
Appar tem
r ussi
wahr schein
kosten lose</w>
qu alität</w>
ni sche</w>
gegen wär
8 1</w>
mana gement</w>
A B
Wun sch</w>
eich ern</w>
Schu le</w>
2 50</w>
9 3</w>
hol en</w>
gan gs
Studi o</w>
l ück
mar k
W ill
Geri chts
sch te</w>
Ad ministra
Soft war
Beg ri
Kran ken
6 0
B and</w>
näch ste</w>
H O
6 3</w>
L ine</w>
Ver gleich</w>
kon stru
ff et</w>
o .
pa sst</w>
m i</w>
for dern</w>
ein gesch
indu strie</w>
Hin blick</w>
aff ung</w>
fil es</w>
V ier
wass er
h a</w>
Fi scher
sätz e</w>
E G</w>
T on
9 6</w>
k lin
In halte</w>
kon zentri
voll er</w>
S ant
At mosphäre</w>
län der</w>
3 -0
Ber lin
p p</w>
i erung</w>
p on
ni schen</w>
8 4</w>
chti gen</w>
HER R</w>
woh ner</w>
ent spricht</w>
ver sion</w>
fa ch</w>
lös ung</w>
ger e</w>
Ma ß
Freu de</w>
m är
Beri chter
7 4</w>
ch erung</w>
word press
.0 6.
E B
bereit ung</w>
Ges i
tä glich</w>
zi p</w>
spo litik</w>
an spru
Verhält nis</w>
stimm en</w>
Su ite</w>
sol chen</w>
wel cher</w>
st il
äu ß
Prei s
gra mm</w>
To d</w>
li t
Werk e</w>
eri o
glau ben</w>
sar da
H oh
ut ter
s .com</w>
sozi ale</w>
immobil sarda
ch in
Erklär ung</w>
wi esen</w>
A D
ä den</w>
län dern</w>
v ation</w>
bu chen</w>
Wettbewer bs
Be stellung</w>
häu fig</w>
ziel en</w>
Hinter grund</w>
o mi
ob wohl</w>
M B</w>
be d</w>
Mi cro
G lob
k ö
re chten</w>
e e</w>
R e</w>
Reser vier
vor schriften</w>
k amen</w>
kon kre
ens würdi
verantwor tlich</w>
Ab kommen</w>
bar gain</w>
G al
glei che</w>
Pri or
L esen</w>
blio the
kan ische</w>
Au gen
z ess</w>
ck er
c es
S ach
prü ft</w>
gehö ri
Ein richtungen</w>
Kommuni kation</w>
W erte</w>
M erk
ff er</w>
R om</w>
benutz t</w>
um fan
R oh
for man
ell en
K rä
Ba u</w>
In nova
eig entlich</w>
r en</w>
ung ss
Verk ehr</w>
S emin
wei te</w>
Wettbewer b</w>
Syst em
For mat</w>
oten zi
s hi
Sti l</w>
E ssen</w>
St unde</w>
Spra ch
Ge or
u cht</w>
wei ten</w>
ma chte</w>
o c
S and
n ü
E G
aus schließlich</w>
W inter
Wis sen</w>
Institu tionen</w>
sti ge</w>
k ör
zusätz liche</w>
Bin nen
t ol
Ver treter</w>
fa mi
sp ie
lang fristi
Ver gan
Kon fli
Hand els
staus ch</w>
k ali
glau be</w>
Ide e</w>
Al so</w>
Frühst ück
Wir kung</w>
f ts
be qu
6 ,
ein s</w>
6 7</w>
verstän dlich</w>
Sta ti
angebo ten</w>
P ha
M in</w>
We ge</w>
Vor schriften</w>
ra t
ex tre
c en
spar en</w>
ungs -</w>
ti fi
außer halb</w>
Pol en</w>
wer de
ge öffnet</w>
Spra chen</w>
c eb
Auf gaben</w>
8 2</w>
sta tion</w>
Tem p
An spruch</w>
Be stand
0 5
K rise</w>
K rieg</w>
Clu b</w>
at s</w>
por tal</w>
sch lu
sa chen</w>
Kör per
läu ft</w>
.c om
Zu stand</w>
S ehr</w>
Aus gabe</w>
k aum</w>
w u
9 7</w>
sch lü
E ffe
gele gen</w>
or ig
6 8</w>
sch lagen</w>
tz -
f s</w>
führ ten</w>
t aus
Dru ck</w>
op s</w>
Gener al
I ma
Initi ative</w>
dar unter</w>
13 .
Davi d</w>
Proz ess
m s
Qu ar
kün st
trä gt</w>
7 3</w>
f arb
N ahr
Al b
Immobilien anzeigen</w>
Lo gi
4 -0
ink lusive</w>
e an</w>
h l</w>
Materi alien</w>
ie m
an zen</w>
Vide os</w>
m bo
ak tion</w>
ü r</w>
art ment</w>
A .</w>
lan gs
W ed
W ech
W ein</w>
Gem eins
ur na
rei s
bet ro
th o
p res
Tu esday</w>
8 3</w>
lie fer
3 1
We b</w>
T ren
o us</w>
T it
ent schie
Milli ar
Kar ten</w>
- St
c y</w>
Ges etz</w>
w hi
pro bl
ein gerichtet</w>
Pol y
rit an
sp r
Apart ment</w>
präsen tiert</w>
ver lassen</w>
haf ten</w>
B ul
su b
ot es</w>
lo s
den s</w>
si chts</w>
Besch werde
Wahr heit</w>
t form</w>
Über ein
Tä tigkeit</w>
an geneh
ru fen</w>
Deut schen</w>
f el</w>
Jahrhunder ts</w>
I T</w>
ologi sche</w>
Erweiter ung</w>
Co .</w>
zeich nen</w>
ti gkeiten</w>
Haus halts
do wnlo
D ro
eri en</w>
vert rau
pla n</w>
d ein</w>
B ä
An lagen</w>
u er</w>
Fu ß</w>
T ER
Kühl schrank</w>
Viel zahl</w>
F ein
e y
h or
Di git
.0 1.
entschei den</w>
Angebo te</w>
Land wirtschaft</w>
All es</w>
Bet ten</w>
A mar
.0 4.
O -
K öl
un e</w>
ph ysi
bes itz
b ahn
li schen</w>
rig ht</w>
Organis ationen</w>
Mini ster</w>
B ahnhof</w>
lu x
ent liche</w>
W e</w>
Bo den</w>
ent lang</w>
brau cht</w>
grei fen</w>
k al
hin sichtlich</w>
gew innen</w>
ter t</w>
Verhand lungen</w>
rie f</w>
gegrün det</w>
Vergan genheit</w>
b ot
H ier
7 ,
D ü
Gerä te</w>
D auer</w>
vi de
über haupt</w>
stra ße</w>
Gr enzen</w>
aus sch
ein richtungen</w>
benutz en</w>
einfa che</w>
Ver ordnung</w>
F on
beg ann</w>
Kra ft
sion s
pa ti
n ess</w>
Reg eln</w>
lie ß
erfül len</w>
Ho ff
p unkte</w>
it zen</w>
Griechen land</w>
deut sche</w>
a si
Frie den</w>
i ten</w>
M A
Her z</w>
da p
F lei
Au stra
Indu strie
199 7</w>
us sion</w>
w äl
bil d
Technolo gien</w>
ut h</w>
Ver einbar
ol s</w>
3F taxonomy</w>
se qu
er ende</w>
Sun day</w>
12. 11.2016</w>
re chts
C ap
subje ct</w>
Pat ent
D ie
4 3
.0 3.
k ungen</w>
Z eu
ge zeigt</w>
Kom fort</w>
an g
her gestellt</w>
die jenigen</w>
Pro vin
Fri day</w>
A ra
lok alen</w>
ru s</w>
Kombin ation</w>
T -
Masch inen</w>
a cht</w>
Ma x</w>
erfül lt</w>
nie der
L e</w>
U kra
Bet eili
P hi
lie ß</w>
Woh l
N otwendi
gewähr leisten</w>
be zo
öffent liche</w>
p rin
L ö
masch inen</w>
Micha el</w>
wass er</w>
.0 2.
f tung</w>
eich ert</w>
bew eg
ak tiv</w>
op tim
Ter min
Bestimm ungen</w>
Fol gen</w>
9 ,
betre ff
ander es</w>
ent weder</w>
Prü fung</w>
O li
G ö
ge halten</w>
gel eg
al em</w>
wor k</w>
ge tro
ge ändert</w>
T un
Di alog</w>
dis ku
201 2-0
allgem einen</w>
Win ter</w>
tin u
e te</w>
ach tet</w>
Verwal tung</w>
Ma g
we st
gesch ä
Deut sche</w>
ver mei
Frei heit</w>
Ko ord
ger ufen</w>
eri sche</w>
der -
9 4</w>
en heit</w>
st ück</w>
wahrschein lich</w>
rä ger</w>
Vor schläge</w>
äu fer</w>
Indu stri
b y
din gt</w>
pro vi
st ets</w>
pf el</w>
nu mmer</w>
Auf merk
orig in
a gen</w>
Sti mme</w>
ver su
Christ us</w>
Rei sen</w>
ex isti
S ün
O ri
ra gen</w>
ver treten</w>
spra ch
haf te</w>
.0 7.
n ing</w>
grund le
se par
stän den</w>
volu tion</w>
P eter</w>
besonder en</w>
un gen
d ll</w>
T al
Su pp
hä tten</w>
Ma ße</w>
geb il
5 5
Jap an</w>
inten si
ass e</w>
Nieder lan
www. g
Veranstal tung</w>
post s</w>
S ard
I den
f än
. info</w>
op le</w>
fa ch
g nisse</w>
W ählen</w>
p al
b ritan
gesch o
Nach richt</w>
e u</w>
ver einbar
spezi ell</w>
heu tigen</w>
Na tionen</w>
o ur
er ter</w>
no mmen</w>
Stu die</w>
den ke</w>
Ein richtung</w>
jähr igen</w>
Öffent lichkeit</w>
erneu t</w>
Demokra tie</w>
grei che</w>
sa h</w>
benö tigt</w>
9 -0
um s
R eligi
den k
K auf
le di
kompl ett</w>
dien st
h na
K B</w>
Li cht
Durch führung</w>
Ho st
N ein</w>
D e</w>
wur f</w>
d m
Unternehm ens</w>
be züglich</w>
Rezep tion</w>
j emand</w>
ide al</w>
Land schaft</w>
d ler</w>
at or
steh enden</w>
besch rän
M ein</w>
wir kt</w>
berei tet</w>
Tier e</w>
tä tig</w>
r or
Ein k
n etz
k ein
u .</w>
um en
Home page</w>
Ä gyp
fu l</w>
stell ungs
ma g</w>
li ke</w>
Fen ster</w>
d 3
Er wachsen
Fern seh
O sten</w>
8 00</w>
wichti ger</w>
Städ te</w>
k tiv</w>
d anach</w>
si eben</w>
Po ol</w>
urs day</w>
S oll
Sal z
a de
i sten
Th ursday</w>
m y
di tionen</w>
zah lung</w>
nt nisse</w>
L at
C A
sch l
s eit
paz ität</w>
W ur
c ess</w>
d ank</w>
Gesch ma
ken n
Fil m
er stellen</w>
R N</w>
4 00
Aufmerk samkeit</w>
ro om</w>
Wo chen
erw äh
forder ung</w>
Verwal tungs
Sch wieri
DV D</w>
V .</w>
7 0
hil fe</w>
ber echti
n esday</w>
In f
P R
op h
ceb oo
er leben</w>
ver sucht</w>
Al terna
fäl lt</w>
ther ap
Wed nesday</w>
vie w
ei st
b ist</w>
elli gen
belie b
Ressour cen</w>
www. skepticalscience.com</w>
G eg
verhin dern</w>
Stad tz
Zentr al
Fre m
LA N
si tes</w>
zus etzen</w>
funktion iert</w>
end lich</w>
R und
Op tion</w>
Mor gen</w>
Pro to
Hei zung</w>
Na cht
brei te</w>
Ab end
la -
Verfüg barkeit</w>
st yle</w>
geb enen</w>
EP Ü</w>
Wor te</w>
- -</w>
S ar
hö r</w>
Ges ell
Ver schie
e c
Gel d
m ut
k no
ra d</w>
Mit arbei
n eg
N atür
g ht</w>
J P
w us
Dire kt
wen igen</w>
Konzep t</w>
ak ter
an genommen</w>
e en</w>
l o</w>
war ten</w>
at tra
Seh enswürdi
G rü
Nach bar
Sch n
c enter</w>
Schni tt
Mon day</w>
Tsch ech
än der
b ini
L O
sr c</w>
Fre unde</w>
ak tiv
ge -
d al
leist et</w>
W är
ledi glich</w>
be achten</w>
L eng
rü ck
k el</w>
Servi ces</w>
ar ch</w>
l ar
garan tiert</w>
Elem ente</w>
Berichter stat
For men</w>
beri cht</w>
Europ ean</w>
ni cht
Stru kturen</w>
Trans fer</w>
Li z
wün schen</w>
t hr
d ge</w>
Tour ismus</w>
Frühstück s
Ph il
Kro a
L y
hil ft</w>
e ure</w>
Ge walt</w>
Win d</w>
St ein
Gemein schafts
a cht
il -
4 57
weiter er</w>
Beit räge</w>
Sch ritte</w>
gescha ffen</w>
rä siden
lich em</w>
gewi cht</w>
Ob wohl</w>
Ver tei
Amar il
ka tions
ma ß
fa s
T op
Heraus forderungen</w>
ger ungen</w>
sprü che</w>
mm er
t lichen</w>
199 6</w>
HER RN</w>
ch teten</w>
Ab geord
Ander e</w>
ein i
m l
zu künf
mö gen</w>
Tra dition</w>
tit le</w>
Leng th</w>
tran spar
f au
Entfer nung</w>
ar ch
z äh
Reservier ungen</w>
C ro
Zu dem</w>
In no
o li
Deb i
. gui
dau er</w>
viel fäl
Bei m</w>
Zwi schen
il e</w>
ch ung</w>
B ank
um an
Wis senschaft
C lick</w>
be hör</w>
Hei ligen</w>
Lin ux</w>
Grün den</w>
ge tragen</w>
C i
sta at</w>
mitt els</w>
erk annt</w>
Betrieb s
zu führen</w>
em als</w>
alisi eren</w>
gen au
hin ter
h ü
Hau t</w>
verb rei
O ut
Vide o
es ischen</w>
bu tton</w>
stei gen</w>
Si cht</w>
er o
N A
au ßer</w>
ÿÿÿÿ ÿÿÿÿ
ö se</w>
Milliar den</w>
8 ,
Br and
en te
b us
Wissen schaft</w>
L it
sto ffen</w>
Kre dit
l etzt</w>
Sch affung</w>
V it
T rau
Netz werk</w>
Letz te</w>
j ungen</w>
Nutz en</w>
bet on
M äd
H T
bi t</w>
pf en</w>
Kilom eter</w>
Ph one</w>
dro h
Menschen rechte</w>
Berat ung</w>
j ene</w>
zu vor</w>
je derzeit</w>
Zeit raum</w>
be t</w>
Gef ahr</w>
mitt elt</w>
ent stehen</w>
en ce</w>
o ffen</w>
H äl
Groß britan
entr e</w>
ver kaufen</w>
R et
ausge zeich
Ru he</w>
li ste</w>
Medi a</w>
g .
m ut</w>
ig keit</w>
Inter essen</w>
al ysi
o k</w>
ven tion</w>
fäl le</w>
Sta at</w>
son st</w>
Kri eg
gi gen</w>
Vers and
Win d
führ enden</w>
Men sch
ur l</w>
produ kte</w>
komp lex
Ver tret
be handelt</w>
versor gung</w>
Elekt ro
k ti
Vor sitz
Aus stattung</w>
erhö hen</w>
zi r
au ff
P sych
th s</w>
gesch ichte</w>
Sek unden</w>
en er
So li
hi r
E T</w>
posi tion</w>
indu stri
c an
b enen</w>
ö kon
E hr
Brei te</w>
h and</w>
Je der</w>
b all</w>
be glei
e wi
10 00</w>
An pass
Kla sse</w>
Pan or
St ellen</w>
kl einer</w>
M -
d f</w>
j unge</w>
P C
met ho
ent -
neu e
Kur s</w>
An dre
Notwendi gkeit</w>
st -
Verbrau cher</w>
Bau ern
An gel
D rei
R oll
ge kauft</w>
mei st</w>
ersch eint</w>
om et
bi gen</w>
bek ann
W o</w>
T at</w>
vor her
l -
Ch an
beit ragen</w>
V ir
o ten</w>
Tem peratur</w>
k ir
W ä
verpflich tet</w>
le x</w>
mini ster</w>
zu letzt</w>
ga be
a ma
I -
In vest
ren n
Sch ne
4 4
Brow ser</w>
Immobilien portal</w>
Pro fi
Ide en</w>
v an
Ukra ine</w>
schütz en</w>
ämpf en</w>
Stru ktur</w>
Be dien
Spa ß</w>
ent decken</w>
ö sen</w>
F las
Anmel dung</w>
N ah
typ e</w>
ex ter
Unter künfte</w>
s ent
gere cht</w>
201 1-0
201 0
Zwe ck</w>
Fortsch ritte</w>
k ul
Ver su
Ab stimmung</w>
fon ds</w>
Mar tin</w>
Ver pack
b ungen</w>
Nach dem</w>
au th
u. a.</w>
z -
www. ypages
Sehenswürdi gkeiten</w>
ar s</w>
Wirt schaft
P fer
Metho de</w>
Hin weis</w>
S eit
gen der</w>
si s</w>
B S
El tern</w>
gela ssen</w>
ti scher</w>
i tel</w>
199 5</w>
K G</w>
M es
der s</w>
Stadtz entrum</w>
sicher heit</w>
mo bil
Rah men
Th o
be grenz
top ic
Mom ent</w>
beträ gt</w>
Zimm ern</w>
i f</w>
si chten</w>
rü stung</w>
Ti ck
n d</w>
z erstör
Par tei</w>
Inter ess
Lie ferung</w>
part ner</w>
Stat es</w>
St rom
Aut or</w>
s äm
da cht</w>
Vertra gs
ber ech
ag no
u elle</w>
ov e</w>
Hig h
hal tet</w>
über all</w>
Archite ktur</w>
zah lt</w>
lin ien</w>
Sant a</w>
Sü da
Sto ck
Jo urna
es i
Entschei dungen</w>
gew and
Steu ern</w>
C op
M ulti
Opf er</w>
ß te</w>
Universi ty</w>
Ferienwoh nungen</w>
l s
vel op
gel angen</w>
f Ã</w>
D re
ro ck
b ran
p h</w>
tra gs
wor fen</w>
Aus land</w>
7 -0
spezi elle</w>
K lei
n ütz
b lin
ch ri
tro tz</w>
wis sen
Auf bau</w>
ss er</w>
lo us
Stu den
Art .</w>
Konta kt
rei bt</w>
Tran sport</w>
M ol
or e
bu ffet</w>
kra ft</w>
mit einander</w>
besser e</w>
so ft</w>
unterschie dliche</w>
Lu ft</w>
entsprech ende</w>
C oo
zun ehm
v o</w>
eig net</w>
gelei tet</w>
Un gar
m t</w>
f ie
sch ten</w>
Kop f</w>
Komp et
Lebens mittel
Hol z</w>
E mail</w>
vi erung</w>
ung sin
Sp ann
Zus ätz
ur i
ne -
Si ehe</w>
Eur o
Get rän
Indi en</w>
For m
inst itu
m ens</w>
flü ge</w>
at ten</w>
Prei sen</w>
tig ungs
tion sp
über nehmen</w>
enti erung</w>
Ein fluss</w>
allgem eine</w>
R um
bek annten</w>
ar i</w>
F alle</w>
z ell
v ar</w>
Über setzung</w>
tre mu
eigen es</w>
wach ung</w>
for schung</w>
A qu
P O
ti c</w>
Doppel zimmer</w>
G ran
kun fts
S ur
N ot
zu verlässi
F ei
Port ug
o us
Ne ws
zusätz lich</w>
ho ffe</w>
n -
el em
Nutz er</w>
Vert rieb
E li
Beschäf tigung</w>
lätz en</w>
tremu lous
gelö st</w>
En ga
G N
R ö
d s
ro l</w>
Köl n</w>
tz dem</w>
teil weise</w>
internation al</w>
tremulous .net</w>
D am
vermei den</w>
ameri kanischen</w>
pe ople</w>
bestä tigt</w>
komm enden</w>
schau en</w>
er hält</w>
st isch</w>
zu ge
str ing</w>
Mehr heit</w>
Co sta</w>
ff enen</w>
Ver sicher
F I
Großbritan nien</w>
Dien st</w>
0, 0</w>
Inno vation</w>
Par teien</w>
Kompon enten</w>
e .htm</w>
Häl fte</w>
aus drück
tt o</w>
f 76
Stra ßen
Fl or
hab er</w>
Dol lar</w>
s ä
Wet ter</w>
D ritt
Be stä
sp eichern</w>
wor ten</w>
kom bini
fl us
ta gs</w>
in vesti
Zü rich</w>
Person al</w>
Gro up</w>
. at</w>
H ard
da mals</w>
Tran sport
F ron
Herr en</w>
pla y
D ri
au st
and a</w>
D y
o w</w>
an aly
Se ele</w>
Natür lich</w>
Somm er
S ein</w>
Mitt eilung</w>
h o</w>
v an</w>
9 8
v es</w>
om s</w>
verbesser t</w>
lu si
en tiert</w>
erhö ht</w>
Mittel me
Meer es
oto ca
D A
ü hren</w>
ah len</w>
457 6</w>
j eg
Wei hna
Er ken
Kap itel</w>
ähr t</w>
m ale</w>
Free I
star ke</w>
Qu ote</w>
Stu tt
sig FreeI
Sa una</w>
Kü ste</w>
H i
ti erten</w>
Viel falt</w>
pf lan
de ze</w>
be ob
d3 fc
c. hr</w>
ic cal
haup ts
tz- otoca
tz-otoca c.hr</w>
sigFreeI d3fc
sigFreeId3fc f76
sigFreeId3fcf76 4576</w>
or -
iccal date</w>
Rau m
sch wei
Kon stru
Stand ort</w>
aus reich
201 5-
on g</w>
jähr ige</w>
ge ss
Pro ph
Or gan
schn ei
ie gen</w>
ger s</w>
30 -
Sard inien</w>
ein ander
l eiter</w>
Mar ke</w>
Bel gien</w>
ma g
gem üt
do kum
Dien ste</w>
ü hr</w>
z one</w>
Phi li
v ent
min uten</w>
kon fer
ver mietung</w>
Ab schluss</w>
größ ere</w>
bewus st</w>
Finanzi erung</w>
so fern</w>
ar tige</w>
sti gen</w>
Vert rauen</w>
www. amarilla
E l</w>
chti g</w>
ch -
w ak
F ar
A g
Foto gra
weg s</w>
äußer st</w>
b at
Pa ge</w>
Verän derungen</w>
ähl ten</w>
d licher</w>
- 15</w>
S .
ak u
K oll
informi eren</w>
Sch wimm
Gra fi
Qu ali
sk i</w>
ger äu
b us</w>
ter ra
k um</w>
Z eich
o u
O der</w>
nah me
maxim ale</w>
Prof .</w>
groß es</w>
Sy n
Re f</w>
Ma dri
ein heit
si gkeit</w>
as .net</w>
m ot
p ic
ES T</w>
Pla yer</w>
de x</w>
herunter laden</w>
unter schei
S CH
Sch ließ
Nor den</w>
Fran zösi
j ust</w>
Fle xi
an alysi
T r
Ma in</w>
hän gt</w>
un er
te ste</w>
erlau ben</w>
Ken ntnis</w>
sin n
füh len</w>
T yp</w>
Aspe kte</w>
ver hält
lie fern</w>
ct or</w>
Mäd chen</w>
Bem üh
be darf</w>
b lan
m eines</w>
Gener ation</w>
B us</w>
ar tik
stä d
Geh eim
Afri ka</w>
G ü
ver ring
so ft
T onnen</w>
ra y</w>
c ap
Bi bliothe
perfe kt</w>
pla y</w>
lü ck</w>
R -
Disk ussion</w>
ein deu
St ation</w>
I P</w>
t est</w>
Bewer tungen</w>
Regier ungen</w>
span nen</w>
ali smus</w>
L eg
Aktu alisierung</w>
n den</w>
ro ad</w>
m esser</w>
R h
A gent
s au
Her e</w>
be ziehen</w>
Z un
ab schie
Wel che</w>
P ers</w>
gän ge</w>
exk l</w>
Ge pä
Geb ur
zieh t</w>
t ori
Um wel
ur lau
An teil</w>
r elev
Gefüh l</w>
f a</w>
O h
zz a</w>
zeu gung</w>
geschütz t</w>
F lo
c ep
gen ü
W ahl
mög lichen</w>
ru ms</w>
des ig
Allgem ein</w>
f ron
6 8
d or</w>
mo du
2010 -0
Ä r
Op tionen</w>
blo g</w>
man chmal</w>
ei l
Ge danken</w>
ast ro
E W
w s-
um ini
Aus sicht</w>
freund lich</w>
S itz</w>
Ein gang</w>
Nu mmer</w>
Doppel bett</w>
Kroa tien</w>
In ner
Ber eit
Ge w
si chts
an trag</w>
erst klassi
I D
Aller dings</w>
o ba
lä ss
gewi esen</w>
g h</w>
be wegen</w>
Be darf</w>
K lin
hon dur
Gesch le
M AR
hol ung</w>
Bek ämpfung</w>
Eis en
Lan g
einfa chen</w>
Bedürf nisse</w>
v ing</w>
wel chen</w>
fan ta
ch em</w>
C S
S ing
D ort</w>
St rei
gerä t</w>
H ör
tra gung</w>
Be feh
gu ter</w>
Über na
ü bt</w>
top ic</w>
Angele genheiten</w>
Vie ws</w>
rip t</w>
alitä ten</w>
Mark eting</w>
zentr ale</w>
zeich nis</w>
lo u
an e</w>
gesell schaft
Zus atz
besitz t</w>
d ritten</w>
lig ht</w>
E ta
regel mäßig</w>
An gst</w>
A lex
AT A</w>
ig ung</w>
mög liche</w>
ver standen</w>
Samm lung</w>
comp uter</w>
Hau sti
199 4</w>
ch ron
re g
P ul
steu er</w>
L au
Ent schließ
sin g</w>
Geschma ck</w>
mon ths</w>
a kter</w>
Metho den</w>
M S</w>
ra te</w>
So u
lie ßen</w>
Tem peratur
Portug al</w>
ar ischen</w>
aller y</w>
An nahme</w>
missi ons
Gesch ir
Sü den</w>
Sin n</w>
Er leb
Masch ine</w>
star ken</w>
IT -
zi erung</w>
tä ten</w>
Europ e</w>
ersch einen</w>
F eld</w>
To p</w>
stär ker</w>
Haupt stadt</w>
kosten lo
erklär te</w>
D ER</w>
kon zep
be zeichnet</w>
So ur
Über setz
J ur
g y</w>
entschie den</w>
5 4
Präsiden ten</w>
Tho mas</w>
I l
P uer
Ga st</w>
Dokum ente</w>
l eben
Bo den
ähl te</w>
ge k
Je des</w>
günsti gen</w>
S ä
be zahlen</w>
Aus sprache</w>
Ge gend</w>
P S
be tt
9 7
sor gt</w>
se a</w>
Sho p</w>
A gen
sei en</w>
po li
Auf trag</w>
über tragen</w>
besteh enden</w>
Gesam t</w>
cu ba
La ger</w>
25 25
S afe</w>
D er
wech sel</w>
Stutt gar
verl oren</w>
Dr eh
Tre ffen</w>
wi ki
us -
in i</w>
Sat elli
Pau l</w>
unabhängi g</w>
Ger man</w>
natür lichen</w>
view topic
er er</w>
ti ef
whi ch</w>
om en</w>
komm ens</w>
dau er
E ffizi
ti gten</w>
gew ählt</w>
Schri ft
T isch</w>
möglich erweise</w>
si dent
nation ale</w>
flä chen</w>
t ut</w>
Sti mm
C am
Fähi gkeit</w>
viewtopic .php</w>
ra tion</w>
s how</w>
C .</w>
re agi
kom fort
Liter atur
1 10</w>
etz ungen</w>
Bra si
tradition ellen</w>
ah nen</w>
wi d
ma r</w>
r eligi
f ro
Schwei zer</w>
Madri d</w>
Ass o
J ung
p sych
berücksichti gt</w>
Zwe i</w>
ster s</w>
ti gte</w>
abhängi g</w>
Präsiden tin</w>
prü fung</w>
en dung</w>
ck te</w>
B li
Zu behör</w>
beein flus
B O
5 3
Bl umen
e ar</w>
steri um</w>
Ph ar
C af
tr a</w>
ro man
b or
Regi on
fer tigt</w>
F un
L ig
k ern</w>
ar o
materi al</w>
schi cken</w>
th eit</w>
L eiter</w>
sor g
Funk tion
Plan ung</w>
Fahr zeug</w>
t rau
as h
tra vel</w>
Deb atte</w>
ber eiten</w>
AA AA
St art
T O
A P
m än
Ch ance</w>
lau b
gerä te</w>
ge gangen</w>
b and
Ster ne</w>
S S
län ger</w>
Up date</w>
Gol d</w>
Jo se
8 -0
verb un
b rü
be ten</w>
la st</w>
i -
Künst ler
plat te</w>
P op
K eine</w>
Ober fläche</w>
Gegen satz</w>
Pro per
D enk
UN G</w>
Programm s</w>
Vor teil</w>
ba ch</w>
Festiv al</w>
lin ken</w>
forman ce</w>
tem peratur</w>
T ool</w>
bein haltet</w>
. 10.
ide ale</w>
en ds</w>
Gä sten</w>
Glau ben</w>
tä ts
stan z</w>
ta ten</w>
spra chen</w>
gen des</w>
bru ch</w>
O b</w>
.08. 2015</w>
star ten</w>
m eri
J ohn</w>
1. jpg</w>
la gen
bil det</w>
Auf nahme</w>
201 3-0
öh ne</w>
O l
möglich st</w>
a y
zu erst</w>
or te</w>
Telef on
vor hand
St off
M r
Ka is
s at
har mon
di a</w>
Ein kaufs
ho ur
sh ar
Ger e
Aus gan
Bes itz
frü her</w>
gan z
berühm ten</w>
p or</w>
hot els</w>
kra ft
tion al</w>
Aut or
ot enti
an ts
erken nung</w>
an ta
W es
Über sicht</w>
Gr enz
führ ungen</w>
li o</w>
ver tret
organi siert</w>
Kon figur
0 2
An satz</w>
R est</w>
woh nung</w>
instal lieren</w>
bi g</w>
wes entlich</w>
Lux em
Hab en</w>
ar ische</w>
eu r</w>
Vi a</w>
K enn
Par am
For mular</w>
lass ung</w>
1 30</w>
sch al
0 1.0
h ard</w>
er öffnet</w>
Um fang</w>
www. immobilsarda
www.immobilsarda .com</w>
Bild schir
ver wand
n de</w>
Gesch i
N eben
P H
er zeugen</w>
do -
b le
Stand ards</w>
b lau
bau t</w>
i sches</w>
E del
s ame</w>
Internation ale</w>
. 11.
P unkten</w>
Medi en
M L</w>
ätz e</w>
schön sten</w>
M ore</w>
L os</w>
Di men
S a</w>
Ein heit</w>
bil der</w>
Sol ar
Konfer enz
ge zogen</w>
Ver stän
S U
F r
Ab b</w>
g ü
di ffer
Bl ut
be st
nö tig</w>
si l
gra mm
T an
wech sel
Schi ff
Am ster
Pla n</w>
G alerie</w>
brei ten</w>
Obje kt</w>
Auff assung</w>
gl ück
tar get</w>
geb nisse</w>
Ba y
S ig
Ar e</w>
Bau m
Jer us
zini sche</w>
ssyst eme</w>
Bü cher</w>
Masch inen
haupts ächlich</w>
ab geschlossen</w>
F A
Tei len</w>
F itness
schließ t</w>
Ni veau</w>
s et</w>
Exper ten</w>
beru f
glob alen</w>
d. h.</w>
Nach hal
it al</w>
Lauf e</w>
In t
Ener gi
An schluss</w>
Dokum ent</w>
199 2</w>
w at
w. php</w>
mel den</w>
Ern ähr
Lo g</w>
st ö
W ün
lo sigkeit</w>
Frühstücks buffet</w>
v e-
eri ert</w>
unbe dingt</w>
kl ar
mus ste</w>
informa tion</w>
Bot schaft</w>
X P</w>
em ber
b all
yst em</w>
Ko ch
Z ahn
10 H</w>
Ju den</w>
D amen</w>
W est</w>
Tex as</w>
Plat tform</w>
F rü
versi cherung</w>
c is
or ie</w>
För der
ol z</w>
vi r
fähi g</w>
Bestä tigung</w>
konta ktieren</w>
z iem
Ver sch
la ssi
wen det</w>
Kun de</w>
Entwick lungen</w>
hoh er</w>
inc lu
16 0</w>
f ein
bes t</w>
be auf
L iss
www. b
g h
tinu ier
n g</w>
Provin z</w>
Ho use</w>
c li
Lo g
Bet re
persön liche</w>
mensch lichen</w>
Schwe den</w>
Geschä ft
Gä ste
Zah len</w>
Sch a
200 9-0
f ar
ö ster
Per spe
erio de</w>
F ig
Amaril las
bit ten</w>
tion spro
missi onen</w>
G las
Ra dio</w>
be mü
Kaffe e</w>
u ung</w>
di ge</w>
ber n</w>
Res iden
er r
sel e
Sch ei
l len</w>
hand eln</w>
Pha se</w>
alifor nien</w>
Liss ab
i d
dm et</w>
gri ech
sch o
Wor k
plat ten</w>
kultur ellen</w>
ent sprechen</w>
angem ess
Tran spar
weiter es</w>
t enden</w>
z ess
Enga gement</w>
beschäf tigt</w>
ot s</w>
t ö
dan ke</w>
Gr enze</w>
stär k
quali fizi
Städ ten</w>
s m
Stuttgar t</w>
Jahr zeh
ne ws</w>
einzi gen</w>
Kur z
S O
. p
www. bi
über ra
Ar gum
ug h</w>
il and</w>
höch ste</w>
en en
Im press
volu tion
mel dung</w>
sich erung</w>
Brü ssel</w>
uer tori
s la
ren nen</w>
Ant worten</w>
kar ten</w>
g utes</w>
kt s</w>
ima ge</w>
Kon gr
isti schen</w>
Ber g</w>
Prof ess
Führ ung</w>
Z y
Fi sch
en or
Ther ap
B and
uertori co
Geri cht</w>
stand s
Puer to</w>
fu er</w>
-con sult
Werk zeug</w>
ol e</w>
fer tig</w>
Veröffent lichung</w>
Beh in
Inf os</w>
Al li
g ood</w>
unter gang</w>
p op
getro ffen</w>
deta illi
er fahr
X L</w>
F ru
Br un
te .htm</w>
Micro soft</w>
re stauran
produ ktion</w>
an bieten</w>
Gol f</w>
Al umini
produ ziert</w>
wes entlichen</w>
ver mi
Fir men
Bet t</w>
T hr
S Q
den noch</w>
For t
interes siert</w>
N etz</w>
ö k
ungsp o
vi si
Se ktor</w>
Ber ge</w>
zo g</w>
c lu
region alen</w>
F ür
zu gleich</w>
Sp i
Untersuch ung</w>
En ter
Koll eg
spezi ellen</w>
A U
woh nen</w>
X -
Teil nahme</w>
über zeugt</w>
w ann</w>
französi schen</w>
Alb um</w>
7 00</w>
jähr lich</w>
ing .com</w>
M O
profi tieren</w>
JP G</w>
Rech nung</w>
aus län
we chs
Stell ung
Kan ada</w>
v on
Par ken</w>
Mod elle</w>
li sten</w>
min dest</w>
gesch ehen</w>
Infra struktur</w>
König reich</w>
Heraus forderung</w>
R ab
ga z
Ar z
ti er
und -
han del</w>
ri es
sch rän
be en</w>
le y
zü gi
Au th
su pp
li ger</w>
K n
An kunft</w>
Ungar n</w>
ni emand</w>
fest gelegt</w>
W ort
Camping platz</w>
3 2
.c z</w>
Aussch uss</w>
zu mindest</w>
so weit</w>
hil fen</w>
Ver ein
m ulti
T R
s ens
k el
EI B</w>
18 0</w>
Schwieri gkeiten</w>
on ien</w>
le hr
gewähr leistet</w>
Registri erung</w>
schn eller</w>
einzel ne</w>
G arten
14 0</w>
wär en</w>
St ei
Joh annes</w>
verb ringen</w>
ho li
po wer
schn elle</w>
berei che</w>
Archi v</w>
kor re
wer fen</w>
st ori
un t
nachhal tige</w>
kon tinuier
-consult ants
f iel
natür liche</w>
über prüfen</w>
Alt stadt</w>
W and
www. rau
Ägyp ten</w>
g ran
Auf grund</w>
sei d</w>
u ch
Pak et</w>
Pal a
Mini ster
Vor bereitung</w>
Haus es</w>
Bo ard</w>
B ir
be stellen</w>
J e</w>
al ter
Vereinbar ung</w>
r ein</w>
den den</w>
Obje kte</w>
Eigent ü
vi sion</w>
af ri
ali sten</w>
Schlü ssel
Benutz er
z te</w>
wach sen</w>
Dü ssel
ver ändert</w>
k ehr</w>
199 3</w>
199 0</w>
ch il
-consultants .de</w>
www.rau -consultants.de</w>
d einen</w>
E p
di t</w>
Ph otos</w>
medi a</w>
J .</w>
Da durch</w>
st ron
Or te</w>
wir st</w>
geräu mi
ak tionen</w>
Sto ck</w>
zufrie den</w>
m ann
ra ten</w>
kör per
Sch loss</w>
den s
konfer enz</w>
blan k</w>
Well ness
stär ken</w>
funktion ieren</w>
gen annte</w>
lei ten</w>
R einigung</w>
th ei
aler weise</w>
syst eme</w>
mitt l
lo ve</w>
T ür</w>
Off en
be haup
ti erung</w>
cht es</w>
Ca sin
S m
Pre vi
en i
ständi gkeit</w>
Bemüh ungen</w>
histor ische</w>
ear ch</w>
instal liert</w>
hö her</w>
lau t</w>
ruhi gen</w>
erzi elt</w>
f ur
erklär en</w>
I P
reser vieren</w>
lieb e</w>
A ni
Ö l</w>
U ser</w>
ru p
P resse</w>
ziem lich</w>
sp ür
bi en</w>
Medi kam
notwendi gen</w>
durch schnitt
de fau
E F
12 -0
erfol gen</w>
Investi tions
Hoff nung</w>
The ater</w>
ster ne</w>
an i</w>
nutz t</w>
d c
ung st
grei f
mati sche</w>
Stat us</w>
am t</w>
chti ge</w>
o ut
bequ em</w>
E D
leb ens
G ünsti
r y
auf bewahr
ein ger
Ver fahr
inde x</w>
Sicher heit
12 ,
er vice</w>
begrü ßt</w>
Gestal tung</w>
6 4
will kommen</w>
fil m</w>
präsen tieren</w>
sch ü
ssi g</w>
Kri terien</w>
Wet ter
-S ter
A L</w>
Ban ken</w>
Mikro w
a h</w>
besch lossen</w>
F al
Cor por
A gr
bra chte</w>
ser n</w>
n atur
f ru
ma ten</w>
betra chtet</w>
Instru mente</w>
pa p
Li ve</w>
li st</w>
erinn ern</w>
Re volution</w>
r um</w>
St rän
pl em
leg te</w>
ie ßen</w>
Char akter</w>
Internation alen</w>
ent standen</w>
v it
fül len</w>
Par a
M E</w>
H Er
H ist
Begri ff</w>
K lo
Daten bank</w>
op en-
g ä
er lei</w>
kur ze</w>
We sten</w>
stech nik</w>
l i</w>
Impress um</w>
I S</w>
k tion
rela tiv</w>
erst re
Ein stellungen</w>
bo x</w>
u ellen</w>
t ab
sch we
um p
Stra ßen</w>
b b
Ver arbeitung</w>
bur ger</w>
V e
An stren
italien ischen</w>
z a
s eg
I .</w>
Ar bei
be cken</w>
De fin
größ eren</w>
Q U
Fir men</w>
lin ie</w>
k as</w>
Tab elle</w>
Hand el
s ed</w>
o w
an ische</w>
Sy mp
ev ent
Verstän dnis</w>
astro ph
M ann
u ell</w>
Pflan zen</w>
Fahr t</w>
vor her</w>
dien ste</w>
Jerus alem</w>
Auf zug</w>
th ere</w>
o da
vor gesehen</w>
G O
er hielt</w>
Hausti ere</w>
drü cken</w>
H alle</w>
Pers ön
d t
Studi en</w>
um -
em ar
lie b</w>
h en
dar aus</w>
Sch atz</w>
höch sten</w>
CD ATA</w>
Unterschie d</w>
Schwer punkt</w>
Ord nung</w>
Li ber
ma xi
Zugri ff</w>
an wen
schn ell
gelie fert</w>
er gibt</w>
pen sion</w>
lich erweise</w>
a o
gestal ten</w>
G B</w>
G -
ver kauft</w>
Tex te</w>
B M
g as
k tions
sch e
lich ten</w>
sich ern</w>
Sti ftung</w>
Schön heit</w>
wer det</w>
masch inen
geneh mi
wer e</w>
ma ßen</w>
gel t</w>
K ann</w>
wel l</w>
t ü
am -
F r</w>
spann ung</w>
gescho ss</w>
Proto kol
App li
mitt lung</w>
scha ff
G ames</w>
fri ka</w>
Will kommen</w>
zugän glich</w>
Beru fs
A f
archi te
Grün dung</w>
er ing</w>
r es</w>
get ren
mbo l</w>
gesp eichert</w>
m ün
star tet</w>
Re gen
ol a</w>
ver letz
aus o</w>
Fre und
Del eg
einig er</w>
geb äu
La ssen</w>
stat tet</w>
cht ungs
P ro</w>
gef allen</w>
co de</w>
fer n
Fre e</w>
Cop y
.... ....
re chen</w>
at es</w>
Instru ment</w>
na men</w>
Süd ti
be u
Ta ges</w>
hän gen</w>
.com .
da ta</w>
Amster dam</w>
Bet ra
geb iete</w>
m echan
Ter ror
R in
st ür
sp art
6 7
künst l
Eng land</w>
mor gen</w>
St ück
d unk
ru f</w>
Stru ktur
Sp a</w>
k na
j et
Zah lungs
ni g
mit glie
is la
s entation</w>
Ju sti
ent steht</w>
Sin d</w>
Gr and</w>
str y</w>
führ ende</w>
Blu t</w>
us ern</w>
en .
Bei spiele</w>
gew al
Geb rauch</w>
Auto s</w>
ori enti
L ü
Blo g</w>
Bet t
bi a</w>
An erkennung</w>
samm eln</w>
Verbin dungen</w>
Rechts vorschriften</w>
lie fert</w>
um welt
Z it
Ver sor
lei den</w>
Vor der
Gol f
5 00
gra d</w>
G lück</w>
ck s
beteili gt</w>
H z</w>
Gem ü
. dll</w>
gebil det</w>
bu ch
g ert</w>
3 00
sch au</w>
zw eit
neue sten</w>
h uman
d rän
ter in</w>
ser viert</w>
h n
g ut
K r
Bil dern</w>
ent en
a i</w>
er reich
Teil nehm
gesell schaften</w>
um geben</w>
län ge</w>
posi tive</w>
nis ch</w>
a der</w>
La ger
Je de</w>
staat lichen</w>
Sch lu
Er war
31 st</w>
R ussi
f ie</w>
Kli ma</w>
vor aus
No ch</w>
Ö l
wer tung</w>
Bezieh ung</w>
y n
der zei
ei d</w>
St or
th en</w>
Feu er</w>
wer ken</w>
gar ten</w>
on y
d einer</w>
t ür
tt le</w>
in k</w>
bin dung</w>
se arch</w>
ren o
er zeugt</w>
T ru
D om
D ach
Fre unden</w>
mei ster</w>
res ul
Risi ko</w>
ari a</w>
Nation al</w>
3 D</w>
Bür o</w>
St rom</w>
Mo sk
Gi pfel</w>
Erei gnisse</w>
end gül
zwei f
europä ischer</w>
Wer bung</w>
Flei sch</w>
Au stausch</w>
201 5-0
M ül
ant ie</w>
kt es</w>
heri gen</w>
u da
mili tä
fre m
el a</w>
D O
Proper ties</w>
et ten
Rei s
ch ste</w>
fre ut</w>
einzigar tige</w>
Co un
nah e
ol l</w>
kla sse</w>
en ga
Spiel en</w>
ver folgen</w>
ist an</w>
Ir land</w>
se -
gr es
ar ab
3 50</w>
ki es</w>
ic o</w>
si tu
ro r</w>
o .com</w>
or ten</w>
B üh
außer gewöhn
Studen ten</w>
w ettbewer
Oh ne</w>
Fil me</w>
E dition</w>
wer ten</w>
wal d</w>
ausdrück lich</w>
gesch ni
c le
gegen sei
weis ung</w>
T al</w>
wissenschaft lichen</w>
ens wert</w>
Wech sel
ehema ligen</w>
Günsti ge</w>
P L
em o
H ände</w>
we ge</w>
kno wn</w>
komp et
A ir</w>
199 1</w>
em an
Geh minuten</w>
Zu g</w>
Effizi enz</w>
um gesetzt</w>
erweiter t</w>
Partner schaft</w>
sicher zustellen</w>
W -
S ign
News let
Proje kten</w>
Previ ous
Windo ws-
verschieden er</w>
Dies en</w>
L eitung</w>
nen nen</w>
Aus führung</w>
spezi fischen</w>
13 ,
ó n</w>
Wor ten</w>
Autom obil
amp i
Ev ents</w>
t at</w>
Previous 1</w>
wieder um</w>
ge stellten</w>
c ome</w>
sch ä
ell o</w>
on ly</w>
gsp unkt</w>
pp s</w>
D anach</w>
Er fin
antwor ten</w>
zu gang</w>
U -B
Richtlin ien</w>
2 1
ökon o
re den</w>
ap artment</w>
O g</w>
Aus flüge</w>
Geb ieten</w>
. 48</w>
T est</w>
absol ut</w>
fu hr</w>
Imm un
Düssel dorf</w>
p li
mati schen</w>
j ap
f es</w>
Ro ck</w>
o bje
Studi um</w>
garan tieren</w>
Ka pazität</w>
D S
Gu i
tri fft</w>
p lo
zentr alen</w>
da gegen</w>
a ges</w>
Vorauss etzungen</w>
x en</w>
er geben</w>
ch ester</w>
S z
IS O</w>
b es</w>
ver abschie
Viel en</w>
Schü ler</w>
lie gende</w>
B rau
sp ei
Mi lit
be stand</w>
Abend essen</w>
sti k
ho p</w>
gre at</w>
d rau
erst mals</w>
mati k</w>
angebo t</w>
b and</w>
ak tive</w>
Schi ff</w>
defin iert</w>
St amm
Glau b
Über blick</w>
t y
Verschie dene</w>
g keits
a ir
G as
Agr ar
trä gen</w>
Versand kosten</w>
sorg fäl
verur sa
beg onnen</w>
men ten</w>
ba siert</w>
erwäh nt</w>
sta tic
Verpflich tungen</w>
Er öff
entfer nen</w>
Kooper ation</w>
sol cher</w>
kur zen</w>
be vorzu
8 6
on es</w>
Ameri ka</w>
komm erzi
o fen</w>
m ine</w>
S cien
Ma x
einge führt</w>
F li
us sel
ma chten</w>
feh lt</w>
In n
Geschä ft</w>
der te</w>
2 1.0
Stabili tät</w>
Kla ssi
über schrei
Ab ente
perfe kte</w>
zei gte</w>
Flexi bilität</w>
dar stellt</w>
20 20</w>
Soli dar
n ör
end ly</w>
Fa ceboo
aktivi ert</w>
Po ker</w>
K auf</w>
ab kommen</w>
Zi vil
Bestand teil</w>
Geschäf te</w>
geb rau
da ten
T rin
bes itzen</w>
Or t
Elekt ron
gef ör
auf en</w>
st ör
Zu stimmung</w>
L E</w>
ung .htm</w>
schwieri g</w>
Phil os
in er</w>
F luss</w>
Mon t
Transpar enz</w>
produ ct</w>
ma in</w>
ö l</w>
Brasi lien</w>
Kreu z
so bald</w>
i or</w>
Sour ce</w>
Ein satz
Anwen dungs
Pri ester</w>
Zusätz lich</w>
oph ie</w>
ange sichts</w>
S E</w>
Kon tin
vor bei</w>
W I
Rum ä
wan ne</w>
sa tion</w>
An trag</w>
en -</w>
ck .php</w>
g ingen</w>
Wir d</w>
i um</w>
den de</w>
Am bi
höh ung</w>
ei en</w>
Re de</w>
R an
A ch
spezi fische</w>
Regel ung</w>
Qu ad
sh ops</w>
persön lich</w>
hö here</w>
Empfeh lungen</w>
Französi sch</w>
Ab schnitt</w>
Fähi gkeiten</w>
al b
krä fte</w>
eh mi
yo ut
p -
res pon
internation aler</w>
erinn ert</w>
K ä
Flü chtlin
20 -
prei s
Di stri
vil le</w>
ill eg
Gen ehmi
informa tionen</w>
Fin n
sicht bar</w>
To chter</w>
win den</w>
beg rün
Ak tion</w>
ziel e</w>
la h</w>
Kam era</w>
schrift lich</w>
ak ul
isti sche</w>
Ein stellung</w>
sicher lich</w>
Komment ar</w>
or a</w>
St ä
Über wachung</w>
eingesch rän
Wal d</w>
w hat</w>
anspru chs
Land es
Probl emen</w>
star t</w>
ausge zeichnet</w>
ar in</w>
- und</w>
lan gt</w>
auf gang</w>
Sp itz
bestä tigen</w>
Defin i
grö ße</w>
Ener gien</w>
da n</w>
Gleich zeitig</w>
s me
Grün de</w>
Schl uss
K ein</w>
Comp uter
gesch loss
lei chte</w>
fre e</w>
drü ckt</w>
a ge
ne y</w>
ph ase</w>
.09. 2015</w>
ges eh
W an
wa ys</w>
kosten frei
7 9
kontrol le</w>
comm oda
lei chter
lo g
Nahr ungs
M utter
Fahr rad
w ahl
Niederlan de</w>
Lei der</w>
Iden ti
regel mäß
s k</w>
urlau b</w>
Völ ker</w>
wa chen</w>
Gepä ck
ber ühr
ser vi
o se</w>
si ed
Op timi
g un
Re du
ber at
D o</w>
arbei tete</w>
D E
W esen</w>
Train ing</w>
Stre cke</w>
tra t</w>
W are</w>
Ven edi
ein heit</w>
ant räge</w>
198 9</w>
Stu dien
T H
Progra mmi
Ita lien
wirk ung</w>
gew onnen</w>
Stati stik</w>
z onen</w>
Appartem ent</w>
Tra ck</w>
Beteili gung</w>
ver gleich
et -
Supp ort</w>
S t</w>
Prin zip</w>
Debi an</w>
. -
Ver letz
verbin den</w>
hal ts</w>
R .</w>
Mar ken</w>
umfass ende</w>
op en</w>
Zimm er-
ung ser
ho ffen</w>
da chte</w>
s ul
Krieg s
Ro bert</w>
scha fft</w>
Sp ie
flu g</w>
gro und</w>
bo t</w>
om ie</w>
kehr en</w>
an er</w>
201 4-0
gu e</w>
all or
C H</w>
fül lung</w>
t ter
geplan t</w>
er tes</w>
at oren</w>
Er zeug
geschä ft</w>
ge fügt</w>
Tro tz</w>
Schlü ssel</w>
10 ,
v otes</w>
extre m</w>
P fa
K O
gi a</w>
besch rieben</w>
Schul en</w>
zusätz lichen</w>
Re par
ol d</w>
wichti gste</w>
Sch o
ge sprochen</w>
Regier ungs
fahr er</w>
Ver halten</w>
umfan g
d ritte</w>
entwick elte</w>
K alifornien</w>
Pla y
quali ta
fan den</w>
J ak
Beri chte</w>
th ing</w>
innova tive</w>
Kategor ien</w>
größ er</w>
S öhne</w>
Dar stellung</w>
aus führ
voll ständige</w>
mo di
den heit</w>
Veranstal tungs
E-Ma il-
ol ab
S how</w>
L ad
kl eines</w>
Risi ken</w>
wieder hol
Pen sion</w>
k einer</w>
gan gs</w>
B is
l atz</w>
in t-
Downlo ads</w>
un den-
m ung</w>
Krank heit</w>
R enn
Anpass ung</w>
kt or
Z o
di um</w>
Gerichts hof</w>
d omini
M T
än ger</w>
N ehmen</w>
Austra lien</w>
le y</w>
6 9
lo c
Tex t
S har
be hin
hin zu</w>
übri gen</w>
off enen</w>
ge spielt</w>
m .</w>
optim ale</w>
Erwachsen e</w>
gef angen</w>
n un
Proz esse</w>
par k
Har mon
a y</w>
Presse mitt
Initi ativen</w>
kur s</w>
statt finden</w>
Re alität</w>
mitt ler
dau ert</w>
en g</w>
p an
ori zon
dire kten</w>
C O</w>
z ar
eg el
201 6-0
1 x
K M
geschi eht</w>
er zielen</w>
bre chen</w>
t or</w>
besu cht</w>
Allgem eine</w>
ent ral</w>
Verbrau cher
an schließend</w>
Op en</w>
Eink lang</w>
deut sch</w>
ho use</w>
ange geben</w>
M exi
ges und
ge prä
av w.php</w>
ov a</w>
I N</w>
A -0
zi mmer
sele ct</w>
räsiden t</w>
G am
Hin sicht</w>
Besonder s</w>
Ins gesamt</w>
ri en</w>
schul en</w>
fäl len</w>
i Phone</w>
betra chten</w>
frei heit</w>
To il
Aussch usses</w>
dar gestellt</w>
ung -
m ein
al a</w>
ab len</w>
ähn lich</w>
Sch reib
vir tu
sta un
erforder t</w>
ver s</w>
Hä user</w>
zurück zu
demokra tischen</w>
Z ul
M ul
un der</w>
co -
W it
Bü ro
et h
Ren nen</w>
Berlin er</w>
aktu alisiert</w>
p .
lich sten</w>
z ei</w>
grund sätz
empf angen</w>
al tet</w>
D em</w>
el en</w>
ot s
setz te</w>
k ette</w>
ak tiven</w>
bek annte</w>
li on</w>
Stre et</w>
Di agno
ran gi
län e</w>
ver lieren</w>
na l</w>
H oll
www. regi
Gra d</w>
k rise</w>
Gere chtigkeit</w>
K rie
Ti sch
steh ende</w>
zon eid</w>
olab .info</w>
wis h</w>
Sp itze</w>
drin gend</w>
c lick</w>
Mot or</w>
le un
z eln</w>
kur ren
E C</w>
8 9
bil dungs
bi lien</w>
Mär kte</w>
Indi vidu
recht lichen</w>
enga gi
Um satz</w>
Sel bst</w>
Chr isti
B ahn
feh l
redu ziert</w>
w ö
höh eren</w>
fie d</w>
pag ne</w>
th i
fan gen</w>
www.regi olab.info</w>
Min der
bür ger
Steu erung</w>
et es</w>
Mar ken
Nach fol
ä t</w>
at t
St ar</w>
A sien</w>
informi ert</w>
é s</w>
kehr t</w>
ent gegen
Her bst</w>
M ü
le ge
Web sites</w>
war t</w>
al u
Stra f
g g
ab teilung</w>
sident schaft</w>
Copy right</w>
wer b
ver folgt</w>
Coo kies</w>
Re form</w>
Gesch en
a .org</w>
S ens
teil nehmen</w>
In fo</w>
Mittel punkt</w>
st eig
artic les</w>
Ur spr
- TV</w>
ver sammlung</w>
al terna
tran spor
hondur as
ci o</w>
Dokum entation</w>
ur s</w>
un ge
di ver
Er satz
E tage</w>
aus wählen</w>
st itu
Bade wanne</w>
velop ment</w>
L am
gef ra
G it
ri chtlin
Ver lag</w>
www.amarillas aust
Schließ lich</w>
Mitarbei tern</w>
d einem</w>
ni ce</w>
Sa ison</w>
wel chem</w>
Sch äden</w>
gen auso</w>
et er
wei le</w>
we stlichen</w>
ach sen</w>
t rin
U hr
Publi kum</w>
Kon to</w>
selbst verständlich</w>
forma t</w>
gen ö
1, 5</w>
st liche</w>
qu ellen</w>
g ö
Min er
b ä
schätz en</w>
Koord in
sy n
An sprüche</w>
woh l
en co
Sch alt
Sch nei
Kaffe e
Nach frage</w>
el y</w>
M c
ein geri
V a
erforder lichen</w>
200 7-0
prei se</w>
em a</w>
Ak tionen</w>
schlä gt</w>
es .com</w>
Allgem einen</w>
dru cken</w>
G na
hour ly</w>
zü ge</w>
gi r
Kon zer
8 7
steu erung</w>
posi tiv</w>
wi tter</w>
c au
Sch il
r ent</w>
Ent wurf</w>
Quar tal</w>
freund liche</w>
dar stellen</w>
transpar ent</w>
F ö
beton t</w>
Ausgan gspunkt</w>
h l
Zeit ungen</w>
Pap ier</w>
Aus gaben</w>
c on</w>
24 -St
näh er</w>
Uni vers
Ge werk
Kam er
bre akfast</w>
M and
durch aus</w>
desig n</w>
ver tei
ma tion</w>
In genie
st rei
G lück
Er st
zi erte</w>
m essen</w>
zi gen</w>
b -
auf nahme</w>
Deta il</w>
C ar</w>
Ber n
säm tliche</w>
Au ge</w>
Softwar e-
f ährt</w>
Symp t
Che ck-
At lan
kultur elle</w>
Geri chte</w>
Wirk lichkeit</w>
te ure</w>
ta in</w>
in as.net</w>
g eren</w>
M eg
Arbeit nehmer</w>
R ela
ausreich end</w>
wordpress .org</w>
individu elle</w>
verbin det</w>
Ber ech
lok ale</w>
unmittel bar</w>
M iss
lä ßt</w>
L er
Entwick l
lös ungen</w>
Venedi g</w>
N er
r on</w>
I II</w>
ä ter</w>
integri ert</w>
So uth</w>
Sch on</w>
ein geb
Wal d
at a</w>
Be wus
---- ----
fo lio</w>
R F
y l
m utz
Er schein
Sch mi
H ir
G las</w>
jen er</w>
Daten schutz
res pe
Frei zeit
Anstren gungen</w>
Al ter
g or
L inien</w>
Konz ern
Arbeitsp lätze</w>
uni on</w>
Ro y
Ho f</w>
ö tz
st eigen
ers etzt</w>
gen er</w>
re volution
St au
Se e
är ten</w>
e p</w>
stru kturen</w>
Ein haltung</w>
ü ste</w>
Internet -
beauf tra
maxi mal</w>
unterschie dlich</w>
prak tisch</w>
D än
. 12.
M ur
ta g
ber gen</w>
ti l
fel der</w>
Wettbewerbs fähigkeit</w>
individu ell</w>
str ö
In seri
Hil fs
Feh ler
tru e</w>
Administra dor</w>
k eit
Inseri do</w>
Ar mut</w>
Aktu elle</w>
mati sch</w>
kt rum</w>
ins el</w>
Vi elleicht</w>
An sprech
c ed</w>
sk a</w>
exk lusi
Ph oto</w>
an gt</w>
s ste</w>
her um</w>
ge arbeitet</w>
ta bel</w>
erhö h
a is
W eiter</w>
Er stellung</w>
E mp
sel ten</w>
V ER
Pra g</w>
t .
ein ma
sta mmt</w>
L ern
bo den</w>
Um gang</w>
ri ere</w>
b te</w>
Sch ie
ritt s
be zogen</w>
Kal ender</w>
vi erte</w>
1 20
geleg ten</w>
11 ,
Verein ten</w>
ma te</w>
B est</w>
A li
ni emals</w>
hi elten</w>
fa ce</w>
fül lt</w>
weis ungen</w>
kri mini
u a</w>
S ab
Eng ine
woll ten</w>
ru g</w>
tiv er</w>
so dass</w>
individu ellen</w>
Auf trags
syst ems</w>
St ahl
Mon d</w>
Lei p
Na vi
dire kte</w>
unter sucht</w>
sel ber</w>
Un known</w>
Seg el
Newslet ter</w>
24-St unden-
Park plätze</w>
Di a
Ar me
z win
wi ki</w>
P ort</w>
itä ts
Sa chen</w>
institu tion
gsp ot
ak e</w>
Nichtraucher zimmer</w>
ün f
äst inen
läss lich</w>
Ev angel
Abgeord neten</w>
wi tz
j ü
C D-
Stand punkt</w>
K ne
nahe zu</w>
Al koh
Rück kehr</w>
blo gspot
ar tigen</w>
b lieb</w>
au ti
Ver fu
lu g
g alerie</w>
M echan
d ün
konzentri eren</w>
i k
heri ge</w>
hi p</w>
is h</w>
Vi sion</w>
Men ü</w>
Met all
Geschir r
B A</w>
c ity</w>
Umwel tsch
strate gie</w>
finanzi ellen</w>
u st
region ale</w>
P a</w>
bl att</w>
nis ses</w>
qu e.com</w>
erneu er
at ers</w>
Fa ktoren</w>
tro tzdem</w>
pers on</w>
Profess or</w>
mus eum</w>
c er
be geg
E- mail</w>
wä sche</w>
ter -
Stellung nahme</w>
wo durch</w>
Bewus st
Verb rei
gri ffe</w>
1 10
för dert</w>
genö ssi
In n</w>
2. jpg</w>
et ab
Vi sta</w>
Bul gar
us e
langs am</w>
wach st
bet rieb</w>
tifizi ert</w>
Bel ast
Min dest
ge geb
Ein en</w>
Si m
Kon ditionen</w>
S atz</w>
Param eter</w>
Gen ießen</w>
F ok
schwar z</w>
ma ss
Geb iete</w>
Ver fass
1 15</w>
ko stet</w>
ver ändern</w>
eb ene</w>
Stär kung</w>
T ar
Süda frika</w>
tä glichen</w>
ster ben</w>
N I
ra di
hei ligen</w>
6 5
über nimmt</w>
Zeit schrift</w>
tele fon
Li fe</w>
Mo un
be an
aus ger
Ein druck</w>
elektron ische</w>
interess ante</w>
zi elt</w>
Sti mmen</w>
berücksichti gen</w>
e .de</w>
fün f
tradition elle</w>
th ese</w>
gn a</w>
l ust</w>
L or
dat um</w>
eindeu tig</w>
Bei de</w>
stei gt</w>
bel ast
Hö ch
Fahr zeuge</w>
ausge führt</w>
Ka bel</w>
A ssi
7 5
en tieren</w>
auf merk
deut sch
Origin al
Qu ellen</w>
D res
ph ie</w>
Bil dungs
rä umen</w>
k rieg</w>
F ass
Att ra
pla ce</w>
heb er
12 5</w>
gaz ine</w>
än den</w>
p ul
le vel</w>
Gesi cht</w>
sicher e</w>
ma ke</w>
Ab teilung</w>
ro t</w>
est er
k üh
passi ert</w>
verstär kt</w>
Sch mer
welt weiten</w>
ten si
soll st</w>
Person al
Di alo
tiv es</w>
medi zin
in zwischen</w>
halt enen</w>
S A</w>
ri cht
Bur g</w>
eu er</w>
Comm un
Ver sionen</w>
le .com</w>
K ris
Ex tra
p ur
Boo te</w>
er ie</w>
Bibliothe k</w>
b ul
Elem ent</w>
C y
Be zir
SP I
b o</w>
Gegen stand</w>
A K
heb ung</w>
Milit är
M allor
Al p
Ber ücksichti
Th ere</w>
Mitglie dern</w>
Be oba
mär kte</w>
Agent ur</w>
Sch öpf
H D</w>
g .</w>
Zwei fel</w>
W ör
N -
.amarillas lat
i ti
I f</w>
Fla ch
Wer t
Res ul
Edel st
pro mi
Religi on</w>
E m
D ör
ken nt</w>
r el
kl are</w>
Bu dap
ste ckt</w>
co unt</w>
Bru der</w>
liti es</w>
eri a</w>
Re aktion</w>
K m</w>
er richtet</w>
Ver fasst</w>
Ap p</w>
Währ ungs
lin ge</w>
F T
deck ung</w>
Con tain
viel es</w>
ing ton</w>
früh en</w>
russi schen</w>
Hal tung</w>
kl ein</w>
alifor ni
Mo se</w>
e chte</w>
Fahr er</w>
s i</w>
mo st</w>
C ast
p un
Kol le
rock ner</w>
hi stori
es .net</w>
W eg
Ab bildung</w>
än der</w>
ges ucht</w>
gewün schte</w>
es ische</w>
O ly
er y</w>
an hand</w>
Mus een</w>
mitt ag</w>
bestimm en</w>
Se cur
steh ung</w>
Lo u
pp en
P ic
Tä tigkeiten</w>
N O
p ft</w>
Kam pf
sch rieb</w>
ca tions</w>
M em
Lehr er</w>
ange passt</w>
net z</w>
ma ssi
an gs
wunder schönen</w>
Berichterstat ter</w>
Ri ch
verursa cht</w>
ruhi g</w>
s ome</w>
h ome</w>
Han no
ka mmer</w>
p lus</w>
Span isch</w>
klassi schen</w>
fol gerungen</w>
ersch i
Schi ffe</w>
Wer be
Flas h</w>
Be ach</w>
wol le</w>
Spezi al
tifizi erung</w>
Be droh
E t
N o</w>
Slo wak
Ge wä
sto ßen</w>
G ru
G la
Alterna tive</w>
Luxem burg</w>
E ra
op ti
A T</w>
en ge</w>
Te ams</w>
Ad d</w>
M I
g am
Z e
b ahnhof</w>
Kapit al
Gener al</w>
ausgew ählt</w>
Kon zent
Isra els</w>
Syst emen</w>
Pri vate</w>
Christ i</w>
w ör
gro sse</w>
Versu ch</w>
eh n</w>
an sicht</w>
Geschäfts führer</w>
Fischer ei
y ear</w>
kun de</w>
Ein wohner</w>
hunder t</w>
ul en</w>
Un abhängi
C er
human it
M o</w>
vorgesch la
K ür
ungspro zess</w>
gef äl
Er gän
akzep tiert</w>
b ahnen</w>
spi ri
na m
n ä
Ka mmer</w>
Is land</w>
einzigar tigen</w>
UN G
ursprün glichen</w>
p l</w>
P on
Mitglied staat</w>
sch re
Si te</w>
vor gestellt</w>
besser en</w>
Rei ch</w>
Mon it
2. 0</w>
s z
ko ord
j un
erheb lich</w>
Tour isten</w>
Ma c</w>
kt ors</w>
bezieh t</w>
Vert rieb</w>
ag ent
Vier tel</w>
Tur ni
dies el
bo ur
behör den</w>
Krank heiten</w>
Kir chen</w>
Schau spiel
ht ml</w>
dem ie</w>
D i</w>
Faceboo k</w>
B B
tro l</w>
l et</w>
über nommen</w>
Ver zeichnis</w>
norm alen</w>
hochwer tige</w>
Dar um</w>
Mensch heit</w>
B all
to p</w>
Pra k
ar ray</w>
ri tz
Lebens mittel</w>
tr y</w>
s .</w>
We gen</w>
Bran che</w>
mensch liche</w>
de h
kompl ette</w>
Rumä nien</w>
R am
Er höhung</w>
unbe grenz
es ien</w>
H I
oh n
gen i
Mus eu
Val en
Finn land</w>
geschi ckt</w>
Ma ssen
A C</w>
be griffen</w>
zeich nungen</w>
flu g
en nen</w>
be merk
be ha
g al
Seit en
Mar ina</w>
H .</w>
vorgesch lagen</w>
Vor haben</w>
m om
A V
ä use</w>
st ex
ga -
einfa cher</w>
W ES
Sp ar
E X
bi eren</w>
otenzi al</w>
verwal tung</w>
fin de</w>
Flug haf
Er inn
B rie
di ert</w>
200 8-0
lauf enden</w>
W T
M ah
Aus rüstung</w>
W ahlen</w>
rä u
Fäl le</w>
Che mi
ung er</w>
finanzi elle</w>
P res
wi der</w>
organis ation</w>
se k
p df</w>
ut s</w>
h Pa</w>
gestal tet</w>
ver halten</w>
Berücksichti gung</w>
Ira n</w>
Literatur ang</w>
Kontrol l
we b</w>
po st</w>
gewi dmet</w>
K art
Unterschie de</w>
Ch a
www. q
wissenschaft liche</w>
akzep tieren</w>
reich es</w>
Auf sichts
hei m
Auto vermietung</w>
ur a</w>
ern st
Prä sentation</w>
früh eren</w>
Mitt eln</w>
Dän emar
Sch reiben</w>
ret är</w>
lich te</w>
Ergeb nissen</w>
and o</w>
SE O</w>
Fahr en</w>
C entre</w>
Mis sion</w>
la tion
fest gestellt</w>
ari um</w>
Kü chen
kon figur
Pa ck
Ber gen</w>
erreich bar</w>
. amaril
Ad r
ss p
H om
-Ster ne-
zi erten</w>
gehöri gen</w>
zentr en</w>
wiki p
ung ssystem</w>
li sche</w>
Wil len</w>
s lo
ner s</w>
d f
fer ner</w>
oc ca
terra sse</w>
le ase</w>
F lä
C lou
S hi
Über prüfung</w>
w ahr</w>
geför dert</w>
Lissab on</w>
Ab satz</w>
Z ahl
Ma il</w>
her vor</w>
S af
sch alten</w>
Part nern</w>
Bar s</w>
d oppel
D einen</w>
Casin o</w>
gen -
beglei tet</w>
Re d</w>
Ferien häuser</w>
Her stell
For derungen</w>
d ol
the y</w>
s em
blogspot .com</w>
Bo x</w>
Luft feu
allgem ein</w>
Wochen ende</w>
n y</w>
Aus bau</w>
Ro ute</w>
Musi c</w>
Z oll
B renn
i z
bes ei
Region al
L as</w>
Is la
ly que.com</w>
i chti
Oly mp
Kop f
ic a</w>
Wei ß
t an</w>
sich ert</w>
Geb oren</w>
th in</w>
beein druck
Aus nahme</w>
con da
il le</w>
komm e</w>
fas zini
ein setzen</w>
en bezo
bewer tungen</w>
am in</w>
EP A</w>
Arbei ter
ü ben</w>
wor ld</w>
kein erlei</w>
ur m</w>
er läu
G ut</w>
öster reich
Den noch</w>
B EST</w>
mar k</w>
bet rieben</w>
H en
neh men
O d
ge prüft</w>
de uten</w>
unter künfte</w>
Z weit
ff en
A S</w>
sour ce
Dan ke</w>
ge übt</w>
g ation</w>
Um feld</w>
Strate gien</w>
geh ol
Bü ros</w>
vor gelegt</w>
p uertorico
h i</w>
www. vi
E IN
ma ß</w>
Ferien haus</w>
Ar zt</w>
ch o
SQ L</w>
sch einen</w>
E uch</w>
E benen</w>
So bald</w>
Chr .</w>
schrei bt</w>
4 2
g as</w>
norm alerweise</w>
S S</w>
GN U</w>
mess ungen</w>
wordpress .com</w>
Web -
R eb
sch ein</w>
rah men</w>
er rei
u ti
Hanno ver</w>
verfüg baren</w>
pp er</w>
ab el
Protokol l</w>
zu lässi
T ari
J an
q m</w>
för derung</w>
Veröffent licht</w>
St ein</w>
Sitz ung</w>
A si
ähn liche</w>
stück e</w>
besteh end</w>
Gar antie</w>
Prof ession
H ein
e ck
b ten</w>
rä der</w>
n ull</w>
A chtung</w>
umfass enden</w>
ini ti
ursprün glich</w>
regel n</w>
gro ssen</w>
Kolleg innen</w>
olog isch</w>
n i</w>
h alle</w>
geh ende</w>
Medi zin</w>
gu age</w>
P un
I tal
steu er
An reise</w>
9 00</w>
funk tion</w>
z esse</w>
A ri
Chr isten</w>
kosten losen</w>
e x</w>
D unk
Bereit stellung</w>
I P-
Kan di
zi mmern</w>
Geschirr sp
sta dt
ran s
Be arbeitung</w>
kön nt</w>
I h
fer s</w>
Vorauss etzung</w>
Progra mmen</w>
si one</w>
Train ing
rä f
be kommt</w>
e z</w>
Arb eiter</w>
Ant oni
Rä ume</w>
Ri co</w>
Hoch schule</w>
Aus stellungen</w>
x x
gn ü
Brü der</w>
Por to</w>
gli ed</w>
moder n
ge kenn
En gel</w>
4 50</w>
an gesehen</w>
medi zinische</w>
Spa zier
10 5</w>
enco unter</w>
Frie dri
hil f
off ene</w>
erfol greiche</w>
thei r</w>
Nr. 8
D al
musi kali
W ann</w>
technolo gie</w>
tik er</w>
gel esen</w>
Sy m
gebäu de</w>
schli ess
Schwimm bad</w>
Sc re
gemein schaft</w>
et ern</w>
ent deckt</w>
hö he</w>
www.q lyque.com</w>
betreff enden</w>
D N
Zwe cke</w>
zunehm end</w>
vor liegenden</w>
hinzu gefügt</w>
A ma
s auber
ori um</w>
s amen</w>
na h</w>
ges amm
Ti pps</w>
Eigent um</w>
te stelle</w>
ot -
Ph ysi
Informa tion
Bu d
ti ef</w>
organi sieren</w>
aufbewahr ung</w>
boo t</w>
ver ein
posi tiven</w>
Wei l</w>
schla f
bi ge</w>
al th</w>
14 .
m esse</w>
N am
strah lung</w>
redu zieren</w>
J ün
voll kommen</w>
fa x</w>
Schla g
Verän derung</w>
W äl
T reiber</w>
d wi
S ex
la- hab
Ku ba</w>
prä z
her zustellen</w>
ber ge</w>
ol o</w>
Rech nungs
Lo k
her zlich</w>
entwick elten</w>
günsti g</w>
a tiv</w>
Solidar ität</w>
F abri
is o
fahr ten</w>
Fon ds</w>
b lu
fer tigen</w>
ver län
re ad
ci on
Mallor ca</w>
geh ei
tot al</w>
staat liche</w>
Int elligen
F rau
5 2
ausgestat tete</w>
Ca sa</w>
inner e</w>
Mod ell
Gesell schaften</w>
Profi l</w>
ent stand</w>
b ir
T on</w>
syst e
et y</w>
wär ts</w>
sp er
auf gebaut</w>
hinzu fügen</w>
fin d</w>
fal sch</w>
beob achten</w>
Anwen der</w>
ent spannen</w>
ba sed</w>
Techni sche</w>
U K</w>
Mi schung</w>
Ra di
Reg uli
Ma ster
Haf tung</w>
la tionen</w>
is mus
führ ungs
bew egt</w>
P y
wan del</w>
Ad ri
ori a</w>
Kommiss arin</w>
TER N</w>
Zer tifi
Re formen</w>
lä tter</w>
Vor stellung</w>
un des</w>
chin esischen</w>
A ro
schu ß</w>
Lehr e</w>
ge pf
Stell ung</w>
R unde</w>
Projekt s</w>
gra tis</w>
eg al</w>
c tions</w>
S wis
B rief</w>
reich s</w>
Verbrei tung</w>
Bo sch</w>
si de</w>
Ansprech partner</w>
gr enzen</w>
g ame</w>
00 -
vide o</w>
ung s</w>
ba sier
dru ckt</w>
Comm ents</w>
lei dung</w>
Schnitt stelle</w>
es sion</w>
ver zi
berechti gt</w>
De ck
zu folge</w>
and -
Hin weise</w>
Ev ent</w>
sich eren</w>
Exp eri
Sch aden</w>
Konta kte</w>
Kom missions
Brü cke</w>
w ing</w>
verlei h</w>
Inter view</w>
An zeigen</w>
ha d</w>
Budap est</w>
gefra gt</w>
co un
vor bereitet</w>
neu n</w>
k at</w>
Sy mbol</w>
In c</w>
downlo ad</w>
do- de-
Bem erk
Zah lung</w>
Bro t</w>
ent sch
lä dt</w>
ge füh
L en
Ba sel</w>
Er holung</w>
a ti
Ta gung</w>
Ameri ca</w>
nachhal tigen</w>
krä f
Mitglied s
Führ ungs
ban ken</w>
A re
w here</w>
europ a</w>
berech net</w>
Krä fte</w>
Dimen sion</w>
zu ständig</w>
um t</w>
3 60</w>
ober en</w>
eini gt</w>
W en
vor stellen</w>
Spei cher
Con trol
regi on</w>
Bo dy</w>
eb er
ent eil</w>
conda do-de-
Binnen markt</w>
wo uld</w>
M i</w>
Ein trag</w>
A N</w>
and t</w>
v i</w>
Wasch maschine</w>
Pass agi
2 1.
ie -
auf nehmen</w>
é e</w>
Temp el</w>
Kon kurren
fal sche</w>
bo ard</w>
w ho</w>
konkre te</w>
begrü ßen</w>
ant es</w>
Wä sch
Tie f
s sten</w>
ph a
Dänemar k</w>
24-Stunden- Rezeption</w>
Vi zep
le ar
Mon tage</w>
reich ung</w>
C as
sch il
hei ßen</w>
ex zell
Netz werk
va il
du strie</w>
W art
Chan cen</w>
k ämpfen</w>
G eben</w>
K ie
K -
II .</w>
versi cher
Kat h
H at</w>
Christi an</w>
atz es</w>
Pap ier
Ha ar
O ran
ge dacht</w>
herr scht</w>
ein gestellt</w>
occa sione</w>
Th en</w>
Ex isten
lich t
Up da
opti mal</w>
erfolg reichen</w>
www. blo
SPI EL</w>
glob ale</w>
sch mer
lei chter</w>
g an</w>
v .
Durch messer</w>
w ant</w>
WES TERN</w>
Bulgar ien</w>
vor behalten</w>
War en
Res ort</w>
Poli zei</w>
angebo te</w>
In fe
ästinen si
meri ka</w>
B rise</w>
t um</w>
is ra
Jes u</w>
Ira k</w>
Defini tion</w>
Auf trag
o si
nation aler</w>
Luftfeu chtigkeit</w>
14 ,
Erwar tungen</w>
Eben so</w>
ge teilt</w>
aktivi eren</w>
rei he</w>
her stellung</w>
Kunst stoff
MP 3</w>
9 4
Vereinig te</w>
N ig
Ma ß</w>
l te</w>
gesetz ten</w>
unver gess
eigen er</w>
stie gen</w>
Bu cht</w>
wie gend</w>
arb eits
Gebur t
D au
Dem on
en erg
offen sichtlich</w>
kli mati
Feu er
Fre qu
G ehen</w>
D olo
Vertrieb s
Südti rol</w>
ber eichen</w>
Wol f
zip ien</w>
tt en
leich tern</w>
sig ni
zu zu
sch ar
P ress</w>
int elligen
Stär ke</w>
Wa ffen</w>
Ber eits</w>
B y
E g
Wi ener</w>
C E</w>
Wün sche</w>
Gesetz e</w>
Ver lust</w>
Kult uren</w>
G ir
beri chtet</w>
ergän zt</w>
I B
Pat ent</w>
E .
bür o</w>
R E</w>
S na
eb a
wissen schaften</w>
ad o</w>
fil es.
der selben</w>
an gen
Oli ven
M anu
t ch
Th a
St ro
C ir
c i</w>
O ne</w>
tt gen
T anz
Satelli ten
au ßen</w>
bar es</w>
P in
Kommuni kations
Back ofen</w>
B v
.05. 2016</w>
st Ã</w>
ass o
er leichtern</w>
ma ch
kostenlo ses</w>
Haus halt</w>
Ab sicht</w>
organis ationen</w>
Besu chen</w>
f an</w>
To des
Frem d
Kno w-
Hei l
Bür gern</w>
produ zieren</w>
Sm art
R ing
Gew ähr
mus sten</w>
Bauern hof</w>
hervorra gende</w>
Kon text</w>
C ru
sex y</w>
Artik el
z auber
An fän
pa k
to -
s heit</w>
fir st</w>
behand lung</w>
Kon ver
in kl
T el
Mei ster</w>
Gott es
Ge bet</w>
Entschließ ung</w>
Besch luss</w>
ir ge</w>
frei wil
Koh len
ta te</w>
schle cht</w>
gem ent
be für
stand s</w>
nach zu
lo gi
zi ge</w>
Hän den</w>
Arme e</w>
ange l</w>
verb rau
unter wegs</w>
l eute</w>
30 th</w>
.. ...</w>
Web seiten</w>
Konstru ktion</w>
ß ten</w>
Ab hängi
interess ant</w>
es en
G anz</w>
Am ts
o st
fe sten</w>
B arb
sk a
la ger</w>
R O</w>
län dlichen</w>
pl ötz
c um
Ar gent
Ameri can</w>
br ing
beg eist
Kri tik</w>
Er ste</w>
lo ok
er e
Immo bilien</w>
war tet</w>
W ash
T or</w>
olog y</w>
ein erseits</w>
ort s</w>
Wissenschaft ler</w>
Produk tiv
ge stattet</w>
Kat astroph
Gu te</w>
f iel</w>
Eröff nung</w>
o ugh</w>
G lei
198 8</w>
tro ck
Auf lösung</w>
ver wirk
19 45</w>
si te-
durch führen</w>
Spei sen</w>
ul pt
Bes itz</w>
kür zlich</w>
est s</w>
Verpflich tung</w>
Ambi ente</w>
Änderungs anträge</w>
ar ti
Re c
8 5
dy na
Um ständen</w>
viel mehr</w>
Leip zig</w>
Internet zugang</w>
re gu
er lebt</w>
ck ten</w>
X S</w>
betro ffenen</w>
C ur
w hen</w>
dy nami
kurz em</w>
Premi ere</w>
Fel der</w>
stre et</w>
il ef
e a
Er kran
spezi alisiert</w>
disku tiert</w>
aus geschlossen</w>
ün d
is sen</w>
Sie d
E d
stä tten</w>
ma in
w un
besteh ende</w>
et c</w>
wer ben</w>
ers etzen</w>
ar te</w>
geh enden</w>
P .</w>
offizi ellen</w>
flä chen
gestal tung</w>
vi erten</w>
Glob al</w>
it y
gegenwär tigen</w>
jün gsten</w>
Materi al
Gegen wart</w>
24 -
abili tät</w>
M A</w>
Arz nei
unterschei den</w>
2, 5</w>
atur es</w>
viel er</w>
o ti
an ne</w>
arbeit ungs
Büh ne</w>
ul ar
an en</w>
Mosk au</w>
Andre as</w>
f b
zip lin
pen ilef
b iegen</w>
er wor
Or ts
c om</w>
Institu te</w>
AG B</w>
vor genommen</w>
is men</w>
in stru
Ima ge</w>
ungspo litik</w>
T ö
T ol
grü nen</w>
Ita li
ber s</w>
ber aten</w>
v ar
itness .com</w>
Bei hilfen</w>
K ön
Gemein den</w>
ttgen stein
Vor jahr</w>
b .org</w>
Mr d.</w>
10 1</w>
ameri kanische</w>
Män nern</w>
angeneh m</w>
up s</w>
r u</w>
ver langt</w>
P RO
un möglich</w>
spe kt
pro mp
penilef itness.com</w>
or n</w>
Lie blin
c ess
source .org</w>
R ent
Res earch</w>
or der</w>
schnei den</w>
8 4
zw anzi
Z one</w>
So cial</w>
Sch luss</w>
tra gs</w>
9 5
Änderungs antrag</w>
da t</w>
re c
Ker ami
G au
Befeh l</w>
An merk
st olz</w>
sta mmen</w>
r ie</w>
lassi c</w>
R ü
ig keiten</w>
l ehen</w>
R ein
sti l</w>
St ör
Sch lei
Po wer
Pass wort</w>
in spiri
E th
digit alen</w>
E tik
ent gegen</w>
ac tion</w>
B TE</w>
sta te</w>
Untersuch ungen</w>
M ed
grö ßer
ge stimmt</w>
elektron ischen</w>
G lo
F ur
C E
Mexi ko</w>
wi ttgenstein
Ur teil</w>
Nor men</w>
steu ern</w>
wittgenstein source.org</w>
p eri
Fa x
Vertra gs</w>
Valen cia</w>
Kü sten
stat ten</w>
P lätze</w>
o ft
verb rauch</w>
in fo
er ei</w>
Genehmi gung</w>
Boo t</w>
ung laub
person enbezo
ei le</w>
www. mo
An fragen</w>
Ver fassung</w>
sin g
it a</w>
G as</w>
kre u
h am</w>
Fernseh er</w>
Ent spannung</w>
soft ware</w>
lux uri
ka tion
gra mme</w>
ehr t</w>
artik el</w>
F rom</w>
ver trag</w>
g no
Prior ität</w>
F ähr
An wesen</w>
Ab fahrt</w>
s w
ar r
Werk zeuge</w>
To ols</w>
par ks</w>
Dokum ent
wirk sam</w>
l ab
P lus</w>
Fran cis
geb ieten</w>
behör de</w>
Gef än
ad d
Sch al
zi ger</w>
K y
2 2.
hin ein</w>
Origin al</w>
betro ffen</w>
Proph eten</w>
Hän dler</w>
be ur
M E
zu gs
Aspe kt</w>
12 th</w>
woh n
bri tischen</w>
E .</w>
zeit genössi
an erkannt</w>
ra sch</w>
Gna de</w>
D A</w>
nah m
Er wer
Sch ool</w>
j ur
F or</w>
Col or
ver y
Ori entierung</w>
ed r
Hin der
H äu
Hei mat</w>
zw öl
Erinn erung</w>
inkl .</w>
ange gebenen</w>
Führ er</w>
schn ellen</w>
li ve</w>
boo k</w>
Desig n
effizi enz</w>
di -
t el
am er</w>
be heben</w>
mit glied</w>
ei len</w>
W eine</w>
ven tion
ä le</w>
unter nehm
sol ange</w>
her ausge
Überna chtung</w>
bei zu
Konz ert</w>
beschrän kt</w>
verbun denen</w>
lo ser</w>
Weihna chts
verhin dert</w>
s .htm</w>
gewähr t</w>
ar ea</w>
Geg enteil</w>
Fortsch ritt</w>
An hän
w in</w>
b eln</w>
Ro om</w>
Besitz er</w>
Unter kun
Sie g</w>
Fil ter</w>
Dy nami
gen o
der ation</w>
Han s</w>
gesch ätz
z ed</w>
an statt</w>
ele ase</w>
Mini bar</w>
Er st</w>
Auf preis</w>
gel s</w>
Angele genheit</w>
gesch äf
aufmerk sam</w>
Reser vierung</w>
Liter atur</w>
K au
Ein tritt</w>
Ein igung</w>
I F
Auto bahn</w>
char akter
fre qu
usamm ens
Arbeit sk
w l</w>
re d</w>
da teien</w>
kon zip
atur en</w>
antwor tete</w>
Gol d
k ä
gesch windigkeit</w>
ga zin</w>
Pat ri
profession ellen</w>
b enden</w>
y m
hier zu</w>
glau bt</w>
ver langen</w>
so genannten</w>
fe ed</w>
ab gel
M aus</w>
Bildschir m</w>
US B</w>
12 3</w>
reagi eren</w>
Fi re
Z wischen</w>
verring ern</w>
sitz en</w>
An dro
ex c
a demie</w>
Ital y</w>
freu e</w>
gelö scht</w>
sü d
koord ini
Grupp en
str and</w>
aktu ell</w>
ro te</w>
kna pp</w>
Er füllung</w>
komp on
g han
Gesprä ch</w>
in mitten</w>
gewün schten</w>
geprä gt</w>
Be stimmung</w>
re ali
ao ke</w>
Dam pf
z es</w>
kun st
c op
.ht ml
la dung</w>
zu ständigen</w>
Erd geschoss</w>
Ler nen</w>
Kunden service</w>
Salz burg</w>
Bla ck</w>
er zählt</w>
La ser
Koord ini
Identi tät</w>
Dre i</w>
ver teilt</w>
be .com</w>
Appartem ents</w>
Str and
E st
Sor ge</w>
em ie</w>
ei b.org</w>
Pla za</w>
Abente uer</w>
gi o</w>
taus end</w>
Neu es</w>
ö st
Schl ussel
Nachhal tigkeit</w>
Moder ni
r n</w>
analysi ert</w>
Zeit ung</w>
Z in
B lü
yout u
- 5</w>
eh ler</w>
gem ents</w>
foto gra
am keit</w>
16 ,
druck s
Plan eten</w>
tür k
kom pati
Spitz en
Mehr wert
Ho w</w>
24 0</w>
Soll ten</w>
N ür
Dan iel</w>
on i</w>
kombini ert</w>
g allery</w>
mil lion</w>
beweg ung</w>
spi rit
ein -
pl or
m au
erg reifen</w>
be ding
et ter
con stru
Or ten</w>
u en</w>
1. 0</w>
E missionen</w>
getren nt</w>
vorhand enen</w>
Kar aoke</w>
ler s</w>
Da ss</w>
hi gh</w>
f lie
ech ani
Pflan zen
ad or</w>
Grund lagen</w>
t tern</w>
ent sp
ö den</w>
Fok us</w>
la st
Geschäfts bedingungen</w>
Er neu
11 -0
w en</w>
So mit</w>
Pap st</w>
kom pa
durch zuführen</w>
F ro
zei gen
ver kün
Zun ächst</w>
Pressemitt eilung</w>
tats äch
k now</w>
m alen</w>
bran che</w>
wei ßen</w>
Ver ein</w>
Ex c
behand eln</w>
Be weis</w>
15 .
Zu verlässi
Z a
bi o
Met ern</w>
Boo k</w>
geb ühr</w>
el and</w>
Al lah</w>
li erten</w>
Prior itäten</w>
Kur se</w>
Au stri
C l
hau se</w>
dau ern</w>
del et
gr unde</w>
Wohn fläche</w>
er leb
aus gerichtet</w>
at e
Strän de</w>
Gro ße</w>
do s</w>
sta ti
s ah
wes entliche</w>
d opp
Vertei di
h om
er land</w>
Con sult
auti ful</w>
Be geg
A post
ver änder
pr ise</w>
f on</w>
L L
provi der</w>
ger -
geb e</w>
Ent decken</w>
D ritte</w>
for um
am bi
Funk tions
P C-
Ju gend</w>
sta b</w>
neu sten</w>
Luft temperatur</w>
ran g</w>
f ul
T A</w>
16 .
S D
Oper ation</w>
Ha art
ho t</w>
Ro hr
Betrieb ssystem</w>
än e</w>
li erung</w>
Ein er</w>
d n
E Z
sp anischen</w>
L t
o u</w>
files. wordpress.com</w>
C N
men ge</w>
be dro
Slo wen
ex ico</w>
C ri
antwor tet</w>
Dres den</w>
6 4-
politi scher</w>
fizi ert</w>
Deutsch lands</w>
au stausch</w>
Zul etzt</w>
vertrau t</w>
ar gum
zent rums</w>
ver geben</w>
schl uss
än gt</w>
kosten frei</w>
Soll te</w>
Philos ophie</w>
v al</w>
voll ständigen</w>
ti ment</w>
i sierung</w>
ex e</w>
Rei ch
App le</w>
on e
g bare</w>
Aut oren</w>
artic le</w>
To chter
Mei ster
W ie
se ktor</w>
ten e</w>
zz o</w>
fra u</w>
besch reibung</w>
Ex e
wahr en</w>
in a
gewis se</w>
U -
B ol
. eu</w>
k reis</w>
ber g
He ad
Ma ster</w>
D es</w>
ver an
ot enen</w>
Spazier gang</w>
KM U</w>
zeich nete</w>
st ro
jp g
for d</w>
Test s</w>
Spezi alitäten</w>
Ski gebiet</w>
Ange sichts</w>
p el
ab sichti
D C</w>
steig ern</w>
Tele kommuni
S oh
Fei er
Busin ess
geb lieben</w>
S ehen</w>
N AT
Ak ti
Ins besondere</w>
F assung</w>
A .
Mi o</w>
d .com</w>
sch wa
seh e</w>
Servi ce
fest stellen</w>
an sehen</w>
Vor stand</w>
Rat sp
m eter</w>
c ar</w>
Auto mati
i .
Wil d
Ver kaufs
Bet rag</w>
dis kon
I G
sorgfäl tig</w>
gül tig</w>
lo h
wei chen</w>
Scien ce</w>
bu il
be endet</w>
K W</w>
prak tische</w>
ge ogra
Tie fe</w>
Inner halb</w>
imm o
en kt</w>
Stad tt
PH P</w>
mini sterium</w>
ch a
Empfeh lung</w>
to s</w>
Ac tive</w>
li erte</w>
gebo ten</w>
fäl lig</w>
R ent</w>
komp li
ab e</w>
w ächst</w>
hör t</w>
Kab el
ver fahr
con tent</w>
P ho
zu grunde</w>
blio te
ch ange</w>
Gerä ten</w>
Am t</w>
typ ischen</w>
Kam in</w>
6 3
registri ert</w>
Wun der</w>
tä u
Erleb nis</w>
e sti
metho den</w>
an ger
Lan de</w>
sc re
it es</w>
gele genen</w>
gele gene</w>
Fer ner</w>
Vie w</w>
St ahl</w>
Pro t
Modu l</w>
W and</w>
rieb enen</w>
Vol kes</w>
bli cken</w>
ander erseits</w>
Verb rechen</w>
N ie
er hoben</w>
An griff</w>
lieb er</w>
b at</w>
an wal
ph one</w>
il er</w>
Einzel betten</w>
progra mm
har t</w>
ari o</w>
Ak tionsp
auf s</w>
Su per</w>
Lo b
Au di
der er</w>
Tau punkt</w>
teil s</w>
Sün de</w>
verur sachen</w>
Vi rus</w>
bla u</w>
da tion</w>
gegenwär tig</w>
Pa ar</w>
u al</w>
herr lichen</w>
te e</w>
origin al</w>
op fer</w>
Ein träge</w>
lig hts</w>
disku tieren</w>
diskon tierte</w>
bis herigen</w>
W hi
Regel ungen</w>
unter st
j enen</w>
dienst leistungen</w>
7 4
Re chts</w>
P eriode</w>
Mo bilität</w>
fizi erung</w>
auf treten</w>
Kl ar
Ch am
mo dern</w>
Bu chen</w>
Aus stellungs
aro und</w>
Merk male</w>
29 -
Be stell
lo ssen
inn eren</w>
stä tte</w>
k u</w>
e. V.</w>
dür fte</w>
Den ken</w>
Sch li
Datei endung</w>
vier tel</w>
oog le.com</w>
k unden</w>
aufge führt</w>
Unterkun fte</w>
R ig
Gi bt</w>
Geträn ke</w>
D .</w>
16 00</w>
201 1-
üh le</w>
Stoff e</w>
Benutz en</w>
ver fol
alisi erte</w>
L es</w>
Flor enz</w>
W hir
r t</w>
mittel alter
Mark et
su che</w>
af ter</w>
Ac commoda
Roy al</w>
ent halt</w>
ad -
über prüft</w>
ussi onen</w>
kon ver
offizi elle</w>
Rat ing</w>
Su iten</w>
B lan
gra phi
Flu g</w>
wirt schafts
unter kunft</w>
im g
2 20</w>
e ck</w>
Kom promi
Schluss folgerungen</w>
Fer tig
2 30</w>
mitglie der</w>
V all
B R
egor y</w>
E s
Au dio</w>
ger ing
vail able</w>
ti sches</w>
Per formance</w>
The orie</w>
Su cher
Be zeichnung</w>
z ellen</w>
hal b
Innen stadt</w>
tem s</w>
mi en</w>
li fe</w>
ar e
D et
A sy
z z</w>
Sy mb
Prä sen
P P
da tei</w>
Kl eine</w>
Sonnen untergang</w>
Benutz ung</w>
j k</w>
G R
in es</w>
eb t</w>
an gewand
J eh
sol ches</w>
mobil e</w>
digit ale</w>
Sta tionen</w>
stand ards</w>
mp ft</w>
außer ord
o p</w>
static .
schlä gen</w>
n ord
Klima wandel</w>
B ör
ausgezeich nete</w>
Off ice</w>
Ernähr ung</w>
ru he</w>
för mi
er ziel
zerstör t</w>
lux us</w>
Tre ffer</w>
Mär kten</w>
Di r</w>
at ing</w>
ann er</w>
I A</w>
m ed</w>
c us</w>
wech seln</w>
EU RO
u k</w>
er end</w>
ell os</w>
Ver lauf</w>
Sa int</w>
k y
m ern</w>
B ern</w>
Mu ster</w>
steu ert</w>
M aler
Fr ist</w>
no w
kon sequ
H und</w>
finanzi ert</w>
Leit linien</w>
stär kt</w>
f las
ampi ons
L aut</w>
Z erstör
mod ell</w>
B ak
feh len</w>
Wander n</w>
Öff nungs
gewöhn lich</w>
Liefer anten</w>
G ut
An liegen</w>
t ren
e uren</w>
Sch atten</w>
kun den
genau e</w>
derzei tigen</w>
T o</w>
Kar ls
B A
gi go
Bab y
on n
Slowak ei</w>
Risi ko
Über nahme</w>
gl .</w>
eri eren</w>
Bo s
vi li
musi k</w>
ger in
a che</w>
eh lt</w>
di erung</w>
artic le
schlu ß</w>
dest o</w>
Tür en</w>
f i</w>
den kt</w>
-F ehler</w>
in to</w>
b ank
th an</w>
er staun
G .</w>
Be vor</w>
Leu ten</w>
.amarillaslat inas.net</w>
pre chen</w>
gel in
es ervice</w>
verwen deten</w>
198 7</w>
tie fen</w>
erken nt</w>
b r</w>
Spiel s</w>
lin gen</w>
e ktor</w>
Sa int-
Hei mat
z ungen</w>
wat ch</w>
rü cken</w>
grundsätz lich</w>
zu stand</w>
effizi ente</w>
bel eu
art a</w>
Menschen rechts
www.blo gigo
Qu ell
ge d</w>
w an</w>
son stige</w>
prä sent
Ver halt
zw ungen</w>
O pp
Kre ativ
C R
be ds</w>
bew ähr
Gewin n
Dat a</w>
g lo
fei ern</w>
Sh u
ül maschine</w>
gra tu
A ward</w>
So ci
O s
Tages ordnung</w>
künf tig</w>
Ma y
Innen hof</w>
dr eh
cht ens</w>
bi l</w>
Haart rockner</w>
erweiter n</w>
alisi erten</w>
Bel eu
lau tet</w>
en ger</w>
bedeut end
Li ve-
B ahn</w>
mar ki
Parla ment
Kam pagne</w>
th um
Nieder schläge</w>
Entwick ler</w>
Ri chter</w>
Min ute</w>
wahr e</w>
Innova tionen</w>
mittler weile</w>
17 .
u gi
st in</w>
lin g
ley ad
Hü gel</w>
fi kation</w>
existi ert</w>
ab ove</w>
C entral</w>
Rei hen
Gepäck aufbewahrung</w>
cap leyad
bliote capleyad
Konfigur ation</w>
publi c</w>
m e-
fami lien
bliotecapleyad es.net</w>
lin es</w>
kri eg
M M
www.bi bliotecapleyades.net</w>
kat egor
Work shops</w>
H under
zess es</w>
aussch uss</w>
Ur l</w>
Flü ssi
Beit ritt</w>
effizi ent</w>
delet ed
betre ffen</w>
verkehr s
e chten</w>
EG -
197 3</w>
E u
Air port</w>
schla g
www. eib.org</w>
v -
Verbesser ungen</w>
V aters</w>
G O</w>
on ie</w>
it er</w>
geschni tten</w>
dr eht</w>
p ut</w>
französi sche</w>
ch mals</w>
ausgew o
Ak tivi
ver -
schwer en</w>
da ma
An na</w>
at o</w>
Geb urt</w>
Digit al</w>
b i</w>
Bl umen</w>
Über tragung</w>
pro per
g r</w>
Kar riere</w>
wün sche</w>
th -
K reis
Ha are</w>
ni veau</w>
spru chs
Whir l
Fin anzen</w>
198 6</w>
rupp en</w>
Comp u
198 5</w>
ü stet</w>
ein heiten</w>
Versicher ungs
lö schen</w>
is on
registri eren</w>
Hä fen</w>
t ent
sch of</w>
innova tiven</w>
p ng</w>
Sch mu
Le vel</w>
emp fin
d ner</w>
Bi bel</w>
veranstal tungen</w>
her z
Perspe ktive</w>
Ab messungen</w>
ver mitteln</w>
M ahl
Fir st</w>
ord nungs
ho ff
P läne</w>
Unabhängi gkeit</w>
K ron
Asso ci
kur se</w>
G läu
Semin ar</w>
da l</w>
V an
Met ro
Kons um
Francis co</w>
Ab lauf</w>
blo ck
a di
om mi
ort h</w>
App artment</w>
C ra
youtu be.com</w>
ri gi
Premi um</w>
at ra
Tau ch
res our
Frei en</w>
erst es</w>
therap ie</w>
Ru f</w>
Höch st
Beri chts</w>
par all
V ö
k ab
Sc ript</w>
Freu en</w>
in .com</w>
wander ung</w>
star b</w>
progra mme</w>
hr t</w>
Sch rau
Nor da
Beschäf tigungs
dc .org</w>
Re al</w>
Aus land
0 ,00</w>
ks hop</w>
Ne u</w>
Wirtschafts -</w>
Technolo gy</w>
Co ck
Bürger innen</w>
paz itäten</w>
sch ür
zu tage</w>
sp lan
lu ft
El eg
Besu chern</w>
E ast</w>
Frei zeit</w>
struktur iert</w>
wer ks</w>
mi eten</w>
auf re
Effe kt</w>
Back ground</w>
st rau
kult ur</w>
F ans</w>
Be ste</w>
re fer
e -</w>
b ol
as -
E H
A ven
Ant rieb
Geschi chten</w>
z enten</w>
heu tige</w>
Di ch</w>
on lin
Währ ung</w>
- 30</w>
st op
re -
Fel d
F isch</w>
verb oten</w>
f isch</w>
Git ar
stat us</w>
engli sch</w>
promp te</w>
Te e</w>
for mu
Bor d</w>
an nen</w>
M S
Köni gs</w>
s ende</w>
Di ffer
in ing</w>
17 0</w>
sau ber</w>
k .com</w>
gekenn zeichnet</w>
Z ent
hei mischen</w>
ci p
kun st</w>
entscheiden d</w>
Wash ington</w>
Musi ker</w>
L U
wi es</w>
Wa gen</w>
n eter</w>
Kor re
detailli erte</w>
hin gegen</w>
Ti er</w>
frü h</w>
Ven e
Fern sehen</w>
Exp ress</w>
15 ,
Gro ßen</w>
gesetz l</w>
Tick ets</w>
über greif
wid th</w>
trin ken</w>
begrenz t</w>
Gel ände</w>
zieh ung</w>
kontrol liert</w>
Be wohner</w>
ess el
W ord
A P</w>
vi ron
qu elle</w>
Po wer</w>
wes enheit</w>
plan en</w>
Agen da</w>
ter ran
aus gesetzt</w>
I mmer</w>
nicht -
di en</w>
c ss</w>
Kon sequ
wei ch
z ed
sti scher</w>
or gt</w>
Kaffee maschine</w>
Geb ühr</w>
E cke</w>
C hal
te st
fähi gen</w>
ag a
Schri ft</w>
Ja va
Antoni o</w>
N an
x is
Wolf gang</w>
K äufer</w>
mer kt</w>
201 0-
un de
män n
Ger ade</w>
E mi
T raum</w>
S et</w>
Pak ete</w>
Auth or</w>
jahr es
elem ente</w>
Kons ul
D on</w>
c ri
Moder ne</w>
E-Mail- Adresse</w>
m ol
Kon tra
G an
Kom pl
ein geladen</w>
ex tra</w>
ssyst ems</w>
o d</w>
Ver rin
schön er</w>
m nt</w>
ak ten</w>
sen si
probl em
kan er</w>
griech ischen</w>
vor ge
us ed</w>
O ffizi
bis lang</w>
bezieh ung</w>
19 .
s et
klein ere</w>
gel ungen</w>
ge fordert</w>
b on
Schi cks
For derung</w>
gen s
fähi ge</w>
Par ti
ti ere</w>
US D</w>
x i</w>
Nutz ungs
gesp rä
Z ellen</w>
Buch stab
gel er
auf bau</w>
J ag
inter nen</w>
bewer ten</w>
Mobil e</w>
x e</w>
ge führte</w>
be zahlt</w>
Posi tionen</w>
HT ML</w>
p ga-
R elev
hochwer tigen</w>
Z oll</w>
ss ern</w>
Sch le
gra ben</w>
Versor gung</w>
V el
Pa ges</w>
Ess zimmer</w>
Disk ussionen</w>
Beweg ungen</w>
br eit</w>
blo g
automati sche</w>
Dar lehen</w>
groß em</w>
Z .com</w>
Sol daten</w>
ur teilung</w>
ungs verfahren</w>
ant s</w>
Nor wegen</w>
Gesprä che</w>
Alumini um</w>
ent es</w>
B ER
Accommoda tion
p ko
freund lichen</w>
ar m</w>
angem el
Accommodation Z.com</w>
erk unden</w>
Sp uren</w>
. it</w>
stan des</w>
Direkt link</w>
kon z
geschloss enen</w>
su per</w>
fu hren</w>
Zei le</w>
T .</w>
Corpor ate</w>
gew achsen</w>
Verfu gbare</w>
ver steht</w>
W üste</w>
sen dung</w>
power .de</w>
kün digt</w>
Liz enz
st unden</w>
Prä sidentschaft</w>
M angel</w>
tau chen</w>
ssi cher
rau ms</w>
bezieh ungen</w>
Ta i
A s
geh e</w>
da hin</w>
W hat</w>
Ma c
profession elle</w>
exter nen</w>
Po d</w>
f abri
5 27</w>
ri c</w>
ges etz</w>
edi tion</w>
wichti ges</w>
D F
kü ste</w>
ak fa
V in
La den</w>
Kapit al</w>
An stieg</w>
ver arbeitung</w>
t ure</w>
konzentri ert</w>
ein gehen</w>
Ur heber
for mular</w>
an lass</w>
ur se</w>
bereit gestellt</w>
L eben
genü gend</w>
Universi täten</w>
Niederlan den</w>
Gemeins amen</w>
Alex ander</w>
missi on
f lei
di eren</w>
co uch</w>
Terror ismus</w>
K e
ret ten</w>
produ kten</w>
lei tet</w>
Gr unde</w>
k an</w>
geler nt</w>
Wan del</w>
Imp ul
recht liche</w>
Check- in</w>
klär ung</w>
ehema lige</w>
beri chten</w>
T eu
cht um</w>
am i</w>
heraus ra
her d</w>
ander n</w>
vor sitz
der ten</w>
über na
Unter haltung</w>
T witter</w>
Erei gnis</w>
aktiv itäten</w>
Gemü se</w>
An dal
Modu s</w>
An d</w>
18 .
U fer</w>
re alisiert</w>
beein trä
vor aus</w>
p ress</w>
deut scher</w>
Ter mine</w>
umfan greiche</w>
rei cher</w>
De velopment</w>
stech nolo
vor geseh
bau ten</w>
Situ ationen</w>
Dire ktor</w>
äl ter</w>
hy th
cra wl</w>
zwöl f</w>
off er</w>
Weiter entwicklung</w>
www.mo gel
Grö ßen</w>
Bi g</w>
19 0</w>
www.mogel power.de</w>
strate gischen</w>
gel tenden</w>
s ach
DL L
ba ck
P hän
Ab stand</w>
hei ght</w>
M exico</w>
K le
ren ommi
kön ne</w>
wachst um</w>
amm er
z iel</w>
R and</w>
Ne w
unterschie d
kop ier
h ab</w>
ss d</w>
ktiv ität</w>
aufge fordert</w>
tä gliche</w>
Nür n
Jugend liche</w>
Bil der
unabhängi ge</w>
um fang</w>
S witz
Con tent</w>
wil li
So w
demokra tische</w>
beeinflus sen</w>
us a.com</w>
site- crawl</w>
pko ehn</w>
eigen em</w>
sch wi
analy se</w>
U L
geri cht</w>
Vertei digung</w>
T y
look ing</w>
ier ungen</w>
D eine</w>
po the
um ge
kir che</w>
Bewusst sein</w>
differ ent</w>
Mon ta
k oll
a tischen</w>
gol f-
Ein schrän
sti c</w>
st all
aus stellung</w>
S W
Rot ter
Geor ge</w>
Bu dd
konkre ten</w>
gui de</w>
mag ne
man i
7 3
te ur</w>
mä chti
An weisungen</w>
lo cation</w>
Y -
ver wei
c ing</w>
Vol umen</w>
t an
DI N</w>
fil m
ber ger</w>
J ac
loc ated</w>
k rei
fri edi
defau l
bew äl
Verrin gerung</w>
Lab or
ma li
0 200</w>
ter ung</w>
spo liti
fe ste</w>
Stra ß
man gel
W .</w>
geb nis</w>
bli eben</w>
H um
An sichten</w>
kostenfrei es</w>
gesetz lichen</w>
Klei dung</w>
C A</w>
Be festi
Ac cess</w>
verbin dung</w>
E V
ökono mischen</w>
T ot
yp en</w>
is er</w>
lo s-
be dürf
ch tern</w>
Modu le</w>
eri es</w>
12-0 5</w>
www.vi dc.org</w>
wa cht</w>
Men ü
kl aren</w>
richtlin ie</w>
li ste
War tung</w>
Existen z</w>
A v
sal on</w>
Fa ktor</w>
.... ...</w>
besch reibt</w>
Je doch</w>
Engine ering</w>
k lus</w>
Klo ster</w>
Switz erland</w>
Liz enz</w>
8 3
www.blogigo .de</w>
ul a</w>
qu ote</w>
Geb i
Era chtens</w>
um zu
Sp eich
p otenzi
it h
EN T
W illi
Hard ware</w>
den t</w>
t reiben</w>
ali st</w>
L IN
4 20</w>
spart ner</w>
Termin al</w>
Ku pf
fl uss
bett zimmer</w>
auss er
bo dy</w>
ber ichte</w>
Verb rauch</w>
Sympt ome</w>
ne ed</w>
hau pt
Pf lege
Letz ter</w>
au en</w>
W all
Pal ette</w>
In tensi
198 4</w>
U .
Sy rien</w>
S T</w>
Ch il
Beteili gten</w>
Jose ph</w>
pers onen</w>
zimmer wohnung</w>
ru ft</w>
ad min</w>
a tions</w>
y e</w>
vorher sage</w>
Lux us
P A</w>
Bo hr
z ten</w>
ori es</w>
mäß ige</w>
Journa l</w>
ult ur
ra tes</w>
a vailable</w>
Wass erk
Prak tik
mög lichkeit</w>
mer ken</w>
Auf nahmen</w>
R T
c ted</w>
Fi scher</w>
po s</w>
k eln</w>
Zuverlässi gkeit</w>
ch an
L aut
Ver träge</w>
Si cht
Deleg ation</w>
Betre uung</w>
Ver mö
Bat ter
stra sse</w>
glück lich</w>
b an</w>
Lat ein
Di am
ha i</w>
Um satz
G ül
mei ster
li ber
eb er</w>
besu ch</w>
At om
fra gte</w>
ar .com</w>
P ed
Mo de</w>
M y</w>
li t</w>
hin aus
auth or</w>
H it
Hil f
sch alter</w>
bro w
T rä
Person en
An rei
R ie
Le a
ge führten</w>
Pfa d</w>
ver arbeitet</w>
t ende</w>
berühm te</w>
O TE</w>
Gra n</w>
F est</w>
besonder er</w>
Pa d</w>
M ieten</w>
K reis</w>
K ey
G all
DLL -Fehler</w>
der ten
Ja ck
HEr r</w>
verring ert</w>
kö mm
hand els
Res pe
Fischer ei</w>
ge te
tü cher</w>
Komm un
h ül
be deuten</w>
amaril lass
Stati sti
9 3
Jo bs</w>
hoh em</w>
um fassen</w>
seit ens</w>
niedri gen</w>
gemein schaft
spiel te</w>
enk ung</w>
Wider stand</w>
Ma sse</w>
B it
ha gen</w>
ci uda
be absichti
ar -
verbrei tet</w>
ra ts
ali stischen</w>
t on
cht liche</w>
Zimmer service</w>
her steller</w>
ausgew ählten</w>
au x</w>
Pf lege</w>
t i</w>
leit ungen</w>
Fa st</w>
qu es</w>
bis schen</w>
A s</w>
integri erten</w>
bil dungen</w>
Geb rau
th il
fa ßt</w>
F anta
stär ke</w>
qualita tiv</w>
Rom an
Stra h
Ge fan
hier bei</w>
as .com</w>
Pi a
über zeugen</w>
nig hts</w>
hot el
fal se</w>
UN D</w>
Konz erte</w>
Archite kten</w>
ra r</w>
ener gie</w>
L ar
An lass</w>
ech net</w>
Hand eln</w>
Dienst leistungs
wa gen
Wäsch eservice</w>
an y
P ier
Politi ker</w>
Kompet enz</w>
re ten</w>
Ur sache</w>
So und</w>
Kath edr
ver li
C ard</w>
Fran z</w>
grenz überschrei
Il lu
Bett wäsche</w>
sta mm
re publik</w>
Da für</w>
stau ri
ph oto
läu fe</w>
plötz lich</w>
notwendi ge</w>
läu fi
komfort able</w>
Relev anz</w>
wei b
Überein kommen</w>
wach senden</w>
man che</w>
in begriffen</w>
erschi enen</w>
Unter lagen</w>
Therap ie</w>
spe ci
stre ben</w>
be arbeiten</w>
gesellschaft lichen</w>
Empf ang</w>
ko st
er werben</w>
ard o</w>
Eisen bahn
Mar ok
17 ,
www. penilefitness.com</w>
gro ss
b ab
O f</w>
Be am
Aus gang</w>
Ta ste</w>
Einzel heiten</w>
u tion</w>
ma de</w>
der e</w>
hol z</w>
Ri o</w>
unter en</w>
beru ht</w>
Besch rän
pro te
medizin ischen</w>
R einig
Arbeit nehm
er mu
no chmals</w>
d om</w>
a a
L ein
ri si
ir es</w>
ar n
Finanzi erungs
trans lation
Rich ard</w>
DI E</w>
dat ing
Mikrow elle</w>
Er z
do or</w>
bewer tet</w>
un zäh
Arbeitsp latz</w>
angen ehmen</w>
G I
Ehr e</w>
W W
syst em
Ein heiten</w>
Lei den
sch ungen</w>
langfristi ge</w>
tech nisch</w>
s and
weit gehend</w>
a i
Wer ken</w>
Justi z</w>
Jugend lichen</w>
eleg anten</w>
Kor rup
at ten
E dit
4. 00</w>
.0 00
wettbewer bs
stor ben</w>
gelei stet</w>
O L
Land wir
c tive</w>
S qu
Autor ität</w>
zei gten</w>
pr et
oh nt</w>
for tabel</w>
fe stiv
hier für</w>
fri endly</w>
d b
An geb
ver größ
m es
gewis sen</w>
k Ã</w>
Ver teilung</w>
www.ypages usa.com</w>
wunder schöne</w>
mit ted</w>
E con
n nen</w>
la sse</w>
er leichter
Lu dwi
mittl eren</w>
Regi stry</w>
Grund sätze</w>
D ut
Al pen</w>
ge stern</w>
Überein stimmung</w>
erstre ckt</w>
er langen</w>
ember au
R ats
wen ig
leg er</w>
index .html
gescha fft</w>
Aus blick</w>
cht lichen</w>
at emberau
wikip edi
e den</w>
Temperatur en</w>
In fo
CO 2-
v illa</w>
h ing</w>
H öl
Andal u
b ungs
an erk
S and</w>
Haf en
Aus führungen</w>
ri s</w>
isra el
Wetter vorhersage</w>
Ko so
Logi stik</w>
Asso zi
Ken ntnisse</w>
Da ch</w>
la tions
Stra sse</w>
Ein es</w>
the ore
künf tigen</w>
Wachst ums
Kan al</w>
mus st</w>
be festi
Die go</w>
ier e</w>
ungspro je
lo w</w>
kü mmern</w>
si erungs
mi ten</w>
ken nen
To sk
Fahr zeug
Zweit ens</w>
IT E</w>
th e-
Um geb
Caf é</w>
Camp ing</w>
yst eme</w>
B om
gun sten</w>
Tren ds</w>
proje kte</w>
Well ness</w>
Mw st</w>
Au dio
5 26</w>
www. youtube.com</w>
th em</w>
k r
e ad</w>
All tag</w>
T ats
19 ,
ge habt</w>
be autiful</w>
Verpack ung</w>
einger eicht</w>
Prin zipien</w>
geb i
Rotter dam</w>
Glob alisierung</w>
N orth</w>
Energ y</w>
n el</w>
haus en</w>
fal schen</w>
auf zunehmen</w>
auf er
Rom a</w>
j en</w>
e g</w>
s c</w>
her auszu
da go
A i
sprach ige</w>
Aus richtung</w>
n .</w>
Po int</w>
lo ok</w>
grün den</w>
Optimi erung</w>
15 -
funk tionen</w>
begeist ert</w>
Sp re
Lo unge</w>
H -
spre chen
Feh l
ge startet</w>
Erzeug nisse</w>
h ung</w>
grundle genden</w>
relev anten</w>
www.g oogle.com</w>
verk nü
hr o
Mittelme er
A US
Mi li
fiel d</w>
Koordini erung</w>
Binnen markt
wikipedi a.org</w>
vereinbar t</w>
Bet reiber</w>
T anz</w>
w on
op e</w>
Staat es</w>
L un
IN G</w>
Af ghan
be dien
Z yp
Stu fe</w>
Medi zin
Kli ck</w>
Fer tigung</w>
www. c
Kreu z</w>
Besch werde</w>
tz en</w>
kurz fristi
G U
Vert rau
ok ol
mi ert</w>
hä usern</w>
P otenzial</w>
Ru e</w>
H eu
ver mögen</w>
ta gen</w>
ehr te</w>
en burg</w>
den z</w>
wor k
erstklassi ger</w>
dr ehen</w>
W ett
S han
QU OTE</w>
P um
Mo bili
K ass
unabhängi gen</w>
st el
langfristi g</w>
V EB
Stei gerung</w>
Invest oren</w>
überna chten</w>
d l
de mon
Ver sammlung</w>
2015- 12-05</w>
West ern</w>
kri p
ver sehen</w>
ei lungen</w>
Ma in
Herr schaft</w>
op o
oo d
Ver gnü
fen ster</w>
Sp r
se ch
ergän zen</w>
ben ach
R is
J ames</w>
Bo ur
h an</w>
fra gt</w>
Know- how</w>
politi sch</w>
geeig nete</w>
Nor d</w>
Konfli kt</w>
Gem äl
Bau m</w>
oni sten</w>
Gesch rieben</w>
Aus einander
geb ro
dan k
schwer e</w>
re ally</w>
immobilsarda .com.
immobilsarda.com. 2015-12-05</w>
f liegen</w>
Unternehm er</w>
stan zen</w>
ein st</w>
kol le
genehmi gt</w>
Op en
ra s</w>
Hei lige</w>
wirtschaft lich</w>
pf el
m äh
gö tt
gescha h</w>
up -
stu hl</w>
in for
bin den</w>
K ant
14 -
sätz en</w>
u l</w>
grundle gende</w>
F it
zu gunsten</w>
Sucher gebnisse</w>
Max im
F erien</w>
höch st
10 2</w>
0. 87</w>
j o</w>
du ck
O ze
L oo
tic s</w>
Te am
Por tal</w>
Augen blick</w>
tol le</w>
ro ten</w>
ste cken</w>
Kar l</w>
Bon n</w>
An leitung</w>
ungs an
flie ßt</w>
con ne
t end</w>
c rip
Ph oto
Er forder
Enter prise</w>
A th
stre bt</w>
an nehmen</w>
Gener ationen</w>
z ing</w>
So und
Slowen ien</w>
ktiv er</w>
is -
ähn liches</w>
schlü sse</w>
p a</w>
ho fs</w>
D ritten</w>
sk y</w>
sa ison</w>
hel p</w>
M ä
Gewin n</w>
t zutage</w>
viel sei
fi kationen</w>
Er stens</w>
Pro mo
ro oms</w>
Sk ulpt
J on
ut en
inst all</w>
ann a</w>
äl teren</w>
wes ent
Technolo gie
In don
an schluss</w>
fa ci
Ro ad</w>
Öffnungs zeiten</w>
Z usammen</w>
konzep t</w>
k tiert</w>
k e-
ent o</w>
unter zeichnet</w>
park platz</w>
p lätzen</w>
leh nen</w>
VEB EG</w>
Gui de</w>
di men
Tha iland</w>
I V</w>
schaf ter</w>
Köni ge</w>
Grund stÃ</w>
Fran k</w>
f ing</w>
al d</w>
Pal äst
Maß nahme</w>
ung alo
bring ung</w>
län dischen</w>
besch leun
Les ung</w>
pal ästinensi
kti ken</w>
Host el</w>
Grund stück</w>
201 3-
13. 11.2016</w>
h ell
Arbeits losigkeit</w>
mit zu
gen e
rä gen</w>
pic tur
Jahrzeh nten</w>
Aus bildungs
tsch ech
geb au
g ni
b aus</w>
Z ell
regi erung</w>
i Pod</w>
19 80</w>
Ste ph
li mit</w>
aus stattung</w>
rat ing</w>
enen falls</w>
kein es
Them en
spe ed</w>
industri ellen</w>
g la
besch ä
S C
T V-
gesch lagen</w>
Schwar z</w>
wil len</w>
a o</w>
Ex tre
B -0
er ör
des ign
Gäste bewertungen</w>
sa gten</w>
Be denken</w>
haus es</w>
12 8</w>
10 4</w>
en gen</w>
cor d</w>
Dis krimini
am m</w>
200 9-
gesamm elt</w>
Präsen z</w>
haf tet</w>
F .</w>
BI P</w>
i en
ta gs
hör te</w>
farb e</w>
sch rau
ru f
-F unk
gerä ten</w>
ab en</w>
H D
zent ral</w>
er z
Ste fan</w>
Brow ser
hin gewiesen</w>
er baut</w>
G allery</w>
x .com</w>
is a</w>
di cht</w>
ar di
Wor kshop</w>
Stell en
200 7-
beeinflus st</w>
Wil hel
Wahr nehm
Ti eren</w>
N r</w>
3 1.
k .net</w>
Lie b
G ang</w>
schön es</w>
Commun ity</w>
Frie dens
akfa sts</w>
ma -
Ziel en</w>
teil te</w>
da ys</w>
Lei den</w>
tig keits
L amp
Hei m
EL L
Bon us</w>
d- de-
0 er</w>
ber eich
G ame</w>
Co unt</w>
sto ck</w>
ge zwungen</w>
ge fertigt</w>
Ver lu
reno viert</w>
Publi kationen</w>
Men gen</w>
ange wendet</w>
Haus halt
t wo</w>
ima ge
fa mili
fa ceboo
Ö ko
re al</w>
bek räf
Ver fol
Distri bu
3 D-
t or
ro bo
Wir ks
V ul
Fl ori
stä tigkeit</w>
3D open-
ta ct</w>
nütz lich</w>
eingeschrän kt</w>
H unde</w>
art s</w>
D omini
verur teilt</w>
bus in
angeneh me</w>
ameri ka</w>
Sün den</w>
No t</w>
Erklär ungen</w>
par ti
geb or
Wer den</w>
Trin k
Früh jahr</w>
Durch schnitt</w>
unter suchen</w>
li a.com</w>
Ju da</w>
E M</w>
í a</w>
zukünf tige</w>
stra tion</w>
Part y</w>
Mitt a
C le
sicher stellen</w>
k y</w>
G E</w>
z wi
lin gs
li ter
Bes ichti
Ma ps</w>
schwieri gen</w>
jeg liche</w>
Höh ep
a sp
nutz ung</w>
fa che</w>
es a</w>
è re</w>
Angel es</w>
p otenti
ett a</w>
es isch</w>
S zen
Kri min
G anz
201 2-
c entre</w>
Hinter grund
pass ende</w>
land schaft</w>
de mi
c ana
E cht
Dis play</w>
visi t</w>
Kin o</w>
k lu
Whirl pool</w>
C lau
Bran chen</w>
Baum wolle</w>
maß geb
ens eits</w>
CH T</w>
strate gische</w>
29 9</w>
spekt akul
sin kt</w>
amm ern</w>
lo t</w>
Zu taten</w>
voll es</w>
V eg
te am</w>
198 2</w>
wö ch
Ro sen
Man chmal</w>
M und</w>
forma te</w>
ciuda d-de-
k us</w>
US t</w>
her kömm
betreff end</w>
20 .
rech nen</w>
ciudad-de- la-hab
Sil ber</w>
schwar ze</w>
hin weisen</w>
elekt rische</w>
Geheim nis</w>
qui p
proje kt</w>
Nä ch
15 0
kon sul
i tems</w>
en es</w>
Lin k
kom fortabel</w>
Kir chen
197 9</w>
aufge teilt</w>
Standard -
Spe ktrum</w>
Schwar z
Obje kt
In dex</w>
st rom</w>
b len</w>
Ver kauf
sinn voll</w>
gi ge</w>
G ärten</w>
lan ger</w>
k as
hin weg</w>
archite kt
Qu i
bo ard
angem essen</w>
stan de</w>
hervorra gend</w>
ersch ien</w>
Schn ell
Pf licht</w>
Fe der
18 -
st om
ger te</w>
Ak ademie</w>
Kathedr ale</w>
Geschen k</w>
Koch nische</w>
tie fe</w>
st on</w>
W u
Hoh e</w>
Grund satz</w>
A ar
u ble</w>
ter n
ma y</w>
lie ferung</w>
in ischen</w>
Tats ächlich</w>
Mo z
f res
ca se</w>
nehm lichkeiten</w>
schätz ung</w>
US B-
T reib
st ar</w>
bestimm ter</w>
Kilom etern</w>
gan g
be dienen</w>
gew innt</w>
at -
V enti
Publi c</w>
P lug
A R</w>
v .</w>
flexi bel</w>
feh ler</w>
an gebracht</w>
Swis s</w>
mi eren</w>
lich keits
italien ische</w>
entscheiden de</w>
ma ck
ir on
üb lichen</w>
h ie
flü ssi
ed -
Gei stes</w>
Clou d</w>
er o</w>
Nach mittag</w>
1 .000</w>
an forderungen</w>
z ität</w>
sch on
fer tigung</w>
bew u
Sch loss
S ant</w>
Pla y</w>
frei er</w>
bau m</w>
ba sis</w>
Sh opp
Sor gen</w>
Da y</w>
um zusetzen</w>
integri erte</w>
ell e
Son gs</w>
exp eri
Bel ie
z el</w>
t um
mutz ung</w>
Se x</w>
zukünf tigen</w>
et a</w>
ein verstanden</w>
defin i
a c</w>
Semin are</w>
Ä hn
S ank
N ation</w>
pp t</w>
person al</w>
Les er</w>
B lei
U p</w>
Eig entlich</w>
-Sterne- Hotel</w>
Joh ann</w>
et hi
eh l</w>
beteili gten</w>
y ing</w>
beschäf tigen</w>
1 12
är m
wel ch</w>
all eine</w>
Fax -</w>
te c</w>
fr isch</w>
stütz t</w>
p ie
K .</w>
konzip iert</w>
k rie
gemüt lichen</w>
Re da
D in
ma gazine</w>
Tr end</w>
Si cherung</w>
Her kunft</w>
www. amarillass
se sta
geh and
L ett
h is</w>
ent deck
be antworten</w>
S äu
erken n
über ein
pp i
Ten nis
Adr essen</w>
m .
H eb
G il
13 5</w>
studi erte</w>
National park</w>
ol en</w>
ct ron
Ak tien</w>
A h
cuba .gui
w all
effe ktiv</w>
Wei sheit</w>
Tour ismus
Mitglied schaft</w>
formi eren</w>
Mitta gessen</w>
vern ünf
per formance</w>
Bedien ung</w>
An re
so genannte</w>
Artik eln</w>
Verwen den</w>
be völk
Techni ken</w>
R A</w>
Man i
S us
Institu tion</w>
Beru f
2 10</w>
www.amarilla sesta
mo bili
besonder es</w>
Veröffent lich
Gleich gewicht</w>
Geh ir
boo l</w>
hal tungs
ver kauf
ges andt</w>
Zyp ern</w>
leg ten</w>
Verhalt ens
Fun da
war e-
schni tte</w>
k einem</w>
di gte</w>
woh nern</w>
tt o
hand lungen</w>
Verletz ung</w>
Medikam ente</w>
D F</w>
An lagen
w ood</w>
po int</w>
gel d</w>
O bst</w>
ogra phie</w>
k le
ck et</w>
Zimmer- Appartment</w>
28 0</w>
verfahr ens</w>
od elle</w>
letz ter</w>
W ar</w>
Go vern
iden tifizi
fi c</w>
Pl en
soll t</w>
tem por
si ze</w>
at h</w>
Ma iland</w>
Edelst ahl</w>
ger ingen</w>
di scher</w>
ungspro gramm</w>
e o</w>
Ma il
ruhi ge</w>
Austri a</w>
th em
kon stan
N ur
kontrol lieren</w>
geb unden</w>
Geg ner</w>
Frü chte</w>
ein gang</w>
Wech sel</w>
Mehrwert steuer</w>
www. i
u b
progra mmi
Moderni sierung</w>
kontinuier lich</w>
erheb liche</w>
Tra ditionen</w>
wes halb</w>
ur es</w>
d isch</w>
Pla ya</w>
Mini sterium</w>
Con trol</w>
r d</w>
Eta gen</w>
per man
liste .de</w>
Produktiv ität</w>
Mil ch
Ide al</w>
Fö deration</w>
to wn</w>
ot h</w>
Welt krieg</w>
Vorsitz ender</w>
j eman
immo bili
mä ssig</w>
U K
Comp any</w>
hä fen</w>
grü n</w>
g lichkeit</w>
Gro ss
Christ op
eig nen</w>
ch est
häu fig
K ern</w>
Gemein schaften</w>
10 3</w>
stil l</w>
ah me</w>
Quad rat
wiederhol t</w>
s q
si eb
comm ents</w>
Tosk ana</w>
Im plem
herr sch
Kap itali
B ach
übri gens</w>
wick lung</w>
unmittel barer</w>
strau ß</w>
Fahr rad</w>
Aktiv ität</w>
ra ts</w>
sho p</w>
gr enze</w>
geb ühren</w>
Mass age</w>
Ter min</w>
Sing ap
Foto kopier
x el</w>
pri vat
klär t</w>
gegeb enenfalls</w>
Kat al
web site</w>
Wahr schein
Bre men</w>
Blo ck
mar t</w>
Urspr ung</w>
Ba y</w>
. ypages
r un
DV D-
wirt schaf
investi eren</w>
di chte</w>
band liste.de</w>
rit tel</w>
lieb t</w>
Mittelme er</w>
F all
E W</w>
10 6</w>
e ti
Hei z
kur zer</w>
verk auf</w>
Gebäu den</w>
man -
Comp are</w>
A F
ver eint</w>
fil e
Vari ante</w>
unter liegen</w>
ern st</w>
boo te-
Entschei dungs
la ge
S now
auslän dischen</w>
ven tionen</w>
reich hal
hän dler</w>
W h
H art
füh lt</w>
To uren</w>
Fil e</w>
sp on
er fasst</w>
S wimm
Ä l
signi fi
sah en</w>
ni g</w>
Akti en
st af
geschä ft
ch ampions
A ff
mana ger</w>
co .com</w>
bil ä
T S</w>
Prüf ungs
Geschirrsp ülmaschine</w>
vor ne</w>
ke y</w>
e as
L ap
0 100</w>
ent al</w>
Re cher
Ak tion
Erfin dung</w>
Sti ch
198 3</w>
en .de</w>
Prä zi
IM G</w>
schre ck
Jo b</w>
tei lungen</w>
sto ß</w>
ra ft</w>
nun mehr</w>
a al</w>
vert rauen</w>
g lat
ssicher heit</w>
w ähr
steh e</w>
gem essen</w>
ge stellte</w>
T ak
Projekt es</w>
E c
öffent lich</w>
än derungen</w>
dis play
Tit an</w>
br auch</w>
Über gang</w>
be arbeitet</w>
ries igen</w>
rans fer</w>
Redu zierung</w>
Pau lus</w>
B ad
25 -
zwanzi g</w>
eur er</w>
er zählen</w>
e mi
Geschäfts jahr</w>
p s
h ard
ent an</w>
Nahr ung</w>
HO ME</w>
materi alien</w>
che mische</w>
c ard</w>
Bedürf nissen</w>
19 44</w>
Such maschinen
P ä
mär kten</w>
gri ff
z ent</w>
x .de</w>
sü dlichen</w>
gew in
chri stlichen</w>
Zu ge</w>
Ru h
ver tik
spie gelt</w>
er innen</w>
Nürn berg</w>
Eigentü mer</w>
Berech nung</w>
präz ise</w>
mu ch</w>
Verfass ungs
Beru f</w>
ver mittelt</w>
fahr zeuge</w>
Lebens dauer</w>
F R</w>
Dolo miten</w>
zu fügen</w>
erwor ben</w>
Ar men</w>
d un
lei det</w>
f ter</w>
ev ents</w>
Geburt stag</w>
3 20</w>
Se en</w>
Fotokopier einrichtungen</w>
D ingen</w>
ständi ger</w>
Servi ce-
. ly</w>
an wes
Vor lage</w>
Pro ven
unterschie dlicher</w>
offizi ell</w>
e be
asso zi
Umweltsch utz</w>
R and
vide os</w>
intensi v</w>
begrü ße</w>
A mp
Geh äuse</w>
er teilt</w>
blau en</w>
C C
beha glich</w>
Toil ette</w>
Daten schutz</w>
stex as.com</w>
angeb otenen</w>
gesch ritt
Ur sachen</w>
Blumen strauß</w>
verlei hen</w>
Wis sens
Vor stellungen</w>
prä siden
Erd be
er hol
des -
Vor trag</w>
Pet ers
Aus sagen</w>
her stellen</w>
Prä sent
Italien isch</w>
leg ungen</w>
Vo gel
Ne ur
verb and</w>
empf i
du tch
Rech ner</w>
verkehr s</w>
na mens</w>
ken ntnisse</w>
is Active</w>
ger inge</w>
ex por
Su chen</w>
Fi x</w>
st opp
Gre en</w>
zei le</w>
ma k
Spann ung</w>
K ell
G or
1 12</w>
r eli
bet onen</w>
Bau ern</w>
be enden</w>
Sp or
thil fe</w>
L .</w>
00 AM</w>
ge d
Pri ce</w>
Festiv als</w>
www. m
gefüh l</w>
betei ligen</w>
Sal es</w>
Ma p</w>
10 8</w>
zi vil
te stens</w>
Ein kommen</w>
ha se</w>
ess el</w>
ti l</w>
unterschei det</w>
lie f</w>
empfi ehlt</w>
bet reiben</w>
Mo tto</w>
Leiden schaft</w>
stimm e</w>
fer tig
Offen bar
Energie effizienz</w>
Betrieb e</w>
fri schen</w>
Marok ko</w>
J or
Rab att</w>
fahr ts
Schwe ster</w>
Ma gi
Lieblin gs
A kt
Online- Buchung</w>
Bü gel
vorgeschla genen</w>
k it
P ur
CO -
zu geben</w>
prak tischen</w>
gete stet</w>
V ent
Eur o-
1 200</w>
wand eln</w>
pa ss</w>
Wär me</w>
Strei t
Mil ch</w>
Vir tu
Ber ater</w>
An gabe</w>
A do
wär tige</w>
geh ens
e cht</w>
Vor sitz</w>
D rittel</w>
ver dienen</w>
berühr t</w>
Stück e</w>
200 6-0
ge fasst</w>
an macht</w>
jo .com</w>
Vi ol
stadt .de</w>
ord nungen</w>
gefäl lt</w>
erfol gte</w>
Pla ce</w>
Mein ungs
Frau en
Ab fall
c er</w>
be zug</w>
Z ie
zulässi g</w>
verstär ken</w>
Autom odelle</w>
Über ra
ment al</w>
c am
anz us
ut ure</w>
gramm ar.com</w>
Z äh
B ungalo
B ron
par tic
min utes</w>
hü tte</w>
L ust</w>
Aus sage</w>
är er</w>
er li
dutch grammar.com</w>
N at
G B
p iel
sp rin
et o</w>
M ir
J ih
di e-
aus gesch
Lo go</w>
Desig ner</w>
for tsch
behaup ten</w>
Residen ce</w>
H D-
statt findet</w>
r -
er fordern</w>
berat ung</w>
Internet seite</w>
län gst</w>
be hält</w>
ar z
Sü do
translation .php</w>
religi ösen</w>
er wä
bestimm ungen</w>
besch reiben</w>
an geschlossen</w>
Mul tim
Durch schnitt
Abhängi gkeit</w>
verhält nis</w>
kap it
Ver mietung</w>
Er be</w>
to o</w>
aussch usses</w>
sen ken</w>
Se ktoren</w>
E ro
cht en
Hü tte</w>
5 ,00</w>
e au</w>
ba jo.com</w>
anzu bieten</w>
Wirks amkeit</w>
korre kt</w>
gere chte</w>
F OR
recht lich</w>
Tro ck
Sch wi
Sat -TV</w>
sat elli
bewahr en</w>
bemü ht</w>
V inc
Bek ann
c am</w>
Maler ei</w>
K arten
r h
ler -
Kreativ ität</w>
Grü nen</w>
Gen f</w>
rä um
o bli
m und</w>
da d</w>
d lichkeit</w>
sch auer</w>
Mess ung</w>
österreich ischen</w>
a kt</w>
Ex plor
bein halten</w>
Un gleich
ämpf e</w>
aktu alisieren</w>
a ffen</w>
P otenti
Er haltung</w>
Dro gen
1 11</w>
verabschie det</w>
geplan ten</w>
fami lie</w>
et ter</w>
ausgezeich neten</w>
Tre ff
V iel</w>
Aufent halts
o f-
fest zu
e very
Urlau bs
198 1</w>
ä us
ver dient</w>
fer ence</w>
er es</w>
angemess ene</w>
U V
Gen au
Zah lungen</w>
so u
ger inger</w>
cau se</w>
atra bajo.com</w>
Sal z</w>
R em
Er den</w>
setz ungen</w>
aus s</w>
Respe kt</w>
äl testen</w>
auf gestellt</w>
Auf lage</w>
son stigen</w>
h orizon
gir l</w>
b re</w>
G P
wa ff
st ü
m her
ka te</w>
Su mme</w>
Markt es</w>
G PS</w>
supp ort</w>
Per fe
Fest platte</w>
Är zte</w>
inc l</w>
Vereinbar ungen</w>
atur e</w>
Secur ity</w>
Hig h</w>
ver seh
recht zeitig</w>
li mi
l on
gra de</w>
go vor</w>
existi eren</w>
bi schen</w>
at eri
50 -
30 00</w>
h am
M AN
di ger</w>
an ks</w>
Tur m</w>
Rh ein
Mül ler</w>
Fil ter
E A</w>
olo gen</w>
abge stimmt</w>
mut lich</w>
Gar anti
nu ev
li tät</w>
Spezi alisten</w>
An n
or d</w>
a chtung</w>
Mar k</w>
v ali
dat ab
Od govor</w>
M L-
E he
Vorder grund</w>
Schne e</w>
L A</w>
2 .0
Attra ktionen</w>
ad o
K ali
Gewin ner</w>
ver treter</w>
klassi sche</w>
europ a
W under
Konz ern</w>
Opp osi
kl er</w>
Vereinig ung</w>
Flü ge</w>
dopp elt</w>
ã o</w>
prü f
mu lation</w>
Sonnen aufgang</w>
b ende</w>
la va</w>
y s
sti g</w>
Ver wand
Schicks al</w>
r s
P V
zu gelassen</w>
wirtschaft licher</w>
go sla
CO M</w>
usammens etzung</w>
kon vention
ge werb
Meer blick</w>
Mö bel</w>
An k
- Datei</w>
pop ul
war m</w>
son sten</w>
K ing</w>
C r
ver samm
mor ali
eleg ante</w>
plan ung</w>
Zu erst</w>
Zu cker</w>
Wi es
Argent inien</w>
ver ni
stand ard</w>
be her
künf tige</w>
komplex e</w>
dr en</w>
u tions</w>
kün digung</w>
S ele
10 -0
war ds</w>
re fle
26 0</w>
Dunk el
su per
ge mi
be fassen</w>
R ing</w>
Konzent ration</w>
forma tion</w>
Con ver
mei stens</w>
Sor timent</w>
Groß teil</w>
Frie d
öff nete</w>
zeich neten</w>
s mo
Sk i</w>
verbin dungen</w>
ver öffentlichen</w>
schrei bung</w>
beru fen</w>
Völ ker
Ober flächen
offen bar
gres si
Ein fach</w>
cht lich</w>
engli schen</w>
üh len</w>
www. foto
we hr
Kredit karte</w>
So wohl</w>
ung ssysteme</w>
i i</w>
begeg nen</w>
For scher</w>
Konzep te</w>
indu strie
bes i
To ol
M ut</w>
10 7</w>
gi g</w>
ber g-
Wachst um
Gast ron
BM W</w>
op f</w>
d om
ar g</w>
Fest legung</w>
Co ins</w>
- 25</w>
Unter richt</w>
Fotogra fie</w>
y .com</w>
produ cts</w>
R elease</w>
bedeut ende</w>
a x
Ma s
10 9</w>
sichti g</w>
schi ff
Krie ges</w>
Haupt bahnhof</w>
i ges</w>
defau lt</w>
bestä tigung</w>
steh end</w>
gel angt</w>
Gar age</w>
Poli zei
Pal ma</w>
Gegen stände</w>
Geb ühren</w>
Bi er</w>
vor an
mm el</w>
am edi
I ON</w>
therap eu
den falls</w>
z on</w>
in ation</w>
arbei teten</w>
Kais er</w>
Begeg nung</w>
Alter s
gebrau cht</w>
eh nt</w>
Kongr ess</w>
0 1.
sch mi
Gesund heit
war men</w>
sprü chen</w>
problem los</w>
pp er
er for
Gre at</w>
typ isch</w>
t licher</w>
Z w
Ab s</w>
e du
Vol k
Verfahr ens
. amarilla
äl er</w>
E mo
Anmel den</w>
zu ständige</w>
erleichter t</w>
eg elt</w>
Flä chen</w>
na cht
gemüt liche</w>
fort able</w>
er le
Dokum enten</w>
Basi s
Hau t
Studi os</w>
Mat he
herr schen</w>
grü ne</w>
ge folgt</w>
för der
Verk äufer</w>
Kön nen</w>
x er</w>
geeig neten</w>
ex tra
Vor bereit
x n
ss ek
get ö
An nehmlichkeiten</w>
P P</w>
Be frei
st ur
Ro ck
Ju li
HEr rn</w>
20 ,
wu chs</w>
kategor ien</w>
defin ieren</w>
s un
it a
i d-
To ten</w>
St d.</w>
Spie gel</w>
P ie
st he
M essen</w>
I R
res sour
Her ausge
Du sch
Ab kommens</w>
ma cher</w>
201 4-
r ori
at lan
l ern
Fel sen</w>
komplex en</w>
Öff nung</w>
ct ure</w>
auss ehen</w>
Beg rün
pp y</w>
nen nt</w>
bra chten</w>
I K
m ul
leb enden</w>
di te</w>
glei cher
Rück en</w>
Wol ken</w>
Mi d
kon fron
er heben</w>
en. wikipedia.org</w>
ell i</w>
än ge</w>
mm ert</w>
do wn</w>
ac cess</w>
Körper s</w>
K ari
O K
IS CH
www.g stadt.de</w>
Tran spor
Nah en</w>
Exp ort</w>
Tro tzdem</w>
Nr .0
spä teren</w>
o v</w>
j i
ef s</w>
Zeich nungen</w>
Te ch</w>
Kunst stoff</w>
Soh nes</w>
Prozess es</w>
15 00</w>
ver gleichen</w>
ber ät</w>
sti mmi
drü cke</w>
c aliforni
a gen
Kosten lose</w>
rau m
ge beten</w>
Inte gri
eba sti
Zur ück
Vermö gens
S we
Ord ner</w>
Bla ck
1 19</w>
verb lei
sor ge</w>
Ro s
lich -
Ver län
kü che</w>
hö her
be stens</w>
LAN -
d eines</w>
an zeigen
techni scher</w>
18 ,
S et
klein eren</w>
bei getragen</w>
Über zeugung</w>
ste te</w>
od le</w>
Refer enz
Nichtraucher zonen</w>
Gemein schaft
welt weite</w>
wei len</w>
to ur</w>
ri ch
D D
über geben</w>
li zi
ier ungs
be fin
los- angel
de i</w>
Softwar e
proje cts</w>
lei hen</w>
faci lities</w>
bean tra
ag li
Ein spruchs
Dire kt</w>
U M</w>
Tro cken
S F</w>
Höh en
restauran t</w>
la stung</w>
ent worfen</w>
aus gelegt</w>
12 2</w>
moder ner</w>
den d</w>
X X
Künst lern</w>
wil d</w>
t ritt
Regi me</w>
t ing</w>
s ur</w>
ba y
Mö chten</w>
land -
gelin gt</w>
tem peratur
ausge sprochen</w>
C el
u che</w>
i Pad</w>
Zi vili
Flüchtlin ge</w>
Europä er</w>
e e
.09. 2016</w>
st an</w>
kor rigi
Tour isten
N et</w>
si gn
bour g</w>
spä t</w>
ba b</w>
Tschech ische</w>
tre ff
M L
C in
Afghan istan</w>
teil ten</w>
s es
jähr lichen</w>
hand el
Geschäf ten</w>
umfang reichen</w>
Tour ist
Re ad</w>
pro file</w>
o xi
er b
e ff
Koso vo</w>
Hand y</w>
En sem
ti sh</w>
for ts
des wegen</w>
En ts
Ch ile</w>
abili ty</w>
Vi si
j i</w>
g nissen</w>
Ado be</w>
unver züglich</w>
sh op
ähn lichen</w>
rech nung</w>
lo g</w>
letz tlich</w>
bü cher</w>
Weihna chten</w>
Vari anten</w>
Eigentü mern</w>
Be urteilung</w>
Aktu elles</w>
wi es
gab en
fra g
gei stigen</w>
Vertret ern</w>
Lit er</w>
ü bung</w>
Bo uti
Anti -
vor haben</w>
typ ische</w>
gel o
I bi
He kt
posi tion
ent um</w>
Korrup tion</w>
st ill
modi fied</w>
mi scher</w>
La st
erneu ert</w>
an s
1 st</w>
öffent licher</w>
wor l
an zeige</w>
Panor am
PD F-
ro lle</w>
A dap
- 3
exter ne</w>
dr ing
L ove</w>
ti er</w>
wechs lungs
schlu g</w>
Er inner
h är
Mitarbei ter
13 1</w>
Ü bri
tu i
Pro te
MAR E</w>
1 19
schaff ung</w>
leb te</w>
Ph ot
servi ces</w>
ga st
t es
flas h
an passen</w>
E d</w>
00 0
r .com</w>
m p</w>
Re chten</w>
6 2
ruhi ger</w>
robo tern</w>
UN -
Fo un
beglei ten</w>
Rück gang</w>
Desig ns</w>
B und</w>
E po
lass ungen</w>
gr ess</w>
Mon te</w>
Wur zeln</w>
Rahmen bedingungen</w>
F ische</w>
Di pl
v gl.</w>
Proz e
R ap
D est
Ge wer
Flas h-
ma che</w>
w unden</w>
ul l
p um
Resul tate</w>
Cock ta
fahr t
Andro id</w>
ur n</w>
sti ges</w>
Ab rah
kür z
Kompet enzen</w>
E ck
na m</w>
mod ul
lu ft</w>
c as</w>
Debi an-
C ab
n eben
hor n</w>
Politi k
Blu e</w>
s ung</w>
ra pi
kompl etten</w>
entsch lossen</w>
F F
Auff or
Ver bot</w>
Gem ä
Erken ntnis</w>
Er richtung</w>
Cu be</w>
Alkoh ol</w>
an gelegt</w>
unter nommen</w>
ter min
ein zur
informa tions
Sz ene</w>
Kon ser
Ja zz</w>
sozi aler</w>
p unkten</w>
gew ann</w>
D ür
for e</w>
ed s</w>
Fuß ball
Ent stehung</w>
X Von</w>
Lin z</w>
si mp
E du
wor tern</w>
spie gel</w>
un den
X VI
betre uung</w>
Ro che</w>
Ta xi</w>
Arbeits markt</w>
n l</w>
gesch nei
Sta te</w>
Hoch schul
Vor aus</w>
Son g</w>
ungs weise</w>
Stimm ung</w>
Z ut
Panor ama</w>
Elekt ri
künstl erischen</w>
kri ti
event uell</w>
be d
T E
De kor
C P
hervorra genden</w>
tion -
s- 2
Comm er
dis ziplin
bek am</w>
äu fe</w>
so ci
Konfer enzen</w>
interess anten</w>
ant en
h üb
Gesetz gebung</w>
Form el</w>
Er fassung</w>
Diskrimini erung</w>
wei ß
lü sse</w>
empf ängt</w>
Patent an
Bi t</w>
schwar zen</w>
hin auf</w>
Funktion alität</w>
En th
sho uld</w>
O m
Ev alu
voll em</w>
Suchmaschinen robotern</w>
ste ten</w>
rü st
Alli anz</w>
Wer tsch
Intelligen z</w>
19 70</w>
ange sprochen</w>
a .de</w>
Sü d</w>
ent haltenen</w>
Mi r</w>
sy mbo
ger ade
Wieder herstellung</w>
Mus li
Friedri ch</w>
in o
ge o
a z
. jpg
or i</w>
schli mm
Er staus
hal ter</w>
erg ab</w>
No te</w>
co uld</w>
be anspru
Sch wä
wor king</w>
rieb e</w>
mess ung</w>
Ergän zung</w>
wert volle</w>
forma tionen</w>
et ra
erläu tert</w>
Bä ume</w>
dimen sion
Vor stands
7 50</w>
passi eren</w>
Ru bri
ger aten</w>
Ma gazin</w>
Frie den
Bab y</w>
mark et</w>
h ell</w>
beg inn</w>
He alth</w>
verl etzt</w>
D ün
west licher</w>
Rol len</w>
R und</w>
ens ystem</w>
Z auber
La de
Ge wal
D un
B ell
par t</w>
Tages ansicht</w>
inter ne</w>
Perspe ktiven</w>
medi terran
einheit lichen</w>
b g-
Staats an
Sch okol
si mi
Koh ä
I l</w>
zurück zuführen</w>
k n
anzu zeigen</w>
klein anzeigen
Mal a
A D</w>
wander n</w>
verzi chten</w>
ger ing</w>
al i</w>
Schi ffen</w>
S em
www.amarillasaust in.com</w>
neh me</w>
mo odle</w>
harmon i
über sch
m ing
l or
Ru ß
General sek
ten dlich</w>
spür en</w>
Hand lungen</w>
Erfol gs
zuverlässi g</w>
pak et</w>
Zivil gesellschaft</w>
Shan g
SA P</w>
restauran ts</w>
ra n</w>
ja k</w>
Mein ungen</w>
k und
f ur</w>
Ho li
Ex press
el ie
ari at</w>
K Ã</w>
Ba vari
verl ust</w>
Sü ß
Rechts an
Uhr zeit</w>
Technolo gi
Empf änger</w>
reg ul
o ff</w>
markt .de</w>
en dete</w>
ein drucks
ben annt</w>
Ver wirk
u el</w>
st eine</w>
militä rischen</w>
f .</w>
er griffen</w>
de .
ap el</w>
a is</w>
Erfahr ungs
wir ft</w>
veröffent lichte</w>
russi sche</w>
port folio</w>
E is</w>
w ein</w>
lich ste</w>
Wal ter</w>
Vi et
Re zen
vor schlag</w>
da -
comp uter
modu s</w>
e .</w>
Effe kte</w>
ed back</w>
R eh
O P
Mond aufgang</w>
wieder holen</w>
stu fe</w>
ann i</w>
Ta stat
K anz
Gefän gnis</w>
eu s</w>
as p</w>
T S
F I</w>
li s</w>
bg- bab</w>
bek ämpfung</w>
Mond untergang</w>
Beleu chtung</w>
www.foto s.
ein stal
versu che</w>
ba i</w>
Schu h
L ot
197 8</w>
schle chten</w>
foto lia.com</w>
for sch
fa ir
O per</w>
Frem den
Bes ei
Ter rit
Kur z</w>
Dor f
Kop en
Ab sol
wei ße</w>
fi t</w>
Par all
Ju bilä
www.fotos. sc</w>
bl es</w>
an teil</w>
Entschei d
kommerzi ellen</w>
infor MARE</w>
errei chte</w>
Phar ma
Par ks</w>
Elektron ik</w>
offen er</w>
Zwei ten</w>
Fa vor
ge halt</w>
erst off
bs p</w>
W at
T s-2
Kop ie</w>
B ret
vol umen</w>
fr ist</w>
Zu frie
Typ e
D ein</w>
Aus schuß</w>
ver einfa
sol ch</w>
Re gen</w>
K äl
J i
o ch
mi sch</w>
Cli ent</w>
3 38</w>
sk i
be stellt</w>
Zerstör ung</w>
Spa in</w>
w ände</w>
unter bro
spro gramm</w>
Jih lava</w>
ö stlichen</w>
sin ce</w>
groß zügi
gra ph
flexi ble</w>
Wör ter</w>
ti gem</w>
Flug häfen</w>
t at
offen bar</w>
al ways</w>
Reihen folge</w>
G on
lö st</w>
Kä se</w>
Head line</w>
bot h</w>
Associ ation</w>
ro l
lo r</w>
hoh es</w>
2 F
wei ss</w>
ort -
Mikrow ellen
Erwer b</w>
3 1.0
t rennen</w>
gehöri ge</w>
Tschech ischen</w>
K ing
Gri ll
B E
bedeut enden</w>
Produ ct</w>
Er stellt</w>
D s</w>
kostenlo ser</w>
Europ a
16 -
ssyst emen</w>
imp or
static. fotolia.com</w>
Pia zza</w>
O ster
Mal ta</w>
ö s</w>
T om</w>
Sank tionen</w>
Beweg ungs
Kla vier</w>
C I
10 ,00</w>
1 .html</w>
di agno
bet h</w>
Komp lex
K it
k W</w>
ag s</w>
Bru st
Bal ear
über setzt</w>
Zu g
B ES
über winden</w>
bit .ly</w>
S ebasti
Psych ologie</w>
Ni col
N eg
K lang
C it
w ri
or ien</w>
23 2</w>
re mo
re alisieren</w>
Imm o</w>
Dru cker</w>
Al ban
Miner al
G un
R ak
z y</w>
shar e.com</w>
dä cht
grund lage</w>
T om
J ungen</w>
gi f</w>
woh nt</w>
probl em</w>
getö tet</w>
Dör fer</w>
27 0</w>
z ün
mittl ere</w>
en ter
Plat te</w>
belie bt</w>
V ar
Ta g
Bezir k</w>
ol i</w>
ent spann
crip tion</w>
br un
app li
Schlussel wortern</w>
Digit al
to ff
s um
be danken</w>
Ver lei
mon at
ac tive</w>
Selbst verständlich</w>
Andalu sien</w>
be hei
2 28
K eller</w>
u si
in halt
im plem
and s</w>
St an
Ein beziehung</w>
tt a</w>
article .php</w>
Wär me
5 3.
pri ce</w>
fri sche</w>
ct ory</w>
Investi tion</w>
Air lines</w>
14 5</w>
ges unde</w>
eb ü
bemü hen</w>
Zeu gnis</w>
der artige</w>
Rei chtum</w>
Eigen schaft</w>
lei ster</w>
L ohn
H ung
Anhän ger</w>
UN ES
H its</w>
3, 5</w>
www. dutchgrammar.com</w>
27 .
bet rug</w>
Neu en</w>
E P</w>
Contain er</w>
Al ber
k il
geh or
ag re
v is</w>
ro bu
ba sierte</w>
er ober
Met all</w>
spa ce</w>
näh e</w>
ab gerufen</w>
R ac
Chi ca
win kel</w>
sta tionen</w>
op hi
ab gesch
Bur g
M ön
F res
B lau
17 5</w>
1 17</w>
www.amarillasaust i</w>
ne w
Ko sme
ta ke</w>
gewähr en</w>
Jak ob</w>
In stand
Fe atures</w>
F ren
Arbeit geber</w>
spä testens</w>
kleinanzeigen markt.de</w>
gro up</w>
boote- kleinanzeigenmarkt.de</w>
Kli masch
Ein ladung</w>
2 D</w>
sm all</w>
plan t</w>
l ten</w>
Pri v
Flug zeug</w>
Dynami k</w>
fizi eren</w>
fro h</w>
Dat ens
kap itali
g on
fru cht
Verwirk lichung</w>
radi k
erk ran
Kün ste</w>
di ente</w>
Bevölk erungs
nied rig
er wär
diver se</w>
gen auer</w>
Hand tücher</w>
y n</w>
führ erin</w>
Sig nal</w>
wunder bare</w>
loh nt</w>
Che ck</w>
ne ws
Di kt
Bar ri
e ver</w>
g ge</w>
T af
Herr lichkeit</w>
Bro schür
A H
ur is
s omm
prak ti
comm un
b un
Ste ck
On lin
Land schaften</w>
Kol um
xn --
er mittelt</w>
au stau
Vor gehen</w>
ri chtete</w>
ein zusetzen</w>
ange kündigt</w>
Beit ritts
12. 2015</w>
sch äd
al .com</w>
Wür de</w>
Str ö
Nachbar n</w>
ord net</w>
gä ste</w>
d ella</w>
Fil men</w>
uni vers
da y
Vide o-
Mi gration</w>
Can ada</w>
ger in</w>
auf gerufen</w>
Sen ior</w>
Isla m</w>
Gemeins am</w>
Y u
Organ e</w>
Col le
bek ämpfen</w>
Sol che</w>
Kor ea</w>
Fü lle</w>
con trol
ab wechslungs
3 2-
a ir</w>
Lit auen</w>
ur y</w>
se y</w>
in folge</w>
Inn eren</w>
Hei del
B le
sozi al
orienti erte</w>
belieb testen</w>
Lett land</w>
ma sse</w>
her unter</w>
Pf arr
G l
Aus fahrt</w>
tik a</w>
mäß igen</w>
grün de</w>
f ließen</w>
LE D</w>
Journa listen</w>
stre cke</w>
mm a</w>
m um</w>
geb ucht</w>
as es</w>
1 14</w>
Z usammensetzung</w>
wor ks</w>
Pra ktiken</w>
ursprün gliche</w>
Spei cher</w>
In halten</w>
schrift liche</w>
Roll en
Color Type
t formen</w>
schri eben</w>
schliess lich</w>
regel ung</w>
Ge fahren</w>
ColorType Headline</w>
se x</w>
j emals</w>
an ien</w>
Ja va</w>
wün scht</w>
schla fen</w>
hal f</w>
eg i
Mon ats</w>
lo cal</w>
vielfäl tigen</w>
verli ehen</w>
m eint</w>
che mischen</w>
bil ater
Empf angs
A mi
von einander</w>
ver zeichnis</w>
son ni
bu l</w>
an wenden</w>
an geht</w>
V E</w>
wirk same</w>
S kla
Ac count</w>
spar t</w>
integri eren</w>
bri tische</w>
Ö kon
gleicher maßen</w>
ah e</w>
Le der</w>
Inter pret
Hand lungs
Au gu
Bet ro
zusammen arbeiten</w>
R on
Ih m</w>
Holl and</w>
ori ert</w>
Wa ffen
Gri ll</w>
E F</w>
A l</w>
ph il
V an</w>
Lt d.</w>
Gö tt
Fahrrad verleih</w>
Char les</w>
schla gs</w>
farb en</w>
An wesenheit</w>
st erk
a gu
Sch wan
S K
In sel
Bay ern</w>
A la
feh ler
Verfahr ens</w>
Erken ntnisse</w>
app ar
Wart ungs
Wahrnehm ung</w>
Sach ver
Kab inen</w>
län gere</w>
jü dischen</w>
w ü
p il
Gebur ts
Artik els</w>
7 2
vorgeseh enen</w>
vor über
Shang hai</w>
Ro man</w>
M ill
Imp eri
Aus zeichnung</w>
über zeu
parall el</w>
gem ü
gebro chen</w>
Ver zö
Ein blick</w>
Char me</w>
Boo k
A ur
einge gangen</w>
Früh ling</w>
ver ä
separ ate</w>
ges und</w>
Grafi ken</w>
F R
lan guage</w>
Vertret ung</w>
St eine</w>
L auf</w>
pa ges</w>
Yo u
laub nis</w>
O ce
sicher gestellt</w>
ein schlä
an di
Wander ungen</w>
Stock hol
Re alisierung</w>
n ext</w>
exklusi ven</w>
ex per
Sol eil</w>
Ser ver
Get rei
Bo ot
Or chester</w>
Kl aus</w>
I stan
Der zeit</w>
ein stellen</w>
Rä umen</w>
j 2
gor ith
X XL</w>
Fein de</w>
e cke</w>
Schul d</w>
rö mischen</w>
forder te</w>
ent wurf</w>
durch suchen</w>
B lin
o o</w>
kompati bel</w>
führ ender</w>
voll komm
tem p
ap art
Reg ie</w>
Le on
38 5</w>
197 6</w>
n ed</w>
geno ssen</w>
aufzu bauen</w>
Wasch salon</w>
hei ra
ad ministra
la t</w>
Verbin dungs
Gewähr leistung</w>
man chen</w>
diesel be</w>
Weiter en</w>
V O
Schalt fläche</w>
S amen</w>
Netz es</w>
max x.de</w>
Sow jet
14 0
effizi enten</w>
ar m
angel eg
tain bi
co u
T C
Ber eich
24 ,
auf wand</w>
Pala ce</w>
E wi
drau ßen</w>
Offenbar ung</w>
zusammen zu
Para dies</w>
ologi scher</w>
ais san
ver mutlich</w>
bekann testen</w>
a ssi
Yo ur</w>
Kontrol len</w>
ult at</w>
ge stri
bi bliothe
Net work</w>
wor ds</w>
ms g
a ster</w>
D R
s ens</w>
optim alen</w>
Pal ast</w>
G ali
F an
syst emen</w>
Java Script</w>
ver trä
u 00
pla yer</w>
Ost europa</w>
Mond phase</w>
Her d
ut ung</w>
zu lassen</w>
da ssel
c la
Halb insel</w>
D ä
C ho
Tra ck
Golf platz</w>
nachhal tig</w>
Fi li
verwal ten</w>
ge or
einzigar tig</w>
A vi
k te.htm</w>
a. pl</w>
Top -
Teilnehm ern</w>
Familien zimmer</w>
Gebäu des</w>
Aus sehen</w>
inter net</w>
hal testelle</w>
ba den</w>
ök ologischen</w>
stra fe</w>
si li
ehr en</w>
Besei tigung</w>
Bavari a</w>
Al ph
Konfli kte</w>
Gen au</w>
Analy sen</w>
n y
ein geben</w>
ab les</w>
Pu zz
Col um
er re
F ün
.c o.
L ist</w>
pflan zen</w>
op tional</w>
i chten</w>
Regi ster</w>
vel y</w>
un ehmen</w>
afri kanischen</w>
A y
1 16</w>
läu fig</w>
23 .
wissen schaft</w>
norm ale</w>
Vö gel</w>
ner -
beruf lichen</w>
sp ringen</w>
P AR
ung stechnik</w>
reib ungs
geord net</w>
elekt rischen</w>
ab end</w>
197 2</w>
la gern</w>
ho st
exp erien
O hren</w>
verantwor tungs
pass enden</w>
marki ert</w>
Behör de</w>
1 13</w>
Tex ti
St än
Arbeitsp lätzen</w>
5 50</w>
sch me
ni eren</w>
zei tige</w>
ausge stellt</w>
ak en</w>
Sch ätz
B enz
über mittelt</w>
sch loss</w>
beg ei
T än
Belast ung</w>
ger ten</w>
vor ange
ger echnet</w>
fl Ã</w>
au stra
Scha den
pol nischen</w>
leh nung</w>
Erfol ge</w>
ung sch
thr ough</w>
Registri eren</w>
schu he</w>
san -
rä fte</w>
gän gen</w>
Elem enten</w>
sion s</w>
Staat ssek
Ar ch
be arbeitung</w>
ar tig</w>
V al</w>
Lie ge
verbun dene</w>
sta y</w>
Ver mei
en jo
Geor gien</w>
Berichterstat terin</w>
besi chtigen</w>
a po
f un</w>
be vor
op tion</w>
konfron tiert</w>
jewei lige</w>
Lei h
r er</w>
n .
m g</w>
neg ative</w>
mel dungen</w>
ini ert</w>
c amp
Training s
Aus gangs
Ab schließend</w>
Übersetz ungen</w>
schi cht</w>
ar zt</w>
Zentr en</w>
pro zess</w>
fol gte</w>
elekt ro
ch .net</w>
N ad
Leistungs fähigkeit</w>
ten -
Gestal t</w>
ster ed</w>
n ot
haf ter</w>
go .com</w>
art ner</w>
0, 000</w>
ß ig</w>
tain ment</w>
lei chten</w>
aus einander
G at
www. iron
ul t</w>
Bei spiel
be trag</w>
Gewerk schaften</w>
Er halt</w>
bewer tung</w>
Versicher ungen</w>
un en</w>
o ver
ma ster</w>
e mail</w>
Privat parkplatz</w>
absol ute</w>
N ar
äst he
Veranstaltungs räume</w>
Produk tion
M auer</w>
197 5</w>
ge ziel
fol glich</w>
W ellen</w>
Latein amerika</w>
64- bit</w>
á n</w>
sü dlich</w>
sam t</w>
jeg licher</w>
chti gt</w>
bel egt</w>
we ckt</w>
ma h
er Innen</w>
U R</w>
wi t
geschätz t</w>
W erten</w>
w inter
arab ischen</w>
La bel</w>
F akten</w>
zwei mal</w>
zah lungen</w>
z i</w>
wach sende</w>
ko sme
Zusammen fassung</w>
Kongr ess
H orizon
Att ri
we ek</w>
sp an</w>
nor mal</w>
genie ßt</w>
6 50</w>
24 0
herr liche</w>
S tern</w>
Ar m
12 1</w>
wer tet</w>
situ ation</w>
ar men</w>
Whi te</w>
Spa ce</w>
Konsequ enzen</w>
Char ter
langfristi gen</w>
di gungen</w>
Fit ness</w>
Ak teure</w>
40 -
Gesell schafts
For ts
men gen</w>
S M
Be st
T ank
Glau be</w>
E h
stu dio</w>
ge fahren</w>
eg er
Werk zeug
Schu he</w>
bli cke</w>
V A</w>
Norda merika</w>
Hekt ar</w>
Geschle cht</w>
www.iron maxx.de</w>
tä t
Z -
P A
O K</w>
Kolle ktion</w>
Wäl der</w>
Hei li
G A</w>
B eu
25 .
Stor ni
Ser bien</w>
Fig uren</w>
Entwicklungs ländern</w>
D ank
wirk sam
quali ty</w>
n bsp</w>
ini en
Spe cial</w>
Brun nen</w>
An hang</w>
mobil en</w>
kt op
er zeu
genomm enen</w>
Anfän ger</w>
l ess</w>
ke te</w>
anzu passen</w>
Ge dächt
4- ch.net</w>
sch ien</w>
Hig h-
Er leben</w>
zz i</w>
will st</w>
r unden</w>
dassel be</w>
ameri kan
Jeh ova</w>
G EN
CE O</w>
Pro vi
geb ene</w>
Swimm ing
Rezep te</w>
Schöpf ung</w>
Premi er
Konferenz -</w>
al p
Au fer
verbin dlich</w>
fest gelegten</w>
der i
Ten nis</w>
K lassen</w>
o wn</w>
it -
einfa chste</w>
da ta
Sa al</w>
Ma cht
Lauf zeit</w>
H all</w>
vor nehmen</w>
ot a</w>
So l</w>
Sk y
ca 8
An schließend</w>
Mod ul
B ö
read y</w>
bur g-
L ake</w>
ver weist</w>
ober fläche</w>
ehr gei
mu ßte</w>
ern annt</w>
be weisen</w>
an melden</w>
Kris en
te uren</w>
ur gie</w>
o is</w>
g in
c ti
busin ess</w>
ak ade
sho w
om eter</w>
lo y
bau te</w>
r und
interes sieren</w>
glob al</w>
Bl att</w>
rit uris
nie der</w>
auf hin</w>
www.b ing.com</w>
spro du
b ler</w>
ar ien</w>
W ag
Innova tions
Ga z
Auf wand</w>
neg ativen</w>
K ru
z ern</w>
sel f</w>
satz es</w>
mo tivi
Moun tainbi
Mar ath
Ex em
B ren
wunder bar</w>
sin n</w>
rig hts</w>
liefer bar</w>
zugän ge</w>
kat oren</w>
Qu art
to t</w>
on .com</w>
Ta f</w>
Gemeins ame</w>
CO N
Ausland s
ö hnen</w>
kar eh
Sch wert</w>
Mar co</w>
kareh a.pl</w>
j unger</w>
P I
Konkurren z</w>
hei ß
an ony
Vil len</w>
Unter nehmen
Ul rich</w>
all en
Wohl stand</w>
Sp ritz
SU ITE</w>
Instru ment
D B
Aus steller</w>
Asy l
zu kommen</w>
Höhep unkt</w>
wi th
gi scher</w>
d bar</w>
Sei l
Ge org</w>
Corpor ation</w>
to ol
pp ing</w>
om o</w>
Fer tigungs
C ome</w>
sex uelle</w>
schütz t</w>
pl es</w>
T ruppen</w>
Sol ar</w>
Medi um</w>
gel ass
R S
regi ster</w>
ko ennen</w>
Ver gleich
pictur es</w>
Wes entlichen</w>
EU- Mitgliedstaaten</w>
a chen</w>
O bst
st ran
p utz
O st</w>
G utes</w>
Eg al</w>
Ä u
Weiter bildung</w>
sch wä
p lease</w>
j enseits</w>
enn a</w>
be f
Pen sionen</w>
Mo on</w>
Jur y</w>
B lätter</w>
satelli te</w>
industri elle</w>
Kranken versicherung</w>
elekt ri
eg o
Wasch becken</w>
s af
Nachfol gend</w>
Ben ach
mü sse</w>
er öffnen</w>
ber -
Ni chts</w>
Katal onien</w>
verbesser te</w>
tra f</w>
humanit äre</w>
Um struktur
Pau se</w>
Bu il
Bedroh ungen</w>
Einzel zimmer</w>
2 20
. files.wordpress.com</w>
Plat ten</w>
Mar tin
Berat ungs
be ge
ho lischen</w>
Nä hr
Far m</w>
Abgeord nete</w>
geräumi ge</w>
Met ro</w>
vor herige</w>
upda te</w>
sen der</w>
schri tt
go tt
exk lusive</w>
Zu lassung</w>
Pro fil
Museu ms</w>
10 4
g ru
ein bezogen</w>
agent ur</w>
Zei ge</w>
S anti
Foun dation</w>
di a
b c
Sp lit</w>
Sal on</w>
O S
Ent spannen</w>
ni ght</w>
Mark et</w>
Gesetz es</w>
on ischen</w>
bil d-
Verhand lung</w>
wo che</w>
v ill
trau m
angewand t</w>
Vi ct
Ul tra
U-B ahn
Res ol
Gar den</w>
überra scht</w>
t ari
sel b
j an
eingeri chtete</w>
Cal a</w>
A ca
Ar ts</w>
sh ed</w>
mon d</w>
Con ne
Zu hause</w>
Be zahlung</w>
Alt ar</w>
beruf liche</w>
Ga y</w>
Behin derten
ab l
Oran ge</w>
O kt</w>
tem ent</w>
g na
ück en</w>
verschieden sten</w>
te uer</w>
heb t</w>
che ck
auf gaben</w>
Stand orten</w>
H l</w>
Erkran kungen</w>
veranstal tet</w>
pro bieren</w>
po ssi
niedri ger</w>
f tt
s at</w>
posi tionen</w>
gegen über
eni x</w>
Karls ruhe</w>
Feu chtigkeit</w>
iden t</w>
an lässlich</w>
Typ en</w>
ph oto</w>
konsul tieren</w>
Ri esen
Kandi daten</w>
Bli ck
wes ens</w>
201 8</w>
ebü ros</w>
Vor gaben</w>
Al pen
Wohn ungs
St ütz
Komm and
Kin des</w>
Ein gabe</w>
ho b</w>
Wi -Fi</w>
si di
r eine</w>
R hyth
Auf träge</w>
z eitung</w>
ber lin
unter richt</w>
be ster</w>
Si te
Seg ment</w>
Mo tiv
Fri endly</w>
Free BS
tru g</w>
ver pack
fol gendes</w>
zeit raum</w>
ge hoben</w>
Sch en
D S</w>
stu fen</w>
gelie fer
abgel ehnt</w>
Vizep räsident</w>
Stadtt eil</w>
tä tigen</w>
t rieben</w>
grei ft</w>
californi a.com</w>
Dri tter</w>
z o</w>
tur ni
sch lei
Ni kol
ver z
effizi enter</w>
Sp äter</w>
n es
Neu igkeiten</w>
Ernähr ungs
clu b</w>
Man che</w>
Hier zu</w>
EU R
zweif ellos</w>
ein richtung</w>
ana .net</w>
al 6
Zei len</w>
Verpack ungs
ta tionen</w>
l ong</w>
j ak
vor schlagen</w>
val ue</w>
spiel er</w>
ser s</w>
g las
aus wärtige</w>
Navi gation</w>
xn-- 12
xn--12 ca8
xn--12ca8 j2
xn--12ca8j2 al6
de kor
Istan bul</w>
Hinder nisse</w>
Exe cu
3 .jpg</w>
0, 5</w>
verwand elt</w>
sprech ung</w>
ge ts</w>
fil ter</w>
durchschnitt lich</w>
ck ung</w>
metho de</w>
be hoben</w>
Sch ir
fei er
vor legen</w>
ver teilung</w>
hilf reich</w>
end or
Mi sch
en ster</w>
Hoch zeit</w>
Grün der</w>
Chica go</w>
ökono mische</w>
men ade</w>
gehör te</w>
champions hip</w>
in ts</w>
k ampf</w>
g län
Mon te
Frie dens</w>
0 47
wechs elt</w>
on ia</w>
AL L
u lar</w>
quip ment</w>
K üh
c art</w>
Lou is</w>
Ju an</w>
Auf ruf</w>
24 .
kto p</w>
Besonder heiten</w>
........ ........
gew ählten</w>
Evangel ium</w>
Besu cher
Be stellungen</w>
W äh
Su peri
Clu bs</w>
erhöh te</w>
Wohn -</w>
Aus maß</w>
ein geleitet</w>
c le</w>
Inte gra
13 2</w>
beob achtet</w>
Panoram ab
197 4</w>
ti tel</w>
mü h
identifizi eren</w>
er bar</w>
auslän dische</w>
Schauspiel er</w>
Über gangs
z ona</w>
D H
et tern</w>
Tra g
Grafi k</w>
einger ei
T rei
Buchstab en</w>
signifi kan
ra chten</w>
jahr es</w>
Vor be
Sch all
Maß stab</w>
Herausge ber</w>
ba sieren</w>
Ver y</w>
Sch re
Zun ahme</w>
Zufrie denheit</w>
Z war</w>
s ha
par la
institution ellen</w>
b p.
G ur
k lick</w>
c r
Vergnü gen</w>
ver ank
nö tigen</w>
lat er
aga in</w>
si e
p au
hal ben</w>
il en</w>
Ren aissan
Kranken haus</w>
musi c</w>
am ari
Versu che</w>
I sol
vertei digen</w>
bar co-
Ern st</w>
di d</w>
bes ie
Mei len</w>
bp. blogspot.com</w>
I W
informations zentrums</w>
erstklassi gen</w>
sta ge</w>
effe ktive</w>
Market ing
optimi eren</w>
Nor di
Indon esien</w>
General dire
zentr aler</w>
über wiegend</w>
stell bar</w>
Tourist informationszentrums</w>
S erien
Pfer d</w>
zus ehen</w>
nach folgenden</w>
da s-
bl üh
berühm t</w>
b richt</w>
an ter</w>
Pa y
In haber</w>
pa ckt</w>
ori entiert</w>
Auftrag geber</w>
Um stände</w>
Jun ge</w>
Gast freund
us ers</w>
hin ten</w>
Wei ß</w>
A then</w>
w h
ak tions
V aku
E ri
ß ts
wä ss
mi kro
Er stellen</w>
vor an</w>
j an</w>
höch ster</w>
ger er</w>
ci ón</w>
Ur sprün
J S
v es
Mar ine</w>
Kla pp
Gemäl de</w>
An bindung</w>
än derung</w>
schi ff</w>
Veg as</w>
Mon tre
u k
fol gen
Nicht -
Informa tik</w>
Frankf ur
Res ultat</w>
gehens weise</w>
an gefangen</w>
Hand buch</w>
Statisti ken</w>
Nor m
Er b
Bau er</w>
B y</w>
.p ng</w>
ön e</w>
Über legungen</w>
unter einander</w>
r ing</w>
inten sive</w>
Proje ct</w>
200 8-
xn--12ca8j2al6 k.net</w>
so for
s 1600</w>
reagi ert</w>
la ck
eini ges</w>
kan z
inter pre
Milli on</w>
tt i</w>
sprach igen</w>
gän ger
ca -
m ie</w>
Wander ung</w>
Or chest
zuverlässi ge</w>
mu ster</w>
be fasst</w>
Sto ff</w>
Hist ori
197 7</w>
Ver markt
.0 .
í n</w>
moder nes</w>
gel ang</w>
ge st</w>
d é
Span i
Schmer zen</w>
Reich weite</w>
wesent licher</w>
st räger</w>
me et</w>
ka -
Mar t
D .
gem ent-
P ek
Li ban
F au
Bedroh ung</w>
Aven ue</w>
lei d</w>
la ß</w>
ein setz
Rezep t</w>
Aus flug</w>
ab schluss</w>
Ri ver</w>
Ran de</w>
Besch werden</w>
würdi g</w>
tro cken</w>
oft mals</w>
g nis
Ta ten</w>
F O
Exper ten
15 5</w>
tatsäch lichen</w>
ch i</w>
amedi ca
C T</w>
schlü ssel
lä ttern</w>
investi ert</w>
for mat
Ci uda
fan gs</w>
de x
besei tigen</w>
Z wan
Studi erenden</w>
Pf ei
Jahr e
Chin as</w>
13 -
Begri ffe</w>
s eb
gemü tlich</w>
Halb jahr</w>
da vor</w>
Ge gen</w>
auf einander</w>
Mechan ismen</w>
Hab ana</w>
ungs mittel</w>
ct or
betrieb e</w>
Wilhel m</w>
Hy per
Fü ße</w>
verwen dete</w>
militä rische</w>
Kür ze</w>
tele fon</w>
Au di</w>
v as
ro llen</w>
na vi
hei l
chin esische</w>
Sch e
Rä um
ver miet
tro p
c ir
I H
Apost el</w>
schlaf couch</w>
iss eur</w>
en heiten</w>
c ca</w>
amp le</w>
Ger äu
Fru cht</w>
A 1</w>
ti s
konstru ktion</w>
an halt
an geben</w>
Stu hl</w>
Bo gen</w>
wor d</w>
regel mässig</w>
programm s</w>
lauf ende</w>
flu ß</w>
auto maten</w>
Sor g
Ma d
nü pf
Genau igkeit</w>
Des wegen</w>
yp e</w>
gen es</w>
Zeu gen</w>
Shar e
Phili pp
win d</w>
flü sse</w>
eri scher</w>
besch i
Privat sphäre</w>
Mitt ag
Er fahren</w>
Be ding
12 6</w>
ver mu
re stauri
es pe
25 H</w>
th ern</w>
ck el</w>
br ary</w>
ak te</w>
O u
I L
physi kali
jap anischen</w>
umfass end</w>
b öden</w>
ñ a</w>
pa kete</w>
c y
V IS
J ür
st ed</w>
benutz er
Ü bungen</w>
il y</w>
Wider spruch</w>
Hä usern</w>
F L
Besch i
spie geln</w>
gef ei
Proz ent
Plat ten
Ibi za</w>
Gebäu de
Bre m
wus ste</w>
en os</w>
Wi ki
Verfol gung</w>
Ent deckung</w>
entschei det</w>
ab gegeben</w>
Ro bo
Ha ar</w>
16 5</w>
geni essen</w>
.amaril l</w>
unter halb</w>
inclu de</w>
gül tige</w>
Ort schaft</w>
mus eu
hi bi
gel b</w>
bewäl tigen</w>
Kompon ente</w>
äl teste</w>
u -
s eits</w>
hau t</w>
Anmerk ung</w>
sprech end</w>
kin d</w>
Schreib tisch</w>
te .com</w>
ben e</w>
I A
zus agen</w>
vielfäl tige</w>
unter laden</w>
s 1.
bein ahe</w>
Ch ef</w>
Bi schof</w>
201 6-
versor gt</w>
g ames</w>
Per forman
ca st</w>
M oh
Je an</w>
ko s
eingeri chteten</w>
Hel sin
Gr Ã</w>
Fest ung</w>
vier a</w>
ri x</w>
f iger</w>
Se elen</w>
Re aktionen</w>
M B
Liber alisierung</w>
Gefüh le</w>
zuge fügt</w>
tö ten</w>
fr eit</w>
anti ken</w>
Lei b</w>
In formieren</w>
won ach</w>
regi onen</w>
ei lig
R y
Ra dio
C agli
un ken</w>
d p
stan ce</w>
er mitteln</w>
Wert pap
Vie w
Grü n</w>
Erstaus strahlung</w>
Dienst leistung</w>
Bv R</w>
neue ste</w>
h s</w>
stei l</w>
ell o
Sp in
Mot oren</w>
IN TER
F et
Ch emie</w>
B ut</w>
lin g-
su ch</w>
schl us
ov ol
energ ie
a ve
Ver n
Bes atz
Stu fen</w>
25 5</w>
ver tra
th ink</w>
t chen</w>
faceboo k.com</w>
da zu
c lassic</w>
Programmi erung</w>
M uss</w>
Brie f
spre cher</w>
T auf
Bundes republik</w>
sitz t</w>
optimi ert</w>
The at
ges unden</w>
engli scher</w>
G S
Fin den</w>
sa al</w>
h u</w>
Wün schen</w>
The ater
Ring versu
Kap elle</w>
Ab reise</w>
äuß ert</w>
se cur
auf nahmen</w>
arch ä
Stand orte</w>
Präsent ationen</w>
Oper ationen</w>
La g
Fran z
bli erte</w>
bevölk erung</w>
Pfer de</w>
Ho f
ör tlichen</w>
öh nt</w>
mod elle</w>
ges onder
g her
ent sprechen
Ar n
Aktu ell</w>
qui si
i o</w>
bro v
Versor gungs
Ho b
.amaril las</w>
men ü</w>
hän ge</w>
analysi eren</w>
an cial</w>
Ge web
C la
s y</w>
komp lex</w>
ehr ten</w>
al e
Tu be</w>
Jahrhunder te</w>
Gastron omie</w>
6. 1</w>
dank bar</w>
ch ir
belie bigen</w>
be dingt</w>
R ad</w>
AAAA AAAA
Anmel de
äl tere</w>
ungen .htm</w>
m et</w>
P lease</w>
26 .
zw eiter</w>
S F
n ein</w>
g isch</w>
d ringen</w>
Zer tifizierung</w>
Ver la
Forts etzung</w>
Daten zugänge</w>
ic s</w>
T rent
Nahrungs mittel
Bet on
Über wach
it i</w>
g las</w>
f ull</w>
gehol fen</w>
einge halten</w>
ch el
Zu schauer</w>
gosla wi
Compu ters</w>
w ater</w>
gewand elt</w>
cht sp
tum bl
reib ungen</w>
kri min
fre d</w>
Aktionsp lan</w>
12 7</w>
verstän dnis</w>
sch e-
s li
p ur</w>
mor gens</w>
Schü ler
Ne use
vereinbar ten</w>
sch wan
anwen dungen</w>
Nichtraucher unterkunft</w>
ri g</w>
pri ces</w>
Kin d
über wachen</w>
a. eu</w>
T ü
T V
Kontin ent</w>
k ie
erwä hnen</w>
einge tragen</w>
brei tes</w>
angemess enen</w>
u chen</w>
er fassen</w>
Ti mes</w>
Pet rus</w>
Fla sche</w>
. t
pl atz
behaup tet</w>
alb um</w>
Upda tes</w>
Ho w
ef eld</w>
tour istischen</w>
r unde</w>
Ciuda d</w>
is su
di plo
S ak
Dien sten</w>
1 18</w>
sch end</w>
maß geschnei
lo vely</w>
li ttle</w>
fest zustellen</w>
e ste</w>
alterna tive</w>
Be au
tz e</w>
Ta gungs
v ent</w>
tt ing</w>
heu tzutage</w>
gesetz te</w>
en .</w>
dies mal</w>
Ver stär
E D</w>
Autom o
mon tiert</w>
Rubri k</w>
s we
mö bel</w>
min ü
jähr iger</w>
Fron t</w>
W LAN-
Verlän gerung</w>
Minister präsiden
Char akter
O x
N E</w>
La gerung</w>
D om</w>
opo liti
gehol t</w>
geb ühr
d eln</w>
ct ur
au di
Vis a</w>
S li
ini eren</w>
entr y</w>
ent nehmen</w>
an gef
Sim on</w>
Mag net
8 00
6 00
0 6.
wo zu</w>
s he</w>
hei zung</w>
Kla ssen
Gi ov
E missions
un gewöhn
gehand elt</w>
belieb ten</w>
Gen eriert</w>
rei z
be tragen</w>
-------- --------
win do
entscheiden den</w>
Hu b
ver se</w>
st y
Lab or</w>
zurück kehren</w>
ge sichert</w>
Jose f</w>
ent täu
ell s</w>
begrün det</w>
Miet wagen
196 9</w>
je denfalls</w>
W ände</w>
T um
Pho enix</w>
perfe kten</w>
exzell enten</w>
unter gebracht</w>
reich sten</w>
besu chte</w>
a p</w>
Rat ing
Aus übung</w>
steri ums</w>
entscheiden der</w>
auth enti
U hren</w>
O h</w>
L S-
vor anzu
s ci
m exi
ed es
D I</w>
Afri ca</w>
stärk sten</w>
eist ungen</w>
be freit</w>
11 4
letz tendlich</w>
kün ften</w>
irgend wo</w>
Singap ur</w>
Lein wand</w>
sch a</w>
Fren ch</w>
196 8</w>
ru hen</w>
mess ages</w>
Lebens mitteln</w>
L är
teil zunehmen</w>
kon ser
em ent
be fand</w>
wor te</w>
revolution äre</w>
kul in
he f
Dut ch</w>
29 0</w>
oper ativen</w>
et s
anzu wenden</w>
Pro gno
Kommuni kation
separ ates</w>
r ein
Zahl reiche</w>
fron t</w>
ein stellungen</w>
di gten</w>
Glaub ens</w>
Be fu
ord nen</w>
Geschir r</w>
Ag rituris
il lu
ge tr
an sä
I sa
über wacht</w>
fran k
Ta sche</w>
jen ige</w>
anwes end</w>
Pl atz
Kopen hagen</w>
Aus wertung</w>
12 9</w>
üb lich</w>
lok aler</w>
gu ia</w>
eigen schaften</w>
Ver einfa
For mu
Fen ster
Auf re
. exe</w>
zerstör en</w>
sk op
drän gt</w>
a qu
Cagli ari</w>
amari l</w>
am ent</w>
stütz en</w>
ra chte</w>
mü sste</w>
Sti l
G ul
Ba den</w>
sh e
Ma chen</w>
La ck
Herd platten</w>
2 2-
s ure</w>
jun ktur
ci l</w>
Diagno se</w>
mehr fach</w>
industrie .htm</w>
forts etzen</w>
Sti ll
Rad fahren</w>
M aus
um setzen</w>
pf legung</w>
di versi
ange kommen</w>
Z eh
S ah
Ger ne</w>
Gen ua</w>
rit z</w>
mat t</w>
Bi ke</w>
Mahl zeiten</w>
Alumini um
s v
irgend welche</w>
S N
R ett
R EI
Mus kel
Fra me</w>
13 3</w>
ungs -
ti sierung</w>
resul ts</w>
ord el
Entschließ ungs
at i</w>
Schiff s
Repar atur</w>
Qu er
produ kt</w>
Hei lung</w>
pun kt
ovol ta
au to</w>
ath an</w>
Persön lichkeit</w>
CD s</w>
Bu tton</w>
Bi bi
Alli ance</w>
wör ter</w>
jähr liche</w>
geplan te</w>
Wil le</w>
S ier
13 4</w>
wi dri
g i</w>
ff el</w>
Hier bei</w>
G um
20 ,00</w>
2 25
sp reis</w>
i ka</w>
Re al
Gen uss</w>
verwal tet</w>
automati schen</w>
wen dungen</w>
staf f</w>
p c
mit arbeiter</w>
gemeins ames</w>
da chten</w>
Probl em
Jün ger</w>
verhält nisse</w>
un dern</w>
om -
met all
be droh
Zertifi kat</w>
Pro let
Landwir te</w>
21.0 8.
fol gender</w>
Ober flächen</w>
Instit uts</w>
De fizi
do cum
constru c
arbeit enden</w>
Schwe stern</w>
setz ten</w>
res earch</w>
ent re
di on</w>
ba sierten</w>
Tau chen</w>
ÿÿ ÿ
Nachbar schaft</w>
B iel
verb or
mom entan</w>
art h</w>
Mich el</w>
wen de</w>
un ab
orienti erten</w>
E dit</w>
europ a.eu</w>
Do ma
so on</w>
rei ten</w>
mar ken</w>
lo ck
all zu</w>
Schri ften</w>
Ri viera</w>
N umber</w>
Blo ck</w>
teil nehm
ge zielt</w>
ge wei
In spe
sen det</w>
gra fi
et tes</w>
E ma
Bre akfasts</w>
Aus legung</w>
it o</w>
Santi ago</w>
th af
ph on
personenbezo genen</w>
perfe ct</w>
lie be
f otos</w>
Geb irge</w>
F utter
übri g</w>
zwe ck
ogra phi
b ut
Bri tish</w>
lar ge</w>
auf bauen</w>
a ce</w>
For st
Datei -
D rin
kon to</w>
Hand els</w>
Basi li
la mp
kör per</w>
R eit
Psych o
zi fi
verlei ht</w>
gi en
In betrieb
Du brov
versu chte</w>
lang jährige</w>
aus bildung</w>
Ludwi g</w>
vor kommen</w>
port s</w>
aus führen</w>
Befrei ung</w>
yst ems</w>
türk ischen</w>
region aler</w>
p ho
Er zeugung</w>
D ubli
In spi
Bügel service</w>
Behand lungen</w>
m Ã</w>
leu chten</w>
Lie d</w>
z it
Weiter lesen</w>
M un
Ein gangs
D ort
26 7
spä ten</w>
ro ler</w>
in genie
Lei cht
Gen o
C arb
B am
nah en</w>
gefähr lich</w>
g y
all mäh
2 23
re alen</w>
geh eim
fort gesetzt</w>
T räger</w>
Sch ritten</w>
Prin t</w>
bew undern</w>
Dialo gs</w>
Daten banken</w>
zi one</w>
sen -
Pro tot
Mat thi
K ette</w>
Bo ul
Ca stell
um gehen</w>
Netz werke</w>
Edit or</w>
ter er</w>
po t</w>
geb irge</w>
g .com</w>
Tren nung</w>
Re chen
Hoch schulen</w>
enti erte</w>
ei cher
ar us</w>
I d</w>
14 1</w>
t .</w>
port ugi
mar i
Probl ems</w>
Ge fri
schen ken</w>
reis ende</w>
m em
Phän omen</w>
Off ic
Bo ots
Ab bildungen</w>
versch mutzung</w>
hei lige</w>
Nutz ern</w>
14 2</w>
zwin gen</w>
wür fe</w>
ge ho
Wohn sitz</w>
Grund rechte</w>
ult ure</w>
b ach
an ia</w>
ag ing</w>
K lang</w>
F uss
Dubli n</w>
stell vertret
hal tene</w>
Shu tt
oh l
ganz es</w>
en ni
ausge geben</w>
aus wahl</w>
Mod ellen</w>
-0 4-
finanzi erung</w>
dies jährigen</w>
P el
Bereit schaft</w>
honduras .gui
eins atz</w>
chil e.
b ele
an bieter</w>
de cke</w>
Peters burg</w>
us ing</w>
s ent</w>
irgend wie</w>
ge stärkt</w>
Sil ber
Ri ca</w>
Mehr ere</w>
Bes or
è s</w>
zu kunfts
einheit liche</w>
Ver größ
Geri chten</w>
St y
Sol utions</w>
Se arch</w>
Mechan ismus</w>
ge füllt</w>
brü cke</w>
Ita lia</w>
h ellen</w>
vermi eden</w>
so fa</w>
Re form
In dem</w>
vor rangi
Se el
Konta ktieren</w>
ver liert</w>
Pe ti
Interess en
Aussch ü
hin ein
do s
Tick et
Post leit
schir m</w>
Sch af
S. A.</w>
Du bai</w>
C ET</w>
Bet racht</w>
Ameri kaner</w>
Ku chen</w>
Dau er
ä len</w>
ri a</w>
ide alen</w>
Reguli erung</w>
Ge d
oper ative</w>
künstl erische</w>
gere det</w>
Est land</w>
Dritt ländern</w>
Distribu tion</w>
Co ur
sti sches</w>
s co
höch st</w>
gu tem</w>
ell ent</w>
bi ologischen</w>
- Email</w>
wa ffen</w>
ni scher</w>
Ma zed
G lan
F ood</w>
Ep iso
wl .
ver glichen</w>
tre u</w>
r einen</w>
lok al</w>
k alien</w>
Symb ole</w>
Mark us</w>
Lehr en</w>
Komp lex</w>
Bus se</w>
5 .000</w>
2. 5</w>
196 7</w>
ge treten</w>
ell em</w>
Sie mens</w>
Netz e</w>
kompon enten</w>
comm ent-
Tai wan</w>
Repar atur
Natur schutz
Met a
v ie</w>
komfort ablen</w>
beru hi
Che mische</w>
west lich</w>
tumbl r.com</w>
tic al</w>
ge steuert</w>
Port folio</w>
F akul
u lation</w>
mess age</w>
gesellschaft liche</w>
be friedi
Kooper ations
K leider</w>
C e
Auf stieg</w>
ä uren</w>
vor sichtig</w>
mehr erer</w>
gener ell</w>
Co mi
tz eit</w>
com fortable</w>
ab stra
M ale</w>
Lie der</w>
Begrün dung</w>
le gend
ein ig</w>
bedeutend sten</w>
Fin ger
Argum ent</w>
erforder liche</w>
Ver sicherung</w>
Al ten</w>
wid men</w>
ing u
er freut</w>
eig entliche</w>
Weiter hin</w>
Strän den</w>
Jung frau</w>
Argum ente</w>
3 80</w>
su cc
Ther mal
Aus arbeitung</w>
27 -
kon tin
bes orgt</w>
auf weisen</w>
In tel</w>
F C</w>
Besch lüsse</w>
sol e</w>
schle chte</w>
mal erischen</w>
kan oti
imm er
d ney</w>
Implem entierung</w>
Er mäß
Air es</w>
gen eriert</w>
di v</w>
zur zeit</w>
offenbar t</w>
mittelalter lichen</w>
dis c
Willi am</w>
Opposi tion</w>
Lob by</w>
Kapitali smus</w>
Deta il
Bu enos</w>
50 00</w>
wl. static.fotolia.com</w>
län dische</w>
ka pazität</w>
ev en</w>
da u</w>
St ress</w>
Sozial demokra
Poly ester</w>
In halts
G let
Aus be
c ent
Sebasti an</w>
Proto koll
K L
Über nahme
p ar</w>
enor me</w>
Zeit alter</w>
Kan äle</w>
Gemä ß</w>
Ar ena</w>
Al te</w>
49 9</w>
p le
basier end</w>
asp x</w>
Train er</w>
Su bje
C amp</w>
ei ra</w>
M W
Gitar re</w>
Alterna tiven</w>
- out</w>
on d</w>
lo ses</w>
Lebens qualität</w>
ver lin
s ale</w>
mit geteilt</w>
Mom ente</w>
ver mehr
k us
hol z
U B
O ver
Lin u
For en</w>
ph p
Vit amin</w>
Swimming pool</w>
yo ut</w>
eg ro</w>
di tions
be gan
anz unehmen</w>
V äter</w>
Stockhol m</w>
S H
Be achten</w>
si a</w>
regelmäß ige</w>
p et
ac a</w>
Ver mitt
Reg isseur</w>
Mo de
Ka pazitäten</w>
sp lan</w>
ph ar
itä t
ens -
Konzep tion</w>
Arznei mittel</w>
dra ht
ausger üstet</w>
Schön e</w>
P E</w>
N eb
Gan ze</w>
d ü
at ta
Sho ws</w>
NAT O</w>
B all</w>
stra ßen</w>
ad .
Ver suchen</w>
V I</w>
Pa ssi
N ep
Kompl ett
Gu ta
Fig ur</w>
poli s</w>
bür ger</w>
En dlich</w>
0 7.
ver w
urop ä
unbegrenz ten</w>
an isch</w>
Su ites</w>
Pak istan</w>
stopp en</w>
Geb ir
2 15
regelmäß igen</w>
mü ssten</w>
di erte</w>
Z ir
Dire ctor</w>
Aktu alisiert</w>
un zur
mi thilfe</w>
ht ml
EN T</w>
y a
ab ends</w>
R us
ÿÿÿÿÿÿÿÿ ÿÿÿÿ
wö hnen</w>
g keit
festiv al</w>
WT O</w>
um gehend</w>
per s</w>
konsequ ent</w>
Gü ter</w>
Al gorith
Ac tion</w>
über lassen</w>
mu tter</w>
eg er</w>
St ri
Ro ut
Ba ch</w>
es p</w>
er -</w>
beschleun igen</w>
Ko mi
Imp ort</w>
Gesetz es
CO 2</w>
freund licher</w>
Vor träge</w>
Unter kategorien</w>
M ET
äuß ern</w>
ho ust
S B
Ba den-
star ker</w>
bei der</w>
all a</w>
Panoramab lick</w>
Beding ung</w>
.com .</w>
P ad
organi sierten</w>
haupt stadt</w>
es c
Pa ss</w>
Jun ior</w>
fol lo
Fü ßen</w>
Pier re</w>
N iem
Je den</w>
differ en
Universi täts
Exp ort
mer k</w>
hie ß</w>
a ss</w>
H uman
kre di
kap ital</w>
jen em</w>
Treib haus
Profession al</w>
Di plo
Cir que</w>
C AR
Blo gs</w>
religi öse</w>
on line-
bau er</w>
Sand strand</w>
Inter face</w>
Hy dro
H olo
hil fs
glau b
K rei
G E
90 01</w>
e ach</w>
char man
beton te</w>
beg ünsti
Ver mittlung</w>
Con ference</w>
kor ea</w>
j as</w>
Wohl befinden</w>
Sen dung</w>
Ro t</w>
B eine</w>
auff or
Wi chti
Kar din
vorhand ene</w>
rieb ene</w>
mitt eilen</w>
land wirtschaftlichen</w>
gesch mack
ständi ges</w>
War m
Proven ce</w>
Kerami k</w>
A I
modu l</w>
lä nen</w>
ide aler</w>
eig entlichen</w>
öpf e</w>
um so</w>
t un
stab il</w>
s .de</w>
nör dlichen</w>
beg inn
Vi er</w>
N L</w>
ro ll
B ier
An griffe</w>
www. ca
wirt schaften</w>
h oll
g ator
deta ils</w>
bibliothe k</w>
Sti pen
Hand hab
Gläu bigen</w>
ver wiesen</w>
eur em</w>
einzel ner</w>
unglaub lich</w>
l bs</w>
dyna mische</w>
datab ase</w>
Schwei ß
Re cord</w>
H i</w>
Fahr zeugen</w>
Col lege</w>
wer ks
s é</w>
mit -
ge storben</w>
Mana gement
Mal ware</w>
Explor er</w>
Aus w
A tem
12 4</w>
u eber</w>
p ari
konver tieren</w>
hoch schule</w>
U-B ahn</w>
Kan arische</w>
G T
Ar ti
1. 1</w>
durchschnitt liche</w>
Win kel</w>
W elle</w>
N ap
Erwachsen en</w>
A dam</w>
ym na
fra gten</w>
enz a</w>
vorzu legen</w>
t et
em ents</w>
Bemerk ungen</w>
Be achtung</w>
qu esti
bre ch
ad ing</w>
St ore</w>
Gri ff</w>
1. 5</w>
uni versi
lo ß</w>
erfahr enen</w>
blau e</w>
Vit am
R af
ver teilen</w>
l .</w>
g st
ett i</w>
Beg leitung</w>
An kündigung</w>
scre en</w>
pf e</w>
Nä chste</w>
Vor schlägen</w>
Ma ssen</w>
Ander erseits</w>
17 -
geräumi gen</w>
gem el
chen -
span ische</w>
ries ige</w>
hil e</w>
Sti lle</w>
S L
mm ung</w>
häufig sten</w>
be waff
Per u</w>
h et</w>
Rück seite</w>
umge kehrt</w>
tho do
hr a
fa ktor</w>
Te ppi
Hon g</w>
ens werte</w>
U C
Hand lung</w>
3 30</w>
2 .000</w>
10 .000</w>
be zeichnen</w>
www. f
vor herigen</w>
lin ke</w>
Po ker
Gewin ne</w>
E ch
Administra tion</w>
vor schläge</w>
gegensei tig</w>
erziel te</w>
Go u
Ab stra
ag a</w>
Beschwerde führerin</w>
í k</w>
spr ung</w>
ali stische</w>
Nach richt
Hoh en</w>
ra k
be o
Web cam</w>
Lan guage</w>
Gra phi
Er wä
Ch arta</w>
ser ie</w>
hro om</w>
Frei e</w>
Einzel nen</w>
Di r
v in</w>
de ter</w>
ca che</w>
Liban on</w>
G rau
tot al
klär en</w>
Mini mum</w>
ki a</w>
elle ktu
dama ligen</w>
außerord entlich</w>
Kamer as</w>
H unger</w>
18 5</w>
13 6</w>
ÿÿÿÿÿÿÿÿ ÿÿÿÿÿÿÿÿÿÿÿÿ
zi a</w>
ko s</w>
ein g</w>
Kur s
Helsin ki</w>
wa schen</w>
heraus finden</w>
Leu cht
R eiten</w>
Erinner ungen</w>
telefon ieren</w>
fest legen</w>
beher ber
all e
grei cher</w>
fol gten</w>
fas ste</w>
M ON
An ordnung</w>
19 6</w>
her bei
g on</w>
erwär mt</w>
Zent rums</w>
Er laubnis</w>
Tele fax</w>
Li mi
F els
th ers</w>
sten z</w>
stan z
sta tion
mm el
kan al
derzei tige</w>
Erschein ung</w>
sex uellen</w>
re ad</w>
engli sche</w>
Le der
hal l</w>
Produ zenten</w>
Net to
Män gel</w>
Cat egory</w>
Bau teile</w>
tau schen</w>
sin gen</w>
s um</w>
Wi chtig</w>
Bibi one</w>
sicht baren</w>
or ing</w>
glo bal
c lose</w>
Zentr ale</w>
Matthi as</w>
Hol ding</w>
3. 0</w>
ð A
Zu cker
V ÿÿÿÿÿÿÿÿÿÿÿÿÿÿÿÿÿÿÿÿ
Jahres zeit</w>
wunder baren</w>
stück en</w>
r ung</w>
ge änder
w all</w>
ma s
Pres ident</w>
wenig stens</w>
No ti
Man hat
Land schafts
nö tige</w>
ent ransfer</w>
Mi gran
Go is
Execu tive</w>
Abrah am</w>
14 4</w>
zusammen gestellt</w>
masch in
ani scher</w>
N ET</w>
Kompromi ss</w>
K ak
Exc el</w>
Energi es
Besch leun
B .
Anre gungen</w>
un ent
ger egelt</w>
UNG EN</w>
S R
Harmon ie</w>
Gemein de
um liegenden</w>
schlimm sten</w>
hier mit</w>
Wor l
W E
Tschech ien</w>
Prüf ungen</w>
woh in</w>
erheb lichen</w>
er hielten</w>
M einer</w>
Lo ch</w>
Express -
C all</w>
0 9.
u kra
kop f</w>
a e
St amm</w>
Aus wahl
gew ählte</w>
er be</w>
con si
Stra fe</w>
Arbeits gruppe</w>
bes etzt</w>
Gra tis</w>
Berat ungen</w>
steigen den</w>
aus gebaut</w>
o f
größ ter</w>
artik el
Ex por
26 -
technolo gischen</w>
fern sehen</w>
ess o</w>
d ritt
Ku li
medi en</w>
Do wn
wick elt</w>
sicher er</w>
o i
m ing</w>
diesel ben</w>
demon stri
Hal testelle</w>
wirk ungs
pal ette</w>
exp lo
Sing le</w>
G H
kri tischen</w>
ex akt</w>
ab or
Schi cht</w>
2 1,
viron ment</w>
n um
ak er</w>
T rü
Se kunde</w>
Schw ing
Schul ungen</w>
Einschrän kungen</w>
i da</w>
dor thin</w>
Terra ssen</w>
T EL</w>
Neuse eland</w>
Frei burg</w>
ra mi
pap ier</w>
er arbeitet</w>
Tor re</w>
G ood</w>
ordel ingen</w>
er wiesen</w>
be zauber
Reise zielen</w>
2 28</w>
ver handlungen</w>
et wa
engagi ert</w>
beschrän ken</w>
Pflan ze</w>
Kon g</w>
Je an-
197 1</w>
p unk
P .
Gu est</w>
är z
veröffent lichten</w>
unterbro chen</w>
uertorico .com</w>
shi p</w>
f M</w>
ehr lich</w>
Verteidi gungs
Flo tte</w>
Fahr räder</w>
zer tifiziert</w>
kran ken
inc lusive</w>
an fän
Verb and</w>
König in</w>
soli de</w>
beo ordelingen</w>
wi tter
sp uertorico.com</w>
schwa che</w>
geschloss ene</w>
Z orn</w>
Ro sa</w>
Rei fen</w>
go -
gesund heit
Vis u
Minder heiten</w>
Met al</w>
www. facebook.com</w>
teil genommen</w>
p as</w>
cat alog</w>
Ro bot
Regier ungsch
Fabri k</w>
Ec ologi
C ô
100 g</w>
-0 9-
pag nen</w>
er zeit</w>
eleg ant</w>
ad ded</w>
Sens oren</w>
.c ache</w>
zwi schen
tie fer</w>
stri ch</w>
auf tritt</w>
Well en
V alle</w>
Passagi ere</w>
sta ste</w>
ft s</w>
Qualitä t
P ER
M .
günsti gsten</w>
den jenigen</w>
biet ern</w>
bel a
St ur
Fotogra fi
Flei sch
Tol er
M esser</w>
Entwicklungs länder</w>
De cke</w>
Auseinander setzung</w>
st abili
r isch</w>
ini sche</w>
Viet nam</w>
verwirk lichen</w>
lin der</w>
illeg alen</w>
cle an</w>
Verkehrs mittel</w>
Sier ra</w>
10. 00</w>
über tragung</w>
städ tischen</w>
be antwortet</w>
b undes
ausgew ählte</w>
Katastroph e</w>
Hei lig
wo mit</w>
wer tes</w>
voraus sichtlich</w>
str auss</w>
kombini eren</w>
er bare</w>
Zwan gs
Veranstal ter</w>
Harmon isierung</w>
H R
Aus stell
ersch affen</w>
Temp o</w>
Roh stoffe</w>
Ange sicht</w>
An ten
nör dlich</w>
con tact</w>
Vict oria</w>
La b</w>
E he</w>
C o</w>
sch win
em bed</w>
e c</w>
dauer haft</w>
a way</w>
Un g
Nor m</w>
Klin ik</w>
Eben falls</w>
Ad vent
ange pa
10 .0
mi cro
ei ls</w>
an stelle</w>
CS S</w>
Behand lungs
Aspe kten</w>
59 09
kanoti x.com</w>
Schi chten</w>
R ank
Kne cht</w>
Bä der</w>
A ver
ô tel</w>
Öff nen</w>
2 1-
ko chen</w>
boo k
aus gehen</w>
Investitions bank</w>
Dubrov nik</w>
tion ale</w>
ssi ge</w>
Se gen</w>
Min .</w>
Ad van
gramm s</w>
bo den
Amaril la
8 50</w>
vert rieben</w>
ta -
gegenwär tige</w>
ge stiegen</w>
Conver ter</w>
öst lich</w>
lauf end</w>
j son
günsti ger</w>
groß artige</w>
Mün zen</w>
Er satz</w>
grö ßen</w>
körper liche</w>
be fore</w>
Z ig
off ers</w>
d n</w>
Wirtschafts wachstum</w>
Tisch ten
Haup t</w>
E as
D ame</w>
di gkeit</w>
So fern</w>
S mart</w>
Nach weis</w>
Archi ve</w>
star kes</w>
ka bel</w>
c in
bur g
Ma xi
Bak terien</w>
B oh
A pothe
ord s</w>
la di
kat holischen</w>
gän ger</w>
dy l
Vil lage</w>
Bor reli
Ab bau</w>
br and
an ci
Verletz ungen</w>
Medi cal</w>
Gef ähr
über aus</w>
lei ste</w>
Persön lichkeiten</w>
Ge geb
Dar m
Bud get</w>
u le</w>
stren g</w>
Wettbewer bs</w>
Pf lichten</w>
Halb pension</w>
Gastfreund schaft</w>
Appli kationen</w>
parla ment
mechan ische</w>
hö fe</w>
fort geschritt
Jür gen</w>
Auffor derung</w>
30 .
sy s</w>
bi ert</w>
vor liegen</w>
pflan z
ch enen</w>
Sp ä
Ge wür
z es
lan gem</w>
hil fe
Re präsent
Char ak
mün dlichen</w>
dyna mischen</w>
L is
A t</w>
physi schen</w>
om bar
ersch ni
defin ierten</w>
Archite ktur
schal li
pa ge
domini cana
Sch alter</w>
Ro se</w>
16 .08.2015</w>
zü gen</w>
as on</w>
Auf tritt</w>
ver läuft</w>
geb enden</w>
ens eite</w>
LE S</w>
Bet eilig
Aus flu
wirk liche</w>
unterschied lichsten</w>
ss on</w>
ei sen
be ck</w>
Plan et</w>
Kinder spiel
High lights</w>
rau t</w>
ck y</w>
Zu stell
Wer ner</w>
Um wand
Hein rich</w>
C ana
u 04
thr e
et o
ent stand
einge bet
Tex til
Eta ppe</w>
Er hol
Eis en</w>
m ult
Stat t</w>
relev ant</w>
hinter lassen</w>
S la
Govern ance</w>
ie f</w>
Schwer punkte</w>
Fra ge
Er reichung</w>
BI T</w>
pf lege</w>
kommuni zieren</w>
bein g</w>
-0 5-
unterschie d</w>
aus einander</w>
an bietet</w>
Kompon ist</w>
En zy
unvergess lichen</w>
stand ard
kommerzi elle</w>
ge gebenen</w>
auf enthalt</w>
Zei chen
Vertra ges</w>
K ana
IC H</w>
Ab sendung</w>
verschie bung</w>
komm ens
Stör ungen</w>
Infra struktur
Hy bri
leben dig</w>
lat ein
Rau ms</w>
M D-
strate gien</w>
Th anks</w>
Ma j
bra ch</w>
bi ger</w>
ausge deh
Zeit plan</w>
Wass ers</w>
Vorsitz ende</w>
I mpf
ori al</w>
mehr mals</w>
bel eb
Niem and</w>
Besch aff
36 5</w>
25 0
genü gt</w>
c are</w>
O ur</w>
vor auss
im -
benö tigten</w>
ak s</w>
Monit or</w>
kehr te</w>
Caf és</w>
Beg eist
A mm
2 27
ver wöhnen</w>
L aus
An sätze</w>
re views</w>
rapi d
mi um</w>
blo g.
Unter drück
Del ta</w>
A ds</w>
9. 2015</w>
qu ar
Wohn flÃ</w>
Heidel berg</w>
2 24
leu ten</w>
intensi ven</w>
aktu ell
Panor ama
Nur ag
C F
14 7</w>
Vor bild</w>
Schw ellen
Mü he</w>
FA Q</w>
qu anti
is h
fami ly</w>
Tran si
Rück en
Kreu zung</w>
Iden tifi
G ün
Des ktop</w>
Bemerk ung</w>
Y a
U N</w>
Stä mme</w>
Schnitt stellen</w>
Miss brauch</w>
D ES
www. t
sho wn</w>
et tet</w>
endgül tig</w>
Erschein ungs
Ben j
ein zeln</w>
be oba
aus rüstung</w>
Sch ach
Re st
R inge</w>
Mala ysi
Le er
H ur
Fl usses</w>
3 15</w>
28 .
ta tions
sch aut</w>
f ö
S äm
M e</w>
For ce</w>
win a</w>
statt gefunden</w>
an fangen</w>
Z el
X ML</w>
MT U</w>
El tern
Beh au
An sprüchen</w>
An bau</w>
www. s
organi sierte</w>
herkömm lichen</w>
go t</w>
erneuer baren</w>
Hall en
wun sch</w>
with out</w>
stärk ere</w>
res ulti
einma lige</w>
Verhält nisse</w>
D oll
D ER
zu greifen</w>
fa ktoren</w>
Vertrags verletz
Sonnen terrasse</w>
Residen z</w>
Dro gen</w>
Cat al
14 6</w>
Re vision</w>
P T
keines wegs</w>
began nen</w>
Zivili sation</w>
Verlu ste</w>
I C</w>
2 26
verl or
unzäh lige</w>
provi ded</w>
ober halb</w>
geschütz ten</w>
ab i
Si li
Re port</w>
Herstell ern</w>
Haf t
Finanz krise</w>
29 .
13 7</w>
ner in</w>
mot or
her ap
Sp al
Kar toff
Erneu erung</w>
palästinensi schen</w>
Nachfol ger</w>
K ammer
Ex position</w>
ma chung</w>
komm ende</w>
c ul
Her unterladen</w>
C lassic</w>
, 5</w>
vi a
s ein
le ft</w>
ger man-
endgül tige</w>
Schla cht</w>
Frankfur ter</w>
z essen</w>
jahr e</w>
Zu ständigkeit</w>
L eh
zu g
ver schaffen</w>
Joh n
Flori da</w>
Ergeb nis
sprech ende</w>
kt -
etz ten</w>
es .htm</w>
an re
Qu e
Befesti gung</w>
ämpf er</w>
hand lung</w>
h te</w>
g ur
Ver zeich
Phot ovolta
Au st
ück e</w>
ver setzt</w>
er lassen</w>
T ore</w>
Besch l
-0 1-
schmer z
phil os
pat ch
Zu liefer
Stre cken</w>
Dort mund</w>
vi sion
priv ater</w>
außergewöhn liche</w>
No w</w>
De part
Al -
über wachung</w>
li siert</w>
image .php</w>
i siert</w>
I s</w>
F ris
Are a</w>
er tem</w>
Blumen strauss</w>
Beit ritt
be wirkt</w>
Host els</w>
Grö sse</w>
schul dig</w>
s u</w>
o cher</w>
V W</w>
Stu dent
Höh le</w>
Her ren
H itze</w>
49 -
sti r
aus gaben</w>
ant i</w>
Mond wechsel</w>
Mikrowellen herd</w>
Chi r
Beschäf tig
gel ist
ab gesehen</w>
O C
Fa ir
Di stanz</w>
Bau jahr</w>
19 43</w>
el o
c oo
aus en</w>
arb en</w>
Holi day</w>
Disk us
Ar m</w>
Ac ces
wäl te</w>
ung ül
tic a</w>
p le</w>
p .</w>
israel ischen</w>
gg f.</w>
en dem</w>
be cause</w>
Gre en
Ge fahr
Bar mher
6 e
sur -
k k
dokum entiert</w>
Univers um</w>
zu stimmen</w>
w ein
te sts</w>
c f
Hu bert</w>
zu cht</w>
cht est</w>
Schul den</w>
K ul
Fe edback</w>
An dr
te ch</w>
qu eren</w>
glei cher</w>
O ft</w>
Na zi
Mann schaft</w>
Ha mas</w>
Beschäf tigten</w>
Bel gi
18 0
zufrie den
mä chtigen</w>
Wahrschein lichkeit</w>
N Y-
Interpret ation</w>
Besichti gung</w>
verlän gert</w>
tran sport</w>
kö ni
jähr ig</w>
gener ation</w>
Staatssek retär</w>
J ord
Dor fes</w>
Ba ck</w>
ir o</w>
hervor gehoben</w>
geleg te</w>
bet reibt</w>
aus glie
S ha
Plat tformen</w>
Manhat tan</w>
Infra strukturen</w>
Dar in</w>
fol gend</w>
erklär ung</w>
T ut
Re d
Inter views</w>
-F e
unbegrenz te</w>
fun ction</w>
dur ing</w>
H rs
tre cht</w>
Sp er
Chr is</w>
C aliforni
- System</w>
st ent</w>
si schen</w>
Tastat ur</w>
Mazed onien</w>
Lig ht
IS T
Christop h</w>
c os</w>
akter i
T T
K ey</w>
Handhab ung</w>
to kol
medi zin</w>
frei es</w>
de .htm</w>
Spra chen
Samm el
ÿÿÿ ÿ</w>
ä ure</w>
k alt</w>
ges endet</w>
W H
Europ a-
Beri chten</w>
we sten</w>
ra ff
ab gelegt</w>
Tra vel</w>
Mel o
Infe ktionen</w>
Administra tor</w>
us r</w>
un denen</w>
spar ungen</w>
Wel ten</w>
Um frage</w>
ver ordnung</w>
net te</w>
kri tische</w>
gew inn</w>
Soci ety</w>
How dy</w>
Fest stellung</w>
D M
201 5
zi gkeit</w>
ste ckte</w>
m ust</w>
fi a</w>
benach bar
P lätzen</w>
Econ omi
Dampf bad</w>
unter halten</w>
hal tes</w>
col le
bewahr t</w>
Tick et</w>
Er sten</w>
0 5.
tra gungs
technolo gische</w>
t oll
rupp e</w>
ausglie fert</w>
Up lo
Komm en</w>
I stri
G uten</w>
Du ft</w>
Bos nien</w>
Aufer stehung</w>
erneuer bare</w>
nach lässi
hr e</w>
en der
Fa c
2 F</w>
par a
gew ohnt</w>
f ood</w>
deut liche</w>
be schei
15 2</w>
net es</w>
kon soli
ge worfen</w>
em ann</w>
Sorg falt</w>
v s</w>
ge zählt</w>
Vorsitz enden</w>
Turni er</w>
Sol arium</w>
Oper a</w>
My SQL</w>
M und
mana gement
len ken</w>
gehöri gkeit</w>
dire kter</w>
betre ut</w>
St ran
Son y</w>
Ein leitung</w>
14 9</w>
pro ble
li ges</w>
fiel en</w>
bi k</w>
Auf gaben
anzus ehen</w>
Steu er</w>
Spi rit
S Y
Gra z</w>
Enter tainment</w>
Bil l
würdi gen</w>
net t</w>
imp ort
D EN</w>
Ban ken
Aufent halts</w>
Überna chtungen</w>
ver t</w>
pp ed</w>
gül tigen</w>
gefei ert</w>
fun da
Sp ur</w>
M ER</w>
H P</w>
Gum mi
13 0
wi dmet</w>
se e
pa cken</w>
optimi zed</w>
iden tifiziert</w>
fa c
C lo
Bo zen</w>
Aus ser
4. 0</w>
a construc
Inbetrieb nahme</w>
Herz lich</w>
Fran ken</w>
Dri ve</w>
zügi gkeit</w>
fü gte</w>
fabri k</w>
beabsichti gt</w>
S enkung</w>
Beschwerde kammer</w>
s bru
prin t</w>
ma y
erkenn bar</w>
display image.php</w>
R ES
Ly on</w>
Hrs g</w>
Dimen sionen</w>
2 25</w>
13 8</w>
her um
Gra mm</w>
G ER
Bä umen</w>
Besonder e</w>
zu laden</w>
th aus</w>
il a</w>
attra ktive</w>
Logi stik
ti ck
einfa ches</w>
beur teilen</w>
alo ge</w>
Wu pper
Joh ann
F und
Eink auf</w>
2 2,
w est</w>
c ent</w>
Proph et</w>
Dokument ar
Anmerk ungen</w>
unzur eich
stei gerung</w>
on al</w>
eb e</w>
Ri chtungen</w>
Mw St</w>
Unter zeichnung</w>
Süda merika</w>
Sch afe</w>
Politi ken</w>
L T
qualifizi erten</w>
festzu legen</w>
dal las
b na
r ele
Spiel ern</w>
Kre bs</w>
Ein -</w>
Ab lehnung</w>
sch m
neu em</w>
man tel</w>
m ech
kop ieren</w>
kat holi
Un s</w>
Spei se
ho ven</w>
ein nehmen</w>
Schlaf zimmern</w>
Materi als</w>
In k
Ten eri
Pha sen</w>
Hon dur
Be wu
ver arbeiten</w>
such ung</w>
re stlichen</w>
gerä umt</w>
b ie
Vor jahres
T in
Sub stanzen</w>
Pil ot
räsiden ten</w>
di s</w>
Zü ge</w>
Informations schalter</w>
Bi o-
19 -
lan gu
Vor feld</w>
Schie ds
Präzi sion</w>
Ma a
w ählt</w>
rei ft</w>
gol d</w>
el f</w>
Eigent ums
ung .de</w>
ss pra
eb o
Spe kt
S ER
Mili tä
beg lück
Wieder aufbau</w>
Re view</w>
Premier minister</w>
O fen</w>
Daten bank
wün schte</w>
si es</w>
man uell</w>
einzi ges</w>
einzi g</w>
eas y</w>
diver sen</w>
ar tiger</w>
a vi
Sou ven
Ku pp
AB l</w>
stren gen</w>
st ün
jeman den</w>
e very</w>
D eli
Agent uren</w>
Spre cher</w>
Krimin alität</w>
erweiter ten</w>
ch ert</w>
Wol f</w>
Liefer umfang</w>
F ett
н и
haus -
ges u
g ter</w>
den selben</w>
Ni zza</w>
Mei len
endgül tigen</w>
el ess</w>
eingeb unden</w>
Stau b</w>
LE D-
versor gen</w>
ver lu
rü ckt</w>
Typ e</w>
Andre a</w>
19 60</w>
t tem
ri t</w>
man u
grö ss
be dient</w>
J ust</w>
Gü ter
An träge</w>
196 6</w>
ä gyp
vorgeschla gene</w>
schein end</w>
der mann</w>
Ver mi
Exp an
Ant rieb</w>
4, 5</w>
tradition ell</w>
su chte</w>
deut lichen</w>
an schließen</w>
Potenti al</w>
Ge be
E ther
21.08. 2015</w>
unter teilt</w>
stom er</w>
k art
gel ebt</w>
28 -
enn ale</w>
app ro
IP- Adresse</w>
00 PM</w>
we cken</w>
ber ater</w>
Pen is</w>
Mitglieds staaten</w>
Mer an</w>
Hu man</w>
Do main</w>
ali ty</w>
Mau staste</w>
4 .jpg</w>
10 9
st art
sp ritz
g oo
et tel</w>
car te</w>
b as</w>
Ta b</w>
Ski pi
Par tei
stra tionen</w>
o .de</w>
gel an
Kl etter
über ein</w>
versch är
ste tig</w>
schwer er</w>
beherber gt</w>
Studi erende</w>
Ri chtigkeit</w>
Fer r
Er zäh
20 1</w>
2 31</w>
verbrei ten</w>
sel ts
le er</w>
Zeich nung</w>
Band breite</w>
wieder herzustellen</w>
verwirk licht</w>
grün dete</w>
Oliven öl</w>
Höl le</w>
Hondur as</w>
Gewä sser</w>
ssi gen</w>
resul t</w>
kun ft
gemeinschaft lichen</w>
fu hr
Ma gazine</w>
16 0
zip lin</w>
schei be</w>
renommi erten</w>
in nen
Religi onen</w>
Herz ego
Fra ktionen</w>
stör ungen</w>
se mi
Mo dern</w>
F inger</w>
Eleg anz</w>
Basi c</w>
wirk samen</w>
verknü pft</w>
bi ologische</w>
O tto</w>
O hr
Le ar
La den
Beschrän kungen</w>
vor teil
sor ten</w>
on nen
gr a</w>
genau en</w>
be merkt</w>
Proze ß</w>
Tun esien</w>
T rieb
Squ are</w>
R eu
Br and</w>
Besonder es</w>
3 40</w>
prei s-
ill s</w>
bi sche</w>
aufge hoben</w>
Ru dol
Gast geber</w>
For mate</w>
ressour cen</w>
sicht bare</w>
Künstler in</w>
J h</w>
Ge wis
E-Ma ils</w>
1, 2</w>
w ahlen</w>
f y</w>
as i</w>
Räum lichkeiten</w>
Geschäfts ordnung</w>
über wäl
i ken</w>
gel tend</w>
be ach</w>
Rei senden</w>
J ä
Ak zep
ro -
gele genheit</w>
as h</w>
Impul se</w>
Hil l</w>
Agrar politik</w>
P ots
Für sten</w>
stechnolo gie</w>
Se a</w>
Sau er
Re k
M aler</w>
G F
tra ining</w>
tex as</w>
do es</w>
Wasserk ocher</w>
Glaub ens
G ad
grenz ung</w>
beauftra gten</w>
HD- install</w>
An fahrt</w>
ver weisen</w>
schnell ste</w>
op tionen</w>
cep t</w>
Bran chen
telefon isch</w>
agi eren</w>
Se qu
Frei heiten</w>
E ier</w>
om at
fahr ung</w>
an des</w>
Hei den</w>
Bis her</w>
Aus sen
z e-
unterstütz e</w>
n at
ist isch</w>
gra u</w>
H e</w>
Geweb e</w>
vor zunehmen</w>
stan t</w>
Trans aktionen</w>
Telefon nummer</w>
So weit</w>
Si zi
C S</w>
Ti rol</w>
Res our
stei l
be deckt</w>
a .htm</w>
Sch ad
Hoch zeit
aus gelöst</w>
archi ve</w>
Wi d
R un
Mehr wert</w>
1, 6</w>
ur g</w>
th an
sp ac
bri dge</w>
ar me</w>
10 6
qualifizi erte</w>
dem selben</w>
bedro ht</w>
war f</w>
verk ür
la hab
städ te</w>
om exi
d in</w>
A z
mot or</w>
ernst haft</w>
S ci
Mini -
Californi a</w>
Auf hebung</w>
2015- 10-
.co. uk</w>
vor liegende</w>
F Ü
schalli soli
ri eren</w>
ck ing</w>
ch tt
R é
Mari o</w>
Komp onisten</w>
In se
G abri
Fü ll
Eli sa
Aus ge
schie ßen</w>
r é
omexi co.com</w>
intelligen te</w>
ci ous</w>
Zentral bank</w>
ä umen</w>
vor liegt</w>
unver ändert</w>
ti sch
bur gh</w>
apart ments</w>
Mittel alter</w>
F F</w>
Erweiter ungen</w>
39 9</w>
zy klus</w>
nuev omexico.com</w>
ho f
ama zing</w>
Mon ten
Giov anni</w>
F eli
Bar o
Ru inen</w>
O ut</w>
Gi pfel
20 2</w>
ver zö
einschlä gigen</w>
berech nen</w>
Bla u</w>
kin der
Rück gabe
Kraft stoff
EW G</w>
öh nung</w>
kostenfrei em</w>
in tui
g at
a sk
Vall ey</w>
Sport s</w>
. ru</w>
so g.</w>
niedri ge</w>
netz e</w>
j ar
in vest
s in</w>
lahab ana.net</w>
g liches</w>
Werk statt</w>
Mor gen
Ehr en
Begeist erung</w>
s end</w>
pro mo
ge ther</w>
be -
S krip
Aus nahmen</w>
00 00
-0 3-
zeh nten</w>
schi enen</w>
op er</w>
horizon t
entfer nten</w>
col or</w>
ani erung</w>
Lei d</w>
Bel eg
17 2</w>
g lich
Er ziehung</w>
Automobil industrie</w>
lossen heit</w>
e ze</w>
all ow
ak a</w>
Sen si
Ein wohnern</w>
.c o</w>
-0 7-
ss e
onom ie</w>
Jo e</w>
sa y</w>
kat astroph
forum .net</w>
Flughaf entransfer</w>
Fin ancial</w>
näch ster</w>
is m</w>
ök ologische</w>
w ell
verschie den</w>
un geh
Star ten</w>
Logi k</w>
10 24
forder ten</w>
bereich s</w>
aus wirken</w>
Th at</w>
P fe
Klar heit</w>
Akt ie</w>
ðA www.immobilsarda.com</w>
Über gabe
rin ge</w>
fotogra fi
Verhand lungs
Ecologi c</w>
ko mi
e con
Schnei der</w>
PL US</w>
Flü gel</w>
Et wa</w>
0 8.
c b
UNES CO</w>
Sy dney</w>
Kom mission
E ast
Au stau
- 1</w>
on ne</w>
erheb t</w>
M iete</w>
Li qui
Beru fung</w>
bewu ßt</w>
angemel det</w>
Vereinfa chung</w>
Va tik
RO M</w>
Krie ge</w>
Hel per
2- 3</w>
u alität</w>
he ad</w>
hand els</w>
che ck</w>
Nurag he</w>
li ty</w>
kir ch
häu figer</w>
har te</w>
d k
ausgestat teten</w>
Zäh ne</w>
Ensem ble</w>
8 2
, 000</w>
ser t</w>
gleich nami
erweiter te</w>
an gaben</w>
Recht sprechung</w>
R SS</w>
Be steller</w>
modu le</w>
bet reiber</w>
aus üben</w>
Völ kern</w>
Mi gra
A zur</w>
te es</w>
ne ar</w>
ali s</w>
S ri</w>
Kosten loser</w>
Fa shi
03 .05.2016</w>
v on-
re präsentiert</w>
no -
inclu ding</w>
dan s</w>
bi g
Fein d</w>
ter ungen</w>
nach drück
entschie d</w>
dan ken
Ö R
ur -
lan des</w>
krä ften</w>
h elle</w>
Schwei z
Meer es</w>
Fitness center</w>
Alex and
20 21</w>
virtu ellen</w>
spann ende</w>
näch st
2 29-
pl atzes</w>
P N
si d</w>
konkre t</w>
humanit ären</w>
frü here</w>
fa den</w>
ber au
All ein</w>
seh er</w>
ori eren</w>
am ent
Her an
H R</w>
Generalsek retär</w>
G rä
t anz</w>
stö ßt</w>
resour ces
c ron
D T
C M
0.0 14
0 1
würdi gkeit</w>
b ör
ad resse</w>
Pro file</w>
C hat</w>
Be weise</w>
veranstal tung</w>
t able</w>
r einig
jet zigen</w>
dem y</w>
buil ding</w>
Pf licht
II I.</w>
Fran zo
Fahr zeu
Äl testen</w>
vert ritt</w>
sk raft</w>
fel dern</w>
fass ungs
dis krimini
Wirtschafts krise</w>
Stock betten</w>
Ma gn
Jo sé</w>
experien ce</w>
be freien</w>
U ti
En d</w>
B iegen</w>
ran k
Inn sbru
Ein nahmen</w>
sti cs</w>
sc ript</w>
reser ved</w>
re de</w>
pro -
funk tions
fir ma</w>
de bi
Consult ing</w>
Bü chern</w>
studi um</w>
hol t</w>
für s</w>
an grenz
Ruß land</w>
Bil anz</w>
vil eg
s äu
Fur cht</w>
Coun try</w>
Bei hilfe</w>
st in
egel ung</w>
ant oni
angeb lich</w>
Mess e
Ir r
Flu cht</w>
Ele ctron
Ch ur
herunter geladen</w>
hei mische</w>
Vor gang</w>
Ta sten</w>
Ro uten</w>
Lan ge</w>
Kenn zeichnung</w>
IN E</w>
inspiri ert</w>
et ts</w>
begrenz te</w>
Teu fel</w>
Par tik
P lu
Mel dung</w>
J h.</w>
Fuß ball</w>
tol l</w>
har ten</w>
eit a</w>
cat egory</w>
rech net</w>
persön licher</w>
bevorzu gen</w>
besei tigt</w>
Min i</w>
Geh e</w>
18 .00</w>
versch lü
entschei dung</w>
Sun rise</w>
K el
Ha ag</w>
w äh
verschie ben</w>
re dete</w>
nt nissen</w>
gemein schaften</w>
Tab ellen</w>
R asse</w>
Na se</w>
Gesi chtsp
Er zeu
le uni
gere chten</w>
bewus st
H ül
Franz is
Forschungs -</w>
.05. 2015</w>
versch winden</w>
r and</w>
patch For
o mische</w>
gän gigen</w>
erwäh nten</w>
an schließ
Z en
View Helper
ViewHelper Views</w>
Stadt plan</w>
Rating ViewHelperViews</w>
Mau ern</w>
M annes</w>
Ewi gkeit</w>
Be arbeitungs
Ach se</w>
p y
kontrol l
ga u</w>
ein la
bezo genen</w>
-0 6-
par am
Liege platz</w>
vor läufi
od ore</w>
mon t</w>
co urse</w>
Trau m
Studi o
Navi ga
Ch or
tol len</w>
schi ckt</w>
pl äne</w>
er zeug
Zeit schriften</w>
Schlu ß
Reis ende</w>
Refer enz</w>
war me</w>
t schaft</w>
schwieri ge</w>
pf legen</w>
Liefer ungen</w>
Fü llen</w>
F i</w>
E. ON</w>
w ing
vari ieren</w>
los-angel es.
endor f</w>
ange wiesen</w>
T am
Kir ch
27 5</w>
f einen</w>
do uble</w>
Ro ss
Refer enzen</w>
Län der
F T</w>
C an</w>
Bel arus</w>
Al bert</w>
.0 9</w>
stor e.
schmer zen</w>
län dliche</w>
c lass</w>
bestimm ung</w>
all -
ac o</w>
Sch au</w>
Na mi
Ja zz
G ES
D B</w>
Bra un
B ün
schö pf
rei f
partic uli
ko ch
internation ales</w>
gu ests</w>
drau li
beweg ungen</w>
Regierungsch efs</w>
Gö tter</w>
Camping plätze</w>
maxim alen</w>
Net her
Herzego wina</w>
Ben edi
ökon omi
schwieri ger</w>
ken ntnis</w>
be sti
an o
Zu gangs
Obje kten</w>
Fitness raum</w>
t ens</w>
sand te</w>
gefähr det</w>
al li
Ti pp</w>
GO tt</w>
Fin ster
Ev ent
zurück ge
y k
strah l
res t</w>
om la</w>
ol -
ger ei
Laus anne</w>
EI T</w>
Ani ma
äuß eren</w>
tra ten</w>
to uren</w>
ler nt</w>
ac y</w>
To de</w>
K ret
9 99</w>
äu ft</w>
zunehm ende</w>
p o</w>
co unt
c ript</w>
bo gen</w>
Vari ablen</w>
Le gende</w>
ti um</w>
reich lich</w>
ne un
h di-
geri chts
et to</w>
Schokol ade</w>
Flach bild-
unterst reicht</w>
studi eren</w>
german- pga-
Telekommuni kation</w>
Angebo ten</w>
9 2
-F enster</w>
sy chi
her ab
der art</w>
bezo gene</w>
Wupper tal</w>
23 ,
ütz en</w>
th ings</w>
indi schen</w>
Vi enna</w>
Sch lä
Fehler meldung</w>
20 5</w>
seit dem</w>
hal ten
ern den</w>
ac commoda
Pa are</w>
Fami li
Ein tritt
19 9</w>
ter te</w>
om y</w>
gesch windi
bil li
Ho ust
F ett</w>
Emo tionen</w>
C lar
Bewu ßts
ör t</w>
resources .php</w>
leb ten</w>
ens er</w>
Vorbereit ungen</w>
Fass ade</w>
C lin
-0 2-
revolution ären</w>
p resse</w>
gere cht
Tö chter</w>
Russ lands</w>
Jahrzeh nte</w>
Herz ens</w>
.p df</w>
proper ty</w>
lan s</w>
jün gste</w>
ha h</w>
Hon g
Gran de</w>
ück t</w>
che at</w>
ap e</w>
Struktur fonds</w>
Sar de
Proz essen</w>
Ausw eitung</w>
Audi o-
Zi ffer</w>
Superi or</w>
g licher</w>
finanzi eren</w>
fahr zeugen</w>
Ho t</w>
Bu ffet</w>
Brei t
Bestand teile</w>
Aar on</w>
schrei bungen</w>
schein bar</w>
c l
Bot schaften</w>
Ab wicklung</w>
b ren
Mehr wer
M AG
Dem o</w>
Chemi kalien</w>
Re ader</w>
Ne apel</w>
Mon um
Ma k
r einigen</w>
min i</w>
Barb ara</w>
vermi eten</w>
Zig ar
West f
Business -
4 36
di stri
Et was</w>
Cy ber
3 50
omet hing</w>
ko versicherung</w>
hal be</w>
be zahl
Ratsp rä
Mau ri
Ger ü
A ct</w>
index.html www.immobilsarda.com</w>
blo ß</w>
Schwan ger
Durch setzung</w>
Ba sk
u d.com</w>
kon e</w>
griech ische</w>
außergewöhn lichen</w>
3. 5</w>
phar ma
for mer</w>
Partner schaften</w>
I ON
nütz liche</w>
frem den</w>
et en
To uch</w>
Sau l</w>
Favor iten</w>
Sch lö
E K
eingerei chten</w>
Ver stand</w>
Bus haltestelle</w>
Balear ische</w>
verstär kte</w>
Tex ten</w>
Mo di
pa ges
kor d</w>
konta kt</w>
flu cht</w>
bele gen</w>
be fu
P T</w>
Häu fig</w>
n ar
la sst</w>
Posi tion
Jak ob
Auf t
[...]
