#version: 0.2
t h
i n
a n
th e</w>
e r
t i
r e
e n
a r
o n
o f</w>
o n</w>
an d</w>
o r
t e
o u
t o</w>
in g</w>
i n</w>
r o
a l
i t
e r</w>
e s</w>
i s</w>
s t
e d</w>
i c
o r</w>
a c
i l
o m
a l</w>
e s
i s
a ti
a t</w>
a t
e l
e c
a s
T h
u r
a n</w>
a s</w>
2 0
e n</w>
s i
o l
l y</w>
t s</w>
f or</w>
p l
r i
c h
v e</w>
a m
en t</w>
u n
p ro
a g
u s
d i
ati on</w>
Th e</w>
te d</w>
a b
l o
w h
a d
c on
n o
it h</w>
e m
l e</w>
w ith</w>
l i
ar e</w>
20 1
c om
a y</w>
th at</w>
s u
e t
e v
o s
t r
e x
i g
i t</w>
c e</w>
o u</w>
h a
ti on</w>
ou r</w>
o p
on s</w>
i d
b e</w>
h t
ou n
er s</w>
a p
f or
q u
re s
u l
l e
n e
i r
i m
te r</w>
b e
ro m</w>
a r</w>
s h
y ou</w>
er e</w>
th e
b y</w>
c o
it y</w>
t er
f rom</w>
u c
v er
f f
o w
p e
20 0
no t</w>
a k
th is</w>
al l</w>
w w
at e</w>
p er
c i
p or
r a
d e
o o
il l</w>
0 0</w>
s e
w as</w>
w or
d s</w>
p ar
t h</w>
b u
u m
ht t
th er</w>
ic h</w>
w ill</w>
c h</w>
htt p</w>
b er</w>
m o
ha ve</w>
t o
v i
l d</w>
. .
ou t</w>
s o</w>
s p
m an
ag e</w>
m ent</w>
e t</w>
ur e</w>
on e</w>
in g
en t
c an</w>
d e</w>
ig h
ti m
ab le</w>
a y
st r
ou r
es s</w>
wh ich</w>
en ts</w>
a in
c l
w e
a ted</w>
m e
h o
w e</w>
i r</w>
y our</w>
g i
in e</w>
h as</w>
s t</w>
g r
s e</w>
a te
d uc
u s</w>
a v
e p
or e</w>
d er</w>
er v
d ay</w>
g h
u t
1 0</w>
on al</w>
re c
e ar
re n
d ing</w>
it s</w>
al ly</w>
g e</w>
an t</w>
p o
ou ld</w>
ti c
ar y</w>
ic e</w>
I n
con t
i c</w>
1 9
a d</w>
e l</w>
ati ons</w>
e st
si on</w>
t u
w .
s te
e d
a in</w>
o c
us t</w>
u ro
es t</w>
b o
an ce</w>
g u
ti ons</w>
ww w.
it e</w>
al so</w>
h i
as t</w>
I n</w>
. co
pl e</w>
es s
a u
E uro
.co m</w>
for m
' s</w>
ac e</w>
com p
Th is</w>
m ore</w>
I t</w>
p res
201 6</w>
am e</w>
1 2</w>
C om
n i
s erv
a i
d is
k s</w>
in ter
en ce</w>
p r
o v
oun d</w>
al l
k ing</w>
om e</w>
S t
p os
p h
a m</w>
us e</w>
c re
a re
f in
ti es</w>
1 1</w>
the ir</w>
an d
as e</w>
ak e</w>
il l
a f
A n
i es</w>
s o
d er
ec t</w>
ou s</w>
2 0</w>
.. .</w>
tim e</w>
o ther</w>
por t</w>
a il
h e</w>
ar d</w>
ac c
s el
m in
o ff
re s</w>
gh t</w>
1 6</w>
v id
u m</w>
pro duc
an y</w>
en d
A l
e w</w>
com m
h e
t ing</w>
u b
ne w</w>
1 7</w>
p re
m ar
the y</w>
bu t</w>
o m</w>
w i
os t</w>
re qu
s y
C h
lo w
es e</w>
r an
t w
u p</w>
s ec
en c
f i
b le</w>
man y</w>
k e</w>
r ou
A u
in d
1 5</w>
l a
re e</w>
u e</w>
w el
ti ve</w>
be en</w>
no w</w>
m is
cl u
ver y</w>
en er
p ri
ic al</w>
v is
ing s</w>
h is</w>
t e</w>
1 0
. ht
W e</w>
em ber</w>
lo c
n igh
ab out</w>
f ir
ac h
l is
en d</w>
te l</w>
ac h</w>
on g</w>
en ti
ow n</w>
ar i
on ly</w>
em ent</w>
f ac
f u
ec i
d ev
re d</w>
Euro pe
g o
ay s</w>
d es
b i
t ly</w>
w ay</w>
il e</w>
b r
te s</w>
u p
Europe an</w>
3 0</w>
t ur
ati onal</w>
ac k</w>
g h</w>
i z
ev er
wh o</w>
ate s</w>
or s</w>
an s
p e</w>
th ere</w>
oo d</w>
ad e</w>
o g
b et
1 3</w>
c oun
H o
1 8</w>
por t
wor k</w>
c ur
b ec
w ere</w>
s ti
as s
m e</w>
. 0
G er
1 4</w>
te m
o b
e w
0 1</w>
s ch
C on
st s</w>
or y</w>
W h
1 9</w>
201 5</w>
d o
d o</w>
u t</w>
su p
t ri
0 7</w>
nigh ts</w>
in to</w>
al s</w>
v es</w>
f e
o ple</w>
Y ou</w>
p ol
g e
- 0
th er
2 1</w>
f l
P ro
i p
m on
g re
k e
m ents</w>
u st
A r
R e
c ol
2 2</w>
n o</w>
wi th
sy ste
the m</w>
m ost</w>
at ing</w>
i a</w>
0 8</w>
pe ople</w>
f r
te n</w>
is t</w>
w ould</w>
ro om</w>
ic es</w>
form ation</w>
el op
s ol
te l
E n
an s</w>
l in
en tr
d ec
su l
os e</w>
c er
2 5</w>
fu l</w>
for e</w>
M ar
n ing</w>
ha d</w>
t en
i f</w>
P ar
m an</w>
in clu
fir st</w>
b il
m s</w>
li ke</w>
d el
t ure</w>
0 3</w>
m y</w>
pro c
an c
U ni
0 2</w>
f ol
2 3</w>
su b
pro vid
5 0</w>
d ed</w>
b l
t y</w>
sp eci
el l
ear s</w>
wel l</w>
v ing</w>
o d</w>
.ht m</w>
0 4</w>
0 9</w>
p s</w>
ch an
ag es</w>
i on</w>
tr ans
m a
P M</w>
1 2
c ar
um ber</w>
e -
cur ren
di ff
th ese</w>
ne t</w>
ev er</w>
s k
s ite</w>
D i
wh en</w>
ov er</w>
n ational</w>
y e
f t</w>
re l
0 5</w>
th an</w>
al ity</w>
we en</w>
str uc
dev elop
y ears</w>
s c
i ties</w>
e i
b er
b as
a st
pl e
s ur
en g
per i
el y</w>
0 6</w>
so ci
d en</w>
id e</w>
bet ween</w>
1 .
op er
in formation</w>
ac t</w>
mis sion</w>
u d
ac k
res p
j o
th ing</w>
re g
sh ould</w>
h el
th rou
l and</w>
g et</w>
a use</w>
wh at</w>
f ic
per s
f ul
om s</w>
in v
is e</w>
su ch</w>
ou s
m at
o w</w>
l ine</w>
us ed</w>
m il
er i
2 4</w>
igh t</w>
ati ve</w>
tw o</w>
ai d</w>
I f</w>
f ound</w>
201 0</w>
wh ere</w>
v ed</w>
F or</w>
ol og
in ce</w>
l ar
si ble</w>
u r</w>
w a
v er</w>
si d
h ere</w>
n ed</w>
te c
c or
l an
k m</w>
h ol
vi ew</w>
o f
s ome</w>
S p
is h</w>
An d</w>
pl o
l l</w>
j ect</w>
200 9</w>
pl ace</w>
s at</w>
P re
n ec
po in
ou se</w>
ti c</w>
f un
ho w</w>
0 0
u al</w>
re ad
g ener
di rec
p er</w>
f il
ti v
f er
t re
no w
c lo
e y</w>
av ail
te ch
p ub
e ff
1 8
In ter
n er</w>
ri ght</w>
2 7</w>
p age</w>
1 4
m ust</w>
ye ar</w>
on om
j ec
mar k
m ake</w>
b re
b el
2 6</w>
2 8</w>
al i
ar t</w>
syste m</w>
m ade</w>
tim es</w>
j ust</w>
lo w</w>
wor ld</w>
or der</w>
st a
201 1</w>
ti on
e g
par t
M ay</w>
bu il
ro w
c ri
ev en</w>
u res</w>
d at
f a
diff er
are a</w>
P os
re gi
h er</w>
ic i
throu gh</w>
D e
Com mission</w>
p m</w>
1 5
U R
f e</w>
t ake</w>
ur ing</w>
200 8</w>
1 6
y s
e qu
com e</w>
re sul
m ay</w>
d r
po si
f ur
in d</w>
s m
si g
is h
p en
b oo
1 3
g an
ap pl
t ak
lo o
ch ar
im port
th en</w>
t or</w>
t a
l es</w>
201 3</w>
af ter</w>
J u
201 4</w>
on g
201 2</w>
Pos ted</w>
A c
li c</w>
r is
S e
d re
i st
2 9</w>
il y</w>
t al</w>
at ur
ai l</w>
19 9
ow n
v al
ab il
an ts</w>
se e</w>
res s</w>
avail able</w>
ro oms</w>
m er
. .</w>
f o
. de</w>
ew s</w>
si de</w>
ig n</w>
t y
ti onal</w>
c our
es ted</w>
uc h</w>
ar ds</w>
fol low
ul ar</w>
par t</w>
n umber</w>
f ree</w>
for m</w>
ap pro
b ack</w>
a th
tech n
as s</w>
E x
ow er</w>
mo d
ic k</w>
tic al</w>
ar t
h igh
r e</w>
b ur
ar d
Ger many</w>
ne ed</w>
3 1</w>
bec ause</w>
c le
t le</w>
ic h
v ir
an t
E U</w>
R ep
c ap
f am
Euro pe</w>
u ary</w>
est s</w>
g y</w>
F r
O c
1 7
ol d</w>
us in
a ir
Ho tel</w>
O n
4 0</w>
A M</w>
si ve</w>
oo l</w>
U T
ou t
d em
en s
li m
k now
fin d</w>
v en
curren tly</w>
at ure</w>
e as
g ood</w>
200 7</w>
st ri
or d
ä r
ho tel</w>
f ri
su m
k ed</w>
sel f</w>
se t</w>
di a</w>
ig h</w>
tr y</w>
C oun
an n
j p
et y</w>
produc ts</w>
l ev
S ch
id e
hi m</w>
serv ice</w>
i p</w>
l ed</w>
tr a
A d
s ame</w>
Th ere</w>
ch il
resp on
ver s
ec onom
an g
th ose</w>
ex am
e f
be ing</w>
ex c
c entr
c ul
B er
t ain
z e</w>
ph p</w>
sec on
UR L</w>
pl ay
ic ation</w>
un d</w>
r u
F e
o ver
un der
M är
un der</w>
M o
h r</w>
pos sible</w>
t ain</w>
import ant</w>
M on
Mär z</w>
om e
ust om
differ ent</w>
4 9</w>
le g
n ess</w>
gr am
g ra
jp g</w>
s pe
2 5
.. ..</w>
in cre
UT C</w>
s ince</w>
m l</w>
d et
L i
r it
e ach</w>
be fore</w>
v ari
2 .
con di
m ain
tri es</w>
i d</w>
w ays</w>
dat a</w>
N ov
s aid</w>
A s</w>
serv er</w>
g o</w>
N o
abil ity</w>
t al
li fe</w>
ci al</w>
v en</w>
Au g
con si
f ast</w>
y ing</w>
in i
200 6</w>
m ak
usin ess</w>
or gan
read y</w>
ex t</w>
with out</w>
B ut</w>
te x
B o
cont in
gr ou
S u
H e</w>
a z
p i
h ouse</w>
P r
. php</w>
off ers</w>
ad s</w>
un i
Al l</w>
St ates</w>
V er
el ec
al e</w>
W e
gre at</w>
in st
develop ment</w>
pr in
o p</w>
coun tries</w>
Aug ust</w>
qu ality</w>
com pl
e fore</w>
with in</w>
ad v
olog y</w>
ent al</w>
p ing</w>
d y</w>
h igh</w>
p ly</w>
2 4
c ould</w>
un g</w>
si ons</w>
vi a</w>
requ i
mark et</w>
ou gh</w>
en s</w>
em b
ow ever</w>
it u
comp any</w>
on -
l ec
c ity</w>
l u
sup port</w>
to ber</w>
i l</w>
f ile</w>
l ess</w>
v o
S ep
ear ch</w>
sh all</w>
cont ro
Ger man</w>
c an
sh ip</w>
Pre sid
b est</w>
li on</w>
M e
c ustom
un g
st or
o s</w>
el s</w>
h um
requ ested</w>
ex peri
serv ices</w>
w ant</w>
tel s</w>
ow s</w>
gh ts</w>
3 2</w>
an k</w>
d uring</w>
J o
par tic
am es</w>
bo th</w>
follow ing</w>
lis h
wa ter</w>
at h</w>
do es</w>
E U
p ur
s er
ain st</w>
ci l</w>
M a
H e
Nov ember</w>
t ro
4 5</w>
tem ber</w>
I s
d u
lis h</w>
vir on
s ed</w>
man ag
En g
Sep tember</w>
ex p
l l
a ir</w>
in a</w>
b ed</w>
un ity</w>
in es</w>
ro s
Com m
200 5</w>
p ho
pro tec
m et
M r</w>
G od</w>
un e</w>
chan ge</w>
a ve</w>
in f
e k</w>
ag ainst</w>
P l
k now</w>
si m
W or
d ic
P h
st ra
is m</w>
t able</w>
our s</w>
dre n</w>
ut e</w>
0 00</w>
c c
enc y</w>
str y</w>
in k</w>
.ht ml</w>
c ase</w>
is su
ne w
T o</w>
1 00</w>
li ght</w>
or t</w>
3 3</w>
por ts</w>
Coun cil</w>
fi ed</w>
O ur</w>
i e
c ar</w>
st an
c as
ic a</w>
me as
com mod
qu e</w>
s ome
m uch</w>
3 .
ever y</w>
a ut
pol ic
l ast</w>
3 5</w>
ar ly</w>
d ri
s -
sm all</w>
u si
d ate</w>
ad di
c all
ac ti
O n</w>
off er</w>
sti ll</w>
V i
en ter</w>
ci p
er ing</w>
u tion</w>
ec h
ou th</w>
s ci
n ame</w>
in c
d oc
R es
st ar
it al</w>
au th
Th ey</w>
con cer
U n
h ear
W ith</w>
ati on
w ar
y -
Oc tober</w>
di vid
m ain</w>
qu es
' t</w>
b usiness</w>
ic k
v e
ir e</w>
del i
ur y</w>
er y</w>
ap art
su cc
tr ac
c al
pro gram
t or
p ed</w>
l ong</w>
a .
loc ated</w>
sh e</w>
ak fast</w>
D ec
C o
we b
own lo
p ut</w>
Au g</w>
am ar
200 4</w>
inter national</w>
pub lic</w>
M ember</w>
be g
us ing</w>
Uni on</w>
d es</w>
s itu
l it
3 0
A pri
1 -
s en
Apri l</w>
or g</w>
lev el</w>
bil ity</w>
A t</w>
3 9</w>
sti tu
J an
ar ound</w>
ent ly</w>
Rep ly</w>
st and
S h
th ree</w>
N ew</w>
Q u
op en
en ted</w>
R o
EU R</w>
di e</w>
me di
poin t</w>
p ic
M an
enc es</w>
al ready</w>
Wh at</w>
ch o
d ra
inclu ding</w>
em ents</w>
gr ap
cour se</w>
2 6
pri v
g g
4 3</w>
chil dren</w>
ate ly</w>
proc ess</w>
acc ess</w>
Presid ent</w>
r y</w>
hel p</w>
er ed</w>
w it
ch i
f es
. jpg</w>
n s</w>
m m</w>
pl ac
bas ed</w>
fi el
equ ip
t t
oun t</w>
A p
ar ti
en viron
et ing</w>
e p</w>
d ays</w>
produc tion</w>
3 4</w>
pol i
T o
n al</w>
exam ple</w>
produc t</w>
mat eri
lar ge</w>
2 8
pl ay</w>
g es</w>
U S
ec ted</w>
L e
4 1</w>
posi tion</w>
s ing</w>
Mar ch</w>
al low
4 8</w>
g l
J une</w>
am ent</w>
oo k</w>
ag re
ic s</w>
c es</w>
G re
op en</w>
v ol
m b
con nec
ha p
coun try</w>
re al</w>
F ri
h al
in s</w>
at or</w>
a -
ever y
oper ation</w>
em plo
ag ain</w>
no v
or d</w>
c am
wh ile</w>
par ti
d ge</w>
ent ation</w>
a k</w>
rec ei
jec ts</w>
ap pe
d own</w>
3 6</w>
pro pos
ill as
es day</w>
comp an
W i
us e
e ds</w>
ful ly</w>
. net</w>
m ach
al ways</w>
f ic</w>
vi ews</w>
ic ul
c ent
on n
b ar
s es</w>
tur al</w>
s af
fun c
m en
li g
in ed</w>
com ple
at t
2 7
Ju ly</w>
n et
A f
ad d
m i
is ed</w>
o ve</w>
so f
m er</w>
4 .
4 4</w>
di d</w>
l ab
2 9
le ase</w>
m en</w>
n or
re as
wor k
w al
in e
f ace</w>
s ha
p ower</w>
fur ther</w>
im pl
P ol
C l
P er
in ation</w>
b en
im pro
3 8</w>
tic s</w>
cont ent</w>
econom ic</w>
ati c</w>
soci al</w>
ut ure</w>
re port</w>
g en
n ext</w>
re pres
ener gy</w>
mil lion</w>
pl an
o -
t ors</w>
pro ject</w>
go ver
G r
is ion</w>
to day</w>
a w
b al
ÿ ÿ
c m</w>
d on</w>
a way</w>
5 .
to o</w>
to ge
enti al</w>
s ing
m ul
th s</w>
me ans</w>
t -
te e</w>
Wh en</w>
s al
gi ve</w>
iz ed</w>
speci al</w>
toge ther</w>
4 2</w>
l in</w>
bur g</w>
eff ec
a h
6 0</w>
or i
g row
st ance</w>
pho to
em s</w>
provid e</w>
at s</w>
b lo
F re
ep t</w>
he al
tu res</w>
I D</w>
S o
sta g</w>
tex t</w>
F rom</w>
nec ess
5 5</w>
sp ec
de p
tw are</w>
3 7</w>
i m</w>
B e
wor king</w>
si on
p tion</w>
ir d</w>
pro b
al o
as ed</w>
end ed</w>
G u
b ro
s on</w>
ran ge</w>
c el
Jan uary</w>
wor ks</w>
ch e
or ig
tur n</w>
s et
5 0
ti l</w>
st ud
f uture</w>
grou p</w>
ch en</w>
s ure</w>
p op
an ds</w>
s ay</w>
d ou
O r
S i
in divid
resul ts</w>
ac tion</w>
ke y</w>
le ad
f ew</w>
g ed</w>
know n</w>
I N
. org</w>
t op
l ing</w>
E R
I m
P o
ul ation</w>
experi ence</w>
ful l</w>
g ame</w>
di o</w>
pers on</w>
ic ations</w>
h er
N umber</w>
bo dy</w>
mo bil
des ig
ever al</w>
li ament</w>
are d</w>
mo der
Fe br
polic y</w>
l ong
5 2</w>
resul t</w>
en jo
S y
f re
gr ound</w>
are as</w>
au ti
y p
pe ti
v on</w>
A b
ac tu
gover n
oun d
S erv
tr ain
A mer
ur ity</w>
syste ms</w>
4 6</w>
2 3
P e
F or
des ign</w>
de l</w>
com b
lan gu
Th ese</w>
Af ter</w>
5 9</w>
8 0</w>
ol e</w>
ag o</w>
th em
sh ip
Dec ember</w>
vers ity</w>
grap h
9 .
an other</w>
ac commod
ther efore</w>
u es</w>
et e</w>
F ran
usi c</w>
F a
N or
st ory</w>
an cial</w>
fer ence</w>
st re
h and</w>
call ed</w>
w om
lish ed</w>
ar m
amar illas
8 .
buil ding</w>
D es
contro l</w>
Eng lish</w>
in te
on line</w>
N e
est ab
con struc
res t</w>
H ol
A R
C ol
a ff
f lo
4 -
re comm
F in
u tes</w>
h ome</w>
er n</w>
Par liament</w>
5 1</w>
pro per
g ar
5 4</w>
T r
E S
d am
comm un
l ad
S un
of f</w>
w ide</w>
c ra
th ers</w>
p ass
2 -
loo k</w>
doc um
an ks</w>
wh e
ma j
Uni ted</w>
un til</w>
ail s</w>
4 7</w>
Fr ance</w>
f er</w>
N o</w>
h and
w at
ownlo ad</w>
min i
loc al</w>
priv ate</w>
T V</w>
fac il
ri ghts</w>
f ü
condi tions</w>
L oc
x im
5 6</w>
ver sion</w>
our ce</w>
secon d</w>
centr e</w>
t ow
di es</w>
H ome</w>
f ig
re li
M in
is ter</w>
cont act</w>
a ren
t ers</w>
ab ove</w>
gi ven</w>
i ed</w>
bet ter</w>
to p</w>
le ft</w>
pr ice</w>
fam ily</w>
5 8</w>
p at
st ate</w>
5 7</w>
ind u
gu ide</w>
c us
necess ary</w>
Febr uary</w>
O R
sta ur
Th at</w>
man u
m it</w>
re staur
proc ess
bec ome</w>
manag ement</w>
st y
res earch</w>
S o</w>
op e</w>
A N
v ill
pres ent</w>
m oun
fac t</w>
t own</w>
sh ow</w>
as si
Ber lin</w>
B re
or ity</w>
or ding</w>
5 3</w>
th ough</w>
U S</w>
curren t</w>
la w</w>
5 -
compan ies</w>
vi ties</w>
tak en</w>
6 .
S atur
g lo
B ar
ur ch</w>
se a</w>
poli tical</w>
auti ful</w>
n a</w>
ch ec
ac hi
parti cip
w in
S ec
y s</w>
A T
19 8
emb ers</w>
pl es</w>
B i
in al</w>
web site</w>
le m</w>
nigh t</w>
a im
hum an</w>
us si
st ay</w>
le t</w>
B r
fiel d</w>
n atur
ro ad</w>
it ted</w>
boo k</w>
on t</w>
re co
consi der
n e</w>
an ti
partic ular</w>
an y
ol s</w>
an al
l a</w>
lit tle</w>
tr av
200 3</w>
gra m</w>
ty pe</w>
com for
A s
con c
anc es</w>
ind ows</w>
for man
1 ,
vis it</w>
9 0</w>
H owever</w>
ac y</w>
techn ology</w>
Inter net</w>
s a
w ard</w>
Satur day</w>
sub ject</w>
th ings</w>
h ar
is i
as h
per f
a ter</w>
u re
m ag
l d
s everal</w>
re ad</w>
it ing</w>
am e
A T</w>
indu stry</w>
i ted</w>
Fri day</w>
inst all
fic ation</w>
ag es
at ures</w>
ous ly</w>
tra di
ust ri
g ing</w>
C O
vari ous</w>
e .
fin ancial</w>
com peti
m ing</w>
on es</w>
b ath
n ers</w>
st art</w>
be autiful</w>
pres s</w>
b or
st u
Con t
lar g
bo ard</w>
can not</w>
c a
sp o
ne ar</w>
3 -
aut om
0 .
te ly</w>
Inter national</w>
ul es</w>
H ere</w>
f ar</w>
en ter
wh ole</w>
gu e</w>
f -
fo re
im mobil
appl ication</w>
min utes</w>
gu ar
to tal</w>
ch es</w>
str ic
B y</w>
h ab
l et
sel ves</w>
ne eds</w>
e k
go ing</w>
cont ain
P ri
part ment</w>
t ar
n am
apart ment</w>
iz e</w>
am ong</w>
C ar
vid e
iz ation</w>
ate g
f y</w>
es p
sof tware</w>
fil es</w>
be d
re ally</w>
a h</w>
sh op
On e</w>
am p</w>
lo t</w>
mon ths</w>
ros s</w>
G rou
T u
le ar
c at
th ink</w>
mb H</w>
regi on</w>
- -
Com p
loc ation</w>
ini ti
acti vities</w>
char ac
ur s
d ated</w>
peri od</w>
manu fac
si bility</w>
7 0</w>
c r
is ation</w>
tr an
Ho w</w>
hi bi
en ing</w>
ke ts</w>
as k</w>
s w
p ack
col lec
L o
ish ed</w>
G mbH</w>
op port
7 .
b al</w>
1 1.
pro fes
val ue</w>
dis cus
r ace</w>
sing le</w>
R ussi
T im
u ter</w>
Y our</w>
tic le</w>
G ener
sol u
el l</w>
lis t</w>
w rit
ab ly</w>
clo se</w>
ple ase</w>
st and</w>
Di rec
per forman
li ving</w>
D r
P lease</w>
U hr</w>
ap s</w>
A m
ni fic
provid ed</w>
ati s
il i
f ood</w>
ex per
as ter</w>
y oun
pro jects</w>
E N
fü r</w>
g el
20 0</w>
acc ording</w>
ou ght</w>
bre akfast</w>
inv est
in t</w>
Ho tels</w>
u ally</w>
re mo
inclu de</w>
0 .0
ro w</w>
cle ar</w>
f oc
ic an</w>
Th urs
Wor ld</w>
h ours</w>
A ir
n um
, 000</w>
res erv
z er
ar chi
T er
cont ri
comm on</w>
ver ed</w>
T ra
I tal
c k
c op
L u
il via</w>
se ar
te st</w>
a p</w>
Thurs day</w>
protec tion</w>
m usic</w>
r ap
ul arly</w>
a g</w>
gener ated</w>
prob lem</w>
Grou p</w>
sec urity</w>
ex pl
mak ing</w>
a .com</w>
e ts</w>
moder n</w>
S am
id ay</w>
actu ally</w>
Ph one</w>
p ow
ati c
b ri
d om
du ce</w>
lan ds</w>
O ff
elec tr
l er</w>
lad ys
m ental</w>
ladys ilvia</w>
us es</w>
contri bu
custom ers</w>
3 8
we ek</w>
sp ace</w>
e y
P or
v ely</w>
sup pl
secon ds</w>
s er</w>
eas y</w>
t a</w>
natur al</w>
re al
h owever</w>
eff ici
T ur
de b
ar s</w>
de fin
lo ve</w>
m ail</w>
m ember</w>
stra te
eci ally</w>
h or
cre ate</w>
impl em
Ç á
lin k</w>
co sts</w>
individ ual</w>
Man ag
wor d</w>
meas ures</w>
speci fic</w>
in stitu
con sum
me th
our ces</w>
gu ests</w>
hear t</w>
I S
en ds</w>
esp ecially</w>
e m</w>
re duc
up on</w>
C entr
c li
De ut
M ore</w>
of ten</w>
dep end
c ame</w>
l -
Pro duc
3 6
ate st</w>
er -
u g
P al
er t</w>
inv ol
requi re
m or
ques tion</w>
ich t</w>
leg al</w>
s cre
d ro
addi tion</w>
pro bl
pro gram</w>
S outh</w>
l and
guar an
L in
bel ie
he ad</w>
loo king</w>
ed er
se qu
mini str
gener al</w>
ab les</w>
ac i
ta x
train ing</w>
o re
p ay
I I</w>
n ature</w>
some thing</w>
hal f</w>
vis ion</w>
des cri
est ate</w>
l s</w>
un d
t ook</w>
poin ts</w>
W indows</w>
3 9
de st
Ital y</w>
requ est</w>
oc r
con tr
a u</w>
situ ation</w>
compl ete</w>
hi stor
mul ti
eng th</w>
F i</w>
it self</w>
tr ade</w>
deli very</w>
pers onal</w>
ti z
or ies</w>
e .com</w>
ens ure</w>
an im
S te
P ho
v al</w>
pro mo
hi story</w>
o gi
al ong</w>
im ages</w>
P C</w>
T el</w>
auth or
pr ices</w>
in -
in ing</w>
Fa x</w>
su ff
B l
heal th</w>
R om
B el
enjo y</w>
cer tain</w>
Th en</w>
f our</w>
C an
h y
3 7
li ve</w>
vis i
5 7
p ool</w>
wh y</w>
g er
ren tal</w>
p -
C H
th ird</w>
com es</w>
Is ra
ev ents</w>
olog ical</w>
d ue</w>
ho tels</w>
emplo y
u plo
on ce</w>
bas is</w>
performan ce</w>
b ar</w>
le ast</w>
12 .
B u
m embers</w>
struc ture</w>
spe ed</w>
ac tiv
ty p
si ze</w>
k er</w>
b an
e duc
langu age</w>
ub lic</w>
inf o</w>
g et
L a
S al
l ation</w>
si onal</w>
m ess
ev ent</w>
co ver</w>
succ ess
F l
s ou
ic ro
k ind</w>
ex ten
t our
fr ont</w>
contin u
ch e</w>
whe ther</w>
c enter</w>
incre ase</w>
be ach</w>
an a</w>
ex ist
ma p</w>
o thers</w>
direc tly</w>
provid es</w>
probl ems</w>
c u
Au stri
Sun day</w>
qu i
g oo
c ir
stan ding</w>
it ors</w>
in nov
construc tion</w>
d one</w>
D is
4 9
materi al</w>
environ ment</w>
b ack
youn g</w>
m us
S tu
it tee</w>
im age</w>
add ress</w>
V al
d en
com ing</w>
ter m</w>
sty le</w>
cl es</w>
mak es</w>
m ight</w>
E r
as soci
st ing</w>
m p
tem per
diff icul
tre at
n on-
an o</w>
19 7
h on
trans port</w>
use um</w>
m in</w>
ha ving</w>
ti ce</w>
cl ick</w>
cor rec
ind ustri
ap er</w>
requi red</w>
et c</w>
c y
R i
m y
st er
con sul
stand ard</w>
di g
S an</w>
issu e</w>
cent ury</w>
g ames</w>
ind ex
wor ds</w>
C or
alo gue</w>
ad op
wom en</w>
im p
co o
ren g
id enti
1 1
ph one</w>
T ran
w id
fl u
Uni versity</w>
on d</w>
us er</w>
G e
l ic
le dge</w>
d -
W ed
tak ing</w>
cre ated</w>
accommod ation</w>
st ain
s .htm</w>
y et</w>
ac tive</w>
at ors</w>
comp uter</w>
c lim
p an
in tro
k it
m al</w>
d i</w>
6 -
dec ision</w>
ren ch</w>
co operation</w>
ter ms</w>
c are</w>
techn ical</w>
po t
ar ri
200 0</w>
par ts</w>
stri bu
Su n</w>
custom er</w>
sh ort</w>
in ning</w>
re main
te am</w>
vi ous</w>
on i
belie ve</w>
D ate</w>
ben ef
acc ount</w>
A fr
ten tion</w>
a ther</w>
form s</w>
develop ed</w>
it able</w>
V AT</w>
adv ant
n er
agre ement</w>
in o</w>
ag s</w>
St ate</w>
de f
4 0
L a</w>
ai m</w>
v ement</w>
p ain
m id
sig nific
por ted</w>
vis its</w>
equip ment</w>
S ince</w>
as h</w>
A A
flo or</w>
ol ogi
ber g</w>
10 .
up dated</w>
pur pos
ati ves</w>
govern ment</w>
ro le</w>
v ers</w>
L ord</w>
issu es</w>
y er</w>
grow th</w>
L L</w>
facil ities</w>
H er
Tu esday</w>
n ever</w>
net work</w>
dou ble</w>
ec e</w>
f oo
reco g
M ed
in t
c o</w>
g er</w>
incre as
tow ards</w>
er a</w>
st reng
mach ine</w>
hap p
me dia</w>
require ments</w>
f av
R ec
inter est</w>
contin ue</w>
oun ded</w>
buil t</w>
ob jec
4 7
C ity</w>
ed ed</w>
maj or</w>
Re gi
S ol
fe atures</w>
ad ded</w>
b it</w>
ill ed</w>
S .</w>
B al
r ich</w>
O p
i er</w>
k i</w>
ex t
proc ed
H am
Pr ice</w>
ast e</w>
bi g</w>
F ree</w>
4 8
mon ey</w>
M y</w>
ti s
par king</w>
form ed</w>
di t</w>
requ ests</w>
air s</w>
Wed n
ec ts</w>
si tes</w>
it er
th ous
po st
T ech
Gener al</w>
anc ed</w>
p rec
di stribu
lin es</w>
r un
w is
ur o</w>
m em
ec tion</w>
w ar</w>
J es
do or</w>
su n</w>
str um
Wedn esday</w>
tt on</w>
A S
ec h</w>
1 st</w>
us ers</w>
ell ent</w>
sear ch</w>
Mon day</w>
7 -
addi tional</w>
F rench</w>
z e
car ri
5 00</w>
k a</w>
id ed</w>
st ation</w>
5 9
c all</w>
Bre akfast</w>
on a</w>
hol d</w>
sec tor</w>
end ar</w>
orig inal</w>
w r
sol ution</w>
z u</w>
A n</w>
c ent</w>
equip ped</w>
th us</w>
C our
solu tions</w>
A G</w>
ans w
ex clu
D o</w>
R O
ex hibi
p ast</w>
Sp ain</w>
partic ularly</w>
H ouse</w>
dra w
every thing</w>
ti g
vide o</w>
c le</w>
vi ew
d le</w>
US A</w>
ex i
200 2</w>
se par
fri end
th y</w>
perf ect</w>
sur r
tr ue</w>
program me</w>
ic ally</w>
pr is
prin ci
w ish</w>
photo s</w>
z z
la ter</w>
Di e</w>
r ate</w>
ach ed</w>
bu d
m om
4 6
saf ety</w>
chan ges</w>
ta x</w>
N ow</w>
g ress</w>
Th er
me et</w>
tr u
I T
mat ter</w>
ke ep</w>
ear ly</w>
F i
ch ed</w>
pr ac
lu x
Tim e</w>
ari a</w>
h u
low er</w>
t ory</w>
rel ated</w>
glo bal</w>
Loc ation</w>
allow s</w>
con clu
al most</w>
L E
H is</w>
grou ps</w>
t ou
h om
char ge</w>
them selves</w>
cra w
ef for
desig ned</w>
0 ,
r ing</w>
ch all
me eting</w>
ac e
L ast</w>
re la
ci tiz
tak es</w>
- 20</w>
h ic
pers ons</w>
hel d</w>
bel ow</w>
as p
d om</w>
av ed</w>
cas es</w>
mis sion
h os
Ch ina</w>
uni que</w>
I C
af f</w>
k -
det er
G i
know ledge</w>
be ds</w>
f as
p t</w>
7 6
ad ing</w>
S wit
inte gr
T re
fur n
F ur
Jo ined</w>
ing -
R E
s end</w>
loc k</w>
ag r
Isra el</w>
F ir
ill s</w>
op tim
h ard</w>
s eri
ques tions</w>
m os
on ed</w>
it ation</w>
Jo h
D ev
le y</w>
an ing</w>
en -
str ong</w>
c a</w>
acc ep
on ic</w>
al -
res ol
long er</w>
bo x</w>
t un
s s</w>
er ous</w>
e e</w>
P ic
tem s</w>
all s</w>
B ri
p u
sti t
s .
sel ect</w>
immobil i</w>
C am
br ing</w>
se en</w>
o t</w>
ru n</w>
r ules</w>
oc k</w>
8 -
st at
me d
l y
ul t</w>
cul tural</w>
c ateg
d as</w>
proper ty</w>
inter net</w>
fil m</w>
g ol
S tr
ad a</w>
wal k</w>
i ri
anal ys
h ous
T e
N ews</w>
s ent</w>
achi ev
I t
Jes us</w>
ex tre
vill age</w>
c are
eff ect</w>
inclu des</w>
tion ary</w>
v ic
apart ments</w>
st ate
materi als</w>
M ach
w ent</w>
re turn</w>
at trac
E R</w>
hol iday</w>
sch ool</w>
P D
Tran s
t on</w>
di st
uplo ads</w>
bath room</w>
z a</w>
Cl ick</w>
so on</w>
inclu ded</w>
ser ies</w>
p ati
5 6
restaur ant</w>
in strum
m aps</w>
lo g
ing ly</w>
m a</w>
comp on
e b
ven tion</w>
ro r</w>
vi ol
appl ications</w>
er c
th re
m itted</w>
ex pres
exc ellent</w>
k en</w>
r o</w>
sh ows</w>
d ers</w>
fe el</w>
direc t</w>
ig ht
reg ul
beg inning</w>
Swit zer
2 ,
reas on</w>
c k</w>
f el
M ad
ac ity</w>
ei ther</w>
temper ature</w>
Air port</w>
profes sional</w>
qu ite</w>
plac es</w>
Comm unity</w>
ord in
connec tion</w>
ri st
es sion</w>
s em
intro duc
al low</w>
Switzer land</w>
off ice</w>
ti ves</w>
k i
M on</w>
k et</w>
recei ve</w>
ve hic
w on
C as
Bo ard</w>
9 -
im medi
s il
s .com</w>
z i
fam ous</w>
D onn
su stain
for ce</w>
m ent
M it
www. amarillas
sum mer</w>
fri end</w>
o d
oc c
ide al</w>
id es</w>
M al
t ation</w>
Sam stag</w>
gar den</w>
oun ds</w>
ail ed</w>
id ence</w>
lead ing</w>
e an</w>
h re
c ris
ail y</w>
O N</w>
htt ps</w>
ali an</w>
w er
pre p
ay ing</w>
200 1</w>
pr acti
cap ital</w>
c ou
pur ch
ste p</w>
centr al</w>
C at
ish ing</w>
We b
Sy ste
fi ve</w>
soci ety</w>
bu s</w>
ra ther</w>
it or</w>
P ost</w>
w p-
ch ing</w>
throu gh
for um</w>
a vi
d ownload</w>
Comm ittee</w>
as tic</w>
ra tes</w>
ris ti
st o
recomm end</w>
sh ow
c ed</w>
for ward</w>
treat ment</w>
ad em
id s</w>
respon sible</w>
j ud
si mil
tain s</w>
er stag</w>
A g
ne l</w>
ter n
ach es</w>
Com mission
sim ply</w>
pe dia</w>
au f</w>
Tech n
lig ht
out side</w>
in depend
h ope</w>
ari an</w>
wp- content</w>
sh op</w>
d ur
se as
stit ute</w>
st aff</w>
func tion</w>
sim ple</w>
R el
an ted</w>
sk i</w>
tion ing</w>
comm er
comfor table</w>
A L
Donn erstag</w>
f res
d ings</w>
speci al
ak ing</w>
ar m</w>
am ount</w>
b row
dem ocr
9 9</w>
z ed</w>
dri ve</w>
resp ect</w>
ÿÿ ÿÿ
Se p</w>
re t
C D</w>
N ext</w>
sh are</w>
opport unity</w>
an g</w>
i al</w>
friend ly</w>
e in</w>
i te
at ory</w>
tr a</w>
cal endar</w>
b ir
c ost</w>
D LL</w>
re ach</w>
Y or
u le</w>
P i
d a</w>
V ill
wor ld
pro f
h en
ple as
pl an</w>
M r
iri t</w>
effec tive</w>
mo del</w>
Dr .</w>
leg is
19 6
i an</w>
st ar</w>
I T</w>
C re
situ ated</w>
bu tton</w>
bor n</w>
cl ass</w>
e in
M E
T y
cho ose</w>
recei ved</w>
tradi tional</w>
ici al</w>
c e
su per
w ind</w>
repres ent
par k</w>
ta g</w>
h our</w>
ech an
en ci
ag ing</w>
Amer ica</w>
lim ited</w>
re sid
en ough</w>
kit chen</w>
index .php</w>
A C
7 5</w>
propos al</w>
R ev
- S
ep tion</w>
j us
sc ri
pre v
oo m</w>
Rep ublic</w>
5 8
cam p
reg ar
- 10</w>
succ ess</w>
D at
Ch r
p ages</w>
an ish</w>
we b</w>
B ed</w>
ther n</w>
enti re</w>
through out</w>
con fir
l ag
con f
g .</w>
N ational</w>
appro pri
n ice</w>
ww w</w>
rou ght</w>
wh ite</w>
ame work</w>
o il</w>
tur ned</w>
m es</w>
D ownload</w>
e ve</w>
par ty</w>
in de
i tems</w>
est ing</w>
Austri a</w>
j our
U N
di es
stud y</w>
Yor k</w>
cl aim
pl at
archi tec
emplo ye
s or
Th e
G o
high er</w>
U p
chec k</w>
c y</w>
i ten</w>
i or</w>
sp ir
s ays</w>
Commission er</w>
A partment</w>
plac ed</w>
ad ministr
par ties</w>
s ound</w>
in ten
educ ation</w>
Fr i</w>
det ails</w>
p ay</w>
he av
Si e</w>
ren t</w>
ac tions</w>
M at
ap p
Ch risti
environ mental</w>
co vered</w>
min d</w>
d ates</w>
ind ic
B as
ma xim
exist ing</w>
citiz ens</w>
sup ply</w>
I r
de -
e ks</w>
h ard
in k
a ur
2 2
r ise</w>
res ources</w>
sci enti
N ame</w>
ne eded</w>
m un
i el
F il
on y</w>
estab lished</w>
r a</w>
trav el</w>
ste ad</w>
S ome</w>
comple tely</w>
C al
M ar</w>
M ain</w>
appro ach</w>
l atest</w>
difficul t</w>
Re g
eas ily</w>
qu ick
sal es</w>
S E
pub lished</w>
P age</w>
w ine</w>
S he</w>
x ed</w>
ti tle</w>
lux ury</w>
s qu
goo ds</w>
Amer ican</w>
L on
am s</w>
Russi a</w>
un to</w>
mon th</w>
ac ross</w>
ris k</w>
h r
dec isi
high ly</w>
Z e
employ ment</w>
la w
play ed</w>
ü n
av o
Mach ine</w>
b ers</w>
s atis
a x
Fre it
to -
cho ice</w>
is tic</w>
simil ar</w>
c ard</w>
o ds</w>
allow ed</w>
s le
ti n</w>
Freit ag</w>
C ap
W ed</w>
in ner</w>
stand ards</w>
w are</w>
3 00</w>
star ted</w>
cap acity</w>
9 5</w>
go t</w>
bec ame</w>
T H
pe ace</w>
ar k</w>
mar kets</w>
bec om
Deut sch
ic o</w>
g en</w>
Fran k
.. ....</w>
g ent
w ind
Afr ica</w>
G ames</w>
enc y
li k
G M
ch urch</w>
ag ed</w>
G o</w>
ph ys
es -
di tion</w>
stric t</w>
form er</w>
oper ating</w>
le ad</w>
e ase</w>
st age</w>
charac ter
l at
0 -
at tention</w>
in flu
high -
mo del
tem por
, 00</w>
cor por
mo di
or ing</w>
en ding</w>
st op</w>
mar k</w>
J an</w>
is land</w>
D el
te ach
re p
Sp eci
pre vious</w>
no thing</w>
f f</w>
new s</w>
blo g
pro mis
go ti
all ery</w>
econom y</w>
b rought</w>
ac es</w>
su itable</w>
V ide
lab or
writ ten</w>
sh ower</w>
A M
e f</w>
s ch</w>
cul ture</w>
O N
la un
air port</w>
St .</w>
al t</w>
ne y</w>
G en
invest ment</w>
4 00</w>
ol i
0 9
k in
sh e
Serv ice</w>
exhibi tion</w>
d aily</w>
set t
re fl
It alian</w>
typ es</w>
Dev elop
play ing</w>
Par is</w>
min im
g ain</w>
regi onal</w>
vari ety</w>
s mo
sec tion</w>
ac ts</w>
y our
pers on
foc us</w>
an n</w>
av ing</w>
success ful</w>
cris is</w>
D uring</w>
pres ented</w>
ency clo
str ation</w>
moun tain</w>
pl ant</w>
impro ve</w>
B en
b at
H el
F eder
ter race</w>
k o
commun ication</w>
tu al</w>
E con
is ing</w>
to s</w>
competi tion</w>
implem entation</w>
fr u
Fir st</w>
re fer
0 8
recog ni
s ale</w>
ship s</w>
10 -
. e
encyclo pedia</w>
atic ally</w>
tran sp
fol low</w>
pl us</w>
s s
con ver
S ource</w>
Econ om
Ch urch</w>
ex change</w>
industri al</w>
G ar
m ed</w>
B ra
ne goti
J ap
work ers</w>
institu tions</w>
mess age</w>
Th u</w>
.. ..
sh own</w>
Ac commod
w ood</w>
er ies</w>
fin al</w>
Ver sion</w>
ad es</w>
author ities</w>
ar ing</w>
practi ce</w>
h im
E ast</w>
co de</w>
6 4</w>
ill ing</w>
ide a</w>
e. g.</w>
re ly</w>
Lon don</w>
wel come</w>
enc ed</w>
d or
OR D</w>
pop ular</w>
t our</w>
ess es</w>
ar ies</w>
S T
m echan
we ight</w>
be h
analys is</w>
S end</w>
W ay
H ar
S up
le -
su gg
it ary</w>
exp ected</w>
1 .0
scre en</w>
t an
vis itors</w>
mom ent</w>
fur t</w>
ver age</w>
part ners</w>
A t
comm it
E m
Vi en
in ion</w>
D ay</w>
g as</w>
Ar ticle</w>
pot ential</w>
comm unity</w>
in sur
re f
ex ter
PD F</w>
hap pen
sti c</w>
c ell
manufac tur
rel ev
D V
Min ister</w>
pic tures</w>
ü r
W est
R est
c ros
inc l</w>
dr y</w>
quick ly</w>
m icro
S wis
de ath</w>
en e</w>
E l
under stand</w>
O f</w>
c ast
u n</w>
tar get</w>
sc ap
M useum</w>
Nor th</w>
pow er
process es</w>
Ar t</w>
che ap</w>
Ther efore</w>
chil d</w>
0 6
M or
p .
ri g
con v
Oc t</w>
K ar
lev els</w>
por ting</w>
m al
de al</w>
no te</w>
shop s</w>
Ju n</w>
rec ent</w>
craw led</w>
ac ks</w>
el op</w>
appropri ate</w>
ep tic
stud ents</w>
ri es</w>
Way back</w>
s ource</w>
deb ate</w>
consider ed</w>
tiv al</w>
I M
sel f-
import ance</w>
gre en</w>
s un
m ig
av es</w>
pos ed</w>
bas ic</w>
re -
man n</w>
reg ard</w>
de m</w>
sur face</w>
comple x</w>
E C
maxim um</w>
sci enc
con duc
clim ate</w>
ord ers</w>
ess ential</w>
fri ends</w>
lin ks</w>
6 5</w>
d y
incre ased</w>
al u
ac qu
ar ticle</w>
S ci
et h</w>
im ming</w>
ad d</w>
i e</w>
yp ages
fl exi
em ail</w>
produc ed</w>
To day</w>
correc t</w>
lear n</w>
Ju l</w>
B ec
G oo
resp ec
respon sibility</w>
sh or
M il
ing dom</w>
dev elop</w>
Par k</w>
201 7</w>
ch em
V en
invol ved</w>
reli gi
Cour t</w>
larg est</w>
effec ts</w>
igh ts</w>
et er
part ner</w>
n icht</w>
m .</w>
a b</w>
E N</w>
To tal</w>
wel l-
T ue</w>
an -
o ch</w>
im pres
posi tive</w>
cer tain
b and</w>
M os
u red</w>
trans fer</w>
S at</w>
ag ue</w>
play er</w>
O ther</w>
Ap r</w>
C ur
as es</w>
f requ
fr amework</w>
y ed</w>
stor age</w>
onom y</w>
do ing</w>
ul l</w>
Se e</w>
ad ap
Manag ement</w>
saf e</w>
carri ed</w>
employe es</w>
gra ted</w>
P ress</w>
I P</w>
W el
d ly</w>
We b</w>
thous ands</w>
sk eptic
em er
pro gress</w>
strate gy</w>
ge ts</w>
eng ine
ap ply</w>
tra ff
B ank</w>
gi ves</w>
fa ir</w>
ad ed</w>
in side</w>
anc ing</w>
In formation</w>
T el
him self</w>
Off ice</w>
mo ve</w>
ear th</w>
le ave</w>
dem and</w>
pres sure</w>
um e</w>
r up
wh ose</w>
beh ind</w>
contain s</w>
car t</w>
deter min
fam il
commer cial</w>
L ORD</w>
purpos e</w>
oc cas
Ch ar
li ghts</w>
cer ti
di stance</w>
mo b
it ting</w>
co ff
ste ps</w>
Pl ay
trans l
b ig
te s
C D
S aved</w>
l ength</w>
won der
R oom</w>
f low
V is
Ham burg</w>
ann oun
dev ice</w>
B ook</w>
guaran tee</w>
op h
S im
st ant</w>
m 2</w>
et te</w>
op tion</w>
val ues</w>
p ra
r ound</w>
scienc e.com</w>
7 8
tiv ely</w>
im ages
n ation
skeptic al
skeptical science.com</w>
ag e
an tly</w>
. 00</w>
en ess</w>
as ked</w>
y e</w>
ologi es</w>
h l
g ir
restaur ants</w>
Chr ist</w>
pic ture</w>
S k
th anks</w>
ver se</w>
to ols</w>
comp re
mos ph
adop ted</w>
sa w</w>
li es</w>
b ase</w>
docum ents</w>
en h
Fe b</w>
stre et</w>
C ar</w>
M ag
Rest aur
signific ant</w>
fore ign</w>
i tes</w>
m ely</w>
b our
Pic ture</w>
ther ap
gre ater</w>
Serv ices</w>
cl ass
x ing</w>
dou b
activ ity</w>
t ool</w>
regar ding</w>
fiel ds</w>
ent ary</w>
S onn
jo b</w>
c ause</w>
ent ing</w>
Pri v
serv ed</w>
Frank furt</w>
re r</w>
M un
sen se</w>
tel l</w>
S t</w>
Al so</w>
transp aren
ho t</w>
mob ile</w>
inter nal</w>
3 5
p aper</w>
an ia</w>
On line</w>
Vien na</w>
D o
A N</w>
st ates</w>
m enti
Swis s</w>
el ements</w>
j a</w>
l ay
un a</w>
ob lig
a us</w>
advant age</w>
Sp anish</w>
rel ation
b on</w>
L an
con ference</w>
re lease</w>
se ts</w>
c anc
dec ided</w>
es .
co -
mo vement</w>
el ess</w>
se e
C ro
model s</w>
b all</w>
pre par
E S</w>
E -
C enter</w>
concer ning</w>
ri d</w>
dem on
agr icul
bl ack</w>
S we
de pen
No v</w>
A si
en a</w>
sel ection</w>
relev ant</w>
En er
F ol
b es
il d</w>
so ft</w>
th ought</w>
T ri
num erous</w>
install ation</w>
off ered</w>
met res</w>
is es</w>
fre ed
ship ping</w>
b an</w>
inter ested</w>
er .
Produc t</w>
achi eve</w>
M i
at mosph
compon ents</w>
inter esting</w>
ec u
Centr al</w>
D em
a i</w>
extre mely</w>
o te</w>
g le</w>
s l
B usiness</w>
F o
compre hen
am a</w>
de dic
D E</w>
ound ation</w>
ou d</w>
con text</w>
us h
re le
al tern
w ise</w>
ch er</w>
em p
re main</w>
con y</w>
T our
M ic
n or</w>
chan ged</w>
li ves</w>
let ter</w>
happ y</w>
en ed</w>
se iten</w>
al th</w>
GM T</w>
immedi ately</w>
3 ,
d on
collec tion</w>
O b
et z
De c</w>
pay ment</w>
is tics</w>
0 7
bud get</w>
direc tion</w>
k g</w>
tech ni
op inion</w>
E uro</w>
op tions</w>
w oo
un ities</w>
acc ord
E v
tempor ary</w>
proc e
imp act</w>
ul ts</w>
we eks</w>
polic ies</w>
ung en</w>
um s</w>
th -
C z
Ó Ç
n ment</w>
st -
te -
cle arly</w>
histor ical</w>
fl ic
Ú É</w>
win ter</w>
process ing</w>
Ch rist
' re</w>
Çá ÓÇ
an ci
mor ning</w>
Çá Â
regi ons</w>
ÇáÓÇ ÚÉ</w>
ÇáÂ ä</w>
ab led</w>
hous es</w>
conc ept</w>
ing en</w>
T i
0 4
sch af
P u
ra u
t z
tu de</w>
Re ad</w>
E C</w>
u x</w>
strate gi
off ering</w>
chall eng
i f
Res earch</w>
s ports</w>
med ical</w>
estab lish
st ore</w>
si x</w>
pl ants</w>
S lo
high est</w>
guaran te
inte grated</w>
Develop ment</w>
sk y</w>
v ac
defin i
al ist</w>
On ly</w>
pop ulation</w>
S ub
bel i
1 -0
W al
B ud
e th
open ed</w>
Ar e</w>
top ic</w>
E L
o graph
tain ed</w>
seas on</w>
s ave</w>
di ed</w>
L et</w>
ter r
effici ency</w>
n d</w>
it ure</w>
M P
fir e</w>
V ol
y l
ite m</w>
ob s</w>
M et
ar ity</w>
star ting</w>
ser ve</w>
set ting</w>
ev alu
er n
ex tra</w>
b s</w>
re ached</w>
er r
pro duce</w>
G over
om et
gu est</w>
t as
coff ee</w>
st ances</w>
s am
m et</w>
develop ing</w>
b order</w>
E ach</w>
fu n</w>
buil d</w>
b ran
al ia</w>
ci ties</w>
S of
p ass</w>
au l</w>
T w
prin t</w>
s on
princi ple</w>
proced ure</w>
z es</w>
8 8
C y
T R
fa ther</w>
pos sibility</w>
b on
un it</w>
sw imming</w>
ep ing</w>
concer ned</w>
st ered</w>
B ed
insur ance</w>
' ll</w>
consul t
e ine</w>
sec ure</w>
g ave</w>
con trac
n y</w>
te le
your self</w>
f ish</w>
9 6
1 50</w>
menti oned</w>
a us
fe ature</w>
ne igh
an ge</w>
con sequ
bil lion</w>
p al
st one</w>
dis play</w>
ast ern</w>
3 4
us h</w>
Centr e</w>
So ci
sustain able</w>
dedic ated</w>
in king</w>
clo sed</w>
M any</w>
re si
remain s</w>
dic tionary</w>
M w
199 9</w>
.0 9.
es tig
G ol
c ac
E g
in stead</w>
ate ll
shop ping</w>
effici ent</w>
coun t</w>
I s</w>
ap poin
meth od</w>
Ac cor
N ew
qu ali
hre f</w>
l am
dig ital</w>
independ ent</w>
ri ver</w>
exter nal</w>
i o</w>
cle an</w>
ur ation</w>
ar ran
jo y</w>
s li
s ex
c ut</w>
land scap
g es
met ers</w>
Bar cel
W est</w>
col or</w>
2 -0
p ath</w>
Ar ti
de g
form at</w>
- -</w>
effor ts</w>
ar r
re vol
pack age</w>
J e
benef it</w>
e ar</w>
S ain
ab ase</w>
ad ver
Joh n</w>
s we
U K</w>
pre ci
In stitute</w>
ain ed</w>
L ength</w>
wor d
reas ons</w>
ev ening</w>
Ph il
sel ected</w>
he ad
sk in</w>
we ather</w>
condi tion</w>
en se</w>
E P
min ute</w>
uc k</w>
f all</w>
inf ra
vi l</w>
er ve</w>
dis h
fun dam
m el
pos si
D as</w>
qui et</w>
ain s</w>
s ens
k ra
func tions</w>
b ank</w>
er ror</w>
Goo gle</w>
bu ff
long -
el ing</w>
s aying</w>
Tre at
d am</w>
O S</w>
cre ation</w>
atmosph ere</w>
n t
8 5</w>
oun ding</w>
w on</w>
innov ative</w>
Russi an</w>
us ually</w>
Sonn tag</w>
ph as
am end
y ond</w>
cl assi
inst all</w>
appro x</w>
every one</w>
legis lation</w>
C ha
am bi
bo at</w>
resol ution</w>
connec ted</w>
F am
ch am
3 D
fl at</w>
cor respon
1 1-
mach ines</w>
con ven
e- mail</w>
p aren
de fa
con fig
atell ite</w>
answ er</w>
di men
I D
g a
I P
cri ption</w>
ä n
enc our
9 9
provid ing</w>
E ven</w>
dec or
gl ass</w>
meth ods</w>
l ess
a uch</w>
o .
tri c</w>
min al</w>
bo t
i -
U se</w>
A ff
ra in</w>
plan ning</w>
arti cles</w>
b it
ex ac
7 7
po sts</w>
freed om</w>
docum ent</w>
P an
tr ain</w>
vo te</w>
0 3
pos t</w>
m ine</w>
w ards</w>
Cont act</w>
As soci
th ank</w>
visi ons</w>
wh om</w>
il s</w>
part ments</w>
stat us</w>
J ust</w>
langu ages</w>
I N</w>
K om
W il
read ing</w>
Por tu
wor ked</w>
me an</w>
me dic
traff ic</w>
w all</w>
organ is
in tel
J er
V o
M er
reserv ation</w>
O T
sy ch
ste el</w>
sy n
Ch am
st ly</w>
c in
r ation</w>
6 6
A ir</w>
No t</w>
inv estig
al ism</w>
open ing</w>
wi pe</w>
w as
d ol
ali d</w>
a 7
wom an</w>
tic ally</w>
p ul
sh o
Mit tw
tr ack</w>
H um
Th us</w>
distribu tion</w>
An t
I S</w>
Mittw och</w>
re new
P at
8 7</w>
Barcel ona</w>
N i
buil dings</w>
a verage</w>
bu y</w>
11. 2016</w>
w anted</w>
contr act</w>
beg an</w>
st a</w>
ut ting</w>
spe ak</w>
c um
world wide</w>
t ren
off icial</w>
appro xim
pho to</w>
ess ed</w>
A v
A D
ten ance</w>
ail ing</w>
sig n</w>
opport unities</w>
re ports</w>
w est</w>
comprehen sive</w>
k il
A re
bil ities</w>
pre sid
pi ece</w>
tri p</w>
S ur
H ung
seri ous</w>
organ iz
c os
Pro f
mil itary</w>
h ands</w>
Cz ech</w>
se ems</w>
separ ate</w>
suff ici
sig ned</w>
prep ared</w>
g it
C ul
v a</w>
qu ar
sup ported</w>
integr ation</w>
er ia</w>
p it
up date</w>
go es</w>
e uro
at -
my self</w>
Ab out</w>
E M
Feder al</w>
Se a</w>
7 2</w>
gu id
r ati
ex pen
ide as</w>
8 9</w>
wat ch</w>
entr y</w>
ig n
inter ests</w>
12 -
Ac c
consi der</w>
bed rooms</w>
B ft</w>
play ers</w>
Bel gi
wind ow</w>
st ock</w>
t s
str ong
he ight</w>
em phas
any thing</w>
y a</w>
A P
Deut sch</w>
5 -0
Comp any</w>
M id
tis h</w>
sm all
maj ority</w>
ey es</w>
al one</w>
sol id
ex erc
B ur
ne g
increas ing</w>
ic ity</w>
S earch</w>
ther more</w>
s outh</w>
4 ,
con flic
vi ously</w>
re views</w>
grow ing</w>
ph ase</w>
s ind</w>
com par
h es
op s</w>
k er
propos ed</w>
B es
re duce</w>
alo g</w>
blo od</w>
Ch ec
dom in
is s
d u</w>
har mon
Tur key</w>
ali for
achiev ed</w>
p aid</w>
Vide o</w>
proper ties</w>
ex plo
h n
det ailed</w>
h am
p ite</w>
er al</w>
B ack</w>
low ing</w>
g res
.0 8.
writ ing</w>
bed room</w>
ak es</w>
occ up
u ti
p on
a di
smo king</w>
A L</w>
cal cul
in struc
f ine</w>
rel ations</w>
B or
re view</w>
S af
tax onomy</w>
fres h</w>
f le
kin ds</w>
a 5
run ning</w>
agre ed</w>
C i
l em
pr ise</w>
benef its</w>
appl ic
aut y</w>
o x
sc ale</w>
D an
Fre e
ec es</w>
con centr
Treat y</w>
S P
beli ev
ell ing</w>
techn ologies</w>
Des cription</w>
f ight</w>
h un
d ang
gi ving</w>
F ac
f arm
exac tly</w>
condi tioning</w>
bal ance</w>
S er
men u</w>
ha ps</w>
in i</w>
Wh y</w>
K o
Ne ther
Pe ter</w>
I ts</w>
U r
00 00</w>
wonder ful</w>
famil ies</w>
Wh ile</w>
a j
A us
rec ently</w>
appl ied</w>
ali sts</w>
Ch in
Christi an</w>
avi d</w>
car s</w>
Th anks</w>
jo int</w>
en n
Eg yp
ad j
3 3
C E
4 5
lo st</w>
avail ability</w>
R ome</w>
gr ad
er e
Accor ding</w>
ther e
I L
lo ss</w>
l ate</w>
dam age</w>
O k
af ter
So cial</w>
S el
t ab
A G
i red</w>
categ ory</w>
ho p</w>
12 th</w>
rec or
comb ination</w>
9 8</w>
str ing</w>
some times</w>
be yond</w>
Direc tive</w>
autom atically</w>
program s</w>
Nether lands</w>
pub l
install ed</w>
dev ices</w>
im ag
get ting</w>
G al
199 8</w>
alifor ni
boo king</w>
T or
prev ent</w>
f al
gel be</w>
c ub
tiv ity</w>
Bec ause</w>
ong s</w>
B et
li f
D et
s n
add res
-- --
th ou</w>
objec tive</w>
il le</w>
ur al</w>
ll er</w>
Gre at</w>
id ity</w>
bi an</w>
Vill a</w>
aci ous</w>
for tun
t old</w>
stu dies</w>
ag ree</w>
8 8</w>
el eg
squ are</w>
t om
inter pre
b ann
comfor t</w>
B oo
c ab
phys ical</w>
7 9</w>
num bers</w>
aw are</w>
v eg
arti sts</w>
boo ks</w>
6 9</w>
lo g</w>
f low</w>
word pres
al though</w>
Me dia</w>
7 1</w>
do es
D avid</w>
hear d</w>
appe ar</w>
comp et
Ar chi
are s</w>
iter ran
mag az
acc oun
6 1</w>
nor mal</w>
e br
1 20</w>
ann ual</w>
ch en
val u
enci es</w>
defin ed</w>
sch o
main ly</w>
ra il
A S</w>
Gre ece</w>
Cro ati
h ood</w>
l as
Hol y</w>
t g
auth or</w>
6 -0
car ds</w>
bl ue</w>
au di
acc ept</w>
Accommod ations</w>
.0 5.
s atellite</w>
per cent</w>
bre ak
M icro
go al</w>
ad vis
un c
f ounded</w>
M ul
M us
K ingdom</w>
Ge or
cli ents</w>
nt .html</w>
U kra
D er</w>
e ding</w>
Pol and</w>
mid dle</w>
b ad</w>
anim als</w>
6 00</w>
B ul
fin ally</w>
uc k
ri c</w>
ag en</w>
S a
7 6</w>
asp ects</w>
Vi ew</w>
ad or</w>
images .php</w>
sto red</w>
deli vered</w>
M ost</w>
N et
gener ation</w>
speci fic
O L
hu ge</w>
H or
ke y
anal y
s wit
Sof tware</w>
b es</w>
does n</w>
pi eces</w>
spe ak
c b</w>
e z
Econom ic</w>
h ou
Cont ent</w>
St ation</w>
at tem
rec ord</w>
Mun ich</w>
m ary</w>
propos als</w>
DV D</w>
in s
tion ally</w>
d ownlo
m ir
Au th
Lu x
fr i</w>
certain ly</w>
6 2</w>
vehic le</w>
8 6</w>
vo ice</w>
re over</w>
Pho to</w>
B os
pres ence</w>
col our</w>
car ry</w>
requ ire</w>
follow ed</w>
A ut
E I
Web site</w>
program mes</w>
associ ated</w>
in ary</w>
fun ds</w>
m ass
7 8</w>
Speci al</w>
approxim ately</w>
ish es</w>
re ference</w>
r on
main tenance</w>
ic y</w>
tu red</w>
scienti fic</w>
mon it
l ing
s ich</w>
si vely</w>
T I
al ing</w>
bi o
em is
T ags</w>
use ful</w>
b ab
St re
M ari
L ake</w>
y m
Pro gram
to m</w>
E lec
str u
h ire</w>
enc oun
c f
In dia</w>
S um
en able</w>
E s</w>
Associ ation</w>
J os
m as
C o</w>
reg ular</w>
dest ro
decisi ons</w>
7 7</w>
C hi
minim um</w>
G es
assi stance</w>
9 2</w>
Au str
Op en</w>
instrum ents</w>
becom es</w>
Aff airs</w>
0 5
particip ants</w>
b ath</w>
S -
Med iterran
r d</w>
L is
ch ance</w>
Stu dio</w>
photo graph
A -
av a</w>
au f
p ers</w>
under standing</w>
im g</w>
sci ence</w>
B ro
al bu
v oc
c able</w>
hum an
ar g
bi a</w>
b d</w>
6 6</w>
regi stered</w>
l led</w>
i ous</w>
un its</w>
p as
lim it</w>
it a</w>
Ad ministr
on ia</w>
ob ject</w>
O per
E B
purch ase</w>
D ep
g allery</w>
j e
bro ad
R os
conven i
ver lag
j u
s r
bar gain</w>
s us
dor f</w>
Fur thermore</w>
ra di
prob ably</w>
for ces</w>
g ri
fundam ental</w>
col labor
the -
prac tical</w>
H om
9 1</w>
li ber
relation ship</w>
ra ted</w>
b usin
10 0
en ge</w>
Tra v
Syste m</w>
tim ate</w>
consi sts</w>
mo ther</w>
Manag er</w>
Jap an</w>
j obs</w>
p il
us ual</w>
comm ents</w>
cl aim</w>
over all</w>
m useum</w>
Ener gy</w>
verlag .com</w>
ar ch
br and</w>
state ment</w>
bann er.
ter rit
um p</w>
emb ly</w>
open x</w>
For um</w>
a5 a7
git verlag.com</w>
50 bd</w>
banner. gitverlag.com</w>
a5a7 50bd</w>
struc tures</w>
we ek
s pl
avo id</w>
Mediterran ean</w>
ther wise</w>
P aul</w>
protec ted</w>
Comm un
accord ance</w>
dra w</w>
Are a</w>
En viron
on to</w>
moun tains</w>
Com ments</w>
ass ess
wr ite</w>
b ul
L o-
al ities</w>
re ality</w>
ö r
blo g</w>
Rev i
s lo
g am
d own
S ant
os en</w>
f illed</w>
s ard
In v
elec tric</w>
con stitu
Chin ese</w>
nor th</w>
m as</w>
oper ations</w>
Wh ere</w>
reduc ed</w>
Lo- Fi</w>
b loc
T ex
re pe
A B
id ent</w>
p ap
W ar
S ing
Priv ate</w>
histor ic</w>
be half</w>
Con ference</w>
8 1</w>
sp irit</w>
6 3</w>
k l
electr onic</w>
is on</w>
h a</w>
cre dit</w>
.e .</w>
w aste</w>
protec t</w>
I d
di d
ec t
he at</w>
ep age</w>
tiv eness</w>
respon se</w>
li er</w>
Su ite</w>
ö n
w ur
charac ter</w>
ure ment</w>
lis ted</w>
ma x</w>
pl i
de tec
Wi -
A P</w>
typ ical</w>
l ack</w>
Des ign</w>
8 4</w>
ru le</w>
Ver y</w>
D u
ol ic</w>
2 50</w>
S il
w in</w>
West ern</w>
influ ence</w>
qu es</w>
E ar
mo vi
Wi th
adv ance</w>
T ake</w>
Mw St</w>
3 F
9 6</w>
es .htm</w>
lik ely</w>
descri ption</w>
requi res</w>
k es</w>
tal k</w>
promo te</w>
wid th</w>
ti ll</w>
no .
g ment</w>
cre ating</w>
boo k
reg ulation</w>
tour ist</w>
S ou
ca used</w>
initi ative</w>
F lo
arti st</w>
ati vely</w>
S hi
m it
d ining</w>
d ging</w>
um n</w>
C ateg
dis ci
cir cum
s q
ar a</w>
9 3</w>
dy nam
comple ted</w>
M ay
dis cover</w>
r ac
accommod ations</w>
deg ree</w>
Mar k
cle aning</w>
pati ents</w>
anci ent</w>
Wi- Fi</w>
Mic ha
exper ts</w>
cour t</w>
es ter</w>
eng ine</w>
pl ans</w>
3 -0
bal cony</w>
s port</w>
cour ses</w>
7 4</w>
fa ith</w>
immobil sard
M y
sig n
C lu
power ful</w>
war m</w>
fac es</w>
be auty</w>
in ia</w>
br ary</w>
brow ser</w>
ne ar
wal king</w>
commit ment</w>
Restaur ant</w>
F es
call s</w>
8 0
and -
of -
re stric
c rit
bre ak</w>
plat form</w>
el se</w>
Me hr</w>
un ch</w>
trans lation</w>
c ast</w>
B ack
challeng es</w>
a c</w>
pur su
negoti ations</w>
wa ve</w>
por te
Ch il
L eg
R et
loc ations</w>
be ha
W in
A .</w>
claim s</w>
y right</w>
W ar</w>
D om
discus sion</w>
M B</w>
col le
wor th</w>
z one</w>
innov ation</w>
R e</w>
arri val</w>
beg in</w>
. ch</w>
Se ite</w>
G lo
stan ds</w>
mark eting</w>
gu i
ov en</w>
K on
sub si
infra structure</w>
comp os
b ing</w>
L ab
Ma i</w>
buff et</w>
9 7</w>
orig in
L O
Ad d</w>
m l
i .e.</w>
exten sion</w>
contribu tion</w>
R ob
st ood</w>
a e
' m</w>
6 7</w>
P S</w>
m aster</w>
dis ease</w>
B on
dat abase</w>
experi enced</w>
c ore</w>
dies es</w>
ut y</w>
P ub
experi ences</w>
ach ing</w>
Pho tos</w>
hab it
6 8</w>
4 -0
5 ,
O ut
id ays</w>
di alogue</w>
proced ures</w>
E d
di strict</w>
W ol
ed ge</w>
On ce</w>
recomm ended</w>
pat ent</w>
ver si
corpor ate</w>
V ic
Hol iday</w>
he ar</w>
M ex
Al though</w>
Asi a</w>
en ables</w>
h ost</w>
d ll</w>
vehic les</w>
H igh</w>
s even</w>
t ask</w>
B efore</w>
tre es</w>
C a
ol d
princi ples</w>
own ers</w>
ic ip
tri bu
de ep</w>
lear ning</w>
s ession</w>
ch osen</w>
objec tives</w>
comp ared</w>
res ort</w>
ent ure</w>
13 .
Or gan
der ed</w>
g ht
7 3</w>
f ishing</w>
b is</w>
ent -
reduc tion</w>
H ist
R em
Bri tish</w>
9 -0
8 2</w>
um ents</w>
si ght</w>
exp an
S pe
TH E</w>
M usic</w>
c ust
sp r
provid er</w>
lab our</w>
i ther</w>
tele phone</w>
li st
T ro
U .
fo rest</w>
9 0
v ements</w>
consum ption</w>
b ly</w>
J un
ner ship</w>
Lin ux</w>
det ail</w>
rou te</w>
posi tions</w>
in ations</w>
pl ays</w>
. amarillas
Gover nment</w>
lo ad</w>
com man
continu ed</w>
pri ority</w>
vol ume</w>
o t
ro l</w>
b en</w>
N E
g -
S ard
D en
Y es</w>
ent y</w>
ci vil</w>
respec tive</w>
8 3</w>
no tice</w>
ang el
streng th</w>
sub mitted</w>
tru th</w>
fru it</w>
direc tive</w>
accep ted</w>
engine ering</w>
in vi
r ich
Pol icy</w>
S en
acc ur
v or
Clu b</w>
ir s</w>
P res
pleas ant</w>
exten sive</w>
. p
cel ebr
et ings</w>
dest ination</w>
mo tor
M ini
veg et
E PC</w>
us sel
i ti
A mar
per man
suffici ent</w>
b a
R ol
entr ance</w>
Sp irit</w>
f ab
col l
E ver
n ames</w>
Fin ally</w>
201 2-0
differ ence</w>
pri or</w>
om as</w>
fortun ately</w>
H an
sel y</w>
co ast</w>
out put</w>
E very</w>
m on</w>
introduc ed</w>
4 3
Mr s</w>
t in
tradi tion</w>
Dat a</w>
gh ter</w>
adv anced</w>
er en</w>
w ash
An n
v it
tran si
Can ada</w>
F ore
Su per
spec ies</w>
199 7</w>
sup ports</w>
L e</w>
he ating</w>
St ar
am ic</w>
pass eng
f our
Bed room</w>
- up</w>
ar ms</w>
purpos es</w>
sp acious</w>
A V
ed ings</w>
Micha el</w>
z en</w>
inde ed</w>
C er
acc es
s ons</w>
des k</w>
uc le
Con tro
A partments</w>
C an</w>
concer ns</w>
f em
u g</w>
t .com</w>
occas i
Tw o</w>
g old</w>
Ro oms</w>
5 5
beha vi
4 00
sha re
Direc tor</w>
dri ver</w>
d ar
consi st
um -
ob jects</w>
wel l
ri a</w>
altern ative</w>
Co de</w>
C ustom
P C
Con vention</w>
s .de</w>
furn iture</w>
Produc ts</w>
9 4</w>
te sts</w>
W C</w>
fe e</w>
K r
camp a
k en
met al</w>
Ap pl
direc tor</w>
advant ages</w>
G ame</w>
Pe ople</w>
en su
g al</w>
e u
sch em
appe al</w>
N on-
cli ent</w>
. info</w>
po or</w>
T ER
Li fe</w>
near by</w>
star s</w>
e di
ung s
tou ch</w>
tion ed</w>
pro visions</w>
de posi
fun ding</w>
D ou
comm and</w>
am az
st ers</w>
b anks</w>
sp end</w>
back ground</w>
w ants</w>
Par t
M L</w>
lit er
st ad
n u
di ag
ul ate</w>
inter face</w>
h all</w>
agre ements</w>
acc ess
M oun
man ner</w>
3 f
re ve
a wa
um b
t aste</w>
foo t</w>
G ra
Sec urity</w>
etz t</w>
effor t</w>
cre te</w>
remo ve</w>
ame ter</w>
le ts</w>
k o</w>
C op
ati n</w>
architec ture</w>
lo se</w>
F ind</w>
satis fac
struc tion</w>
se l</w>
T a
follow s</w>
Techn ology</w>
schaf t</w>
J ud
o l</w>
del e
s ac
V ir
prac tic
o .com</w>
pat ter
some one</w>
sk ills</w>
cu is
k ept</w>
24 -
f ill</w>
or g
fe ed</w>
end a</w>
R ed</w>
No .</w>
represent atives</w>
pass ed</w>
C .</w>
D ol
tain ment</w>
s ources</w>
inde x</w>
Ok tober</w>
exc l</w>
y al</w>
vo tes</w>
U l
g est</w>
democr acy</w>
ul i</w>
war ded</w>
D -
wr ong</w>
co ver
B ar</w>
12. 11.2016</w>
particip ation</w>
fas hi
abil ities</w>
re form</w>
profes sion
foo t
sp ring</w>
de ep
regul ations</w>
monit oring</w>
me aning</w>
comb ined</w>
ar i</w>
anc y</w>
reli able</w>
s in
Belgi um</w>
rele ased</w>
n ation</w>
g s</w>
Or der</w>
R a
Fran c
for get</w>
rel ation</w>
landscap e</w>
er ship</w>
ess or</w>
pre -
o red</w>
sy m
actu al</w>
P ublic</w>
e ast</w>
larg er</w>
ori al</w>
fer red</w>
M embers</w>
th ir
8 00</w>
k ers</w>
impro ved</w>
f ying</w>
sch ed
int ended</w>
visi ble</w>
H igh
ter ed</w>
t ings</w>
tur ns</w>
defa ult</w>
sha pe</w>
ter y</w>
W at
Ad v
t ac
bi ke</w>
Mo reover</w>
Fes tival</w>
S m
He alth</w>
or a</w>
long- term</w>
to il
P L
wur de</w>
AA AA
individ u
transparen t</w>
n av
ap preci
as se</w>
w alls</w>
I II</w>
our selves</w>
6 0
cast le</w>
sc en
R en
k el</w>
b ought</w>
p et
descri bed</w>
exclu sive</w>
l ake</w>
re n</w>
el ev
I F
g ro
fr ame</w>
comp ati
tu rer</w>
a sts</w>
rap porte
p ping</w>
B ab
P en
I A</w>
out door</w>
Wh o</w>
kil omet
recomm end
K B</w>
mem ory</w>
le ads</w>
Th ank</w>
Croati a</w>
organ ization</w>
pres entation</w>
anim al</w>
D e</w>
ha ir</w>
v el
chan ging</w>
k om
c lock</w>
the e</w>
pris es</w>
re place</w>
manufactur ing</w>
f light</w>
Vi ews</w>
on ing</w>
ph il
s en</w>
mark ed</w>
categ ories</w>
O M
sen si
t i</w>
col d</w>
lead er</w>
f it</w>
adver ti
Bu il
sub stan
Pre mi
religi ous</w>
f ant
S ize</w>
t led</w>
o to
bo dies</w>
on e
op pos
Amar illas
H os
inst ance</w>
for ced</w>
Y ear</w>
G N
sr c</w>
La w</w>
oper ate</w>
em a</w>
S an
so -
b our</w>
fi xed</w>
Sant a</w>
chall enge</w>
ple ased</w>
P R
tain ing</w>
consum er</w>
announ ced</w>
associ ation</w>
mo de</w>
et ary</w>
t ol
t ags</w>
r ic
Lin ks</w>
con sci
4 57
consum ers</w>
St and
cam era</w>
3 D</w>
sec tors</w>
democr atic</w>
fin ished</w>
F un
pro file</w>
L ev
ra dio</w>
id den</w>
possi bilities</w>
dec l
e uro</w>
e at</w>
dem ands</w>
ut ch</w>
sha red</w>
per haps</w>
cl ing</w>
agricul tural</w>
A C</w>
el ines</w>
y ou
ecu tive</w>
p es</w>
Bra z
www. ypages
Gr and</w>
b a</w>
i el</w>
equ al</w>
H T
sec re
u ar</w>
ti tude</w>
did n</w>
ex ist</w>
f t
l o</w>
P a
strategi c</w>
contribu te</w>
4 4
qu anti
Fa ther</w>
aff ected</w>
per spec
attrac tive</w>
Sard inia</w>
199 6</w>
d f</w>
id o</w>
clu b</w>
deposi t</w>
ey e</w>
open -
organ isation</w>
ow ner</w>
cont ents</w>
or ities</w>
see ing</w>
hel ps</w>
prof it</w>
bir th</w>
sc ope</w>
st ability</w>
re turned</w>
cy cle</w>
ha m</w>
ordin ary</w>
M .</w>
plan ned</w>
ro ll
ur l</w>
crit eria</w>
In d
ÿÿÿÿ ÿÿÿÿ
ous ness</w>
is m
n is</w>
3 1st</w>
L og
appro ved</w>
administr ation</w>
Bl ack</w>
201 1-0
J us
en i
b in
meas ure</w>
ing er</w>
law s</w>
jour ney</w>
Is lands</w>
Ukra ine</w>
s and
p. m.</w>
dis h</w>
R U
eleg ant</w>
encoun ter</w>
T op</w>
t on
off ices</w>
Sch ool</w>
reg ister</w>
amar ill
proce edings</w>
ext ent</w>
www. skepticalscience.com</w>
h op
adv ice</w>
adj ust
be i</w>
3F taxonomy</w>
perf ec
comm itted</w>
t os
is che</w>
l ich</w>
An dre
C S
v alid</w>
fe ar</w>
n t</w>
T it
Wel come</w>
in ks</w>
ic y
K it
2 nd</w>
dec ide</w>
f arm</w>
Pre is</w>
t ree</w>
De bian</w>
exc ep
et ers</w>
Ad di
magaz ine</w>
develop ments</w>
recog n
in form
loo ks</w>
fav our</w>
en th
pro of</w>
o therwise</w>
ro ck</w>
Egyp t</w>
nam ed</w>
Mo on</w>
O ver
es tic</w>
d au
rel and</w>
Pal est
201 0
prin ting</w>
Pro c
flexi ble</w>
ink l</w>
A D</w>
Lan gu
thous and</w>
in come</w>
Bo th</w>
con crete</w>
cop y</w>
lin ked</w>
R ights</w>
instrum ent</w>
paren ts</w>
la g</w>
9 8
N atur
th eless</w>
L y
ar ance</w>
organis ations</w>
ac compan
M ac
fig ure</w>
Per son</w>
tas ks</w>
exper im
s ev
jo in</w>
ever theless</w>
in ess</w>
b un
CH F</w>
cuis ine</w>
K ing</w>
T em
Pl ace</w>
st able</w>
B il
ach t</w>
implem ented</w>
bri dge</w>
Chec k</w>
' ve</w>
um ent</w>
B a
appe ars</w>
M ob
s a</w>
M S</w>
hol ders</w>
B est</w>
ven ue</w>
main tain</w>
fin ancing</w>
Wi Fi</w>
wa iting</w>
therap y</w>
gener ally</w>
ini an</w>
estab lish</w>
modi fied</w>
c ro
No te</w>
. hr</w>
m ut
ur ban</w>
ici ous</w>
be aches</w>
val ley</w>
surr ounding</w>
e h
M ün
Categ ory</w>
ch ap
I reland</w>
te sting</w>
concer n</w>
enter ed</w>
m ist
gent lem
an e</w>
es tim
orig in</w>
G ood</w>
ne ither</w>
ha us
S how</w>
Chil dren</w>
A no
Mid dle</w>
r ad
m u
oc cur
e ze</w>
Me er</w>
Mar ket</w>
Fam ily</w>
ur g
draw n</w>
st e</w>
m ass</w>
Ex c
tr ying</w>
mat ters</w>
hi er</w>
Mex ico</w>
Gre ek</w>
Austri an</w>
rail way</w>
amend ments</w>
In f
it ate</w>
rati o</w>
ucle ar</w>
exp ect</w>
pe l</w>
contro lled</w>
fig ures</w>
D ig
E astern</w>
v an</w>
A gr
S ha
D ub
at a</w>
Cat alogue</w>
promis e</w>
Par ty</w>
oo th</w>
U p</w>
an i</w>
pl astic</w>
gi a</w>
D oc
p un
manag ed</w>
U N</w>
G l
R u
ev idence</w>
z on
small er</w>
fr on
eas ier</w>
f ran
repres ents</w>
Ever y
ste in</w>
Co sta</w>
wi fe</w>
pres erv
ic ate</w>
gr ade</w>
Mar tin</w>
gr ounds</w>
hol idays</w>
Presid ency</w>
199 5</w>
ell a</w>
ou l
o der</w>
Swe den</w>
ro te</w>
sy mp
we i
th inking</w>
A gre
tz -
pl ate</w>
albu m</w>
J P
el ement</w>
wat er
port ation</w>
ti fied</w>
regi stration</w>
spir it
Br ussel
10 00</w>
er to</w>
.0 00</w>
c row
h at</w>
quar ter</w>
no on</w>
Austr alia</w>
stru gg
streng th
cap it
s tim
m ay
oun ge</w>
. c
lead ers</w>
En joy</w>
spe aking</w>
so- called</w>
p ath
Portu gal</w>
cor ner</w>
C ho
do ors</w>
As s
pol ice</w>
cri min
Pro tec
per formed</w>
tre mul
Sain t</w>
m ation</w>
g ar</w>
busin esses</w>
O P
Li ving</w>
Al l
al ed</w>
dr ink</w>
t ours</w>
Sci ence</w>
I G
medi um</w>
Saf ety</w>
f it
syste m
R ental</w>
ing u
f all
exist ence</w>
9 7
dis played</w>
substan ti
g em
E duc
Kom ment
pro v
al t
F ile</w>
tremul ous
mem ber
electr icity</w>
con temporary</w>
E UR
tu ally</w>
on e-
determin ed</w>
mig ration</w>
over view</w>
contin ues</w>
an o
cros s-
b y
he im</w>
S to
tremulous .net</w>
tour ism</w>
dis pos
Ano ther</w>
Brussel s</w>
re member</w>
vac ation</w>
ev ision</w>
s ter</w>
conc ep
r ul
sp on
tr ust</w>
Jus tice</w>
depen ding</w>
autom atic</w>
fe eling</w>
assess ment</w>
cra ft</w>
ist ers</w>
Tr ade</w>
.0 6.
manufactur ers</w>
hand ling</w>
K G</w>
sem in
ti le</w>
out standing</w>
n ar
sol d</w>
am oun
En ter
anti -
as i
cr uc
sp read</w>
Bul g
O pen
sid es</w>
K in
conflic t</w>
f ish
and a</w>
scho ols</w>
M el
tax es</w>
mun icip
Ma p</w>
7 -0
cri tical</w>
classi c</w>
Deutsch land</w>
D or
st ated</w>
ti se</w>
perfec tly</w>
fo rec
bot tom</w>
t .
big gest</w>
Re port</w>
de par
exc ept</w>
bar s</w>
s .</w>
ob serv
.0 4.
P lan
w rote</w>
an a.
Dem ocr
x -
I R
discus sed</w>
gentlem en</w>
AT A</w>
n g</w>
g one</w>
arran g
w ird</w>
est er
it age</w>
B S
457 6</w>
sk i
St ut
dish es</w>
sig Free
ste ll
sigFree Id
de ad</w>
dr yer</w>
A k
v ar</w>
fac tors</w>
3 2
d ance</w>
Fur ther</w>
Revi ew</w>
F oundation</w>
mo ved</w>
3f cf
D utch</w>
cal date</w>
ext ended</w>
ell ed</w>
j e</w>
tz- oto
tz-oto cac
tz-otocac .hr</w>
sigFreeId 3fcf
sigFreeId3fcf 76
sigFreeId3fcf76 4576</w>
ic caldate</w>
ad y</w>
in sul
rec eption</w>
r y
d ark</w>
viol ence</w>
pol y
d ress</w>
cont ain</w>
pe ace
li qu
per c
terr or
sou l</w>
ne u
Stre et</w>
Rom an</w>
n ect</w>
bo ats</w>
IN G</w>
vide os</w>
as .net</w>
30 -
ad equ
n en</w>
b li
net works</w>
de ze</w>
D ue</w>
fi f
er o
mar ks</w>
we st
D on</w>
co ordin
re nov
form ing</w>
T O</w>
Mr .</w>
T our</w>
acces sible</w>
sol ar</w>
ES T</w>
rela x</w>
top ic
e en</w>
K un
ch t</w>
em o
li ons</w>
rou gh</w>
me etings</w>
th es
furn ished</w>
O r</w>
re fu
di an</w>
2010 -0
c ross</w>
ra ised</w>
el im
M B
EI B</w>
s tic
surr ounded</w>
vers al</w>
jus tice</w>
aim s</w>
Mad rid</w>
Cam p
the at
ic ht
O ld</w>
multi ple</w>
B each</w>
fer ences</w>
fir m</w>
5 4
der i
presid ent</w>
inclu sive</w>
ep h
ing ing</w>
U ser</w>
in ts</w>
lo s</w>
am p
heal thy</w>
or al</w>
n ations</w>
In de
M ess
auth ority</w>
L im
prepar ation</w>
fel t</w>
rapporte ur</w>
solu tely</w>
Syste ms</w>
Hum an</w>
St art</w>
.0 1.
st ations</w>
sp ent</w>
S ar
remo ved</w>
er o</w>
c ement</w>
Mini stry</w>
Christ mas</w>
coo king</w>
Hung ary</w>
ev a</w>
ec ting</w>
circum stances</w>
happ en</w>
appoin ted</w>
7 0
di versity</w>
resi stance</w>
inter ior</w>
au dio</w>
emis sions</w>
en .htm</w>
iz ing</w>
- 15</w>
Qu ote</w>
Ear th</w>
can di
ro ll</w>
fe et</w>
particip ate</w>
ap est</w>
al ized</w>
lo s
eri e</w>
pro ph
ul a</w>
mess ages</w>
w il
Me eting</w>
pan or
P S
mo ving</w>
comm is
cell s</w>
x x
tes ted</w>
K ur
z er</w>
P H
sur vi
201 5-
err ors</w>
deli ver</w>
ha us</w>
pack aging</w>
g al
con d
com .
E l</w>
arr ay</w>
speci fied</w>
Pro ject</w>
x es</w>
hon dur
success fully</w>
appe ared</w>
Ri ver</w>
al ty</w>
dri ving</w>
Al ex
wa it</w>
T S</w>
fes tival</w>
ear lier</w>
Ind ustri
la h</w>
port fol
ha ir
a head</w>
V ia</w>
govern ments</w>
qu o
s av
fu el</w>
L atin</w>
n it
Par king</w>
H y
competi tive</w>
ev ol
dro p</w>
W ell</w>
b and
star ts</w>
L iter
mis sing</w>
W er
up per</w>
gr anted</w>
I ch</w>
col ours</w>
ne arly</w>
to t
hi b
6 ,
H al
J uli</w>
9 ,
y ers</w>
ver sions</w>
I B
str a</w>
bl ank</w>
any one</w>
5 3
al ization</w>
cam p</w>
Th omas</w>
W he
Z ur
pre mi
E dition</w>
.0 3.
Sal z
P as
An gel
la dies</w>
Stut tg
el le</w>
du k
sig ns</w>
L at
ze ig
cou ple</w>
p ine</w>
we ar</w>
as sum
tu b</w>
becom ing</w>
199 4</w>
200 9-0
t to</w>
co vers</w>
eas es</w>
arti stic</w>
qu ick</w>
sel l</w>
r ating</w>
increas ingly</w>
an ese</w>
g ard
Deutsch e</w>
l au
The ir</w>
ev il</w>
Tur k
li am
repres ent</w>
reg im
Q U
co w</w>
struc tur
tri ed</w>
s mar
consequ ences</w>
chem ical</w>
se em</w>
Gar den</w>
ab road</w>
L ist</w>
und red</w>
os oph
n -
h en</w>
exam ples</w>
6 8
intel lig
guarante es</w>
reg ards</w>
ti an</w>
au ght</w>
t um
gr at
em ed</w>
f ts</w>
u k
bro ad</w>
us al
ris ks</w>
o ts</w>
neg ative</w>
L ink</w>
C ub
An al
w indows</w>
establish ment</w>
E L</w>
des ire</w>
pro jec
1 10</w>
ist an</w>
ex press</w>
Gu ests</w>
Fore ign</w>
exerc ise</w>
W o
li ft</w>
evalu ation</w>
bel ong</w>
B av
f lower</w>
cl in
hou se
C ast
.0 2.
S pr
comp ens
r ub
se ek</w>
Wh ite</w>
E mail</w>
ge -
view topic
for th</w>
sett ings</w>
n els</w>
K ore
der n</w>
ü s
sup porting</w>
happen ed</w>
ex ec
Me di
op position</w>
flow ers</w>
rel ating</w>
connec tions</w>
it ä
7 ,
f an</w>
f ail
J ew
la -
h undred</w>
g row</w>
manufac turer</w>
introduc tion</w>
viewtopic .php</w>
su ite</w>
Micro soft</w>
S everal</w>
S C
I ON</w>
signific antly</w>
Cor por
hom es</w>
en em
repres ented</w>
H a
k y</w>
tu e</w>
ab solutely</w>
t .de</w>
organ ized</w>
J our
comm ittee</w>
wer den</w>
me an
be l</w>
ch ain</w>
Qu ality</w>
ic king</w>
spirit ual</w>
run s</w>
heav y</w>
B ol
sp a</w>
pain ting</w>
de partment</w>
is c
usal em</w>
part nership</w>
0, 0</w>
depen ds</w>
T E</w>
consult ant
pleas ure</w>
li e</w>
divid ed</w>
recor ded</w>
compl i
mo tion</w>
wh ere
p p
Pr ague</w>
p sych
19 th</w>
fa x</w>
res ear
sq m</w>
Fil m</w>
gir l</w>
ac king</w>
in habit
care er</w>
ei l</w>
impro vement</w>
t age</w>
des pite</w>
and ed</w>
Jer usalem</w>
ici ans</w>
pres ents</w>
tan e
I ra
ut ri
Is land</w>
n uclear</w>
al um
multi -
li ved</w>
exper tise</w>
sk illed</w>
M es
br ings</w>
Jun i</w>
1. jpg</w>
G allery</w>
L and
cre ative</w>
impl ement</w>
te t</w>
H u
subsi di
sp aces</w>
exc e
2 1
ear n</w>
al le
Inv est
B ath
ur ies</w>
cel l</w>
H all</w>
f oundation</w>
l aid</w>
Am ster
M aria</w>
d inner</w>
stre ets</w>
8 -0
S .
ro b
Lo g</w>
are n</w>
Pro v
J ah
An y</w>
gol f</w>
b t</w>
M aster</w>
Afr ican</w>
Slo v
e dition</w>
Stuttg art</w>
L uc
X P</w>
p or</w>
201 3-0
fic ations</w>
Lis bon</w>
z y</w>
ci v
expres sion</w>
ld n</w>
in sp
ar ily</w>
Agre ement</w>
ste n</w>
ing .com</w>
i P
appe arance</w>
del eg
n om
C le
as su
Re f</w>
Aut om
www. immobilsard
www.immobilsard a.com</w>
fal se</w>
wat ers</w>
prep are</w>
know s</w>
adverti sing</w>
pati ent</w>
Pro per
Gre en</w>
Back ground</w>
B row
.0 7.
rel ess</w>
fam ili
demon str
them e</w>
im mer</w>
coun ter
g in</w>
top ics</w>
ra w</w>
ate n</w>
manag er</w>
eng lish</w>
B ir
reas on
S qu
Un der</w>
ass embly</w>
appl ies</w>
individu als</w>
off ici
diag no
St ar</w>
ob tain</w>
ell o</w>
3 rd</w>
vol un
X L</w>
Soci ety</w>
re ci
ol a</w>
B O
sub sequ
si t</w>
Fin land</w>
mar ri
V on</w>
ad o</w>
Th ose</w>
Educ ation</w>
t ap
dep th</w>
man age</w>
y r
w o
ound ings</w>
stan tly</w>
initi al</w>
se x</w>
z um</w>
Ger man
S c
sy mb
li brary</w>
U. S.</w>
po ver
cl ub
Tex as</w>
Ac adem
perman ent</w>
Trav el</w>
b b
199 0</w>
G ard
rela xing</w>
disci pl
ay ed</w>
Komment are</w>
tex ts</w>
H ab
W ater</w>
dynam ic</w>
T un
ben e
enti tled</w>
Amster dam</w>
territ ory</w>
speci ally</w>
ep s</w>
cl .</w>
collabor ation</w>
am en
M ail</w>
s an
portfol io</w>
Mad am</w>
a warded</w>
tru ly</w>
loo ked</w>
expres sed</w>
no ch</w>
woo den</w>
u k</w>
N O
Jew ish</w>
- to-
J ews</w>
el low</w>
pro to
re di
m ol
vis ited</w>
fil ms</w>
enter prises</w>
d og
w ed</w>
T own</w>
b ach</w>
pu er
w ri
re fer</w>
cat alogue</w>
ter min
t ons</w>
sim ul
mil es</w>
re in
go als</w>
ti l
D ri
20 th</w>
administr ative</w>
sa una</w>
eri al</w>
fe ed
tur ning</w>
30 th</w>
hi king</w>
. at</w>
impro ving</w>
d al
S uch</w>
t ment</w>
Cul ture</w>
an ni
Pu erto</w>
allow ing</w>
Hom epage</w>
Ter ms</w>
compon ent</w>
al isation</w>
ord ination</w>
0 2
flexi bility</w>
i ers</w>
fi x</w>
7 00</w>
reserv ed</w>
pro per</w>
fin ance</w>
conf idence</w>
Loc ated</w>
for d</w>
Mul ti
G et</w>
18 0</w>
ou red</w>
as .
uni versity</w>
der ing</w>
un s</w>
rep air</w>
di tions</w>
mo tor</w>
character istics</w>
dra ft</w>
M is
R A
li ance</w>
lo ts</w>
flo ors</w>
au st
at r
Prof .</w>
vill a</w>
u tions</w>
v e-
D im
is ted</w>
we ap
am eters</w>
al es</w>
it arian</w>
des ired</w>
hol ds</w>
Braz il</w>
light ly</w>
dist inc
amaz ing</w>
in formed</w>
Acc ess</w>
199 2</w>
fac tor</w>
pre viously</w>
ag ency</w>
con stantly</w>
10 H</w>
legis l
un ion</w>
th i
In stitu
v ine</w>
resul ting</w>
ch -
g le
spo t</w>
ill u
re ported</w>
M en
F u
k ies</w>
teach ing</w>
clo sely</w>
f en</w>
b lock</w>
surr oundings</w>
tre ated</w>
west ern</w>
es h</w>
Non- smoking</w>
organ ic</w>
im g
s ent
Res erv
E D
pre t
inhabit ants</w>
aim ed</w>
O ver</w>
nav ig
e ight</w>
in form</w>
j ek
new sp
si zed</w>
per form</w>
14 0</w>
le is
con stant</w>
st ress</w>
sou thern</w>
tel evision</w>
in ated</w>
el -
pri mary</w>
B rit
invi ted</w>
provid ers</w>
hel p
rau -
fun d</w>
state ments</w>
b is
K e
specific ally</w>
r i</w>
Mo on
sur ing</w>
ing redi
cub a.
6 4
g y
id a</w>
Regi on</w>
doub t</w>
H im</w>
t ag
pro por
own s</w>
struc tural</w>
conv inc
sett l
config uration</w>
z ur</w>
5 00
initi atives</w>
c af
hos pit
euro s</w>
satisfac tion</w>
25 25
gre atest</w>
st op
o tive</w>
r ural</w>
Ma x</w>
M AR
IS O</w>
streng then</w>
B au
it y
exper t</w>
st atis
n ach</w>
im possible</w>
w ing</w>
ad -
aw ard</w>
discus s</w>
tor ic
S Q
inter nation
c utting</w>
S em
te d
I V</w>
z u
comp ris
ro man
F A
v ity</w>
p ag
cri pt</w>
12 -0
d n
emb our
ag ues</w>
attrac tions</w>
Pr in
Ty pe</w>
e der</w>
refer red</w>
De partment</w>
confir med</w>
s .org</w>
puer toric
es .com</w>
c ru
p ts</w>
certi fic
Pol ish</w>
rau- consultant
Av ail
F und</w>
rau-consultant s.de</w>
G D
Eng ine
chec k-
An ti
www. rau-consultants.de</w>
co ol
ist a</w>
H i
char ged</w>
R h
mus ical</w>
resid ence</w>
reserv ations</w>
organiz ations</w>
mar ily</w>
Col lec
practic es</w>
US B</w>
immedi ate</w>
fr ing
laun ched</w>
gg age</w>
m use
s anc
is ely</w>
serv es</w>
Con sul
. dll</w>
ti ci
se at</w>
b right</w>
O R</w>
mod ule</w>
d ay
att ack</w>
differ ences</w>
an i
ret ary</w>
view ed</w>
s in</w>
campa ign</w>
expen sive</w>
invest ments</w>
we ak
H on
un less</w>
res erve</w>
no tes</w>
impres sive</w>
s ong</w>
l ying</w>
st al</w>
Te am</w>
p a</w>
as -
P ower</w>
fri ger
correspon ding</w>
conclu sion</w>
H z</w>
issu ed</w>
P ack
199 3</w>
O rig
.... ....
H and
E G</w>
L os</w>
ing ton</w>
facil ity</w>
k le
as ing</w>
tr ou
Lux embour
C li
b us
in j
Fl ash</w>
new s
C ath
p ast
be ar</w>
pow ers</w>
Gu est</w>
G B</w>
s ort</w>
k et
ch ers</w>
dom estic</w>
sol ve</w>
concer t</w>
stra ight</w>
ke eping</w>
Li ve</w>
S ome
In nov
Fac il
8 ,
in ser
care fully</w>
peace ful</w>
ar tic
le aves</w>
fac ing</w>
th r
a str
air -
th or
Bes ides</w>
E qu
er ung</w>
br e</w>
ga ther
Glo bal</w>
suff ering</w>
con nect</w>
contr ast</w>
J ac
Im age</w>
com ment</w>
tr act</w>
te a</w>
O d
g n
pos e</w>
wi ki
n ess
Hist ory</w>
1 30</w>
sh ar
m ar</w>
emer g
I C</w>
ad ults</w>
jour n
C olog
ul p
s aving</w>
frequ ently</w>
di vision</w>
m ac
mod ules</w>
P a</w>
ex it</w>
publ ication</w>
16 0</w>
ö l
cruc ial</w>
cap able</w>
in put</w>
Str ate
ra ise</w>
p ip
C -
z ing</w>
y outh</w>
draw ing</w>
ac adem
reg ularly</w>
l es
h of</w>
stre am</w>
mo stly</w>
At lan
or -
In ser
ex tra
w all
Ar ts</w>
remain ing</w>
deter mine</w>
ber t</w>
the dr
B e</w>
H i</w>
stu dio</w>
I -
pri marily</w>
lab el</w>
e ties</w>
a qu
expl ained</w>
Eng land</w>
Cat al
discus sions</w>
ther mal</w>
p ital</w>
compati ble</w>
call ing</w>
Pl ay</w>
g t</w>
N ations</w>
she et</w>
p ure</w>
guid elines</w>
y es</w>
ol der</w>
pack ages</w>
n ings</w>
occas ion</w>
sh ut
ob tained</w>
rap id
exc iting</w>
V or
succ e
bre eze</w>
ex port</w>
l i</w>
gol f-
Ag ency</w>
as y</w>
hab en</w>
fri dge</w>
direc tory</w>
pover ty</w>
sub scri
su m</w>
dis covered</w>
represent ative</w>
enti rely</w>
fav our
Re al</w>
fr ag
ca uses</w>
J .</w>
CD ATA</w>
lar ation</w>
instruc tions</w>
col ors</w>
P ass
O F</w>
bo l</w>
art ers</w>
ü ber</w>
H D</w>
sol id</w>
t ables</w>
d ass</w>
sc ene</w>
Environ ment</w>
ap ers</w>
organ ised</w>
ch air</w>
R F
we d
Ven ice</w>
B an
ir y</w>
plac ement</w>
fashi on</w>
me at</w>
func tional</w>
ell er</w>
Cur ren
fic ial</w>
en suring</w>
F ood</w>
m ouse</w>
ur a</w>
cas h</w>
w ir</w>
ph en
Cont in
b ra
S ki</w>
pop ul
fem ale</w>
1 14
pro vision</w>
Turk ish</w>
il ing</w>
s itting</w>
h t</w>
me hr</w>
Luxembour g</w>
Elec tr
hand le</w>
in er</w>
R am
Coun try</w>
ev ent
form ats</w>
b orders</w>
at tribu
Reg ulation</w>
8 6
z o</w>
M ary</w>
tow ard</w>
In form
hum idity</w>
ro t
gi ft</w>
V .</w>
0 s</w>
ur s</w>
stud ent</w>
or row</w>
a is
ir on</w>
R ent</w>
phil osoph
identi fy</w>
claim ed</w>
T -
perspec tive</w>
ei d</w>
increas es</w>
W om
on lin
bre ad</w>
p ick</w>
7 9
3 50</w>
Program me</w>
techni ques</w>
elec tions</w>
c s</w>
audi ence</w>
meas urement</w>
L ar
y ment</w>
ad er</w>
Sup port</w>
oppos ite</w>
do g</w>
agricul ture</w>
or m
ill a</w>
tim s</w>
F ace
clo ser</w>
Fin ancial</w>
A R</w>
.08. 2015</w>
enci a</w>
w ines</w>
cor rup
vo ted</w>
co l</w>
F er
ß e</w>
3 00
tic ket</w>
ri de</w>
Sal es</w>
medic ine</w>
tic kets</w>
el er
D E
Contro l</w>
Jap anese</w>
prec isely</w>
quali fied</w>
situ ations</w>
ic ated</w>
stre t
st atic
üs sel
coun tr
chan nels</w>
effec tively</w>
ar be
res sed</w>
z -
pen sion</w>
B B
si zes</w>
m ally</w>
compli ance</w>
vis iting</w>
sig nal</w>
C O</w>
B ad</w>
Mos cow</w>
sh oo
jec ted</w>
recogni tion</w>
4 th</w>
k un
M an</w>
tre at</w>
fin ish</w>
poli tics</w>
h our
h Pa</w>
cover ing</w>
heav en</w>
Ar ab
continu ous</w>
T al
Colog ne</w>
N ic
f r</w>
V ista</w>
pi on
f oun
enti onal</w>
larg ement</w>
expl ore</w>
l ounge</w>
a. org</w>
wi e</w>
o- de-
t ter
le d
Dou ble</w>
s per
s ongs</w>
r ying</w>
s aved</w>
k new</w>
after noon</w>
Stand ard</w>
fil ed</w>
C E</w>
m ur
bl ed</w>
si e</w>
Up date</w>
blog spo
dre am</w>
pu ts</w>
ph arm
A ra
ch ron
P ages</w>
docum entation</w>
tw o-
ten nis</w>
a uc
Ter race</w>
Rom ania</w>
Techn ical</w>
inv en
f eder
18 th</w>
20 20</w>
us a.com</w>
y n
l s
employ ed</w>
S et
l ay</w>
Al lah</w>
f ro
show ed</w>
remo te</w>
pan el</w>
Y et</w>
C ri
applic able</w>
transparen cy</w>
an der</w>
hel ped</w>
chan nel</w>
w ishes</w>
ti fication</w>
men tion</w>
Fol lowing</w>
A ward</w>
s and</w>
cle an
exam ination</w>
mon itor</w>
sen ding</w>
bo ards</w>
g ate</w>
ent e</w>
b in</w>
was her</w>
Det ails</w>
k t</w>
oper ators</w>
web sites</w>
curren cy</w>
gan g</w>
sensi tive</w>
lim its</w>
Sp a</w>
P ort</w>
Ex press</w>
tri al</w>
Tr ack</w>
ac ting</w>
Isra el
201 5-0
www. bi
am ing</w>
mag ne
promo tion</w>
f are</w>
He ating</w>
. 48</w>
k ids</w>
hol ding</w>
j etzt</w>
E in
k ann</w>
dis crimin
w ild</w>
Fri ed
E st
sex ual</w>
par ag
ke ys</w>
jo ined</w>
farm ers</w>
expan sion</w>
es tions</w>
th ly</w>
Serv er</w>
exclu sively</w>
f lights</w>
ag enda</w>
Mün chen</w>
sha res</w>
attem pt</w>
fant astic</w>
fil ter</w>
as sets</w>
S on</w>
N a
canc er</w>
F -
14 .
ev al</w>
Je ho
g a</w>
P O
access ories</w>
C ab
st oc
vi ous
ini um</w>
con serv
6 9
renew able</w>
Ma c</w>
u tionary</w>
y ear
adequ ate</w>
suppl iers</w>
mach in
lay er</w>
n ur</w>
thedr al</w>
G ro
pl ates</w>
sle ep</w>
peri or</w>
ag u
ang le</w>
vic tims</w>
wordpres s.com</w>
sub stances</w>
dispos al</w>
vers ary</w>
respon d</w>
ir a</w>
RU B</w>
end or
work shop</w>
commun ities</w>
al co
C u
tot ally</w>
S ite</w>
sil ver</w>
sc ulp
Th rough</w>
micro wave</w>
Sec ond</w>
a is</w>
tr ading</w>
r at
el i
ro ads</w>
toil et</w>
contro ls</w>
spec tac
valu able</w>
I V
elec tion</w>
gr an
cont acts</w>
consider able</w>
fail ure</w>
ac ter
www.ypages usa.com</w>
ur ches</w>
help ful</w>
s es
class es</w>
He ad</w>
mechan ical</w>
199 1</w>
s ers</w>
el d</w>
reco very</w>
colle agues</w>
W ind</w>
ine m</w>
meas uring</w>
enth usi
ti s</w>
acqu isi
Res ults</w>
ad o-de-
198 9</w>
camp site</w>
s lightly</w>
Rob ert</w>
ov a</w>
15 .
sus p
Pal ace</w>
comp ut
ö ff
id ing</w>
S et</w>
JP G</w>
de fic
industri es</w>
h l</w>
encour age</w>
Pre vious
C R
fig ht
ren ce</w>
conduc ted</w>
5 th</w>
cond ado-de-
Zur ich</w>
bath rooms</w>
L ou
dri vers</w>
contain ed</w>
ra il</w>
tal king</w>
icy cle</w>
M as
br inging</w>
pra yer</w>
Dig ital</w>
mil k</w>
C aliforni
vill ages</w>
m ir</w>
coo l</w>
consider ation</w>
1. 5</w>
r ings</w>
gi es</w>
enter tainment</w>
dang erous</w>
show ing</w>
ni k</w>
man ual</w>
dis eases</w>
Previous 1</w>
201 4-0
dec ades</w>
con version</w>
y ard</w>
forec ast</w>
fres h
pl om
identi ty</w>
bl es</w>
s burg</w>
sugg est</w>
t .</w>
15 th</w>
We ight</w>
par ameters</w>
ag encies</w>
f ies</w>
y le</w>
exp ect
12 ,
sof a</w>
depend ent</w>
Val ley</w>
light ing</w>
ug s</w>
st en
strugg le</w>
O ri
con solid
t ail
mi x</w>
L am
Accommod ation</w>
i Phone</w>
h ill</w>
am ed</w>
prin ted</w>
m outh</w>
h it</w>
mat ch</w>
P ow
im m
cul tiv
ab sol
P RO
P la
there by</w>
Whe ther</w>
Mos es</w>
en th</w>
remain ed</w>
be t</w>
accep table</w>
ab e
sch e</w>
hard ware</w>
li ability</w>
hy dro
H ave</w>
en ni
reduc ing</w>
new ly</w>
f ast
m -
es cap
M c
appro val</w>
. s
ure ments</w>
en burg</w>
spe ech</w>
every day</w>
Face book</w>
ro of</w>
deb t</w>
Tour ist</w>
K re
Bo dy</w>
wor t</w>
pro te
bro ther</w>
happen s</w>
Com e</w>
AN D</w>
z ation</w>
unc tion</w>
the ory</w>
v ey</w>
rel atively</w>
techn ological</w>
sh aring</w>
suppl ier</w>
nor thern</w>
i ter</w>
compar ison</w>
Academ y</w>
asp ect</w>
off ic
E T
occ ur</w>
lo s-
il ed</w>
5 2
guarante ed</w>
strong ly</w>
it z</w>
p ain</w>
Ac tion</w>
us s
hour ly</w>
Gol f</w>
lin ed</w>
w. php</w>
no ver</w>
secre t</w>
ari um</w>
ingredi ents</w>
V al</w>
m ale</w>
is lands</w>
blogspo t.com</w>
th u</w>
f aster</w>
ad en</w>
Ty rol</w>
win ning</w>
dis abled</w>
ó n</w>
Ac t</w>
in fl
schem e</w>
no tic
ie f</w>
Net work</w>
lat ter</w>
f ers</w>
1 20
accompan ied</w>
defini tely</w>
te en</w>
func tion
fav or
qu arters</w>
ensu res</w>
priv acy</w>
electr ical</w>
di c</w>
Rep res
D üssel
vis ory</w>
is ms</w>
defini tion</w>
cri me</w>
n i</w>
fil es.
C lim
ester day</w>
2. 0</w>
P ur
regim e</w>
recommend ations</w>
d uty</w>
Ro yal</w>
1 x
N ature</w>
Ze it</w>
conclu ded</w>
in spec
concep ts</w>
U L
v ital</w>
arri ved</w>
Bulg aria</w>
z en
i sts</w>
h idden</w>
Play er</w>
gen u
B M
i res</w>
fac tory</w>
Con ditions</w>
o k
mo tiv
demon stra
le gi
ack now
Slo ven
pl as
conveni ent</w>
pe t</w>
fac ts</w>
8 th</w>
O ly
sol e</w>
mi x
decor ated</w>
SQ L</w>
mo bility</w>
ar -
trans mission</w>
or ca</w>
R ou
vis ual</w>
Pl at
6 7
ori ented</w>
answ ered</w>
S ports</w>
Ab b</w>
identi fied</w>
confir mation</w>
Comp uter</w>
dau ghter</w>
dev o
strategi es</w>
Leg al</w>
refu ge
ren ess</w>
ti fy</w>
f ans</w>
O l
L ight</w>
en orm
ass ist</w>
an ding</w>
hibi tion</w>
reason able</w>
o b</w>
nam ely</w>
char ming</w>
th ou
b au
as c
D ar
In n</w>
n utri
D ownlo
co m</w>
sh el
rou tes</w>
no ise</w>
ger man</w>
tel l
i en
ven ues</w>
ol ab
ei b
bin ding</w>
ck .php</w>
ex hib
av w.php</w>
ow ned</w>
x ation</w>
l unch</w>
hous ing</w>
dimen sions</w>
pro gres
Avail able</w>
lo vely</w>
E F
16 .
nific ent</w>
S S</w>
Langu age</w>
recogni zed</w>
W ash
E D</w>
swe et</w>
L t
13 ,
charac ters</w>
b ou
al ised</w>
Squ are</w>
C he
sym bol</w>
foc used</w>
dr inks</w>
pro ved</w>
k y
Ex ecutive</w>
201 6-0
fle et</w>
R ich
special ist</w>
revol ution</w>
depar ture</w>
meas ured</w>
CO N
ac le</w>
Den mark</w>
- of-
k t
gi c</w>
si ghts</w>
hes ion</w>
pay ments</w>
Li ke</w>
1 10
www. regi
fe at
Agr icul
lis ten</w>
itä t</w>
ab er</w>
il legal</w>
Mob ile</w>
patter n</w>
pass word</w>
Un fortunately</w>
r are</w>
zon eid</w>
is tic
ain ts</w>
the tic</w>
Com mer
pri orities</w>
L ove</w>
ri sts</w>
ra m</w>
ak e
Cast le</w>
hor iz
passeng ers</w>
no t
ti ous</w>
laun ch</w>
Protec tion</w>
cel eb
Gen eva</w>
T og
G ran
che stra</w>
pe o
cre ates</w>
chen ette</w>
Trans port</w>
Con stitu
ne h
ri ding</w>
f ly</w>
contrac ts</w>
b o</w>
s ounds</w>
le aving</w>
re now
B at
Arti kel</w>
ov o</w>
all -
swit ch</w>
ski ing</w>
www.regi olab
www.regiolab .info</w>
hol y</w>
Californi a</w>
8 9
suppl ied</w>
e .htm</w>
Ir an</w>
Custom er</w>
ind o
8 7
proper ly</w>
famili ar</w>
e ing</w>
cent res</w>
t ower</w>
char ges</w>
solid arity</w>
Ber lin
educ ational</w>
car bon</w>
un ter</w>
en largement</w>
par liam
S co
li fe
expl ain</w>
Cub a</w>
www.amarillas aust
P et
glo bal
four th</w>
ar my</w>
pre fer</w>
v an
Un ter
In st
S D
beg ins</w>
low -
bar ri
0 1.0
th es</w>
L E</w>
he ads</w>
ge o
dur ation</w>
A .
see king</w>
mo vements</w>
exi sts</w>
qu et</w>
trans portation</w>
destro yed</w>
ab sor
dom ain</w>
Gr ap
Cop yright</w>
ro ck
Düssel dorf</w>
lan g</w>
ex plan
in ity</w>
stu died</w>
stor ies</w>
n esses</w>
sc an
pre dic
elec ted</w>
Ira q</w>
Ze it
wh ate
Pro gram</w>
conclu sions</w>
.c z</w>
frequ ency</w>
- R
sur g
fl av
k on
is ol
h us
M eas
whate ver</w>
B A</w>
Phil ip
Cur rent</w>
we alth</w>
un limited</w>
h ath</w>
ex cur
o es</w>
M u
M ake</w>
def ine</w>
wordpres s.org</w>
pret ty</w>
M em
K os
en n</w>
al le</w>
arri ve</w>
versi ties</w>
me ant</w>
qui red</w>
v om</w>
zi g</w>
pri ze</w>
C ir
v ah</w>
T us
contr ary</w>
acc eler
ex pos
e x</w>
Tour ism</w>
11 th</w>
pe di
sh ot</w>
ei ten</w>
sim pl
oblig ations</w>
an z
1. 0</w>
lead ership</w>
Un known</w>
dis p
M A
Wol f
po t</w>
en abled</w>
ad line</w>
M usi
difficul ties</w>
ograph y</w>
wash ing</w>
K le
uti li
rec ording</w>
is -
as .com</w>
y ellow</w>
hol der</w>
in as.net</w>
contain ing</w>
L and</w>
T O
grad u
Par t</w>
prec ise</w>
excep tional</w>
institu tion</w>
Ev ents</w>
produc ers</w>
iz es</w>
or dered</w>
T ren
Sel ect</w>
f alls</w>
pro ve</w>
ch airs</w>
Dim en
or ation</w>
o .de</w>
equ i
cr y
our c
fe es</w>
M ir
des k
M erc
17 .
gard ens</w>
att acks</w>
a rest</w>
00 0
t ance</w>
la sting</w>
f ell</w>
b ound</w>
Administr ador</w>
leis ure</w>
dis count</w>
Inser ido</w>
Sing le</w>
substanti al</w>
cent uries</w>
indic ated</w>
z o
Bos ch</w>
ro se</w>
files. wordpress.com</w>
n one</w>
high- quality</w>
fin ding</w>
R ock</w>
G ir
www. d
pub lic
ver i
ici an</w>
re forms</w>
am in</w>
neigh bour
amoun ts</w>
D O
---- ----
p ped</w>
acc ession</w>
produc ing</w>
Jeho vah</w>
de al
2. jpg</w>
Des pite</w>
C L
intro duce</w>
dist ingu
di ameter</w>
consul tation</w>
Pl an</w>
Con ver
ro ot</w>
p up
ht ml</w>
id er</w>
suppl ies</w>
AM E</w>
17 th</w>
tom orrow</w>
Ex per
Bl ue</w>
re placed</w>
n ine</w>
enti ally</w>
L oo
t ten</w>
log istics</w>
decl ared</w>
rig ht
P sych
awa reness</w>
P ay
16 th</w>
aff ect</w>
stad t</w>
hor se</w>
promo ting</w>
less ons</w>
pl enty</w>
M ain
S or
M O
. ypages
With in</w>
19 .
sub -
absol ute</w>
lar s</w>
S O
conv entional</w>
s low</w>
ass es</w>
p a
Bud apest</w>
s now</w>
re d
ho l</w>
b lowing</w>
13 th</w>
spo ke</w>
ate -
A -0
p df</w>
ic on</w>
L atest</w>
you tu
Pe ace</w>
extre me</w>
R .</w>
D res
ff s</w>
movi e</w>
gu ard</w>
Liter atur
su d
200 7-0
comp act</w>
un employment</w>
implem enting</w>
i k
re min
cre di
ex act</w>
R ating</w>
Sp iel
our ce
Trans fer</w>
ri gh
fit ness</w>
lic ense</w>
B ay
work shops</w>
.co .
li a</w>
distribu ted</w>
Man u
www. g
sec tions</w>
el a</w>
sal t</w>
lo dging</w>
su gar</w>
inv o
be ings</w>
up dates</w>
tar gets</w>
i er
ak ia</w>
oper ational</w>
au d
C hap
te m</w>
de aling</w>
c .org</w>
well ness</w>
religi on</w>
legisl ative</w>
Bath room</w>
wi ki</w>
under stood</w>
U sing</w>
te ams</w>
ang er</w>
D re
investig ation</w>
Facil ities</w>
n on
S S
B un
v ine
ul ated</w>
T able</w>
institu tional</w>
co ast
D uration</w>
di verse</w>
pub lish
L AN</w>
E X
dis k</w>
m s
ein en</w>
vis itor</w>
p utting</w>
en er</w>
Ac tive</w>
Bi g</w>
2 1.0
rela xation</w>
In c</w>
p el
eg o</w>
n ative</w>
cer em
e inem</w>
tri ps</w>
bli o
4 2
Am ong</w>
e astern</w>
Inde ed</w>
fas cin
ap art</w>
st ones</w>
oper ator</w>
her itage</w>
bat tle</w>
t owns</w>
ri f
cri minal</w>
H il
phen om
manufac ture</w>
collec ted</w>
st ages</w>
Ro ad</w>
expect ations</w>
renow ned</w>
conduc t</w>
So vi
Con gress</w>
D .</w>
Med ical</w>
Franc is
desig ns</w>
spo ken</w>
satis fied</w>
O ber
panor amic</w>
gir ls</w>
L ine</w>
Ber n
st ro
countr y
A post
Pro fes
r on</w>
Shi pping</w>
S w
v es
continu ing</w>
competi tiveness</w>
pr oud</w>
K al
re friger
archi ve</w>
n ic
W ill</w>
N evertheless</w>
f itted</w>
condi tioned</w>
alle l</w>
Th ree</w>
week end</w>
M in</w>
Jour nal</w>
h i</w>
consist ent</w>
main tained</w>
Sec retary</w>
B .</w>
f ai
prov ince</w>
pos ted</w>
H en
renov ated</w>
Kore a</w>
mar ine</w>
ext end</w>
Ex am
v ille</w>
no ted</w>
bab y</w>
so il</w>
e ther</w>
S hop</w>
pro mp
Salz burg</w>
m o</w>
E .
scri pt</w>
elev ator</w>
Pr o</w>
B eg
gu ided</w>
ed -
K en
bloc ks</w>
f ailed</w>
D on
sam ple</w>
es .net</w>
tou rists</w>
t l
Mark eting</w>
hel ping</w>
24- hour</w>
anni versary</w>
Regi onal</w>
direc ted</w>
profession als</w>
let ters</w>
y o
amend ment</w>
ob vious</w>
P ap
G O
desig n
us age</w>
y ards</w>
Ar gent
coo kies</w>
co ordination</w>
ph ones</w>
ad ly</w>
2. 5</w>
att ached</w>
R ule</w>
v ar
bat tery</w>
6 th</w>
.09. 2015</w>
ran ts</w>
S A</w>
id en
dimen sion</w>
A th
sh ore</w>
E T</w>
th o
Wor k</w>
intel lec
ari o</w>
exhibi tions</w>
doc tor</w>
associ ations</w>
GN U</w>
a to</w>
C ent
gr ant</w>
20 -
s low
in fring
K u
US D</w>
Mus li
e u</w>
pri est</w>
emerg ency</w>
cri tic
SE O</w>
pro ven</w>
ol o</w>
cat alog</w>
vi br
S ust
pr ic
bal anced</w>
mass age</w>
Is lam
- based</w>
sol di
w s</w>
pre cip
ir ing</w>
pi ano</w>
fac e
Invest ment</w>
L it
La un
a. m.</w>
Ara b</w>
cop yright</w>
nor mally</w>
graph ic</w>
Pe ts</w>
de w</w>
res ource</w>
ar ts</w>
Brit ain</w>
addres ses</w>
f i</w>
N av
MP 3</w>
Addi tional</w>
k ingdom</w>
cir cu
Loc al</w>
pre ne
accoun ts</w>
isc al</w>
li sts</w>
ic -
tren d</w>
ti les</w>
well- known</w>
f on
emp ty</w>
P ra
parag rap
D A</w>
on ym
ho tel
enorm ous</w>
C r
sm ooth</w>
Nor way</w>
J a
Sm all</w>
coll ect</w>
sel ling</w>
n is
In du
W ell
weap ons</w>
contain er</w>
S ig
Literatur ang</w>
200 8-0
slo pes</w>
ent l
su it</w>
bl ing</w>
dog s</w>
fa ir
whe el</w>
ent ations</w>
all er
sh i
revol utionary</w>
con grat
St ad
magne tic</w>
acquisi tion</w>
gu it
un ning</w>
su s</w>
ini ons</w>
ei ved</w>
old est</w>
mag nificent</w>
d a
Mo del</w>
dish washer</w>
v ast</w>
Ra dio</w>
B EST</w>
ac ted</w>
Restaur ants</w>
u ter
ologi e</w>
7 th</w>
simul tane
rap id</w>
www. b
I l
C ou
member ship</w>
gh ly</w>
un able</w>
mak ers</w>
o k</w>
pris on
grow n</w>
mil lions</w>
medi um-
de ut
A qu
del icious</w>
Le ip
st on</w>
s now
elec tro
Em plo
bro ken</w>
estim ated</w>
el ine</w>
HT ML</w>
hal f-
Commun ication</w>
ro pol
pl ug
Ma j
In te
tim e
ti t
t ress</w>
Sust ain
is n</w>
M T
D C</w>
Vis it</w>
Di d</w>
uni versal</w>
adop tion</w>
k illed</w>
pain tings</w>
t oms</w>
Wh ich</w>
tu res
pos s
commun ications</w>
boo ked</w>
g l</w>
lic ens
ir t
am ong
wh ol
w ol
gu n</w>
reli ability</w>
teach ers</w>
er t
M ur
EP O</w>
e dit</w>
re pl
o st
p in
cre d
b ow
Indu stry</w>
to ol
H er</w>
ch er
Po ker</w>
B ay</w>
interpre tation</w>
comp ly</w>
scienti sts</w>
um es</w>
Prof essor</w>
a x</w>
14 th</w>
among st</w>
ep h</w>
sched ul
Bi ble</w>
se hr</w>
up s</w>
roman tic</w>
mis sions</w>
ap p</w>
inv ite</w>
transi tion</w>
r .com</w>
electr on
cust oms</w>
require ment</w>
ed ic
L as</w>
theat re</w>
lear ned</w>
C ard</w>
qu e.com</w>
oli ve</w>
dre ds</w>
ad ise</w>
mechan ism</w>
spectac ular</w>
op ens</w>
En d</w>
feed back</w>
ati on-
h ur
th ick
adap ted</w>
v ul
tre as
8 4
tren ds</w>
V I
ref ers</w>
f illing</w>
EN T</w>
es tion</w>
publ ications</w>
ace u
ti ps</w>
gre g
D I
Uni vers
6 5
w illing</w>
ter minal</w>
recor ds</w>
Li ber
le ather</w>
oper ated</w>
h arm
cac he</w>
wi reless</w>
N ice</w>
bon us</w>
R ico</w>
z y
manag ing</w>
sustain ability</w>
refl ect</w>
fl ash
J ames</w>
Ch ange</w>
bran ch</w>
Tra ining</w>
S E</w>
com position</w>
T op
d b
ich en</w>
ent re
program ming</w>
W ES
ili an</w>
techni que</w>
Pri me</w>
P op
at ten
ss en</w>
L ag
s or</w>
ation en</w>
www. k
n ight
c ut
S itu
sur ve
de struction</w>
read s</w>
extra ordinary</w>
en .
9 5
purch ased</w>
adv enture</w>
mer ely</w>
Par ti
dri ven</w>
tr adem
W ir</w>
il e
car rying</w>
il st</w>
per mission</w>
A ge</w>
in ate</w>
Jos eph</w>
o v</w>
s wi
alum inium</w>
Bas el</w>
Ant oni
se gment</w>
C ru
D S
gu es</w>
bir ds</w>
Palest inian</w>
Res idence</w>
indo or</w>
fight ing</w>
hear ts</w>
ful l-
W ind
Auth ority</w>
Bav aria</w>
t ack
enjo yed</w>
b ag</w>
expl ains</w>
Cath olic</w>
sum mit</w>
C N
il ity</w>
concentr ation</w>
st ore
hear ing</w>
impres sion</w>
establish ing</w>
ch urches</w>
EU -
plan e</w>
Tog ether</w>
Ges ch
p ill
7 5
gi bt</w>
s port
sub mit</w>
certi fied</w>
K or
N az
person nel</w>
human itarian</w>
care ful</w>
ast ing</w>
gu t</w>
vir us</w>
In stead</w>
trac ks</w>
invest ors</w>
contribu tions</w>
Ap ple</w>
F ar
10 th</w>
optim al</w>
bl ack
compet ent</w>
M A</w>
ent ries</w>
4 50</w>
peri ods</w>
9 00</w>
10 5</w>
hard ly</w>
construc ted</w>
she ets</w>
graph ics</w>
Reserv ation</w>
compens ation</w>
Mo dern</w>
Com pl
Cas a</w>
1 25</w>
t gen
gre at
ah n</w>
resid ential</w>
tol er
expos ure</w>
ain t</w>
coun ts</w>
B -
deli ver
plan et</w>
d in
Di stance</w>
qu est</w>
V ari
OT E</w>
ten sion</w>
Portu gu
philosoph y</w>
air craft</w>
correc tly</w>
S H
New sp
Ad ri
Dec ision</w>
TER N</w>
inten sive</w>
With out</w>
oblig ation</w>
Wor k
D N
mi xed</w>
vo ting</w>
bel ong
J i
os ing</w>
in spir
n ity</w>
vir tual</w>
F ull</w>
ann e</w>
Tel eph
al d</w>
pre vention</w>
it ness
fore sts</w>
Wom en</w>
en der</w>
har bour</w>
C el
la- hab
in corpor
r .</w>
class ical</w>
on going</w>
ra id</w>
ti ble</w>
dang er</w>
Regi stration</w>
settl ement</w>
row s</w>
a es
f ound
an zeig
ac ht
liter ature</w>
et -
trans ferred</w>
mis s</w>
ac compl
confir m</w>
A U
K ir
ch in
ch ief</w>
16 00</w>
Sovi et</w>
T ar
process ed</w>
gener ate</w>
an te</w>
country side</w>
val ent</w>
n ish</w>
He ight</w>
su rely</w>
c .</w>
ak ed</w>
terror ism</w>
em entary</w>
Flo rence</w>
B lu
ur is
cl ou
G all
lo v
N et</w>
b ab</w>
adop t</w>
Bal cony</w>
ag ents</w>
th u
tem ple</w>
is o
collec tive</w>
Sh op
Mor oc
a o
symp toms</w>
cir cul
Teleph one</w>
ic als</w>
M ol
t ary</w>
man if
machin ery</w>
temper atures</w>
navig ation</w>
convinc ed</w>
WES TERN</w>
Ant wort</w>
grap h</w>
h ills</w>
Rom an
t t</w>
be er</w>
Por to</w>
S U
di um</w>
M aps</w>
Au dio</w>
los- angel
az z</w>
y .htm</w>
app aren
D al
B v
in tention</w>
ell ation</w>
be .com</w>
b om
B ou
mut ual</w>
in y</w>
Pro duk
occasi one</w>
compos ed</w>
uni versities</w>
par allel</w>
w ard
f at</w>
enh ance</w>
arran ged</w>
k ön
s is</w>
We ek</w>
G R
for t</w>
addres sed</w>
X -
year -
conver t</w>
go tten</w>
rele ases</w>
dr ugs</w>
gl ory</w>
A F
N ight</w>
M e</w>
sh ad
Slov akia</w>
Per son
www.amarillas est
s co
m at</w>
te ch</w>
precip itation</w>
3 60</w>
G AME</w>
dol lars</w>
high light</w>
sto res</w>
spl it</w>
ac quired</w>
h its</w>
B R
d d
col umn</w>
V ac
contro ll
behavi our</w>
Portugu ese</w>
Mar ina</w>
H all
CE O</w>
f iscal</w>
origin ally</w>
equ ality</w>
gener ator</w>
del ay</w>
om m
newsp aper</w>
las er</w>
ass em
.. ...</w>
cent ers</w>
pol lu
inter vention</w>
jec tion</w>
hol e</w>
pr ay</w>
sex y</w>
H .</w>
Buil ding</w>
enc ing</w>
dr am
Sum mer</w>
198 8</w>
g ained</w>
G ul
Cha ir
enter prise</w>
.e u</w>
Inf o</w>
F r</w>
20 .
h -
puertoric o.
re aching</w>
par tly</w>
Po int</w>
T A</w>
str act</w>
g or
is ch</w>
com promise</w>
E A</w>
c ran
T est
re ply</w>
b or</w>
ad ding</w>
l as</w>
clo thes</w>
answ ers</w>
g el</w>
j unction</w>
rec y
comb at</w>
activ ely</w>
no. 8
concer ts</w>
tu be</w>
bo t</w>
P ope</w>
compet ence</w>
out come</w>
19 .00</w>
smar t</w>
b by</w>
cl ari
S tra
peti tion</w>
teach er</w>
ess ing</w>
produc tivity</w>
d res
regar ded</w>
mar i
inter view</w>
p ack</w>
au g
C C
1 1,
thre e-
ed y</w>
B log</w>
www. blog
strength ening</w>
In dian</w>
0. 00</w>
thes is</w>
post -
eng ines</w>
In iti
sid ers</w>
li gh
St ati
Con nec
regul atory</w>
Swe dish</w>
movi es</w>
Engine ering</w>
Leip zig</w>
Cho ose</w>
at titude</w>
gent le</w>
GD P</w>
CO M</w>
exp end
resear chers</w>
qu iry</w>
di r
Fin ance</w>
function ality</w>
18 .
ac les</w>
ol ution</w>
genu ine</w>
Y oun
Christi ans</w>
1 15
peo ples</w>
u ph
saf e
form al</w>
E .</w>
jus ted</w>
b ol
L en
sur vey</w>
il ef
LE D</w>
sle eping</w>
de plo
w are
Sp ace</w>
r ics</w>
an l
An y
si x
se y</w>
em br
am i</w>
B ased</w>
pen ilef
Dol om
produc es</w>
poin ted</w>
may be</w>
9 4
get ary</w>
d able</w>
T wit
righ te
pe ts</w>
lin en</w>
es ia</w>
af for
n ur
bel ongs</w>
produc tive</w>
Sy m
S I
li v
ak s</w>
thre at</w>
fin ds</w>
Rel ease</w>
Val encia</w>
S om
Di es
mom ents</w>
t ter</w>
o be
pass ing</w>
gen e
S cre
Laun dry</w>
Repres ent
arrang ements</w>
Bud d
respon si
n ull</w>
serv ic
ource .org</w>
fir m
H it
itness .com</w>
i b
am -
Lt d</w>
enter ing</w>
Al liance</w>
lat inas.net</w>
K at
E li
penilef itness.com</w>
ic ks</w>
hun dreds</w>
2 1st</w>
Lu ggage</w>
di plom
Wi en</w>
l or
b s
kilomet res</w>
Downlo ads</w>
pre mis
key word</w>
G O</w>
natur ally</w>
el e</w>
jud gment</w>
gr ace</w>
ex trac
Res ort</w>
war m
s i</w>
cl icking</w>
individ ually</w>
auth ors</w>
CO 2</w>
mid -
S port</w>
10 1</w>
on i</w>
speak ers</w>
il er</w>
X S</w>
B TE</w>
thou ghts</w>
d ating</w>
tgen ste
con dem
k ar
con s
Chap ter</w>
.co. uk</w>
ho sts</w>
Col or
Cour se</w>
bil d
D am
l ap
ati vity</w>
thre ats</w>
real ized</w>
ast ery</w>
as ide</w>
ad ic
wit tgenste
in her
vari ed</w>
New s
wittgenste ins
wittgensteins ource.org</w>
seri ously</w>
impro vements</w>
Sur face</w>
n ic</w>
alt ar</w>
treat ments</w>
j an</w>
Ch em
for get
as p</w>
ein er</w>
ü ck
path s</w>
v ary</w>
muse ums</w>
facil itate</w>
PH P</w>
un known</w>
sub jects</w>
nar row</w>
appreci ate</w>
c at</w>
p um
ag on</w>
Industri al</w>
subsequ ent</w>
fl ash</w>
Curren tly</w>
Am end
r am
ci a</w>
l y-
ill er</w>
Hung arian</w>
consci ousness</w>
öff entl
F ig
é s</w>
ste am</w>
independ ence</w>
i .
every where</w>
autom otive</w>
ni a</w>
hos pital</w>
Oly mp
M all
p ush
de als</w>
V eg
19 45</w>
G ri
ili ation</w>
h oo
b le
comb ine</w>
c on</w>
t z</w>
for um
vari able</w>
fir ms</w>
wed ding</w>
ys is</w>
recei ving</w>
insp ired</w>
appoin tment</w>
h at
dem anding</w>
b ird</w>
M E</w>
M ass
Mil an</w>
B ad
es c
Ad dress</w>
re action</w>
lo gg
vol tage</w>
l er
world -
R oc
Lo dging</w>
Dimen sions</w>
bran ds</w>
te .de</w>
certific ate</w>
es sive</w>
ab and
8 5
con vers
fel low</w>
ak er</w>
Di ese</w>
possi bly</w>
Sain t-
reve aled</w>
relation ships</w>
e e
any where</w>
st ayed</w>
fol der</w>
dro ps</w>
poli tici
exc eption</w>
over come</w>
cat ering</w>
Cal endar</w>
dr ug</w>
y iel
Mon t
Pri ze</w>
V -
y ad
me als</w>
P aper</w>
Moun tain</w>
Be it
ev en
tradi tions</w>
ul ations</w>
gl ad</w>
Ann ual</w>
person ally</w>
ha z
emphas is</w>
ro c
rapid ly</w>
under ground</w>
p ng</w>
candi date</w>
b lin
Del i
in ch</w>
Vide os</w>
3 1
bo xes</w>
Part ner</w>
per mitted</w>
youtu be.com</w>
cop ying</w>
artic le
E ff
rel ative</w>
ges ch
rec re
de t</w>
Al le</w>
sens or</w>
jud ge</w>
fi x
view ing</w>
U m
foot ball</w>
accur ate</w>
pap ers</w>
m oo
eib .org</w>
wid ely</w>
p ace</w>
v ation</w>
sch en</w>
W as</w>
im mer
consul ting</w>
P aci
Febr uar</w>
G az
shut tle</w>
wel com
Ex hibition</w>
es i
Pla za</w>
tal ks</w>
ish ment</w>
ad justed</w>
arg uments</w>
ob st
entre prene
ack ed</w>
b r</w>
Sim ply</w>
Jan uar</w>
10 ,
is ch
govern ance</w>
ex ecu
B us</w>
Dan iel</w>
favor ite</w>
T E
N AT
tw el
ä ch
Ar ch
th ful</w>
passeng er</w>
Nor thern</w>
op tional</w>
ad just</w>
www. q
che ese</w>
se ats</w>
An dal
og en
ev ed</w>
S ab
reserv es</w>
Br and
p tions</w>
op inions</w>
ain ing</w>
cre am</w>
J av
cust om</w>
ann es</w>
Ne u
E le
ob served</w>
Sec tion</w>
Af gh
ro ots</w>
me al</w>
d il
cour ts</w>
tw ice</w>
su ited</w>
Ir ish</w>
real ize</w>
Every thing</w>
trav el
v or</w>
Strate gy</w>
si te-
hondur as.
exp and</w>
k ind
.ht ml
ograph ic</w>
equ ally</w>
Geor ge</w>
dele ted</w>
s ailing</w>
Cham ber</w>
un ter
Feder ation</w>
S ME
Natur al</w>
lo ved</w>
Di re
a f</w>
R at
pro xim
sav ings</w>
dam ages</w>
K i
tr ag
Wor king</w>
t less</w>
l en
as king</w>
hab e</w>
15 -
f an
I tem</w>
ti vities</w>
Sy ria</w>
11 -0
sp ending</w>
se -
de gre
chap ter</w>
M ü
j k</w>
g ers</w>
Bi o
sk a</w>
optim ized</w>
shi ft</w>
recogn ised</w>
M ast
ris ing</w>
pic tures
An im
trans action</w>
destro y</w>
thre at
prec ision</w>
H ans</w>
www. mo
d ary</w>
believ ed</w>
k ings</w>
internation ally</w>
E mp
structur ing</w>
fil m
tr ail</w>
re stor
tri gg
m ad
statis tics</w>
L es</w>
is s</w>
assu me</w>
bri ef</w>
ti li
7 4
Gu ide</w>
larg ely</w>
d all
er as</w>
op pon
K er
E p
tim ately</w>
illu str
au to
re fin
an ge
h em
Geor gia</w>
B -0
.05. 2016</w>
m its</w>
b rain</w>
te dly</w>
expl ic
Pr ices</w>
De z
Anal y
me ets</w>
appro aches</w>
J ord
tor al</w>
intellec tual</w>
ec tions</w>
re venues</w>
every body</w>
9 th</w>
gener ations</w>
Clim ate</w>
ir t</w>
Sloven ia</w>
jp g
dest inations</w>
municip ality</w>
f os
S he
sup posed</w>
ly que.com</w>
prin cip
T om
win ner</w>
E G
Dres den</w>
V it
L ic
se es</w>
po ker</w>
bo tt
Min isters</w>
He in
te il
Profes sional</w>
p air</w>
ess els</w>
duc tion</w>
contro ller</w>
re stored</w>
schedul ed</w>
sim pli
remo val</w>
Ex peri
to tal
mechan isms</w>
gi o</w>
Premi um</w>
neu tr
Dis cover</w>
lux ur
Pro jek
t end
discrimin ation</w>
port al</w>
l en</w>
big ger</w>
S W
Chair man</w>
in .com</w>
f ar
refuge es</w>
flow s</w>
D R
g ments</w>
Col or</w>
Cy pr
Coun t</w>
ard less</w>
F air</w>
ut ation</w>
ight y</w>
gen der</w>
effec tiveness</w>
direc tions</w>
ter ri
strong er</w>
dec re
Wash ington</w>
moun ted</w>
t k
der -
bir th
zz le</w>
tel ls</w>
Ste p</w>
00 -
respec tively</w>
con sent</w>
ü ck</w>
tic a</w>
fa sts</w>
ex e</w>
Ar t.</w>
dis co
un forget
Z ü
tel ec
G am
Ch ang
recogni ze</w>
pri ests</w>
it s
air e</w>
Andre as</w>
speci alists</w>
o g</w>
club s</w>
clo thing</w>
cham ber</w>
Cypr us</w>
Cas ino</w>
M s</w>
Agricul ture</w>
L earn</w>
vic tory</w>
pres sed</w>
op ol
character istic</w>
SME s</w>
De f
ig ns</w>
lo ading</w>
Archi ve</w>
them es</w>
sur faces</w>
ah n
e z</w>
K ey
la us</w>
su e</w>
repres entation</w>
ac tors</w>
S mar
sha ped</w>
im port</w>
def ence</w>
Twit ter</w>
Li ft</w>
a ple
particip ating</w>
it y-
an z</w>
Francis co</w>
Up dated</w>
Cap ital</w>
Con cer
p ure
T est</w>
Ret ur
Loo king</w>
continu ously</w>
p o</w>
Pl us</w>
S ho
n a
welcom ed</w>
st ery</w>
re mark
S a</w>
S cript</w>
Li thu
In don
www.q lyque.com</w>
Kit chen</w>
renew ed</w>
par ks</w>
www. m
spec tr
bro thers</w>
Pol i
fru its</w>
trans actions</w>
ori entation</w>
Dez ember</w>
performan ces</w>
blio tec
civ il
cos y</w>
ge b
func tioning</w>
achiev ing</w>
quanti ty</w>
al leg
Comp are</w>
paragrap h</w>
R ap
indic ate</w>
dec laration</w>
ag ement</w>
Corpor ate</w>
t ari
aut umn</w>
P ak
accep tance</w>
v essels</w>
plac ing</w>
manufac tured</w>
au x</w>
ig e</w>
gather ed</w>
for -
Antoni o</w>
re porting</w>
b ay</w>
mas sive</w>
f b
den ly</w>
W ür
S ti
Bo x</w>
commis sion
bo y</w>
ag er</w>
oper ates</w>
mon etary</w>
Sh ould</w>
se in</w>
ri d
produc er</w>
ses sions</w>
comput ers</w>
Tit le</w>
Sec on
27 .
he ated</w>
defa ul
stain less</w>
static .
i en</w>
OM E</w>
en ever</w>
Sh are</w>
S ave</w>
Proper ties</w>
E s
medi eval</w>
ail and</w>
Lev el</w>
mig rants</w>
f ail</w>
degre es</w>
Y ou
2 40</w>
per cent
accur acy</w>
su ites</w>
train ed</w>
accord ingly</w>
ri eb
har v
l av
E- Mail</w>
201 1-
L ady</w>
r ant</w>
min ister</w>
St or
N u
lo ans</w>
consider ably</w>
6 3
se emed</w>
St at
Shop ping</w>
Y outh</w>
S T</w>
Mon th</w>
ast y</w>
sty lish</w>
m t</w>
ab a
P un
P on
feder al</w>
decisi ve</w>
Wor d</w>
6 4-
Pol y
S in
r ay</w>
ong side</w>
unforget table</w>
su perior</w>
Sup er</w>
Jud ah</w>
28 th</w>
Youn g</w>
Mo z
incre di
ar ise</w>
V el
www. youtube.com</w>
Pho to
j ac
co hesion</w>
Atlan tic</w>
photograph s</w>
heal th
att ended</w>
W id
B ew
197 3</w>
l .
hair dryer</w>
h ang
conclu de</w>
F L
fi l</w>
exp anded</w>
Al ps</w>
www.blog ig
in er
cul tures</w>
n ament</w>
sp are</w>
Israel i</w>
Amer ic
A ma
con ve
C ross</w>
prepar ing</w>
Di vision</w>
tr ad
1 23</w>
hus band</w>
g li
escap e</w>
Sci ences</w>
u l</w>
Ur l</w>
res or
2 20</w>
bour g</w>
behavi or</w>
Ass embly</w>
198 5</w>
install ations</w>
f ing</w>
atic s</w>
T P</w>
Mal ta</w>
D F</w>
we ak</w>
Sun rise</w>
1 17
serv ants</w>
bliotec aple
bliotecaple yad
aff airs</w>
bliotecapleyad es.net</w>
N r.</w>
sub stance</w>
lay out</w>
a er
www. eib.org</w>
ou ldn</w>
con siders</w>
www.bi bliotecapleyades.net</w>
c ss</w>
C A</w>
craw l</w>
architec tural</w>
suff er</w>
neigh bor
kilomet ers</w>
refl ected</w>
Mar t
Oper a</w>
ha i</w>
is cher</w>
dar k
os pel</w>
Paci fic</w>
tro p
tion -
di os</w>
C F
Bal tic</w>
comple tion</w>
0, 00</w>
si a</w>
oph istic
h n</w>
Per s
dele ted
Inst all
di r</w>
Y ah
H ear
th ouse</w>
resi stant</w>
commit ments</w>
fes tiv
t ank</w>
ex posed</w>
ass er
ret ail</w>
invol ving</w>
inten se</w>
er g
des c
Bal k
24 th</w>
dr inking</w>
sc ore</w>
Char ter</w>
signific ance</w>
serv ing</w>
S au
gen e</w>
u x
ti que</w>
hal t</w>
e age</w>
co- operation</w>
bl u
us s</w>
- 5</w>
t aught</w>
af raid</w>
ab s
M ich
exec ution</w>
del ete</w>
exam ine</w>
Fol low</w>
labor atory</w>
chil d
R ight</w>
for cement</w>
Dire kt
ter ing</w>
pow ered</w>
ambi tious</w>
hom epage</w>
t te</w>
mus icians</w>
l ar</w>
in fo
fascin ating</w>
ich er
contr adic
entr um</w>
ad ult</w>
V I</w>
G old</w>
2 30</w>
re jected</w>
2 2.
fin den</w>
al a</w>
h in
we h</w>
Sen ior</w>
20 1</w>
st ops</w>
ob viously</w>
fin dings</w>
l ity</w>
il li
.p l</w>
at or
C lo
ab ling</w>
He av
Enter prise</w>
Br un
ell s</w>
MB Length</w>
Islam ic</w>
b acter
un fortunately</w>
surg ery</w>
g est
G PS</w>
g ov
char ter</w>
Innov ation</w>
co tt
c up</w>
fo res
s ought</w>
pro spec
14 ,
sh alt</w>
ro -
where as</w>
wh er
Pat ent</w>
C H</w>
C I
th umb
An dro
un usual</w>
co ck
autom ation</w>
M other</w>
G .</w>
wit ness</w>
onym ous</w>
P P
fi re
3. jpg</w>
manag ers</w>
gr and
cerem ony</w>
Alex ander</w>
conver ted</w>
a ther
there of</w>
S eries</w>
pas sion</w>
bed ded</w>
demonstr ate</w>
F R
wel comes</w>
bur den</w>
bre ath
as signed</w>
1 15</w>
semin ar</w>
goo gle
Cul tural</w>
p en</w>
ener y</w>
comb ines</w>
ver e
Po st
tum bl
ol ate</w>
igh ted</w>
descri be</w>
K ul
sub jec
T ai
Argent ina</w>
wor thy</w>
s k</w>
a. com.
An na</w>
equi valent</w>
d al</w>
198 7</w>
hor ses</w>
transl ated</w>
secon dary</w>
high lights</w>
cos me
arg ument</w>
Zü rich</w>
May be</w>
w ill
G ab
preci ous</w>
www. c
bud getary</w>
invol ves</w>
Stu d
AR T
necess arily</w>
fl esh</w>
liqu id</w>
Yah weh</w>
Win ter</w>
y .
lo go</w>
Institu t</w>
19 80</w>
conflic ts</w>
ei j
dic t
d ust</w>
Cl assi
pharm aceu
restric tions</w>
m nt</w>
gi an</w>
Angel es</w>
201 0-
sch on</w>
sand y</w>
AT ION</w>
l t</w>
dis plays</w>
H ong</w>
Mar k</w>
K ol
v end
some what</w>
id ents</w>
Th ailand</w>
ti k</w>
se ed</w>
k es
eh n</w>
te es</w>
k ill</w>
environ ment
sac rif
regi stry</w>
r u</w>
preserv ed</w>
great ly</w>
tor ies</w>
offici als</w>
ph r
wh ilst</w>
W TO</w>
Stati stic</w>
at eral</w>
imag ine</w>
Pr int</w>
Bas ic</w>
power .de</w>
lab or</w>
s ophistic
pr o</w>
pictures que</w>
K am
Con sum
Chi ef</w>
Bor n</w>
id -
Hel p</w>
20 5</w>
soldi ers</w>
gi e</w>
Parti cip
Stu dies</w>
K ong</w>
Direkt link</w>
- 30</w>
govern mental</w>
certain ty</w>
Bl ack
difficul ty</w>
di ving</w>
Comm on</w>
198 6</w>
b ag
S pl
certi fication</w>
Environ mental</w>
0 200</w>
Ro tter
lo an</w>
Vi ew
sp an</w>
premis es</w>
fol d</w>
A K
u um</w>
stu ff</w>
ec ological</w>
ste m</w>
special ized</w>
econom ies</w>
sev ere</w>
pris on</w>
war ran
it -
gar age</w>
trav elling</w>
chec k
H au
dist ur
propos e</w>
an k
C T</w>
d os
as er</w>
www.mo gel
www.mogel power.de</w>
us -
corrup tion</w>
Auth or</w>
h il
al i</w>
f ing
Wolf gang</w>
Tra in</w>
L ud
invol vement</w>
Str uc
Pro b
F as
Ar be
E in</w>
th ic</w>
bour geo
st abil
alco hol</w>
R ad
O ut</w>
y esterday</w>
th in</w>
sur prise</w>
ell schaft</w>
th m</w>
stic k</w>
serv ant</w>
fa thers</w>
str ange</w>
pion ship</w>
Ch ic
uni or</w>
re turns</w>
check- in</w>
acc um
Moun tains</w>
H ello</w>
happen ing</w>
dri ves</w>
Sk y
S at
D ays</w>
veget ables</w>
ig er</w>
break fasts</w>
inter rup
di et</w>
mak er</w>
p ko
24 .
main taining</w>
tow els</w>
par k
p sy
F lu
Reg ister</w>
Med ic
ss d</w>
wor st</w>
re gre
mag ic</w>
T .</w>
Di ff
p ump</w>
om a</w>
iP od</w>
fun ded</w>
ex em
eng aged</w>
D ra
ali ve</w>
expend iture</w>
v als</w>
st on
D A
5 26</w>
vis ed</w>
ban king</w>
B C</w>
sun ny</w>
e c</w>
site- crawl</w>
pko ehn</w>
min i</w>
de alt</w>
beg in
om mun
hy dra
Lar ge</w>
repe at</w>
K ey</w>
H ard
determin ation</w>
H O
gre w</w>
In clu
calcul ated</w>
12-0 5</w>
c any</w>
occur s</w>
anti cip
sch ol
15 0
www. vid
cat ch</w>
M S
pres ti
g r</w>
Im mobil
Col le
intellig ent</w>
Mall orca</w>
ze it</w>
wor se</w>
Un der
fu sion</w>
b ound
ac he</w>
Euro pa</w>
Bet ween</w>
17 0</w>
separ ated</w>
un ci
human ity</w>
me ter</w>
ig i
ha ven</w>
ari at</w>
V e
é e</w>
photograph y</w>
inter ven
be aring</w>
bu re
Rotter dam</w>
3. 5</w>
cl oud</w>
ac id</w>
tu i
plat z</w>
h agen</w>
www.vid c.org</w>
dic tion</w>
P eter
si st
patter ns</w>
g all
fel d</w>
excur sions</w>
CE T</w>
b icycle</w>
www.blogig o.de</w>
refriger ator</w>
C all</w>
it i</w>
att end</w>
w ick
a e</w>
arm ed</w>
enem ies</w>
at lan
Ex change</w>
Ca thedral</w>
cy cling</w>
1 13
vul ner
pres sion</w>
1 16
horiz on
Some times</w>
F ü
2 1.
compris es</w>
P .</w>
tr ails</w>
Rom a</w>
L A</w>
ag a</w>
shor t-
fre ely</w>
re ar</w>
su its</w>
spo ts</w>
hospit ality</w>
bran ches</w>
A part</w>
arrang ement</w>
9 3
26 .
pro -
pollu tion</w>
dis pen
ef s</w>
Dat abase</w>
è re</w>
train s</w>
ro v
Ri o</w>
wi eder</w>
pres enting</w>
ir ts</w>
Moroc co</w>
4 20</w>
qu ery</w>
know -
gu il
cab in</w>
bot tle</w>
Wil li
Fr amework</w>
Do es</w>
ou ter</w>
o o</w>
moder n
ma x
fac ed</w>
al and</w>
S AP</w>
aba jo
B is
news letter</w>
enh anced</w>
Mes se</w>
l am</w>
doub le-
exam ined</w>
in cl.</w>
desig ner</w>
po s</w>
Rich ard</w>
Co operation</w>
bo at-
um in
hol es</w>
e ip
R ail
g a-
Equ ip
marri ed</w>
ch air
.... ...</w>
ge ted</w>
enti c</w>
T ab
be hold</w>
O K</w>
th um
on ally</w>
g rid</w>
Un til</w>
L ong
cu ts</w>
L AN
inter medi
Bon n</w>
min ist
bar bec
W rit
cir cle</w>
Vill age</w>
Euro s</w>
sched ule</w>
Ber n</w>
he it</w>
adjust ment</w>
Tus cany</w>
s z
clo sure</w>
Collec tion</w>
subsidi ary</w>
foc uses</w>
Produc tion</w>
ter ies</w>
ag ent</w>
D anish</w>
guid ance</w>
ay a</w>
s ins</w>
P in
Met ro</w>
Ar ri
gre en
devo ted</w>
e i</w>
25 th</w>
ati s</w>
Off icial</w>
Fo to</w>
ed itor</w>
K öl
sho es</w>
li min
abajo .com</w>
E- mail</w>
st al
event ually</w>
T ext</w>
kön nen</w>
wis dom</w>
ut ch
speak er</w>
b ands</w>
F uture</w>
twel ve</w>
medium- sized</w>
ad ays</w>
Char les</w>
re ti
mix ture</w>
demonstra ted</w>
ch oc
t m
ra d</w>
198 4</w>
Res pon
I .</w>
est yle</w>
cool ing</w>
Open ing</w>
so vere
slow ly</w>
o on</w>
sho ts</w>
S A
Di strict</w>
enem y</w>
amen ities</w>
L au
M M
25 .
con ferences</w>
Newsp apers</w>
200 9-
stop ped</w>
identi fication</w>
shor t
e o</w>
ing .
Mag az
ren t
o ch
bus y</w>
A ri
n on</w>
bo ar
5 27</w>
cal m</w>
a .htm</w>
simultane ously</w>
H ow
phenom en
circu it</w>
Sto ck
the ore
st ays</w>
head quarters</w>
ran ging</w>
k it</w>
contin ent</w>
T ru
lif ts</w>
f a</w>
Asi an</w>
promis ed</w>
over looking</w>
inspec tion</w>
n at
P A</w>
Ho t</w>
gu ia</w>
canc ellation</w>
du ties</w>
cast ing</w>
academ ic</w>
Gr an</w>
re store</w>
u el</w>
ing .htm</w>
dep end</w>
am i
Vic e-
H aving</w>
trans formation</w>
pan els</w>
ick en</w>
im migration</w>
fish eries</w>
N ord
lo vers</w>
commun icate</w>
consi sting</w>
H D
F al
min ing</w>
R E</w>
l ung</w>
boo t</w>
under lying</w>
Sy n
ur ance</w>
applic ant</w>
sugg estions</w>
pain ted</w>
inter active</w>
compl icated</w>
co tton</w>
Mat erial</w>
19 0</w>
abs ence</w>
pro sper
Democr ats</w>
201 3-
14 -
pil ot</w>
leg s</w>
Ma xim
percent age</w>
Ma x
te c</w>
it ations</w>
ce iling</w>
emer ging</w>
F on
res c
te ment</w>
t one</w>
is ite</w>
inv est</w>
pain t</w>
Pre vious</w>
W .</w>
et a</w>
index .html
il a</w>
ci ted</w>
d ges</w>
rel ate</w>
b ags</w>
Ni k
W all</w>
ul ous</w>
sp ac
n evertheless</w>
loc ks</w>
rep utation</w>
u zz
tumbl r.com</w>
acc ident</w>
I ON
protec ting</w>
Ver lag</w>
g ap</w>
coun ter</w>
consequ ence</w>
v in
th row</w>
detec tion</w>
b os
8 3
go s</w>
ec tive</w>
Ste ph
2 F
nov el</w>
hre n</w>
explan ation</w>
es a</w>
t onn
mat ure</w>
expen ses</w>
chec ked</w>
v el</w>
ro s</w>
itu de</w>
her self</w>
The at
k al
Li brary</w>
K .</w>
Inter nal</w>
j ack
heal ing</w>
deleg ation</w>
- site</w>
sequ ently</w>
M AN
Fi re
to x
responsi bilities</w>
ar ks</w>
Ev ent</w>
wei z</w>
M ig
ver tical</w>
struc k</w>
öffentl icht</w>
th ro
201 2-
descri bes</w>
con stitute</w>
Gol den</w>
29 9</w>
contribu ted</w>
anl ass</w>
G or
spectr um</w>
wiki pedi
Per forman
Di ego</w>
Sou thern</w>
kle in
brow n</w>
c am</w>
ig ned</w>
dec line</w>
Di en
7 3
pro pri
bi ological</w>
organ ize</w>
guit ar</w>
gu ides</w>
comp are</w>
character ized</w>
B ru
trans fers</w>
off set</w>
Ta x</w>
celeb rated</w>
c ing</w>
Univers ität</w>
Sum mit</w>
H ou
D F
Musi k</w>
know- how</w>
r an</w>
P il
r ar</w>
F ul
Addi tionally</w>
adap t</w>
k el
hum ans</w>
ar bit
m ich</w>
belie f</w>
E col
specific ations</w>
leg ally</w>
O h</w>
exclu ded</w>
Fran k</w>
V EB
te eth</w>
po ols</w>
Au to
wri ter</w>
F oo
N um
sol ely</w>
comp res
ab ol
ad min</w>
2015- 12-05</w>
was n</w>
she ep</w>
sam ples</w>
pre ven
consider ing</w>
ber e
5. 00</w>
E V
log ical</w>
S on
Europe ans</w>
sophistic ated</w>
p ush</w>
Au f
st unning</w>
promis es</w>
o a</w>
appl ying</w>
M L
ES S</w>
won der</w>
jo in
immobilsard a.com.
immobilsarda.com. 2015-12-05</w>
g ew
bu tt
f rau
prin ter</w>
Ja hr</w>
mon uments</w>
grad ually</w>
cop ies</w>
Pow er
y .com</w>
mor al</w>
innov ations</w>
Star ting</w>
st aying</w>
coun ted</w>
ac on
W H
refer ences</w>
ke eps</w>
gui atr
guiatr abajo.com</w>
ar us</w>
war ning</w>
S ud
S ev
acknow led
limin ary</w>
di stor
rec eip
wikipedi a.org</w>
tw it
- 3
Dri ve</w>
sent ence</w>
decisi on-
E M</w>
Archi tec
vine yards</w>
gr ound
Sun set</w>
sup er</w>
mil eage</w>
i k</w>
celebr ate</w>
Sing ap
te ful</w>
inven tion</w>
gol den</w>
resid ents</w>
amarill ass
Ch ile</w>
A m</w>
0. 87</w>
s oc
lo aded</w>
en abling</w>
Fin nish</w>
wel coming</w>
co ating</w>
D aily</w>
mo ves</w>
Sch ul
G U
tis m</w>
e ter</w>
fall ing</w>
í a</w>
ri an</w>
connec ting</w>
activ ated</w>
VEB EG</w>
luxur ious</w>
Fur n
h ast</w>
ci ud
as yl
re conc
fab ric</w>
fic i
remark able</w>
tes tim
cross- border</w>
. it</w>
di en
ab und
Pro to
inv ent
Sol utions</w>
F arm</w>
row n</w>
Sustain able</w>
hor n</w>
downlo ad
de fe
cri mes</w>
13. 11.2016</w>
h ne</w>
employe e</w>
dis cre
v i</w>
ip s</w>
R ed
pe ak</w>
google .com</w>
M eg
10 2</w>
serv ers</w>
urg ent</w>
tw enty</w>
Qu ar
w ire</w>
transl ation
jo ining</w>
C P
compl ex
Sol ar</w>
Sh ower</w>
F it
ell ers</w>
M I
um p
org an</w>
Rec omm
T ou
D ES
ograph ical</w>
consci ous</w>
believ es</w>
Per haps</w>
al lo
H OME</w>
j uris
ac tor</w>
28 .
ap ol
en .html</w>
Pro vid
Experi ence</w>
pal ace</w>
C up</w>
ex ecutive</w>
bre aking</w>
Pers onal</w>
z ano</w>
icht e</w>
as a</w>
M -
tar geted</w>
clo sing</w>
laun dry</w>
er k
Spr ing</w>
' d</w>
ti p</w>
decre ase</w>
10 6</w>
fall en</w>
suff ered</w>
oper ative</w>
invol ve</w>
QU OTE</w>
occur red</w>
s can</w>
cap abilities</w>
G B
Andro id</w>
S and
L ong</w>
Ac tually</w>
Pub lished</w>
met ro</w>
Cl ass</w>
rub ber</w>
im peri
6 2
B lo
politici ans</w>
e ating</w>
18 -
time dia</w>
Situ ated</w>
ke it</w>
enjo ying</w>
Sch weiz</w>
clin ical</w>
Be ing</w>
B I
th read</w>
sud denly</w>
no -
Cam ping</w>
w an</w>
ab or
d ens
E asy</w>
co st-
ch at</w>
an ch
10 4</w>
th ick</w>
C anc
per mit</w>
up grade</w>
L .</w>
min or</w>
initi ally</w>
Manag ing</w>
inter n
er ings</w>
b one</w>
Christ op
t ent</w>
ann a</w>
intellig ence</w>
id el
ch r
pre gn
f at
col or
restric ted</w>
re venue</w>
Afgh an
r and
el t</w>
az za</w>
col our
proce ed</w>
m ap
bi d</w>
Jac ob</w>
Col om
s car
im posed</w>
S ant</w>
O g</w>
ai red</w>
R is
fif th</w>
facil it
Up per</w>
parliam entary</w>
Sem in
re structuring</w>
foun der</w>
be an</w>
10. 00</w>
k .net</w>
sur pris
ome ter</w>
ex cl.</w>
12 8</w>
ter nal</w>
satis fy</w>
di vine</w>
H aus</w>
1, 000</w>
nec k</w>
Cas tel
Boo k
develop ers</w>
ab use</w>
U sers</w>
w aves</w>
G -
v ig
con fron
oblig ed</w>
bo ts</w>
12. 2015</w>
P ed
lic he</w>
Z u
fi replace</w>
t ant</w>
inter action</w>
end en</w>
27 th</w>
F ern
W W
Con struction</w>
the ast</w>
m ö
bel t</w>
festiv als</w>
tor ia</w>
re cip
ge ar</w>
auth entic</w>
G et
r hy
ig a</w>
m ighty</w>
i est</w>
pl ain</w>
deep ly</w>
bo ost</w>
Wor ks</w>
Un d</w>
lis her</w>
cros sing</w>
Ser bia</w>
- time</w>
26 th</w>
symb ols</w>
pro files</w>
Manu fac
E d</w>
pass es</w>
install ing</w>
T ag</w>
fir st-
2 3.
ari b
Bre men</w>
reg ardless</w>
pay ing</w>
30 .
aw ards</w>
los ses</w>
29 .
b ap
del ighted</w>
Fo rest</w>
Afghan istan</w>
an e
si tion</w>
pres entations</w>
m es
hos tel</w>
coast al</w>
post al</w>
ir on
compar able</w>
Al ban
al arm</w>
sugg ested</w>
con junction</w>
accoun ting</w>
00 AM</w>
uni verse</w>
bi kes</w>
ax is</w>
ast ro
C in
particip ated</w>
el and</w>
Sco t
motor way</w>
in et</w>
zer o</w>
uni ted</w>
sou th-
engine ers</w>
C P</w>
te ach</w>
I tems</w>
t ail</w>
ob serve</w>
ach er</w>
st ake
bo w</w>
C lin
og y</w>
g as
fo tos
ag gres
cas ino</w>
L ind
draw ings</w>
Boo ks</w>
struc tured</w>
ex ic
R ules</w>
cou ldn</w>
ar range</w>
Vi et
Han nover</w>
wel fare</w>
roll ing</w>
ass ess</w>
X XL</w>
Colle ge</w>
im age
reli ef</w>
10 8</w>
favour ite</w>
affor dable</w>
Premi ere</w>
ati tude</w>
K now
cin ema</w>
L IN
D s</w>
G a
tran qu
com .</w>
Moon rise</w>
sig ht
Ste fan</w>
Priv acy</w>
Kos ovo</w>
ü ber
198 2</w>
tr e</w>
stri ke</w>
ne -
low s</w>
h abil
Lat via</w>
x .com</w>
O K
Ho ch
ear ning</w>
ar do</w>
en berg</w>
l akes</w>
c dn
jus tified</w>
edi ted</w>
dec reas
N Y
Moon set</w>
trou ble</w>
Secon dly</w>
M ov
coll ap
candi dates</w>
Tel ef
ty ard</w>
in um</w>
L ook</w>
Andal usi
1 18
shor tly</w>
b uses</w>
13 5</w>
Lit tle</w>
Econom y</w>
D i</w>
k am
up gr
f t-
O m
id en</w>
200 6-0
r ä
famil y-
cre w</w>
B ut
kit chenette</w>
proc urement</w>
min ent</w>
el ed</w>
t v</w>
sens ors</w>
ow ing</w>
proto col</w>
acc essed</w>
sh if
ag li
boo l</w>
D ur
sp ite</w>
asyl um</w>
air- conditioned</w>
Ven e
mo on</w>
be at</w>
s ister</w>
premi um</w>
C af
c aught</w>
Fl or
feat uring</w>
author ized</w>
cam ping</w>
W ord
Singap ore</w>
C os
B ang
fa hr
K as
mir ror</w>
ism o</w>
inv alid</w>
f s</w>
J on
ph y
ou ts</w>
in e-
19 44</w>
integr ate</w>
cap ac
15 ,
publish ing</w>
indic ates</w>
house hold</w>
ful filled</w>
bun k</w>
A le
200 7-
speak s</w>
op posed</w>
meas urements</w>
- and-
ul ty</w>
occup ied</w>
St ri
K ra
For mat</w>
t une</w>
pres sing</w>
lis te.de</w>
calcul ation</w>
uc c
k auf
congrat ulate</w>
ling ual</w>
ap par
D ark</w>
real istic</w>
wat ching</w>
re placement</w>
eg gs</w>
bro ch
are r</w>
F .</w>
De ar</w>
st am
li able</w>
c and
oc ean</w>
ar ising</w>
u a</w>
ew ise</w>
w enn</w>
201 4-
uc ks</w>
D S</w>
Can ary</w>
sol ved</w>
represent ing</w>
por tra
li ver</w>
infring ement</w>
mis sed</w>
ci es</w>
R ue</w>
s ung</w>
di alog</w>
attem pts</w>
res ses</w>
sign als</w>
open hagen</w>
clim bing</w>
band liste.de</w>
197 9</w>
sh r
in di
Co ins</w>
hre r</w>
IM G</w>
al ph
ad e
evol ution</w>
ad ds</w>
BM W</w>
p per</w>
lay ers</w>
w age</w>
1 12</w>
thick ness</w>
Ter r
Ac tivities</w>
un ser
ul timate</w>
list ening</w>
Jord an</w>
or ange</w>
en tic
F our</w>
wid er</w>
k no
go .com</w>
en. wikipedia.org</w>
boo te-
ar c
reco ver</w>
mid st</w>
m ere</w>
gr y</w>
fas st</w>
eter nal</w>
ec k</w>
198 1</w>
ti g</w>
tax i</w>
m i</w>
M and
stand ar
lat eral</w>
l ou
sp iel
face book
M ak
Lithu ania</w>
p in</w>
fai thful</w>
N ur
ran ken
fl ying</w>
A U</w>
rob ust</w>
us ted</w>
haus en</w>
0 100</w>
c aliforni
F el
www. penilefitness.com</w>
10 -0
p t
p ig
To ols</w>
cour age</w>
Le ban
am b
c up
Performan ce</w>
trop ical</w>
t end</w>
Custom ers</w>
Dolom ites</w>
pre ferred</w>
advis e</w>
ad- de-
notic ed</w>
collec tions</w>
3 20</w>
S av
volun te
Dep ending</w>
gram mar
acc o</w>
Sh ang
B ath</w>
read er</w>
pro let
autom ated</w>
rac ing</w>
Ph ar
E state</w>
whe els</w>
chem icals</w>
Gu ar
al g
2 10</w>
ed ly</w>
A ar
refl ects</w>
imp ul
En ter</w>
28 0</w>
m .
W all
vir tually</w>
super vision</w>
sal vation</w>
ch ose</w>
Emplo yment</w>
W it
P s</w>
se it</w>
F R</w>
Wor ld
I cel
ic ked</w>
fe el
ad-de- la-hab
th res
Be hold</w>
phenomen on</w>
Can adi
harmon y</w>
gre y</w>
resul ted</w>
recei ves</w>
ciud ad-de-la-hab
a o</w>
disco very</w>
qu e
landscap es</w>
hon our</w>
V inc
Th ird</w>
tre m
m ic
ir o</w>
Rel ations</w>
M ount</w>
A do
25 -
s word</w>
all ed</w>
h ect
Bu y</w>
se as</w>
el se
barbec ue</w>
8. 00</w>
vac uum</w>
est e</w>
Con c
reduc es</w>
is Active</w>
in sight</w>
Co ast</w>
terror ist</w>
il eg
se ite</w>
fi xing</w>
clou ds</w>
ch i</w>
T ower</w>
D IN</w>
greg ation</w>
U R</w>
th west</w>
Im mun
E specially</w>
W ould</w>
S z
pap er
cre ativity</w>
Gover n
ã o</w>
ung al
top -
t ut
bas in</w>
B .
a .de</w>
Ap pe
v o</w>
m ount</w>
T ech</w>
J obs</w>
German s</w>
Corpor ation</w>
Bu ch
Ro che</w>
E dit</w>
parti al</w>
m ill</w>
recommend ation</w>
electron ics</w>
Ath ens</w>
rec ord
aliforni en</w>
We ek
re aches</w>
grammar .com</w>
Wel t</w>
utch grammar.com</w>
J ava</w>
develop s</w>
all ing</w>
ur ities</w>
translation .php</w>
anc a</w>
aff ir
re construction</w>
is chen</w>
amarillas latinas.net</w>
1 11</w>
o que</w>
bes ide</w>
03 .05.2016</w>
ei ve</w>
M use
B y
rec tion</w>
Al bu
pro sec
stim ul
ne arest</w>
enc lo
Kar ls
vi era</w>
ish ings</w>
ri ft</w>
bes ides</w>
ul timately</w>
s ake</w>
blin d</w>
198 3</w>
pow der</w>
m ill
competi tors</w>
b p.
analys es</w>
Ab ra
tu r</w>
d .
19 70</w>
key board</w>
dat ab
S CH
Play a</w>
C openhagen</w>
l un
Is lam</w>
s 1600</w>
ma them
exerc ises</w>
bp. blogspot.com</w>
22 nd</w>
fol k</w>
pi x
effici ently</w>
over night</w>
know ing</w>
j ump</w>
Deli very</w>
se ating</w>
min er
soci eties</w>
li ked</w>
Olymp ic</w>
z ones</w>
t ine</w>
Super visory</w>
BS D</w>
fl at-
al ongside</w>
Organ isation</w>
sear ching</w>
Or chestra</w>
fr ames</w>
def end</w>
ati le</w>
R he
10 3</w>
u er
thumb n
ri vers</w>
G ö
S ü
B eij
speci fy</w>
k os
ent ally</w>
c -
bu g</w>
www.amarillasaust in.com</w>
re l</w>
v enti
os la
Mo tor
trans mitted</w>
M ill
stad t.de</w>
It ali
in quiry</w>
Vol k
Bri dge</w>
circul ation</w>
as on</w>
por tion</w>
k id
Oc ean</w>
Fran z</w>
s la
propor tion</w>
h re</w>
enti ty</w>
In tel
16 ,
tit les</w>
the ater</w>
port ers</w>
ox y
Qu een</w>
W ei
hol m</w>
eng er</w>
doc tors</w>
decor ation</w>
cer amic</w>
sty les</w>
j um
j i
z ip
inf ection</w>
Conver ter</w>
Ci vil</w>
Hist or
64- bit</w>
tour nament</w>
d ental</w>
tur b
fin anced</w>
accommod ate</w>
cam eras</w>
L CD</w>
ti ll
Ze aland</w>
In strum
Pan el</w>
Lin z</w>
H ier</w>
eth nic</w>
disci ples</w>
de pic
vic inity</w>
par ameter</w>
W is
Od gov
NAT O</w>
Adv anced</w>
own ership</w>
os is</w>
any more</w>
st art
d f
conserv ation</w>
be st
al titude</w>
26 0</w>
prec ed
l ds</w>
co her
S n
Odgov or</w>
Jav a
et t
ter n</w>
s ound
k ir
et ta</w>
st atic</w>
plat forms</w>
challeng ing</w>
Ado be</w>
pr on
X ML</w>
Wil hel
sur fing</w>
Tim es</w>
Arti cles</w>
t ted</w>
dr ag
desk top</w>
wor ry</w>
pursu e</w>
offici ally</w>
sh ine</w>
per forming</w>
moun ting</w>
iP ad</w>
10 9</w>
con sen
Pal ma</w>
semin ars</w>
pic ally</w>
Su ites</w>
te enth</w>
optim um</w>
g ather</w>
l eng
.p ng</w>
u li
fre ez
Qu e
voc ational</w>
read ers</w>
inv itation</w>
in ev
f ting</w>
D L
desig ners</w>
Har bour</w>
tw in</w>
all es</w>
Pi er
B ild</w>
uck y</w>
s ity</w>
at t</w>
Proper ty</w>
Köl n</w>
bu ying</w>
ach en</w>
par adise</w>
W irt
li vely</w>
jud icial</w>
deli ber
dat ory</w>
sy s</w>
prote in</w>
downlo aded</w>
dec k</w>
chec ks</w>
. files.wordpress.com</w>
re fresh
Catal onia</w>
di al</w>
S le
Inte gr
A ds</w>
ox ide</w>
en mark
vis u
dis aster</w>
I X</w>
volun tary</w>
For ce</w>
to b
char m</w>
Le on
In di
princip al</w>
boar ding</w>
differ enti
J ack
G A</w>
s hap
bu l</w>
radi ation</w>
h ence</w>
br on
In fo
cam ps</w>
bur ning</w>
bri ef
S F</w>
Her z
ex ports</w>
C C</w>
environ ments</w>
Ju li
Al tern
priv ileg
k n
in fin
harm ful</w>
ch ro
Mess age</w>
in n
op tical</w>
graph y</w>
exc essive</w>
X X
share holders</w>
li p
Indon esia</w>
C oo
ref used</w>
pres erve</w>
M ade</w>
AAAA AAAA
week ly</w>
E W</w>
se gments</w>
marri age</w>
inf ected</w>
fi g</w>
ag e-
L ow</w>
www.g stadt.de</w>
tr ail
mer cy</w>
sa ith</w>
rela xed</w>
critic ism</w>
Ma h
Buil t</w>
s ly</w>
receip t</w>
On -site</w>
sequ ence</w>
f loo
en de
article .php</w>
wal ks</w>
found ations</w>
craw ler</w>
vis a</w>
t us</w>
farm ing</w>
v enture</w>
modi fy</w>
iden tical</w>
dre ams</w>
v .
pi pe</w>
lab els</w>
Cap e</w>
res cent</w>
be gun</w>
nu ev
ne x</w>
fil e
-of- the-
bat teries</w>
Cl oud</w>
wi g</w>
w an
ful fil</w>
exc ell
de emed</w>
golf- p
sh ell</w>
An dr
for ums</w>
S C</w>
R ac
schem es</w>
bis hop</w>
n l</w>
bas s</w>
Sci enti
Jah re</w>
moder ate</w>
dam aged</w>
et c.</w>
T om</w>
occup ation</w>
invi tes</w>
hel l</w>
promis ing</w>
S ailing</w>
row ing</w>
Jo int</w>
Appl ication</w>
wor ship</w>
dens ity</w>
as m</w>
L ight
23 rd</w>
l uck</w>
gi ous</w>
fa ult</w>
con sec
fe els</w>
In n
H ans
u ous</w>
Vac ation</w>
fi er</w>
pen et
Amend ment</w>
m ati
en ly</w>
and o</w>
Hos tel</w>
warran ty</w>
pre ad</w>
lar ged</w>
F res
Administr ation</w>
o tic</w>
ran king</w>
enjo ys</w>
29 th</w>
su res</w>
b ad
and er
al ize</w>
Fre i
D I</w>
B ü
ro of
pharmaceu tical</w>
ic e-
multi pl
ath on</w>
adv oc
resol ved</w>
re mind</w>
pen ding</w>
ah r
cri p
compos er</w>
air ports</w>
K m</w>
j ug
horizon tal</w>
ell ant</w>
F ab
1. 2</w>
en de</w>
mean ing
log in</w>
it ere</w>
expan ding</w>
uni ons</w>
tun nel</w>
tex as.com</w>
eas iest</w>
w et</w>
influ enced</w>
Pa ul
initi ated</w>
ac a</w>
P -
shad ow</w>
Mon te</w>
person ality</w>
p it</w>
Per f
recip es</w>
f its</w>
en z
bur n</w>
Mw st</w>
zz gl</w>
barri ers</w>
mar g
Shang hai</w>
tim e-
ran k</w>
hi p</w>
at ar</w>
adv ent
Z i
Classi c</w>
Proc ess</w>
K l
ri x</w>
repe ated</w>
b y-
resol ve</w>
fore ver</w>
choc olate</w>
5 3.
Ty pe
Air lines</w>
inst antly</w>
equ ity</w>
ba thing</w>
Pic tures</w>
Li e
pi one
mini bar</w>
i stry</w>
comp uter
ple x</w>
play ground</w>
los-angel es.
ill ance</w>
for gotten</w>
Vice- President</w>
Hall o</w>
Er n
ut z
frau d</w>
Y O
separ ately</w>
pub lish</w>
p av
gu ys</w>
RO M</w>
hes i
g ence</w>
domin ant</w>
10 7</w>
man date</w>
commis sion</w>
tap e</w>
break s</w>
vari eties</w>
v ent
tail ored</w>
Com for
vol umes</w>
f ted</w>
ag o
Ji hl
ty -
pr ised</w>
Tu be</w>
Com petition</w>
ber ger</w>
assum ed</w>
Well ness</w>
Joh ann</w>
11. 2015</w>
m ented</w>
ca using</w>
av en
Her itage</w>
M ass</w>
Gu id
Kar l</w>
qu alities</w>
W a
Bew ert
hy po
feel ings</w>
busin ess
as is</w>
S L
Abra ham</w>
scen es</w>
bo ard
pre liminary</w>
bur g
Jihl ava</w>
fo to
Cu be</w>
B and</w>
- 25</w>
ent .
bure auc
U s</w>
mon astery</w>
inspir ation</w>
A ren
1 200</w>
ho t
per or</w>
p airs</w>
1 12
trans formed</w>
c em
A l</w>
man ip
it ly</w>
cop per</w>
prison ers</w>
ew er</w>
es h
car go</w>
Chic ago</w>
tex tile</w>
sem i-
ma ster
lar ge-
domin ic
Pub l
Ren a
deri ved</w>
T A
ann i</w>
am m
um a</w>
s h</w>
- 1</w>
rec ru
int end</w>
dark ness</w>
ch al
pl ing</w>
cho osing</w>
u be</w>
butt ons</w>
e. V.</w>
T ick
in o
youn ger</w>
pro duk
li e
sanc tions</w>
co verage</w>
Rel ev
z ia</w>
down town</w>
e es</w>
T s-
L et
proxim ity</w>
eng age</w>
Emp ire</w>
E P</w>
ut ing</w>
concentr ate</w>
am ended</w>
sur charge</w>
per sec
conveni ence</w>
T V
Im ages</w>
3 1.
13 1</w>
re tro
f lag</w>
un k</w>
ol f</w>
Beij ing</w>
og a</w>
qu ote</w>
iss ance</w>
he ading</w>
air y</w>
Ri viera</w>
Orig inal</w>
En tw
2 D</w>
v able</w>
bre eding</w>
P V
M en</w>
Constitu tion</w>
C ra
t r</w>
structur ize</w>
sett led</w>
necess ity</w>
Sch o
yl on</w>
str asse</w>
sc enery</w>
fer ry</w>
inclu sion</w>
else where</w>
capit alist</w>
mb ass
ban k
az z
S us
d é
medic ines</w>
ash ed</w>
ed a</w>
Pan or
Inform ationen</w>
mol ec
uplo ad</w>
en ary</w>
oni al</w>
Fr ont</w>
bs p</w>
H ub
D ry</w>
convers ation</w>
Z er
Diff er
pri me</w>
ed ges</w>
uni form</w>
res ted</w>
re vision</w>
S ic
L ü
duc k
after wards</w>
Java Script</w>
sp here</w>
pat ch</w>
obst acles</w>
Ver fasst</w>
refl ection</w>
n am</w>
foo ds</w>
www. google.com</w>
stoc ks</w>
1 19
7 50</w>
k an
V an</w>
Brow se</w>
stric tly</w>
ge ht</w>
x n
Musli m</w>
b g-
.09. 2016</w>
tem plate</w>
con vic
arti ficial</w>
architec t</w>
Com ment</w>
T an
197 8</w>
photo copying</w>
it an</w>
wri tes</w>
He adline</w>
Fr on
. ly</w>
www. fotos
moo dle</w>
ic e
Bel ow</w>
Represent ative</w>
Prov ince</w>
cont am
ak en</w>
tax ation</w>
m ing
Anal ysis</w>
ung -
tro ops</w>
grap her</w>
fas test</w>
er .com</w>
Wo hn
presid ency</w>
ne ue</w>
em i
em ens</w>
subsequ ently</w>
j o</w>
eni x</w>
Y ug
All gem
on ies</w>
sol o</w>
Ret ri
C ard
l ers</w>
U K
u 00
ap ost
Se bas
3 38</w>
fre ight</w>
Ch an
pack ed</w>
sta irs</w>
propos es</w>
ä l
z ip</w>
in n</w>
go d</w>
dies er</w>
Theat re</w>
T ip</w>
Lou is</w>
.0 .
explo itation</w>
succe eded</w>
ra ising</w>
min eral</w>
lo y
1 19</w>
dev i
Exc ellent</w>
Con sequently</w>
foc using</w>
aff ili
contain ers</w>
bg- bab</w>
sig nment</w>
decision- making</w>
modi fication</w>
ener gies</w>
I de
Ag ain</w>
sel ecting</w>
pass age</w>
cour tyard</w>
Stu dy</w>
Inter ior</w>
neigh b
appl i
ear th
Commer ce</w>
ter -
st ur
ligh ted</w>
f arms</w>
í n</w>
recogn ise</w>
E ssen</w>
16 -
sel ler</w>
sch e
.s c</w>
str o</w>
ran ges</w>
lo bby</w>
k u
insul a</w>
controll ing</w>
co at</w>
ac ies</w>
cons ist</w>
1. 1</w>
ang el</w>
St and</w>
des ert</w>
dec ade</w>
gall eries</w>
F OR
1 .html</w>
ari os</w>
4. 5</w>
man datory</w>
co al</w>
O w
S ound</w>
14 0
O s
Ex plo
fo t
Sec re
H im
er i</w>
comman ds</w>
Ta f</w>
sur prised</w>
Tur n</w>
Gaz a</w>
sil ence</w>
prof its</w>
g ab
acqu ire</w>
a an</w>
prin ts</w>
Rec ord</w>
N ach
C arib
www.fotos .sc</w>
k are
protec tive</w>
t ably</w>
li br
citiz en</w>
nam ents</w>
re vi
datab ases</w>
W -
emo tional</w>
as ks</w>
ven ess</w>
val id
k W</w>
Enter tainment</w>
ta b</w>
bureauc r
Se par
por ter</w>
L ist
ph ony</w>
S N
tou ched</w>
wh enever</w>
p ion</w>
min isters</w>
is en</w>
R ud
Gener ated</w>
telec ommun
ker nel</w>
d t</w>
Ac count</w>
restor ation</w>
ga str
en forcement</w>
klein anzeig
in correct</w>
S ac
gy m</w>
b ever
frequ ent</w>
ev i
co ins</w>
presti gious</w>
ide ally</w>
de partments</w>
L ater</w>
. jpg
moun tain
f ed</w>
es ome</w>
sm oo
hand ed</w>
el igi
birth day</w>
comman ded</w>
at i</w>
is er</w>
encour aged</w>
ell es</w>
co st
stan bul</w>
a a
sing ing</w>
perc eption</w>
kom men</w>
hi on</w>
thor ou
min ority</w>
www.d utchgrammar.com</w>
win ners</w>
stake holders</w>
he im
25 H</w>
15 00</w>
R ound</w>
Prob lem</w>
shap es</w>
discipl inary</w>
St ore</w>
Belgi an</w>
7 2
enmark t.de</w>
aff ects</w>
with draw
se eds</w>
Yug osla
e able</w>
Karls ru
sing er</w>
is a</w>
bre a
al it
17 ,
set up</w>
kleinanzeig enmarkt.de</w>
boote- kleinanzeigenmarkt.de</w>
Str as
38 5</w>
to ys</w>
d ann</w>
cy cles</w>
as ion</w>
H un
I m</w>
pl ed</w>
or ous</w>
succe ed</w>
no tified</w>
hi a</w>
defic it</w>
as set</w>
Wal ter</w>
W oo
produc tions</w>
mal ware</w>
Mac ed
I bi
Bol zano</w>
b all
arch ae
S ax
mari time</w>
inten si
d um
S K
N at
special ities</w>
favour able</w>
Al ber
year- old</w>
roc ks</w>
resp ected</w>
ed iting</w>
s y</w>
it z
Ar ound</w>
tis sue</w>
under taken</w>
L es
iz er</w>
c ular</w>
Ven ez
K h
Direc t</w>
Bal ear
Ad ded</w>
re ch
hy gi
ar g</w>
ano ti
ti ght</w>
1 17</w>
purch asing</w>
bi e
anti ago</w>
W E
Entw ick
Ir on</w>
w a</w>
Ber e
Al pine</w>
lin ing</w>
bo ys</w>
b au</w>
re ich</w>
C ase</w>
Ex ternal</w>
E ther
Col um
Andalusi a</w>
ä u
ten s</w>
Sub ject</w>
H P</w>
ke -
ath le
Bel arus</w>
woo ds</w>
50 -
gr ass</w>
be auti
tel ling</w>
occasi ons</w>
Hel m
H app
ki e</w>
Over view</w>
Regi stri
K an
G em
vol can
ro om
b acks</w>
Im pl
os .com</w>
ev ident</w>
Met al</w>
Lab our</w>
Dub lin</w>
sacrif ice</w>
back up</w>
T ag
sen ior</w>
qui ries</w>
ov ed</w>
der ness</w>
ass urance</w>
B it
e on</w>
Min im
H ill</w>
Ar c
sig nature</w>
s ick</w>
Rou te</w>
www. amarillass
ren der</w>
Be autiful</w>
As si
y nam
ens em
author ised</w>
ori e</w>
w ai
neighbour ing</w>
Ma ur
Bun des
br a</w>
I l</w>
d anc
Gi ven</w>
E sp
sof tw
ill ust
ne ed
le y
al li
Type Headline</w>
Color TypeHeadline</w>
Carib bean</w>
sum mary</w>
att ach
Dom in
mon thly</w>
join tly</w>
3 000</w>
ti a</w>
exten sions</w>
a w</w>
S till</w>
Pi azza</w>
F ast</w>
bil ateral</w>
ms g
ear nings</w>
Z entrum</w>
p ull</w>
mark et
Est onia</w>
rul ing</w>
UN ES
R on
Gre en
ti er</w>
diff er</w>
pro hibi
o is</w>
n erv
gr o</w>
ten der</w>
S eiten</w>
seri al</w>
Ts- 2
T ax
st ressed</w>
onom ic</w>
Pen sion</w>
P L</w>
F ish
3 2-
p ar</w>
oni an</w>
offic ers</w>
em e</w>
E aster</w>
econom ical</w>
b ill</w>
te .htm</w>
P ad
mo ist
. com.
k in</w>
execu ted</w>
Mo der
pil gri
er ly</w>
consen sus</w>
Wat er
Beg inning</w>
coordin ated</w>
ak a</w>
inten sity</w>
h d
T ool</w>
Sh or
ass en</w>
EN T
Proto col</w>
en did</w>
Tit an</w>
y acht</w>
woo d
tack le</w>
Wat ch</w>
1 22</w>
sci ences</w>
wid es
cros s
y- to-
lin e
St a
ab eth</w>
strength ened</w>
z in
m ic</w>
constitu tes</w>
B L
hos tels</w>
environment ally</w>
EL L
sol ving</w>
p l</w>
or i</w>
an ity</w>
Vir gin</w>
2 28
vi c</w>
s an-
form ula</w>
commer ce</w>
Per man
carri er</w>
Icel and</w>
re habil
incredi ble</w>
v il
tal ent</w>
separ ation</w>
ranken vers
rad ical</w>
ill ness</w>
con qu
5 50</w>
do or
C off
A venue</w>
dis charge</w>
At tention</w>
ret ail
De ath</w>
check- out</w>
I stanbul</w>
er ra</w>
Karlsru he</w>
á n</w>
ro o
Writ ten</w>
fair ly</w>
ec tor</w>
adver tis
17 5</w>
up per
mod ular</w>
de pos
Out door</w>
ti e</w>
gi fts</w>
clo s
Meas urements</w>
h as
mass es</w>
m ail
bu yer</w>
O x
B ell
B A
quanti ties</w>
Mar co</w>
Inde x</w>
uzz i</w>
flat- screen</w>
def ense</w>
Rail way</w>
B ER
parti cles</w>
hon est</w>
ill um
fu els</w>
Stras bourg</w>
Ch al
facebook .com</w>
anc ement</w>
Contin ue</w>
n bsp</w>
ch .net</w>
valu ation</w>
pro pag
b -
6 50</w>
work er</w>
prepar ations</w>
pip es</w>
no body</w>
exhib itors</w>
ig en
Sim il
S R
Mo vi
........ ........
ack er</w>
H ö
Dat um</w>
Balear ic</w>
z on</w>
suppl ement</w>
su me</w>
h o</w>
fot oli
U C
clim b</w>
cl am
shar p</w>
contrac tual</w>
thre n</w>
3. 0</w>
0 1
ti m</w>
alg ori
tradem arks</w>
ent ers</w>
T ol
theore tical</w>
ma xx
health care</w>
Grap h</w>
Dep uty</w>
indic ators</w>
gl ance</w>
dies em</w>
D un
v eter
j 2
f ounding</w>
ess entially</w>
Vol ume</w>
ful l
fotoli a.com</w>
Hi king</w>
F I</w>
us ter</w>
Th ema</w>
Pak istan</w>
H its</w>
Gul f</w>
m g</w>
Stock holm</w>
Ob ject</w>
expl oring</w>
bo asts</w>
F err
Ap p</w>
neh men</w>
man kind</w>
for b
W S</w>
St art
M i</w>
Ex it</w>
terr aces</w>
t s.htm</w>
ow ed</w>
A vi
ref use</w>
j ury</w>
ess ence</w>
encour aging</w>
x i
l amp</w>
D er
Acc ess
6 00
k or
j i</w>
cry stal</w>
bul k</w>
O il</w>
G S
scre en
tonn es</w>
ro le
lin ess</w>
In divid
St ate
G as
sig ning</w>
def ects</w>
cell ar</w>
197 6</w>
real ization</w>
gi f</w>
c ave</w>
Po ints</w>
I L</w>
C are</w>
war s</w>
Sup pl
N O</w>
www. iron
legi timate</w>
Rev olution</w>
Presid ent-
N -
la p</w>
L ower</w>
200 8-
in tui
at s
Willi am</w>
Chec k-
maxx .de</w>
l on
compati bility</w>
ass ure</w>
P ain
un anim
am ari
H ence</w>
or ds</w>
hes itate</w>
comman d
dis c</w>
col um
achiev ements</w>
achiev ement</w>
Part nership</w>
ful ness</w>
docum entary</w>
diagno sis</w>
Spl it</w>
27 0</w>
j ust
four -
a. net</w>
M o</w>
Croati an</w>
g ross</w>
f c
em atic</w>
Wid th</w>
V il
Pro ph
reci pe</w>
po p</w>
part ner
a .</w>
C ust
y l</w>
ty pically</w>
se hen</w>
multi tude</w>
em bedded</w>
an st
ad os
M .
evalu ate</w>
T yp
pre fer
pos ing</w>
leg end
hi bit</w>
fin ishing</w>
F ra
www.iron maxx.de</w>
tem p
hand ic
D river</w>
u lic</w>
W LAN</w>
celebr ation</w>
Ed itor</w>
her e
inter faces</w>
f li
ad el
ab stract</w>
I R</w>
sch rift</w>
ana. net</w>
ac o</w>
T ry</w>
6. 1</w>
belong ing</w>
z h
comm it</w>
Ti tel</w>
R ES
G ay</w>
1 16</w>
smo ke</w>
4- ch.net</w>
Ar my</w>
prof essor</w>
mini -
hl ung</w>
com od
Al p
A y
s .html</w>
der ly</w>
UNES CO</w>
neutr al</w>
EM S</w>
prec au
k ne
enti als</w>
P ay</w>
s 1.
car te</w>
C A
pos session</w>
expres sly</w>
on es
en g</w>
dies el</w>
Qu estion</w>
Ibi za</w>
eng agement</w>
ch ester</w>
Organ ization</w>
st eri
Merc ed
B lan
im ports</w>
h ide</w>
Fried rich</w>
sol v
reci pi
Lux ury</w>
0 47
s ors</w>
off erings</w>
So l</w>
rent als</w>
ques tion
cultiv ation</w>
D own
z ar
trav ellers</w>
sil ent</w>
thum b</w>
static. fotolia.com</w>
sou ls</w>
ra g</w>
kare ha
kareha .pl</w>
Ne ar</w>
ro be</w>
cap ture</w>
L earning</w>
viol ation</w>
Exc el</w>
scho ol
or chestra</w>
compl im
announ ce</w>
tra -
th an
dis play
downlo ads</w>
boo th</w>
activ ate</w>
wher ever</w>
auth entic
up -to-
hy per
ban quet</w>
me ad
go ds</w>
firm ly</w>
apparen t</w>
War saw</w>
9. 00</w>
197 5</w>
rieb en</w>
on ist</w>
experim ent</w>
Re in
8 00
mem or
coun ty</w>
Perman ent</w>
saf ely</w>
pra ise</w>
am ics</w>
Sub mitted</w>
Sch w
Mic hel
n ick
clos est</w>
S ON</w>
veget able</w>
Mo d
1 13</w>
ne ys</w>
I deal</w>
Ad am</w>
co ven
p es
Adri atic</w>
gi ble</w>
b inary</w>
Dien stag</w>
plas tics</w>
parti ally</w>
mist ake</w>
Egyp tian</w>
1 14</w>
lo sing</w>
surve illance</w>
mon d</w>
K ap
xn --
pre me</w>
pen alty</w>
des erv
Off ic
ru ins</w>
prospec ts</w>
www.amarillasaust i</w>
ut most</w>
al located</w>
aes thetic</w>
s at
perman ently</w>
ad or
w ay
s ever
low est</w>
instruc tion</w>
M P</w>
0 1.
sk y
re member
k .
f itting</w>
le ys</w>
D u</w>
up coming</w>
meth od
R ain
Consum er</w>
www. al
adap tation</w>
Hear t</w>
manu ally</w>
J unior</w>
perspec tives</w>
ju ice</w>
es ti
s man</w>
amarill as</w>
Peter sburg</w>
L -
syn chron
ar row</w>
O -
in- Office</w>
correspon ds</w>
as .htm</w>
Retri eved</w>
N ig
wel ding</w>
ur ismo</w>
res ourc
n y
Res ources</w>
197 2</w>
w ir
constitu tion</w>
Dan ube</w>
Com b
num er
integr ity</w>
r ice</w>
har m</w>
Un it</w>
r ounded</w>
l ens</w>
expen se</w>
attrac tion</w>
Bil der</w>
ship ment</w>
refin ed</w>
T ow
at om
sc at
ad mission</w>
Par tic
www.amarillasest ad</w>
integr al</w>
construc tive</w>
Tick et</w>
Kun st</w>
D av
Boo king</w>
infl ation</w>
happ iness</w>
Ke ep</w>
tob acco</w>
s lot</w>
dig nity</w>
co des</w>
Pur ch
g la
di al
A z
exten ds</w>
er s-
Retur n</w>
19 ,
tim et
m itting</w>
ende av
conf ident</w>
W ag
Cre ate</w>
M ann
In tel</w>
Coun ty</w>
tin y</w>
P AR
Fam il
rec ep
as .amarillas
Magaz ine</w>
C S</w>
B E
progres sive</w>
oul der</w>
Ju an</w>
In tro
no .0
16 5</w>
juris diction</w>
be k
ID S</w>
your selves</w>
oper a</w>
14 5</w>
we igh
uplo ad
observ ation</w>
hon or</w>
gra teful</w>
disp ute</w>
ate dly</w>
men us</w>
ge ographical</w>
Relev anz</w>
Pho enix</w>
st ering</w>
un id
sli de</w>
mean time</w>
bre thren</w>
ath y</w>
r ical</w>
w ash</w>
v as</w>
pub lisher</w>
en za</w>
ch a</w>
To il
7. 5</w>
se eks</w>
se a-
rat ings</w>
in en</w>
hop es</w>
uti lity</w>
lif estyle</w>
i i</w>
c ope</w>
adjust able</w>
ac t
ab o
sh ed</w>
elim inate</w>
car d
Log in</w>
Au di</w>
vulner able</w>
G row
Doc um
stra ße</w>
campa igns</w>
40 -
mar king</w>
at oes</w>
P E</w>
sch ule</w>
i ert</w>
Up on</w>
Appe al</w>
z we
Wi e</w>
S antiago</w>
Lic ense</w>
K laus</w>
ich erung</w>
direc tives</w>
c ali
ap ped</w>
p a.
gl ori
Sol eil</w>
w ouldn</w>
col oured</w>
ver ti
Fir stly</w>
viol ent</w>
lad y</w>
d c</w>
correc tion</w>
contin ually</w>
Ukra inian</w>
T ours</w>
m ood</w>
ati es</w>
F ire</w>
B ran
24 0
s v
Re alty</w>
Ele k
C lar
wor lds</w>
war ding</w>
journ alists</w>
eth eless</w>
Tai wan</w>
A 1</w>
tr uck</w>
prosper ity</w>
S aul</w>
Fin al</w>
furn ishings</w>
nor th-
chair man</w>
mis sible</w>
N ev
Leban on</w>
mem ories</w>
j et</w>
g ates</w>
fil ing</w>
be ar
Viet nam</w>
we aring</w>
Veg as</w>
l ord</w>
isol ated</w>
au dit</w>
S ear
Nor we
mus cle</w>
m ys
inten ds</w>
Sw imming</w>
G E</w>
vill as</w>
recy cling</w>
V ice</w>
vari ations</w>
classi fication</w>
Cl au
ir ates</w>
independ ently</w>
gra in</w>
Al ph
spl endid</w>
Si emens</w>
suffici ently</w>
par liament</w>
hun ting</w>
Bv R</w>
d un
Cent ury</w>
treat y</w>
regul ated</w>
ge omet
commun ic
o ils</w>
i um</w>
dram atic</w>
ali ke</w>
K a
Cal a</w>
e a</w>
arbit r
Gi ov
Constitu tional</w>
2 2-
lo gic</w>
fil ters</w>
de ar</w>
ant i</w>
o or
bath -
IC E</w>
wides pread</w>
gui acon
breath taking</w>
201 6-
t abled</w>
p iz
che apest</w>
az i
Dec laration</w>
re vised</w>
pursu ant</w>
c ables</w>
wel t</w>
Cap acity</w>
s au
reve al</w>
lin k
less ly</w>
Ir oning</w>
uti lis
gr and</w>
Mal ay
A x
trans ported</w>
sugg ests</w>
pres cri
n es</w>
m ad</w>
j av
experim ents</w>
emb ed</w>
share .com</w>
introduc ing</w>
E i
Con serv
197 4</w>
pic s</w>
Val le</w>
h ung
californi a.com</w>
appreci ated</w>
Fit ness</w>
E ine</w>
small est</w>
eng en</w>
demon stration</w>
compl aints</w>
am ar</w>
Gard ena</w>
inser t</w>
Sim on</w>
2 32</w>
F S</w>
e an
S ul
D H
sm ile</w>
le g</w>
bit .ly</w>
W r
p s
k ur
eg g</w>
Sto ck</w>
2 25
www. i
some where</w>
om on</w>
liber al</w>
exce ed</w>
del icate</w>
Flo or</w>
F C</w>
Ü ber
w ings</w>
ca 8
autom ob
terri ble</w>
influ ences</w>
indu str
ind ication</w>
z i</w>
mat ching</w>
h ren
cho ices</w>
ang els</w>
C AD</w>
3D open-
well- being</w>
sec ured</w>
oxy gen</w>
land -
je wel
fe eding</w>
He idel
10 4
r aces</w>
discus sing</w>
197 7</w>
15 5</w>
wor th
S mo
Le ague</w>
scre w</w>
pro minent</w>
v is</w>
f ate</w>
L om
ure -
stri an</w>
a z</w>
President- in-Office</w>
18 ,
speci fication</w>
organ ise</w>
ky o</w>
consul t</w>
ca thedral</w>
ur ge</w>
fish er
comm only</w>
We ather</w>
ul s
therap eu
Mo del
refer ring</w>
el en</w>
al pine</w>
Val ue</w>
num ber
H R</w>
wal d</w>
sus pension</w>
bene ficial</w>
F ro
Every one</w>
il es</w>
Au d
transl ations</w>
thorou ghly</w>
exc ess</w>
ero tic</w>
bacter ia</w>
NE T</w>
' clock</w>
un acceptable</w>
ti tu
scan ning</w>
ro les</w>
h u</w>
g un
Ste el</w>
R ab
Cre dit</w>
29 0</w>
yiel d</w>
onlin e-
incorpor ated</w>
concentr ated</w>
Mon tre
attem p
ash es</w>
comfor tably</w>
che aper</w>
bl essed</w>
Per u</w>
Hel sin
st ove</w>
at ories</w>
Ar n
lec tures</w>
golf-p ga-
Telef on</w>
J ean</w>
H av
correspon d
Orig in
H D-
tur ing</w>
ri k</w>
ri ed</w>
Re quest</w>
C ros
design ated</w>
ak tu
ach ts</w>
Op tim
2. 2</w>
i us</w>
Gre ens</w>
F F</w>
he m</w>
exclu sion</w>
au to</w>
L aw
13 2</w>
consolid ated</w>
T enn
where by</w>
prev enting</w>
E. ON</w>
enni um</w>
e inf
R SS</w>
neighbor hood</w>
Kit chenette</w>
en stein</w>
en os</w>
St y
R ub
M ON
ling u
amari l</w>
O E
so ever</w>
re turning</w>
mod es</w>
experim ental</w>
deep er</w>
bri ght
13 -
b att
Sil ver</w>
net working</w>
kun den</w>
Trans lation</w>
Ly me</w>
Americ ans</w>
se al</w>
minim al</w>
del la</w>
ber g
sta us
at tract</w>
Dis playing</w>
B ag
brow sing</w>
bas ically</w>
ke ep
capit alism</w>
al 6
v ou
loc k
es is</w>
cott age</w>
O therwise</w>
C AR
oppon ent</w>
ep iso
ig en</w>
carri es</w>
News letter</w>
www. facebook.com</w>
spr ings</w>
plo t</w>
techni k</w>
sur f</w>
hou ston
2 20
us er
f ut
P y
Langu ages</w>
xn-- 12
xn--12 ca8
xn--12ca8 j2
xn--12ca8j2 al6
m p</w>
Al ready</w>
mo ti
B ren
cru ise</w>
legend ary</w>
Bon us</w>
ñ a</w>
mon ument</w>
de d
Sa una</w>
P ool</w>
p i</w>
mer chan
Spe ed</w>
t ung</w>
pip eline</w>
j azz</w>
constitu tional</w>
R P</w>
C lose</w>
pure ly</w>
colle ague</w>
Ag enda</w>
no tification</w>
in jection</w>
V ati
ste ep</w>
it ory</w>
fin est</w>
di ve</w>
dau ght
Direc tors</w>
C agli
In cre
FA Q</w>
0. 5</w>
stud ying</w>
satisfac tory</w>
high lighted</w>
Consul ting</w>
Bi ke</w>
exten ding</w>
R ica</w>
reg ener
mar ble</w>
be am</w>
Equip ment</w>
tor ate</w>
hand led</w>
h ome
green house</w>
U M</w>
N ep
on- line</w>
e b</w>
br illi
Uni versal</w>
tex as</w>
mo reover</w>
W ay</w>
5. 5</w>
vir tu
tur nover</w>
municip al</w>
explic itly</w>
Sha re
Cli ent</w>
paren t</w>
gra ve</w>
S. A.</w>
Off ers</w>
201 8</w>
D ance</w>
1 21</w>
r is</w>
se af
au er</w>
R y
lo ads</w>
high way</w>
Me an
f red</w>
c us</w>
Coff ee</w>
val ve</w>
m id</w>
arbe iter</w>
V A</w>
Al ong</w>
fre e
eri en
coun tless</w>
b ü
kauf en</w>
Le ft</w>
re ject</w>
pe g</w>
Grow th</w>
Fr ame</w>
EUR OP
ou stic</w>
Ni eder
H A
v acc
pr er
p our</w>
offic er</w>
ac ent</w>
W ine</w>
Helsin ki</w>
G T
Proc ed
Kun st
wer k</w>
Mon te
Arti st</w>
lig ence</w>
-of-the- art</w>
os y
L ov
196 9</w>
än der
prohibi ted</w>
k tion
Vic toria</w>
Democr atic</w>
min ds</w>
Stor age</w>
assem bled</w>
Techn ologies</w>
Coun tries</w>
k ov
capac ities</w>
U -
E Q
E u
196 8</w>
respon ses</w>
Qu estions</w>
ke ine</w>
G as</w>
Bed rooms</w>
ur rection</w>
p ages
co operate</w>
T ab</w>
Hol land</w>
r s
ne uro
lu ggage</w>
dr ying</w>
b i</w>
P ER
Lin k
Ex tra</w>
. exe</w>
promo ted</w>
posi tioned</w>
avi ation</w>
up-to- date</w>
tur ni
par ish</w>
n ut</w>
Dub ai</w>
over -
G ew
F O
CD -
z ona</w>
trac es</w>
ph ases</w>
Ph ys
xn--12ca8j2al6 k.net</w>
pum ps</w>
Tal k</w>
C la
record ings</w>
co ach</w>
mus cles</w>
altern atives</w>
Sat an</w>
Bav arian</w>
ton gue</w>
survi ve</w>
re st
pe de
de adline</w>
Ver öffentlicht</w>
Pr inc
3 80</w>
pl ant
pat ch
ha h</w>
c ake</w>
acc used</w>
To kyo</w>
Ori entation</w>
K alifornien</w>
AT E</w>
13 3</w>
sur ance</w>
lo ves</w>
ing ness</w>
dispen s
di am
cus sion</w>
Pro te
direc tors</w>
wh el
super b</w>
rou ghly</w>
it al
gu ards</w>
gi ant</w>
no ble</w>
e g</w>
at er
Dub rov
v ice</w>
ter ly</w>
pe as
i g</w>
v re</w>
prac tically</w>
emo tions</w>
an ten
C able</w>
m ire</w>
ic on
t ough</w>
sing le-
f ts
config ured</w>
comb inations</w>
cat tle</w>
b c
Pr ince</w>
Foo t
Del ta</w>
mar gin</w>
di ese</w>
coun cil</w>
Dep o
-------- --------
righte ousness</w>
r h
proph et</w>
plug in</w>
Tem ple</w>
mat ches</w>
econom ically</w>
Sp i
Econom ics</w>
dre w</w>
con test</w>
bath- tub</w>
Install ation</w>
H ER
Fun ds</w>
ung .htm</w>
H ous
contribu ting</w>
Bi bi
withdraw al</w>
V ar
MT U</w>
ra ys</w>
wh at
mur der</w>
ar gu
amar ill</w>
5 1
per pet
h ang</w>
stret ch</w>
La b</w>
Cagli ari</w>
glo be</w>
comp ete</w>
M it</w>
re production</w>
fre e-
G ate</w>
repe atedly</w>
S ale</w>
LE S</w>
Gab ri
sum mar
in si
ari ties</w>
Dis play</w>
re i
F ine</w>
y er
bas es</w>
I F</w>
fa irs</w>
domin ated</w>
12 7</w>
s ement</w>
distingu ished</w>
An mel
coven ant</w>
C amp</w>
ro y
ig no
fo x</w>
att an</w>
Explo rer</w>
2 15
t anks</w>
m entation</w>
Hab ana</w>
tal ked</w>
in no
canc el</w>
R ic
2 .0
k a
f et
doc tr
dimen sional</w>
thres hold</w>
gener ous</w>
enc e-
Mich el</w>
Gen oa</w>
Des k</w>
Aar on</w>
view er</w>
vi an</w>
tr ace</w>
pro test</w>
emis sion</w>
consist ently</w>
Sh ut
tho do
ris es</w>
resor ts</w>
Maced onia</w>
imag ination</w>
testim ony</w>
on y
le ft-
any a</w>
ak i</w>
F ant
sk ill</w>
sight seeing</w>
pat ri
distinc tion</w>
ca p</w>
ac ids</w>
wat er-
thir d-
mat t</w>
V IP</w>
C oc
gene tic</w>
g y-
hect ares</w>
am edic
w ages</w>
t u</w>
de i</w>
comb ining</w>
M ath
B ase</w>
ard -
o ak</w>
l ava</w>
deal er</w>
Sh ort</w>
pro of
es te
bre ath</w>
pa. eu</w>
p an</w>
h- golf-pga-
S ound
Res ult</w>
survi val</w>
ch ances</w>
My SQL</w>
show case</w>
pen is</w>
4 1
12 6</w>
fur b
ad hesi
pri de</w>
d ancing</w>
br ake</w>
No thing</w>
sh ou
pill ar</w>
imm une</w>
gen ous</w>
ut ory</w>
phr ase</w>
m berg</w>
Se kunden</w>
K O
D .
gram s</w>
depend ence</w>
Win 32</w>
z n
it ung</w>
aw n</w>
St atis
right ly</w>
real ised</w>
au x
M O</w>
20 ,
any way</w>
surpris ing</w>
re tri
bec k</w>
Tra di
4. 0</w>
onn a</w>
ish ops</w>
d an
char ging</w>
ni e</w>
Wi es
D own</w>
stu dios</w>
complex ity</w>
z ah
ing e</w>
ess en</w>
ear ned</w>
aband oned</w>
25 0
13 4</w>
ÿÿ ÿ
with draw</w>
newsp apers</w>
es timate</w>
co zy</w>
10. 2015</w>
cul inary</w>
-0 1-
m atic</w>
Oper ating</w>
A B</w>
slo pe</w>
sl au
re ward</w>
be ars</w>
Vis a</w>
wil d
h alls</w>
bel l</w>
ad os</w>
S P</w>
proph ets</w>
fran c
for give</w>
al y
w ig
arch y</w>
O range</w>
mi xing</w>
ens es</w>
b its</w>
Wilhel m</w>
S po
loo p</w>
Hol ding</w>
onom ous</w>
in os</w>
architec ts</w>
C T
for th
commer ci
cl er
Af ter
et ry</w>
G h
8 2
ti ed</w>
k anoti
bar a</w>
os ity</w>
gui amedic
eligi ble</w>
A di
h ack
decl are</w>
mini stry</w>
fa -
ed it
con vention</w>
B us
90 01</w>
196 7</w>
glo b
Sebas tian</w>
Dubrov nik</w>
2. 00</w>
í k</w>
invo ice</w>
Ch ild</w>
ves sel</w>
tri als</w>
t- in</w>
statis tical</w>
shoo t</w>
on der
Qu i
Ham as</w>
puertoric o.com</w>
bio diversity</w>
G E
war ms</w>
k im
hon ey</w>
di min
Ex pl
Eng els</w>
vers atile</w>
re ver
Vo l</w>
Maxim um</w>
umb rel
St al
D r</w>
ti k
discipl ine</w>
K ri
14 1</w>
wor n</w>
tig ht
re .com</w>
in stitute</w>
coo k</w>
hr s</w>
r as</w>
lin der</w>
gl aci
g ig
f ails</w>
deb ates</w>
wil derness</w>
des ir
con stra
z el
vo ices</w>
i ans</w>
1 18</w>
tu ary</w>
accompan ying</w>
Initi ative</w>
u ted</w>
state -of-the-art</w>
fav or</w>
I d</w>
tr am</w>
i x</w>
believ ers</w>
substanti ally</w>
V ER
sh iel
on- site</w>
K y
Im port
c rescent</w>
S ex
Bos nia</w>
ß en</w>
or ph
hydra ulic</w>
cor ro
ish -
is ia</w>
al liance</w>
Y ears</w>
Heidel berg</w>
Apost le</w>
real ise</w>
olog ically</w>
The ater</w>
olog ist</w>
n ung</w>
id ay
2 26
tu bes</w>
certific ates</w>
ann ually</w>
adj acent</w>
Word Press</w>
N GO
em ented</w>
resol utions</w>
in aug
gr ants</w>
emb ran
eas ed</w>
detec t</w>
Zeit schrift</w>
Sch ne
IN TER
Th ir
Mü ller</w>
sculp ture</w>
img .
f ewer</w>
F OR</w>
27 -
tr ucks</w>
te k
sim ulation</w>
hi er
Elec tric</w>
ant oni
N L</w>
w and
bal con
ath s</w>
ogi c</w>
hospit als</w>
c ats</w>
Ho tel
ex ha
en chan
N AS</w>
Musli ms</w>
acc idents</w>
L ig
Flor ida</w>
smar t
prev ents</w>
let z
character ised</w>
b alls</w>
CS S</w>
se c</w>
lin e-
end ers</w>
bon ds</w>
albu ms</w>
P A
Fe atures</w>
A ires</w>
tu m</w>
sor ry</w>
ini ans</w>
ar rested</w>
H U
r ound
k u</w>
hy bri
custom ized</w>
Li b
es se</w>
de but</w>
insul ation</w>
P av
sn acks</w>
psych ological</w>
ologi sts</w>
no te
For m</w>
til ity</w>
re actions</w>
colum ns</w>
asp x</w>
ain e</w>
P om
bi e</w>
Di am
system atic</w>
plan ted</w>
mo tto</w>
image .php</w>
ent a
consequ ently</w>
app ellant</w>
K az
subsi dies</w>
child hood</w>
Mean while</w>
-0 5-
shoo ting</w>
re act</w>
M I</w>
Ital ia</w>
im pose</w>
employ ers</w>
daught ers</w>
L ip
par a</w>
harv est</w>
g ases</w>
- Email</w>
p ink</w>
os ph
li ps</w>
F all</w>
ber ry</w>
atic al</w>
Di ag
i ka</w>
resc ue</w>
over whel
impl ications</w>
im migrants</w>
Su itable</w>
Bu enos</w>
rou tine</w>
regre t</w>
classi fied</w>
avo ided</w>
war ming</w>
not ably</w>
er ts</w>
P el
H in
lec ture</w>
fun ny</w>
ent y-
d ney</w>
- in-
dr um</w>
commit tees</w>
Ob ama</w>
Com man
st om
d ung</w>
Offic er</w>
Fre ed
C it
or o</w>
Ber g
us er-
it ance</w>
bre ast</w>
V ision</w>
emer ged</w>
Mar ine</w>
Happ y</w>
t ang
ro lled</w>
prin t
f ought</w>
excell ence</w>
O f
stri p</w>
p ines</w>
in ver
er s
Revi ews</w>
Gard a</w>
3. 2</w>
ste ms</w>
demonstra tes</w>
ux e</w>
Pier re</w>
Bewert ungen</w>
-0 7-
Al to</w>
ro yal</w>
bur g-
S ter
Bibi one</w>
ÿÿÿÿÿÿÿÿ ÿÿÿÿ
ol i</w>
F oc
n arr
econom ics</w>
archi ves</w>
in- gene</w>
dem anded</w>
c ant
Comfor table</w>
loc ked</w>
lis ch</w>
bath s</w>
59 09
fe asi
Pro jects</w>
Che ap</w>
19 60</w>
p oo
chil e.
c ry</w>
NGO s</w>
10 24
i di
docum ented</w>
Norwe gian</w>
E AN</w>
ov ina</w>
gu y</w>
crow d</w>
Nor dic</w>
Im peri
ph p
Tr ue</w>
sh ut</w>
transl ate</w>
addres sing</w>
La us
top s</w>
display image.php</w>
col ored</w>
49 9</w>
ast ers</w>
Cre ated</w>
Con si
whol es
all y-
30 pm</w>
acqu ain
life time</w>
coun ting</w>
St ay</w>
St aff</w>
Ter minal</w>
su r</w>
scap e</w>
Mon etary</w>
tur n
org ans</w>
ev es</w>
commission ed</w>
ch a
Comp an
Beit rag</w>
stra hlung</w>
p end
enthusi asm</w>
dist ances</w>
Vati can</w>
Stad t</w>
N ure
Ges ellschaft</w>
vari ables</w>
gover ning</w>
bro ke</w>
Struc tural</w>
L ang
K el
12 4</w>
out -
g aining</w>
conf id
b loo
-0 4-
Er staus
st ake</w>
chec king</w>
ati al</w>
Ci ud
sub- categories</w>
go -
ch ains</w>
Prov ence</w>
Fü r</w>
F le
su c
nis se</w>
f inger</w>
ap h
IT -
g ains</w>
entr e</w>
des ires</w>
E EC</w>
special ised</w>
Me th
L ay
te x</w>
sac red</w>
A tt
A F</w>
bur ger</w>
12 5
ra rely</w>
nutri tion</w>
cl ause</w>
are -
pal m</w>
ent a</w>
M ap
th ri
grap es</w>
cer amics</w>
broad cast</w>
Dor tm
spe eds</w>
No tes</w>
wa xing</w>
Pro file</w>
16 .08.2015</w>
12 9</w>
thir ty</w>
gen om
consider ations</w>
d urch</w>
Si erra</w>
J ür
CD s</w>
An d
vol ta
ro bot</w>
interpre ted</w>
half- board</w>
ex haus
contribu tes</w>
V W</w>
S crip
Ap pro
K ais
tradem ark</w>
ex isted</w>
e .de</w>
9 2
im ported</w>
Tun isia</w>
R T
A wards</w>
1. 3</w>
comod ation</w>
Vari ous</w>
libr aries</w>
inv ested</w>
13 6</w>
i ons</w>
ef eld</w>
Hos pital</w>
lin ear</w>
Commun ications</w>
v -
ter rain</w>
rou gh
poss ess</w>
met als</w>
lam ps</w>
ach el
pri zes</w>
per mits</w>
mist akes</w>
ai res</w>
H ell
ð A
re tain</w>
h h-golf-pga-
g i</w>
ag rit
Th ough</w>
Sol omon</w>
H E
Depo sit</w>
. to</w>
trav eling</w>
in hab
renov ation</w>
ig nor
em en</w>
Je an-
A A</w>
y ours</w>
T ic
Inf ra
ÿÿÿÿÿÿÿÿ ÿÿÿÿÿÿÿÿÿÿÿÿ
emphas ized</w>
at us</w>
N ür
Mun icip
I K
Cl ass
threat ened</w>
protec ts</w>
oor del
he aded</w>
forb idden</w>
bur gh</w>
neighbour hood</w>
Appl ied</w>
phy si
Vis itors</w>
8 50</w>
nu ts</w>
impres sed</w>
Smar t</w>
R A</w>
Free BSD</w>
1, 5</w>
thi as</w>
cap ability</w>
be oordel
b ond</w>
re furb
r ab
or dering</w>
magaz ines</w>
j er
Soci alist</w>
Go is
s ourc
pic ked</w>
3 15</w>
-0 2-
symb ol
p ays</w>
Perf ect</w>
J azz</w>
B icycle</w>
8. 2015</w>
Mat eri
-0 6-
L ec
Ge org</w>
P sy
Kin der</w>
transi t</w>
sp ect</w>
net z
beoordel ingen</w>
announ cement</w>
V ÿÿÿÿÿÿÿÿÿÿÿÿÿÿÿÿÿÿÿÿ
M ENT</w>
Erstaus strahlung</w>
in cl
b ak
Brand enburg</w>
13 7</w>
tow ers</w>
shor ter</w>
ti ge</w>
in ding</w>
exc av
d c
ai a</w>
Ar g
te sti
for cing</w>
di v</w>
Su perior</w>
4- star</w>
thr one</w>
fu r</w>
al location</w>
I M</w>
G el
Car ol
poli tically</w>
Wi reless</w>
Budd ha</w>
in th</w>
ti fic
r us
v a
ten -
Vis ual</w>
Mon tag</w>
begin ners</w>
S ach
Bab y</w>
17 -
s br
psy cho
ad mitted</w>
subscri be</w>
s ink</w>
p ick
l aying</w>
g au
comb ating</w>
Ex clu
rehabil itation</w>
im men
grow s</w>
connec ts</w>
co inc
Herz eg
Au gu
st ation
now adays</w>
Res erve</w>
2 1-
partner ships</w>
hn en</w>
w ins</w>
end less</w>
assi stant</w>
B our
safe guard</w>
mag n
en large</w>
K ie
Go thic</w>
phys ics</w>
h attan</w>
14 2</w>
k ni
jud ges</w>
det eri
af ford</w>
uls ory</w>
j son
age ous</w>
F ides</w>
-0 3-
b und
O J</w>
D all
it ability</w>
clo th</w>
Sch engen</w>
L ounge</w>
Fri end
Fi ve</w>
lo ose</w>
less on</w>
evalu ated</w>
el abor
19 6</w>
sh oulder</w>
ec ho
m ou
ci er
no de</w>
logg ed</w>
graph ical</w>
enti ves</w>
differ ently</w>
Wer ner</w>
W ant</w>
l ind
arri ving</w>
Particip ants</w>
P lu
sc al
ate way</w>
ab r
Fas hion</w>
sh oc
viol ations</w>
my stery</w>
jour nal</w>
Ph arm
German -
unid os.com</w>
stri a</w>
ro ad
j an
am er
www.amarillasest ados
www.amarillasestados unidos.com</w>
ho sting</w>
ate l
sist ent</w>
inter -
ex tract</w>
TI ON</w>
pe d
ma sters</w>
fri ed</w>
S Y
trans fer
S ide</w>
th rown</w>
stri king</w>
m ers</w>
lik es</w>
conve y
chem istry</w>
K n
Commer cial</w>
100 g</w>
10 ,000</w>
roll s</w>
Joh n
po ck
ic tion</w>
goo d
en co
ec ht
collap se</w>
bound aries</w>
accompl ished</w>
Play ers</w>
assu red</w>
ac oustic</w>
So fi
Min i</w>
14 4</w>
ili ary</w>
heav ily</w>
27 5</w>
rä ge</w>
feat ured</w>
Ciud ad</w>
re verse</w>
You Tube</w>
Kin der
3 30</w>
pat ents</w>
en v
S op
quali fication</w>
st ag
kanoti x.com</w>
experi encing</w>
einf ach</w>
VI EW</w>
Tor re</w>
A LL</w>
13 8</w>
P ati
C .
2 ,000</w>
traff icking</w>
bourgeo is</w>
motiv ation</w>
imp acts</w>
dis rup
ä d
s ar
en rich
car di
bor ne</w>
Sch l
mir r
investig ations</w>
ht ml
M ec
Key words</w>
High way</w>
A bo
large- scale</w>
lab elling</w>
ko v</w>
ex tr
deli vers</w>
what soever</w>
ko sten
ful fill</w>
197 1</w>
val idity</w>
pol e</w>
Dortm und</w>
vic tim</w>
dro pped</w>
anst alt
Sy dney</w>
E is
therapeu tic</w>
lic ence</w>
chap el</w>
brilli ant</w>
Sch war
Nure mberg</w>
Impl em
sch i
righte ous</w>
iz ations</w>
ec osy
apparen tly</w>
analy se</w>
Bere ich</w>
i hr</w>
Hub ert</w>
pun ishment</w>
li t</w>
in direct</w>
en sive</w>
S D</w>
Mag ic</w>
E lis
tt a</w>
for sch
fe ast</w>
Y esterday</w>
schaf t
rein forced</w>
Bi el
Bad en-
st off
do -
6. 5</w>
2 28</w>
us r</w>
cab ins</w>
thor ough</w>
hos ted</w>
ed en</w>
ver -
motiv ated</w>
inser ted</w>
ing o</w>
ener i
Slov ak</w>
Mat thias</w>
F F
B ö
sculp tures</w>
pit ch</w>
S ony</w>
te au</w>
posi tioning</w>
our able</w>
mus ician</w>
Gra z</w>
inform ations</w>
g ement</w>
eth ical</w>
ar ch</w>
Nur ag
trans form</w>
os -
ate au</w>
Ly on</w>
telecommun ications</w>
t ability</w>
bur ied</w>
War ning</w>
Soci alists</w>
Man hattan</w>
G ün
` s</w>
IS A</w>
E mer
13 0
st an</w>
rel s</w>
pot entially</w>
investig ate</w>
duc ed</w>
C art</w>
16 0
pro vo
P ul
m embran
bi king</w>
- 4
process or</w>
es .php</w>
c el</w>
P it
Hon dur
D B</w>
2. 1</w>
mul timedia</w>
Rena issance</w>
R ural</w>
Com mod
Ap par
s ab
reve als</w>
cl arity</w>
br ush</w>
ap ple</w>
ad mire</w>
a. it</w>
D B
Ap p
Alex and
in land</w>
en z</w>
Par ts</w>
P .
Mis sion</w>
ali en</w>
18 5</w>
inf ections</w>
al ties</w>
NO T</w>
rand om</w>
ig ners</w>
K ids</w>
se p
organis ms</w>
mo tors</w>
loc ate</w>
am ple</w>
Architec ture</w>
o ever</w>
lo ving</w>
ge ous</w>
under take</w>
p cs</w>
no se</w>
earth qu
balcon ies</w>
E arly</w>
wat ch
guiamedic as
enti ties</w>
confir ms</w>
b icy
ari ans</w>
A sh
es thouse</w>
ben ch
Lud wig</w>
.0 00
é r
ush es</w>
remo ving</w>
dis orders</w>
contin ental</w>
A ur
2 24
un necessary</w>
in as</w>
B ush</w>
te en
c en
barri er</w>
Ama zon</w>
Access ories</w>
5. 1</w>
-0 8-
www.b ing.com</w>
sti pul
em at
Ar men
pro found</w>
me l</w>
even ings</w>
Bulg arian</w>
fix er</w>
Chr is</w>
8. 5</w>
perc eived</w>
doub tedly</w>
Austr alian</w>
26 -
anim ation</w>
- in</w>
sc rat
con gress</w>
app ren
J am
N ow
How dy</w>
F ound</w>
10 6
travel ers</w>
bo x
M ö
29 5</w>
veget ation</w>
K BA</w>
sens es</w>
Ste in
Au f</w>
19 43</w>
preven ted</w>
optim ization</w>
min es</w>
ch art</w>
Ben j
t ations</w>
renew al</w>
re viewed</w>
ge able</w>
NY -
Al -
re f</w>
qu ot
3. 1</w>
23 9
uss y</w>
po ol
mil it
ill es</w>
g ospel</w>
aff ecting</w>
S ki
ro g
la hab
dominic ana.
U T</w>
T M</w>
pron oun
Palest ine</w>
pre ferences</w>
P T</w>
Herzeg ovina</w>
Fri ends</w>
intermedi ate</w>
al ise</w>
ad o
subscri ption</w>
in tr
P RE
Lim ited</w>
Na ples</w>
.e uro
l ending</w>
beauti fully</w>
anc ell
T os
y ar
vo id</w>
em ent
bur ned</w>
Con temporary</w>
ware house</w>
rel ates</w>
Ch all
form ity</w>
ec k
bl essing</w>
ass essed</w>
For sch
Compl ete</w>
29 -
26 7
si sters</w>
Z one</w>
Proced ure</w>
trac king</w>
refer end
ha b</w>
Th read</w>
è s</w>
men ade</w>
advis ed</w>
se ek
seas onal</w>
compl ement</w>
c z
an th
Week ly</w>
tri be</w>
lahab ana.net</w>
im bur
hang ing</w>
M echan
Electr onic</w>
sha ft</w>
ori um</w>
ran ks</w>
pro p
cou ples</w>
bre ach</w>
hal ten</w>
IN E</w>
C av
A er
wal ked</w>
defic i
consist ency</w>
w rap
ent wick
defaul t
cris es</w>
Po sts</w>
Malay sia</w>
B ah
49 -
new est</w>
lim itations</w>
spir its</w>
profes sion</w>
l ucky</w>
gather ing</w>
eas y-to-
bu tter</w>
lif ting</w>
Frei burg</w>
La dies</w>
28 -
re ib
conv ince</w>
ac company</w>
X Von</w>
Phil harmon
Beit räge</w>
s light</w>
n au
br ac
az zo</w>
Gal erie</w>
G ast</w>
w ake</w>
quali fications</w>
onn e</w>
occup ational</w>
lik ewise</w>
en to</w>
al istic</w>
14 9</w>
k ing
in cur
ev id
stor m</w>
ra in
inher itance</w>
el f</w>
St one</w>
P act</w>
Gois ern</w>
s an</w>
re bel
ket tle</w>
forth coming</w>
ar ose</w>
air lines</w>
L ei
EB IT</w>
trans ports</w>
gg ed</w>
15 2</w>
stric ts</w>
impro ves</w>
b id
ÿÿÿ ÿ</w>
Mon ten
F ill</w>
9 00
by tes</w>
S ER
K ab
u it</w>
prolet ariat</w>
desir able</w>
Scienti fic</w>
Ob jects</w>
Gi ve</w>
A ges</w>
Medic ine</w>
Inter view</w>
E mil
D ir
CO UN
Au to</w>
S ri</w>
L ad
5 ,000</w>
whe el
exic o.com</w>
descri ptions</w>
S L</w>
A ver
la di
l oud</w>
form erly</w>
rul ed</w>
promp ted</w>
detec ted</w>
K -
Ecol ogic</w>
' A
u ch
Ur ban</w>
S eg
Jo e</w>
IT Y</w>
D en</w>
A id</w>
19 5</w>
toler ance</w>
thodo x</w>
tex ture</w>
develop er</w>
correspon d</w>
astro ph
h et</w>
du pl
dri ed</w>
c b
tri m
r ick</w>
i ors</w>
condi tion
distribu te</w>
bu b
bl an
Pay ment</w>
. ru</w>
trem end
W AR
Sch mid
S I</w>
D a</w>
wit nesses</w>
he ute</w>
h ö
enjo y
bild ung</w>
L L
und -
pl ug</w>
in timate</w>
defin es</w>
9. 2015</w>
tw er
ic op
dispens able</w>
cor ners</w>
Hol idays</w>
Colom bia</w>
ci o</w>
archae ological</w>
Commun ist</w>
inform al</w>
bott les</w>
T T
S ed
s ad</w>
d .com</w>
bl end</w>
appli ances</w>
0 7.
ste ering</w>
panor ama</w>
heav ens</w>
Poli tical</w>
NE W</w>
recre ation</w>
mag ical</w>
N A
Jah ren</w>
HD- install</w>
DF G</w>
Al most</w>
territ ories</w>
sion ate</w>
moist ure</w>
Rol l</w>
Over all</w>
Giov anni</w>
Franc is</w>
2 F</w>
j a
f ont</w>
do s</w>
S port
sensi tivity</w>
fo am</w>
engine er</w>
deliver ies</w>
Tr ack
under stand
om exico.com</w>
ch ip</w>
W upper
T eneri
2 30
nuev omexico.com</w>
c ig
b res</w>
Saf e</w>
collec ting</w>
bri dges</w>
Hondur as</w>
A IDS</w>
25 5</w>
preserv ation</w>
mo s</w>
brow sers</w>
Scot land</w>
G ru
den ied</w>
. The</w>
will ingness</w>
exam ining</w>
ensem ble</w>
Ne ue</w>
M D-
veri fy</w>
tem plates</w>
sh ock</w>
loc king</w>
k at
curren t
b ahn
right -
ar o</w>
J ak
tt i</w>
inj ury</w>
W enn</w>
Sim ple</w>
Ern st</w>
territ orial</w>
om ing</w>
l le</w>
freez er</w>
dist ant</w>
M old
p ac
monit ored</w>
l oun
cor rid
analy zes</w>
Por t
P le
Mari o</w>
stat t</w>
re ign</w>
liber alisation</w>
competi tions</w>
acknowled ged</w>
Sch we
sur -
re per
invent ory</w>
gir l
endor f</w>
F requ
Canadi an</w>
visi onal</w>
il -
ff e</w>
config ur
R ose</w>
fin det</w>
di versi
H .
AP I</w>
min orities</w>
Ob jec
Joh annes</w>
3 1.0
prer equ
non- smoking</w>
Fish eries</w>
scen ario</w>
conc eived</w>
comm ented</w>
ber icht</w>
N Y</w>
Christi anity</w>
wh ir
re jo
ra p</w>
ent als</w>
ati k</w>
Sp ir
eleg ance</w>
cham pionship</w>
Nic ol
man ship</w>
in- depth</w>
flu id</w>
dir ty</w>
Shut tle</w>
L S-
G y
D inner</w>
17 2</w>
sor ts</w>
pe pper</w>
mil d</w>
mel o
ex -
et ery</w>
ep her
air line</w>
administr ator</w>
A 4</w>
36 5</w>
manif est
fl our</w>
dur able</w>
construc t</w>
Compan ies</w>
w -
Phar ao
I ran
di visions</w>
Tre k</w>
L av
D M
Al ways</w>
sch l
or je</w>
or n</w>
Th ou</w>
T on
O tto</w>
man -
doub ts</w>
Rh ine</w>
ER S</w>
.0 0
conveni ently</w>
R un</w>
Hel per
Agr it
u ela</w>
m oul
V E</w>
Albu m</w>
fr ame
en .de</w>
d well</w>
and in
Ci tiz
zz les</w>
z ie
pol l
d ose</w>
Heav en</w>
C are
re d-
portra it</w>
ld ers</w>
acknow ledge</w>
Mo tor</w>
port able</w>
N ami
Berlin ale</w>
so red</w>
s ail</w>
res em
Rat ing
An nex</w>
orig ins</w>
en vis
c i</w>
at tor
N ie
Dies er</w>
DN A</w>
14 6</w>
tic k</w>
cer e
Proph et</w>
Dal mati
ropol is</w>
inc entives</w>
distinc t</w>
canc elled</w>
Mat the
Al bert</w>
20 2</w>
loc ally</w>
Po ts
Cre te</w>
star tu
en comp
Min utes</w>
Abo ve</w>
z .com</w>
voc ation</w>
er sch
c it
Pi et
G M</w>
am id</w>
N G</w>
Laus anne</w>
H as
Be auty</w>
se am
pos es</w>
bi om
ac on</w>
PL US</w>
Andre a</w>
www.amarillass an
sovere ign
gr ill</w>
cry st
conc eption</w>
F our
un s
l ub
K ü
I .
fisher men</w>
ell i</w>
celebr ations</w>
addi tionally</w>
oni sts</w>
ex otic</w>
con sole</w>
Bis hop</w>
1. 4</w>
public ly</w>
j ap
determin ing</w>
crow n</w>
config ure</w>
ci on
Nurag he</w>
miner als</w>
ei m</w>
D ro
Cy cling</w>
liter ally</w>
W ill
Rem ember</w>
A pr
twit ter</w>
tim ely</w>
ri ders</w>
W ild</w>
Rep ub
ðA www.immobilsarda.com</w>
glob ally</w>
e e-
defin ing</w>
Wupper tal</w>
Te il
Minim um</w>
G ospel</w>
Chan nel</w>
con tex
D R</w>
C Z
mus s</w>
col onial</w>
P T
O u
em ann</w>
ar rest</w>
9 99</w>
t ness</w>
ste ad
draw s</w>
Import ant</w>
0.0 14
religi ons</w>
fashi on
compris ing</w>
colour ful</w>
bu st
Tem per
www. f
sm en</w>
lim itation</w>
gam ing</w>
comp ulsory</w>
S ie
Monten e
Curren cy</w>
28 .09.2016</w>
2 27
19 50</w>
in dispensable</w>
Ken ya</w>
Commod ore</w>
B S</w>
subsidi aries</w>
leg acy</w>
M AG
Domin ican</w>
ut z</w>
gl asses</w>
ensu red</w>
el ty</w>
disp utes</w>
cl ay</w>
broad er</w>
Vi ol
Consul tant</w>
19 -
ut ers</w>
t asting</w>
s porting</w>
remember ed</w>
pur i
attribu tes</w>
P OR
Categ ories</w>
4 40</w>
w icked</w>
promo tes</w>
modi fications</w>
calcul ate</w>
bel oved</w>
a ic</w>
indi genous</w>
il t</w>
An th
ox id
hygi ene</w>
ener gy-
18 0
l v
stat ue</w>
patch For
negoti ating</w>
genom men</w>
br ass</w>
View Helper
ViewHelper Views</w>
Rating ViewHelperViews</w>
Arab ic</w>
2- 3</w>
work place</w>
stell ung</w>
pres ses</w>
decor ative</w>
credi ted</w>
Y pages
L ö
I ce</w>
He ad
forum .net</w>
comfor ts</w>
s park
popul ations</w>
is se</w>
index .html</w>
ant -
requ iring</w>
for tress</w>
al together</w>
Kore an</w>
15 1</w>
t ino</w>
cran e</w>
con fusion</w>
aw ai
am pli
W hi
S MS</w>
techn ically</w>
hu a</w>
exp ects</w>
Guid elines</w>
stat utory</w>
life -
k illing</w>
hi ke</w>
cop y
compl aint</w>
OE CD</w>
tain er</w>
scan ner</w>
por tive</w>
brief ly</w>
St ability</w>
P ack</w>
A part
re ment</w>
lan ding</w>
im s</w>
t an</w>
super market</w>
mor t
ie ur</w>
broch ure</w>
T anz
privileg ed</w>
inter views</w>
eg t</w>
coordin ate</w>
In halt</w>
3 40</w>
änder t</w>
C M
m ask</w>
institu tes</w>
V in
P ir
Autom otive</w>
.0 6</w>
stro ke</w>
sc op
k anal
Pu tin</w>
P ass</w>
Alph a</w>
wit z</w>
ul ating</w>
tour naments</w>
al is</w>
Mar x</w>
Benj amin</w>
2 11</w>
s ail
ing s
www. t
t asty</w>
pain ter</w>
Roman ian</w>
B AS
k ol
global isation</w>
el s
alo gues</w>
Nav ig
subjec t-
obe di
inst ant</w>
Semin ar</w>
Inter nation
Furn ished</w>
25 6</w>
n un</w>
d ess
U plo
Part ners</w>
push ed</w>
parti tion</w>
ill o</w>
Mer ano</w>
Fil es</w>
5- minute</w>
000 ,000</w>
im per
In side</w>
Col our</w>
n berg</w>
gener ating</w>
d enti
pro- golf-
por tr
invest or</w>
enh ancing</w>
ac u
Er geb
Sh ar
F av
14 7</w>
eg el</w>
dol lar</w>
-0 9-
swit ching</w>
si e
scri p
og s</w>
ha te
deliver ing</w>
de ad
P R</w>
F ischer</w>
Cont acts</w>
in sights</w>
b ungal
ar ab
Vir tual</w>
P P</w>
termin als</w>
occ er</w>
g lu
dr illing</w>
d 6
Jür gen</w>
Bau er</w>
hl en</w>
fore most</w>
bene fici
ad mit</w>
n as
cro p</w>
author isation</w>
att end
G L
sh ade</w>
lif ted</w>
e fully</w>
ch est</w>
attrac ted</w>
St ars</w>
Pri x</w>
Chang es</w>
3 50
k r
b ones</w>
Par adise</w>
re imbur
hung er</w>
fl ora</w>
dis counts</w>
centr ally</w>
bre ed</w>
C e
ro ller</w>
om la</w>
f j
exec ute</w>
enjoy able</w>
el derly</w>
Em peror</w>
Allgem ein</w>
tend ency</w>
s aints</w>
rec all</w>
prof itable</w>
pati o</w>
den y</w>
consolid ation</w>
p .com</w>
n ach
foo d
V all
C ran
leg end</w>
e ing
alco hol
spon tane
sec urities</w>
re pos
cre atures</w>
continu ation</w>
C ant
ic ons</w>
adop ting</w>
UT F-
5 000</w>
Ul rich</w>
Pro mo
pursu ed</w>
im posing</w>
dra g</w>
desig ning</w>
Bar ro
196 5</w>
val leys</w>
ori tes</w>
lin king</w>
it ably</w>
ge ben</w>
distinc tive</w>
tr um
swi m</w>
re sts</w>
photo volta
li p</w>
K ö
D ru
200 6-
2. 3</w>
19 9</w>
tr ack
pill ars</w>
fir stly</w>
fas c
eng ra
Work shop</w>
P ut</w>
N on
Le ave</w>
peri ph
il ica</w>
family- run</w>
exter ior</w>
Z immer</w>
2 31</w>
reconc iliation</w>
met al
en larged</w>
b are
z ur
r ue</w>
Palest inians</w>
Op tions</w>
B olog
2 16
we g</w>
retail ers</w>
per su
gl ich</w>
Anti -
seas ide</w>
one .net</w>
form ers</w>
c ure</w>
at u
Fig ure</w>
7 00
s log
index.html www.immobilsarda.com</w>
Wi ki
ten sions</w>
U P</w>
21.0 8.2015</w>
venti lation</w>
ic ed</w>
N A</w>
Mari e</w>
J O
Grap h
Bro ad
cham bers</w>
be st-
Integr ation</w>
cir cles</w>
ast on
w ä
pi res</w>
n aked</w>
b uch</w>
R S</w>
F RE
ut or</w>
conc e
Or t</w>
I O</w>
4. 1</w>
2 25</w>
sev enth</w>
g .com</w>
ff en</w>
Sar deg
Med jug
D P</w>
C AP</w>
j ah</w>
En t
20 21</w>
h an
conver tible</w>
caf é</w>
Rel ig
C ore</w>
whe at</w>
stu ffs</w>
relev ance</w>
r ussi
p aj
off -
S atellite</w>
Pack ed</w>
D a
s om
follow -up</w>
2 10
13 6
wo hn
Bab ylon</w>
00 pm</w>
cy linder</w>
Al t
scri pts</w>
neighb ours</w>
estim ates</w>
d ual</w>
N .</w>
He bre
tal e</w>
h all
gradu ate</w>
dem o</w>
cosme tics</w>
L än
Individ ual</w>
Bar bara</w>
00 PM</w>
neu en</w>
club -
c ute</w>
H aus
A gen
4 80</w>
six th</w>
self- catering</w>
del ight</w>
amoun ted</w>
Apost olic</w>
st roll</w>
conver gence</w>
al .com</w>
W A
Projek t
Ab u</w>
2 21</w>
rapid share.com</w>
new -
j peg</w>
inv iting</w>
her bs</w>
es p</w>
Multi lingual</w>
4 .jpg</w>
p aste</w>
az ar
z oom</w>
win ds</w>
i j
di stricts</w>
chr onic</w>
cap tured</w>
aggres sive</w>
Pharao h</w>
H op
in j</w>
cat astroph
EC U</w>
ure n</w>
tribu te</w>
ter a</w>
sho e</w>
2. 4</w>
scre ens</w>
mon opol
gu est
AL L
sur plus</w>
S F
Cir que</w>
. com.</w>
poly ester</w>
infl am
et to</w>
em an
bo d
Sic ily</w>
R og
Di stribu
lu k
ann ers</w>
al ter</w>
Differ ent</w>
ti red</w>
stra ight
b are</w>
S ucc
Po ems</w>
Plat z</w>
Jos é</w>
Fl at</w>
te ita</w>
law yers</w>
gor geous</w>
dec lar
cro ps</w>
negoti ation</w>
bur y</w>
R ö
I ES</w>
x y</w>
wh ite
ud .com</w>
l ac
Mr s.</w>
Di vine</w>
Christop h</w>
Al ta</w>
str ings</w>
guiacon struc
buil t-in</w>
R un
sp reading</w>
Teneri fe</w>
Lo ren
G S</w>
p act</w>
op oli
n ev
ig ner</w>
er ation</w>
ar ises</w>
Re ports</w>
ION S</w>
h ose</w>
a. jpg</w>
Sal v
Qu ery</w>
E ph
pl enary</w>
in sufficient</w>
diplom atic</w>
MD- Board</w>
In surance</w>
lag en</w>
defaul t.
Sor ry</w>
R al
P N</w>
premi ere</w>
C I</w>
as ph
Sud an</w>
Kie v</w>
Hit ler</w>
steri ous</w>
propor tion
co s</w>
H C</w>
oc a
ho st
en tion</w>
un doubtedly</w>
ne um
int age</w>
c z</w>
Si ena</w>
K ings</w>
D est
spir itu
F light</w>
Ex tension</w>
4. 2</w>
201 5
sp atial</w>
shel ter</w>
mom ent
law yer</w>
hu b</w>
Hein rich</w>
B ak
os a</w>
off shore</w>
3 10</w>
O t
Moz art</w>
resp ects</w>
re fund</w>
ard ous</w>
Montene gro</w>
Medjug orje</w>
G P</w>
C ry
us am
liter ary</w>
di ver
defe at</w>
comm ent-
24 ,
.euro pa.eu</w>
tic ul
stri ve</w>
pe aks</w>
p ir
p acking</w>
AC H</w>
6. 00</w>
23 -
н и
fi ve-
downlo ading</w>
Info s</w>
ü b
h p</w>
coher ent</w>
can vas</w>
Regi ons</w>
Go e
15 7</w>
t ina</w>
ex qu
an to</w>
us al</w>
R adi
Cham pionship</w>
B CO
vit am
pre view</w>
dict ator
con gregation</w>
tex tiles</w>
co ated</w>
bur nt</w>
Euro -
Alban ia</w>
39 9</w>
14 3</w>
ec o-
comp iled</w>
Z o
t tery</w>
sovereign ty</w>
ob taining</w>
em ic</w>
cri ed</w>
cab inet</w>
Sau di</w>
K yo
Br and</w>
writ ers</w>
in- house</w>
eg en</w>
Bo t
y o</w>
br un
T ER</w>
P E
3 52</w>
h an</w>
gg ing</w>
aux iliary</w>
ass or
W ho
U V</w>
O M</w>
Aver age
hand -
dis appear</w>
D j
BCO -R
BCO-R enta
ut ter</w>
am big
G il
Ö ster
st ain</w>
oppon ents</w>
fun den</w>
er ic</w>
del ays</w>
R ate</w>
Brow ser</w>
real -time</w>
licens ed</w>
dat ing
current Average
currentAverage Rating</w>
W hate
tr as
i v
Bl essed</w>
m us</w>
f est</w>
exhib its</w>
comm ent
al er</w>
thumbn ails</w>
sch ö
ic he</w>
Whate ver</w>
fol ding</w>
dev il</w>
H us
Appl ications</w>
s aves</w>
Plan et</w>
H IV</w>
Fried rich
An g
4. 00</w>
ze ich
scre ening</w>
s it
ri er</w>
high- speed</w>
hi e</w>
cra zy</w>
Braz ilian</w>
.p df</w>
www.bi bi
wel ling</w>
t ative</w>
r yp
ign ore</w>
Innov ative</w>
trigg er</w>
Sardeg na</w>
Imperi al</w>
Fil ter</w>
C air
treas ures</w>
photo grapher</w>
ful fil
f ears</w>
br ut
ation s
ali tion</w>
Un like</w>
Jo omla</w>
te st
fl ats</w>
entreprene ur
We itere</w>
Mo di
Ro om
sta ir
legi tim
ep id
uni vers
V ig
F unc
franc is
automob ile</w>
Lib ya</w>
A ber</w>
sp aren</w>
po l</w>
k B</w>
c ep
Philip pines</w>
F arm
Ad ap
A li
4 36
w en
rankenvers icherung</w>
hon ourable</w>
Maj or</w>
2, 5</w>
u -
pup ils</w>
peri o
D M</w>
Car .com</w>
ü h
ana. amarillas
ambi ent.
Har ry</w>
Euro p
0.0 15
www.bibi one.net</w>
plan es</w>
di oc
ce il
ambient. cache</w>
Trav elling</w>
I E</w>
Can aria</w>
z ul
co in</w>
2 x
ter ror</w>
light weight</w>
illustr ations</w>
fol ders</w>
M R
Freed om</w>
De fin
hab its</w>
h s</w>
friend ship</w>
2 1,
tool ani</w>
sn ack</w>
sk irts</w>
ex changes</w>
Rom ans</w>
vi able</w>
ro me</w>
h ow
spr ay</w>
13 9</w>
pre jud
nom inal</w>
form ations</w>
ber ries</w>
and eren</w>
SP A</w>
K rankenversicherung</w>
bas ket</w>
tor i
mus ica</w>
f s
Stud ents</w>
J ack</w>
10- minute</w>
re marks</w>
qu ity</w>
Budd h
titu des</w>
th a</w>
t all</w>
p h</w>
Jo b</w>
E lev
Ben edic
rein force</w>
Sy rian</w>
E ur
sub jected</w>
ev o
ori an</w>
achel or</w>
Connec tion</w>
zz o</w>
w l.
den se</w>
Res olution</w>
R ace</w>
Exam ple</w>
un certainty</w>
R ov
P eri
15 9</w>
sor ti
guil ty</w>
ex cited</w>
de v</w>
ather -
Balk ans</w>
lun ches</w>
clari fy</w>
civ ilian</w>
cho ir</w>
g ear
e ous</w>
- 40</w>
sustain ed</w>
optim ize</w>
dynam ics</w>
Intro duction</w>
Cru z</w>
p age
h ate</w>
alleg ed</w>
G ros
Bet a</w>
10 5
k ri
al ig
U tre
Psych ologie</w>
Prin ting</w>
tw enty-
m ailing</w>
hondur as.net</w>
fab rics</w>
dis closure</w>
clean ed</w>
aren a</w>
OK text</w>
ush ed</w>
dev ast
cy cl
Car l</w>
short- term</w>
mist ak
coo ked</w>
sen ds</w>
or ch
fif ty</w>
Sa ar
www. p
wl. static.fotolia.com</w>
ro pe</w>
our met</w>
au t</w>
Po sition</w>
Inn sbr
196 6</w>
st y</w>
quo ted</w>
comp ounds</w>
Jo in</w>
Co ordin
tempor arily</w>
blog .
L os
stra in</w>
paj ak</w>
invest ing</w>
determin es</w>
agr a</w>
O L</w>
t ones</w>
stim ulate</w>
k re
c akes</w>
ar ne
Par am</w>
Ag ainst</w>
Ab stract</w>
t ooth</w>
s par
referend um</w>
observ ations</w>
compl eting</w>
ch ips</w>
R S
3 ,000</w>
V an
SD L</w>
s u</w>
ro tation</w>
indic ator</w>
cros sed</w>
Z im
Hal le</w>
H ay
Ch er
1 b
pp .</w>
mal icious</w>
dis appeared</w>
c ad
abe i</w>
Mann heim</w>
wiki pedia</w>
196 4</w>
th y
pric ing</w>
journ alist</w>
e tic</w>
S top</w>
s tics</w>
n ah
ing ent</w>
MAR E</w>
Kyo to</w>
susp ended</w>
Kle in
BCO-Renta Car.com</w>
10 8
pen sions</w>
dis asters</w>
del ic
Matthe w</w>
Jos ef</w>
D G</w>
Car r
An sw
Adv enture</w>
tri bes</w>
st amp</w>
com positions</w>
bes ch
al iz
Wal king</w>
ME Ps</w>
Log istics</w>
Aren a</w>
16 2</w>
turni ere</w>
adjust ments</w>
Recomm end
12 3
bl ade</w>
ambi ence</w>
T at
Co -
5. 0</w>
3- star</w>
19 20</w>
. nl</w>
categ or
car b
practi tion
er ne</w>
ch ol
at on</w>
10 9
tem berg</w>
pock et</w>
Hen ry</w>
1. 6</w>
wonder ing</w>
treas ure</w>
sy ner
corrup t</w>
Z agre
Re ference</w>
Mark us</w>
on er</w>
igno red</w>
Hor se</w>
Cer tific
organiz ing</w>
bron ze</w>
applic ants</w>
19 49</w>
show ers</w>
ship ped</w>
scen ic</w>
ra ft</w>
is i</w>
ine a</w>
Set tings</w>
A 2</w>
oca ust</w>
ad ol
H OT
weap on</w>
urg ently</w>
un like</w>
th inks</w>
si an</w>
on .com</w>
le af</w>
honduras. amarillas</w>
gener ates</w>
fin ances</w>
St ations</w>
Regi stered</w>
L ast
o de</w>
in ter</w>
entreprene urs</w>
accep ts</w>
In dependent</w>
F ahr
Book ing.com</w>
Any one</w>
g end
de eds</w>
ancell or</w>
advis ory</w>
N ever</w>
B ahn</w>
0 3.
k king</w>
calcul ations</w>
ON E</w>
super vis
set tle</w>
et ti</w>
a ver
gar ten</w>
d .</w>
S tel
0 4-
s1. add
s1.add Param</w>
rel atives</w>
emphas ise</w>
bicy cles</w>
Stri p</w>
R .
Pol ice</w>
Plan ning</w>
0 6.
á n
visi bility</w>
flo od</w>
diag ram</w>
comp ressed</w>
comm ons</w>
F rau
un install</w>
recy cl
excur sion</w>
att acked</w>
fin anci
exce eded</w>
cir cular</w>
Fam ili
en ship</w>
ech o</w>
distribu tors</w>
clin ic</w>
Gran de</w>
reduc tions</w>
on ics</w>
dat ing.
S M
N apol
F E
D J</w>
symb olic</w>
sm ell</w>
re vel
pen insula</w>
in for
e ye
co ck</w>
ang o</w>
Sk y</w>
Pan ama</w>
Mi k
u er</w>
resourc es.php</w>
posi um</w>
e ag
L ob
G on
F un</w>
F ord</w>
sp i
me g
gu ess</w>
S li
Brow n</w>
.jpg 400
emer ge</w>
ant ine</w>
ag na</w>
M é
Fe ed</w>
up pe</w>
impres sions</w>
fü g
c .
Utre cht</w>
A ch
sc r
pu b</w>
ly rics</w>
ch ant</w>
ü tz
el ite</w>
d airy</w>
carri ers</w>
add le</w>
G un
re iter
moder ni
a. ch</w>
H S
respon d
isi e</w>
fro zen</w>
c d
aut onomous</w>
alum inum</w>
Sam uel</w>
Psych ology</w>
I stria</w>
Bolog na</w>
An ton</w>
wi kim
tiz ed</w>
ren ted</w>
infra structures</w>
illust rated</w>
fos ter</w>
f ancy</w>
an no
O thers</w>
N E</w>
E th
Des ign
intui tive</w>
fl ed</w>
e ira</w>
b low</w>
Tr ading</w>
pra yers</w>
particip ant</w>
E thi
Biel efeld</w>
B ap
isol ation</w>
be y</w>
W IT
Volk sw
Con go</w>
Collec tor</w>
upload .
secre ts</w>
interven tions</w>
di oxide</w>
c aves</w>
ath ers</w>
N T
w av
li est</w>
h ad
ch ess</w>
appe aring</w>
P ula</w>
Bo ston</w>
B ow
work force</w>
ich es</w>
Se ason</w>
syn thetic</w>
respon ded</w>
op ia</w>
m m
Ether net</w>
3. 3</w>
flow ing</w>
elim in
doctr ine</w>
bud sman</w>
B all
soci alist</w>
main tains</w>
em or
acti vi
38 6</w>
oli tion</w>
is e
ever -
es en</w>
To ol
St yle</w>
Fun dam
EC B</w>
perf ection</w>
p ist
no tion</w>
m ile</w>
inc es</w>
Ram bl
N äch
E ss
sp ra
V O
ste ady</w>
los-angel es-
def ect</w>
subject- matter</w>
che str
algori thm</w>
abund ance</w>
wikim edi
u .
sm it
mead ows</w>
jus tify</w>
f lies</w>
ch lor
ap ps</w>
Immun o
IM F</w>
vit amin</w>
mil est
depos its</w>
cor d</w>
18 3</w>
st ine</w>
qu een</w>
k op
gran ting</w>
T am
19 00</w>
vine yard</w>
ti st</w>
jo ints</w>
discre tion</w>
Po d
Innsbr uck</w>
2 29
15 3</w>
sem ester</w>
pion ships</w>
dre am
convinc ing</w>
State ment</w>
scen arios</w>
ing en
Regi stry</w>
196 1</w>
tri ple</w>
pro ves</w>
integr ating</w>
es ian</w>
aqu arium</w>
M t</w>
As k</w>
sh irt</w>
me dy</w>
di g</w>
chron ological</w>
Des k
2 37</w>
resid ent</w>
man ages</w>
it iner
ber -
b ahn</w>
F ar</w>
Au di
swit ched</w>
inten tions</w>
deal ers</w>
aw esome</w>
Ne ed</w>
Ex po</w>
C AT</w>
employ er</w>
credi bility</w>
D ate
AC E</w>
20 3</w>
profession al-
diagno stic</w>
colle ge</w>
un employed</w>
fi bre</w>
exha ust</w>
contro versi
anzeig en</w>
sud den</w>
rhy thm</w>
ch rist
att ach</w>
Z ad
standar di
pul l-
impl ies</w>
fac tories</w>
ech es</w>
blog s</w>
C ash</w>
199 0s</w>
industr y.htm</w>
in visible</w>
TI ON
Han over</w>
viol in</w>
ou l</w>
j ub
adap ter</w>
Tradi tional</w>
IB M</w>
Gr Ã</w>
propos ing</w>
on wards</w>
in scri
i as</w>
g age</w>
arne bab</w>
Statis tics</w>
A Z
gan z</w>
PV C</w>
Con trac
A achen</w>
3 2.
s ow
popul arity</w>
p ond</w>
introduc es</w>
dur ability</w>
anc e
Pre par
inter net
f d
des per
con fig</w>
196 2</w>
19 57</w>
14 8</w>
farm house</w>
connec tor</w>
R um
G reg
EN CE</w>
suppl ementary</w>
pain ful</w>
immen se</w>
adhesi ve</w>
a v</w>
X V
Sym phony</w>
pas sive</w>
med itation</w>
fem in
don ation</w>
complim entary</w>
anti que</w>
Gl ass</w>
F T
mus h
T ell</w>
sco res</w>
an gry</w>
J SON</w>
I I
C old</w>
19 2</w>
pe ar
ke en</w>
H ir
um ann</w>
number ed</w>
kom mt</w>
f rench</w>
Jer sey</w>
Hum an
An gel</w>
some how</w>
consum ed</w>
con science</w>
C rist
Arab ia</w>
wikimedi a.org</w>
vi el</w>
cr on
Sol ar
8 .jpg</w>
ush ing</w>
ure ly</w>
real m</w>
pre dec
distingu ish</w>
Lab or
r ation
ly n</w>
Off er</w>
2 17
196 3</w>
recei ver</w>
in take</w>
in coming</w>
gover ned</w>
dir t</w>
T EN
Out look</w>
8 g
po ts</w>
er .de</w>
bloc ked</w>
Tim e
Sch ön
J a</w>
B E</w>
var ying</w>
sh ame</w>
f ra
deplo yment</w>
conduc ting</w>
char ts</w>
bu ch
astr icht</w>
Mon ey</w>
.0 9</w>
schaf ten</w>
no tify</w>
l or</w>
house holds</w>
y n</w>
s al</w>
b .
Tenn is</w>
Can al</w>
tim ber</w>
pr ud
f o</w>
ana.amarillas lahabana.net</w>
RF ID</w>
A h
seri es-
p y</w>
it ment</w>
gl adly</w>
ess a</w>
bal ances</w>
atlan tic</w>
e ur</w>
a than</w>
N ag
Gran ada</w>
yl ene</w>
sk et
se i</w>
ones elf</w>
Zagre b</w>
Test ament</w>
Ma astricht</w>
IC A</w>
Ac tiv
si l</w>
min ation</w>
bud gets</w>
Bet ter</w>
0 2.
y achts</w>
e aten</w>
be wer
appren tic
Guar an
slo ts</w>
haz ardous</w>
c ann
L unch</w>
Iran ian</w>
Gro ß
Def ence</w>
prin ters</w>
Ver ona</w>
00 00
we iter
qu er
infor MARE</w>
form ally</w>
For mul
Bu ff
R ather</w>
Poli tics</w>
Autom atic</w>
ro id
nation als</w>
l acking</w>
im mun
elev ation</w>
bath tub</w>
Bir ming
B ill</w>
tremend ous</w>
be ef</w>
S ah
my sterious</w>
de aths</w>
bene ath</w>
T ari
Separ ated</w>
Ed in
Wirt schaft</w>
y k
T eil</w>
R AM</w>
O s</w>
wall paper
ic ing</w>
R é
su es</w>
pede strian</w>
il ion</w>
ge funden</w>
belong ed</w>
Of ten</w>
Natur ally</w>
settl ements</w>
repl ied</w>
mon t</w>
micro -
j ack</w>
hybri d</w>
as ch
Sü d
Pl aces</w>
et tes</w>
di e
L az
meaning ful</w>
Th ai</w>
Qu ick</w>
Caf é</w>
ge ändert</w>
appreci ation</w>
US -
Sofi a</w>
N or</w>
B la
us a</w>
sub mission</w>
q i</w>
pli ki</w>
mach en</w>
j un
enthusi asts</w>
Re al
He ute</w>
tradi tionally</w>
do ch</w>
th ms</w>
es sions</w>
I sch
cosme tic</w>
con tem
G AR
w er</w>
sp am
wan ting</w>
pos ter</w>
infin ite</w>
at z</w>
cultiv ated</w>
cor n</w>
co a</w>
bloc k
Ve hic
T aking</w>
Naz i</w>
F eli
sequ ences</w>
T en
m n
et ra
dis e</w>
phenom ena</w>
oo s</w>
h ler</w>
e igh
E as
De ep</w>
Al les</w>
sli des</w>
log s</w>
f ed
cli p
Mov ement</w>
po ems</w>
ft ung</w>
A verage</w>
upload. wikimedia.org</w>
ni p
emb ar
attribu te</w>
K ath
Fern ando</w>
end o</w>
St an
Pack aging</w>
Gr ound</w>
us ch
u tion
pul se</w>
man i
gr inding</w>
conserv ative</w>
Ris k</w>
16 1</w>
dec ides</w>
back ed</w>
ad ers</w>
2 15</w>
brea thing</w>
ai ah</w>
N ord</w>
Fo tos</w>
Exper t</w>
C AS
gr atis</w>
commod ity</w>
aw a</w>
N either</w>
2 2,
world- wide</w>
under tak
sanc tuary</w>
pati ence</w>
in quiries</w>
f y
es co</w>
Lag oon</w>
H ague</w>
pe dition</w>
lev ard</w>
cred its</w>
condem ned</w>
ad verse</w>
Mo de</w>
Mar athon</w>
Len in</w>
1- 2</w>
wei ter</w>
warm th</w>
la sts</w>
f ill
Qu al
D ynam
14 7
.0 8</w>
utili zation</w>
her o</w>
er te</w>
cle ans
Mil itary</w>
Fi xed</w>
B B</w>
Adi ge</w>
23 ,
spon sored</w>
s atur
divid e</w>
L I
9. 5</w>
ro d</w>
ill on</w>
fi able</w>
exp ec
athle tes</w>
Si x</w>
N T</w>
Em irates</w>
C and
confid ential</w>
archi v
N I
Eff ici
E cu
u z
g ul
e- up</w>
con fin
prescri bed</w>
head er</w>
e ig
cast les</w>
Com fort</w>
Ari zona</w>
est y</w>
dating store
Can on</w>
12 8
tili ties</w>
th ur</w>
sec uring</w>
re medy</w>
os ter</w>
exqu isite</w>
atel li
Nev ada</w>
H -
G ust
refu ge</w>
freed oms</w>
en ers</w>
ag ers</w>
YO U</w>
Wr ite</w>
Program m</w>
Lo dge</w>
198 0s</w>
volunte ers</w>
sw ing</w>
loy alty</w>
est a</w>
al lies</w>
Edin burgh</w>
soci o-
reti rement</w>
discipl ines</w>
mus ic
fing ers</w>
ap i
Z 4</w>
tr am
ci tement</w>
cdn .
ä s
ub a</w>
enni al</w>
P I
Materi als</w>
Engine er</w>
Be h
qu eries</w>
li sting</w>
vibr ant</w>
gri p</w>
al ber
Paul o</w>
J acqu
Bar oque</w>
20 8</w>
seas ons</w>
ind ications</w>
extrac tion</w>
end ants</w>
asi ve</w>
accep ting</w>
O st
Friend ly</w>
Be yond</w>
Barro so</w>
th ine</w>
l uc
bi l</w>
be ach
Im pres
Ass ess
3 70</w>
un expected</w>
radi o
w ishing</w>
min s</w>
civil ization</w>
P O</w>
No bel</w>
M uch</w>
-S earch</w>
cr ash</w>
Venez uela</w>
R I
Pack age</w>
L T
pre sum
p p</w>
ism us</w>
euro pe
Air ways</w>
tox ic</w>
restric tion</w>
al ter
no is
kind ly</w>
de .
aim ing</w>
Movi e</w>
L U
E X</w>
Schmid t</w>
K amp
trav els</w>
rock y</w>
r ational</w>
n ine
enh ancement</w>
ab l
H our</w>
B ach</w>
sun set</w>
sourc ing</w>
S ign</w>
19 42</w>
t ails</w>
Foot ball</w>
C R</w>
qu alit
nom inated</w>
inven tive</w>
frag mented</w>
azar .de</w>
AC P</w>
pul led</w>
es ch
Merced es</w>
E r</w>
o. amarillas
10 7
www.c azar.de</w>
S OL
Ren ew
M aking</w>
H ome
stom ach</w>
consult ants</w>
Represent atives</w>
E co
5. 2</w>
2 18
reib ung</w>
ley ball</w>
l ung
inter im</w>
cr ashed</w>
as signment</w>
as cript</w>
W es
os op
ho ff</w>
fa q</w>
anc e-
a via</w>
O ld
Arri val</w>
5 .jpg</w>
ra ises</w>
id yl
buil ds</w>
Sc andin
N ar
we l</w>
ti al</w>
fa una</w>
er s.htm</w>
end -
ear n
de pri
V ladi
Man ual</w>
BB Q</w>
19 58</w>
ra is
foun tain</w>
foc al</w>
e v</w>
Smar t
Lan ka</w>
Fi x</w>
8 d
17 1</w>
uni qu
res on
min us</w>
Rec ht
tour -
r in
fr agr
I ll
High -
19 39</w>
turb ines</w>
tal ents</w>
scat tered</w>
del ayed</w>
cur ve</w>
conf identi
sli p</w>
pass port</w>
m age</w>
at able</w>
H oo
ô tel</w>
sovere ign</w>
om o</w>
et z</w>
bourgeo isie</w>
ad a.com</w>
Zer matt</w>
Su preme</w>
Publ ications</w>
tor ture</w>
success or</w>
deleg ations</w>
cur ious</w>
3 1-
te u</w>
sugg estion</w>
sla ve</w>
recipi ent</w>
pre domin
mac ro
inc en
i on
cel ain</w>
19 48</w>
16 6</w>
res urrection</w>
o hne</w>
i tion</w>
hand les</w>
ell en</w>
e .</w>
br ation</w>
Om budsman</w>
sup porters</w>
ren dered</w>
d v
agre es</w>
Schne ider</w>
pu zzle</w>
W IN
zi al
sec retary</w>
be ast</w>
Ti bet
Det ailed</w>
ther ein</w>
ol l</w>
Wag ner</w>
K op
9 1
umbrel la</w>
h ung</w>
fif teen</w>
W ars</w>
Fi eld</w>
19 0
15 6</w>
swit ches</w>
des erve</w>
corpor ations</w>
color ful</w>
K ün
Im pro
o e</w>
nerv ous</w>
in su
U g
Gol d
ret ariat</w>
convic tion</w>
D O</w>
l umin
datingstore .info</w>
avi an</w>
Birming ham</w>
refuge e</w>
igh ter</w>
et al</w>
decreas ed</w>
cross- country</w>
V ID
38 3</w>
29 6</w>
19 56</w>
w ich</w>
tab let</w>
hel icop
ener ge
dating. lt</w>
appar atus</w>
Gir ls</w>
2- 4</w>
timet able</w>
it en
im a</w>
form at
ess ors</w>
cem etery</w>
Top ic</w>
R C</w>
Mi x</w>
Hou ston</w>
wash ed</w>
un likely</w>
sp am</w>
r .
inf oc
dom ains</w>
c e-
appro ve</w>
Ped ro</w>
under taking</w>
p .</w>
de x</w>
4 b
re sum
r um
Le is
up dating</w>
stri kes</w>
sc and
s op
s oo
quot as</w>
multi lateral</w>
inter vals</w>
hy dr
ab ov
Tou ch</w>
Pat rick</w>
B oli
sh am
fi ber</w>
ass er</w>
Yugosla via</w>
Know ledge</w>
w ished</w>
trail er</w>
tab lets</w>
super visory</w>
met re</w>
Tri este</w>
ES C</w>
Ben ut
BO X
wer k
loc als</w>
jud ged</w>
enclo sed</w>
3 59</w>
long est</w>
st ol
av er</w>
an onymous</w>
Smo king</w>
Mon it
M s-
sau ce</w>
li o</w>
ex hibit</w>
S R</w>
M IN
E t
16 3</w>
person alized</w>
l berg</w>
ha r</w>
dictator ship</w>
Gr ad
Democr acy</w>
D ür
CR IP
wat ches</w>
inhab ited</w>
don ations</w>
b old</w>
Re ich
Mi ami</w>
Gener ation</w>
For tun
2 35</w>
0.0 16
th al
idyl lic</w>
activ ation</w>
Montre al</w>
B res
ze ug
identi fying</w>
ar y-
S ong</w>
sch n
dol ph
defin ite</w>
S ir</w>
L P</w>
Bud get</w>
ta p</w>
os pace</w>
R im
F an
E E</w>
Ar t
100 ,000</w>
stre ams</w>
r ack</w>
cruc i
an alog</w>
In -
un changed</w>
system atically</w>
municip alities</w>
exclu ding</w>
avo iding</w>
Rec ently</w>
Inte grated</w>
20 6</w>
dr ums</w>
bu yers</w>
Ex tre
Card inal</w>
0 4.
oun ce</w>
ly wood</w>
ceil ings</w>
our ing</w>
condi tional</w>
E ch
Aus ch
th- century</w>
some body</w>
sle ep
j ung
Rac ing</w>
May or</w>
tas tes</w>
proced ural</w>
in st</w>
be ts</w>
occasi onally</w>
g ame
Li echt
Eng lisch</w>
week ends</w>
quo ta</w>
ge fü
d ent
book ings</w>
at ri
Nür nberg</w>
He il
u d</w>
prote ins</w>
promo tional</w>
im pe
er sten</w>
re medi
r ak
f ä
ben ch</w>
ac comodation</w>
Mar c</w>
Cap tain</w>
consec u
auf genommen</w>
Ne uro
Contin ental</w>
the 8.
explic it</w>
alph abe
Volksw agen</w>
Pub lish
N y
Fran ç
Fac ulty</w>
Br on
. z</w>
val ves</w>
ut able</w>
photo graph</w>
ori sts</w>
an al</w>
Dem and</w>
3 90</w>
25 ,
special ties</w>
p ussy</w>
ob a</w>
import antly</w>
co g
as ia</w>
ab ul
Un less</w>
R ie
C ov
An ci
with -
tell t</w>
parliam ents</w>
html UTF-
htmlUTF- 8g
et was</w>
Al ger
Tren tino</w>
Re gar
C ities</w>
An der
t ing-
fing er
fi res</w>
b st</w>
V end
Tic kets</w>
Por tal</w>
Ak tu
tr oni
po etry</w>
m ate</w>
contin ents</w>
Per sons</w>
2 23
po em</w>
fab ulous</w>
d ate
carri age</w>
Z -
T reas
DES CRIP
ni tion</w>
k ul
lau gh
Produk te</w>
Mal aga</w>
Mass age</w>
pat ented</w>
mon itors</w>
in adequate</w>
bed -
W inter
V as
Re friger
Po si
L em
In c
B en</w>
26 5</w>
won ders</w>
scre ws</w>
inc ident</w>
g ad
fortun ate</w>
er es</w>
Her mann</w>
Cle aning</w>
16 4</w>
index.html .z</w>
h m</w>
Th ings</w>
Gir l</w>
16 9</w>
phys ically</w>
negoti ate</w>
li on
cra fts</w>
IV E</w>
Agricul tural</w>
Ad verti
sw f</w>
partic le</w>
day -
dall as.com</w>
Tw in</w>
Ros a</w>
M ou
24 5</w>
open ness</w>
construc tions</w>
co operative</w>
asp ir
No tice</w>
Nig eria</w>
H ur
suppl ements</w>
sub ur
stre am
hur t</w>
commun ist</w>
bow l</w>
an ian</w>
ak h
10 00
vibr ation</w>
sen sible</w>
r ounds</w>
investig ated</w>
id entally</w>
conver ting</w>
Leon ardo</w>
red und
mul tin
mach ining</w>
emplo ys</w>
F TP</w>
B ure
16 8</w>
t ents</w>
re tained</w>
pas sionate</w>
8 T
squ ares</w>
re treat</w>
know led
al thy</w>
T as
Hol ocaust</w>
E CH
Cab ins</w>
refresh ing</w>
en li
W M
S ens
R DF</w>
Oc ean
v ans</w>
sp ann
la b</w>
W ood</w>
Cre ative</w>
u als</w>
cre ature</w>
c enter
av an</w>
Ther e
Sky pe</w>
Foc us</w>
E EA</w>
19 1</w>
poin ting</w>
j son</w>
inno cent</w>
ecu li
Tax i</w>
Phil ist
7- 11</w>
bu gs</w>
are l</w>
Mi ke</w>
wol f</w>
ro bes</w>
i es.htm</w>
g an</w>
encour ages</w>
el even</w>
d ying</w>
an as</w>
surg ical</w>
pro tests</w>
al tered</w>
IC T</w>
Com ing</w>
og ical</w>
dres sing</w>
Ts-2 13,
Pres entation</w>
H S</w>
Ben z</w>
Amarillas San
á s</w>
sorti um</w>
cy lind
ar om
W OR
N am
F ach
th reads</w>
excep tions</w>
dro me</w>
5 12</w>
15 4</w>
streng ths</w>
fur thermore</w>
boo m</w>
analy ze</w>
Ox ford</w>
Mar se
AR T</w>
. sys</w>
spo kes
o y
elec toral</w>
art .com</w>
Jack son</w>
G ER
Br no</w>
28 5</w>
trans mit
ren .htm</w>
pop -up</w>
harmon isation</w>
h ill
e iro</w>
dro ve</w>
2 12</w>
st ack</w>
se em
oppos e</w>
film .com</w>
compl et
Y `
W N
Regar ding</w>
R ail</w>
Is a
Archi ves</w>
v ed
pix els</w>
licens es</w>
Typ ical</w>
Sam sung</w>
F ishing</w>
man us
educ ated</w>
Rol and</w>
H as</w>
Est ab
Alger ia</w>
transi tional</w>
bever ages</w>
Vien n
Mex ican</w>
vi er</w>
mat ched</w>
ir rit
hop ed</w>
art work</w>
26 4</w>
os ev
incen tive</w>
ass isted</w>
R iga</w>
R av
Or thodox</w>
Nami bia</w>
F oun
19 30</w>
s inc
har der</w>
fl ag
ate ur</w>
associ ate</w>
Y` Z4</w>
Mold ova</w>
Mem ory</w>
L ess</w>
-0 9</w>
uc tu
li fer
fer tili
di e-
P OL
No tify</w>
inev itable</w>
enthusi astic</w>
19 59</w>
0 5.
real isation</w>
pro spect</w>
pro menade</w>
at ers</w>
Z ug
U su
O .
Kin sh
u 0
infoc entre</w>
flav or</w>
expres sions</w>
exhibi ted</w>
conver ter</w>
amarill a</w>
Re zen
0.0 13
organiz ational</w>
ast -
T ip
F ish</w>
Dre am</w>
Con clu
0. 1</w>
ro gen</w>
poin t-
a 8
Stu dios</w>
Plat form</w>
Mari time</w>
o eu
negoti ated</w>
min ded</w>
au m</w>
atten ding</w>
anten na</w>
W onder
H af
Gener ally</w>
recre ational</w>
h ut</w>
edit orial</w>
Num erous</w>
18 00</w>
unser en</w>
trag edy</w>
t temberg</w>
sch ul
o asis</w>
mo thers</w>
gg er</w>
enc ryp
bel ts</w>
Wol f</w>
Ther ap
Now adays</w>
A uch</w>
tu re
r -
prov inces</w>
mi tig
fant asy</w>
eng ers</w>
Sax ony</w>
l es-
Gi ant</w>
Cy ber
19 41</w>
12 6
wi ves</w>
ver kaufen</w>
excep tionally</w>
corro sion</w>
compres sion</w>
bal lo
Wil d
l on</w>
St ory</w>
Simil arly</w>
Pe ti
2015- 10-
v ag
sou ven
di abe
char ity</w>
Man chester</w>
C AN
25 8</w>
0.0 0
whir l
w o</w>
tol l</w>
ther mo
ili ans</w>
air- conditioning</w>
IS T
E leg
sub stitu
simpl icity</w>
sc ans</w>
incur red</w>
dis appointed</w>
an xi
Qu ick
20 .00</w>
ris en</w>
professional- series-
el ation</w>
club- professional-series-
v aries</w>
un fair</w>
promp t</w>
fil tr
emp ire</w>
G ren
Cle an</w>
st up
repos itory</w>
expl oration</w>
dis man
dis cer
bo y
L S</w>
Jon athan</w>
st uck</w>
sp her
r al</w>
mer ger</w>
conven tions</w>
avi er</w>
Toil et</w>
Spiel e</w>
R ing</w>
convey or</w>
Par liam
N ation
C ould</w>
Ale x</w>
24 3</w>
15 8</w>
li b
in corporate</w>
an j
age ing</w>
Jac uzzi</w>
En try</w>
us able</w>
p ad</w>
kin der
inv ented</w>
for ty</w>
Stat us</w>
Sm ith</w>
L D
J ung
I v
Bes ch
Berlin er</w>
18 4</w>
- 2</w>
p eculi
c ill
as ted</w>
are t</w>
San to</w>
Inter net
3. 4</w>
simpli fy</w>
mach t</w>
deserv es</w>
bi ology</w>
Pe er</w>
A mbass
toil et
list ened</w>
em ig
chap ters</w>
Tri er</w>
L atitude</w>
weak ness</w>
quo tes</w>
foc us
aut onomy</w>
anc est
T ap
R af
Hau pt
BOX VIEW</w>
flav our</w>
K ro
18 8
z burg</w>
r df</w>
ni val</w>
labor atories</w>
gal erie</w>
g ently</w>
cham pion</w>
F I
E ve</w>
Anmel den</w>
st ad</w>
low ers</w>
fa ç
bl ame</w>
b adly</w>
M ai
Di eter</w>
ne ts</w>
gra vity</w>
do t</w>
Cair o</w>
19 40</w>
0 8.
so m</w>
s th
mod est</w>
horiz on</w>
Liecht enstein</w>
G od
Dall as</w>
reco vered</w>
re stra
med ication</w>
gi d</w>
cop ied</w>
comp as
activi sts</w>
R ech
Out side</w>
se aled</w>
rec k
fran k
er ected</w>
Rem ove</w>
Kinsh asa</w>
E ye</w>
uni fication</w>
tr o</w>
l ays</w>
Vinc ent</w>
Person en</w>
rec ur
k is
j ob
Pro ce
wat ched</w>
il ee</w>
en vir
en te
e ines</w>
ass a
Wind ow</w>
T elec
Di plom
Al anya</w>
ti fications</w>
subsidi arity</w>
photovolta ic</w>
consum ing</w>
at ings</w>
amen to</w>
Z A</w>
H T</w>
Andre w</w>
16 7</w>
sc rap
hotel -
g v
Wer k
Tr ust</w>
N om
Men u</w>
ow ski</w>
los-angeles. amaril</w>
lo gy</w>
b la
Trans l
n er-
inter disciplinary</w>
ens burg</w>
cier ge</w>
S as
S V
Del uxe</w>
4. 3</w>
197 0s</w>
0 3-
pull- out</w>
ien .ch</w>
f ar-
argu ed</w>
all er</w>
ag on
sli ding</w>
sec ts</w>
cron aca</w>
c av
aes the
Rud olf</w>
N utri
J ena</w>
perc eive</w>
lap top</w>
in ches</w>
ban ien.ch</w>
Y a
T en</w>
Luc erne</w>
Ar z
www. s
ur t</w>
ip el
del ight
Kon tak
Fe at
201 9</w>
ti ts</w>
fru it
M az
propag anda</w>
l ichen</w>
k ia</w>
e jac
dis playing</w>
Op inion</w>
Le e</w>
J .
Ch ancellor</w>
Ar m
undertak ings</w>
tre ating</w>
light -
Z oo</w>
T ay
M ong
w ool</w>
tax pay
s dorf</w>
Fire fox</w>
Bau haus</w>
tr ust
symp tom</w>
stell en</w>
n an
br u
Pre -
Aud itors</w>
Assess ment</w>
2525 25
01.0 9.2015</w>
soci ally</w>
mys q
fl uctu
fi red</w>
e ight
all en</w>
Monit oring</w>
Fl exi
Del hi</w>
0.0 00</w>
en light
B U
20 4</w>
www. tu
ta -
stell t</w>
spe eches</w>
mar ch</w>
earthqu ake</w>
confron ted</w>
TR AN
Berlin -
veri fied</w>
WW W</w>
Registri eren</w>
I hre</w>
D an</w>
C ut</w>
Ber th</w>
sub tle</w>
sl o</w>
oc ide</w>
coo kie</w>
S now
Pl as
N ad
12 7
deri v
demonstr ations</w>
ch y</w>
ate li
K iel</w>
assum es</w>
Det ail</w>
Car lo</w>
B am
out lined</w>
on t
K M</w>
ic ide</w>
ff er</w>
b org</w>
avo id
str ang
ph y</w>
o therapy</w>
k um
ate mal
T ree</w>
Hous es</w>
vo ters</w>
trav elled</w>
p ies</w>
interrup ted</w>
inter ference</w>
em an</w>
acceler ate</w>
S even</w>
AR E</w>
oc curren
obe y</w>
ke i
fin ishes</w>
N one</w>
M are</w>
Gard ens</w>
Fi f
veri fication</w>
he ights</w>
de pression</w>
Mo ve</w>
E F</w>
B aden</w>
After wards</w>
tun ing</w>
to aster</w>
rep airs</w>
pi ons</w>
mig rant</w>
ment -
laun ching</w>
jo y
em ade</w>
Ap paren
1. 8</w>
Im medi
wr ath</w>
sub stitute</w>
guarante eing</w>
des -
cur i
conduc tor</w>
bar oque</w>
Grou ps</w>
G ER</w>
17 3</w>
post ID</w>
hu is</w>
dil ig
claim er</w>
Jos hua</w>
J ör
Car los</w>
Apparen tly</w>
sh ire</w>
commun icated</w>
c ke</w>
ag n
ad mir
50 s</w>
vari ants</w>
cion .net</w>
R O</w>
teach ings</w>
sta dium</w>
remin ded</w>
ciudad-de-la-hab an</w>
atis ation</w>
S erie</w>
Medi um</w>
K W</w>
Gr am
D in
17 6</w>
st r</w>
s mil
reli ably</w>
p pers</w>
m ust
m por
ed u</w>
counter -
H art
Cor n
4 000</w>
un t</w>
to y</w>
spon sor</w>
modi ties</w>
controversi al</w>
citiz enship</w>
cig are
attribu ted</w>
Prin ci
Him self</w>
v u</w>
uni k
sol arium</w>
ri der</w>
r as
purch ases</w>
plas ma</w>
p am
open ly</w>
es hip</w>
compl ementary</w>
attach ment</w>
analys ed</w>
Vene tian</w>
Lu f
AG E</w>
un preced
pursu ing</w>
pre mature</w>
mat rix</w>
coast line</w>
O liver</w>
Long itude</w>
Gesch ichte</w>
te ars</w>
anticip ated</w>
alig nment</w>
Oper ation</w>
trag ic</w>
po et</w>
credi ble</w>
con formity</w>
H and</w>
p neum
int ent</w>
claim ing</w>
ar gue</w>
role an</w>
or th
c ups</w>
Tru th</w>
04 .09.2015</w>
si on-
f 6
en ic</w>
el ek
Elis abeth</w>
CZ K</w>
vitam ins</w>
simpli fied</w>
in directly</w>
al ud.com</w>
Mal ware</w>
M iss
H ard</w>
po sting</w>
fore igners</w>
compet ences</w>
ben ding</w>
aw ak
aci ón</w>
T ut
Pro bl
Mar g
He ads</w>
Ecu ador</w>
An ne</w>
forec asts</w>
et us</w>
bar rels</w>
Y acht</w>
P ath</w>
N .
In door</w>
B om
3D hh-golf-pga-
Ste ve</w>
Mal i</w>
K ateg
I- Frame</w>
Be th
10 .0
wh is
uc tion</w>
luk film.com</w>
lo ver</w>
guiamedicas alud.com</w>
gre en-
dis closed</w>
G las
29 7</w>
consult ations</w>
bag gage</w>
T im</w>
P isa</w>
Od ys
Arbe its
te aches</w>
it as</w>
coordin ates</w>
consult ancy</w>
awa it</w>
accur ately</w>
Wis sen
Th rough
H G</w>
Cor s
wi jk</w>
Pal azzo</w>
D ER</w>
res ist</w>
Wal es</w>
Pl ant</w>
с т
t we
en heim</w>
S ão</w>
Rezen sion</w>
Reg ulations</w>
Pro z
P rec
Le ben</w>
L ap
Im ag
F IN
strong est</w>
lingu istic</w>
ko k</w>
Pass word</w>
IC S</w>
A sk
voc al</w>
s ag
flo ating</w>
T U
Mon aco</w>
p b</w>
mpor a.de</w>
leng ths</w>
bis her</w>
assess ments</w>
Sou th-
Bure au</w>
Adverti sing</w>
v in</w>
arm ing</w>
Administr ator</w>
3 d
ww w
u fen</w>
out look</w>
ol ia</w>
consult ant</w>
TI F</w>
S O</w>
M om
K lim
H ind
Ger hard</w>
Ful ly</w>
F H
C ô
sun shine</w>
gr ass
Sh er
F T</w>
C U
si ded</w>
high- performance</w>
e bri
b ind
aff lic
absor bed</w>
Cli p</w>
tim ing</w>
tari ff</w>
per forms</w>
ad missible</w>
19 20
w et
surve ys</w>
regul ate</w>
re tention</w>
fo il</w>
ec .europa.eu</w>
des cent</w>
col s</w>
Main z</w>
C V
Archi v</w>
unpreced ented</w>
st resses</w>
pro jek
indic ating</w>
hom e-
dec ent</w>
celebr ating</w>
ass is</w>
Panor ama</w>
Con fig
tan gible</w>
non- profit</w>
may or</w>
bou tique</w>
be ams</w>
So ft</w>
N R
K la
Hor iz
Con nect</w>
C EST</w>
d ingly</w>
bour ne</w>
M C</w>
F erien
5 80</w>
ham mad</w>
Steph en</w>
Mon astery</w>
Ber nd</w>
pregn ant</w>
em ails</w>
caf es</w>
bat ch</w>
ap i</w>
Sustain ability</w>
Gr atis</w>
unci ation</w>
sal on</w>
s its</w>
photograph ers</w>
b d
Eng ine</w>
Çá Ã
wa hl</w>
le i
follow ers</w>
exclu de</w>
c f</w>
Wor kers</w>
V oc
Oc cup
46 4</w>
Á n
wor ten</w>
v et
Wal d
K S</w>
4. 6.1</w>
ster ity</w>
er ion</w>
co .com</w>
auc tion</w>
au to-
assor tment</w>
Off ering</w>
Leis ure</w>
Hein z</w>
Gu atemal
Fr itz</w>
Com pos
Br atis
20 7</w>
sc ar</w>
Pr ac
.05. 2015</w>
spec tive</w>
persec ution</w>
p om
mem orial</w>
l ingen</w>
f la
ev o</w>
Al s
sh epher
produc t
memor able</w>
hi es</w>
fic tion</w>
H air</w>
Accor dingly</w>
seek ers</w>
17 0
ter re
ste ht</w>
standar dis
or ia</w>
o .</w>
ass ing</w>
K no
29 ,
25 1</w>
v ell
max res
guid ing</w>
b uck
Nik ol
Govern ance</w>
Bern hard</w>
17 7</w>
ti de</w>
as i</w>
agu a</w>
www.al banien.ch</w>
re strict</w>
p c</w>
Wed ding</w>
uplo aded</w>
default .jpg</w>
c um</w>
ber lin
abul ary</w>
Ti bet</w>
Re ading</w>
Ba dia</w>
B ig
Analy tics</w>
Altern atively</w>
www. h
ropol itan</w>
out skirts</w>
det ached</w>
Mün ster</w>
past a</w>
os es</w>
el ders</w>
acces sibility</w>
Mar x
C B
Ausch witz</w>
stre aming</w>
pro tag
le ather-
l ush</w>
l enses</w>
in puts</w>
consecu tive</w>
az u</w>
ar oma</w>
Z eiten</w>
Wiki pedia</w>
UR I</w>
Pr acti
M W</w>
Amend ments</w>
4 50
preven tive</w>
presid ential</w>
isi ons</w>
dest ined</w>
Mit gli
Amarillas puertorico.com</w>
3 12</w>
.ypages california.com</w>
in cial</w>
d ub
ach able</w>
Tel e
Mill ennium</w>
Ber g</w>
rail ways</w>
new inst</w>
n our
li ghter</w>
au d</w>
anti bio
Rec ords</w>
Mar s</w>
Formul a</w>
En d
3 21</w>
ti tled</w>
defini tions</w>
ac ed</w>
Bur ning</w>
vou cher</w>
pregn ancy</w>
post p
dec entr
clean er</w>
Hol lywood</w>
20 9</w>
ter .com</w>
fl at
continu ity</w>
Si tes</w>
heav enly</w>
ans a</w>
adequ ately</w>
a ids</w>
S prac
Ob viously</w>
L un
19 4</w>
pre ference</w>
met ro-
manif est</w>
hol iday
f ights</w>
Terr asse</w>
M am
train er</w>
inj ured</w>
in a-
g aps</w>
si ah</w>
ov is
if ying</w>
chi o</w>
ac res</w>
Wür th</w>
Tel etra
Kr ak
z t</w>
n es
expres ses</w>
explo it</w>
do tted</w>
den om
ck er</w>
cap tain</w>
Teletra an</w>
Lab el</w>
D arm
f ailing</w>
dis cover
Pat ri
tr il
t own
r s</w>
S ay</w>
Rel ax</w>
O slo</w>
O li
Colum bia</w>
C F</w>
vir uses</w>
maxres default.jpg</w>
br ick</w>
asc ular</w>
C OR
proce eds</w>
cost- effective</w>
Di et
-- -</w>
- 35</w>
y tim
stri ps</w>
si te
duck duck
dr ama</w>
corpor ation</w>
ac ute</w>
P ear
Bo hem
trans port
out puts</w>
fant as
ess al
can a</w>
Tus can</w>
Diag no
5 ,00</w>
1. 4
pot atoes</w>
il ia</w>
hom ogen
h ook</w>
en ne</w>
US E</w>
K t</w>
JP EG</w>
Isa ac</w>
Expl ore</w>
E n</w>
E ll
0 9.
www. se
propri et
prin ces</w>
oblig atory</w>
encoun tered</w>
duckduck go.com</w>
can al</w>
brow se</w>
b uc
ag ne</w>
Usu ally</w>
Co tton</w>
res se</w>
membran e</w>
ho c
enjo yment</w>
5 20</w>
pr ince</w>
elim inated</w>
correc ted</w>
F ort</w>
Bu yer</w>
5. 3</w>
10. 2009</w>
spec t
push ing</w>
is ations</w>
emplo y</w>
Al l-
18 9</w>
www. pure
v ain</w>
ry ption</w>
photograph ic</w>
iz er
dr ill</w>
ak ti
High er</w>
Gabri el</w>
Fi g</w>
Comp on
37 5</w>
wh oever</w>
sch er</w>
medic inal</w>
Tel evision</w>
Li v
techn icians</w>
re jection</w>
Link ed
sk in
respec ting</w>
per -
ind ul
conclu des</w>
Wür ttemberg</w>
Nie u
H R
Bro ok
Arti sts</w>
es es</w>
bureaucr acy</w>
attemp ted</w>
S cal
Di alogue</w>
modern isation</w>
letz ten</w>
k k
ge on</w>
entr usted</w>
de duc
conf used</w>
assum ption</w>
Re ader</w>
P V</w>
H L</w>
Exclu sive</w>
AV E</w>
19 53</w>
ytim g.com</w>
sh eim</w>
ro t</w>
mal es</w>
h ä
N ight
Manu el</w>
Cust oms</w>
ban ned</w>
Sch i
R us
P op</w>
Glo bal
Geor gian</w>
Ex cur
2 x</w>
12 9
op t</w>
in complete</w>
go d
contrac ting</w>
O S
Gr ö
Fundam ental</w>
Certific ate</w>
pro-golf- tour-
im ar</w>
ch icken</w>
at titudes</w>
Muse ums</w>
M Hz</w>
Ener gie</w>
Bo y</w>
Be i</w>
B. C.</w>
р а
spam bots</w>
psych ology</w>
ic it</w>
b ay
and ra</w>
am t</w>
al izing</w>
adv ances</w>
Im port</w>
tos -
occur ring</w>
m ates</w>
ipel ago</w>
I hr</w>
ul l
stu di
g s
ap ar
Anci ent</w>
1 .</w>
collec tors</w>
che f</w>
alo tto</w>
Ver anstalt
Sprac he</w>
EUROP EAN</w>
tor que</w>
tes y</w>
i ah</w>
en en</w>
believ ing</w>
an tic</w>
ad minist
St ro
Kul tur
Histor ical</w>
t x
exem pl
ear liest</w>
Sun days</w>
Sel va</w>
K L
Down town</w>
18 9
gab e</w>
d it
Hal f</w>
Doc ument</w>
Dat en
Aug sburg</w>
An twer
2 .html</w>
I z
re placing</w>
qu ad
lo gos</w>
im -
dig it
zwe i</w>
scr ut
f te</w>
comb us
Fres h</w>
Cour ses</w>
trans c
par all
m ü
ex ported</w>
emphas ised</w>
desk top
c al</w>
br and
Ty rolean</w>
Hard ware</w>
Al um
y el
gra v
fl ame</w>
emat ology</w>
O pel</w>
Mit arbeiter</w>
HOT EL</w>
Cam bridge</w>
An onymous</w>
AR D</w>
tic als</w>
nor ms</w>
mass ages</w>
comm emor
ber g-
ang les</w>
Wh er
H ôtel</w>
14 00</w>
survi ved</w>
sen su
i a
fores een</w>
e o
bas ement</w>
em in
Por sche</w>
J ones</w>
De par
show .php</w>
rapporte urs</w>
projec tion</w>
ge or
buff er</w>
Rev elation</w>
Oly m
Li k
smoo thly</w>
saf er</w>
nutri ents</w>
licens ing</w>
k us
cock tail</w>
c locks</w>
bl ick</w>
Wh ere
Exam ples</w>
C M</w>
st ants</w>
s atelli
refurb ished</w>
f ec
bi o</w>
b ore</w>
uns ere</w>
spon sor
om er
is .com</w>
inj uries</w>
gu esthouse</w>
ex citement</w>
e de</w>
c ements</w>
Concer t</w>
Citiz ens</w>
enli ven
So on</w>
Flu g
F est
Ex port</w>
Bat tle</w>
A e
vir tue</w>
os .htm</w>
crit erion</w>
back drop</w>
Vir g
V PN</w>
UR E</w>
Se as
Hans -
FRE E</w>
CO MP
AV I</w>
wid e-
um ental</w>
ti re</w>
suppl ying</w>
poo rest</w>
lo d
harmon ious</w>
bright ness</w>
al ert</w>
M ID
C ris
y oga</w>
quanti tative</w>
hondur as.amarillas
honduras.amarillas latinas.net</w>
far mer</w>
c c</w>
broad casting</w>
bit ter</w>
Zim bab
G RO
Develop er</w>
Br as
Bo b</w>
19 38</w>
l te</w>
confidenti ality</w>
Psy cho
IM E</w>
Gö tt
En de</w>
Dem o</w>
C ad
Al ic
AD S</w>
yp ag
u an</w>
re mun
m ails</w>
ent en
cuba. net</w>
Lig ur
18 8</w>
threat ening</w>
kni fe</w>
fed ora</w>
cat aly
accum ulation</w>
D G
CO MM
196 0s</w>
re t</w>
ni er</w>
g ir</w>
bare ly</w>
ab sur
W E</w>
Pi ano</w>
Mar kets</w>
Gr und
E mbass
Bratis lava</w>
tour ing</w>
st res
mas chin
explan ations</w>
d ll
ca sts</w>
ban ner</w>
Stud ent</w>
Pro motion</w>
P ast
IT E</w>
list ings</w>
deplo yed</w>
c ed
R ho
3 55</w>
u ality</w>
shel f</w>
set -up</w>
cle ared</w>
P es
rus tic</w>
organ ising</w>
j Query</w>
av i</w>
atlan ta
U tilities</w>
Through out</w>
T age</w>
DL R</w>
Cre ator</w>
4 21</w>
25 00</w>
vari ation</w>
sh ades</w>
rati fication</w>
question n
po c
g ateway</w>
bil der</w>
ash ing</w>
ari zon
C any
10 10</w>
y an</w>
ve y
stra p</w>
soc ket</w>
mar ina</w>
law ful</w>
dem ographic</w>
c 9
bu t
broad band</w>
beli efs</w>
anxi ety</w>
Se x</w>
stret ched</w>
slog an</w>
gel aden</w>
f est
ded ication</w>
de bi
Mast ers</w>
2 22</w>
19 55</w>
- 16</w>
t ung
posi tively</w>
l ever
fr ac
fit tings</w>
amb ass
Test bericht</w>
R and
Pots dam</w>
Hoch schule</w>
Embass y</w>
Comp ared</w>
Cha ir</w>
24 2</w>
19 54</w>
stoc k
scienti st</w>
n essed</w>
mer ged</w>
gradu ated</w>
fore stry</w>
fl ags</w>
cri tics</w>
com modities</w>
art -
any body</w>
U ser
Cont ents</w>
wa x</w>
on ds</w>
ls g
i os</w>
es cal
d ressed</w>
assess ing</w>
Liter ature</w>
Let ter</w>
B eds</w>
t ments</w>
et on</w>
bun al</w>
sev en
pro du
moment um</w>
am ending</w>
Administr ative</w>
dis order</w>
T ony</w>
T H</w>
Rec o
Mel i
Ex cell
17 9</w>
w end
termin ation</w>
ine .com</w>
env elop
am end</w>
absor ption</w>
IS T</w>
visi on
tr usted</w>
son o</w>
sol l</w>
ren e</w>
dec iding</w>
conv ey</w>
Y acht
Tor onto</w>
Gen der</w>
1 200
ypag ess
under water</w>
sp an
p y
den -
ci um</w>
arbitr ary</w>
aci o</w>
Sup ply</w>
Pun ta</w>
Il lu
end ang
dram atically</w>
cha os</w>
T au
Har mon
5 60</w>
4 13</w>
tren dy</w>
ti ans</w>
schol ar
ref usal</w>
las ted</w>
ins ist</w>
fo tk
dang ers</w>
bear ings</w>
are a.net</w>
ag ent
Sle eping</w>
L ost</w>
Ira qi</w>
36 -
po d</w>
nit z</w>
images .
ac him</w>
I g
tr icks</w>
tig en</w>
tem ap</w>
sho res</w>
p ut
houston .com</w>
hom emade</w>
an ism</w>
ac tress</w>
Ven us</w>
Comman der</w>
19 52</w>
. blogspot.com</w>
www.pure area.net</w>
sent enced</w>
lsg faq</w>
f ills</w>
en w</w>
el eph
cul t</w>
con f</w>
Zeit ung</w>
K B
J ul
y- foto
y-foto .cz</w>
v et</w>
r icul
par as
hoo ds</w>
fotk y-foto.cz</w>
favor able</w>
et t</w>
er .htm</w>
ass a</w>
Dr agon</w>
4 30</w>
sp in</w>
over seas</w>
mid night</w>
T .
M ut
vo y
p d
in tim
e 6
ak ers</w>
Th essal
Gu ard</w>
www.tu er
th af
Unter nehmen</w>
Direc tory</w>
AS A</w>
g ent</w>
de struc
cli ffs</w>
bit te</w>
ambi tion</w>
Air bus</w>
5. 4</w>
wholes ale</w>
u gg
tal ented</w>
neg lec
d ing
bi as</w>
be ans</w>
au tion</w>
ane ous</w>
Mul timedia</w>
Cri minal</w>
Cin ema</w>
Bang kok</w>
19 33</w>
- European</w>
x is</w>
gro cer
enc e
el n</w>
Exper im
. fr</w>
Án gel
safe guar
li b</w>
j ar
[...]
